#version: 0.2 - Trained by `huggingface/tokenizers`
Ø §
Ġ Ø
Û Į
Ø ±
Ù Ĩ
Ù Ī
Ù ĩ
Ù ħ
Ø ¯
Ø ª
Ø§ Ø
Ù Ħ
Ú ©
ĠØ ¨
Ġ Ùħ
Ø§ ÙĨ
ĠØ ¯
Ø§ ÛĮ
Ø ³
â Ģ
âĢ Į
Ġ Ø§Ø
Ġ ÙĪ
Ø§ Ø±
Ġ Ú©
Ù ģ
Ø ´
Ú ¯
ĠØ¯ Ø±
Ø ¨
Ù Ĥ
ĠØ ³
ĠØ ´
ĠØ ª
Ġ ÙĨ
ĠØ ±
Ø§ ÙĦ
Ø ²
³ Øª
Ø Į
Ù ¾
Ø¯ Ùĩ
ĠØ¨ Ùĩ
Ø ¹
ĠØ ¢
ĠØ§Ø ²
ÙĨ Ø¯
Ø§ Ùħ
ÙĪ Ø±
Ġ Û
Ġ Ø§ÛĮ
ĠÙħ ÛĮ
Ø³ Øª
ÙĪ Ø¯
ÛĮ ÙĨ
ĠØ§Ø ³Øª
Ġ Ùĩ
Ġ Ù¾
ĠÚ© Ùĩ
ÛĮ Ú©
Ø ¬
Ø ®
Ø§ Ø¯
ĠØ ¬
Ġ Ùģ
ĠØ¨ Ø±
Ùĩ Ø§ÛĮ
Ġ Ø§
ĠØ ®
ÙĦ ÛĮ
± Û
ĠØ§ÛĮ ÙĨ
Ø§ Ùĩ
Ø Ń
Ġ Ú¯
Ø± Ø¯
ÙĪ ÙĨ
Ú Ĩ
Ø± ÛĮ
Ø§ Øª
ĠØ ¹
Ø ·
Ø§Ø ¨
Ġ ÙĤ
Ø§Ø ²
ĠØ± Ø§
ÛĮ Ø±
ĠØ ²
ĠÛ ±Û
ÙĪ ÛĮ
ĠØ Ń
Ġ ÛĮÚ©
Ġ (
Û °
ĠØ¨ Ø§
Ø§Ø ³Øª
Ø³ ÛĮ
Ø§Ø ´
ĠØ¢ ÙĨ
Ø§Ø ³
Ø µ
Øª Ø±
ÙĪ ÙĦ
Ø§ÙĨ ÛĮ
Ùĩ Ø§
Ø§Ø± ÛĮ
ĠØ³ Ø§ÙĦ
ÛĮ ÙĦ
Øª Ùĩ
ÙĪ Ø§ÙĨ
ÛĮ Øª
Ø± Ø§ÙĨ
ĠØ´ Ø¯Ùĩ
ÙĪ Ùħ
Ġ Ø§ÙĨ
ĠÙĩ Ùħ
ÛĮ Ø§
Ù Ķ
Ø§Ø± Ø¯
ÛĮ Ø¯
Ġ ÚĨ
Ùĩ Ø±
ĠØ´ Ø¯
Ø± ÙĪ
ĠØ± ÙĪ
ÛĮ Ùħ
ĠØ¨ ÙĪØ¯
¹ Û
Ø³Øª Ø§ÙĨ
ĠØ§ ÙĪ
Øª ÛĮ
Ø§ Ø¯Ùĩ
Ø§ÛĮ ÛĮ
ĠÛ ²
Ùħ Ø§ÙĨ
Ø§ ÙĤ
Ùģ Øª
Ø± Ú©
ĠÙħ ÙĨ
Ú ĺ
ĠØª ÙĪ
ÙĨ Ú¯
ĠØ¨Ø± Ø§ÛĮ
ĠÚ© Ø±Ø¯
³ Û
ĠØ ·
Ġ ÙĦ
Ø ¶
Ø§Ø ®
ĠØ µ
ĠØ´ ÙĩØ±
Ú¯ Ø§Ùĩ
ÛĮ Ø´
Ø º
Ùģ Ø±
Ø °
ĠÙħ ÙĪ
Ú¯ Ø±
Ø± Ø¨
ÛĮ Ø²
Ġ Ø§Ùħ
ĠØ¢ Ùħ
ĠÙģ Ø±
ĠØ¯ Ø§Ø±Ø¯
Ú¯ ÛĮ
ĠÙħ ØŃ
Ø§ Ú©
ĠÚ© Ø´
ĠØ¨ Ø§Ø²
ĠØ§Ø ³
ĠØ¬ Ùħ
ĠØ® ÙĪØ¯
Ø ¢
Ġ ÛĮØ§
ĠÙħ Øª
ĠÙħ Ø³
ĠØ³ Ø±
Ùħ ÛĮ
Ø «
ĠÚ© Ø§Ø±
Ø ¸
Ø ¦
Û° Û
ĠÙĤ Ø±
Ø§Ø¯ ÛĮ
ĠÛ±Û ¹Û
ÙĦ Ùĩ
Ġ Ø§Ø±
Ø§Ø Ń
ĠØ§ÛĮ Ø±Ø§ÙĨ
Ø§Ø± Ùĩ
Ø´ ÙĪØ¯
ĠÙħ Ø¹
Ø§ÙĨ Ø¯
ĠÙĨ Ø§Ùħ
Ø¨ ÛĮ
ĠØ¯ ÛĮ
ÙĨ ÛĮ
Ø§Ø ¹
ÙĪ Øª
Ø§ÙĤ Ø¹
¸ Û
Ø² ÛĮ
ĠÙĪ Ø§ÙĤØ¹
ĠØ¯ ÙĪ
Ġ Ø§ÙĦ
ĠÙĪ ÛĮ
Ġ Â
Ø§ÙĨ Ùĩ
Ġ ÛĮ
ĠØ³ ÛĮ
Ø§ Ùģ
Â »
ĠØª Ø§
Ø¨ Ùĩ
Ø¨ Ø±
ĠÂ «
Ú© ÙĨ
ÙĤ ÛĮ
Ø¯ Ø±
ĠÚ¯ Ø±
ÙĪØ± ÛĮ
ÙĪØ± Ø¯
ÙĪ Ø´
Ø§ÙĦ ÛĮ
Ø¯ ÛĮ
ĠÚ© Ø±
ÙĨ Ø¯Ùĩ
ĠÙĤØ± Ø§Ø±
Ø¹ ÛĮØª
Ø§Ø´ Ø¯
ÙĪ Ø¯Ùĩ
Ùħ ÛĮÙĨ
Ø® Ø´
ĠØ¯ Ø§Ø´
ĠÛ±Û ³Û
ĠØ º
ÙĪ Ø²
ĠÙĨ ÙģØ±
ĠØ¯ Ùĩ
ĠØ±ÙĪ Ø³Øª
ĠÙĨ ÛĮØ²
ÙĤ Ùĩ
Ø¹ Ùĩ
ĠÙħ Ø¬
ĠÙĨ Ùħ
Ġ "
ĠÙ¾ Ø³
ÙĨ ÙĪØ§ÙĨ
ĠØ¯ Ø³Øª
ĠÙħ Ø´
ÙĪÙĨ ÛĮ
Ø± ÛĮÚ©
Ø§Ùħ Ùĩ
ĠÙħ Ø±
Øª ÙĪØ§ÙĨ
Û ²
ÙĪ Ø³
ĠØ¬Ùħ Ø¹ÛĮØª
ĠÙģ ÛĮÙĦ
Ùģ ØªÙĩ
ĠØ¯ Ø§Ø±
ĠÚ© ÙĨ
Ø´ Ùħ
ÙĪ Ø¨
Ø§Ø ¬
ÛĮ Ùĩ
ÙĪ Ùĩ
ĠØ¨ ÙĪØ¯Ùĩ
ĠØ§Ø ´
Û µ
ĠØ¨ Ø®Ø´
ĠÙħ Ø¯
ĠØ¯ ÙĪØ±
ĠØ¯ Ø§ÙĨ
Ù ĭ
Ø´ Øª
ĠØ¢Ùħ Ø±ÛĮÚ©
Ø§ÙĦ Ø§Øª
ĠÙħ ÙĤ
ĠØ´ÙĩØ± Ø³ØªØ§ÙĨ
ĠÛĮÚ© ÛĮ
Ø² Ø§Ø±
Ø Ľ
Û ±Û
ĠØ¨Ø§Ø² ÛĮ
ĠØªÙĪ Ø³
ĠÙĨ ÙĤ
Ø´ Ú©
ĠØ³ Ø§Ø®
Ú© ÙĨØ¯
ĠÚ©Ø´ ÙĪØ±
ĠÙħ Ø±Ú©
ÙĨ ÛĮÙĨ
ĠØ¹ ÙĨÙĪØ§ÙĨ
ĠØ¢ ÙĦ
Ø§Ø ·
ĠÙĩ Ø±
Ùħ Ø¯
Ø¬ Ùĩ
Ø¹ Ø¯
Ø§ Ù¾
Ú© Ùĩ
Û ´
ĠÙĨ Ø¸
Ø¨ Ø§ÙĦ
ØªØ± ÛĮÙĨ
ĠØ¨ ÛĮ
Ø® Øª
ĠÙģÛĮÙĦ Ùħ
Ø± Ùģ
Ø´ ÙĨ
ĠÙĨ ÙĪ
Ø§Ùħ ÛĮ
ĠØ´ Ùħ
Ġ Úĺ
Ùģ Ø§Ø¯Ùĩ
ĠØ¹ ÙĦ
ĠØ§ Ùĩ
ÙĪ ÙĨØ¯
ĠØ¹ Ùħ
ĠØ§Ø ¹
ĠØ§Ø³Øª ÙģØ§Ø¯Ùĩ
ĠØ§Ø³Øª Ø§ÙĨ
Ø§Ø ¦
Øª Ø´
ĠÙĩÙħ ÚĨ
Û ·
ĠÙ¾ Ø±
Û ¶
Ø¨ Øª
Ø§Ø³ ÛĮ
Ø¨ Ø§ÙĨ
ĠÚ©Ø± Ø¯Ùĩ
ÙĪØ± Øª
Ø§Ø µ
ĠØ§Ø µ
Ø¬ ÙĪØ¯
ÙĪ Ø§Ø±
ÙĨ Ø§ÙħÙĩ
ĠÙ¾ ÛĮØ´
ĠØ¬ Ùĩ
ĠÙħ Ùĩ
Û° Û°
ĠÚ© Ùħ
Ø² Ø±
ÙĩØ§ÛĮ ÛĮ
ĠØ§Ø ¨
Ø§Ø±ÛĮ Ø®
Ø £
ĠÙħÛĮ ÙĦ
ĠØª ØŃ
Ø§ÛĮ Ø´
ĠÙ¾ Ø§ÛĮ
ĠØªÙĪØ³ Ø·
ĠØ¬ ÙĨ
ĠØ¢ÙħØ±ÛĮÚ© Ø§
ĠØ¨ ÛĮÙĨ
Ø§Ùħ ÙĦ
ĠØª Ø±
Ú¯ Ø§ÙĨ
ĠØ¯ Ø§Ø¯
ĠØ¨ ÛĮØ´
ÙĪ Ú©
ĠØª Ø§Ø±ÛĮØ®
Ø±Ú© Øª
ĠÛ² Û°Û
ĠÙĨ ÛĮ
ĠÙĩ Ø³Øª
ĠÙħÙĨ Ø·
ĠØ¯ÛĮ Ú¯Ø±
Ø§Ø² ÛĮ
ĠØ² ÛĮØ±
Ø¹ ÛĮ
Ù Ĳ
Ø§Ø± Ú©
Ø¨ Ø§Ø´Ø¯
Ø³ Ùĩ
ĠØ§ ÙĪÙĦ
Ú© ÙĦ
ĠÚ© ÙĦ
Ġ Ø§Ø¯
Ú¯ Ø±Ø¯
ĠÙħÙĨØ· ÙĤÙĩ
ĠØ§ÙĨ Ú¯
ĠØ¨ ÙĨ
ĠØ¯Ø§Ø´ Øª
ĠÛ²Û°Û ±Û
ĠÙĨ Ø´
Øª Ø§Ø¨
Ùħ ÙĨ
ÙĨ Ø¬
ĠÙħØª ØŃ
ÙĪÙĨ Ùĩ
ĠØ¯Ø§ÙĨ Ø´
ĠØ§Ø ¬
ĠØ§ÙĨ Øª
ĠØ¨ Ø³ÛĮ
ĠØ§ Ùģ
ĠÙ¾ ÛĮ
ĠÙģ ÙĪØª
ĠÙħ Ø±Ø¯
ĠÙħ ÙĦÛĮ
ĠØ² ÛĮ
Ø± Ùĩ
ĠØ¨ Ø²Ø±
ĠÛ² Û°
Ùħ Øª
ĠØª ÙĨ
Ùħ Ø§ÙĨÛĮ
ĠØ±ÙĪØ³Øª Ø§
ĠØ± ÙĪÛĮ
Ġ Ċ
ĠÙĩÙħÚĨ ÙĨÛĮÙĨ
ĠØ§Ùħ Ø§
Ø§Ø± Øª
ĠØ¨ Ø¯
ĠØ «
ĠØ¨ ÙĦ
Ù «
Ú¯ Ø°
ĠØ® ÙĪ
ĠØ´ Ø±
ĠØ§Ùĩ ÙĦ
ĠØ´ Ø±Ú©Øª
ĠÙħÛĮÙĦ Ø§Ø¯ÛĮ
Ù ¬
ĠÙĪ Ø¬ÙĪØ¯
Ø§ ÙĪ
ĠÙģÙĪØª Ø¨Ø§ÙĦ
ÙĪ Ø¦
ĠØ§ Øª
Ø® Øµ
ĠØ±ÙĪ Ø²
Ø´ ÛĮ
ĠÛ ´
ĠØ¢ Ø¨
ĠØµ ÙĪØ±Øª
ĠÙħ ÙĪØ±Ø¯
Ø´ Ø¯
ĠØ¯Ø§Ø´ ØªÙĩ
ĠØ¨ Ø§Ø´Ø¯
Ùħ ÙĪ
ĠØ¯Ø± ÛĮØ§
Ø§Ø¨ Ø±
Û ³
ĠÙĩ ÙĨ
ĠØ§ÙĨ Ø¬
ĠØ§ÛĮ Ø§ÙĦØ§Øª
ĠÙħØªØŃ Ø¯Ùĩ
Ø§ÙĦ Øª
Ø§Ùĩ ÛĮ
ĠØ¨ Ø§Ø±
Ø² Ùĩ
ĠÚ¯ Ø±ÙĪ
ĠÙĩØ³Øª ÙĨØ¯
ĠÚ© ÛĮÙĦ
ĠØª Ùĩ
Û ¸
ĠÚĨ Ùĩ
ĠÚ© ØªØ§Ø¨
ĠØ® Ø§ÙĨ
ĠØ¨ Ø§Ø´
ÙĪ Ù¾
ĠØ³Ø§Ø® Øª
ÛĮÙĨ ÛĮ
Û ±
ĠØª ÙĦ
ĠÛ µ
ĠØ³ Ø·
ĠÙħ Ø±Ø¨
Ø§ÛĮ Øª
Ùģ ÛĮ
Ø§ÛĮ Ø¯
ĠØ³ Ù¾
ĠØª Ø£
Ú© ÛĮ
ĠØ§Ø´ Ø§Ø±Ùĩ
ĠØª ÛĮÙħ
Ø¯ Ø§
ĠØ¨Ø²Ø± Ú¯
ĠØ³ ÙĦ
ÙĨ Ùĩ
ĠÙħ ØªØ±
ĠÚ¯Ø±ÙĪ Ùĩ
ĠØ§Ø Ń
Ùħ Ùĩ
ĠØ¬ ÙĨÚ¯
ĠØ¹ Ø¨
ĠØ³ Ø§Ø²
ĠÙħØ±Ú© Ø²
ĠÛ²Û° Û°Û
ĠØ² Ø¨Ø§ÙĨ
ĠÙģ Ø¹
ĠØ³ Ùĩ
Ø² Ø¯
ĠÚĨ ÙĨØ¯
ĠØ³Ø· ØŃ
o r
ĠØª Ùħ
ĠØ§Ø ®
ĠØ² ÙħØ§ÙĨ
ĠØª Øµ
ĠØ² ÙħÛĮÙĨ
Ùħ ÙĦ
Ø§Ø¨ Ø¹
Ø¯ Ø§Ø±
Ùĩ ÙĨÚ¯
ĠÙĨ Ø³
Û ¹
ĠÙħ Ø§ÙĨ
ĠÚ©ÛĮÙĦ ÙĪÙħ
ĠØ¯ÙĪØ± Ùĩ
ĠÚ© ÙĨØ¯
ÚĨ Ùĩ
ĠØ¬ Ø§ÛĮ
Ġ ÙĦÛĮ
Ø± Ùħ
ĠØ´ ÙĨ
Ú© Ø§ÙĨ
ĠÙĩ ÙĪ
ĠØ± Ø³ÛĮ
Ø´Ùħ Ø§Ø±ÛĮ
Ú©ÙĨ ÙĨØ¯
Ø§ÛĮ ÙĨ
ĠØ¨ Ø§ÙĦ
Ø§Øª ÛĮ
ĠØ¨Ø± Ø®
ĠØ§ ÙĤ
Ú© Ø±Ø¯
Ø§Ø¨ ÙĦ
ĠØ¨ Ø¹Ø¯
ĠØ§ÙĨÚ¯ ÙĦÛĮ
ÛĮ Ø³
Ø´ ØªÙĩ
Ø¯ Ø§ÙĨ
ĠØª Ø±Ú©
Øª Ùħ
ĠÚ¯ Ø±Ø¯
ĠÚ¯Ø± ÙģØª
Ø± Ø²
ĠØ¯ Ø§Ø¯Ùĩ
ĠØ ¶
ĠØ§Ø «
Ø³Øª Ùĩ
ÙĪ Ø·
Ø± Ø§
ĠØ· ÙĪÙĦ
ÙĨØ¯ Ú¯ÛĮ
Ġ )
ÙĤ ÙĦ
ĠÙħ Ø·
ĠØ³Ø± Ø´ÙħØ§Ø±ÛĮ
ĠØ± Ø³
ÙĦÛĮ Ø¯
ĠØ¯Ø§ÙĨØ´ Ú¯Ø§Ùĩ
ĠØ¯Ùĩ Ø³ØªØ§ÙĨ
ĠÙģØ¹ Ø§ÙĦ
ĠØ§ Ú©
Ø± Ø§Øª
ĠÙĨ Ø®
ÙĦ Ø§Ùħ
ÙĦ Ø³
Ùģ Ùĩ
ÙĪÛĮ Ø³
ÙĨØ¯ ÛĮ
ĠØ´ ÙĪØ¯
ĠØ§ÙĨ Ø¯
Ø§Ø ¶
ĠÛ ¶
ĠØ§ÙĨØ¬ Ø§Ùħ
) ØĮ
âĢ ĵ
Øª Ø¨
ĠØŃ Ø¯
ĠÙħ Øµ
ĠØ§ÙĨÚ¯ÙĦÛĮ Ø³ÛĮ
ÛĮÚ© ÛĮ
¸Û µ
ĠØ´ Ùĩ
ĠØ¯ ÙĪÙħ
ĠØ¹ ÙĦÛĮ
Ø¯ ÛĮØ¯
ĠØ± ÛĮ
ĠÙģ Ø±Ø§ÙĨ
Ú¯ÛĮ Ø±ÛĮ
ĠÙĨÙĤ Ø´
ĠÛ ³
Ø±Ø¨ ÛĮ
Ú© Ø±
Øª Ø±ÛĮ
ĠØª Ø¨
ĠØ¯Ø§Ø± Ø§ÛĮ
ĠØ³ ÙĨ
ÙĦ Ø§
Úĺ Ùĩ
ĠØŃ Ø³
Ø¨ Ø±Ø¯
ĠÚ© ÙĪ
ÙĨ Ø§ÙĨ
Ø§Ø¯ Ø±
ĠØª ÙĤ
ĠØ± Ø§Ùĩ
ĠØ§Ø ·
a n
Ú© Ø§Ø±
ĠØ´ Ø§Ùĩ
ĠÙĩ ÛĮ
ĠØ¢ Ø²
Ø± Ø§Ùĩ
e r
ĠÚ©ÛĮÙĦÙĪÙħ ØªØ±
ĠÛ ³Û
ÙĦÛĮ ÙĦ
ÙĦ ÙĪ
ĠØ¯ ÙĪÙĦ
ÙĪÙħ ÛĮ
ĠÙĨØ¸ Ø±
ĠØ² Ø§Ø¯Ùĩ
ĠÙħØ¬ ÙħÙĪ
ĠÚ¯ Ø°
ÙĪØ¯ ÛĮ
ÛĮØ± Ùĩ
ĠÚĨÙĩ Ø§Ø±
ĠØŃ Ø§ÙĦ
Ø³ Ø§ÙĨ
ĠØ§Ø« Ø±
ĠÛ ±
ĠÙħ ÙĦ
ĠÙħÛĮ Ø§ÙĨ
Ġ( ØĽ
i n
ĠÛ ·
ĠØ³Ø§Ø® ØªÙĩ
ĠØ¨ÙĪØ¯ ÙĨØ¯
ĠÙħØ³ Ú©
ĠØ¢ Ø±
ĠÚ¯ ÙĦ
ĠÙħØ±Ú© Ø²ÛĮ
o n
ÛĮÙħ ÛĮ
ĠØ´ ÛĮ
ĠØ¨Ø§Ø´ Ú¯Ø§Ùĩ
Ø¯Ùĩ Ø¯
ĠØªÙĪ ÙĦÛĮØ¯
ĠÙĨ ÛĮØ±
Ø§ Ú¯
ĠÙĤ Ø¨
Ø§Ø² Ùĩ
Ø¬ ÛĮ
ĠØ¨ÛĮØ´ ØªØ±
ĠÚ¯Ø± ÙģØªÙĩ
ĠØ§ÛĮ Ø±
ĠØ¨Ø± ÙĨØ§ÙħÙĩ
ĠØ¢ Ø«
Ø³Øª Ø±
Ø§ØŃ Øª
Ø³Øª Ùħ
Ú¯ Ø±ÛĮ
Ø´ ÙĪÙĨØ¯
Ø· ÙĪØ±
ĠØ« Ø¨Øª
ĠØ´ ÙĪØ±
ÛĮÙĨ Ú¯
Ø¢ Ø¨
ĠØ® Ø·
ĠÛ±Û °
Ø³ Ø±
ĠØª Ø¹
Ø§ ÙĪØ±
ĠÙĨØ® Ø³Øª
Ø® Ø§ÙĨ
ĠÙħ Ø®Øª
ĠÙ¾ Ø±ÙĪ
ĠØ¨Ø³ÛĮ Ø§Ø±
Ø® Ø§Ø¨
ĠÙħ Ø§Ùĩ
ĠÙģØ¹Ø§ÙĦ ÛĮØª
ĠØ¨Ø± Ú¯
ĠØª Ø¬
Ø§Ø´ Øª
Ø´ Ø§ÙĨ
Ġ -
ĠØ´ Ø¨
ĠØ· Ø±
ĠØ¢Ø« Ø§Ø±
ĠØ§Øµ ÙĦÛĮ
Øµ Ø¯
Ø§ÛĮ ÙĦ
ĠØŃ Ùħ
ĠÙħØ³Ú© ÙĪÙĨÛĮ
ĠØ§ÙĨØª Ø®Ø§Ø¨
Ø§Ø º
ĠÙĨ ÙĪØ´
ÛĮÙĨ Ùĩ
ĠØ§ÙĪÙĦ ÛĮÙĨ
ÙĦ Ùģ
ĠÙĤ Ø·
ĠÙħØ§ÙĨ ÙĨØ¯
ĠÙĨ ÙħÛĮ
ĠÙģ Ø§Ø±
Øº ÛĮ
ÙĪ ÙĦÛĮ
ÛĮØ´ Ùĩ
ĠÙħØ¹ Ùħ
l a
Û ³Û
ĠØ±ÙĪØ³Øª Ø§ÛĮÛĮ
Ú© ØªØ±
Ú© Ø³
ĠØ³ Ø¨
ØªØ´ Ø±
ĠÙħØ±Ø¯ Ùħ
Ø± Ø³
ĠÙħ Ø³Øª
ĠØ¢ Øº
ĠØ®ÙĪ Ø§Ùĩ
ĠÙħÙĨ ØªØ´Ø±
ĠØ °
ĠØ¬ Ø§Ùħ
ĠØ¯Ø§Ø± ÙĨØ¯
Ø§Ùħ Ø¨Ø±
Ø§Ú© ÙĨ
Ù İ
Ø¶ ÙĪ
Ø§ÛĮ Ø±
Ø® Ø§ÙĨÙĩ
Ø§Ø® Øª
ĠØªÙĪ Ø§Ø¨Ø¹
ĠØ¢Ùħ Ø§Ø±
ĠÙħØ³ Ø§ØŃØª
ĠÙħØŃ ÙħØ¯
ÛĮ Ø¯Ùĩ
ĠØ´ Ø§ÙħÙĦ
Ø§ÙĨÛĮ Ø§
Ø§Ø³ Ø§Ø³
ĠÙģØ± ÙĪØ¯
ØªÙĪØ§ÙĨ Ø¯
ĠØªÙĩ Ø±Ø§ÙĨ
ĠØŃ Ú©
ĠÙħ Ø®
Ø¯ ÙĨ
ĠØ¬ Ø²
ĠØ¬ Ø§ÙĨ
Ø§Ø³Øª Ø§ÙĨ
Ġ C
Ø§Ø¨ ÙĤ
ĠÙħ Ø«
ĠØ¬Ùĩ Ø§ÙĨ
ÙĪ ÙĤ
ĠØ¨Ø± Ø§Ø³Ø§Ø³
ĠØ¨Ø±Ø® ÛĮ
ĠØ³Ø§Ø² ÙħØ§ÙĨ
ĠØ¨Ø± Ø§Ø¨Ø±
ĠÛ±Û¹Û ¹Û
ĠÙħÙĪ Ø³ÛĮ
ĠÙĪ ÙĦÛĮ
Ø¨ Ø§Ø±
ĠØ¨ Ø§ÙĦØ§Øª
ĠØ¨ ÛĮÙħ
ĠØ¢Øº Ø§Ø²
ĠØ² ÙĨØ¯Ú¯ÛĮ
Ø· Ùĩ
ĠØ¯ ÙĨ
ĠÙħØ¬ÙħÙĪ Ø¹Ùĩ
ĠÛ±Û ²
ĠÙĨØ´ Ø§ÙĨ
Øª ÙĦ
Ø§Ø® ØªÙĩ
ÙĪÛĮ ÛĮ
ĠØ³ÛĮ Ø§Ø±Ú©
ĠÙħ Ùħ
Øª Øµ
ĠÙĩÙħ Ø±Ø§Ùĩ
ĠÙĤ ÙĦ
ĠØ¨Ø§ÙĦØ§Øª Ø±
ĠØ¨ Ø¹
Ø¹ Øª
ĠÚ© ÙĦÛĮ
ĠØ´ Ú©
Ø¯ Ùħ
Ø¢Ø¨ Ø§Ø¯
Ø¨ Ø§
ĠÙĨ Ùĩ
ĠÚ¯ ÙĪÙĨÙĩ
Ø® ÙĪ
ĠÛ±Û³Û ¸Ûµ
ĠÚ©Ø±Ø¯ ÙĨØ¯
ĠØ´ Ú©ÙĦ
Ø§ÛĮ Ùĩ
ĠÙĩÙħ Ø§ÙĨ
Ø¬ Ø§Ø¯
Ø± ÙĪØ¯
Ø² Ø§Ø¯Ùĩ
Ùħ Ø§
ĠØ± ÙģØª
ĠØ Į
ĠØ¬Ùħ Ùĩ
ÙĪ Ø³Øª
ĠÙĨ Ø²Ø¯
ĠØ¯ÙĪÙĦ Øª
ĠØº ÛĮØ±
ĠØª ØºÛĮ
ĠØ¯ ÙĦÛĮÙĦ
ĠØ§Ø³ Ù¾
ĠÛĮØ§ ÙģØª
Û ¹Û
ĠØª Ø´Ú©
ĠØ¹ Ø±
e n
ĠØªÙĨ ÙĩØ§
Ø±ÛĮ ÙĤ
ĠØ§ÛĮ Ø¬Ø§Ø¯
ĠØ¨Ø³ÛĮ Ø§Ø±ÛĮ
ĠÙĨÙħ ÙĪØ¯
ĠÚ©Ø±Ø¯ ÙĨ
Ø³ Ø§Ø²ÛĮ
ĠØªØºÛĮ ÛĮØ±
Ø§ØŃ ÛĮ
ÙĪØ± Ø´
Ø¨ Ø§Ø±Ùĩ
ÙĨ Øª
Ø± Ø³ÛĮ
ĠÙĩÙĨ Ø±
ĠØ¬Ùħ ÙĦÙĩ
ĠÙħÙħ Ú©ÙĨ
ĠÙĤ Ø¯Ø±
ĠÚ© Ø§ÙĨ
ÙĪ Ùģ
ĠÙ¾ ÛĮØ±
ĠÛ±Û ¸Û
ĠÚ©Ø´ ØªÛĮ
ĠØªØ´Ú© ÛĮÙĦ
ĠÚ©Ø´ Ùģ
ĠØ³ÛĮ Ø³ØªÙħ
ĠÙ¾ ÙĨØ¬
ĠØ¢ÙĦ ÙħØ§ÙĨ
ÙĦ ÙĤ
ĠØ§ Ú¯Ø±
ĠØ¬ÙħÙĩ ÙĪØ±ÛĮ
ĠÙħØ±Ø¨ ÙĪØ·
ÙĨØ¯ Ø§ÙĨ
Ø¯ Ø§Ùħ
ĠØ´Ø¯ ÙĨØ¯
ÙĪ Ø¨ÛĮ
ĠØ§Ø³ ÙĦ
Úĺ ÛĮ
ĠØª ÙĪØ§ÙĨ
ĠØª Ø¹Ø¯
a r
ĠØ´Ø¯ ÙĨ
ĠØ¯ÙĪØ± Ø§ÙĨ
Ġ A
Ùģ Ø§Ø¹
ĠØ® Ø§Ø±
Ø¬ Ø§
Ø§Ø¨ ÛĮ
ĠÙħÙĪØ³ÛĮ ÙĤÛĮ
Ġ S
ĠÙĨ Ø¯
Ù¾ ÛĮ
ĠØ³ ÙĪ
ĠØŃØ¯ ÙĪØ¯
ĠÙĩÙħ ÛĮÙĨ
ĠÙĩ Ø²Ø§Ø±
ĠÚ©Ø§Ø± Ú¯Ø±Ø¯
Ù ı
Øµ ÙĦ
ĠÙħ Ú©
ĠÚ©ÙĪ ÚĨ
ĠØ§Ùģ Ø²
ĠØ´ Ø®Øµ
ĠØ§Ø· ÙĦ
Ø¨ Ø±ÛĮ
ĠÙģ ÙĦ
Ø® Ùĩ
ĠØªÙĪ Ø¬Ùĩ
ĠØ±ÙĪ Ø´
ĠÙģØ± ÙĩÙĨÚ¯
Ø§ÙĦ ÛĮØ§
ĠØ¬ Ø¯ÛĮØ¯
Ø® Ø±
ÙĪÙĦ Ø§
Ġ( )
ÙĪÛĮ Ùĩ
ĠÙ¾ Ø±Ø¯
Øª ÙĨ
ÙĦ Ø¨
ĠØ§ÛĮØ± Ø§ÙĨÛĮ
Ø³Øª ÛĮ
ĠØ¬Ùĩ Ø§ÙĨÛĮ
ĠØ ¸
ĠØª Ú©
ĠÚ© ÙĪÙĩ
ĠØ¨ Ø§ÛĮØ¯
Ø§ÛĮ Ø¬
ĠØŃ Ø¶
ĠØ³ ÙĨÚ¯
ĠØ³ Ø±ÛĮ
ĠÙĨØ®Ø³Øª ÛĮÙĨ
ĠØ® ÙĪØ§ÙĨ
Ø¯ ÙĪ
Ø§ÙĦ ÙħÙĦ
ĠØ§ÛĮ Øª
Ùģ ÙĤ
Øª Ø§
ĠÙģØ±ÙĪØ¯ Ú¯Ø§Ùĩ
Ø¯ Ø§Ø¯
ÙĨØ¯ Ú¯Ø§ÙĨ
Øª ÙĤ
ĠÙħ Ø§Ø±
ĠØ¯ ÙĦ
ĠÙĩÙħ Ùĩ
Ø§ØŃ ÛĮÙĩ
Ú¯ ÛĮØ±
Û ¸Û
ĠØ± ÙĪØ¯
ĠÙĨÙħ Ø§ÛĮ
ĠØ§ ÙģØ±
ĠÙĪ ÙĤ
ĠØ´Ùĩ Ø±ÛĮ
Øª ÙĪ
Øµ ÛĮ
ÛĮÚ© ÙĨ
ĠÙħÛĮ ÙĦÛĮ
Ø¯ Ø§Ø±ÛĮ
Ø´ Ø§Ùĩ
ÙĪÙħ Øª
Ø¶ Ø§
Ø¨ ÙĪØ¯
Ùģ Ø§
ĠÚ¯ ÛĮ
Ø³ Ú©
ÙĤÛĮ ÙĤ
Øª ÙĪØ±
ĠÙħØ®Øª ÙĦÙģ
ĠÙĨÙĪ Ø¹
Ø´ÙĨ Ø§Ø³ÛĮ
ÙĨ ÙĪ
ÙĨ Ø§
ĠÚ¯ ÙģØªÙĩ
ĠÙĨÛĮ Ø³Øª
ĠÛ±Û µ
ĠØ³ Ùģ
Ù Ĭ
Ø ¤
ĠÙĩ ÙĨÚ¯
ÙĪÛĮ Ø²ÛĮ
ĠØ± Ø¦
Ø§Ùģ ÛĮ
f or
ĠØ¬ ÙĪ
ĠØªØ±Ú© ÛĮ
Ø³ Ø¨
e s
ĠÙħÙĩ Ùħ
ĠØ§Ø·ÙĦ Ø§Ø¹
ĠØ® ÛĮ
ĠÙģ Ø±ÙĪ
ĠØªÙĦ ÙĪÛĮØ²ÛĮ
Ø¯Ùĩ Ø§ÛĮ
ĠØ§Ø³ Ø§Ø³
ĠØ§Ø³ÙĦ Ø§ÙħÛĮ
ĠØ³ ÙĪÙħ
ĠØ· Ø¨
ÙĪÛĮ Ø¯
Ø®Ø§ÙĨ ÙĪØ§Ø±
m u
Ġ âĢĵ
ĠØ³ Øª
ĠØ¨Ø± ÛĮØª
ĠØ³ ÛĮÙĨ
Ø² Ø¨
a l
ĠÙĤ Ø¯
Ø±ÛĮ Ø§ÙĨ
ĠØªØŃ Øª
ĠÙħØ±Ø¨ Ø¹
ĠØŃ ÙĤ
ĠÙĨ Ú¯
ÙĪ ÙĩØ§ÛĮ
ĠÙģØ±Ø§ÙĨ Ø³Ùĩ
ĠØ¬ÙĨ ÙĪØ¨
Ø¶ Ø§ÛĮ
Ú¯ÛĮ Ø±Ø¯
ĠÙĨØ³ Ø¨Øª
Ġ M
ĠØ§Ø± ÙĪÙ¾
ĠØ®Ø§ÙĨ ÙĪ
ĠØ±Ø³ÛĮ Ø¯
ÛĮØ¯ Ø§
ĠÛ±Û¹Û ·
ĠØ´Ùħ Ø§ÙĦ
ĠØŃØ¶ ÙĪØ±
Ø±ÙĪ Ùģ
ĠÚ©ÙĨ ÙĨØ¯
ĠÙĨ Ø§ØŃÛĮÙĩ
Ø³ÛĮ Ø³
ĠÙ¾Ø§ÛĮ Ø§ÙĨ
ĠØ¯ ÛĮØ¯
ĠØ¨ Ø§Ø¹
ĠÙ¾ ÙĦ
Ú¯ Ø²
Ø§ÙĦ Ø¯
ĠØ´Ùħ Ø§Ø±Ùĩ
ĠÙģ Ø±Ø¯
ĠØ¨Ø§Ø¹ Ø«
ĠÙĨ ÙĪÛĮØ³
ĠÙħÙĪ Ø§Ø±Ø¯
ĠÙģØ± ÙħØ§ÙĨ
Ø¶ ÛĮ
Ø§Ø´ ÛĮ
ÙĨ Ø§ÛĮ
Ø³ ÙĦ
ĠÙĨÙħ Ø§ÛĮØ´
ĠØ¢Ùħ ÙĪØ²
ĠÙĤ Ø³
Ø§Ø¹ ÛĮ
ĠÙĩ ÙĨØ¯
Ġ .
ĠØº Ø±Ø¨ÛĮ
ĠÙĪ Ø§Ø±Ø¯
ĠÚ¯ ÙģØª
ĠØ´ÙĨ Ø§Ø®ØªÙĩ
ĠØ® Ø§ÙĨÙĩ
ĠØ§ÛĮ Ø§ÙĦØª
e d
ĠÚ© ÛĮ
ĠØ³Ù¾ Ø³
ĠØ²ÛĮ Ø§Ø¯ÛĮ
Û°Û° Û°
ĠØ± Ø´ØªÙĩ
ĠØ¹Ùħ ÙĦ
Ø±ÛĮ Ùĩ
ĠØ· ÛĮ
ĠØ¨Ø± Ø¯
Ø§ÙĦÙħÙĦ ÙĦÛĮ
ĠØ¯ Ø§Ø®
ĠÙ¾ Ø§Ø¯
mu la
Ø§ÙĦ Ùĩ
Øµ Ø±
ĠÙĩ Ø§ÛĮ
ĠÙĪ Ø±Ø²
for mula
ĠØ§Ø¨ Øª
ĠØ¢ Ø°
ĠØªÙħ Ø§Ùħ
ĠÛ±Û³Û ¹Û
ĠØ§Ø¹ ÙĦØ§Ùħ
Ú©ÙĨ ÙĨØ¯Ùĩ
ÙĪÙĨ Øª
ĠÙĤ Ø§ÙĨ
ĠÙ¾ Ø§Ø±
ĠØ±Ø¦ ÛĮØ³
Ù ĳ
ĠØ¢ Ø³ÛĮ
ĠØ¨Ø§Ø² ÛĮÚ©ÙĨ
ĠØ±ÙĪØ³Øª Ø§ÛĮ
ĠÛ±Û ·
ĠÙĨÙĪØ´ ØªÙĩ
ÛĮØ¯ ÛĮ
ĠÙĪ ÙĦ
Ø§Ø¨ Øª
ĠØ¢ÙĨ ÙĩØ§
ĠØ´ ÛĮØ±
Ø³ ÙĨ
ĠØ§ÛĮÙĨ Ú©Ùĩ
ĠØ±Ø³ÛĮ Ø¯Ùĩ
ĠÙĪ Ø²
ĠØ§Ø¯ Ø§ÙħÙĩ
Ø±ÛĮ Øª
ĠÛĮ ÙĪÙĨ
Ø§Ø± Ø§ÙĨ
ØŃ ÛĮ
Øµ ÙĪÙĦ
ĠÙĩ Ø¯
ĠØ± ÙĨÚ¯
ÙĪ Ø§Ø±Ùĩ
ĠØµ Ùģ
ĠÚ© Ø§ÙħÙĦ
ĠØ¬Ø§ÛĮ Ø²Ùĩ
Ùħ Ø±
ĠÙħ Ø¯Ø±
ĠØ¬ÙĨ ÙĪØ¨ÛĮ
Ø¹ ÙĨÙĪØ§ÙĨ
ÙĪÛĮ Øª
ĠØ¢ÙĦ Ø¨
ĠÛ±Û¹Û ¸Û
ĠÛ±Û¹Û ¶
Ú¯Ø° Ø§Ø±ÛĮ
ĠØ®Ø§ÙĨÙĪ Ø§Ø¯Ùĩ
ĠÛ ¸
i c
Ù¾ Ùĩ
ĠÙĨ ÙĪØ±
ĠÙĤ Ø§Ø¨ÙĦ
ĠÙ¾ Ø¯Ø±
ĠØªØ¹Ø¯ Ø§Ø¯
ĠØ§ÙĤ ØªØµ
ĠÚĺ Ø§Ù¾
Ø¬ ÙħÙĩ
ĠÙĩÛĮ ÚĨ
ĠØ§ÙģØ² Ø§ÛĮØ´
ĠØ´Ø± ÙĤÛĮ
ĠÙħÛĮ Ø²
ĠÙĩ ÙģØª
ĠÚĺ Ø§ÙĨ
ĠÙħÙĪ ÙģÙĤ
Ú¯ Ø±Ø§ÙĨ
ĠÙĤ ÙĩØ±
ĠØ³ ÙĪÛĮ
Ùħ Ø§ÛĮ
Ø± Ø§ÛĮ
ĠØ´Ø¨ Ú©Ùĩ
ĠØ³ÛĮ Ø§Ø³ÛĮ
ĠØ§Ø± Øª
Øµ ÛĮÙĦ
Ø³ ÙĪÙĨ
Ġ T
Ø³ÛĮ Ùħ
Ø§Ø¨ Ùĩ
ĠØ® Ø±
Ø° ÛĮØ±
ÙĪ Ø§
ĠØ²ÙħÛĮÙĨ Ùĩ
ĠÛ±Û ¶
ĠÙħ Øº
ÙĪÙĦ Ø¯
i s
ĠØ´ Ø¹
Ø§Ø ¸
Ø¯Ùĩ Ø§
ÙĤ Ø±
ĠØ± Ùĩ
ØªÛĮ Ø¬Ùĩ
ĠØªØ£ Ø³ÛĮØ³
ĠØ· Ø¨ÛĮ
ĠØ¯Ø± Ø¨Ø§Ø±Ùĩ
Ø¯ ÛĮÙĦ
ĠØ¯ Ø§Ø³ØªØ§ÙĨ
ĠÚ©Ùħ Ú©
ĠÚ¯ Ø³ØªØ±
a t
ĠÙħØŃ ØµÙĪÙĦ
Ġ P
ĠØ´ Ø±ÙĪ
ĠØ® Ø§Øµ
ĠÚ¯Ø±Ø¯ ÛĮØ¯
ĠÛ±Û ´
ĠÙħÙĪ Ø¬ÙĪØ¯
Ġ formula
ĠØ¢ ÙĪØ±
ĠØ· Ø±Ùģ
ĠÛ±Û¹Û ´
ĠØ¯ÛĮ Ú¯Ø±ÛĮ
ĠÚ©Ø§Ø±Ú¯Ø±Ø¯ Ø§ÙĨÛĮ
Ø¯ Ø§ÙĦ
ĠÙħØ± Ú¯
ĠØ§ÙĦ Ú©ØªØ±
ĠÙĨ ØªÛĮØ¬Ùĩ
ĠØ¯Ø± ÛĮ
ÙĦ ÙĨØ¯
ĠÚĨ ÙĪÙĨ
ĠØ² ÙħØ§ÙĨÛĮ
ĠÚ© ÙĪØ¯
Ú© Ø§Ø±ÛĮ
ĠÙĤØ¨ ÙĦ
ĠÛĮ Ø§Ø¯
ÙĨ Ø´
ĠØ®ÙĪØ§Ùĩ Ø¯
Ø§ÙĨ Øª
ĠØ¨Ø±ÛĮØª Ø§ÙĨÛĮØ§
ĠÙħØŃ ÙĦ
Ø³Øª Ø§ÙĨÛĮ
ĠÙħØ¬ ÙĦØ³
ĠÙĪ Ø§
Ø¹ ÙĨÛĮ
ĠØ§ÙģØ± Ø§Ø¯
ĠÙħ Ø¨
ÙĪØ² Ùĩ
Ù¾ Ø±
Ø³ Ùħ
ĠØ¬Ùĩ Øª
ĠØªØ¨ Ø¯ÛĮÙĦ
Ġ B
ĠÚ©ÙĪÚĨ Ú©
ĠØ¯Ùĩ Ùĩ
Ø§ÙĨ Ú©
ĠØ¯Ø±ÛĮØ§ ÙģØª
ĠØ´Ø±ÙĪ Ø¹
Ø§ ÚĨ
ĠÙħØ³ Ø¦
ĠØ·Ø± Ø§ØŃÛĮ
ØªÛĮ Ø¨
ĠÚĨ Ø´Ùħ
ĠÙħØ¹Ùħ ÙĪÙĦØ§
ĠØ¯ Ø®
ĠØµ Ø¯
ÛĮØª ÛĮ
ĠØ· Ø±ÛĮÙĤ
ĠØªØ§Ø±ÛĮØ® ÛĮ
Ø§Ø¨ÙĤ Ø§Øª
ĠØ§ ÙģØª
ĠÚ© Ø§Ùĩ
ĠØ§ÙĨØª ÙĤ
Ø±ÛĮ Ùģ
ĠÚĺ ÙĪØ¦
ĠÙĨÛĮ Ø§Ø²
ĠØ¹ÙĦ ÙħÛĮ
ĠØ³ ÙħØª
ĠÚ© Ø§Ùħ
ĠÙħ Ø°
ÙĪ Ú¯
ĠØ¢ ÙĪØ±Ø¯
ĠØªÙĦÙĪÛĮØ²ÛĮ ÙĪÙĨÛĮ
ĠØ¯Ø± Ú¯Ø°
ĠÙħ Ø¤
ĠØŃ Ø²Ø¨
ĠØ¯Ø± Ø¢
ĠÙĤØ± ÙĨ
ĠÙ¾ ÛĮØ¯Ø§
ĠØ² ÙĨ
ĠÛ ¹Û
ĠÙĤØ³ ÙħØª
Ø§ÙĨ Ú¯
ĠØ¨Ø§ÙĦ Ø§
ĠØ´Ùħ Ø§ÙĦÛĮ
i a
ĠØª Ø®
ĠÙħØ³ Ø§Ø¨ÙĤØ§Øª
ĠØ±ÙĪ Ø³ÛĮ
ĠØŃÚ© ÙĪÙħØª
ĠØ® ÙĪØ±Ø´
ĠØ§Ùħ Ø±ÙĪ
ĠØ¹ Ø¶ÙĪ
ĠØ¨ ÙĨÛĮ
ĠØ¢Ùħ Ø¯Ùĩ
ĠØ¨Ø¯ ÙĪÙĨ
Ùħ Ø²
ĠØ¹Ø¨ Ø§Ø±Øª
ĠÙģØ± Ø²
ĠØ§ÙĨ Ø³Ø§ÙĨ
Ø§Ø ¡
ĠÛ ¹
ĠÙħØ¯ Øª
ĠØ¬ ÙĦ
ĠÙģØ§Ø± Ø³ÛĮ
ĠÙħØ¹ Ø±ÙĪÙģ
ĠØ¢ Ø®Ø±
ĠØ± ÙĤ
ĠØ¢ÙĦØ¨ ÙĪÙħ
Ġ Ø§Ø±Ø¯
ÙĪ Ø³ÛĮ
ĠÙħØ´ Ùĩ
Ø§Øª Ø±
ĠØ¢ÙħØ±ÛĮÚ© Ø§ÛĮÛĮ
Ø§Ø¨ ÙĤÙĩ
Ø¬ Ø±
ĠØ§Ø± ØªØ¨
Ø§ÙĦ Ø¨
ĠØ§Ø±ØªØ¨ Ø§Ø·
ĠØªÙĪØ³ Ø¹Ùĩ
i t
ĠÙħÙĨ Ø§Ø·
Ø§Ø¦ Ùĩ
ÙĪØ±ÛĮ Ùĩ
ĠØ§Ø±Øª ÙģØ§Ø¹
Øª ÙĪÙĨ
Ø´ Ø§Ø±
ĠØ§Ø·ÙĦØ§Ø¹ Ø§Øª
Ø§Ú©ÙĨ ÙĪÙĨ
ĠÚ© ÙħÛĮ
ĠÛ±Û ¹
ĠØª ÙĪØ±
Ø§Øª ÛĮÙĨ
ĠØ§Ø¬ ØªÙħ
Ø² Ø´Ú©
ĠÙ¾Ø§ÛĮ Ùĩ
ÙĦ Ø§ØŃ
ĠÙĨ ÛĮÙħ
ĠØ¢Ø² Ø§Ø¯
Ú¯Ø±Ø¯ Ø¯
ĠÙħ Ø§
ĠÙħØŃ Ø¯
ĠØ³ÙĦ Ø·
ĠØ¨Ø±Ú¯ Ø²Ø§Ø±
ĠØ¬ Ø±ÛĮØ§ÙĨ
Ø§Ø³ Ø¨
ĠØ§ÙĨ ÙĤÙĦ
ĠØµ ØŃ
ĠØª Ø§Ø¨
ĠØ³ ÛĮØ¯
ĠØªØ±Ú©ÛĮ Ø¨
Ø¹ Ø§Øª
ĠÙħÙĪ Ø§Ø¯
ĠÛĮ Ø¹ÙĨÛĮ
Ø« ÛĮØ±
ÙĦÛĮ Ùĩ
Ġ D
) .
Ġ 1
ĠÛ±Û¹Û µ
ĠÙĪ Ø±
ĠÙĪ Ø³ÛĮ
ĠÙĦ Ùĩ
Ø´ Ø¯Ùĩ
Ø« Ø±
Ø³ Ø§Ø²
ĠØ´ÙĪØ± Ø§ÛĮ
ĠÙĨ Ùģ
ÙĪÙĦ Ùĩ
ĠÚ©Ø§Ùĩ Ø´
ĠÚ©ÙĨ Ø§Ø±
Ø³ Ø§ÙĦ
ĠØ¢ ÙĩÙĨÚ¯
ĠØ§ÛĮØª Ø§ÙĦÛĮØ§
ÙĪÙĦ ÙĪ
ĠØ´Ú© Ø³Øª
ĠÙĪÛĮ ÚĺÙĩ
Ø³ ÛĮÙĨ
ĠÙĤØ¯Ø± Øª
ĠØ¢Ùħ Ø¯
Ø§Ø¹ Øª
ĠØ¨ÛĮÙħ Ø§Ø±ÛĮ
ĠØ¹Ùħ ÙĪÙħÛĮ
ĠØ§Ø± Ø§Ø¦Ùĩ
ĠÚ© ÙĪØª
ĠØ´ ÛĮÙħÛĮ
ĠØµ ÙĨ
ĠÛ±Û ³
ĠØ¨Ùĩ ØªØ±ÛĮÙĨ
ĠÙĤØ§ÙĨ ÙĪÙĨ
ĠÚ© Ø±ÛĮ
ĠØ§Ø±ÙĪÙ¾ Ø§
ĠÙĨØ¸ Ø§ÙħÛĮ
Ùħ Ù¾
ĠÙħ Ú©Ø§ÙĨ
ĠÙħØ´ Ø®Øµ
. .
Øº Ø§ÙĨ
ĠÙģ ØµÙĦ
ĠØ® ÙĦ
ĠØ² ÙĨØ§ÙĨ
Ø³ ÙĪÛĮ
ĠÙĨØ²Ø¯ ÛĮÚ©
ĠÙĨÛĮØ± ÙĪÙĩØ§ÛĮ
Ø§Ø· Ø±
Ú© ÙĪ
Ø±Ø§ÙĨ Ùĩ
ĠØª Ùģ
ØŃ Ùĩ
ĠØª Ù¾Ùĩ
ĠÛ²Û°Û±Û °
ĠØ± Ø§ÛĮ
ĠÙħÙĨØ§Ø· ÙĤ
ĠØ® Øµ
ĠØ® Ø¯
Ùĩ ÙĨ
ĠÚĺØ§Ù¾ ÙĨ
ĠØŃÙħ ÙĦÙĩ
ĠÙħÙĨ Ø¸
ĠØ± Ø§Ø¨
ĠØ§Ø³Øª Ø±
ÙĪ Øµ
ĠÙħÛĮÙĦÛĮ ÙĪÙĨ
ĠÙ¾Ø³ Ø±
ĠØ¯ÙĨ ÛĮØ§
ĠØªØŃ ØµÛĮÙĦ
o l
Ø±Ø¨ Ø§ÛĮØ¬
ĠÙħ Ø§ÛĮ
ÙĪ Ø§Ø³
Ø§Ø± Ø³ØªØ§ÙĨ
Ø³ Ø§
Ø¨ ÙĪØ±
ĠÙħ Ø¯ÛĮ
ĠÛ² Ûµ
ĠØ§ÙĨØ¯ Ø§Ø²Ùĩ
ÙģØ§ ÙĪØª
Ùħ ÛĮØª
Ø¬ ÙĪ
Ø§Ù¾ ÛĮÙħ
Ø§Ú© ÛĮ
ĠØ§Ø³ ÙĦØ§Ùħ
Ø® ÛĮ
ĠØ¢Ø° Ø±Ø¨Ø§ÛĮØ¬
Ø§ ÙĪÙĩ
ĠØ¯Ø± Ø¬Ùĩ
Ø¬ Ùħ
ĠØ§Ùħ Ù¾
Ø± Øª
ĠÙ¾Ø±Ø¯ Ø§Ø®Øª
Ø¨ ÛĮØ±
ĠÙĩ Ø´Øª
ÙĪ Ø§ÙĦ
ĠÙģ ÙĤ
ĠÚĨ ÙĨÛĮÙĨ
ĠØ³ Ø®
ĠØ§Ø¬ØªÙħ Ø§Ø¹ÛĮ
ĠÙģ ÛĮ
ĠÙĦ Ø§ØªÛĮÙĨ
ĠØŃ ÙĦ
ĠØ³ÛĮ Ø§Ø³Øª
Ø§Ø¶ ÛĮ
ĠÙħØ³ ÙĦ
ÛĮØ² ÛĮ
r e
ĠØ¢ ÛĮ
ĠØŃ Ø§ÙĦØª
ĠÙħÙĪ Ø¶ÙĪ
ĠÙĨØ³ Ø®Ùĩ
ĠØ¨ÙĨ Ø§
Ø³ Ø§ÙĨÛĮ
ÚĨ ÛĮ
ĠØ¯ Ùħ
ĠÙĪ ÛĮØ±
l e
ĠÚ©ÙĨ ØªØ±
Ú¯ ÙĪ
ĠØ¢ÙĨ Ø¬Ø§
ĠØŃ ØªÛĮ
Ø§Ø³ Ø§ÙĨ
ĠÙ¾ Ø§Ø³
ĠØ¯Ø® ØªØ±
ĠØº Ø±Ø¨
Ø±Ùģ ÛĮ
Ø§Ø³ Ùħ
ĠÙħÙĪ Ø¬
Û±Û ¹Û
ÙĪ ÛĮØ±
ĠÛ ¸Û
ĠÙħ Ø§Ø¯Ùĩ
ĠØªØ£ Ø«ÛĮØ±
ĠØªÙĩ ÛĮÙĩ
ĠØ¨Ø§Ø² Ø§Ø±
ĠÙ¾ Ø²Ø´Ú©
Ùħ ÛĮÙħ
ØªØ´ Ø§Ø±
Ø§ÙĨ Ø³
ĠØ¹ Ùĩ
Ø±ÛĮ Ø¯
ĠØ¹Ùħ ÙĦÛĮ
h e
Ø² ÙħÛĮÙĨ
ĠØ³ Ø§Ùħ
" ØĮ
Ù¾ Ø±Ø¯
ĠÚĨ Ø§Ù¾
ĠÙĨÙħ ÙĪÙĨÙĩ
Ø§Ø´ ØªÙĩ
Ø¯Ùĩ Ùħ
ĠØ¨Ø± Ø¬
ĠØ§ ÙĪØ±
ĠÙĨÛĮØ± ÙĪÛĮ
Ø§Øµ ÙĦÙĩ
ĠÙħØ¯ ÙĦ
ĠØ§Ø± ØªØ´
ĠØŃ Ø§Ø¶
ĠÙĩÙħÚĨ ÙĪÙĨ
ĠÚ© Ø³Ø¨
Ø® ÙĪØ§ÙĨ
Ùħ ÙĨÛĮ
ĠØ¯Ø³Øª Ú¯Ø§Ùĩ
Ø¯Ùĩ ÙĨØ¯
ĠÙ¾ ÙĪØ´
ĠØ¹ÙĦ ÙĪÙħ
ÙĨ Ø§Ùħ
ĠÚ©Ø± ÙħØ§ÙĨ
Ùĩ Ùħ
Ø¨ ÙĨØ¯ÛĮ
ĠØŃ ÛĮ
ĠØ§ÙĨ ØªØ´Ø§Ø±
ĠÙ¾ ÙĦÛĮ
ĠØ¯Ø± ØµØ¯
ĠØ§Ø¯ Ø¨ÛĮ
ĠØ¹Ø± Ø§ÙĤ
ĠÙĩ Ø¬
ĠÙ¾ Úĺ
ĠØ§ÙĨÚ¯ ÙĦ
ĠØŃØ§Ø¶ Ø±
ĠØŃ Ùģ
ĠÙĤÙĦ Ø¹Ùĩ
Ø± Ø§Ùģ
Ø¹ ÙĦÛĮ
ĠÚ©Ø´ÙĪØ± ÙĩØ§ÛĮ
ÙĨ Ùħ
Ø§Ùħ Øª
ĠØ¨Ø± ÙĨØ¯Ùĩ
ĠÙħ Ø§ÙĦÛĮ
ĠÙĩÙĪ Ø§Ù¾ÛĮÙħ
ĠØ§ÙĨÙĤÙĦ Ø§Ø¨
ĠØ·Ø¨ÛĮ Ø¹ÛĮ
ĠØ±ÙĪØ³ÛĮ Ùĩ
ÙĨ Ø²
Ùģ ÛĮÙĦ
ÙĪÛĮ Ø´
Ø§Øµ Ø±
ĠØ¢Ø² Ùħ
ĠÙĩÙĨÚ¯ Ø§Ùħ
ÙĪ Ø²ÛĮ
ĠØ¬ Ø´ÙĨ
Ø±ÛĮ Ø²
Ġ W
ĠØ³Ø¨ Ú©
Øª Ø¨Ø±
ĠØ¹Ø¨ Ø¯Ø§ÙĦ
ĠÛ±Û³Û ¸Û
Ø´ Ø±
ĠØ§ÙħÙ¾ Ø±Ø§Øª
ĠØ¨Ø§Ø²ÛĮ Ú¯Ø±
ĠÚĨ ÛĮÙĨ
ĠÚ¯ Ø²Ø§Ø±
Øº ÙĪÙĦ
ĠØ³ Ø±Ø¯
ĠÚ©ÙĨØªØ± ÙĦ
ĠØ§Ùħ ÙĨ
ĠÙħØ· Ø§ÙĦ
Ġ L
ĠØ¨ÙĪØ¯ ÙĨ
Â» ØĮ
ĠØ§ØŃ ØªÙħ
Ġ F
ÙĪØ± Ú©
ĠÙħ Ø§ÙĦ
ĠØ¯ Ùģ
ĠÙĩØ¯ Ùģ
ĠØ¨Ø± Ø±Ø³ÛĮ
ĠÙ¾ ÙĨ
Ùħ Ø±Ø¨
ĠØ³Ø§Ø®Øª ÙħØ§ÙĨ
ÙĨ ÙĪÛĮØ³
Ġ R
ĠØ® Ø§Ú©
ĠÚ© Ø§ÙĦ
ĠØ¢ÙħÙĪØ² Ø´
o u
ĠÙħÙĪ ÙĤ
ĠØŃ Ø±Ú©Øª
ĠÙħØ´ ØºÙĪÙĦ
ĠØªÙĤ Ø³ÛĮÙħ
ĠØ¬ ÙĪØ§ÙĨ
ĠÙħÙĤ Ø§Ùħ
Ø± ÚĺÛĮ
ĠØ¢ÙĨ Ø§ÙĨ
ĠÛĮØ§ ÙģØªÙĩ
Ù¾ ÙĦ
Ġ G
Ø§Ø¨ Ø§ÙĨ
Ġ I
Ġ H
ĠØ¨ÛĮ Ø§ÙĨ
ĠØ¨Ø§Ø´ ÙĨØ¯
ĠØª Ø´
ÙħØ±Ø¨ Ø¹
ĠØ¨ Ø§ÙĨØ¯
ĠØŃØ³ ÛĮÙĨ
ĠØ³Ø± Ùħ
Ø§Ø¯ Ø§
Ø· ÛĮ
ĠØª ÛĮ
ĠØ¢Ø°Ø±Ø¨Ø§ÛĮØ¬ Ø§ÙĨ
ĠØ¬Ø§Ùħ Ø¹Ùĩ
Ø§ ÙĪÛĮ
ĠØ¨ ÛĮØ±
ĠØ§Ø¬ Ø±Ø§
ĠØ§ÙĨÚ¯ÙĦ Ø³ØªØ§ÙĨ
Ø¬ Ø¯
ĠØ§Ùħ Ú©Ø§ÙĨ
Ø§Ø¦ ÛĮ
ĠÛ±Û³Û µ
ĠØ³ Ú©
ĠØŃÙĤ ÙĪÙĤ
ĠØ¯ Ø§Ùħ
ĠØŃ ÙĪØ²Ùĩ
Ù¾ ÛĮØ´Ùĩ
ĠÙħØŃ Ùħ
ĠÙĨÙĪÛĮØ³ ÙĨØ¯Ùĩ
Ġ E
ØŃ ÙĦÙĩ
ĠØ¹ ÙĨ
ĠØ³ Ø§ÙĨ
Ø§Ùģ Ø¸
ĠØ³ Ø§ÛĮØ±
ĠØ§Øª ØŃ
Ú©Ø±Ø¯ ÙĨØ¯
ĠØ¯Ùĩ Ø¯
Ø¨ ÙĦ
ĠØ®Ø§Ø± Ø¬
Ø¯ÙĪ Ø§Ø¬
ĠÛ±Û ¸
ĠØ§Ø± Ø²
ØªÙĪØ§ÙĨ ÙĨØ¯
Ùħ ÙĨØ¯
i k
Ú¯ Ø´Øª
Ġ 2
ĠØ§Ø º
Ú¯ Ø§ÙĨÛĮ
ĠÚĨ Ø±
ĠÙħ ÙĪØ±
Ø±Ø³ Ø¯
ĠØ¯Ø§Ø´Øª ÙĨØ¯
Ø³ ÙĪ
Ø¨ Ø§Ø´
ĠÙħÙĩ Ø§Ø¬
ĠØ±Ø³ ÙħÛĮ
ĠÙħ Ø³ÛĮ
ĠÙĨØ¯ Ø§Ø±Ø¯
ĠØªØŃ ÙĤÛĮÙĤ
ĠØ¨ ØŃ
Ø§Ø¯ ÙĦ
ÙĩØ± Ø³Øª
ĠÙ¾Úĺ ÙĪÙĩ
ĠØ§Ø² Ø¯ÙĪØ§Ø¬
Ø¢ ÛĮØ¯
Ø§ÙĦØ¯ ÛĮÙĨ
Ø§ÙĨÛĮ Ø§ÙĨ
Ø±Ø¨ Ùĩ
ĠÙĤ Ùħ
ĠØ§ÙĨ Ø±ÚĺÛĮ
ĠÚ¯Ø²Ø§Ø± Ø´
ĠÙĩ Ø²
Ø§Ø¨ Ø¯
ĠÙģ ÙĦØ³
ĠØ´ Ø´
ĠÚ©ÛĮÙĦÙĪÙħØªØ± ÙħØ±Ø¨Ø¹
Ø§Ø «
ĠØ¨ Ø®
ĠÙĩÙĨØ± Ù¾ÛĮØ´Ùĩ
ĠØ·Ø± ØŃ
ĠÙģÛĮÙĦ ÙħÛĮ
ĠÙħØŃ ÛĮ
Ø´ ÙĩØ±
ÙĪ Ø¹
a s
ĠØ³ÛĮ Ø§Ùĩ
ĠØ´ Ø§Ø®
ĠØª Ø¯
ĠÙĩ Ø§
ĠØ§Ø³ Ú©
ĠÙħØ´ Ú©ÙĦ
ĠØ¯ÛĮ Ø¯Ùĩ
ĠÙħÛĮ Ø¯Ø§ÙĨ
ÙĤ Ø¨
ĠÙģØ±ÙĪ Ø´
ĠØ´Ø± ÙĤ
ĠÙĨ Ø±Ùħ
Ø²Ø§Ø± Øª
ĠØ§Ùģ ØºØ§ÙĨ
ĠØ§Ø¹ Ø¶Ø§ÛĮ
ĠØ¯ÙĨ Ø¨Ø§ÙĦ
ÙĨ Ø±
ĠØ¨Ø®Ø´ ÛĮ
ĠÙħÙĤ Ø§Ø¨ÙĦ
ĠÛ±Û¹Û ²
ĠØ¨ÙĨ Ø§Ø¨Ø±
ĠÛ² Û²
ĠÙĪ Ø§ØŃ
ĠØ´ÛĮÙħÛĮ Ø§ÛĮÛĮ
ĠØ®ÙĪØ¯ Ø±ÙĪ
ĠÚ¯Ø± Ùħ
ĠÙħ Ø§Ø¯Ø±
ĠÙĪ Ø²Ø§Ø±Øª
ĠØ´ ÙĪÙĨØ¯
ĠØ±ÙĪØ² ÙĨØ§ÙħÙĩ
ĠÙħØ¯Ø± Ø³Ùĩ
ĠØ³Ø± Ø¹Øª
ĠØ¹ Ø±Ø¨ÛĮ
ĠÚ¯ ÙĪØ´
ĠÚĨÙĨØ¯ ÛĮÙĨ
ĠÙģØ± Ø§ÛĮ
Ø§ÙĦ ÙĦÙĩ
ĠØ´Ø®Øµ ÛĮØª
i p
Ùħ Ø¹
ĠÙħØ« Ø§ÙĦ
Úĺ ÙĨ
ÙĨØ¯ Ø±
ĠØ´Ø± Ø§ÛĮ
ĠÛ² Û´
ĠØ¯Ø³Øª Ùĩ
. Â»
Ø¬ Ø§Ùħ
ĠØ¹ÙĦ Ø§ÙĪÙĩ
ĠÙģØ±ÙĩÙĨÚ¯ ÛĮ
ĠØ³ Ø¯Ùĩ
ĠÛ±Û¹Û ³Û
ĠØŃ Ø±Ùģ
e l
ĠØªØ± ØªÛĮØ¨
ÙĪØ± ÛĮØª
ĠÙĪ Ø³
Ú¯ ÙĪÙĨÙĩ
Ø§Ùĩ Ø¯
ĠÙĨÚ¯ Ùĩ
Ø¨ ÛĮÙĨ
ĠØ§Ø¨Øª Ø¯Ø§
Ø³ ÙĪØ¨
ĠÙĦ Ø¨
ĠÙ¾Ø§ÛĮ ÛĮÙĨ
Ú¯ ÙĪÛĮ
ÙĪ Ø¬
ĠÚ©ÙĦ Ø§Ø³
ĠÙ¾ Ø°ÛĮØ±
ĠØª Ø¦
Ù ª
ÙĪ Ø§Ø¹
t r
ĠÙħØ¹ Ø±ÙģÛĮ
ĠØ¨Ø±Ø® ÙĪØ±Ø¯
ĠÙģ Ø§ØµÙĦÙĩ
ÙĪ ÚĨ
ĠÙħÛĮØ² Ø§ÙĨ
Ġ N
ĠÙĩÙħ Ú©Ø§Ø±ÛĮ
ÙĦ ÛĮÙĨ
ĠØ¬ Ø±
ĠØ¹ Ø¯
ĠÙħÙĨ Ø§Ø¨Ø¹
ĠØ® Ø§Ø·Ø±
ĠÛĮ Ùĩ
ĠØ®Ø§ÙĨ ÙĪØ§Ø±
ĠØ³ Ø§Ø¹Øª
ĠÙħØ® Ø§ÙĦ
ĠØ§Ø³Øª Ø§Ø¯
ĠØ³ ÙĪØ¦
Ø¢ ÙĨ
ĠÙĦÙĩ Ø³ØªØ§ÙĨ
ĠÙģØ±Ø² ÙĨØ¯
ĠÙħØ¯ ÛĮØ±
ĠØ¢Ø®Ø± ÛĮÙĨ
ĠØ§ÙĤØªØµ Ø§Ø¯ÛĮ
ĠØ® Ø¨Ø±
ĠÙħÙĪØ¶ÙĪ Ø¹
ĠÙĪØ³ÛĮ ÙĦÙĩ
ĠÚ©Ø´ ØªÙĩ
ÙĪ ÙĪ
ÙĨ Ø³
ĠØ§ÙĪ ÙĦÛĮÙĩ
ĠÚ¯Ø° Ø´ØªÙĩ
ĠØ³Ù¾ Øª
ĠØ§Øµ ÙģÙĩ
ĠØ±Ø§Ø¨ Ø·Ùĩ
Ø¨ Ø¯
Ø±ÛĮ Ø³
ĠØ±ÙĪ ØŃ
ĠØ§Ø³ Ùħ
ĠØ¨ Ø§Øº
ĠØ¢ Ø³
ĠØ§ØŃØªÙħ Ø§ÙĦ
ĠÛ±Û¹Û ±Û
ĠÙħØ± ØŃÙĦÙĩ
ĠØ§Ø® ØªÙĦ
Ø§ÙĨ Ø§
ĠØ¨Ùĩ Ø±Ùĩ
Ø± ØŃ
ĠØªÙĦ Ø§Ø´
ĠØª Ø±Ø§ÙĨÙĩ
ÙĪÛĮ ÙĦ
ĠÙģÙĤ Ø·
ĠØ¹Ùĩ Ø¯Ùĩ
ĠÙĪØ§ ÚĺÙĩ
ĠØ³ ÛĮÙħ
ĠØ³Ù¾Øª Ø§ÙħØ¨Ø±
Ø§Øµ ÙĦ
ĠÙĤØ¯ ÛĮÙħÛĮ
ĠØ± Ø§Ø³Øª
Ø± ÙģØª
ĠØ¬ Ø¯
ĠØ§ÛĮ Ø³Øª
ĠØ¯Ø³Øª ÙĪØ±
ĠÙĦÛĮ Ú¯
ĠØº Ø°
ĠØ¢ ØªØ´
ĠØ§ÙĤ Ø¯Ø§Ùħ
ĠÛ±Û ±Û
ĠÙħÙĪ ØªÙĪØ±
ĠØ¹ÙĦ Øª
ĠÙħØ¯ÛĮ Ø±ÛĮØª
ĠØ¸ Ø§Ùĩ
ĠØ³ ÙģØ±
ĠÚ© ÙĪØ±
ĠØ±ÛĮ Ø§Ø³Øª
ĠØ§ÙĨØªØ®Ø§Ø¨ Ø§Øª
ĠØ¯ Ú©ØªØ±
ĠÙħØ³ ÛĮØ±
ĠØ¹Ø± Ø¶
ĠØ¨Ø§ ÙĤÛĮ
ĠØ± Ø´Ø¯
ĠØ§Ùħ Ø§Ùħ
ĠÙħÙĩ ÙĨØ¯
Ùħ ØŃ
ĠÙħØŃ ÙĦÛĮ
ĠÙħØ¯ Ø§ÙĦ
ĠØ± ÙĪÙħ
ĠÙĪØ±Ø² Ø´
ÙĪ ÛĮÙĨ
ĠÚ©Ø´ Ø§ÙĪØ±
ĠØªØµ ÙħÛĮÙħ
ĠØ¢ Ùģ
i on
ĠÛ±Û ±
ĠØ¹ Ø±Ø¨
Ùħ ÛĮÙĦ
ĠØ¨Ø¯ ÙĨ
Ø§ÙĨ ÙĪ
ĠÙħØ´Ùĩ ÙĪØ±
ĠÙħØ¹ ÙĨÛĮ
âĢ ¦
ĠØ§Øº ÙĦØ¨
Û±Û °
Ú¯Ø° Ø§Ø±
ĠØ§ÙĦ Ø¨
ĠÙ¾ Ùĩ
ĠÙĩÙĪ Ø§
ĠØ¯Ø§Ø® ÙĦÛĮ
ĠÙ¾ Ø®Ø´
Ø±ÛĮ Ø¨
ÙĦÛĮ Øª
Ø¯ Ø§Ø´Øª
Ø¢ Ùħ
Ú¯ ÙĨ
Ø§Ø² Ùħ
ĠØªÙĪØ§ÙĨ Ø³Øª
Ú© Ø´
ĠØŃØ³ ÙĨ
ĠØ¯Ø§Ø¯ ÙĨ
ÙĪÛĮ Ø§ÙĨ
c h
¹ Û°
ĠØ·Ø¨ ÙĤ
ĠÙ¾ Ø§Ú©
Ø¬ Ø§ÙĨ
Ø±ÛĮ Ø´
ĠØŃ Ø§ÙĦÛĮ
ĠÙģØ±Ø§ÙĨ Ø³ÙĪÛĮ
Ø¯Ùĩ ÛĮ
ĠÙĩÙĪ Ø§ÛĮÛĮ
ĠÙħØ§Ø± Ø³
ĠÛ±Û³Û ·
Ø² ÙĨ
Ø§Ùĩ Ùħ
ĠÚ©Ø§Ø± Ø¨Ø±Ø¯
ĠØ¨ Ø§Ø¨
i l
Ø® ØªÙĩ
ĠÙĩÙĨ Ø±ÛĮ
Ø§ÛĮ Ø§ÙĨ
o m
ĠØ³Ø± Ø¯Ùĩ
Ú¯ Ø§Ø±
ÚĨ Ø±
ĠÙĪ Ø¶
ĠØ³Ø± Ø²ÙħÛĮÙĨ
ÙĪØ± Ø§ÙĨ
ĠÙħ Ùģ
ĠÙħÙĨ Øª
ĠØ¬ Ø¯Ø§
ĠÙĪØ² ÛĮØ±
ĠØ® ÙĪÙĨ
ĠØ§Ú© ØªØ¨Ø±
ĠÙĪÛĮ Úĺ
ĠÙħØ³ Ø¬Ø¯
ĠØ¬Ø² ÛĮØ±Ùĩ
Øº Ø±
ĠØ§ØŃ ÙħØ¯
Ø´Ú© Ø¯Ùĩ
Ú© Ø§
ĠÙħ ÙĩØ±
Û±Û ³Û
ĠØ¯Ø§Ø® ÙĦ
ĠÙĨ ÙĩØ§ÛĮ
ĠØ§Ø ¶
ĠØ¯Ø±Ú¯Ø° Ø´Øª
ĠÙħØŃØ¯ ÙĪØ¯
Ø§Ùĩ Ø§
ĠØ§ÙģØºØ§ÙĨ Ø³ØªØ§ÙĨ
ĠÙħØ° Ùĩ
ÙĦ Ø±
ĠÛ³ Û°
ĠØ¬ ÛĮ
ÙħÛĮÙĨ Ø§
ĠÙħØŃ ÙĦÙĩ
ĠÙĦ ØŃ
ĠØ¬ ÙĦÙĪ
ĠØ¯ ÛĮÙĨ
ĠØ§ÙĨØªÙĤ Ø§ÙĦ
ĠÙħØ« ÙĦ
ĠÚ¯ÛĮ Ø§Ùĩ
ĠÙĤÙĩØ± ÙħØ§ÙĨÛĮ
Ùģ Ø§ÙĤ
ĠØ¢ÙĦ ÙħØ§ÙĨÛĮ
ĠØ³Ùģ ÛĮØ¯
ĠÙģØ± Ùħ
Ú¯ ÙĪÛĮØ¯
ĠØªØ¹ Ø±ÛĮÙģ
ĠÚ© Ø¯
ĠÚ©ÙĪØª Ø§Ùĩ
ĠØ¢Ø²Ùħ Ø§ÛĮØ´
ĠÙħØª ÙĨ
ĠØ± Ø®
ĠØ´Ø±Ø§ÛĮ Ø·
d e
ĠÚĺØ§ÙĨ ÙĪÛĮÙĩ
ĠØ¢ ÙĤ
ĠØ¨Ø§Ø² Ú¯Ø´Øª
ÙĤ ÛĮÙħ
Ùħ Ø¨
ĠÙĨØ¸ Ø±ÛĮÙĩ
ed ia
ĠØ§ÙĪ Øª
ĠÙħØµ Ø±Ùģ
Ø§ÙĨÛĮ Ø§ÛĮÛĮ
ĠÙĪÛĮÚĺ Ú¯ÛĮ
Øª Ø¨Ùĩ
ĠÙħÛĮ Ø±Ø²
ĠØ§ÙĨ ÙĪØ§Ø¹
ĠØŃÙħ Ø§ÛĮØª
ĠØ® ÙĪØ´
Ø¨Ø§Ø´ ÙĨØ¯
ĠÙ¾Ø§Ø¯ Ø´Ø§Ùĩ
Ù¾Ø±Ø¯ Ø§Ø²
ĠØ¬Ùħ Ø¹
ĠÙħÙĨØ¸ ÙĪØ±
ĠÙħØŃÛĮ Ø·
ĠØª ÛĮØ±
ĠÚ¯ ÙħÛĮÙĨØ§
ĠÙħØ³ Ø§Ø¨ÙĤÙĩ
ĠÙ¾Ø²Ø´Ú© ÛĮ
ĠØ´ÙĨ Ø§Ø³
ĠÙħ ÙĪÙĦ
ĠØ³Ø§ÙĦ Ú¯ÛĮ
ĠØ§Ø¬ Ø±Ø§ÛĮ
Ø§Ø± Ø§Øª
ĠØªØ± Ø¬ÙħÙĩ
ĠÙģ ÙĩØ±Ø³Øª
ĠØ¯Ø±Ø¢ ÙħØ¯
ĠØ¨Ø¹ Ø¶ÛĮ
ĠÙħØ· ÙĦÙĤ
Ø ©
ĠÙħØŃ Ø³ÙĪØ¨
ĠÚ©ÛĮÙĦÙĪÙħ ØªØ±ÛĮ
ĠØ³ Ø±Ø¨
ĠÙħÙĤ Ø¯Ø§Ø±
ĠØ¯Ø± Ø®Øª
ĠØªÙĤ Ø±ÛĮ
ĠÙĩØ¬ Ø±ÛĮ
ĠØ®ÛĮ Ø§Ø¨Ø§ÙĨ
ĠØ¹ÙĦÛĮ Ùĩ
Ø¯ÛĮ Ú¯Ø±
ĠØ¢ Ø´
ÙģÛĮÙĦ Ùħ
ĠÙģ Ø¶
ĠØª Ø§Ú©ÙĨÙĪÙĨ
ĠÙ¾Ø±ÙĪ ÚĺÙĩ
ĠØ¨ÙĦ ÙĨØ¯
ĠØ¯ÙĪÙħ ÛĮÙĨ
ĠØ´ÙĩØ± ÙĩØ§ÛĮ
ĠÚ¯ ÛĮÙĦ
ĠØ¨ÙĨØ§Ø¨Ø± Ø§ÛĮÙĨ
ĠØ§Øª ÙģØ§ÙĤ
Ø¨ÛĮ Ùĩ
ĠØªØµ ÙĪÛĮØ±
ĠØ¨Ø± Ø§Ø¯Ø±
ĠØ¹ÙħÙĦÛĮ Ø§Øª
ĠØ§Ø³Ù¾ Ø§ÙĨÛĮØ§
Ø´ÙĨ Ø§Ø³
ĠÙĪ Ø¨
ĠØ¨ Ø§ÙĨÚ©
ĠØ¯ Ø³
ĠÙĨ Ø¬
ĠØªØµ ÙĪÛĮ
ĠØ²ÛĮØ± Ø§
a m
Ùħ Ø§ÙĦ
Ø§Ø® Ø±
ĠØ§ØµÙģÙĩ Ø§ÙĨ
ĠØ¨ Ø§Ø³ØªØ§ÙĨ
Ø¯Ùħ Ø§Øª
ĠØ¨ ÙĪØ±
Ø´Ùħ Ø§Ø±
Ø§Ø³ÛĮ ÙĪÙĨ
Ø§ÙĦÛĮ Ø§ÛĮÛĮ
ĠÙĩÙħ Ø³Ø±
Ø¨ Ø§Øª
ĠØ§ÙĨØ¬ ÙħÙĨ
Øº Ø§ÙĦ
ĠÛ² Û¶
ĠÙĨÙĤ Ø·Ùĩ
ĠØ³ Ø§Ø¨ÙĤ
ĠØ®Ø§Ø± Ø¬ÛĮ
ĠØ§Ø³Øª Ø§ÙĨØ¯
ĠÚ©Ø§ÙĨ Ø§Ø¯Ø§
Ú¯Ø± ÙģØª
ĠØ³Ø§Ø®Øª Ø§Ø±
ĠØ¯Ø± ÙĪÙĨ
Ø¦ ÛĮ
ÙĪÙĨ Ú¯
ĠØ§Ø· Ø±Ø§Ùģ
Ø§ÙĤ Ùĩ
in g
Ø§Ùħ Ø§
ÙĦÛĮ Ùħ
ØªÙĤ Ø¯
Ġ c
ĠÙĤØ· Ø¹
Ø¦ Øª
ĠØ¨ÛĮ Ø³Øª
ĠÚ©Ø± Ùĩ
ĠØ³ Ø¹
ĠØ´ÙĪØ± ÙĪÛĮ
ĠÙģ Ø´Ø§Ø±
ĠØ¹ ÙĪ
h t
ĠÚ¯Ø³ØªØ± Ø´
ĠØ¢ÙĪØ± ÛĮÙĦ
ĠØ¯Ø± ÙħØ§ÙĨ
ĠÙģØ§Ø± Ø³
ÙħÙĨ Ø³ØªØ§ÙĨ
ÙĨ ÛĮØ§
ĠÙ¾ Ø´Øª
ĠØ§Ùħ ÙĪØ±
ĠÚ¯Ø³ØªØ± Ø¯Ùĩ
ĠØ¹ Ø§ÙĦÛĮ
Ø´ Ø§ÙĩÛĮ
ÙĨ ÙĪÛĮ
o f
ĠÛ±Û³Û ¶
Ú¯Ø§Ùĩ ÛĮ
ĠØª Ø§Ø¬
Ø¹ÛĮ ÛĮÙĨ
ĠÙĨÙĪ Ø§ÙħØ¨Ø±
ĠØ±ÙĪØ¯ Ø®Ø§ÙĨÙĩ
ĠØ®ÙĪØ±Ø´ ÛĮØ¯ÛĮ
Ø¨ Ø±Ø§ÙĨ
ÙĨÚ¯ ÛĮ
Ø° ÛĮ
ĠÙĪÙĤ ØªÛĮ
ĠØ³ÙĨ Øª
ĠØŃ ÙĪ
Ø§Ø³ Ø±
ĠÙħ Ø§ÙĩÛĮ
ĠÙħØµ Ø±
ĠÙħÙĪØ¬ Ø¨
ĠØ¨ Ø³ØªÙĩ
ĠØ³Ø±ÛĮ Ø§ÙĦ
ĠØª Ø¹ÛĮÛĮÙĨ
ĠØ± ÙħØ§ÙĨ
Ø§ÙĨ Ø²
ĠØ²ÛĮ Ø³Øª
ĠØ¯ ÙģØ§Ø¹
ĠÙĤÙĩØ± ÙħØ§ÙĨ
ĠØ§ÙĦ ÙħÙ¾
ĠØ§Ø± ÙħÙĨÛĮ
ĠÚ¯ ÙĪÙĨ
Ø¨Ø±Ø¯ Ø§Ø±ÛĮ
ĠÚ©Ø´Ø§ÙĪØ± Ø²ÛĮ
ĠÙĨÛĮÙħ Ùĩ
ĠÙģ ÛĮØ²
ĠØ¯Ø³ Ø§ÙħØ¨Ø±
Ú¯ Ø§ÙĨÙĩ
ĠÙĨ Ø¨Ø±Ø¯
Ø² ÙħØ§ÙĨ
ĠØ´Ø¹ Ø±
ĠØ± ÙģØªÙĩ
ØªØ± Ú©
ĠØ§Ø¯ Ø§Ø±Ùĩ
ĠÚ©Ùħ ØªØ±
ĠØ³ Ø±Ø§ÙĨ
ĠØ²ÛĮ Ø§Ø¯
Ø¹ ØªÛĮ
ÛĮØ¯ ÙĨ
ĠØ³Ø±Ùħ Ø§ÛĮÙĩ
ĠØª ÛĮØ±Ùĩ
ĠØ§Ø³ Ø±
Ø§Ùĩ Ø¯Ùĩ
ĠØµÙģ ØŃÙĩ
ĠØ§ÙĦØ¨ ØªÙĩ
ĠØ³Øª Ø§Ø±Ùĩ
u s
ĠÛ² Û·
Ø®ÙĪ Ø§Ø³Øª
ĠÙħÛĮÙĦ Ø§Ø¯
ĠÙħÙĤ Ø¯
ĠÙĩÛĮ Ø¦Øª
Ø§Ø¦ ÙĦ
ĠØ³ ÙĤ
ĠÙħ Ø§Ø¯
ĠÛ °
Ø¸ ÛĮÙħ
ĠÙħØª Ø±ÛĮ
ĠØ¯ÙĪ Ø¨Ø§Ø±Ùĩ
ÙĪÙĦ ÛĮÙĨ
Ùĩ ÛĮ
ĠÚ¯ Ø§Ø²
0 0
Ø¨Ø± Ú¯
ĠØ´ ÙĪ
Ø§ ÙĩØ§ÛĮ
ĠØ³ÙĦ ÙĪÙĦ
Ø§Ùģ Ø²Ø§Ø±
ĠÚ¯ ÙĪ
ĠØ¢Ø² Ø§Ø¯ÛĮ
Ú© Øª
ĠØ± ÙĪØ§ÙĨ
ĠÚĺÙĪØ¦ ÛĮÙĩ
ĠÙħ Ø§ÙĨØ¯
Ø¯Ø§Ø± Ø§ÙĨ
ĠØªØ±Ú© ÛĮÙĩ
ĠÙ¾ Ø´
ĠÙģ ÙĪØ±ÛĮÙĩ
ĠÙĨØ§Ùħ Ùĩ
ĠØª Ø³
ĠÙ¾ÚĺÙĪÙĩ Ø´
ĠØ®ÙĪ Ø§Ø³Øª
ĠÚ© Ø§ÙĦÛĮ
Ġ t
ĠÙĨØ§Ùħ ÛĮØ¯Ùĩ
ĠÙĩÙĨ ÙĪØ²
Ø±ÛĮ Ùħ
Øª ØŃ
ĠØ¬Ø´ÙĨ ÙĪØ§Ø±Ùĩ
ĠÙĨ ÙģØª
ĠÚĺÙĪØ¦ ÙĨ
ĠÙĨ ÛĮÚ©
Ø³Øª Ú¯ÛĮ
ĠÙħÛĮØ±Ø² Ø§
ĠØ³Ø§ÙĦ Ùĩ
ĠÙħØ¬ÙħÙĪ Ø¹
ĠÙ¾ Ø§Ø±Ú©
Ġ Ù
ĠÙħ Ø§Ø´
ÙĨ Ø¸
ĠÙĩÙĨ Ø±Ùħ
Ø´ ÙĤ
ĠÙ¾Ø±ÙĪ Øª
a c
ĠØ®Ø± Ø§Ø³Ø§ÙĨ
Ø¯ ÙĦ
ĠÙĩØ² ÛĮÙĨÙĩ
ĠÙħØ¤ Ø³
ĠØ² Ø±
Ø§ØŃ ÙĦ
Ø§Ú©ÙĨ Ø´
ĠØ§Ùħ ÛĮØ±
ĠØ¢Ùģ Ø±ÛĮÙĤ
ĠÙħÙĨ Ø¬Ø±
Ø¨ Ø´
ĠØ¨Ø¯ Ø³Øª
ĠØ¢ Ø¨ÛĮ
ĠØ§ÙħÙĨ ÛĮØª
ĠØ§ÙĦÙħÙ¾ ÛĮÚ©
ÙĦ Ø§ÙĤ
ĠØ§ÛĮÙĨ ØªØ±
ĠÙĪ Ø§ÙĦ
ĠÙ¾ ÙĪÙĦ
Ġ V
ĠÙĨ Ø¨ÙĪØ¯
ĠÙħØ¹Ùħ Ø§Ø±ÛĮ
Ú© Ùħ
ĠØŃ ÙħÙĦ
ĠØ´ Ø§Ø¹
Ø¢ ÙĪØ±
ĠØ§Ø¯Ø¨ÛĮ Ø§Øª
Û±Û ²
ĠÙħØª ÙģØ§ÙĪØª
ĠØ¯Ø§ÙĨ Ø´Ú©Ø¯Ùĩ
Øµ Ø¨
ĠÛ±Û³Û ´
Ø§ ÙĪÙĨ
ĠØ¢Ø¨ Ø§Ø¯
ĠÙĪØ§ØŃ Ø¯
ĠÙħØª Ø¹
ĠÙĨÙĪ Ø¹ÛĮ
Ø§Ú© Ùħ
ĠØ® Ø¯ÙħØ§Øª
Ø§Ùģ ÙĤ
ĠØ¢Ø± Ø§Ùħ
Ø¨ Ø¹
ĠØ§ÛĮØª Ø§ÙĦÛĮØ§ÛĮÛĮ
ĠÙĨ Ø±
ĠÙĪ ÛĮÙĦ
ĠØ± Ø¶
ĠÙĦ ÙĪ
ĠÚ©Ø§Ø±Ú¯Ø±Ø¯ Ø§ÙĨ
Ø§Ùģ Ùĩ
ĠØ§ÙħØ±ÙĪ Ø²Ùĩ
ĠÙĨØ¸ Ø§Ùħ
Ø² Ø§Ø±ÛĮ
ĠØ§Øµ Ø·
ĠØ¨Ø²Ø±Ú¯ ØªØ±ÛĮÙĨ
ĠØªÙĤØ±ÛĮ Ø¨Ø§
ĠØ´Ø± ØŃ
ĠÙĩÙĨÚ¯ Ø§ÙħÛĮ
ĠÙħØ³ÙĦ ÙħØ§ÙĨ
Ø³ Ø§ÛĮ
ĠÙħ Ø¨Ø§Ø±
Ú¯ÛĮØ± ÙĨØ¯
ĠÛ²Û°Û±Û ±
ĠÙ¾ÛĮØ´ ÙĨÙĩ
ĠØ± Ø§Ø¯ÛĮ
Ø£ Ùħ
ĠÙĤ Ø§Ø¬
ĠÙĨÙħØ§ÛĮ ÙĨØ¯Ùĩ
ĠÙ¾ÛĮ ÙĪØ³Øª
ĠØª Ú©ÙĨ
ĠÙħÛĮ Ø±
ĠØ¶ Ø¯
Ø§Ø¦ ÛĮÙĦ
Ø§Ø± Ø§
ĠÚ© Ø§Ø±ÛĮ
ĠÛĮÙĩ ÙĪØ¯ÛĮ
ĠØ® ÙĦÛĮ
ĠØ§Ø® ØªÛĮ
ĠØ§Ø± ÙħÙĨØ³ØªØ§ÙĨ
ĠØ¯Ø±ÛĮ Ø§ÛĮÛĮ
u r
o p
ĠÙħØ³Ø¦ ÙĦÙĩ
ÙĤ Ø§ÙĨ
ĠØ§ÙĤØªØµ Ø§Ø¯
ĠØ§ÙħÙ¾Ø±Ø§Øª ÙĪØ±ÛĮ
ĠØ¹Ùħ Ø±
Ùħ ÛĮØ±
ĠØ¯Ø§Ø¯ ÙĨØ¯
ÙĦ Ø²
ĠÙħØ± Ø§Ø³Ùħ
ĠØ³Ù¾ Ø§Ùĩ
ĠÙĪÙĤ Øª
ĠÛĮÚ© Ø¯ÛĮÚ¯Ø±
ĠØ³ Ø§Ø¯Ùĩ
ĠÙĦ ÙĨØ¯
ĠØªÙĦ Ùģ
Ø¦ ÛĮÙĨ
ĠÚ© Ø§Øª
ÙĪÛĮ ÙĪØ±Ú©
ĠÙħÙĤ Ø§
ĠÙĩØ³Øª Ùĩ
e t
ĠÙħ ÙĪÙĨ
ĠÙħÙĨ Ø§Ø³Ø¨
ĠØ´ÛĮ Ø®
ĠØ§Ø® ØªØµ
ĠØ®ÙĪØ§ÙĨ ÙĨØ¯Ùĩ
ĠÙħØ± ØªØ¨
ĠØ¬ÙĨ Ø³ÛĮ
Ø§Ø± Ø´
ĠØ§Ø¬ Ø§Ø²Ùĩ
ĠÙħØ³Øª ÙĤÛĮÙħ
ĠÙ¾Ø¯Ø± Ø´
Ø¢ ÙĪØ±Ø¯
ĠØ³ÛĮÙĨ ÙħØ§
ĠØ§ÙĪ Ø§Ø®Ø±
ĠÙħØ¹ ÙĨØ§ÛĮ
Ø¨ ÙĪ
ĠÙģØ±Ø§ÛĮ ÙĨØ¯
ĠÙĨÙĩØ§ÛĮ Øª
ĠÙ¾ÛĮ ÚĨ
ĠÙĨØ´ Ø¯Ùĩ
ĠØ¨Ø¹ Ø¯ÙĩØ§
i d
ĠÙģØ± Ø§
an d
ĠØ¯ÙĦ Ø§Ø±
ÙĪ ØµÛĮ
Ø³ Ù¾
Â ł
Ø¢ ÙĪØ±ÛĮ
ĠØªÙħ Ø§ÙħÛĮ
ĠØ³ ÛĮÙĦ
ÙĤÙĦ Ø§ÙĦ
Û² Û°
ĠÚĨÙĩØ§Ø± Ùħ
ĠØ¯ÙĪÙĦ ØªÛĮ
ĠØ·Ø¨ ÙĤÙĩ
ĠØ³ ÙĪØ±
ĠÙħÙĪÙĤ Ø¹ÛĮØª
ĠÙģØ± Ø³Øª
ĠØ¨ Ø§Ø¯
ĠØ´Ø®Øµ ÛĮ
Ø¢ ÛĮ
ĠÙĤ ØªÙĦ
ĠØ§Ø³ØªØ± Ø§ÙĦÛĮØ§
ĠÙ¾Ø§Ø³ Ø®
ĠÙĨÛĮ ÙĪÛĮÙĪØ±Ú©
ĠÚ©Ø´ Øª
ĠÙħØ± Ø²
ĠÙħØ¯ ØªÛĮ
ĠÙĪØ¶ Ø¹ÛĮØª
ĠØ² ÙĨØ¯
ĠØ§Ø³Øª ÙĤÙĦØ§ÙĦ
ĠØŃ Ø§ØµÙĦ
ĠØ¹ÙĦ Ùħ
o s
ĠÙĨÙĤ ÙĦ
ĠØ¹ Ø§ÙħÙĦ
ĠÙĨØ²Ø¯ ÛĮÚ©ÛĮ
ĠØ§Ùħ Ø±
ĠÙĪ Ø§Ú©ÙĨØ´
ĠÚ© Ø³ÛĮ
Ø¨ Ø§Ø²
ĠØ¨Ø± Ø¯Ùĩ
ĠÙħØ´ ØªØ±Ú©
o w
ĠØ³Ø¨ Ø¨
ĠÙ¾Ø§Ø¯ Ø´Ø§ÙĩÛĮ
ĠØ§Øµ ÙĦ
ĠØŃØ±Ùģ Ùĩ
ĠØ§ÙĦÚ©ØªØ± ÙĪÙĨ
ĠÛ² Û±
ĠØ¹ Ø¶
ĠÙĪ ØŃ
ĠØ®ÙĪØ¯ Ø´
ĠØ® Ø¯Ø§
ĠØ³ Ø®Øª
ÙĪÙĦÙĪ ÚĺÛĮ
ĠØ±ÙĤ Ø§Ø¨Øª
¸ Û°
Ø¬ Ø²
ĠÙħØª ÙĪÙĦØ¯
ĠØŃ Ø°
Ø§Ø³Øª Ø§ÙĨÛĮ
ĠÙħØ´ Ø§ÙĩØ¯Ùĩ
ĠØ¹ÙĦ Ø§ÙĤÙĩ
ĠÙĨ Øª
ĠØ¬ Ø±Ùħ
ĠØ¯Ùģ ØªØ±
ĠÙħ Ø£Ùħ
ĠØ± ØªØ¨Ùĩ
ĠØ¨Ø¹ Ø¯ÛĮ
i r
ĠÙĩ ÙĦ
ĠÛ²Û°Û±Û ²
ĠÙħØ³Øª ÙĤÙĦ
ĠØ®ÙĪØ±Ø´ ÛĮØ¯
Ġ K
Ø±ÛĮ Ø§ÛĮÛĮ
ĠÛ² Û³
ØºØ± Ø§ÙģÛĮ
ĠÙģ Ø¶Ø§ÛĮ
ĠØ² ÙĨØ¯Ø§ÙĨ
ĠÙĤØ± Ø§Ø±Ø¯
ÛĮ Ø³ÛĮ
ĠØ¨ÙĦ Ú©Ùĩ
ĠÙ¾ÛĮØ± ÙĪØ²ÛĮ
Ø¨ Ú©
ĠÚ¯ ÙĪØ±
ĠÚ¯Ø±ÙģØª ÙĨ
Ø§Ø± ÙĩØ§ÛĮ
ĠØ¯ Ø¨ÛĮØ±
ik ip
Ġ s
ĠØ§ÙĦ Ú¯
Ø§Ø¨ Ø·
ĠÚ¯ÙĪÙĨ Ø§Ú¯
ĠÛ²Û°Û°Û ¸
Ø§ ÙģØª
ikip edia
Øª Ø³
ÛĮÙĨ Ø§
ĠÙģ Ø¯Ø±
ĠÙħØ®Ø§ÙĦ Ùģ
ĠÙģØ± Ø§ÙĩÙħ
ĠÚ©Ø§ÙĦÛĮ ÙģØ±
ĠÙħÙĨ Øµ
ĠØ±ÙĪ Ø´ÙĨ
ĠÙħØ· Ø±ØŃ
ĠØ±Ùĩ Ø¨Ø±ÛĮ
ĠØ§Ø´ Ú©
Ø§ØŃ Ø¨
Ú¯ ÙĦ
ĠÙħØ§Ø´ ÛĮÙĨ
ÙĪ Ø§Ø²
Ø§ Ú¯Ø±
ĠØ¯ ÙĤÛĮ
ĠØ¬ Ø°
ĠØªØµÙĪÛĮ Ø¨
ĠØ´Ùĩ Ø±Ø¯
ĠÚ© ÙĪÙħ
ĠÙĤ Ø²
ĠØ¬ ØºØ±Ø§ÙģÛĮ
ĠØ²ÛĮ Ø¨
ĠÙĨØ¯ Ø§Ø´Øª
Ø§Ø¬ Ùĩ
ĠØ¯ Ø§Ø±ÛĮ
ĠØŃÙģ Ø¸
ĠØ° Ú©Ø±
Ø§Øª ÙĪØ±
ĠØ³Ø¨ Ø²
ĠÙħØ®Øª ÙĦ
ĠÛ²Û°Û°Û ¹
ĠØ³Ø±Ø§ÙĨ Ø¬Ø§Ùħ
Ø· Ø§ÙĨ
ĠØ®Ø¯ ÙħØª
ÙĨØ§ ÙĪØ±ÛĮ
ĠØ®Øµ ÙĪØµÛĮ
ĠÙ¾ ÛĮÚ©
ĠÙħØ´ Ø§Ø¨Ùĩ
ÙĩØ± Ùĩ
ĠØ®Øµ ÙĪØµ
ĠÚ¯ ÙĨ
ĠØ¬ Ø§Ø¯Ùĩ
ĠØªØ¬ Ø§Ø±ÛĮ
ĠØ§Ø¨Øª Ø¯
Ø§Øª Ø§
Ùħ Ø§ÛĮÛĮ
Ø®Øµ ÙĪØµ
ĠØ³ Ø§Ø³
ĠØ¨Ø± ØªØ±
ĠÙħÙĪ Ø²Ùĩ
ĠØ§Ø³ Ø§Ø³ÛĮ
Ø§Ø¯ÛĮ Ùĩ
ÙĪÙĨ Ø§
ĠÙħØ¬ ÙĦÙĩ
ĠØ® Ø±ÙĪ
ĠÙĪ Ø±ÙĪØ¯
Ù¾ Ø³
ĠØ¹Ø¨Ø§Ø±Øª ÙĨØ¯
ĠÙ¾ÛĮØ´ÙĨÙĩ Ø§Ø¯
ĠØ± ÛĮØ´Ùĩ
ĠØ¹ Ø«
ĠØ¨ÙĨÛĮ Ø§ÙĨ
ÙĦ ÙĪÛĮ
Ø´ ÛĮØ±
ĠÚ¯ Ø§ÙĩÛĮ
ÙĩØ§ÛĮ Ø´
ĠØŃ Ø±
Ø² ÛĮÚ©
ĠÙĨÙĪØ´ Øª
ĠØ¹ Ø¯Ùħ
ÙĪØ´ ÛĮ
Ø±Ú© Ø²
ĠØ² Ùħ
ĠØ§ ÚĨ
Ø±ÛĮ Ø²ÛĮ
ĠÙħÙĩÙĨØ¯ Ø³ÛĮ
ĠÙ¾ Ø§
Ø§Ø±ÛĮ Ø³
ĠÚ© Ø±Ø¨
ĠÙĦÙĨØ¯ ÙĨ
ĠÚ©Ø§ÙĦÛĮÙģØ± ÙĨÛĮØ§
ĠÛ² Û°Û°Û°
ĠÙĨÙĤ Ø§Ø´ÛĮ
ĠØ¨ÛĮØ´ ØªØ±ÛĮ
Ġ of
ĠÙħ Ø§Ø±Ú©
ĠÚ¯Ø±ÙĪÙĩ ÛĮ
ĠØµÙĨ Ø¹Øª
Ø§ÙĨÛĮ Ùĩ
Ú© Ø±ÙĪ
ĠØ¨Ø§ÙĦ Ø§ÛĮ
ÙĪÙĨ Ø¯Ùĩ
ĠÙĤ ÛĮÙħ
ĠØ³ ÙĪØ±ÛĮÙĩ
ĠØ· ÙĦ
ĠØ« Ø§Ø¨Øª
ĠØ¯ÙĪ Ø³Øª
ĠØ±ÛĮ Ø§Ø¶ÛĮ
ĠØ®ÙĪØ§Ùĩ Ø±
Ùģ ÙĦ
Ùģ Ø±Ø§ÙĨ
Ø´ Ùĩ
ĠØ¨Ø²Ø± Ú¯ÛĮ
ĠØ² ÙĨØ¯Ùĩ
ĠÙĨ Ø§Ø¨
ĠÙĪØ² ÙĨ
ĠÙĪ Ø§Ø¨
Û±Û ·
ÚĨ Ø§Ø±
ĠØ³Ø± Ø®
ĠÙħ Ø§Ø²
ĠØ® Ø´Ú©
ĠØ´Ø§Ø® Ùĩ
ĠØ§ÙĪ Ø§ÛĮÙĦ
ĠÙĦ Ø§Ø²Ùħ
Ø®ÙĪ Ø§Ùĩ
ĠØµÙĨ Ø¹ØªÛĮ
ĠØ¯Ø³Øª ÛĮ
ĠÙ¾Ø±ÙĪ Ø§Ø²
Ġ Ġ
ĠØª ÙĪÙħ
Ø§Ø¬ ÛĮ
Û±Û µ
ÙĪ Ø§ÛĮ
ĠØ® ÙĪØ±
ĠÙĤØ§Ø¬ Ø§Ø±
ĠØ¨Ø¯ ÛĮÙĨ
ĠÙĤÙħ Ø±ÛĮ
Ùħ Ø¬
Ø§Ú© Ø³
ĠØ¯Ø±Ú¯Ø° Ø´ØªÙĩ
ĠÚ©Ùħ Ù¾
ÙĨ ØªÛĮ
ĠØ§Ø¹ ØªØ±
ĠÙħØª Ø¹Ø¯
ĠÛ² Û¸
ĠÙģ ÙĨØ§ÙĪØ±ÛĮ
ĠØ±Ø³ Ø§ÙĨØ¯
ĠØª Ø±ÛĮ
ÙĪ ØªÛĮ
ÚĨØ± Ø®Ùĩ
ĠØ³ÙĦØ· Ø§ÙĨ
Ø¹ Ùħ
ĠØªÙĪ ØµÛĮ
ĠØ§Ø±Ø² Ø´
ĠÚ©ÙĪØ¯ Ú©Ø§ÙĨ
ĠÙĩ ÙģØªÙĩ
ĠØ® ÙĦÙĤ
ĠÚ©Ø§ÙħÙĦ Ø§
ĠØªØ£ ÙħÛĮÙĨ
ĠØ· ÙĦØ§
ĠÙĤ Ø§Ø¨
ĠØ± Ø²
ĠØ® ÙĪØ±Ø¯
Ø¹ Ø¨
ĠÙħØ¯ Ø§Ø±
ĠÙħ Ø²
ĠØ¢ÙĪØ± Ø¯Ùĩ
Ø±ÙĪ Ø²
ĠØ¨Ø± Ø²
ĠÙħ Ø¨Øª
ĠÙĨ Ø¨
ĠØ± Ú©
ĠÛ²Û°Û°Û ¶
ĠØ§Ø®ØªÛĮ Ø§Ø±
Ø± Ø§ÛĮÛĮ
Ġ O
ĠØ¯ ÙĤÛĮÙĤ
ĠÙħØ·Ø§ÙĦ Ø¹Ùĩ
ĠØ¢ Ú©
ĠØ® Ø±Ø¯
ĠØ§ÛĮ ÙĦ
/ /
ĠÙĨÙħ ÙĪØ¯Ùĩ
ĠÙħØ°Ùĩ Ø¨ÛĮ
ĠØ¨Ø§ ÙĪØ±
ĠØ³ÙĨ ØªÛĮ
Øº ÛĮØ±
ĠÚ¯ ÛĮØ±
ĠÙħÙĤ Ø§ÙĦÙĩ
ĠÚĨ Ø§Ø±
ĠØ±ÙĪ Ø§Ø¨Ø·
ĠØ¹Ø±Ø¶ Ùĩ
ĠØ¹Ùħ Ø¯Ùĩ
ĠØŃØ³ Ø§Ø¨
ĠØª Ø§ÛĮ
ĠÚ¯ Ø§Ùĩ
ĠÙħØ¹ ØªÙĤØ¯
ĠÙħØŃØµÙĪÙĦ Ø§Øª
ÙħØ§ÙĨ Ø¯
ĠØ¬ Ø¹
ĠØ´ÛĮ ÙĪÙĩ
t p
ĠØ± Ø¯
ĠØ¨Ø±Ø¬ Ø³ØªÙĩ
ĠØ§Ø¨ Ø²Ø§Ø±
ĠØ§Ø¨ ÙĨ
ĠØ§ Ù¾
Ø§ÛĮ Ø²
ĠÛ±Û° Û°
Ø¯ÛĮ Ø³
ĠØªØ´ Ø®ÛĮ
ĠØ§Ø¶ Ø§ÙģÙĩ
Ø³ÛĮ ÙĪÙĨ
ĠÚĨ Ú©
ĠØ§Ø³Ø± Ø§Ø¦ÛĮÙĦ
Ġ [
ĠÛ²Û°Û±Û ´
ĠÛ±Û³Û¹Û µ
ÙĪ Ú¯Ø±
ĠØ§Øµ ÙĦØ§ØŃ
ÙĦ Ùħ
Úĺ Ø§Ø¯
ĠØªØ¹Ø¯ Ø§Ø¯ÛĮ
ĠØµØŃ ÙĨÙĩ
n t
ĠØ´ Ø¨ÛĮÙĩ
ĠÛ±Û¹ Û°Û
ĠØ± Ø¯Ùĩ
ĠØ§ØµØ· ÙĦØ§ØŃ
ĠØ¬ÙĨ Ø¨Ø´
ĠØ³ ÙĪØ¯
ĠÙħØªØŃ Ø¯
ĠØ¹ ØµØ±
Ø³ Ø¯
ĠÙĪ Ø¸
ĠØ¬ Ø§
ĠØ§Ùģ Ø³
ht tp
ĠØ§Ùĩ ÙħÛĮØª
ĠØ´ÙĩØ± Ú©
Ø³ Ú©ÛĮ
ĠØ¨ÛĮØ± ÙĪÙĨ
âĢ į
ÙĪÙĦÛĮ Øª
: //
ĠØ§Ø® ÛĮØ±
ĠÙħ Ø§Ø³
ĠØ¯ Ø¹
Ø ¡
ĠÙħØ¬ Ø¯
ĠØ¢Ø³ÛĮ Ø§
ĠÙħÙĦ ÙĦ
ĠØªÙĪØµÛĮ Ùģ
ĠÛ²Û°Û±Û ³
ĠØ¬Ø§ÛĮ Ú¯Ø²
ĠÛ²Û°Û°Û ·
Ø³ÛĮ Ø¯
ĠØ¯Ø§ÙĨØ´ Ø¬
ĠØª Ø§ÙĦ
ĠØ² Ø¯
ĠÙħÛĮ Ø§ÙĨÙĩ
Ú¯ ÛĮÙĨ
ĠÙĦØŃ Ø§Ø¸
Ú¯ÙĪÛĮ ÙĨØ¯
ĠÙħØ±Ø¯ Ø§ÙĨ
ĠØ®Ø· Ø±
ÙĪØ± Ø§
ĠØ¯ÙĪ ÚĨØ±Ø®Ùĩ
Ø± Ø¯Ùĩ
ĠØªØ¦ Ø§ØªØ±
ĠØ¯ÙĤÛĮ ÙĤÙĩ
Úĺ ÛĮÚ©
ĠÙ¾ÙĪØ´ Ø´
Ùħ ÙĪÙĨ
ĠØ§ÛĮØ³Øª Ú¯Ø§Ùĩ
ĠØ¯ ÙĨÛĮ
Û±Û ¶
ĠÙ¾ Ø§ÙĦ
Ø± ÙĪÛĮ
ĠØ¬ÙĦÙĪ Ú¯ÛĮØ±ÛĮ
ĠØª Ø§Ø±
o t
Ø¢ ÙħØ¯
ĠÛ±Û³Û ²
Ùģ Ø§ÛĮ
Ú© ÙĪÙĩ
ĠÙħÙĪ Ø³
Ø± ÛĮÙĨ
ĠÚ¯Ø±Ø¯ Ø´
ĠÚ¯Ø° Ø§Ø´Øª
ĠØ§ØªØŃ Ø§Ø¯ÛĮÙĩ
ĠØ¨ ÙĪÙħÛĮ
ĠØ±Ø³ Ø§ÙĨÙĩ
ĠÙģ ÙĪÙĦ
ĠØ¹Ø¨ Ø§Ø³
ĠØªÙĪ Ø²ÛĮ
ĠÙħØ± Ø§Ú©
ĠÚ¯ Ø´Øª
ĠÙĩ Ø§Ø±
ĠÙĪÛĮ ÙĦÛĮ
ĠÙģ ÙĪÙĤ
ĠØªØŃÙĤÛĮÙĤ Ø§Øª
ĠÙĤ ÙĪØ§ÙĨ
Â» .
ĠØ· ÙĪØ±
ĠÙħ ÙģÙĩ
Ú¯Ø±Ø¯ Ø§ÙĨ
i g
ĠØ§Øª Ø§ÙĤ
ĠØ´ÙĩØ± Øª
ĠØ§Ø³ØªØ§ÙĨØ¯ Ø§Ø±Ø¯
Ù¾ ÙĪØ±
Ø§Ùħ ÛĮÙĨ
ĠØ¹Ø¯ Ø¯
ĠØŃ Ø§ÙģØ¸
Ġ p
ĠØªØ´Ø®ÛĮ Øµ
" )
ĠØ² ÙĨØ¬
Ù Ĵ
ÛĮÚ© Ø§
ĠÙ¾ Ø§Ù¾
Ø§ÙĪ Ø§
ĠÙĦ Ø§ÛĮÙĩ
Ø´ ØªÛĮ
ĠØªÙĦÙĪÛĮØ²ÛĮ ÙĪÙĨ
ĠÚ©Ø§Ø± Ø¨Ø±
ĠÙģ ÙĨ
ĠØ¢ Ø´ÙĨ
ĠØ§Ø®ØªØµ Ø§Øµ
Ø§ÙĨØ¯ Ø§ÙĨ
ĠØ³Ø±Ø¨ Ø§Ø²
ĠÚ©ØªØ§Ø¨ Ø®Ø§ÙĨÙĩ
ĠÙħØ§ÙĨ Ø¯Ùĩ
ĠØ´Ø¯ Øª
Ú©ÙĨ ÙĪÙĨ
u t
ĠÙħØª ÙĪØ³
ĠÙħÙĤØ§ ÙĪÙħØª
ĠÛ²Û°Û±Û ¶
ĠÛµ Û°
ĠØª Ø§Ø²Ùĩ
Ø³ Ùģ
Û±Û ´
ĠØª Ø§Ø¨Ø¹
ĠØµ Ø§ØŃØ¨
ĠØªØ¨ Ø±ÛĮØ²
Ø³ ÛĮØ±
ĠØªÙĪØ²ÛĮ Ø¹
Ø· Ø±
Ø Ł
a d
ĠØª ÙģØ§ÙĪØª
ĠØ° Ø®
ĠÙ¾ÛĮ Ø§Ùħ
Ġ J
ÙĦ ØŃ
ĠØ¨Ø§ ÙģØª
ĠØ·ÙĪÙĦ Ø§ÙĨÛĮ
ĠØ® ÙĪÛĮØ´
ĠÙ¾ ÛĮØ§
ĠÙģÙĦØ³ ÙģÙĩ
ĠØ§Ø®ØªÙĦ Ø§Ùģ
ĠÙĪ ÛĮÙĨ
ĠØ¢ÙĨ Ú©Ùĩ
ĠØ§Ø± Ø´Ø¯
ĠØ¯Ø± ÙĪ
ĠØ®ÙĪ Ø¨ÛĮ
ĠÚ¯ Ø±ÛĮ
ĠØ³Ø± Ø§Ø³Ø±
ĠÚ© ÙĨÚ¯
ĠØ¯Ø± Ùĩ
Ø±Ø¯ Ø±ÛĮØ§ÛĮÛĮ
ĠÙħÙĪÙģÙĤ ÛĮØª
ĠÙ¾ Ø§Ø±ÛĮØ³
Ø¨ ÛĮÙĦ
ĠØ¹ ÙĤ
ĠÙĨÙĤ Ø§Ø·
ĠÙĨÛĮØ± ÙĪ
ĠØ± Ø£
ĠØ§ÙĨ Ø³Ø§ÙĨÛĮ
ĠØ¢Ø³ÛĮ Ø¨
ĠÙĪ ÛĮØ¯
Ø² Ø§
ĠÙĨ Ø§Ø±
ÙĪÙħ Ùĩ
ĠØ¯Ø§Ø´Øª ÙĨ
ĠÙĩ ÛĮØ¯
Ø´Ú© Ø§Ø±
ĠÙħØ®ØªÙĦ ÙģÛĮ
ĠÚ©Ø§Ø± ÙĩØ§ÛĮ
ĠØªÙĪØ§ÙĨ Ø§ÛĮÛĮ
ĠÚ¯ Ø±Ø§ÙĨ
ĠØ¨ ÛĮØª
ĠØ§Ø¨ Ø±
Ø¨ Ø®Ø´
Ú¯ ÙĪÙĨ
ĠØ§ Ú©ÙĨÙĪÙĨ
ĠØ¬ Ø§ÛĮÛĮ
Ùħ Ø§Øª
Û±Û ¸Û
ĠÙĤØ· Ø¹Ùĩ
ĠØ§Ø³Ù¾ Ø§ÙĨÛĮØ§ÛĮÛĮ
ĠØ¯Ø± Ø³Øª
ĠÙĪØ§ÙĤØ¹ ÛĮ
ÙĨØ§ÛĮ Ø¹
ĠÙĪÙĦ Ø§ÛĮØª
ÙĤÛĮ Ø§ÙĨ
ĠÙħÙĩØ§Ø¬ Ø±Øª
ĠØ´ÙĩØ±Ø¯ Ø§Ø±ÛĮ
ĠØ§Øª Ùħ
ÙĪ ØªØ±
ĠØ´Ùħ Ø§Ø±
Ø¬ÙħÙĩ ÙĪØ±
ÛĮÚ© Ø³
Ù¾Ø±Ø¯Ø§Ø² Ø¯
ĠÙĤÛĮÙħ Øª
ĠÙ¾Ùĩ ÙĦÙĪÛĮ
ÛĮ Ø§Ø¨Ø¯
ĠØ± Ø§ÙĨ
ĠØ¯ ÚĨØ§Ø±
Ġ ÛĮØ²
ĠØ¢ ÛĮÙĨ
ĠÙĨØ³ ÙĦ
ĠØ¯Ø§Ø¯ Ú¯Ø§Ùĩ
ĠØµ Ø±Ùģ
Ø§Ø¯ Ú¯ÛĮ
ĠÛ±Û³Û ³Û
Ø³ Ø§Ø³
Ġ :
ĠØ¹ÙħÙĦ Ú©Ø±Ø¯
ĠÙħØ¤Ø³ Ø³Ùĩ
ĠØ¬ Ø³Øª
ĠÙħØŃÙħ ÙĪØ¯
Øª Ø®Øª
ĠÙ¾ ÛĮÙħ
ĠØ® Ø§ÙĨØ¯Ø§ÙĨ
ÙĪØ± ØªÛĮ
ĠÙħÙĨØª ÙĤÙĦ
ĠÙĪØ± ÙĪØ¯ÛĮ
ÙĪ Ø°
ĠØ³ Ùħ
ĠÙĪ ÙĨ
ĠØ³Ú© ÙĪÙĨØª
ĠØ§Ø¯ Ø¹
ĠØ¨Ø§Ø²ÛĮ Ú¯Ø±Ø§ÙĨ
ĠØ³ Ø±ÙĪ
ĠÙĨ ÙĩØ§ÛĮÛĮ
ĠÙĤÙĦ Ùħ
en t
ĠØªÙĨ Ø¸ÛĮÙħ
ĠØ³ Ø§ÛĮØª
ĠØµ ÙĨØ§ÛĮØ¹
ĠÛ³Û µ
ĠÙ¾Ø± Øª
ĠØ³ Ø§Ú©
ĠÙĪ ÛĮØª
ĠØªÙĪ Ù¾
ĠØ¯ÛĮ ÙĪØ§Ø±
ĠÙĤÙĪØ§ÙĨ ÛĮÙĨ
Ø§ ÙģØ±
ÙĦ Ø§Øª
ĠØ¨Ø± ÙĤ
ÙĤÛĮ Ùĩ
ĠØ§ÛĮ Ø´Ø§ÙĨ
ĠÛĮ ÙĪØ§Ø³
ĠÛ²Û°Û±Û µ
ĠØ§ØªØŃ Ø§Ø¯
ĠØ¯Ø§ÙĨ Ø´Ùħ
Ø² ÙĦ
ĠÚ¯Ø± Ø§Ùģ
ĠØ¸Ø§Ùĩ Ø±
Ø§Ø¯ Ø«
ĠØ§Ø³ Ùģ
ĠÙ¾ Ø³Øª
ĠØ¯Ø± Ø®ÙĪØ§Ø³Øª
ĠØ±Ø³ÛĮ Ø¯ÙĨ
Ø§ÙĨÛĮ Ùħ
ĠØ¸ Ø±Ùģ
ĠÚĨ ÛĮØ²ÛĮ
ĠØ³ Ø§Ø¨ÙĤÙĩ
ĠØ±ÙĪØ³ØªØ§ ÙĩØ§ÛĮ
ĠÛ²Û°Û°Û µ
Ġ d
ĠÙĦ Ø±
ÙĪÛĮ Ø²
ĠØŃÚ© Ùħ
ĠÙħÙĨ ØŃ
Ø¨ Ø§Ø¨
ĠØ§ÙĦÚ¯ ÙĪØ±ÛĮØª
Ø³ÛĮ ÙĦ
ĠØ®Ø§Øµ ÛĮ
ĠÚ©ÛĮ Ùģ
ĠÙ¾Ø§Ú© Ø³ØªØ§ÙĨ
ĠÙĦ Ø´Ú©
ÙĪØª Ø§
ĠØ®ÙĪØ§ÙĨ Ø¯Ùĩ
ĠØ´Ø¯ ÛĮØ¯
Ø´ ÛĮÙĨ
ĠÙĦØ¨ Ø§Ø³
ĠÙħ Ø§Ø±ÛĮ
ĠÚĨ Ø±Ø§
ĠÙĪØ±Ø² Ø´ÛĮ
ĠØ¹Ø¨ ÙĪØ±
ĠÙħØª ÙĪ
ØªÙĪØ§ÙĨ Ø³Øª
Ø¨ ÛĮÙĨÛĮ
ĠØªØ¬ Ø±Ø¨Ùĩ
Ø¯ÛĮ Ø¯Ùĩ
ĠØ¹Ø« ÙħØ§ÙĨÛĮ
ÛĮÚ© Ùĩ
ĠØ¬ØºØ±Ø§ÙģÛĮ Ø§ÛĮÛĮ
ĠØ±ÙģØª Ø§Ø±
ĠÛ² Û¹
ĠÙ¾ÙĦÛĮ Ø³
ĠØ±Ø§ÛĮ Ø§ÙĨÙĩ
ĠØªØŃØµÛĮÙĦ Ø§Øª
ĠÚ¯ÛĮÙĦ Ø§ÙĨ
ĠÚ¯ Ø²
ĠØ¨ÙĦ ÙĪÚĨ
ĠÙĪØ±Ø²Ø´ Ú¯Ø§Ùĩ
ÙĨÙĪÛĮ Ø³ÛĮ
ÙĪÙħ Ø§
Ø³ ÙĪØ±
ĠÛĮÙĪÙĨ Ø§ÙĨÛĮ
ĠÙħØŃ Ø¨
ĠÚĺØ§ÙĨ Ø±
ĠØ¨ ÙĨØ¯
ĠÙĪ Ø§Ø±
ÛĮÙĨ ÙĪ
ĠØª Ø®Øª
ĠÚ©Ø§Ø± Ø®Ø§ÙĨÙĩ
ĠÙ¾Ø§ÛĮ Ú¯Ø§Ùĩ
u n
ĠÙ¾ ÙĪØ³Øª
ĠØªØŃ ÙĦÛĮÙĦ
Ùħ ØªØ±
Ø¨ Ø§ÙĨÛĮ
ĠØ³Ø±ÛĮ Ø¹
Ø§Ø¦ Ùħ
Ø§ÛĮ Ø³Ùĩ
Ø§ÙĤ ÙĦ
ĠÙĤ Ø§ÙĦØ¨
ÙĨØ´ ÛĮÙĨ
Ø§ Úĺ
Ú© Ø´ÛĮ
ĠÙĨ ÙĪØ²
ĠÙħØ´Ú©ÙĦ Ø§Øª
ĠØ¢ ÙĦÛĮ
ĠØ®ÛĮ ÙĦÛĮ
ĠÙĨØ¸ ÛĮØ±
Ù¾ Ø°ÛĮØ±
ĠØ§ÙģØª Ø®
ĠØ³ ÛĮØ±
ÙħØ¯ Ø§Ø±
ĠØ¢ÙĨ ÚĨÙĩ
Ø§Ø² Ø¯Ùĩ
ĠÙģØ±Ùħ ÙĪÙĦ
Øµ Ùĩ
ĠØ¨ÛĮÙħ Ø§Ø±Ø³ØªØ§ÙĨ
ĠÙħØªØ¹ ÙĦÙĤ
Ø¹ ÙĪØ¯
ĠÙģ ØªØŃ
Ġ( ;
ÛĮ Ø§ÙĨ
ĠÙ¾Ø§ÛĮ ØªØ®Øª
ĠØ¨ØŃ Ø«
a g
ÙĪÛĮ Ùħ
ÙĪ Ø³ØªÙĩ
ĠØ¯Ø³Øª Ø±Ø³ÛĮ
ĠØ¯Ø±ÛĮ Ø§ÛĮ
Ú© ØªØ±ÛĮ
ĠØ¢ÛĮÙĨ Ø¯Ùĩ
ĠØ§Ú© Ø«Ø±
ĠÙħØ¨Ø§Ø± Ø²Ùĩ
ÙĤØ± Ø§Ø±
ĠØ³ÙĪÙħ ÛĮÙĨ
ĠØµ Ø¯Ø§
ÙħÛĮÙĨ ÛĮ
ĠØ¨Ø±Ø®ÙĪØ±Ø¯ Ø§Ø±
ĠÙĤØ§Ø¨ ÙĦÛĮØª
Øµ Øª
Ú© ÙĪÙħ
ĠØ¨Ø±Ø² ÛĮÙĦ
ĠØ³ Ø§Ú©ÙĨ
ĠØµ Ø§Ø¯
ÛĮØ´ ÙĨ
ĠØ§Ø¹ ÙħØ§ÙĦ
Ûµ Û°
ĠØ±Ùĩ Ø¨Ø±
ĠØ¯Ùħ ÙĪÚ©
Ø³ Ø±ÙĪ
ĠØ§Ø¨ Ø±Ø§Ùĩ
ĠØ² Ø¯Ùĩ
ĠØªØ£ ÛĮ
ĠÙħ Ø±ÛĮ
ĠÙħÙĤ Ø§ÛĮØ³Ùĩ
i v
ĠÙĨ Ø§Ù¾
Ø¦ ÙĪ
0 1
ĠÙĤØ¨ ÛĮÙĦ
Ú¯Ø² Ø§Ø³
ĠØ§ÙĦÚ¯ÙĪØ±ÛĮØª Ùħ
ÚĨ ÙĨÛĮÙĨ
ĠÙĤ Ø¶
Ùģ Ø¹
Û°Û µ
ĠØ® ÙĪØ²
ĠÙģØ± Ø§Ø±
Ú© ÙĪØ±
ĠÙģØ±ÙħØ§ÙĨ Ø¯Ùĩ
ĠØ¯Ùĩ ÙĨØ¯
ĠØ§ÙĨ Ø¯ÛĮØ³
ĠØ¯ Ø´Ùħ
Ùĩ Ø§Ùħ
ĠÙĪØ§Ø¨ Ø³ØªÙĩ
ĠØ¢ÙħÙĪØ² Ø´ÛĮ
ĠÙĤØ¯ ÛĮÙħ
ĠÙħØ±ØªØ¨ Ø·
ĠØ¨ ÙĪ
ĠÙĨÚ¯Ùĩ Ø¯Ø§Ø±ÛĮ
ĠØ± Ùħ
ĠØªØ£ÛĮ ÛĮØ¯
ĠØªØºÛĮÛĮØ± Ø§Øª
ĠØª Ú¯Ø²Ø§Ø³
ĠØ§Ø±ÙĪÙ¾ Ø§ÛĮÛĮ
ĠØ¯ Ø§ÛĮ
ĠÚ©Ø§Ùħ Ù¾ÛĮ
ĠÙħÙĨ Ø¨Ø¹
ĠØ´Ø§Ø¹ Ø±
Ú©Ø± Ø¯Ùĩ
ĠØ³Ø® ÙĨ
ØªÛĮØ¨ Ø§ÙĨÛĮ
.. .
ĠØŃØ° Ùģ
ĠÙ¾ÙĨØ¬ Ùħ
ĠÚ©Ø±ÙħØ§ÙĨ Ø´Ø§Ùĩ
ĠÙĦ Øº
ĠÙ¾ ÙĪØ±
ĠØ¬ ÛĮÙħ
Ø§ÙĦ Ùħ
ÙĪ Ø§Ø±Ø¯
ĠÚĨØ´Ùħ Ùĩ
ĠÙĩØ¯ Ø§ÛĮØª
ĠÙĪÛĮÙĦÛĮ Ø§Ùħ
ĠÚ© Ø§Ù¾
ĠØ±ÙĪØŃ Ø§ÙĨÛĮ
ĠÙħ Ø§Ø¬
ĠØ´Ùħ Ø§
ĠØ¯ ÛĮØ±
ĠÙĨ Ø§Ø´ÛĮ
Ġ U
ĠØ³ Ø§Ø²ÛĮ
ĠØ¯Ø±ÛĮØ§ ÚĨÙĩ
Ùħ Ø¯ÛĮ
ĠØ¨ Ø§ÙĨ
o d
ĠØ§ØŃ Ø³Ø§Ø³
Ø« ÛĮ
ĠØ§Ùħ ØªÛĮ
Ġ m
ĠÙ¾Ø´ ØªÛĮØ¨Ø§ÙĨÛĮ
ĠØ´ÙĨØ§Ø³ Ø§ÛĮÛĮ
ĠØ± Ø§ÛĮØ¬
ĠØ§ÙĦ ÛĮ
ĠÛ²Û°Û±Û ·
ĠØ¯ Ø´Øª
ĠØ²ÛĮ Ø±Ø¯Ø±ÛĮØ§ÛĮÛĮ
ĠÙĨ ØŃ
ÙĨ Ø§Ø¯
ĠØ³Ø§Ùħ Ø§ÙĨÙĩ
ĠØ®ÙĪØ² Ø³ØªØ§ÙĨ
ĠÙĦ ÛĮÙĨ
Ø³Øª Ø±ÛĮ
Ú¯ Ø§
ĠØ² Ø±Ø¯
ĠÙĩ ÙĦÙĨØ¯
ÙĨ Ø§Øª
ĠÚ©ÙĦ ÙħÙĩ
ĠØ°Ø® ÛĮØ±Ùĩ
Ú© Ø§Ùħ
ĠÙĩÙħÚĨ ÙĨØ§ÙĨ
ĠÙ¾ÛĮ ÙĪÙĨØ¯
ÛĮ ÙĪØ§Ø³
ĠØ¬Ø§ÛĮÚ¯Ø² ÛĮÙĨ
ĠÙĤ Ø§Ø¯Ø±
ĠÙĨÙħØ§ÛĮ ÙĨØ¯Ú¯Ø§ÙĨ
Û°Û ±Û
ĠÙĤ ÛĮ
ĠØ¨ÙĨÛĮ Ø§Ø¯
ĠØ± ÙĪÙĨ
ĠØŃ Ø§Ú©Ùħ
ĠÙħØ¹ Ø§Ø¯ÙĦ
ĠØ¯Ø± Ø§Ùħ
ĠÚ©Ø´ ÙĪØ±ÛĮ
ĠÙĩÙħØ§ÙĨ ÙĨØ¯
ĠÙħØ¯Ø± ÙĨ
ĠÚ¯ ÙĪÛĮ
ĠØª Ø®Øµ
ĠÙħØ³ÛĮ ØŃÛĮ
ĠÛ´ Û°
ĠÚ©Ø±ÛĮ Ø³Øª
Ø¸ Ùĩ
ĠØ§Ø¹ØªØ± Ø§Ø¶
ĠÚ¯Ø° Ø§Ø´ØªÙĩ
Û°Û ´
Øº ÙĨ
Ø´Ø¯ ÙĨØ¯
ĠÚ©Ø§Ø± Ø´ÙĨØ§Ø³ÛĮ
ĠØ¬Ø° Ø¨
ĠØ§ÙĦ Ùħ
ĠÛ³Û ²
ĠÙ¾ Ø¯ÛĮØ¯
ĠÙ¾ÛĮØ´ Ø±ÙģØª
Ø§ÙĨØ¯ Ø§Ø²ÛĮ
Û°Û ²
ĠÙħØ·Ø§ÙĦ Ø¹Ø§Øª
ĠÛ²Û°Û°Û ´
Ø¯ ÛĮÙĨ
ĠØ¨ Ú©Ø§Ø±
Ø§Ø¯Ùĩ Ø§ÛĮ
ĠÙħÙģÙĩ ÙĪÙħ
ĠÙĨÙĤ Ø±Ùĩ
ĠÙ¾Ø±Ø¯ Ø§Ø²
ĠØ¯ ÙĪØ¯
ĠÙĪ Ø§ÙĦÛĮ
ĠØ§Øª Ø±ÛĮØ´
ĠÙģÛĮØ² ÛĮÚ©
ÙĨØ¯ Ø±Ø§ÙĨ
ĠÙģ Ø±ÛĮ
ØªØ¨ Ø§Ø±
ĠÙģØ± Ø¶
ĠÙĩÙħ ÛĮØ´Ùĩ
ĠÙĩÙħ Ú¯Ø§ÙĨÛĮ
ĠÚ©ÙĨ ÛĮØ¯
ĠØ¬Ø§ÛĮ Ú¯Ø§Ùĩ
ĠØ±Ø§ Ú©
ĠÚ¯ÙĪÙĨØ§Ú¯ ÙĪÙĨ
ĠÙĨÙĩ Ø§Ø¯
ÙĪØ· Ùĩ
ĠØ´ÛĮØ± Ø§Ø²
ĠÙħÙĤØ¯ Ø³
Û°Û ·
ĠÙħØª ØµÙĦ
ĠÚ© Ùģ
ĠÛĮÚ© Ùħ
ĠÙħØ¹ Ø¯
Øª ÛĮÚ©
ÙĪ Ø§ÙĨÛĮ
ĠÙĨÙģ ÙĪØ°
ĠÙĨØ´ Ø§ÙĨÙĩ
ĠØ³ÛĮ Ø³ØªØ§ÙĨ
ĠØ¯Ùĩ ÙĨØ¯Ùĩ
ĠØµ ÙĦØŃ
Ø§ÙĦ ØŃ
ĠØ± ÛĮØ²
ĠØ± Ø¶Ø§
Ø¬ Ø§ÛĮÛĮ
ĠØ® Ø§Ùħ
ĠØªØ¯ Ø±ÛĮØ³
ĠØ¨ Ø´Ø±
ĠÙħØŃØ¨ ÙĪØ¨
ÙĪØ§ÙĨ Ùĩ
ĠØ¬ ÙĪØ±
ĠØ¹ Ú©Ø³
ĠÚĨ ÙĨØ§ÙĨ
ĠÙħØ§ÙĦ Ú©
ĠØŃ Ø¬
ĠÙĨØ´ Ø¯
ÙĪØ± ÙĪ
ĠÙĨØ§Ùħ Ø²Ø¯
ĠØ¨ Ø§Ø³ØªØ§ÙĨÛĮ
ĠØ§ÙĦÚ©ØªØ± ÛĮÚ©ÛĮ
ĠÙĨÙĤØ´ Ùĩ
ĠÙħÙĩ Ø¯ÛĮ
ĠØ¹Ø±Ø¨ Ø³ØªØ§ÙĨ
ĠÛĮ ÙĪ
³ Û°
ĠÙĨÙĪ Ø§Ø²
ÙħÛĮÙĦ Ø§Ø¯ÛĮ
ĠÙģØ±Ø¯ ÛĮ
ĠÚĨ ÙĩØ±Ùĩ
Ø³Ú© ÙĪ
or g
Ú¯Ø± ÙģØªÙĩ
Ú© Ø±ÛĮ
ÙħØ§ÙĨ ÙĨØ¯
ÛĮÙĨ Ø²
es s
ĠÙĤ ÙĪÛĮ
ĠØ¹ Ø´ÙĤ
_ _
ÙĪÚ© Ø³
ĠØ¬ÙĨÚ¯ ÙĦ
Ø§Ø± ØªÛĮ
ĠØ¨Ùĩ Ø¨ÙĪØ¯
ĠØ§Ø¬ Ø±Ø§ÛĮÛĮ
Ø¢ Ø±
ĠØŃÙĦ ÙĤÙĩ
Û°Û ¶
ĠØ§Ùĩ Ø¯
ĠØŃÛĮ ÙĪØ§ÙĨ
ĠÚĨ Ù¾
ĠÚ© Ø§Ø®
Ø³ÛĮ Ø§Ø±Ú©
ĠØ³ Ø¯
ĠÙħØ³ Ø§Ø¦ÙĦ
Ø¨ Ø·
ĠØ¹ ÙĤØ¨
ĠØ³ Ø±Ú©
Ø¦ ÙĪÙĨ
ĠØ§ÙħØ±ÙĪ Ø²
Ø§ÙĦ Ø¹
Ø§Ø °
ĠÙħØŃ Ø§ÙģØ¸
ĠÙ¾ÛĮØ§ Ø¯Ùĩ
ĠÙĨ ÙĪØ¨
Ø§Ùħ Ù¾
ĠØ§ÛĮ Ø¯Ùĩ
ĠÚ©ÙħÛĮ ØªÙĩ
ĠØ¹ Ø±ÙĪ
Ø¯Ø§Ø± ÙĨØ¯
ĠØ§ÙĪ Ø³Øª
ĠÚ© Ø³Ø§ÙĨÛĮ
ĠÙĩ ÙĪØ´
ĠØ¯Ø§Ø± ÙĪ
ĠØ® ÙĪØ¨
ĠÙ¾ÙĨ Ø§Ùĩ
ĠÚ©ÙĨ ÙĪÙĨÛĮ
ĠÙĤ ØµØ¯
ĠÙĩÙĪ Ø§ÛĮ
ĠÚ©Ø´ ÛĮØ¯Ùĩ
Ø¨ Ø±ÙĪ
ĠØ³ ÙĨØ¯
ĠØ¨ ÙĨØ¯Ø±
ĠØ¹ Ø²
Ø§Ø¦ ÙĪ
ĠØ¨Ùĩ ÙħÙĨ
Ø§Ø± Ùģ
ĠØ¢ ÙĨØ¯
ĠÙĪ Ø§Ø³
Ù Ģ
ĠØªØ§Ø¨ Ø³ØªØ§ÙĨÛĮ
ĠØ´ Ø¨Ùĩ
ĠØ¶ Ø±Ø¨
Ú¯Ø± Ø§ÛĮÛĮ
Ø¨ Ø§ÛĮ
ĠØ±ÙĪ Ø§ÛĮØª
ÙħØ§ÙĨ Ø¯Ùĩ
ĠÙħÛĮ ÙĨ
ĠÙħ Ø§Øª
ĠÚĺ ÙĨ
ÚĨ ÙĨØ¯
ĠÚ© Ø§ÙģÛĮ
i m
ÙĪØ³ Ùģ
ĠØ§ÙĨØª Ø¸
ĠØ¨Ùĩ ØªØ±
Ø´ÙĨ Ø§ÙħÙĩ
ĠØ¨ÙĦÙĪÚĨ Ø³ØªØ§ÙĨ
ĠØ¹Ø¨Ø¯Ø§ÙĦ ÙĦÙĩ
ĠØ§Øµ ÙĪÙĦ
ĠØ¹ÙĪ Ø§ÙħÙĦ
Ø§Ø¯ Ø§Ø±
ĠØµ ÙģØ±
Ø¯ Ø§ÙĨØ¯
ĠÙĨ Ø§Øª
ĠÙĤØ± ÙħØ²
ĠØ´ Ø§ÛĮ
ĠÙħ Ø®ØµÙĪØµ
ĠÙ¾ Ø§ÙĨ
ĠØ¨ Ø§ÛĮ
ÙĦÛĮ Ù¾
ĠÛ±Û¸Û ¹Û
ĠÙ¾ÛĮØ´ ÛĮÙĨ
ĠØ³ÛĮÙĨ ÙħØ§ÛĮÛĮ
ĠØ§Ø³ ÛĮØ¯
ĠØŃØ¯ Ø§ÙĤÙĦ
ĠÙĩÙĨØ±Ùħ ÙĨØ¯
ĠØ§Ø¨Ø±Ø§Ùĩ ÛĮÙħ
ĠØ¢ Ø¯
Û°Û ±
ĠØ§ÛĮ Ø²
ĠØ¯Ø± Ú¯ÛĮØ±ÛĮ
ĠØ§ÙħØªÛĮ Ø§Ø²
ÙĪÚ© ÛĮ
Ùģ Ø±Ø¯
ĠÙħØ§Ø² ÙĨØ¯Ø±Ø§ÙĨ
Ú¯ Ùĩ
Ú© ÙĪÙĦ
ĠØ¯ ÛĮÙĨÛĮ
s t
ĠØª Ø²
ĠÙħØ¬ Ø¨ÙĪØ±
ĠÙĨØ´ Ø³Øª
ĠÙħØ¹Ùħ ÙĪÙĦ
Ø¯Ø§ÙĨ ÙĨØ¯
ĠØ¯ÛĮØ¯ Ú¯Ø§Ùĩ
ĠÙħØª ØºÛĮØ±
ĠÙħÙĩ ÙħÛĮ
ĠÙħØ³Ø¦ ÙĪÙĦ
ĠÙĤØ§ÙĨ ÙĪÙĨÛĮ
e m
ĠÙĤØ± Ø¢ÙĨ
Ø´Ú© ÙĦ
ĠØ§Ùĩ Ø§ÙĦÛĮ
ĠÙħØ± Øª
ĠØªÙĪ Ø¶ÛĮ
Ø³ ÙĦÙĩ
ĠØ®ÙĦÛĮ Ø¬
ĠØ¬Ø¯ ÙĪÙĦ
ĠÙģ ÙĨÛĮ
Ġ /
ÛĮÙħ ÙĨ
Ø§Ùħ ÙĪÙĨ
ĠÚ¯Ø±ÙģØª ÙĨØ¯
ĠÙħØŃ Ø§Ø³
ĠØ§Ú¯Ø± ÚĨÙĩ
Ú© ÙĦÛĮ
ĠÚ©ÙĦÛĮ Ø³Ø§ÛĮ
ĠÙħÛĮÙĦÛĮ Ø§Ø±Ø¯
ĠÙĨ ÙĪØ±ÛĮ
Ø§Ø¯ ÙĪ
ĠÙĤØ·Ø¹ ÙĨØ§ÙħÙĩ
ĠØ§ÙħÙ¾Ø±Ø§Øª ÙĪØ±
ĠØª Ø§Ú©
Ùģ ÙĪØ±Ø¯
ÙĨÚ¯ Ø§Ø±
ĠØ§Ø³ Ø¨
ĠØ§ÙģØª Ø§Ø¯
ĠØ¯Ø§Ùħ ÙĨÙĩ
ÙĨØ¬ ÛĮ
Ø§ÙĨØ¯ Ø±
ĠØ¯Ø§ÙĨ Ø³Øª
ĠØ® Ø§ÙĦ
ĠØµØ¯ Ø§ÛĮ
ĠØŃÙģ Ø§Ø¸
Ø³ ÙĪØ§Ø±
ÙĪÙĦ Ùģ
ĠÙĨ Ø§Ú¯
ĠØ± ØŃ
ĠØªØ¨ ÙĦÛĮ
ĠØ¯ ÙħØ§ÛĮ
u m
w w
ĠÙħØ¯ ÙĨÛĮ
ĠØ§ØŃØªÙħØ§ÙĦ Ø§
ĠØ§ ÙĤÛĮØ§ÙĨ
ĠÛ³Û ¶
ĠØ³ ÙĦÛĮ
Ø¢ ÙĩÙĨÚ¯
ĠØ³ÙĪØ¦ Ø¯
ĠÙħÙĤ Ø±
ĠÙĩÙĪØ§Ù¾ÛĮÙħ Ø§
Ø§ÛĮ ÙĤ
ĠØ¨ÛĮÙħ Ø§Ø±
Ġ b
ĠØª Ø±Ø¨
t h
ĠØº ÙĦ
Ù¾ Ø°ÛĮ
ĠØ§Ø¹ ØªÙĤ
ĠÙħØŃ ÙĪØ·Ùĩ
ÙĨ ÙĪØ´
Ø¢ ÙĦ
ĠÙģØ§Ø± Øº
ĠØ§ÛĮ ÙģØ§ÛĮ
ĠØ¢Ùħ Ø§Ø¯Ùĩ
ĠØ§Ø³ Ú©Ø§Ø±
Ø²ÛĮ Ùĩ
ĠØ¨ÛĮØ´ ØªØ±ÛĮÙĨ
ĠØ´ ÙĦ
ĠØ¨Ø± Ø§Ø¯
ĠÙħØŃØ§Ø³ Ø¨Ùĩ
Ùħ Ø§Ø±
Ú¯ ÙģØª
Ġ g
ĠØ³ÙĦ Ø³ÙĦÙĩ
ĠÙ¾Ø± ÙĪØ±Ø´
ĠÚ© ÙĪØ´
ĠÙģØ¶ Ø§ÛĮÛĮ
ĠØª ÙĨÚ¯
ĠØ¢ ÙĩÙĨ
ĠÙħØ³ÛĮ ØŃ
ĠÛ¶ Û°
ĠÙĨØª Ø§ÛĮØ¬
ĠÛ±Û¹Û ¹Û°
Ø¨ÙĪØ± Ú¯
ĠÙĤØ±Ø§Ø±Ø¯ Ø§Ø¯
Û² Ûµ
ĠÛ²Û°Û±Û ¸
ĠÙĦ ÙĪØ¦
Ø²ÛĮ Ø¯Ùĩ
Ø± Ø¶Ø§
Ø´ ÙĪ
Ùħ Ø±Ø¯
ÙĪÛĮ ÚĨ
ÙģØ± ÙĪØ¯
Ùħ Ø³
Ø§Ùģ Ø¹
ĠÙĨ ÙĩØ§
ĠØ³Ø§ÙĨ ØªÛĮ
e c
ĠÙħÙĪ Ø§ÙģÙĤ
Ø³Øª ÙĪÙĨ
ĠØ±Ø£ ÛĮ
ĠØ¯ÙĪ Ø³ØªØ§ÙĨ
ĠÛĮÙĪÙĨ Ø§ÙĨ
ĠÚĨ ÛĮØ²
ĠØµ ÙĪØ±ØªÛĮ
ĠÙħØªÙĪØ³ Ø·
Ù¾ Ø§
ĠÚ¯Ø±Ø¯ ÛĮØ¯Ùĩ
Ø§ÙĨ Ø¯Ùĩ
ĠÛ²Û°Û°Û ³
ÙĪØ± Ùĩ
ÛĮ ÙģÙĩ
ĠÙĨÙĪ Ø§ØŃÛĮ
Ùħ Ø§Ùĩ
ĠÛ²Û°Û°Û ²
ĠØªØ§Ø¨ Ø³ØªØ§ÙĨ
ĠØ§Ø´ Ø¹
ĠØ® Ø±ÛĮØ¯
ÛĮØ¯ ÙĨØ¯
ĠÚ¯Ø±Ø¯ Ø¯
ÙĪÙĦ Øª
ĠØªØ¬ Ø§Ø±Øª
ĠÙħØ¯ Ø±Ú©
Ø§Ø¹ ÛĮÙĦ
ĠÙħØ³ÙĦÙħØ§ÙĨ Ø§ÙĨ
Ġ n
ĠÙģ Ø¶Ø§
ĠØ¢ Ù¾
ĠØ§ÙģØ± Ø§Ø¯ÛĮ
ĠØ¨ ÙĤ
ĠÙģ ÛĮÙĨ
ĠØ¢ Ùĩ
ĠØªÙĪØ¶ÛĮ ØŃ
ØŃ Ø³ÛĮÙĨ
ĠØ³ Ø§ÛĮ
ĠÚĺØ§Ù¾ ÙĨÛĮ
ĠÚ©ÙĪØ¯ Ú©
Ġ 3
ĠÙĨ ØµØ¨
ĠØ¢ÙħØ±ÛĮÚ© Ø§ÛĮ
ĠÙħØ´ Ø±ÙĪ
ĠØ§Ø´ Øª
ĠÙĨ Ø§Ø¯Ø±
Ġ http
ĠÚ©ÙĨ ÛĮÙħ
ĠØ®Ø· ÛĮ
ĠØ¬Ø¯ÛĮØ¯ ÛĮ
Ø¨Ø± Øª
ĠØ® Ø±Ùħ
ĠØ¹ Øµ
ÙĨ Ú©
Ø´ÙĨ Ø¨Ùĩ
ĠØ§Ø¨ ÙĪØ§ÙĦ
ĠØªØ¨ÙĦÛĮ Øº
ĠØ³ Ø¹ÛĮ
ĠØ´ Ø§Ø±
Ø§ÙĪ ÛĮØ±
ĠØ¨ Ø³
Ø²Ø¯ Ø§ÛĮÛĮ
ĠÙĨ Ú¯Ø§Ùĩ
ĠØ§Ø³Ú© Ø§Øª
ĠÙħ Ø§Ø±Øª
ĠÙħØ§Ø¯Ø± Ø´
ĠÙģØ±ÙħØ§ÙĨ Ø¯ÙĩÛĮ
ĠÙĨÙħ Ø§ÛĮØ¯
Û² Û´
ĠÙĪ Ø§Ø´
ĠÙħØ´Ùĩ Ø¯
ĠÚ©ÛĮÙģ ÛĮØª
ĠØ³ÙĪ Ø®Øª
Ġ f
ÙĤ Øª
ĠÙĪØ¸ ÛĮÙģÙĩ
r a
ĠØ²ÙħÛĮÙĨ ÛĮ
ĠØ§Øª Øµ
Ø± Ø§Ùħ
ĠØ¯ Ø§
ĠØ¯Ø¹ ÙĪØª
ĠÙĨ Ú©
ÙĤÛĮÙĤ Øª
ĠØ¨Ø§Ø² Ø±
ĠØ¹ Ø§Ø´
ĠÙħÙĪ Ø´Ú©
Ø§Ø¯ Øª
Ø¬ ÙĪØ§ÙĨ
ĠÙĨ Ø§ØµØ±
ĠÙħØ±Ø§Ú© Ø²
ĠØ²ÛĮ Ø¨Ø§
ĠØ§ÙĦ Ùģ
ĠØ¨ Øº
ĠØ¹ ÛĮÙĨ
ĠØ§Ø³Øª ÛĮ
ĠÙĩÙĪØ§ Ú¯Ø±Ø¯
ĠØ³ÙĤ ÙĪØ·
ÛĮØ² Ùĩ
ĠØ±ÙĪ Ø³
ĠØ¶ Ø±
ĠØ·Ø¨ÛĮ Ø¹Øª
ĠÙħØ§ÛĮ Ú©ÙĦ
ĠÚĨ ÛĮÙĨÛĮ
Ø§Ø¨ Ø±ÛĮ
Ø¬Ùĩ ÛĮØ²
Ø¨ ÙĨØ¯
ĠÚ© Ø±ÙĪ
ÙĦ ÙĪØ¨
ÙģØ±ÙĪØ¯ Ú¯Ø§Ùĩ
o v
ĠÛ±Û¹Û¹Û ¹
Ø§ ÙĪÛĮÙĩ
ĠÛ±Û³Û ±Û
ĠØ´ÛĮ Ø¹Ùĩ
Ø¨Ùĩ Ùĩ
ĠØ¯ÛĮØ¯ Ø§Ø±
Ø¯ Ø³Øª
ĠØ±Ø§Ø¯ÛĮ ÙĪ
ĠÚ©ÙĨ ÙĨØ¯Ùĩ
Ú¯ Ø§Ø±ÛĮ
ĠØ¬ÛĮÙħ Ø²
ĠÙħØŃ ÙĤ
ĠÙ¾Ø±ÙĪØª Ø¦ÛĮÙĨ
Ø¨ ÙĦÛĮ
ĠÙ¾ Ø¯ÛĮØ¯Ùĩ
Û³ Û°
Ø² ÙĨØ¯
ĠÚ© Ø§Ø´
ĠÙħØ³Øª ÙĨØ¯
Ù¾ ÙĪØ´
Ø¨ ÙĨ
ĠÙħÙĪ Ø§Ø¬Ùĩ
ĠØ¬Ø§Ùħ Ø¹
ĠØ¨ ÛĮÙĦ
ĠÚ¯ÛĮØ§Ùĩ Ø§ÙĨ
ĠØ³ÙĦØ· ÙĨØª
ĠÛ±Û¹Û¹Û ¸
ĠÚ©ÙĪÙħ ÙĪÙĨÙĩ
ĠÙĪÛĮØ± Ø¬
ĠÙĦ ÙĪÙĦÙĩ
ĠÙħØŃØ¯ ÙĪØ¯Ùĩ
ÚĨ Ùħ
ĠÚ©Ùĩ ÙĨ
ĠØ¢ Ú¯
p h
ĠÙħØ¹ Ø§ØµØ±
ĠÚ© Ø§Ø¨
Ø§Ø¨Ø± Øª
ĠÙģÙĦ Ø²
ĠØª Ø¬ÙĩÛĮØ²
ĠØ¶ ÙħÙĨ
ĠÛ²Û°Û°Û ±
an t
ĠØ¬Ø² Ø¦ÛĮ
ĠØºØ° Ø§ÛĮÛĮ
ĠØ¨Ø± ÙĪØ²
ĠØ¯Ø§ÙĨ Ø³ØªÙĩ
ĠØ¶ Ø¨Ø·
Ø³ÙĦ Ø·
ĠÚ©Ø±Ø¯ Ø³ØªØ§ÙĨ
ĠØ¹ Ú©
ĠÙģØ± Ø§ÙĪ
ĠØ¬ÙĨÚ¯ ÛĮ
Øª Ø§ÙĨ
ÙĪ ØŃ
ĠÙĨ Ø§
ĠÚ¯Ø° Ø´Øª
ĠØ§Ø¹ØªÙĤ Ø§Ø¯
ĠÙĩÙħ ÙĪØ§Ø±Ùĩ
i b
ĠÚĨÙĩ ÙĦ
Û³Û µ
ĠÙĤØ· Ø±
ĠØ´ Ø§
ĠØ® Ø§ÙĪØ±
ĠÚ¯ÛĮ Ø±Ø¯
Ø§Ø±Ú© Øª
ĠØ³ÙĪ Ø³ÛĮ
ĠØ´ Ú©Ø§Ø±
ĠÙĩÛĮØ¯ Ø±ÙĪ
ĠØ¨ Ú¯ÛĮØ±Ø¯
ĠØ¨Ø§Ø² Ø³Ø§Ø²ÛĮ
ĠØ±ÙĪ ÙĨØ¯
Ø® ÛĮØ±
ĠØ³Ùĩ Ø§Ùħ
ĠØ±ÙĤ Øµ
Ø±ÙĪ Ø´
ĠØ¨Ø±Ú¯ Ø²Ø§Ø±ÛĮ
ĠÙ¾ÛĮÙħ Ø§ÙĨ
ĠØ¨Ø± ÙħÛĮ
ĠÚĨ ÙĪØ¨
ĠØ¹ ÙħØ¯
ĠØ±ÙģØª ÙĨ
ĠÙħØª Ùħ
u l
ĠÙħØº Ø²
ĠØ¢ÙģØ±ÛĮÙĤ Ø§
ĠØ§Ø® ÙĦØ§ÙĤ
ĠØ¯ÙħÙĪÚ© Ø±Ø§Øª
ĠØ¹ÙĨ Ø§ØµØ±
ĠÙģÙĦ Ø²ÛĮ
ĠT he
ĠØª ÙĪÙĨ
Øª ÙĪÙĨÛĮ
ĠÙħØ´ Ø§ÙĪØ±
ĠÙħØŃ Ú©ÙĪÙħ
o c
ÙĨÙħ Ø§ÛĮØ¯
ĠÙģÙĦ ÙĪØ±
ĠÚ¯ ÙĪÛĮØ´
ĠØ³Ø± ÙĪÛĮØ³
ØŃÛĮ ØŃ
ĠÙĨÙħ Ø§Ø¯
ĠÙ¾ Ø±ÛĮ
ĠÛ±Û¸Û ¶
Ø§ÙĤ ÛĮ
ĠØ¯Ø³Øª Ú¯ÛĮØ±
ĠØŃØ§ÙģØ¸ Ùĩ
ĠØ¯ÙĨÛĮ Ø§ÛĮ
Ø² Ùħ
ĠÙĨÙĪØ´ ØªÙĨ
ĠÙħ Ø§Ú©
ĠØ´ÙĩØ± ÙĩØ§
ĠØ¨ Ø³Øª
Û³Û ²
ĠØ¬ Ø¨ÙĩÙĩ
ĠÙģØ±Ø§ÙĪ Ø§ÙĨÛĮ
ĠÛĮ Ø®
ĠØ´ Ø´Ùħ
ĠÚ© Ø§Ø³Øª
ĠÙħÙĦ Ú©
ĠØ¸Ø±Ùģ ÛĮØª
Û² Û²
ĠÙħØ¤ Ø«Ø±
ĠØŃ ÙĤÛĮÙĤØª
Ù¾ Ø§Ø±
ĠÙĨØ¸ Ø§Ø±Øª
at ion
Ùģ Ø§ÙĦØª
Ø² Ø§Ø¯
ĠØ³Ø± Ø·Ø§ÙĨ
Ø¨ Ø§Ø²ÛĮ
ĠÙĪ ÛĮÚ©
ĠÚ¯Ø° Ø±Ø§ÙĨ
Ġ âĢ
ĠÛ±Û¸Û ·
ĠÙĨ Ø§Ø®
ĠØŃÙģØ§Ø¸ Øª
ĠØª Ø§Ùħ
ĠÙĤ Ø¨Ø±
ĠØ± ÙħØ²
Ùĩ Ø§Ø±
ĠØ§ÙĨ ØŃ
ĠØ§Ø³Ùħ Ø§Ø¹ÛĮÙĦ
Ùħ Ø§Ø±Ú©
ĠÛĮ Ø§ØªØ§
ĠØ± Ø§Ø³
ĠØ§Ø ¸
ĠÚ©ÙĦØ§Ø³ ÛĮÚ©
ĠØ® Ø´
ĠÙħÙĦ Øª
ĠÙĨ Ø§Ø´
ĠÂ ł
ĠÚ©Ùħ ÙĪÙĨÛĮ
Ú© ÛĮØ¯
ĠØ¯ÛĮ ÙĪÛĮØ¯
ĠW ikipedia
ÙĦÛĮ Ùģ
Ø§Ø® ØªÛĮ
ĠØµØŃ Ø¨Øª
ĠÚ©Ø´ÙĪØ± ÙĩØ§
ĠÙĤØ¨ ÙĦÛĮ
Øµ Ùģ
ĠØ³ Ø§Ø±
ĠØ¬ÙĨ Ø³
ĠÚĨ Ø§Ùĩ
er s
ĠØ´Ùĩ ÛĮØ¯
ĠØµ ÙĦÛĮ
ĠÙĨØ¬ Ø§Øª
ĠÙĨ Ø§ÙĨ
Ø± ÙģØªÙĩ
ĠÙħØ±Ø¨ ÛĮ
ÙĪØ± Ú¯
ĠÙħØ¬ Ø§Ø±Ø³ØªØ§ÙĨ
ĠØ¨ Ø§Øª
ĠØ® Ø±ÛĮ
Ùħ Ø§ÙĩÛĮ
ĠÙħØ³ Ú©ÙĨ
ĠÙĨÙĪÛĮØ³ ÙĨØ¯Ú¯ÛĮ
ÙĨÙĪÛĮØ³ Ø¯
ĠØ§Ø´ ØªØ¨
ĠÙĨ Ø¯Ø§Ø±ÙĨØ¯
ĠÛĮÙĩÙĪØ¯ÛĮ Ø§ÙĨ
ĠÚ¯ ÙĨØ¬
ĠØ³ ÙĪØ²
Ø¨ Ø§Ø±ÛĮ
ĠÙĦ ÙĪÚ©
ĠÛ² Û°Û°
ĠÙ¾ÛĮÚĨ ÛĮØ¯Ùĩ
ĠØ® Ø§Øª
ĠØ§Ø³Øª ÙĪØ¯ÛĮ
ĠØª Ú©Ø±
ĠÙħØ¹ Ø§Ø¯
ÙĪÙ¾ Ø±
ÙĪ Ø§Ùħ
ĠÚ¯ Ùħ
ĠØ§Ø® ØªØ±
ĠØ´ Øº
ĠÛ´ Ûµ
ĠÚ©Ø§Ø± ÙĦ
Ø¬ Ø§ÛĮ
ĠØ³ ÙĨØ¬
ĠÙħÙĨ ÙģÛĮ
ĠÙģØ±Ø³Øª Ø§Ø¯
Ø±ÙĪ ÙĨØ¯
Ù¾ ÛĮØ´
ĠØ¹Ø¶ ÙĪÛĮØª
ĠØ±ÛĮ ÚĨ
ĠÙ¾Ø± ÙĨØ¯Ùĩ
ĠØ³Øª ÙĪÙĨ
ĠØªÙĤ ÙĪÛĮÙħ
Ø³Ø§Ø² Ø¯
ÙĪØª ÙĪ
ĠØ¯ÛĮ Ú¯Ø±Ø§ÙĨ
ĠØ¬ÙĪØ§ÙĨ Ø§ÙĨ
Ø§Ù¾ ÙĪØ±
ĠÚ©ÙħÙ¾ Ø§ÙĨÛĮ
ÙĨÙĪ Ø¹ÛĮ
ĠÙħÙĨ Ø´
ĠØ§ÙĦ Ø¬Ø²
ĠÙģØ±Ø§ ÙĪØ§ÙĨ
Ø´ ÛĮØ¯
ĠÙħÚ© Ø§ÙĨÛĮ
Û² Û°Û±Û
ĠÙĤØ· Ø¨
ĠØªØµ Ø±Ùģ
ĠÛ±Û¹Û ¸Û°
ĠØµ Ø§Ø¯Ø±
Ùħ Ø±ÛĮ
ĠÙĨ Ø§ÛĮ
ĠÙĩ ÛĮÙĦ
ĠØ®ÙĪ Ø§Ø¨
ĠÙħØ®Ø§ÙĦ ÙģØª
ĠØŃ Ø§Ø¬
ĠØ§Ø¹ Ø¯Ø§Ùħ
Ø¹ÛĮ Ùģ
ĠØ¬Ø² ÙĪ
ĠØ¢ÙĤ Ø§ÛĮ
ĠØ¯Ø§ÙĨØ´Ø¬ ÙĪÛĮØ§ÙĨ
ĠØ¢Ø° Ø±
ĠØ³ÙĦØ· ÙĨØªÛĮ
ÙĦØ± Ø²Ùĩ
ĠØ´ Ø§ÛĮØ¯
ĠÛ³Û ±
ĠÙĨ ÛĮØ´
ÙģØ± ÛĮÙĨ
ĠÙĩ ÙĨØ¯ÛĮ
Ø§ØŃ ØªÛĮ
ĠÙĪ ÛĮÚ©ÛĮ
ĠØªØ® Ø±ÛĮØ¨
ĠÚ¯Ø° Ø±
ou nt
Ø§Ùħ ÙĨ
Ġ Ø§Ø¯ÛĮ
ĠØ§Ùħ ÛĮØ¯
o g
ĠØ¯Ø±ÙĪ Ø§Ø²Ùĩ
Ø¨ ÙĪÙĦ
ĠØª ÙħØ¯
Û±Û ³
ĠØªØµ Ø§Ø¯
ĠØŃ Ø¬Ùħ
ĠØ®Ø· ÙĪØ·
ĠÚ©Ø§ÙħÙ¾ÛĮ ÙĪØªØ±
ĠØ¬ÙĦ Ø¯
ĠØ¯Ø± Ú©
ĠÙĨÙĪÛĮØ³ ÙĨØ¯Ú¯Ø§ÙĨ
ĠÙħØªØ¹Ø¯ Ø¯ÛĮ
ĠÙħØ¹Ø¯ ÙĨÛĮ
Ġ âĢ¦
ĠØ´ÙĩØ± ÙĪÙĨØ¯
ĠØ¨Ø® ØªÛĮ
Ø± Ø¶
Ø§Ø¨Ùĩ Ø§Ùħ
ĠØ§ÙħØ±ÙĪ Ø²ÛĮ
ĠÙħÛĮ Ú©Ø±ÙĪ
ĠÙĩÙģØª Ùħ
ÙĦ Ø§ÙĨ
ĠØ® ÙħÛĮÙĨÛĮ
ĠØ¨Ø± ÛĮ
ĠØ§ÙĩØ¯ Ø§Ùģ
ĠØ¨Ø±Ø¯ Ø§Ø´Øª
ĠÚ¯ Ø§ÙĦ
ÙĪØ±Ø¯ ÛĮ
ĠØ§ÛĮØ±Ø§ÙĨÛĮ Ø§ÙĨ
Û±Û ¹
ĠØ³ÙĨÚ¯ ÛĮÙĨ
ĠØ¨Ø§Ø² Ø¯Ø§Ø´Øª
ØªÙħ ÙĨØ¯
ĠÙħÙĨØµ ÙĪØ¨
ĠØ¯Ø¨ÛĮØ± Ø³ØªØ§ÙĨ
ĠÚ© ÙĪÙĦ
ÙħÙĪ ÙĦÛĮ
ĠÙħØ¹ ÙĦ
Ø¨Ø± Ø§ÛĮ
a y
ĠÙħØªÙĪ Ø¬Ùĩ
ĠØ¹ÙĦÛĮ Ø§
ĠØ§ÙĤÛĮØ§ÙĨ ÙĪØ³
ÙĪØ± Ùģ
ĠØ®Ø±Ø¯ Ø§Ø¯
ĠÙĩÙħ Ø²ÙħØ§ÙĨ
ĠÙħØ¹ Ø§ÙĪÙĨ
ĠÙģÛĮØ² ÛĮÚ©ÛĮ
ĠÙĦ Ø°
ĠÚ©Ø§ÙĨ Ø§ÙĦ
ĠÙĤØ· Ø¹Ø§Øª
ĠÙĩÙĨØ± ÙĩØ§ÛĮ
ĠØ´ ÛĮØ´Ùĩ
ĠØ§Ø³Øª Ø®ÙĪØ§ÙĨ
ĠÛĮØ² Ø¯
Û°Û ¸
Û² Û·
ĠÙĩØ± ÚĨÙĨØ¯
ĠÙĨÛĮØ³Øª ÙĨØ¯
Û±Û ¸
ĠØ´ÙĪØ± Ø´
Ú¯ ÛĮÙĦ
Ø§ÙĨÛĮ Ø¯
ĠØ§ÛĮÙĨØªØ± ÙĨØª
ÙĦ Ø§ÙĨØ¯
ĠÙĤ Ø±Ø¨
ĠØ³ÙĦ Ø§ØŃ
ÙĨ ÙħØ§ÛĮ
ĠØ§Ø± Ø³Ø§ÙĦ
ĠØ« Ø±ÙĪ
ĠÛ³Û ´
ĠÙħÛĮØ² Ø¨Ø§ÙĨ
ĠÙĩ ÙĪØ±
ÛĮÙĨÚ¯ ØªÙĨ
ĠØ¨Ùĩ Ø§Ø±
Ø² Ø§ÛĮ
ĠÙģØ±ÙħØ§ÙĨ Ø±ÙĪ
ĠÙħØ´ Ø§Ø±Ú©Øª
Ø¹ ÙĦ
ĠÙ¾Ø± Ø§Ú©
ĠÙ¾ÛĮØ± Ø§ÙħÙĪÙĨ
ĠÙĦ Ø§
ĠØ¨ÙĨ Ø§Ùħ
ĠØ¨Ø§ÙĦ Ø§ÛĮÛĮ
ĠØ§ÙĦ ÙĦÙĩ
Û³Û ·
ĠÚ© Ø¯Ø§Ùħ
ÙĦÛĮ Ø³
Û±Û ±
ÙĦ Ø§Ùģ
ĠÙĦ ÙĤØ¨
Ġt he
ĠØªØ¬ Ø²ÛĮÙĩ
ĠÚ¯ ÛĮØª
ĠØŃ Ø¯ÛĮ
Ø¹Ùĩ Ø¯Ùĩ
Ġ ĠĊ
Ø§ÙĨ Ø´
ĠØ¹ÙħØ¯ ØªØ§
Ø§Øª ÛĮÚ©
Û³Û ¶
Ø§ÛĮ Ùħ
ĠÙĤ Ùĩ
a k
ĠØ¢Ø´ÙĨ Ø§
Û² Û¶
ĠÙĨØ± Ø®
ĠØ§Ø·ÙĦØ§Ø¹ Ø§ØªÛĮ
ĠØ²ÛĮØ¨ Ø§ÛĮÛĮ
ĠÙģÙĦØ³ Ø·
Ø§Ùĩ Ø±
ĠØŃÛĮ Ø§Øª
ĠØ¯Ø± Ø¯
ĠØ²Ùħ Ø³ØªØ§ÙĨ
Ø¹ ÛĮØ¯
Û°Û ³
ĠÙģØ±Ø² ÙĨØ¯Ø§ÙĨ
ĠØ§ÙĨÚ¯ÙĦÛĮ Ø³
ĠÙ¾Ø±Ø¯ Ø§Ø®ØªÙĩ
ĠÙħØ¬ Ø§Ø²
ĠØ¨ÙĦ Øº
ĠØ¢Ø³ ÙģØ§ÙĦØª
Ø¨ Ø³
Ø¯ÙĪ ÛĮÙĨ
Ø¬ ÙĪÛĮ
ÙĨÚ¯ Ø§Ø±ÛĮ
ĠØ¯ ÙĪÛĮ
ĠÙ¾ ØªØ±
ĠØ± Ø§Ø¨Ø±Øª
ĠÙ¾ Ø¯
ĠÙĩÙħØ³Ø± Ø´
ĠÙĩÙħ Ø¯Ø§ÙĨ
ĠØ¬Ø² Ø§ÛĮØ±
Ø¶ Ùĩ
ĠÛ³Û ·
ĠØ¨ ÙĪØ´
ĠØ¯Ø± Ø¨Ø§Ø±
ĠØ®ÙĦ Ø§Ùģ
ĠÚ©Ùħ Ø¯ÛĮ
ĠØªØ£ Ú©ÛĮØ¯
Ùģ Ø±ÛĮ
Ø§ÙĦØª ØŃ
ÙĤ Ø§Ø¨ÙĦ
Øµ ÙĪØ±Øª
ĠÚĨ ÛĮ
ĠÙħØ³Ø¦ ÙĪÙĦÛĮØª
ĠØ± ÙĪÙħÛĮ
ĠÙħØ³ Ø§ÙģØ±
Û³Û ´
ĠØ§Øª ÙĪÙħ
ĠØ¬ÙĪØ± Ø¬
ĠØ¨ ÙħØ¨
ĠÙħ ÙħÙĨ
ĠØªØ¬ÙĩÛĮØ² Ø§Øª
Ø¬ ÙĨ
ĠØ² Ø®
ĠÙħØ± Øº
ÙĤ Ø§Øª
ĠØ¢ ÙĪØ§Ø²
ĠÙ ĥ
ĠØ± Ø§Ùħ
ĠÙħØ« Ø¨Øª
Ø¯Ø§ÙĨ Ø³Øª
ĠÙģ Ú©Ø±
Ġ a
ĠØªØ±Ú©ÛĮ Ø¨ÛĮ
ĠÙģÛĮ ÙĦÛĮÙ¾
ÙĪ Ø³ØªØ§ÙĨ
ĠØ§Ø´ØªØ¨ Ø§Ùĩ
ĠØ¨Ø± ÙĨØ²
ĠØ¨ÛĮ Ø³ØªÙħ
ÙħØ¬ ÙħÙĪ
ĠØªÙĦÙģ ÙĨ
ĠØ§ÙĦ ØŃ
ĠØ± Ø¨
ĠÙħØŃ ÙĪØ±
ĠÙħØ´ ØªØ±ÛĮ
ĠØ³Ùģ ÙĦÛĮ
ĠØµ Ø¨
ĠÙ¾Ø± ÙĪÙĨØ¯Ùĩ
Û°Û ¹
ĠÙ¾ÙĨØ¬ Ø§Ùĩ
ĠÚ¯Ø± Ùĩ
Ø¨Ùĩ Ø´Øª
ĠØ³Ø§ÙĦ ÙĨ
Ø± Ø§Ø¨
ĠØ§ÙģØ³ Ø§ÙĨÙĩ
ĠØŃ Ø§ÙĪÛĮ
Ø¬ ÛĮØª
ĠÚĨÙĩØ§Ø± ÙħÛĮÙĨ
ÙĦ Ø§Ø³
ĠØ§Ú© Ø«
Ø®ÙĪØ§ÙĨ Ø¯Ùĩ
Ø¢ÛĮ ÙĨØ¯
ĠØ¨Ø±Ú¯ Ø²ÛĮØ¯Ùĩ
Ø®ÙĪ Ø§ÙĩØ¯
ĠØ§ÙĨØªØ´Ø§Ø± Ø§Øª
ĠØ§Ø³Ùģ ÙĨØ¯
Û Ģ
Ø² Ø¨Ø§ÙĨ
Ú¯Ø° Ø§Ø±Ø¯
ĠØ§ØªØµ Ø§ÙĦ
ĠØ¹ Ø¯Ùĩ
Û ¸Ûµ
ĠØ§ÙĪ Ø¬
Û±Û ±Û
ĠØ¯ÛĮ ÙĪØ§ÙĨ
ĠÙħÛĮØ± Ø§Ø«
ĠØ§Ø´ ØºØ§ÙĦ
ĠÛ±Û³Û ¹Û°
ĠÙģ ÛĮØ±
Ú¯Ø± Ø§
ÙĨ ÙģØ±
ĠÙħ ÙĤÛĮ
ĠØ± Ø¯ÛĮ
ĠØ¯Ùĩ Ø§ÙĨÙĩ
ĠÙģØ¹ ÙĦÛĮ
ĠØ¬Ø§ÙĨ Ø´ÛĮÙĨ
ĠÙĪÛĮØ¯ Ø¦
ĠØ¢Ùħ Ø¯ÙĨ
i e
ĠÙĪ Ø§ÛĮ
Ø¯Ø± Ø¶Ø§
ĠÛ²Û°Û±Û ¹
ÙħØŃ ÙħØ¯
âĢį .
ĠØ³ ÛĮØªÛĮ
ĠÚ©ØªØ§Ø¨ ÛĮ
Ø³Ø§ÙĨ Ø³
Ø¢Ùħ ÛĮØ²
ÙĤÛĮ Ø¨
ĠÙĦØ´Ú© Ø±
Ø¬ Ø§Ø±
ÛĮØ± ÙĪ
Úĺ Ø§ÙĨØª
ĠÙħÛĮ ÙĪÙĩ
Ø§ØŃ Ø¨Ùĩ
ĠØ®ÙĪØ§Ùĩ ÙĨØ¯
ÙĪÛĮ Ø§
Ø§Ø· ÛĮØ³ÛĮ
ĠÙħØ« ÙĦØ§
ĠØ´ÙĩØ±ÛĮ ÙĪØ±
ØŃ Ø§Øª
ĠÛ±Û¹Û¹Û ²
Ø± Ø§Ø¬
ĠØ³ ÙĪØ§Ø±
ĠØ¨ ØªÙĪØ§ÙĨØ¯
ĠØºØ° Ø§
ĠÙģØ¯Ø± Ø§Ø³ÛĮÙĪÙĨ
ĠØ¯ ÙĪÙĨ
Ø§ÙĨØ¯ ÙĨ
ĠÚ©ÙĪØ¯ Ú©ÛĮ
ĠØ§Ø¨ØªØ¯ Ø§ÛĮÛĮ
ĠÙĨØ¯ Ø§Ø´ØªÙĩ
ĠÙĤÙĦ Ø¨
ÚĨ Ø´Ùħ
ĠÛ±Û¹Û· Û°
ĠØ§Ø± Ø²ÛĮ
Ùĩ ÙĪØ±
ĠØµ Ø¯Ø±
Øª ÛĮÙĨ
ĠÙĩÙĪØ§Ù¾ÛĮÙħ Ø§ÛĮÛĮ
ĠØ± Ø§Ø¬
ĠØµÙģ ÙĪÛĮ
ĠØ¹ Ùģ
ĠØ¯Ø³Øª Ø±Ø³
ĠØ±Ú© ÙĪØ±Ø¯
ĠØ¨Ø± ÙĤØ±Ø§Ø±
ĠØ§ÙĦ ÙĤ
ĠÙĨ ÚĺØ§Ø¯
ĠØ¹ÙĨ ØµØ±
ĠÙħØ§ÛĮ Ø¹
ĠÙĤ Ø§Ø±Ùĩ
ĠØ§ÙĨØ¯ ÛĮØ´Ùĩ
ĠØ³ Ø§ÙĨØª
ĠÙ¾Ø± Ø³Øª
ĠÚ©ÙĦ ÙħØ¨
ĠÙħÙĨ Ø§Ø³
ĠØ§ÙħÙĨ ÛĮØªÛĮ
ĠÙħÙĤØ§Ùħ Ø§Øª
Ø§Ø¯Ø« Ùĩ
ĠØ§Ø³Øª Ø±Ø§Øª
ĠÛ±Û¸Û ¸Û
Ġ2 01
ĠØ¢ÛĮ ÛĮÙĨ
ĠÙĩÙĨØ±Ùħ ÙĨØ¯Ø§ÙĨ
ĠÛ±Û¹Û¹Û ¶
ĠØ§ÙĨØªÙĤ Ø§Ø¯
ĠØªÚ©ÙĨ ÛĮÚ©
ĠÙĤØ² ÙĪÛĮÙĨ
ĠØ¯ÙĪØ± Ø¨ÛĮÙĨ
Ú©ÙĨÙĨØ¯ Ú¯Ø§ÙĨ
ĠØ§ØŃ Ø¯
ic t
ĠÙĤÙĦÙħ Ø±ÙĪ
Ø´ÙĨ Ø§Ø³Ø§ÙĨ
ĠØµ ÙĨØ¯
ĠÛ±Û¹Û¶ Û°
ĠÙ¾ÛĮ ÙĪØ³ØªÙĩ
Ø² Ø§Ùħ
Û´ Û°
ĠØ³ Ø§ØŃÙĦ
ĠØ¯Ø± ÙħØ§ÙĨÛĮ
Ùģ Ø³
ĠØªÙĪ Ø§ÙģÙĤ
ĠÙħØ¹ ÙħÙĪÙĦÛĮ
ĠÙĪØ§Ø´ ÛĮÙĨÚ¯ØªÙĨ
ĠØ¯ Ø§ÙĪ
ĠØ§Ø¨ØªØ¯ Ø§ÛĮ
ĠÙħØµ Ø§ØŃØ¨Ùĩ
Ú©ÙĨ ÛĮÙħ
ĠÙĩ Ø§Ø´
ÙĪØ¦ ÙĦ
ĠÙħÚ© Ø²ÛĮÚ©
ĠØ¬Ø± Ø§ØŃÛĮ
Ø¨ ÛĮØª
ĠÙĦØ± Ø³ØªØ§ÙĨ
ĠØ¢Ú© Ø§Ø¯
Ø§ØŃ ÙħØ¯
ĠØª ÙĪÙĦØ¯
Ġ =
ount y
Ø§ÙĨØ¯ Ø§Ø²
ĠØ§ÙĦ Ú©Ø³
ĠÙĦ Ø§ÛĮ
ĠØ¨Ø§Ø² ÛĮÚ©
ĠØ¨Ø²Ø±Ú¯ ØªØ±
ĠØªÙĩ Ø¯ÛĮØ¯
Ú© Ø´Ø¯
Ø³ ÙĨÚ¯
ĠÛ¸ Û°
ĠÙħ ØªÙĩ
ĠÚ©ÙĨ Ø³Ø±
ĠÚ© Ø§Ø¨ÙĦ
ĠØ¨ÙĨ Ø§ÛĮ
c e
Ú© ÛĮÙĦ
ĠÛ¹ Û°
ĠØªÙħ Ø§Ø³
Ú© ÛĮÙĨ
ĠÙĪØ§ÙĦÛĮ Ø¨Ø§ÙĦ
ÙħØ¬ÙħÙĪ Ø¹Ùĩ
ĠÚ© Ø§Ø³
ĠÚ¯ Ø§Ùħ
ĠØ± Ø§ÙĩÛĮ
ĠÚ©Ø§Ø± Ø¨Ø±Ø§ÙĨ
Û¸ Û°
ÙĨØ± Ø§ÙĨÛĮ
ĠÙĤØ³ Ùħ
ĠØ¯ Ø§ÙĨÙĩ
ĠØ¨Ø§ÙĦ Øº
ĠØ³ÛĮÙĨ ÙħØ§ÛĮ
ĠÚ¯Ø± Ø§ÛĮØ´
Û¹Û µ
ÙĪÙĦ ÛĮÚ©
ĠÛ±Û¹Û¹Û ·
ĠÙħØ³ÙĦ ØŃ
ĠÙĩÙħ Ø§Ùĩ
Ø¬ ÙĨØ³
ĠØ« Ø§ÙĨÛĮÙĩ
Ø± ÙĤ
ĠÛ· Û°
ĠØ§Ø³Øª Ø®Ø±
ĠØ¢ÙĪØ±Ø¯ ÙĨ
ĠÛĮØ§ÙģØª ÙĨ
ĠÙĨÙħØ§ÛĮØ´ Ú¯Ø§Ùĩ
ĠØŃ Ø§Ø¯Ø«Ùĩ
ÛĮØ¯ Ø§ÙĨ
ÛĮ Ø¨ÙĩØ´Øª
Ġ1 9
ĠØ² Ø¯ÙĨ
ĠÙħÙĤÛĮ Ø§Ø³
ĠÙħØº ÙĪÙĦ
ĠØª ÙĨØ¯
ĠØ¨ÙĦ ÚĺÛĮÚ©
ĠÚ©ÙĦÛĮ Ø³Ø§
ĠØªÙģ Ø³ÛĮØ±
ĠØ¢Ø± ÚĺØ§ÙĨØª
ĠÙħÙĪ ÙĦÛĮ
Ø¸ Ùħ
ĠÙħØ°Ùĩ Ø¨
ĠØ·Ø± Ø§ØŃ
ĠÚ¯ ÙĪÚ¯
Øº Ø°
ĠØ¬ Ø¯ÛĮ
ĠØ³Ø® ÙĨØ±Ø§ÙĨÛĮ
ĠÙĤ ÙĪÙħ
ĠÙĨØ³Ø¨Øª Ø§
ĠÚ©ÛĮÙĦ ÙĪÚ¯Ø±
ĠØ§ØŃ ÙħØ¯ÛĮ
ĠÚ©ÙĨÚ¯ Ø±Ùĩ
Ø§Ø± ÙĨ
Øµ Ø§Ø±
ĠÙĦÛĮ Ø³Øª
ĠÚ©Ø±Ø¨ ÙĨ
ĠC ounty
ÙĪÙĨ ÛĮÚ©
ĠØ§ÙĦ Ø¹
ĠØ¢ Øª
ĠÙ¾Ø§Ø± Ø³ÛĮ
Øº Ø§Ùħ
ĠØ³Ú©ÙĪÙĨØª Ú¯Ø§Ùĩ
ĠÙħØ±Ø¯ Ø§Ø¯
ĠÚĨ Ø§ÙĦ
Ú¯ Ø±ÙĪ
ĠØ³Ø± Ù¾Ø±
ĠÛ±Û¹Û¹Û ±
ĠÚ©ÙĦÛĮ Ùĩ
t er
Ø§ÛĮ ÙģÙĩ
ĠØ®Ø±ÙĪ Ø¬ÛĮ
ĠØ³ÙĪØ³ÛĮ Ø§ÙĦÛĮ
ĠØª Ø¶
Ø§Øµ Ø±Ùĩ
Ø§ÙĦ ØªÛĮ
ĠÙĪ Ùģ
ĠØ¯Ø± Ø³
is tr
ĠØ±Ø¶ ÙĪÛĮ
ĠØ¨Ø± Ø¹ÙĩØ¯Ùĩ
ĠØ¯ÛĮ Ù¾ÙĦ
ĠÙĨ ÛĮØ§
ØªØ§ Úĺ
Ø· Ø¹
ĠÛĮ Ø§Ø¨Ø¯
ĠÙĨ Ø§Ø²
Øº Ùħ
ĠØ§ÙĦ Ø¯ÛĮÙĨ
ĠÙĨ Ø±ÙĪ
ĠØ¨ ÚĨÙĩ
ĠØ¨ ÛĮØ¯
Øª Ø²
Ø® ÙĪØ§Ø±
ĠÚ© ÙĪØ¨
ĠØ® Ø³Ø±ÙĪ
a p
ĠÙĤØ¨ ÙĪÙĦ
ĠØ±ÙĪ ØºÙĨ
ĠÚ©ÙĨ Øª
ĠÙ¾Ø± ØªØ§Ø¨
ĠÚ©Ø§Ùħ Ù¾
ĠØ¨ ÙĨÚ¯
ĠØ§Ø¹ Ø¯Ø§Ø¯
Ø§ÙĦ Ø§
ĠØ§ØŃØ¯ Ø§Ø«
ÛĮÚ© ÙĪ
ĠØ§Ø¯Ø¹ Ø§
Ø² Ø§ÙĨ
a b
ĠÙħØ· Ø§Ø¨ÙĤ
ĠØ´ÛĮØ± ÛĮÙĨ
Ùĩ Ø§ÙĨ
Û¸Û ¶
ÙĨ Ø§Ú©
ĠØ§Ø« Ø¨Ø§Øª
ĠÙħØ¬Ø¯ Ø¯
ĠØ¯ÛĮ Ø¬ÛĮØª
Ø¨Ø± ÙĨØ¯
ĠÙģ Ø±ÛĮØ¯
ĠÙħØ® ÙģÛĮ
it y
ĠØ§Ø´Ø¹ Ø§Ø±
ĠØº ÛĮØ±Ùĩ
ĠÙ¾Ø± ÚĨÙħ
ĠÙĤØ± Ùĩ
Û¹Û ²
Ø· ÙģÛĮ
Ø± ÙĪÙħ
ĠØªÙħ Ø±Ú©Ø²
ĠØªÙĤ ÙĪÛĮØª
Ø®Øµ Øµ
ÙĪØ±Ø¯ ÛĮÙĨ
Ø® ØªÛĮ
ĠÙĩÙħ Ø³
ĠØŃÛĮÙĪØ§ÙĨ Ø§Øª
ĠÙģ Ø§Ø²
ĠØ³Ø§ÙĦ Ø§ÙĨÙĩ
ĠØ±ÛĮÚĨ Ø§Ø±Ø¯
ĠØŃØ³ Ø§Ø³
ĠØ´Ø§Ùĩ Ø¯
ĠÙ Ģ
ĠØ§ÛĮ ÙĪØ§ÙĨ
Øª Ø§ÛĮ
ĠÙħØ£Ùħ ÙĪØ±ÛĮØª
ĠØ§Ø±Ø¯ ÛĮØ¨ÙĩØ´Øª
Ø§Ø´ ÛĮÙĩ
ĠØ¹ Ø§Ùħ
ĠØ² Ø§ÙĪÛĮÙĩ
ĠÙĨØ® ÙĪ
Ø§Ú© Ø«Ø±
Û¹Û ¶
ĠÛ±Û¹Û¹Û ´
ĠØ§Ø¨ ÛĮ
ĠØ§Ø¸ ÙĩØ§Ø±
ĠØ§Ø±ØªØ¨Ø§Ø· Ø§Øª
ĠØ¹Ø§Ø´ ÙĤ
ĠØ¯ÙĪ Ø§Ø²Ø¯Ùĩ
ĠÙħØ³Øª ÙĤØ±
ĠØªÙĪØ¬Ùĩ ÛĮ
Ø± ÙĨÚ¯
ĠØ¨ ÙĤÛĮÙĩ
ĠÙħ Ø¶
ĠÙ¾ ÙĨÙĩ
ĠØªÚ©Ø± Ø§Ø±
ĠÙĩØ± Ú¯Ø²
ĠÙĨØ´ Ø±ÛĮÙĩ
ĠÙħØª Ùģ
Ø® ÙĪØ±Ø¯
ĠØŃ ÙĪÙħÙĩ
ĠØ³Ø¹ ÙĪØ¯ÛĮ
ĠØ¸Ø§Ùĩ Ø±ÛĮ
ĠØ´ÙĨØ§Ø³ Ùĩ
ĠØªÙħ Ø§Ø´
ĠØ« ÙħØ±
ĠØ¨Ø± ÙĨ
ĠØ¨ Ø·ÙĪØ±
ÙĪÙĨ Ø²
ĠØ´ Ø§ÙĨ
Ø±ÛĮ ØŃ
ĠÙħØ± Ø§Ø¬
ĠØ¯ ÙħØ§
ĠØ¨Øº Ø¯Ø§Ø¯
ĠØ§ÙĨ Ø¯Ø±
ĠØ³Ø§Ø®Øª ÙĨ
Ø§ÙĪ ØªÛĮ
ĠÙģØ¯Ø± Ø§ÙĦ
Ø³ Ø§Ø®Øª
ĠØ§ÙĤ Ø§ÙħØª
Û´ Ûµ
ĠÙ¾ Ø§Øª
ĠØ§ÙģØª Øª
ĠØªØµ Ø§ÙĪÛĮØ±
ĠØ´Ø§Ùĩ Ø²Ø§Ø¯Ùĩ
ĠØ·ÙĦ Ø§ÛĮÛĮ
ĠØªÚ©ÙĨ ÙĪÙĦÙĪÚĺÛĮ
Û¹Û ·
Û¶ Û°
Ø§ÙĦØªØŃ ØµÛĮÙĦ
ĠÚ©ÛĮÙĦÙĪÚ¯Ø± Ùħ
ĠÙĨÙĤ Ø§Ø´
ĠÙ¾ÛĮ ØªØ±
ĠÙĪÛĮ ÙĨØ¯
ĠØ§ÙĦØ¬Ø² Ø§ÛĮØ±
Ġ in
ĠØªØ® Ùħ
Ġ and
Ø¹ ÙĤ
ĠÙ¾Ø§Ø± ÙĦ
ĠÙĩØ´Øª Ùħ
ĠÙĨØ´ Ø±
ĠØ§Ø¹ ØªÙħ
ĠØ¢ ÛĮØ¯
ĠØ´Ø§Ø® Øµ
ĠØªØ®Øµ ØµÛĮ
ĠØ§Ø³ Ú©ÙĨØ¯
ĠÛ±Û¹Û¹Û µ
Û¸Û ·
ĠØ¯ÙĦ Ø§ÛĮÙĦ
Ù¾ ÙĨ
ĠØ§Ø³Øª Ø¹
ĠØ´ Ùģ
ĠÙĦ Ø§Ú©
ĠÙħØŃ Ø§ØµØ±Ùĩ
ĠÙ¾Ø°ÛĮØ± ÙģØªÙĩ
ĠØŃ Ø±Ú©
ĠÙħØ± Ø§ØŃÙĦ
ĠÚ© Ø§
ĠÙĨÙĪ Ø¬ÙĪØ§ÙĨ
ĠØ³ÛĮ Ú¯ÙĨ
ĠÙĩØ² Ø§Ø±Ùĩ
ĠØ´Ùħ Ø³ÛĮ
ØŃ Ø§ÙĦ
ĠØ¯Ø± Ø§Ø²
ĠØ¨Ø®ØªÛĮ Ø§Ø±ÛĮ
Ø§ÛĮ Ùģ
ĠØ¢ Ø´Ú©Ø§Ø±
Ø§ÙĤ Ø§Øª
Ø§Ú© Ø§
ĠØ¨ ÙĨØ¯ÛĮ
ĠØ³ÙĪØ¦ ÛĮØ³
ĠÙħØ§ÙĦÛĮ Ø§Øª
ÙĪ ÙĪØ§
ĠÚ¯ ÙĨØ¯
ĠÙħØª Ø®ØµØµ
Ġ ,
ĠØ¬ ÙĦØ¨
ĠØ· Ø§ÛĮÙģÙĩ
ĠÙħÚ© ØªØ¨
ĠØ³ ÛĮÙĨÙĩ
Û´ Û·
ĠØ¢ÙĩÙĨÚ¯ Ø³Ø§Ø²
ĠÙ¾Ø± Ø³
ĠØ¹ ÙħÛĮ
Û¹Û ´
ÙĦ Ø§ÛĮÙĨ
ĠØ± Ø§Ø¯
ĠØ§Ø³Øª ÙĤ
ĠÙħØ¨Øª ÙĨÛĮ
ĠØ¯Ø± Ú¯ÛĮØ±
ĠØ¯ÙĨØ¨Ø§ÙĦ Ùĩ
ĠØ¯Ø± Ø®Ø´
Ø¢ ÙĩÙĨ
ĠØ³Ø¹ ÛĮØ¯
ÙģØ±Ø§ÙĨ Ø³
ĠØ¯ Ø§Ø¦
ĠØ² ÙĨÛĮ
ĠØ± Úĺ
ĠØ® Ø²
ĠØ¨Ùĩ Ø¯Ø§Ø´Øª
ÙĦ Øª
ĠÙĨÙĤ Ø¯
ĠØ® Ø§ÙĦÛĮ
ÙĨ ÚĺØ§Ø¯
ĠØ³Ø§Ø³ Ø§ÙĨÛĮ
Ù ĥ
ĠØ¢Ø³ ÙħØ§ÙĨ
ĠØ®ÙĪØ§ÙĨ Ø¯
ÙĪ ÙĤÛĮ
ĠØ§Ø³ ÙĨØ§Ø¯
ĠÙħÙĤ Ø¯Ùħ
ĠØ§ÙĨØª ÙĩØ§ÛĮ
ĠØ®Ø§Ø± Ø¬Ùĩ
Ø¹Ùĩ Ø¯
Ø§ ÙĪØª
ĠØ¹Øµ Ø¨ÛĮ
ĠØ¨ÙĦØº Ø§Ø±Ø³ØªØ§ÙĨ
ĠÚ© ØªÛĮ
ĠØ§Ø¯ Ø§Ø±ÛĮ
ĠØ§ ØªÙĩ
ĠØª Ø¯ÙĪÛĮÙĨ
ĠØ±ÙĪÛĮ Ø¯Ø§Ø¯
ÙĪÙ¾ ÛĮ
ĠØ° Ø±Ø§Øª
Ø±ÛĮ Ø¬
Ø§ÛĮ Ø§ÛĮ
Ù¾ Øª
a v
ĠØ§Ø´ ØªØ±
Â «
ÙĪØ² ÛĮØ±
ĠØ¹ ÙĤÛĮ
ĠØ¯ ÙĨØ¯Ø§ÙĨ
ĠØ¢ Ø¨Ø§ÙĨ
Ø±ÛĮ Ø§
ĠÛµ Û°Û°
ĠÛ±Û ¸Ûµ
ĠØ³ÙĨ Ø§ØªÙĪØ±
ĠØ¬Ø² Ø¡
ĠØ§Ø±Ø²ÛĮ Ø§Ø¨ÛĮ
ĠØ³ Ú¯
ĠØ¹ Ø§Ø¯ÛĮ
ĠÙħØªØ¹Ø¯ Ø¯
Ġc on
ĠØ¯Ø§ÙĨØ´Ùħ ÙĨØ¯Ø§ÙĨ
ĠÛ±Û¹Û¹Û ³
ĠÙĩ Ø§ÙĦ
ÙĨØ¯Ùĩ Ø§ÛĮ
ĠÙĪ Ø³Øª
ĠØ®Ø§ÙĨ Ùħ
w ikipedia
ÙĪÚ© Ø§
ĠÙħØ± Ø¬
ĠÙħØº ÙĨ
ĠØ³ÙĨÚ¯ ÛĮ
ĠØŃ Ø§Ø´ÛĮÙĩ
ØºØ° ÛĮÙĩ
ĠØ¨ Ø´
ĠÙ¾Ø§ÛĮ Ø§ÙĨÛĮ
ÙĪ Ø§ÛĮÛĮ
re e
ĠØ¨Ø±ÛĮØª Ø§ÙĨÛĮØ§ÛĮÛĮ
ĠÚ¯ÙĪØ´ Ùĩ
ÙĪ ÙģÛĮ
ĠÙĩÙĪØ§Ù¾ÛĮÙħ Ø§ÛĮ
ĠÙĦØ¨ ÙĨØ§ÙĨ
ĠØ¨ ÙĪÙĦ
ĠE n
ĠØŃÙĪ Ø§ÙĦÛĮ
istr ict
Ù¾ Ø§ÛĮ
Ú¯ ÙĪØ±
ĠØ§Ø¯ ÙĪØ§Ø±Ø¯
Û¸Û ´
ĠØ¢Ø±ÚĺØ§ÙĨØª ÛĮÙĨ
ĠÙģ Ø§ÛĮÙĦ
ĠØ¨ Øª
ĠØ®Ø§ÙĨ Ú¯ÛĮ
ĠÚ¯ÙĪØ´ Øª
Ú© Ø³ØªØ±
ĠØ¢Ùħ ÙĪ
ĠØ¯ Ø§ÙĦ
ĠÙģØ±Ø§ÙĨ Ú©
ĠÚ©Ø§Ø± Øª
ĠÙĤÙĩ ÙĪÙĩ
c l
ĠØŃÙħÙĦ Ø§Øª
ĠÙĨÙĪ Ú©
ĠØ³ ÛĮØ²
ÛĮÙĨ Øª
ĠØ¢ÙĨ Ø¬
Ø§Ùĩ ÛĮØ±
ĠØ¨Ø±Ø§Ø¯Ø± Ø´
ĠÙĪÙĤ ÙĪØ¹
ĠØ¯Ø§ÙĨ ÙħØ§Ø±Ú©
ĠÙħØŃÙħ Ø¯Ø±Ø¶Ø§
Û¸Û ²
ĠØ§ÙģØªØ® Ø§Ø±
ĠÙħØ¨ ÙĦ
i an
ĠÚ¯ÛĮ Ø§ÙĩÛĮ
Ø§Ø² Ø¯ÙĩÙħ
ĠÙĨ Ú©Ø±Ø¯
ĠÙħÛĮØ§ÙĨ Ú¯ÛĮÙĨ
Ø± Ø§ÙĨÛĮ
ĠØªØ± ÙĪØ±ÛĮ
ĠØ¬ÙĪ Ø§ÛĮØ²
ĠÙĦ Ø³
ĠØ³Ø§Ø³ Ø§ÙĨÛĮØ§ÙĨ
ĠØ¯ Ú¯Ø±
Ø§Ú© ÙĪ
ĠØ® Ø§Ø·
ĠÙħ Ú¯
ĠÙ¾ÙĨØ¬ ÙħÛĮÙĨ
ĠÙ¾Ø°ÛĮØ± Ø´
ĠØ§ÙĨØªØ¸ Ø§Ø±
Ø§Ø³Øª ÛĮÚ©
ĠÚĨØ± Ø®
Ġ 4
Ø§ÙĨØ² Ø¯Ùĩ
ĠØ¯Ø´Ùħ ÙĨ
ĠØ§ØŃ ØªØ±
ĠØ¸ ÙĩÙĪØ±
Û¹ Û°
e b
ĠØ¨Ø§Ø²ÛĮÚ© ÙĨØ§ÙĨ
ÙĪØ² Ùģ
ĠÚ© ÙĦÛĮØ¯
ĠÙ¾ Ø§Ø¨
ĠØ¯Ø§Ø± Ø§ÛĮÛĮ
ÙĪÙĤ Ùģ
ĠØªØ±Ø¨ ÛĮØª
ĠØ¨Ø¹Ø¯ Ø§
ĠÙħ Ø¸
ĠÙĨ ÙĪØ³
ĠÙģØ± ÙĪØ±Ø¯ÛĮÙĨ
ØŃ Ø³ÙĨ
ĠØ³Ù¾ Ø±Ø¯Ùĩ
ĠØ´ÙĨ Ø§Ø®Øª
ĠØªÙħØ¯ ÙĨ
ĠØ± Ø³Øª
ÙĦ Ø¹
ik i
ĠÙĨØ¸ Ø±ÛĮ
ĠØ¯Ø§ÙĨØ´Ú¯Ø§Ùĩ ÛĮ
ĠØ§ÙĤØ¯Ø§Ùħ Ø§Øª
ĠØ§Ø¹ØªÙħ Ø§Ø¯
Ø· Ø¨ÛĮ
ĠØ³ÛĮÚ¯ÙĨ Ø§ÙĦ
ĠØ± ÛĮØ³
ĠÚ¯Ø±Ø¯Ø´ Ú¯Ø±ÛĮ
ĠØ§Ø®ØªÙĦ Ø§ÙĦ
ĠØŃ Ø§Ø¬ÛĮ
ĠØ³Ø§Ø² Ùĩ
ĠØ¬ÙĨ Ø¨Ùĩ
ÙĪØ¯ Ø±
ĠØ§Ú© Ø³ÛĮ
ÙĪØ² ÙĨ
ĠØ§ÙħÚ©Ø§ÙĨ Ø§Øª
ĠØ¨Ø§ Ú©ØªØ±ÛĮ
ĠØ¨ÛĮÙħ Ø§Ø±Ø§ÙĨ
ÛĮ Ø±ÛĮ
ĠØ¹ Ø´
ĠÙ¾Ø± Ø¯Ùĩ
ĠÛ¶ Ûµ
ĠØ³ Ú©Ùĩ
Ø³ Ø§Ùħ
Ø¯Ùĩ ÙĨØ¯Ùĩ
ĠÙĨ Ú¯Ø±
ĠØ¹Ø± ØµÙĩ
ĠØ¶ Ø¹ÛĮÙģ
ĠØ§ÙĨØ¯ Ú©ÛĮ
Ø· ÙĪØ±ÛĮ
ĠÙĩØ± ÙħØ²
ĠÙĨÙħÙĪØ¯ ÙĨØ¯
al l
ÙĪØ¯ ÙĨ
ĠØ¢ÙĨ ØªÛĮ
ĠØ®ÙĪØ§ÙĨ Ø¯ÙĨ
ĠØ¨Ø± Ø³
ĠØ§Ø ¦
Ø±Ø¯ ÛĮ
ĠØ¯Ùĩ Ùħ
ĠÚ©ÙĦÙħØ¨ ÛĮØ§
ÙĪ ÙĪØ¯
ĠØ´Øº ÙĦ
ĠØ¨Ø§Ø² ÙħÛĮ
ĠØ³Ø® ØªÛĮ
ĠØ¢Ø±Ø§Ùħ Ú¯Ø§Ùĩ
ĠØ§ØªÙĩ Ø§Ùħ
Ø¯ ÙĪØ¯
ĠÙĩÙģØª Ø§Ø¯
ĠÛ±Û¹Û¸Û ¹
ĠØ¹Ùĩ Ø¯
is t
Ġ w
ĠÙĨÙĩ Ùħ
ÙĨÙħ Ø§ÛĮÛĮ
ĠØ±Úĺ ÛĮÙħ
Û· Ûµ
ÙĪ Ø§Ø±ÛĮ
Ø§Ø¨ ÙĪØ±
ĠÙħØ® Ø§Ø·
ĠØ²ÙĨØ¯ Ø§ÙĨÛĮ
ĠØº Ø§Ø±
ĠÛ±Û³Ûµ Û·
ĠØª ØºØ°ÛĮÙĩ
ĠÙĨ Ø§ÙĪ
ĠØŃØ± Ø§Ø±Øª
ĠØ¢Ø¨ Ø§Ø¯ÛĮ
Ø§ÙĦØ¯ ÙĪÙĦÙĩ
ĠÙĤØ³Ùħ ØªÛĮ
ĠÙħØŃØ¯ÙĪØ¯ ÛĮØª
ĠØ®ÙĪØ§ÙĩØ± Ø®ÙĪØ§ÙĨØ¯Ùĩ
ĠØ¢ ÛĮØª
ĠØ§Ø± ØªÙĤ
ĠØªÙĪ Ø¯Ùĩ
ĠØŃØ¯ Ø§Ú©Ø«Ø±
ĠÚ© ÙĪÚ©
Ġ de
ĠÙģØ±Ø³Øª Ø§Ø¯Ùĩ
ĠØ§ÛĮÙĨ Ø¬Ø§
Ø® ÙĪØ±
ĠØ¨ Ø§Ùħ
ĠØº ÙĦØ§Ùħ
ĠØ¨Ø® Ø§Ø±
ĠÚ©Ø§Ø± ÙĪÙĦÛĮÙĨ
Ġ Y
] ]
Ø¨ Ø§Øº
ĠØº ÛĮ
ĠÛµ Ûµ
ĠÙħØ° Ø§Ú©
ĠØ· ÙĪØ±ÛĮ
ĠÂł ĠÂł
ĠØ´ÛĮ Ø¹ÛĮ
ĠÙħØª ÙĪÙĤÙģ
ĠÙħÙĩÙħ ØªØ±ÛĮÙĨ
ÙħØª ÙĪÙĦØ¯
ĠÙħÙĦ Ø§ÙĤØ§Øª
ĠØ¨ Ø§Ø®
ĠÙħ Ø§ÛĮÙĦ
ĠÙħØŃ ØªÙĪ
ĠØ®ÙĪØ¯ Ú©Ø´ÛĮ
Ø§ÛĮ Ø§Øª
ĠØ¨Ø§Ø² ÙĨØ´
ĠØ§ÙħØ§Ùħ Ø²Ø§Ø¯Ùĩ
ĠØ¨ Ø§Ø¨ÙĦ
ĠØ®Ø´ ÙĪÙĨØª
ĠÙħÙĤ Ø·Ø¹
ol d
Ø§Ø¨ ÙĦÙĩ
ĠÙ¾ÛĮØ´ Ø±ÙģØªÙĩ
Ø²Ø± Ú¯
ØªÙĤ Ø¯Ø§ÙĨ
ĠØ§ÙĪ ÙĤØ§Øª
ĠØ² ÙĪØ¯
Ø² ÙĨÛĮ
ÙĤ Ùģ
ĠØ¨Ø± Ø³Ø¯
ĠS t
ĠØ®Ø±ÙĪ Ø¬
ĠA l
ĠÙ¾ÛĮ Ø§ÙħØ¨Ø±
or s
Ġ1 3
ĠØ¨Ùĩ ÛĮÙĨÙĩ
ĠÙħØ¯Ø§Ø± Ø³
ĠØ§Ø¨ Ø¹
ĠØ¬ÙĪ Ø§ÙĨÛĮ
ĠØŃ Ø§Ú©
ĠØµØ¨ ØŃ
ĠØ§Ú© Ø¨Ø±
ĠØ¢Ø³ÛĮ Ø§ÛĮ
ĠØ®ÙĪ Ø§Øµ
ĠØ§ÙĨ Ùģ
ĠØµ ØŃÛĮØŃ
ĠÙĪ Ø§ÙĨ
ĠØ§ÛĮØ± ÙĦÙĨØ¯
ĠØ®ÙĦÛĮ ÙģÙĩ
ĠÙĤ ÙĦÙĩ
Ø§Ø¯ ÛĮØ±
Ø³ ÙĪÙģ
ØªØ± Ø§ÙĨÙĩ
ĠØ² ÙĦØ²
ĠÙ¾ ÙĪØ±Øª
o b
ÙħÛĮ Ø§ÙĨ
ĠØ¯ÛĮØ¯ ÙĨ
ĠÙĩ ÙĪÛĮØª
ĠØ¨Ø± Ø¯ÙĨ
ĠØ¨ÙĪØ± Ø³
ĠØ´ ØµØª
ÛĮØª Ø§
ĠØ³Ø±Ø¨Ø§Ø² Ø§ÙĨ
ĠØµÙĦÛĮ Ø¨ÛĮ
ĠÙĪØ§Ø³ Ø·Ùĩ
ĠØ¢Ø²Ùħ ÙĪÙĨ
ĠÛ³ Û°Û°
ĠÙħØ¨Øª ÙĦØ§
Ø· ÛĮÙĦ
ÙĪÙĦÛĮ Ø³
ĠØªÚ© ÙħÛĮÙĦ
ĠÛ±Û¹Û¸Û ¸
ĠÚ©Ø§ÙĦ Ø¬
ĠÙĪÛĮØ± ÙĪØ³
ĠØªØµ ÙĪØ±
Ø±Ø³ÛĮ Ø¯
Ùħ ÙĤ
ĠÚ¯Ø± ÛĮÙĨ
Ø· Ø±Ùģ
ĠÚ©Ø§Ø± Ø¢
ĠØ¨Ø±Ú¯ Ø´Øª
ĠØ§Ø±Ø¯ ÙĪ
Ø¹ Ø§ÙħÙĦ
ĠØ³ÛĮ Ø§Ø±Ùĩ
ĠÙģ ÙĪØ±
ĠÙ¾Ø§ÛĮ Ø¯Ø§Ø±
ĠØ¬Ø¹ ÙģØ±
ĠÚ©ÙĪÙĩ Ø³ØªØ§ÙĨÛĮ
ĠÚ©ÙĪÚĨ Ú©ÛĮ
Ø³ ÙħÙĩ
ĠØ±ÙĪØ² ÙĩØ§ÛĮ
ĠÙĨÙħØ§ÛĮ Ø´ÙĨØ§ÙħÙĩ
ĠØ²ÙĦØ² ÙĦÙĩ
Ø®ÙĪØ§ÙĨ Ø¯
ĠØ¹ Ø±Ùģ
Ùģ Ø´
ÙĨÙĪØ´ Øª
ĠÙĩ Ø®
Ø§Ø³Øª Ùĩ
es t
Û¶ Ûµ
ĠÚ© Ø§Øº
ĠØ¯Ø±Ø®Øª Ø§ÙĨ
ĠØ·ÛĮ Ùģ
ÛĮ Ø§Ø±
ĠÙĨÙĪØ§Ø² ÙĨØ¯Ùĩ
ÚĨØ´Ùħ Ùĩ
ĠÚ©ÙħÛĮ Ø³ÛĮÙĪÙĨ
ĠÙĨÛĮ ÙĪ
ĠØªØ£ ÙĦÛĮÙģ
ĠØ¢Ú©Ø§Ø¯ ÙħÛĮ
Ø± ÙĪÙĨ
ĠØ¯ Ø²
ĠÚ¯Ø± ÚĨÙĩ
ĠØ¹Ùħ ÙĪÙħØ§
ĠØ¬Ùħ Ø¹ÛĮ
ĠØ¨Ø± ÙĦÛĮÙĨ
ĠÙĪØ³ Ø§ÛĮÙĦ
ĠÚ©ÙĪØª Ø§ÙĩÛĮ
ĠØ¨ ÛĮÚ©
ĠÙ¾Ø³Ø± Ø´
Ø³ ÙĪÙĦ
ĠØ§ÙĦ ÙĩØ§Ùħ
ĠØ®Ø§ÙĨÙĪ Ø§Ø¯Ú¯ÛĮ
ĠØªØ¦ ÙĪØ±ÛĮ
ĠÙģØ± Ø§Ùħ
Ġ X
ÙĤÛĮ ÙĤÛĮ
ĠÙħÙĤ Ø§ÙĦØ§Øª
ĠÚ©Ø§Ø± ÙĪØ§ÙĨ
ĠÙħØ§Ø±Øª ÛĮÙĨ
Ú© ÙĪØ³
ĠÙħÙĨ ØªÙĤØ¯Ø§ÙĨ
ÙĨØ± Ø§ÙĦ
Ø§Ú¯ ÙĪ
ĠÙ¾Ø°ÛĮØ± ÙģØª
c y
ĠÚ©ØªÛĮ Ø¨Ùĩ
ÙĪÙħ ÙĨ
ĠÙĪÛĮØ¯Ø¦ ÙĪÛĮÛĮ
ĠÙħÙĪÙĦ Ú©ÙĪÙĦ
ĠÙĨÙģ ØªÛĮ
ĠÙħØ¹ ØªØ¨Ø±
Û· Û°
ĠØ¢ ÛĮØ§
Ø§ÙħÛĮ Ø§ÙĨ
ĠÙģÙĪÙĦ Ø§Ø¯
Ġ +
Ø· ÙĪØ¨
ĠØ¶ Ø±Ø¨Ùĩ
ĠÚ¯ÙĨ Ø¨Ø¯
ĠØ± ÙĩØ§
an g
ĠÛ³Û ±Û
ĠÙħØ¬Ø¯ Ø¯Ø§
ĠÚ© Ø³
ĠØŃÙħ Ø§Ùħ
ĠØ´ Ø±ÛĮ
ĠÙħØª Ø´Ú©ÙĦ
ĠØ§Ø·ÙĦ Ø§ÙĤ
ĠØ¨Ø§Ø² Ø¯ÛĮØ¯
Û² Û±
ĠÚ©ÙħÙĪÙĨÛĮ Ø³Øª
Ø§ÛĮ Ø§
Ø¨Ø± Ùĩ
Ø§ÙħÙĨ Ø´ÛĮ
ĠÚ© Ø§Ø²
ĠÙĤØ¨ÛĮÙĦ Ùĩ
ĠØ¨Ø§Ø²ÛĮ Ú¯Ø±ÛĮ
ĠÙĤ Ø§Ø¶ÛĮ
ĠÙĪÙĦ Ø²
ĠØ¨ ÛĮØ²
ĠØªØŃ Ø±ÛĮÚ©
ĠÙħÙĤ Ø§Ø¨ÙĦÙĩ
ĠØ¨ÙĪØ¯ Ø¬Ùĩ
Ø§Ùĩ ÛĮÙħ
ÙĪÛĮ ÙĤ
ĠØ§Ø¨ Ø¯
ĠØ¬ÙĦ Ø³Ùĩ
Ù¾ ÙĪÙĦ
Ø´ Ø§Ø¯
ÙĪØ± ÙĨ
ĠØµØ§Ø¯ ÙĤ
ĠØ³Ø§ÙĦ ÙĩØ§ÛĮ
ÙĪÚ© ÙĪ
ĠØ§ÛĮ Ú©Ø³
ĠØ³ÙĦÛĮ ÙħØ§ÙĨ
ÙģÛĮÙĦ Ø¯
ĠÙħØŃ Ø§Ø³Ø¨
ĠÙĨÛĮØ±ÙĪ Ú¯Ø§Ùĩ
ĠØ¯Ø§ÛĮ Ø±Ùĩ
ĠØ¹ÙĤÛĮ Ø¯Ùĩ
Øµ ÛĮÙĩ
ĠÙĪ Ø¬Ùĩ
ÙĪØ¦ ÛĮ
ĠØŃ ÛĮÙĨ
ĠÙĨ Ø§Ø²ÛĮ
ĠØ¢ ÙģØª
ĠØ¯ ÙĤØª
ĠØ®ÙĪØ¯Ø±ÙĪ ÙĩØ§ÛĮ
ÙĤ Ø¯Ø±
ĠÙĨØ§Ùħ Ú¯Ø°Ø§Ø±ÛĮ
Ø§Ø· Ø¹
ĠÙĩØ® Ø§ÙħÙĨØ´ÛĮ
ĠÙħ ÙħØª
ÙĪØ¦ Ùĩ
ĠØ§ÛĮ ÙħÙĨÛĮ
ĠÚ¯ÛĮØ± ÙĨØ¯Ùĩ
Ø¯ Ø§Ø´
ĠÙĩ Ø§ÙĨ
ĠÙ¾ Ø§Ø´
ĠÚ©Ø§Ø± Ú¯Ø±Ø§ÙĨ
ĠÙħØºÙĨ Ø§Ø·ÛĮØ³ÛĮ
ĠØ§ÛĮ ÙģØ§
ĠØ° ÙĩÙĨ
ĠØ¬ ÙģØª
ĠÙģÙĦ Ú©ÛĮ
ĠÙħØ¬ Ø³ÙħÙĩ
ĠØ§ÙģØªØª Ø§ØŃ
Ø´ Ú¯Ø§Ùĩ
ĠÙĨ Ø§Ú©
ĠÙħØ¨ ÙĨÛĮ
ĠÙĪÛĮÙĨØ¯ ÙĪØ²
ĠØ¢Ø³ÛĮ Ø§ÛĮÛĮ
ĠÙħÙĦ Ú©Ùĩ
Ø· ÙĨ
ĠÙ¾ÚĺÙĪÙĩ Ø´ÛĮ
ÙĨÛĮ Ø³
ĠØ´ Ø¬
ÙĨÛĮ Ùĩ
ĠØªÙĤ Ø§Ø¶
ĠØŃ ÛĮØ¯
Ø§Ùĩ Øª
ĠÙħØµ ÙĨÙĪØ¹ÛĮ
ĠÚ©Ø§Ø±Ø¨Ø±Ø¯ ÛĮ
ĠØªÙħ Ø§ÛĮÙĦ
Ø¯Ø§Ø¯ ÙĨØ¯
ĠØ³ Ø¤
ĠØ§ØªÙħ Ø§Ùħ
ĠØ³Ø§ÙĦ ÛĮ
ĠØ¨ÛĮ Ú¯
ÙĪØ±ÛĮ Ø§ÙĨ
ĠÙħØ¬ ÙħØ¹
ĠÙĩ ØªÙĦ
ĠØªÙĪ ØµÛĮÙĩ
ĠÙ¾ ÛĮØ¯
ĠÙģ Ø§Ø·
ĠÙĪ Ø§Ú©
ĠØ³Ø§Ú© ÙĨØ§ÙĨ
ĠÙ¾ Ø§Ø¦
ĠÛ· Ûµ
Ø¯ Ø§ÙĨÛĮ
ĠØ±ÙĪ Ø¨Ø±ÙĪ
ĠØ¨Ø±Ø® ÙĦØ§Ùģ
ĠØ§ÙĦ ÙĩÛĮ
ĠØ§Ø¨Ø¹ Ø§Ø¯
ĠÛ±Û¸Û ´
ĠÛĮÚ© Ø³Ø§ÙĨ
Ø§Øª ÙĦ
or t
ĠÙĨØŃ ÙĪÙĩ
ĠÙĪØ±Ø² Ø´Ú©Ø§Ø±
Ù¾Ø°ÛĮ Ø±ÛĮ
ĠÙĨÚ© ØªÙĩ
Ùĩ Ø²
ÙĪÙĨ Ø²ÛĮ
ĠÙĨÙĪØ² Ø¯ÙĩÙħ
Úĺ Ø§ÙĨØ³
Ġ 5
Ù¾ Ø§ÛĮÙĩ
Ø³Ø± Ø§ÛĮ
ĠØ¯Ø±Ø¢ ÙĪØ±Ø¯
ĠØ² ÛĮÙĨ
ĠÙħØ³Ú© ÙĪ
ĠÚ©ÙĨ ÙĪÙĨ
ĠÙ¾Ø±Ø¯Ø§Ø² Ø´
ĠØ± Ø´Øª
ĠÙħ ÙĪÙĨØª
Û´ Û´
ĠÙħØµ Ø¯
ĠÚ©Ø§Ø± ÙĨØ§ÙħÙĩ
ĠÙħØ§ÙĨ Ø¹
ĠÙĩ Ø±ÛĮ
ĠØªØ® ÙħÛĮÙĨ
ĠØ¯ Ø§ÙĪØ±
Ø± Ø§Ø±
ĠØ±Ùĩ Ø¨Ø±Ø§ÙĨ
ĠÙħØªÙĩ Ùħ
ĠØ§ÙĦÚ©ØªØ±ÙĪÙĨ ÛĮÚ©ÛĮ
ĠØ®Ø¯Ø§ ÙĪÙĨØ¯
ĠØ³Ø· ÙĪØŃ
ĠÙĨ ÙĪØ¯
ĠÙħÙĤ Ø§Ø¯ÛĮØ±
ĠØ± ÙĨØ¬
ĠÙħØ±Ø¯ ÛĮ
ÙħÛĮ Ø§ÙĨÙĩ
ĠÙħØ±Ø¯ ÙħØ§ÙĨ
ĠØ¨Ø± ÙĪÙĨ
Ø³ Ø±Ø§
Ġ2 00
ĠÙĦ ÛĮÚ©
ĠØ¨ØŃ Ø±Ø§ÙĨ
ÚĨ ÙĪØ¨
Ø¯ Øª
ĠÙħØ± ÙĪØ±
ĠØ¢ Ø¯Ùħ
ĠÙĪØ§ÙĤØ¹ ÛĮØª
ĠÙĨÙģ ÙĪØ³
Ø§Ø± ÙĪ
ĠØ³Ø§ÙĦ Ùħ
ĠØ¹ÙħÛĮ ÙĤ
ĠÙħ Ø§Ùħ
Ø§ÙĦ ÛĮØ²
Ø¬ Ø³ØªØ§ÙĨ
ĠØ¬ ÙĪØ´
ĠØ³ÙĦ Ø§ÙħØª
Ú¯Ø± Ø§Ø¯
ĠÙģØ± ØµØª
ĠØ±ÛĮØ§Ø¶ÛĮ Ø§Øª
ĠØ§Ø¹ ØªØ¨Ø§Ø±
ÛĮÙħ Ø§
ĠØª Ø±Ø§ÙĨ
ĠØ® ÙĪØ§Ø±
ĠØ® Ø¨Ø±ÛĮ
ĠÙħØ± Ø§ÙĤ
Ú©Ø³ ÙĪÙĨ
Ø® ÙĦ
ĠØ¬ Ø§Ø¨
ĠØ² Ø§Ø¯
ĠÙĨÚ¯ Ø§Ø±Ø´
ĠÙģÛĮÙĨ Ø§ÙĦ
s h
ĠØ¹Ø¨ Ø§Ø³ÛĮ
ĠØ¯Ø§ÙĨØ´Ùħ ÙĨØ¯
ar d
ĠØŃÙĤ ÙĪÙĤÛĮ
ĠÙĨÙĪ ÛĮÙĨ
ĠC h
ÙĪØ³ÛĮ ÙĦÙĩ
ĠØ¢ÙģØ±ÛĮÙĤ Ø§ÛĮ
ĠÚ©ÙĦ Ø§Ùĩ
ĠØ¢ Ú¯Ø§ÙĩÛĮ
ĠØ¯ÙĪØ¯ ÙħØ§ÙĨ
ĠÙħÙģ ÛĮØ¯
ĠÙĨ ÛĮÙĦ
ĠÙħØ±Ø¯ ÙħÛĮ
ĠÙħØ§Ùĩ ÙĪØ§Ø±Ùĩ
ĠÚ©ÙĨ ÙģØ±Ø§ÙĨØ³
ĠÙ¾ÛĮØ± ÙĪØ²
ĠØ§ÙĨÙĤÙĦ Ø§Ø¨ÛĮ
ĠÙħØ¹ Ø±Ø¶
ĠØ¯Ø§Ø± Ø§
ĠØ§Ø¯ ØºØ§Ùħ
ĠÙĪØ§ Ú¯Ø°Ø§Ø±
ĠÙĤ Øµ
ÙĨ ÛĮÚ©
ĠØ§Ø±ØªØ¨Ø§Ø· ÛĮ
ĠÙĪÛĮÚ© ØªÙĪØ±
ĠØ· Ø§ÙĦ
Ø³Øª Ø§
Ú©ÛĮ ÙĪ
ĠÚ©ÙĨØ³Ø± Øª
e w
ĠØ¨ ÙĪÚ©
ĠØ¨ Ø§Ø³
ÙĪØ¯ Ø§
ĠÛ±Û¹Û¸Û ¶
ĠØ¬Ùħ Ø¹Ùĩ
Û² Û³
ĠØ¨Ø§Ø± ÙĩØ§
ĠØ§Ø± Ú©Ø³ØªØ±
ĠÙģ Ø³
ÛĮ ÙĦÛĮ
ĠØªØµØ§Ø¯ ÙģÛĮ
ĠØ¢ ÙĪ
ĠØ§Ùħ Øª
ĠØ¨Ø± ÙĪØ¯
ĠØ¬Ø± Ø¬
. "
ĠÚ© ÙĪØ§ÙĨ
ĠÚ©ÙĪÚĨ Ú©ØªØ±
ĠØ®Ø±ÛĮ Ø¯Ø§Ø±ÛĮ
ĠØ¹Ùħ ÙĤ
ĠØ³ÙĤ Ùģ
ĠØ§Ø³Øª Ø®
Ø§Øª Ùĩ
Ø§ÛĮ Ø²ÛĮ
ĠÛĮ ÙĪØ³Ùģ
ĠØ¯ ÛĮÙĦ
Ø§Ø³ Ú©Ø§
Ø§ÙĨØ² Ø¯ÙĩÙħ
Ø² ÛĮÙħ
Ø³ÛĮ Ø§
ĠØ§ÙģØ² ÙĪØ¯Ùĩ
Ã ©
ÙĤ ÙĦÛĮ
ĠÚ©ÙĨ ÙĨØ¯Ú¯Ø§ÙĨ
ĠÙĨØ¨ Ø§ÛĮØ¯
ĠØ³Ø±Ú© ÙĪØ¨
ĠÚ©Ø± ÙĪÙħ
ĠÙħØª ÙĪÙĨ
ĠØ§Ø³ØªÙĤ Ø¨Ø§ÙĦ
ĠØ¨Ø§Ø± Ø§ÙĨ
ĠØ³ Ø§ØŃ
ĠØ§ÙĪ Ú©Ø±
ĠÙĨØ±ÙĪ Úĺ
Ø§Ú© ØªÙĪØ±
ĠÙĨÙħØ§ÛĮ ÙĨØ¯Ú¯ÛĮ
Û³Û ±
Ø¹ Ùģ
ÛĮÙĨ ÛĮØ§
ĠÚ© Øª
Û· Û¶
ĠØª Ø¸
ĠÙĩØ´Øª Ø§Ø¯
Û´ Û¶
ĠÚĺ ÙĨØª
ĠÙĤ ÙĨØ§Øª
ĠÛ±Û¹Û¸Û ´
Ø§ÙģØª Ø¯
ĠÙħØ¹ Ø¨Ø¯
ĠØ§Ú©Ø« Ø±ÛĮØª
ÙħÙĨ Øª
ĠÚĺ ÙĨØ±Ø§ÙĦ
ĠØ¯ÛĮØ¬ÛĮØª Ø§ÙĦ
n d
ĠØ¢ Ø³Øª
Ø®ÙĪ Ø§ÙĨÛĮ
ĠÙĩÙħ Ø¬ÙĨØ³
Øº Ùĩ
ĠÙħØªÙģ Ø§ÙĪØªÛĮ
ĠØ§Ø³Øª Ø¯ÙĦ
Ø¬ Ø§Øª
ĠØ® ÛĮØ±
ĠØ±Ø§Ø³Øª Ùĩ
Û² Û¸
ĠØ±ÙĪÛĮ Ø¯
Ùħ Ø«
ĠÙĨ ØµØ±
ÙĨØ¸ Ø±
ĠÙĩÙħ Ø±
Ùĩ Ø§Ø³Øª
ĠØ´Ø´ ÙħÛĮÙĨ
ĠÛ±Û³Û¸Û ¸
Ø³Ú© Øª
ĠØ¬ ÛĮÙĨ
ĠØ§Ùħ Ø¶Ø§
ĠÙħØ®Øª Øµ
ĠÙĪØ¶ Ø¹
ĠÙĩÙħ Ú©Ø§Ø±
Ø§ ÙĪØ²
Ø³ÛĮ ÙĦÙĪ
Û³Û ¸
ĠØ¬ Ø§Ø³
Ø¬ÛĮ Ø¨
o k
Ø¯ÛĮ Ùĩ
ĠØªÙĤ Ø¯
ĠØ§Ø´Ú© Ø§ÙĦ
ĠØ§Ø¹ Ø·
u b
Û¹Û ¹
ĠÙĨØ§Ø¨ ÙĪØ¯
ĠÚ©Ø§Ø±ÙĪÙĦÛĮÙĨ Ø§ÛĮ
ĠØ¢ Ø±Ú©
ĠÙĤÙĩØ±ÙħØ§ÙĨ Ø§ÙĨ
ĠÙĩÙħ Ú¯ÛĮ
Ø§ÛĮ Ø¹
Ø³ Ø§Ø±
ĠØ§ÛĮ Ø¯
ĠÚ© ÙĪØ¦
ĠÙ¾ ÛĮÙĨ
ĠÙģ ÙĪ
ĠØ±ÙĪ ÛĮÚ©
ĠÙħÛĮ Ø§ÙĨÛĮ
ĠÙħØ³ Ø¹ÙĪØ¯
ĠØ±ÙĤ Ùħ
ĠØ³ÛĮ Ø¨
ĠÙ¾ÙĨÙĩ Ø§ÙĨ
ĠØ§Ùħ ÛĮÙĨ
ØµÛĮ ÙĦÛĮ
ÚĨ ÛĮÙĨ
ĠÙĨØ¨ ÙĪØ¯Ùĩ
ĠÚ©Ùħ Ø§ÙĦ
ĠÚ¯ ÙĦÛĮ
ĠØ§ÙĤ ÙĪØ§Ùħ
il l
N A
Ú© Ø³ÛĮ
ĠØ§ÛĮ ÙĦÛĮÙĨ
ĠØ§Ø³Øª ØŃ
ĠØªØ¨ Ø¹ÛĮØ¯
Ø§Ùħ Ø¯
ĠÙĨÙħ Ø§Ø²
ĠÛ±Û¹Û¸Û ²
in e
ĠØªØ§Ø¬ ÛĮÚ©
ĠÙħØŃØ§ÙģØ¸ Øª
Ù¾ Ø¯ÛĮ
ÙģØ± Ùĩ
ĠØ¹Ú© Ø§Ø³ÛĮ
ĠØ¢ Ø³Ø§ÙĨ
ĠÛ ¸Ûµ
Ø§Ø³ Ù¾
Ùģ ÙĨ
ĠÚ©Ø§Øª ÙĪÙĦÛĮÚ©
ĠÚ©Ø´ ÛĮØ¯
ĠÙĨØ§Ùħ ÛĮ
Û¹Û ¸
ĠØ´ ÙĪØ´
ĠÚĨ Ø§ÛĮ
ÙĪØ± ÙĩØ§ÛĮ
ĠÙħÙĩ Ø§Ø±Øª
Ø±Ø³ Ø§ÙĨØ¯
ĠÙĩ ÙĪÙĦ
ĠØªÙĪÙħ Ø§Ø³
Ùħ Ø§Ø±ÛĮ
ĠÙĨÙĪ Ø§Ø±
ĠÙĤØ¨ ÙĦØ§
ĠØ§Ø®ÙĦØ§ÙĤ ÛĮ
ĠÙĨÙħØ§ÛĮ ÙĨØ¯
ÙĩÙħ ÚĨÙĨÛĮÙĨ
ĠØ§Ø´ ÛĮ
ĠØ¬Ø³Øª Ø¬ÙĪ
ĠØ³Ù¾ Ø§ÙĩÛĮ
ĠÙħÙĨ Ø²ÙĦ
Ġ. ..
ĠØ¨Ø±Ø§Ø¯ Ø±Ø§ÙĨ
ÙĪÙħ ÛĮÙĩ
Ø® Ø±Ùĩ
ĠØ¨ Ø²
ĠØ¹ÙĦ Ø§ÙħØª
Ø¬ÙħÙĩ ÙĪØ±ÛĮ
ĠØ±ÙĪØ² Ø§ÙĨÙĩ
ĠÙĨ Ú©Ø±Ø¯Ùĩ
Ø§Ø¨ ÙĨØ¯
ĠØ¯Ø§Ø±ÛĮ ÙĪØ´
ĠØ§ÙĦÚ©ØªØ±ÙĪÙĨ ÛĮÚ©
ĠØ§Ø®ØªØ± Ø§Ø¹
Ġ( "
ĠØ¨ ÛĮØ§
Ø¦ ÙĪØ³
ĠØ¨Ùĩ Ø±Ø§Ùħ
ĠØ±ÙĪ Ø§Ø¬
ĠØ§Ø³ØªØ§ÙĨØ¯ Ø§Ø±
ĠÚ© ÙĪÛĮ
ĠÙħÙĨ ØªÙĤØ¯
ĠÚ©Ø±ÛĮ Ùħ
ĠØ®Ø§ÙĪØ± ÙħÛĮØ§ÙĨÙĩ
ĠÙħÙħÙĨ ÙĪØ¹
ĠÛ±Û¹Ûµ Û°
ĠÙħÛĮ ÙĨÙĩ
ĠÙħØ¬ ÙĪØ²
ĠÛ±Û³Û¹Û ²
ĠØ¬ Ø³Ùħ
ĠÙģÙĦÙĪØ± ÛĮØ¯Ø§
ĠØ§Ø³Ú©Ø§Øª ÙĦÙĨØ¯
Ùģ ØªÛĮ
ĠØ¨ Ùħ
ĠØ®ÙĪ Ø§Ø¬Ùĩ
ĠØ¨ Ø§Ø±Ø¯
Ú¯Ø±Ø¯ ÙĨØ¯
ĠÚĨ Ú¯ÙĪÙĨÙĩ
ĠÙħØŃÙĤ ÙĤ
ĠÙĤØ¯ ÙħØª
ĠÚĨØ§Ø± ÙĦØ²
ĠÙģÙĦØ³Ø· ÛĮÙĨ
ĠØªØŃ ÙĪÙĦ
Ú¯Ø² Ø§Ø±ÛĮ
ĠØ¨Ø® Ø§Ø·Ø±
ĠØ´Ø¨ Ø§ÙĩØª
ÙĬ ÙĨ
Û¸Û ¸
ĠØ¯ Ø§Øº
ĠØ´ Ø§Ùħ
ĠÚ¯ÙĪÙĨØ§Ú¯ ÙĪÙĨÛĮ
Ø§Ø¹ Ø¯Ùĩ
ĠØ¨Ø¯ Ø§ÙĨ
ĠØ§ÙĨ Ø¨
ĠÚ¯ÙĪØ± Ø³ØªØ§ÙĨ
ĠÙģ Ø±Ú©
ĠØ±Ø¯ÛĮ Ùģ
ĠØªØ± Ø³
ĠØ·Ø±Ùģ Ø¯Ø§Ø±Ø§ÙĨ
ĠØ¬Ø³Øª Ø¬ÙĪÛĮ
ĠØ¨ Ø³ØªÚ¯ÛĮ
ĠØ¬ÙĪ Ø§ÛĮØ²ÛĮ
ĠÙħØªÙħ Ø±Ú©Ø²
c t
Ø´ Ø¨
Ø´ Ø§Ø±ÛĮ
ĠÙĩ Ú©Øª
Ú¯Ø± Ùħ
ĠØªÙħ Ø±ÛĮÙĨ
Ù¾ ÛĮØ±
ĠØ¢ÙĨ ØªÙĪÙĨÛĮ
ĠÚ©ÙĦ Ø±
Ø· ÙĦØ¨
in de
ĠP r
ĠÙħØ§Ø¬ Ø±Ø§
ĠÙħÙĪ Ø²ÛĮÚ©
ĠÚ©ÙĨ Ø§Ø±Ùĩ
ĠØªØ§ÙĦ Ø§Ø±
ĠØ¬ Ø³
ĠØ±ÙĪ Ø§ÙĨÛĮ
ĠØµ Ø¹ÙĪØ¯
Ø° Ø±
ĠÙģÛĮÙĦ Ø³ÙĪÙģ
ĠØ²ÙĨØ¬ ÛĮØ±Ùĩ
ĠÙħØ¹ Øª
ĠÚ©Ùħ Ø±Ø¨
ĠÙĪØ³ Ø·
ĠØ¨Ø± ÙĨØ¯
ĠØ¨ ÙĪÛĮ
ĠØ´Ø§ Ú¯Ø±Ø¯Ø§ÙĨ
ĠØ¨Ø± Ø¢ÙĪØ±Ø¯
ĠÚ© ÛĮÙĨ
ĠØ§Ùħ ÙĪ
ĠÚ¯ Ø§ÙĪ
Ú©ÙĨ Ø§ÙĨ
Ø¨ Ø§Ø¯
cy cl
ĠÙħØ¯ Ø§ÙģØ¹
ÙĪØ±ÛĮ Ø³
c om
ĠÙĪØ³ÛĮ Ø¹
ĠØ§ÙģØª Ø§Ø¯Ùĩ
ĠÙ¾Ø§Ø±ÙĦ ÙħØ§ÙĨ
Ø§Ùĩ Ø±Ø§Øª
Ú¯ ÙĪØ´
ĠØ¨ ÙĪØ³
ĠÛ±Û¹Û¸Û ·
ĠØ® Ùħ
ĠÙĨÛĮ ÙĪØ²
ĠÙĨØ§ÛĮ Ø¨
ĠÙħØ§ÙĦÚ© ÛĮØª
ÙħÛĮÙĨ Ø§ÙĨ
ĠØ¨Ø§ÙĦØ§ØªØ± ÛĮÙĨ
cycl op
Ú¯Ø±ÙģØª Ú¯ÛĮ
ÚĨ Ø³ØªØ±
Ú© Ø§ÙĦ
ĠØ³Ø§Ø² ÙĨØ¯Ùĩ
ĠØ§ÛĮÙĦÛĮÙĨ ÙĪÛĮ
ĠÙĩ Ùģ
ar t
ĠØ¹ Ø¸ÛĮÙħ
ĠØ§ÙĨØªØ®Ø§Ø¨ ÛĮÙĩ
ĠØ± Ø§ØŃØªÛĮ
ĠÙĨØ®ÙĪ Ø§ÙĩØ¯
ĠÚĨ ÙĨÚ¯
ĠØ§Øª ÙħÛĮ
ĠØ¢Ø¨ Ø´Ø§Ø±
ĠØªØ¬ Ø¯ÛĮØ¯
ĠØ´Ø± Ø·
ĠÚ©ÙĦ Ø§ÙĨ
ĠÙ¾Ø§Ø± Ø§Ùħ
ĠÙģ ÙĤÙĩ
ĠÛ´ Û¶
ĠØ§Ú© Ø±Ø§ÙĨ
ĠØ§ÙĪ Ø§Ø³
ĠØ¯Ø±Ø¢ Ùħ
ĠF ree
ĠÙħØ¨ ÙĨØ§ÛĮ
ĠÚ© ÙĪÙĨ
ĠÙħØ® ÙĦ
ĠÙģØ±ÙĪ ÙĨØ¯
ĠØ¹ ÛĮØ³ÛĮ
ĠÙĨÙħ Ú©
ĠÙħØŃÙĦ ÙĪÙĦ
ĠÙĤÙĦ Ø¨ÛĮ
el l
ĠÙħØª Ø£
Ø§Ùħ Ø¹
ĠØ§Ú© Ø³ÛĮØ¯
ĠØ¬ÙĪ Ø§Ø¨
Ø§Ø¸ Ø±
ĠØ¨Ø± Ú¯Ø±ÙģØªÙĩ
ĠÚ¯Ø± Ú¯
ĠØ¯ Ø§Ø³ØªØ§ÙĨÛĮ
ĠÙħØŃ Ø³ÙĨ
ĠÙĪØ§ØŃ Ø¯ÙĩØ§ÛĮ
ĠØª Ø³Øª
ĠØ§Ø±Ø¯ Ø¨ÛĮÙĦ
ĠØ¨Ø²Ø± Ú¯Ø§ÙĨ
ĠØ³Ùĩ Ùħ
ĠÙ¾Ø±Ø§Ú© ÙĨØ¯Ùĩ
Ú¯ Ø§Ùħ
Û³Û ³
ĠÙĩÙħØ± Ø§ÙĩÛĮ
ĠÙĤØ± ÙĪÙĨ
ĠÙĩÙģØª ÙħÛĮÙĨ
ĠØ¹ÙĪ Ø¶
ĠØ§Ø³ØªØ®Ø± Ø§Ø¬
ĠÛ¹Û µ
ĠÙĤ Ø§Ø±
ĠÙħØª ÙĤ
ĠØªØ¬ Ø±Ø¨ÛĮ
ĠØ§Ú© Ø³
ĠØ¬ÙĦ Ø§ÙĦ
ĠØ¯ ÛĮÚ©
Ú¯ ÙĪÛĮÛĮ
ĠØ³Ùģ ÛĮØ±
ĠÙĩ ÛĮØª
ÙĦÛĮ Ø§ÙĨ
ĠØªØŃ ÙĪÛĮÙĦ
Ùģ ÙĪÙĨ
ĠÚ©Ø§Ø±Ø¨Ø± Ø¯ÙĩØ§ÛĮ
ĠØ§ ÙĪÙĨ
Ø§Øª ÙĪ
Ø³ØªØ§ÙĨ Ùĩ
ib ut
ĠÛµ Û·
ph p
Ø§ÛĮØª Ø¯
Ø§ØªØ± ÛĮÙĨ
ĠÙĨÛĮØ´ Ø§Ø¨ÙĪØ±
ĠÙĨ Ø¹
ĠØ° Ùĩ
Ø¬Ùħ ÙĦÙĩ
Ø¨ÛĮ ÙĨØ¯
Û² Û¹
ĠØ¬ Ú©Ø³ÙĪÙĨ
Ø´Ø¯ ÙĨ
ĠÙħØ¯ Ø¹ÛĮ
Ù¾Ø¯ÛĮ Ø§ÛĮ
Ġ l
ĠÚ¯ ÙĪØ¯
ĠØ¢ÙĤ Ø§
Ø³ÛĮÙĦÙĪ Ø§ÙĨÛĮØ§
ÙĦÛĮ Ø¯ÛĮ
ĠÚ© Ø§ÙĨØ¯
ĠÙĨ Ø¨Ø±
ĠEn cyclop
ĠÙħØ° Ú©ÙĪØ±
ÙĪÙĨ ÛĮØ§
ĠØµ ÙĦØ§ØŃ
ĠØ±Ø³ Ø§ÙĦÙĩ
ĠÙħÙĩÙĨØ¯ Ø³
ĠÙħØŃÙħØ¯ Ø¹ÙĦÛĮ
ĠÙħØ¹Ø§Ø¯ ÙĦÙĩ
ĠØ¯ ÛĮØ²
m ol
ĠØ³Øª Ø§Ø±
ĠØ¨ÛĮØ± ÙĪÙĨÛĮ
ĠØ§ÛĮ ÙĨØ¯ÛĮ
ĠØ± Ø³ØªÙħ
ĠØ§Ø® Ø°
q u
Ø§ÛĮ ØªÛĮ
Ø§ ÙĪÙĦ
ĠÚ©Ùħ ØªØ±ÛĮ
t it
ĠØ² ÙĪØ¬
ww w
ĠÙĦØ° Ø§
ÛĮØ¯ Ú¯ÛĮ
ĠÙĪ Ø§Øª
ĠÙĦ ÙĨÚ¯
ĠØ¬Ø§Ùħ Ø¯
Ø§Ø ¢
Ġ Ø§ÙĨÛĮÙħ
ĠÙĨ Ø§Ø³
ĠÛ±Û¹Û ¸Ûµ
ĠØ§Ø³ØªØ¯ÙĦ Ø§ÙĦ
ĠÙħØ¹ ÛĮÙĨ
ĠØ¯Ø§Ø± ÙĪÛĮÛĮ
Ø³ ÙĪØªØ§
ĠÛ±Û¹Û· Û¹
ĠØ¢ÙĦ Ø§Ø¨
ĠØ±Ø³ ÙħØ§
Ø³ ÙĪÙħ
ÙĪÛĮØª Ø³Ùĩ
ĠÙħØ£Ùħ ÙĪØ±
ĠÛ´ Û´
ĠÙĦ Ø§Ø±
e g
ĠØ®ÙĪØ¯ Ú©Ø§Ø±
ĠØ§Ø³Øª ÙĪØ§Ø±
Ù¾Ø±Ø¯ Ø§Ø®Øª
ĠØ¹ Ø·
ĠÂ« "
Ġcon tr
ĠØ± Ø¬
ĠØ§ØŃØªØ± Ø§Ùħ
ÙĪÙĨØ¯ ÛĮ
ĠÛ´ Û·
ĠØ¯ Úĺ
ĠÛ±Û¹Û¸Û ±
ĠØ®ÙĪØ§Ø³Øª Ùĩ
ĠÙħØ´ Øª
ĠØ¯Ø§Ø±ÛĮ Ùħ
Ø¯ Ø§Ø±Ø¯
ĠÚ©Ø±Ø¯ ÛĮ
ĠØ¬Ø¯Ø§ Ú¯Ø§ÙĨÙĩ
ĠØŃ Ø´
ÙĪÙħ ØªÛĮ
ĠØ¨ ØªÙĨ
ĠØ§Ùĩ ÙĪØ§Ø²
inde x
ÙĨ ÙĤ
ĠÚ© Ø§ÙĨÛĮ
ÙĨØ¬ Ø§ÙĨ
ĠÙħØ®ÙĦ ÙĪØ·
Ġ <
ĠØªÙĨ Ø´
ĠÛ±Û³Û¹Û ¶
ĠEncyclop edia
ĠØ³ Ø§ÛĮÙĩ
ĠÙħÙĪØ³ ÙĪÙħ
ĠÙ¾Ø± ÙĨØ¯Ú¯Ø§ÙĨ
ĠÙĤ ÙģÙĤ
ĠØ§Ø· ÙħÛĮÙĨØ§ÙĨ
ĠÙĪ Ø§Ùħ
Ø§ÙĤ Ø¯
Ø®Øª ÙĨ
ĠÚ©ÙĪ ÚĨÙĩ
ÙĦ Ø§Ú©
ĠØªÚ© Ø§ÙħÙĦ
ĠÛĮØ§Ø¯ Ú¯ÛĮØ±ÛĮ
Û¸Û ¹
Ø´ Ø¹
ĠÚ©Ø§ÙĨ ÙĪÙĨ
ĠÛ±Û¹Û´ Ûµ
ĠÙĩÚ©Øª Ø§Ø±
ÛĮÙĦ Ø§
Ø³Ú©Øª Ø¨Ø§ÙĦ
ĠØ¬Ùħ Ø§ÙĩÛĮØ±
ĠÙĨ ØªÙĪØ§ÙĨØ³Øª
ĠÚ¯Ø±Ø¯ ÙĨ
Ø¹Ø¨ Ø§Ø³
ĠÙ¾ Ø±Ùģ
Ø§Ø¨ ÛĮÙĨ
ÙĪÙħ Ø±
ĠØ³ÛĮÙĨ Ø§
ĠØ³Ùģ Ø§Ø±Øª
Ùħ ÙĪØ¯
ĠØ§Ø¨ ÙĪ
ĠØ§ÙĪ ÙĦÛĮ
ĠØ¨ÛĮ Ø§ÙĨÛĮÙĩ
ĠØªØ±Ú©ÛĮØ¨ Ø§Øª
ĠØ®ÙĪØ§Ø³Øª Ø§Ø±
ĠÚ¯Ø°Ø±Ø§ÙĨ Ø¯
ĠÙħÛĮ Ø´
ĠØ´ Ø±ÛĮÙģ
ic e
ĠÚ¯Ø± Ø¬Ø³ØªØ§ÙĨ
ĠÙģØ±Ø¯ ÙĪØ³ÛĮ
ĠÙĤÛĮ Ø§Ùħ
ĠØ³ ÙĪÙ¾Ø±
ĠÚ¯ÙĦ Ø³ØªØ§ÙĨ
ĠÙĩÙĦ ÙĨØ¯ÛĮ
ĠÙĨÙĩØ§ÛĮ ØªØ§
ĠÙħØ¹ Ø¯ÙĨ
ĠØ² Ø¨Ø§ÙĨÛĮ
ĠØ¨ Ø§ÛĮØ±
ĠÙħ Ø±ÙĪ
ĠÙĪØŃ Ø´ÛĮ
ĠÛĮÙĪÙĨ Ø§ÛĮØªØ¯
ĠØ¨Ø¯ ÙĨÙĩ
ĠØ¬Ø§ÙĨ Ø¨
ÙĦ Ø§ÙĦ
ĠÛĮ ÙĪØ±ÙĪ
ĠØ³Ø·ØŃ ÛĮ
ĠÙħÙĪÙĤ Øª
ĠØ§Ø± Ø³
ĠØ¨Ø§Ø²Ø± Ú¯Ø§ÙĨÛĮ
ĠÙĦ Ø²
ĠØ²ÛĮ Ø³ØªÛĮ
ĠØŃØ± Ø§Ø±ØªÛĮ
Ùħ ÙĨØ¯Ø§ÙĨ
ĠØ¨ Øµ
ĠÙĪÛĮ Ø³
ĠÚĨØ± Ø®Ùĩ
ĠÚĨÙĨØ¯ Ø§ÙĨ
ĠÙĦØŃ Ø¸Ùĩ
__ __
Ġ v
Ùģ Ø±ÙĪ
ĠØ³ÙĦ Ø¬ÙĪ
ĠØ± Ø¹
Ú¯Ø±ÙĪ Ùĩ
Ûµ Ûµ
ĠÙģØ± Ø§Ø®
ĠØ´Ø¹ Ø¨Ùĩ
ĠØŃØ° ÙģÛĮ
ÙĩØ§ÛĮ Ùħ
Ú¯Ø° Ø±Ø¯
Ø³Ø§ ÙģØª
ĠÙĦÛĮ Ø³Ø§ÙĨØ³
ĠØ¯ Ø§Ú©
ĠÛĮ Ø§Ø±ÛĮ
Û¶ Û¶
Û³Û ¹
Ø¦ Ùĩ
ĠÙħØ¯ ÛĮØ±Ùĩ
ĠÛ´ Û°Û°
ÙĪØ¯ Ú¯ÛĮ
ĠØ¨ Ø³Ú©ØªØ¨Ø§ÙĦ
ÙĨÙĪ Ø¹
ĠÙ¾ÙĨ Ø³ÛĮÙĦÙĪØ§ÙĨÛĮØ§
ac c
Ø¶ Ø§ÙĨ
ĠÛ±Û¹Û· Û¶
ĠÙĩ ÛĮØ±
Ø´Ø± Ø¯Ùĩ
Ú¯ÛĮÙĦ ÙĪÛĮÙĩ
ĠØ¬ Ø§Ø°
ĠØ¨ÙĦ ÙĪ
ĠÙĪÙĦ ØªØ§Úĺ
ibut ors
ĠØ¨ ÙĪØ¦
ĠØ¶ Ø®
ĠÙĩØ§Ø´ ÙħÛĮ
ĠØ´ÛĮØ¹ÛĮ Ø§ÙĨ
Ø² ÛĮÙĨ
ĠÙģÛĮØ± ÙĪØ²
Ġcontr ibutors
ĠÙĨ ØµÙģ
Ø§Ø¹ Ø¯
ĠÙħÙĪØ§Ø±Ø¯ ÛĮ
ĠÙħØ¹ØªÙĤØ¯ ÙĨØ¯
ĠØŃ ÙĤÛĮÙĤÛĮ
ĠÙ¾Ø±Øª ØºØ§ÙĦ
Ùģ Ø§ÙĨ
ĠØ® Ø´Ùħ
n ow
ĠØŃÙĪ Ø§Ø¯Ø«
ĠÚ© Ø§Ø±Ø¯
ĠÙ¾Ø± ÙĪØ§ÙĨÙĩ
ĠØ§ÛĮÙĨØªØ± ÙĨØªÛĮ
ĠØ³Ø§ØŃ ÙĦÛĮ
ĠØ¨ÙĪØ´ ÙĩØ±
ĠÙħØµ Ø·ÙģÛĮ
ĠÛ±Û¹Û´ Û´
ĠØ±Ø§Ø¯ÛĮ ÙĪÛĮÛĮ
ĠØ¬Ø¹ Ø¨Ùĩ
ĠØªØ¹ ÙĦÙĤ
ĠØ³Øª Ø§Ø¯
Øµ Ø§Ø±ÛĮ
ĠÙħØ§ÛĮ Ú©Ø±ÙĪ
Ú¯Ø± Ø§Ùĩ
ĠØ³Ø¤ Ø§ÙĦ
ĠØªØµÙĪÛĮ Ø±ÛĮ
ÙĪ Ø§ÙĦÛĮ
Ø® Ø¯
ĠØ¯Ø®ØªØ± Ø§ÙĨ
ĠØªØ³ ÙĦÛĮÙħ
ĠØ¢ÙĦØ§Ø¨ Ø§ÙħØ§
Ø¬ ÙĨÚ¯
ĠÙĤØ¯Ø± ØªÙħÙĨØ¯
ĠÙĪÙĤ Ø§ÛĮØ¹
ĠØ§Ùħ Ø§Ø±Ø§Øª
ĠÚ© ÛĮÙħ
ĠØ¢Ú¯ ÙĪØ³Øª
ĠÙħØ´ ØªÙĤ
Ú© Ø´Ø§ÙĨ
ĠÙĤ ÙĪÙĦ
ĠØ¬ÙĦ ÙĪÛĮ
ĠÙĤØ¶ ÛĮÙĩ
ĠØ³Ø±Ùħ Ø±Ø¨ÛĮ
ĠØ§ÙħØª Ø¯Ø§Ø¯
ÙħØ§ÙĨ Ùĩ
ĠØ¨Ø± ÙĪØ¬
ĠØ¢ÙĦ ÙĪÙħ
ĠÙ¾Ø± ØªÙĪ
e v
ĠÛ±Û¹Û· Û¸
ĠØ³ ÙĪØ³
ĠÚ©ÙĨ Ø³ÙĪÙĦ
ĠØ§ÙĨØ¬Ø§Ùħ ÛĮØ¯
ĠÚ© Ø§Ø¸
Ù¾ Ø±ÙĪ
ĠÚĨØ± Ø®Ø´
ĠÚĨÙĨØ¯ ÛĮ
ĠÚ©Ø§Øº Ø°
Ø§ÙĦ Ø¨Ø§
ĠØ³Ø±Ø¯ Ø§Ø±
ĠÙĤ Ø´
ĠØ§ÙĨØ¯ Ø§Ùħ
Û¹Û ³
Ø¹Ø¯ Ø§Ø¯
ĠA r
ĠØ¬Ø¯ Ø§ÛĮÛĮ
Ø¬Ùħ Ø¹ÛĮØª
ĠÛ±Û¸Û ²
ĠØ²ÙĨØ¬ Ø§ÙĨ
ĠØ®Ø¯ Ø§ÛĮ
Ġ â
ĠÛ±Û¹Û· Û³
Ú© ØªØ§Ø¨
ĠØ§Ø± ÙĪÙħÛĮÙĩ
Ú¯ÙĪÙĨ Ú¯ÛĮ
ÛĮ ÙĪ
ĠÚ¯ÙĨØ¯ Ùħ
ĠØ§Ú©Ø³ÛĮ ÚĺÙĨ
tit le
Ø± ØºÙħ
ĠØ¢ Ú¯Ø§Ùĩ
ĠØ¬Ø§ÙĨ ÙĪØ±Ø§ÙĨ
ĠÚ©ÙĪÙĩ Ø³ØªØ§ÙĨ
Ø® Ø§Øµ
ĠÙ¾ÛĮØ± ÙĪØ§ÙĨ
ĠÙģ Ø´Ø±Ø¯Ùĩ
Û¹Û ±
ĠÛ±Û¹Û¸Û ³
Ø§ÙĦ ÙĪ
ÙĤ ÙħØ±ÛĮ
ĠØ§Ø³Øª ÙĨ
ĠØ¯ÙĪÛĮ Ø³Øª
ĠÚ© Ø¨Ú©
ĠØ¶Ø± ÙĪØ±ÛĮ
ĠÚ©Ùħ Ø¨ÙĪØ¯
ĠØªØ± ÙĪØ±
ĠÙħÙĨØ· ÙĤ
ĠÚ¯ÙģØª Ú¯ÙĪ
ĠØŃ Ø±ÙĪÙģ
ĠØ¯ÛĮ Ø³Ú©
Ø§ ÙĪØ±ÛĮ
ÛĮØ§ ÙģØª
ĠØ®ÙĪØ±Ø´ÛĮØ¯ Ú¯Ø±ÙģØªÚ¯ÛĮ
ĠØ´ÙĩØ±ÙĪÙĨØ¯ Ø§ÙĨ
Ùģ ÙĩØ±Ø³Øª
ĠØªØ´ ÙĪÛĮÙĤ
ĠØ§Ø³ØªØ® Ø¯Ø§Ùħ
ĠÙħØ¹ ÙĦÙħ
ĠØ¬ ÙĪÛĮ
ĠÙĤ Ø¯Ùħ
Ø§ÙĦÛĮ Ø³Ùħ
ØªØ´ ØªÛĮ
ĠØŃÙħ ÛĮØ¯
Ø§Ùħ ÙĦÙĩ
Ø§Ú¯ Ø§
Ø³ÙĪ Ø§Ø±ÛĮ
ĠÙĤØ¶ Ø§ÛĮÛĮ
ĠÙħØ¬ Ø§Ø²ÛĮ
ĠØªØ¹ Ø§Ø¯ÙĦ
Ġ Z
ĠÛ±Û¹Û¶ Û¸
ĠÙħÚ©Ø§ÙĨ ÛĮÚ©ÛĮ
e x
ĠØ±ÙĪØ² Ú¯Ø§Ø±
ĠØ§ÛĮ Ø²Ø¯
ĠÚ¯ Ø§Ø±
ĠØ¯Ùģ ÙĨ
ĠØ³ ÛĮÚ©
ĠØ§ÙĦ Ùĩ
ĠÚ©Ùħ ÙĪÙĨ
ĠØªØ¯ Ø±ÛĮØ¬
Ġ 6
Ø§Ùħ ÛĮÚ©
ĠØ®ÙĪØ¯ Ø´Ø§ÙĨ
Ø§ÙĨÚ¯ ÛĮØ²
ĠÛ±Û³Û¹Û ´
ĠØ¯Ø± Ø¨Ø±
ĠØ¢Ø²ÙħØ§ÛĮØ´ Ú¯Ø§Ùĩ
ĠÙħÙĤ ØµØ¯
Øª ÛĮÙħ
Ú¯ Ø´
ÛĮÙĨÚ¯ ÙĨ
ĠØ¯ÙģØ§Ø¹ ÛĮ
ĠÙĤØ±Ø¨ Ø§ÙĨÛĮ
ĠØ± ÙĪÙĦ
ĠÛ±Û¹Û´ Û³
ĠÙħÙĨ Ø¹
ĠØ´ÛĮ Ø¨
Ø¨Ø± Ø²
ĠØ®ÙĪØ±Ø¯ ÙĨ
ĠØ®Ø§Ø· Ø±Ø§Øª
ĠÙģ ÙĪÙĨ
old id
Ø§Ø®Øª ÙĨ
ĠÛ±Û¹Û· Û²
ĠØ¯Ø§Ø± ÙĪÙĩØ§ÛĮ
ĠØªØŃÙĤÛĮÙĤ Ø§ØªÛĮ
ĠØ¨ ÛĮÙĩ
ĠÙĩ Ø±Ú©
ĠÛ¶ Û´
ĠØ§ÙĨØ¯ ÙĪÙĨØ²ÛĮ
ĠÙĪØ³ Ø¹Øª
ĠÙĨØ§Ùħ Ø´
ĠØ¬Ø§ÙĨ Ø¨ÛĮ
ĠØºÛĮØ± ÙĤØ§Ø¨ÙĦ
ĠØª Ø±ÙĪ
ĠÙģØ± Ùĩ
ĠC H
ĠØª ÛĮÙĦ
ĠØ± ÛĮØ´
Ú¯Ø± Ø§ÛĮ
ĠÙħØ±Ø² ÙĩØ§ÛĮ
ĠØ³ÙĪ Ø¡
1 1
ĠÙģ Ø§ÙĤØ¯
ĠØ§ÙħÙĪ Ø§Ø¬
ĠÚ¯ ÚĨ
ĠÛ³Û ³
ĠÙĨ Ø¨Ø§Ø´Ø¯
ĠÛ±Û³Û¹Û ³
ÙĨÙħ ÙĪØ¯
ĠØº Ø§ÙĦØ¨Ø§
ĠØ¨ Ø§Ø±Ùĩ
Øµ Ø§Ø¨
Ù¾Ø±Ø¯Ø§Ø² ÙĨØ¯
ĠØ§ÙĪÚ©Ø± Ø§ÛĮÙĨ
ĠØ¹Ùģ ÙĪÙĨØª
ĠØ§Ø¹ Ø±Ø§Ø¨
ĠØ¨ÙĦ ÙĪÚ©
ĠØ¨ÛĮÙħ Ùĩ
ĠØ¯Ú©ØªØ± Ø§ÛĮ
ĠÙĨÙĪØ¨ ÙĦ
ĠÙħØ± ØªØ¨Ùĩ
ĠÙħÙĪØ§ÙģÙĤ Øª
Ġ ÛĮÙħÙĨ
ĠØ´ Ú©ÙĨ
ĠÛ±Û¹Û· Û´
ĠØº ÙĨÛĮ
ĠØ³ÙĪØ± Ùĩ
ĠÙħÛĮ Ø´ÙĪØ¯
Ø· Ø¨
ĠÙĪÛĮØ±Ø¬ ÛĮÙĨÛĮØ§
ĠÙħÙĪØ¶ÙĪ Ø¹Ø§Øª
ĠØ§ØªÙĪÙħ Ø¨ÛĮÙĦ
ĠØ¯Ø± ÙĪÙĨÛĮ
i o
ÙĨØ§Ùħ ÙĨØ¯
ĠØ¢ Ø±Ø§
ĠØ§ÙĪØ§Ø³ Ø·
ĠÙģ Ø§ÙĦ
ĠÙĩØ´Øª ÙħÛĮÙĨ
Ø¯Ø§Ø´ ØªÛĮ
ĠØ®ÙĪØ¯ Ùħ
ĠÙ¾Ø§Ø± Ø³
ĠØ®ÙĦ Ø§Øµ
ĠØ§ÙĨÚ¯ Ø´Øª
ĠÚ¯Ø° Ø§Ø±ÛĮ
ÙĨØ´ ÛĮÙĨÛĮ
b er
Ġ Î
Û¸Û ³
ĠÙĨ Ø§Ø¯
ĠØ¢ Ø¯Ø±
ĠØªÙĪ Ú©ÛĮÙĪ
ÙħÛĮ Ùĩ
ĠÙħØ±Ø§ÙĤ Ø¨Øª
Ø§Ú© Øª
ĠÚĨ Ú¯ÙĪÙĨÚ¯ÛĮ
ĠØ§Ø¹ Ø¸Ùħ
ĠÙ¾ Ø³ØªØ§ÙĨ
ÙħÛĮ ÙĦÛĮ
ĠØ®ÙĪØ¯ Ø±ÙĪÛĮ
ĠÚ©Ø± Ùħ
ĠÙ¾ÙĨØ¬ Ø±Ùĩ
ĠØµ Ø±Ø¨
ĠØ§Ùĩ Ø¯Ø§
ĠÛ±Û³Û¸Û ¹
ĠÚ©Ø´Øª Ø§Ø±
ĠØ§ØµÙĦØ§ØŃ Ø§Øª
ĠÙħ Ø²Ø§Ø±
ĠÙħØŃÛĮ Ø·ÛĮ
ĠÙħØ· ÙĦÙĪØ¨
Ø¯Ø§ ÙĪÙĦ
ĠØ²Ø± ØªØ´ØªÛĮ
ĠØ¨ Ø¯ÛĮ
Ø³ Ø§Øª
ĠÛ±Û¹Û² Û°
ĠÙħØ± Ø²ÛĮ
ĠÛĮÚ© Ù¾Ø§Ø±
ĠØªØ¹ Ø·ÛĮÙĦ
ĠÚ©Ø± Ø³ÛĮ
ĠØ§Ø±Ø¯ Ø´ÛĮØ±
ĠØ¨ÛĮÙĨ ÛĮ
Û±Û¹Û ¹Û
ĠØ±Ø³ ÙħÛĮØª
ĠÙħØ³ÛĮØŃ ÛĮØª
ĠØ³ ÙĪÙĨ
ĠÙĪØ§ Úĺ
ĠÙĨØ§Ùħ Ø²
i f
ĠØ§ÙĦÚ©Ø³ Ø§ÙĨØ¯Ø±
ĠØª Ø±Ø¯
Ġ r
ĠØµÙĨØ¯ ÙĪÙĤ
ĠØª Ø§ÛĮÙĦ
ĠÛ±Û¹Û· Ûµ
ĠÙħÙĪØ± Ø®
Ø³ÙĦØ· ÙĨÙĩ
ĠÛ±Û¹Û· Û·
ĠÙĪ Ú©ÛĮÙĦ
ĠØ±ÙĨÚ¯ ÛĮ
Ġ k
ÙĪØ± Ø²
ĠØ¨Ø± ØªØ±ÛĮ
ĠØ§Ø³Ú©ÙĨØ¯ Ø±
Ø§ ÙĪÙħ
Ùħ ÙĨØ¯ÛĮ
ĠØ§ÙĦ ÙĨ
Ø§ÙĦÙħÙĦ ÙĦ
ĠØ³ ÙĨÛĮ
ĠÛĮ Ø§Ø±
ĠÛĮ ÙĪÙĨÛĮ
ĠD istrict
Ø§Ø² ÙĨ
ĠÚĨ Ú¯
Û· Û·
ĠØ¨ ÙĪÛĮØ±
ĠÙģÙĨ ÙĦØ§ÙĨØ¯
ĠÙħÙĪ Ø³ÙĪÛĮ
ĠØ®Ø§ÙĦ Øµ
ĠØ¨ Ø¯ÙĩØ¯
ĠØºÛĮØ± Ùħ
ĠØ¢Ø°Ø±Ø¨Ø§ÛĮØ¬ Ø§ÙĨÛĮ
ĠØ³Ø§Ø®Øª ÙħØ§ÙĨÛĮ
ĠÚ¯ÛĮØª Ø§Ø±
ĠØ±Ø³ÛĮØ¯ ÙĨØ¯
ĠØ¹ ÙĪØ§Ø±
Ú©ÙĨ Ùĩ
ÙĦÛĮ ÙĦÛĮ
ĠÙĤ ØµØ±
ĠÙĪØ³ÛĮ Ø¹ÛĮ
ĠØ§Ø® Ø±Ø§Ø¬
ĠÚĨ ÙĪØ¨ÛĮ
ĠÙĪØ¸ Ø§ÛĮÙģ
ĠØ¬ Ú©
ĠØ§Ø« Ø±Ø§Øª
Ùģ ÙĪØ±
ĠÛ¹Û ¶
ĠØ®ÙĪØ± Ø¯Ùĩ
ĠØ¢ÙĦ ÙĨ
, "
ĠÛĮØ§ÙģØª ÙĨØ¯
ĠØ´Ø§Ø¹ Ø±Ø§ÙĨ
Ø§Ø¨ ÙĨ
iv e
ĠÛĮ Ø§Ø²Ø¯Ùĩ
ĠÙħØ´Ø±ÙĪ Ø·Ùĩ
ĠÙħØ· Ø§ÙĦØ¨
ĠØ§Ø³ ÙĦÙĪ
ĠÙħØ¨ÙĦ Øº
ĠÚ©Ùĩ Ú¯ÛĮÙĦÙĪÛĮÙĩ
ĠÛ±Û³Û¹Û ·
ĠØ¨Ø§Ø²ÛĮÚ¯Ø± Ø§ÙĨÛĮ
ĠÚ©ÙĪØ§ÙĨ Øª
ĠØ´ Ø§Ù¾ÙĪØ±
ĠÛ±Û³Û¹Û ±
ĠØªØ± Ø´
ĠÙĨ Ø§ÚĨ
Ú©ÙĨÙĨØ¯ Ú¯ÛĮ
ĠØ¢Ø´ÙĨ Ø§ÛĮÛĮ
Ø³ÛĮ Ø±ÛĮ
Ø§ÙĦÛĮ Ø³Øª
ĠØ¹ÙĦ Ø§Ø¦Ùħ
ÛĮØ± Ø§
ĠÙ¾Ø±ÙĪØª Ú©ÙĦ
ĠÙħØº Ø²ÛĮ
ĠØ¯ Ø´
ĠØ¨Ø± Ø¯Ø§Ø±ÛĮ
1 9
ĠÙĨÙĩ ÙħÛĮÙĨ
ĠÙĩØ± Ø§Øª
ĠÚ© ÛĮÙĨÚ¯
ĠÙ¾ ÙĪ
ĠØ¯ÙĪ Ú©
acc ess
ĠÙĨØ§Ø´ ÙĨ
ĠÚ¯ÙĦ ÙĪÙĦÙĩ
ĠØ³Ø±ÙĪ Ø¯Ùĩ
ĠÙģØ± ÙĤÙĩ
ĠÙ¾ÙĪØ´ ÛĮØ¯Ùĩ
Ø§Øº Ùĩ
ĠÛ±Û¹Û· Û±
ĠØ´ÙĦ ÛĮÚ©
ĠÛ±Û¹Û ³Û°
Øª Ø§Ø±ÛĮØ®
ĠØ´ÛĮ ÙĦÛĮ
ĠÚ©Ø§ ÙĪØ´
ĠÛ¹Û ²
ĠÙĩ Ø§Ùģ
ĠÙ¾Ø± Ø³Ù¾
ĠÙħØ¹ÙĦ ÙĪÙħ
ĠÚ© ÛĮØª
ÙĪØª ÙĨ
ÙĪØª Ø±ÛĮ
ĠØ³ÙĦ ÙĪÙĦÛĮ
ĠÛ³Û ³Û
ĠØ® ÙĦØ§
ĠÙħ Ø§ÙĨÛĮ
ĠØ§ÙĨ Ø¹
Ø±Ø¯ Ú¯ÛĮ
ĠÙĨØ¬ Ùģ
ĠÙĤ ÙĪÙħÛĮ
ĠÙģÙĦØ³ ÙģÛĮ
Øª Ú©
ĠÙĦ ÙĨ
ĠØ¨ Ø§Ø±ÛĮ
ĠØ´ÙĪ ÙĩØ±
Ġ h
ĠØªØ± Ø¬ÛĮ
ĠØ§Ø³ØªØ±Ø§Øª ÚĺÛĮ
ĠØªÚ© ÛĮÙĩ
ĠØ´ÛĮØ± Ø§Ø²ÛĮ
ĠØ³Ø± ÚĨØ´ÙħÙĩ
ĠØªÙĪ ÙĦÛĮØ¯ÛĮ
ĠÙĨØ¸ Ùħ
Úĺ ÛĮÚ©ÛĮ
ĠÙħØª Ø§ÙĦ
ĠÛµ Û¶
ĠÙĩØ±ÙħØ² Ú¯Ø§ÙĨ
ÙĪ ÙĩØ§
ĠØ±ÙĪ Ø²ÛĮ
ĠÙħÚ©Ø§ÙĨ ÛĮÚ©
Ú¯Ø° Ø§Ø±Ø§ÙĨ
ĠØ³ ÙĪÙĦ
Ø§Ùħ ÙĦÛĮ
ĠØªÙĨ ÙĩØ§ÛĮÛĮ
ĠÛ±Û¹Û´ Û°
ĠØ´Ùģ Ø§Ùģ
Ù¾ Ø§ÙĦ
Ø² Ø§ÛĮÛĮ
ĠØ± Ø¤
ĠÚ¯ Ø³Øª
ĠØ¯Ùĩ ÛĮ
ĠØªÙģ Ú©
ĠÙ¾Ø§Ø± ÚĨÙĩ
ĠÙħÙĪ Ø¶
ĠØªØ¬ Ø§ÙĪØ²
ĠÚ©Ø§ÙĦ Ø§
ĠØ§Ø´Ú© Ø§ÙĨÛĮØ§ÙĨ
" .
ĠÚ©Ø§Ø± Ú©ÙĨØ§ÙĨ
ĠØ² ÙĨÚ¯
ĠÚĨ Ùħ
ĠÙħØ¬ Ø±ÛĮ
ĠØ¹Ùħ ÙĪÙħ
Ø· ÙĦ
ĠÚ©Ø§Ø± Ú¯Ø±
ĠÙħÙĪ Ø´
ÙĪÙĩ Ø§ÙĨ
ĠÙĪØ§ÙĤØ¹ Ùĩ
Ø¨ ÙĪØ¯Ùĩ
Û¸Û ±
ĠÙĩÙĨØ¯ ÙĪØ³ØªØ§ÙĨ
Ø§Ø³ Ø±ÛĮ
ĠÙħØ¬Ø§Ø² Ø§Øª
Ø§Ùģ Ø²Ø§Ø±ÛĮ
Ø² Ø§Ø³
ØŃ ÙĤ
Ø²ÛĮ Ø³Øª
ĠØ²ÛĮØ¨ Ø§ÛĮ
ĠØ³ Ø§ÙĪØª
ĠÙħÛĮÙĦ Ø§ÙĨ
ĠÛ±Ûµ Û°
ĠØ´ÙĪ Ø§ÙĩØ¯
ĠØ§Ø¨Ø²Ø§Ø± ÙĩØ§ÛĮ
ĠÚ©ÙħØ±Ø¨ ÙĨØ¯
ĠØ¬ Ø§Ø±ÛĮ
ĠÙĤÙģÙĤ Ø§Ø²
ĠØ· Ø§ÙĤ
ĠÙĨØ³ Ø¨ÛĮ
ĠØªÙĩ Ø§Ø¬
Ø§ÚĨ ÛĮ
ĠÛ±Û¹Û¶ Û¹
ĠØ¨Ø§Ø²Ø± Ú¯Ø§ÙĨ
ĠÛ±Û¹Û¶ Û´
ĠÙģØ±Ú© Ø§ÙĨØ³
ĠÚ© ÛĮÙĩ
Ø¨Ø§Ø± Ø§ÙĨ
Ø§Ø¯Ùĩ Ø§
ĠØ¯Ø§ÙĨØ´ Ø¬ÙĪ
ĠØ¬Ø§Ø° Ø¨Ùĩ
Ø² Ø§Ø¨
ĠÙħÙĩØ§Ø¬ Ùħ
) :
ĠØªØŃ ÙħÙĦ
ĠÙĪÛĮØ± Ø§ÛĮØ´
Ø³ ÙĪØ³
ĠØ¢ÙĨ Ø²ÛĮÙħ
Ø§Ø¯ Ø§Øª
ĠØ´ ÛĮÚ©
a in
Ø§Ø· ÛĮ
Ø¢Ùħ ÙĪØ²
1 0
ĠØªÙĪØ§ÙĨ Ø³ØªÙĩ
Ù¾ Ø²Ø´Ú©
ĠÙħØ®Ø§ÙĦÙģ Ø§ÙĨ
Ø§Ø¨ Ø§Ø¯
ĠÙĦÛĮ Ø¨Ø±
ĠØŃ Ø¨ÛĮ
ĠØ¢ Ø¨Ø±
Ø´ÙĩØ± Ø³ØªØ§ÙĨ
ĠÙĩ Ø§ÙĦÛĮ
ou r
ĠØ¨Ø± Ùĩ
ÛĮÙĦ ÙĨØ¯
access ed
ĠØª Ø³ÙĦØ·
ĠÙħØ¹ Ø§ÙĨÛĮ
Ø·ÙĪØ± Ùĩ
ĠØªÙģ ÙĨÚ¯
ĠÙħØ±Øª Ø¶ÛĮ
ĠØ¨Ùĩ Ø´Øª
ĠÙħØ± Ø§Øª
ÙĪ ÙģØ±
ĠØ¢ ÚĺØ§ÙĨØ³
ĠØ¨ÙĦ Ø§Ùģ
ĠÙħØ® Ø§Ø¨Ø±
ĠÙħØ¨Ø§Ø± Ø²
ĠÚ¯ Ø§Ø±Ø¯
ĠÙħÙĩ Ø§Ø±
ĠÙĩ Ø§Ùħ
ĠØ§Øª ÙĪØ¨
ĠÛ±Û±Û °
ĠØ¢ÙģØª Ø§Ø¨
ĠØ§ÛĮ ÙĦØ§Ùħ
ÙĩØ± Ø§
ÙĪ ÛĮÚ©
ĠØ¹ Ø§ÙĦÙħ
Ø§Ø± ÙĩØ§
ÚĨ Ø§ÙĦ
Øµ ÙĦÛĮ
ĠÙĨÙĩØ§ Ø¯Ùĩ
ĠØ¨ ÙĪØª
Ø§Ùĩ ÙĪ
ĠØ¨Ø²Ø± Ú¯Ø±Ø§Ùĩ
ÙĪÛĮ Ø¬
ĠØ³Ø± ÙĪØ±
ÙĩØ§ÛĮ Ø´Ø§ÙĨ
ĠØ ¦
Ø§ÛĮ ÙĦÛĮ
t on
ĠÙĪÛĮØ±Ø¬ ÛĮÙĨÛĮ
Ùħ ÙĪØ±
ĠÙĦÙĩ Ø¬Ùĩ
ĠØ¯ Ú©ØªØ±ÛĮ
ĠØªØ¨ÙĦÛĮØº Ø§Øª
ĠÙħØŃ Ø±Ùħ
ĠØ¶ ÙĦØ¹
ĠØ¯Ø® Ø§ÙĦØª
Ø§Ø³ Ùĩ
ĠÛ±Û¹Û¶ Û·
ĠÙģ Ú©Ø±ÛĮ
ĠÙħØŃ Øª
ĠÙħÙĨØŃ ØµØ±
ĠÙĦ Ø¦ÙĪÙĨ
ĠÙĩÙĪØ´ ÙħÙĨØ¯
ĠÚ¯ÙĪÚ¯ ÙĦ
ĠØµ Ø®Ø±Ùĩ
ĠØ®ÙĦØ§ ÙģØª
ĠØ¯ Ø¨ÙĦÛĮ
Ø² ÙĪÙĨ
ĠØ¨Ø± Ø§ÙĨ
ĠØ§Ø³ ÙħÛĮØª
ĠÙħØ¹ Ø§ÙħÙĦÙĩ
ĠÚ© Ø¨ÛĮØ±
Ø§Ø³Øª Ø±
ĠÛ±Û¸Û ±Û
ĠØ³ ÙĨØ¯ÛĮ
ĠØ± ÙĨ
ĠÙħÙĨØ¸ Ùħ
ĠÙħÙĤ Ø¨Ø±Ùĩ
Ùħ ÙĪÙĦ
ĠÙĦØº Øª
ĠÙĨ ÙĪÛĮ
ĠØªÙĨ ÙĪØ¹
ĠØ¢ÙĪØ±Ø¯ ÙĨØ¯
ÛĮØª Ø§ÙĨ
ĠØ´Ùħ Ø´ÛĮØ±
ĠØ¬ÙĨÚ¯ ÙĨØ¯Ùĩ
ĠØ§ÙĨÛĮÙħ ÛĮØ´ÙĨ
ĠØ§Ø³ØªØŃ Ú©Ø§Ùħ
ĠØ³ÛĮØ§Ø³Øª ÙħØ¯Ø§Ø±
ĠØªØ± Ø§Ú©Ùħ
ĠÙħØ§ÙĩÛĮ ÚĨÙĩ
Ø¢ ÙħÙĪ
Ø§Ø´ ÙĨ
ĠØ²ÛĮ Ø§Ø±Øª
ĠÙħÙĨØµ ÙĪØ±
ĠÙħØ§ÛĮÚ©Ø±ÙĪ Ø³Ø§ÙģØª
ĠÚ©Ø´ ØªÙĨ
ÙĦ Ø¯
ĠÙħÙĤØ¯Ùħ Ø§ØªÛĮ
ĠØ¯ÙĪ Ø³ØªÛĮ
ĠØ´ Ø·Ø±
ĠØ¹ ÙĤÙĦ
ĠÙħØ¬ ÙĩØ²
ĠØ¨Ø§Ø² ØªØ§Ø¨
ÛĮÙĨÚ¯ ØªÙĪÙĨ
ĠØ Ľ
ĠØŃØ§ÙĦ ÛĮÚ©Ùĩ
ĠØªØ§Ø¬ÛĮÚ© Ø³ØªØ§ÙĨ
ÙĪÛĮ ÙĪ
< /
) "
ĠØ¹ÙĪØ§Ø± Ø¶
Ú¯Ø± Ø§ÛĮØ§ÙĨ
ĠÙħØ± Ø¯Ùĩ
r an
ĠØ³Ø±Ù¾Ø± Ø³ØªÛĮ
a h
Ø¯Ø± Ùĩ
ĠØ¨Ø±Ø³ Ø§ÙĨØ¯
ĠØ¹ÙħÙĦÛĮ Ø§ØªÛĮ
ÙĪ Ø§Ø¯
ĠÙ¾ ÙĪÙĦÛĮ
ĠØŃÚ© ÙĪÙħØªÛĮ
Ø§Ø±ÛĮ Ø§ÙĨ
ĠÙħØª Ø¯Ø§ÙĪÙĦ
ĠÚ©ÙĦ ÙħØ§Øª
ĠØ¨ Ø³ØªØ±
ĠÚ© ÙĪÙ¾
Ø¨ Ø§ÛĮÛĮ
ĠÚ¯ Ø±Ø¨Ùĩ
Ú© Ø±Ùĩ
ĠÛ¸Û ²
ĠØ§Ø³ØªØ§ÙĨ Ø¨ÙĪÙĦ
on g
ĠØ§Ø¨Ø¯ Ø§Ø¹
ØªÙĩ ÛĮ
ĠÙħÙģ Ø§ÙĩÛĮÙħ
Ù¾Ø°ÛĮ Ø±Ø¯
ĠÙĩÙħØ³ Ø§ÛĮÙĩ
ĠØ¹ ØµØ¨
ĠØ¨ ØªÙĪØ§ÙĨÙĨØ¯
Ù¾ ÛĮÙħ
ĠÙħÙĨØ· ÙĤÛĮ
now iki
ÙĪÚ© Ø§Ø±
ĠØµ ÙĪØªÛĮ
ÙĪØª Ø§ÛĮ
ĠØ¢ÛĮ ÙĪÙĪØ§
Ø±Ø¯ ÙĨ
ĠØ§Ø® Ø¨Ø§Ø±
ĠØªÙĪÙĦÛĮØ¯ Ú©ÙĨÙĨØ¯Ùĩ
ĠÙĪÛĮØ±Ø¬ÛĮÙĨÛĮ Ø§ÛĮ
ĠÚĨ ÙĦ
ĠØ¬ÙĪ Ø§ÙħØ¹
ĠØ±ÙĪÙħ Ø§ÙĨÛĮ
ĠÚ© ØªØ¨
ĠÙ¾Ø³ Ø±Ø§ÙĨ
ĠÚ©Ùĩ Ú©Ø´Ø§ÙĨ
Ø³Ø§ÙĨ Ø§ÙĨ
r o
Ù ī
ĠØŃØ³ ÛĮÙĨÛĮ
ĠÙħØ³ÛĮØŃÛĮ Ø§ÙĨ
t e
Ġ" "
Ø¶ ÙĦ
ĠØ³ÙĦ Ø§Ùħ
ĠØ´Ú© ÙĦÛĮ
ĠØ¨Ø± ÙĨØ¬
ĠØ¬ÙħÙĩ ÙĪØ±
ĠÙĨÚ¯ Ø§Ø±
ĠÙĨÛĮØ§Ø² ÙħÙĨØ¯
ĠÚ¯ÙĪÛĮ ÙĨØ¯
ĠØ´Ú©ÙĨ Ø¬Ùĩ
ĠÙĩ Ø§ÙĪ
Ø±ÙĪ Ø³
ĠÛµ Û´
ĠØ¬Ùħ Ø´ÛĮØ¯
ØªÙħ Ø¹
ĠØ± ÙģØ¹
ĠØ§Ø² Ø§ÛĮ
ĠØ¢ÙĨ Ú¯Ø§Ùĩ
ĠØ§Ø¬ Ø¨Ø§Ø±ÛĮ
ÙĨ Ø§ÛĮÛĮ
" Â»
u d
ĠÙĩÙĪ Ø§Ø¯
ĠÙģØ± Ø´
ĠØ²Ø® ÙħÛĮ
Ø§ÙĦ ÛĮÙĨ
n e
ĠØ³ Ø§Ø¹
ĠÙģØ±ÙħØ§ÙĨØ±ÙĪ Ø§ÛĮÛĮ
Ø± ÙĪÛĮÛĮ
ĠØ§Ø´ØªØ± Ø§Ú©
ĠÙĦ ÙĪØ±
ĠØ¯Ø³Øª Ú¯ÛĮØ±ÛĮ
ĠÙģØ±ÙĪØ´ Ú¯Ø§Ùĩ
Ø®Øª Ø±ÛĮ
ĠØª ÙĪÙĦ
ĠØ¯Ø±Ø¢Ùħ Ø¯Ùĩ
ÙĦ Ø§ÛĮ
ĠØ§Ø³ÙĦ ØŃÙĩ
ĠÚ© Ø§ÙħÛĮ
ĠØ¯Ùĩ Ø§ÙĨ
Û¶ Û·
ÙĩØ§ÛĮ ÙĪ
ĠÛ¹Û ·
ĠÚĨ ÙĨ
ĠØªØŃ ØµÛĮÙĦÛĮ
Ùħ Ú©
ĠØ®ÙĦ Ø¨Ø§ÙĨ
ĠÙĨ Úĺ
ĠÙħØŃØªÙĪ Ø§ÛĮ
Ø§ÙĨØ² Ø§Ø³
ĠÙħÙĩ ÙħØ§ÙĨ
ĠÙħØŃØ¨ÙĪØ¨ ÛĮØª
ĠØ§Ø °
Ø§Ùģ ÙĦ
ĠØ¯Ø´ ÙĪØ§Ø±
Ø§Ø³ ÙĪ
ĠÙ¾Ø§Ø¯Ø´Ø§Ùĩ Ø§ÙĨ
ĠØ§Ø³Øª Ø«
ĠÙĤ Ø§ÙĦÛĮ
ĠØ³ÙĪØ³ÛĮØ§ÙĦÛĮ Ø³ØªÛĮ
ĠØ± Ø§Ø²
ĠØ§ÙĨÙģ Ø¬Ø§Ø±
ĠÛ±Û¹Û´ Û²
ĠØ¢ÙĨØ¬ ÙĦØ³
ĠØ³ ÛĮØ§
ĠÙ¾Ø± ÙĪÛĮØ²
ĠØ³Ø§Ø² ÙħØ§ÙĨÛĮ
ØŃ Ùħ
ĠØ§ØŃ Ø²Ø§Ø¨
ĠÙ¾Ø§Ø±Ø§Ùħ ØªØ±
ĠØ¨Ø§ÙĦ Ø§Ø®
ĠØ¸Ø§Ùĩ Ø±Ø§
ĠÚ© ÙħØ§ÙĨ
ĠÙħ ÙĬ
ĠÛĮ ÙĪØªÛĮ
ĠØ° ÙĪØ¨
ĠÙħØ±Ø¬ Ø¹
ĠØªØŃ Ø±ÛĮÙħ
ĠÙĩÛĮ Ù¾
ĠØ³ÙĪØ± Ø§Ø®
ĠÙĨ Ø´ÙĪØ¯
ĠÛ´ Û²
ĠÛ±Û¹Û´ Û±
ĠØ¹Ø¯ Ø§ÙĦØª
ĠÙĦÙĪØ¦ ÛĮØ³
ØªØ± ÙĪ
ĠÙħØŃ Ø±ÙĪÙħ
ĠØ¶ Ø¹Ùģ
ĠÛ±Û° Û°Û°
ĠÙħØ¯ÛĮØ± Ø§ÙĨ
ĠÙĦØº ÙĪ
ec t
ĠÙ¾Ø±Ø³Ù¾ ÙĪÙĦÛĮØ³
ĠÙħÙĩØ± Ùĩ
ĠØ§Ø³ØªØ§Ø¯ Ø§ÙĨ
1 3
Ùģ Ø§Ø±
ĠØ¨Ø± ÙĪÚ©
ÛĮÙĦ Ùĩ
ĠØ¯Ø± ØŃ
ĠÙĨ Ø§ÙĨÙĪ
ĠÚĨØ§ÙĦ Ø´
ĠØªØ¹ ÙĤÛĮØ¨
ĠØ§Ø³ Ø·ÙĪØ±Ùĩ
ĠØªØ² Ø±ÛĮÙĤ
ĠØ³ Ø§Ø±ÛĮ
Ø¯Ùĩ ÙħÛĮÙĨ
ĠÙ¾ÛĮØ¯ Ø§ÛĮØ´
Ø§Ø¶ ÙĦ
ĠØ²ÛĮØ± Ø²ÙħÛĮÙĨ
ĠÙĪ ÙĦØ³
ĠÙħØ±Ø§Ú© Ø´
ĠÙĩÛĮØ¯Ø±ÙĪ ÚĺÙĨ
ĠØ¯ÛĮÙ¾ÙĦ ÙħØ§Øª
ĠØª ÙĪÛĮ
ĠØªØ± ÛĮÙĨ
ĠØªØ³ Ø®ÛĮØ±
ĠØ¢Ø« Ø§Ø±ÛĮ
ÛĮØª Ø³Ùĩ
Ø§ÙĦÛĮ Ùĩ
Û±Û¹Û ·
ĠØ§Ø±Ø¯ÙĪ Ú¯Ø§Ùĩ
ĠØ¨ Ú¯ÛĮØ±ÙĨØ¯
ĠÙ¾ÛĮØ± ÙĪÛĮ
ĠØ®Ø¨Ø± Ú¯Ø²Ø§Ø±ÛĮ
ĠØ± Ùģ
ĠØªØ¸ Ø§ÙĩØ±Ø§Øª
ĠØªØ± Ø§Ø´
ĠØ¢ÙĦ ÙĪØ¯Ú¯ÛĮ
ĠØ®ÙĦØ§Øµ Ùĩ
ĠØ´ ØªØ§Ø¨
ĠÙĤØ² Ø§ÙĤ
ĠØ§Ùħ Ø§ÙĨ
ØªÛĮ ÙĪ
ĠØ±ÙĪÙĨ ÙĤ
ÙĪ Ø¢
ĠÛ¸Û ¶
ÛĮÙħ Ùĩ
ĠÙħÙĪØ¬ÙĪØ¯ Ø§Øª
ĠØ¨ÙĪÛĮØ± Ø§ØŃÙħØ¯
ĠØ¨ÙĦØ§Ùģ Ø§ØµÙĦÙĩ
Ø¨Ø±Ø¯ Ø§Ø±
ĠÛ±Û³Û¸Û ·
Ø² ÙĦÛĮ
ĠØ§ÙĨ Ø¨Ø§Ø±
Ø³Ú© ÙĪÙ¾
ĠÙħØ§Øª Ø±ÛĮØ³
1 2
ĠÚ©Ø§Ø± Ø§ÛĮÛĮ
ĠØ¢ Ø¯Ø§Ùħ
ĠØ¶ Ø±ÛĮØ¨
ĠØ¯Ø³ØªÛĮ Ø§Ø¨ÛĮ
ĠÙħ ÙĨØ¯
ĠØ¨Ø± Ú©ÙĨ
ĠÙĨÚ¯Ùĩ Ø¨Ø§ÙĨ
ĠØ§Ø±ÙħÙĨÛĮ Ø§ÙĨ
Ú© ÙĪÙĦÛĮ
Ø§ÛĮ ÙĨØ¯
Û¶ Û´
ĠÙ¾Ø±Ùģ Ø±ÙĪØ´
ĠÙĪ Ø§ÛĮØª
ĠØ§ÛĮ Ø§ÙĦØªÛĮ
ĠØª Ú©Ùĩ
ĠÙ¾Ø§ÙĨ ØµØ¯
ĠØ³Ø± Ø§Ø³Ø±ÛĮ
ĠØ§Ø¨ Ø±ÛĮ
ĠÙģØ§Ø· ÙħÙĩ
ĠØ´Ø·Ø± ÙĨØ¬
ĠÚĨ ÙħÙĨ
ĠÛ±Û¹Û´ Û¸
ĠØ®Ø§Ú© Ø³ØªØ±ÛĮ
ĠØ²ÛĮØ± ÙħØ¬ÙħÙĪØ¹Ùĩ
ÙĪÛĮ ÚĺÙĩ
ĠÙĨÙģØ± Ùĩ
ĠÙħØªØ± Ø¬Ùħ
ĠÙħÙĨØ§Ø³ Ø¨ÛĮ
Ø±Ø³ Ø§ÙĨÛĮ
ĠØ´Ú© Ø³ØªÙĩ
ĠØ±ÙģØª ÙĨØ¯
Ú¯Ø°Ø§Ø± ÙĨØ¯
ĠÙģ ÙĩÙħ
ĠØ¨Ø± Ø´
Ø§Ø³ Ø§Ø²ÛĮ
ĠÙĩØ²Ø§Ø± Ø§ÙĨ
ant on
ÙĪØ³ Ùĩ
ĠÚ© Ø±Ú©
Ø§ÙĦ ÙĨ
ĠÛ¸Û ´
Ø§ÙĦØ¹ ÙħÙĦ
ĠØ· ÙĦØ¨
ĠØ³ÛĮ ØµØ¯
Ø²Ø± Ø¹Ùĩ
ĠØ§Ø´Øª ØºØ§ÙĦ
ĠØ¢ Ø±Ùħ
ĠØ® Ø²Ø±
ÙģØ± Ø³Øª
ĠÙģÛĮÙĦ ØªØ±
Ú©ÙĦ Ø§Ùĩ
ĠÚĨØ§Ø± ÚĨÙĪØ¨
ĠÙ¾ Ø§ÛĮÛĮ
ÛĮØ± Ø§ÙĨ
ĠØ±ÙĪÛĮÚ© Ø±Ø¯
ĠØ´ Ø§Ø¯
ÛĮØª ÙĪ
ĠÙĤØ· Ø§Ø±
ĠÙ¾ Øª
ĠØ¬ Ø§Ø¯
ĠØ² Ø±Ùĩ
ĠÙģØ± Ø§Ø²
ĠØ¯ÛĮ ÙĪØ§Ø±Ùĩ
ĠØªÙĦÙģ Ø¸
ĠØ¬ Ø±ÛĮ
ĠÙĨØ§ØµØ± Ø§ÙĦØ¯ÛĮÙĨ
Ġ x
ĠØªØ¹ ÙħÛĮØ±
ĠÙħÚ© ÙħÙĦ
ĠØ§ÙĪ ÙĩØ§ÛĮÙĪ
ÙĤØ± Ø§Ø±ÛĮ
ĠØ¬ÙĨÚ¯ ÙĦÛĮ
ĠØ´Ø¨ Ø§ÙĨÙĩ
Ø´ ÙĪØ±
Ø® Ø§ÙĨÛĮ
ĠÙħØ´ÙĩÙĪØ± ØªØ±ÛĮÙĨ
s e
ĠÙ¾ÛĮÚ© Ø±
at e
ÙĨ ÙħØ§
Ø¯ Ø´Øª
ĠÙħØŃÙĤ ÙĤØ§ÙĨ
Ø¯Ùĩ Ø³ØªØ§ÙĨ
ĠÛ±Û¸Û ³Û
ĠØ§ÙĨØªÙĤ Ø§Ùħ
ĠØ³ ØŃ
ĠÙħØ¬ ØªÙħØ¹
ĠÙĦ Ø¨Ùĩ
ĠØ¯ Ø¨ÛĮ
Ø§ÙĨÚ© Ø§
ĠÙħØª ÙħØ§ÛĮ
ĠØ§ÛĮÙĨØ¯ÛĮ Ø§ÙĨØ§
ÙĪØ³ Ø§
ĠØ´Ø§ÛĮ Ø¹
Ø¯ ÙĪÙĨ
ĠØ±ÙĪ Ø´ÛĮ
ĠØ¯Ùĩ Ø³ØªØ§ÙĨÛĮ
Ø® Ø¯Ø§
ĠØ¨ Ú©
ĠØ§ ÙĪØ±Ø´
ĠÙĤ Ø§Ø³Ùħ
ÙĪÙħ ØªØ±
ĠÚ¯ÛĮ Ø±ÛĮ
ĠÙĪØŃ Ø¯Øª
ĠÙģØ±Ø§ÛĮ ÙĨØ¯ÙĩØ§ÛĮ
ĠØ§Ø² Ø¨Ú©
ÙĪØ¬ Ø±Ø³ÛĮ
ĠØ§Ø³Øª Ø§Ø¯ÛĮ
ĠØ³ Ø§ÙĪ
ĠØ¢ Ø±ÛĮØ²
Ùħ Ø´
ĠÙħÛĮ Ø´ÛĮ
Ø¢Ø¨ Ø§Ø¯ÛĮ
ĠØ¨Ø±Ú¯ Ø²
ĠÙħØµ Ø§ÙĦØŃ
ĠØ¢ÙģØ±ÛĮÙĤ Ø§ÛĮÛĮ
ĠØ§ÙĪØ± Ø§ÙĤ
ĠÙħÙĨØ´ Ø£
ĠÙħ Ø±ÛĮÙħ
ĠÚ©Ø§Ø± Ø¨Ø±ÛĮ
Ø§ÙĦÙħÙĦ Ú©
ĠØµÙģ ØŃØ§Øª
ĠØ®Ø¯ Ø§ÛĮØ§ÙĨ
ĠØ§Ø¦ ØªÙĦ
Ġ Q
ĠØ´Ùħ Ø³
ĠØ±Ø§Ø³Øª Ø§ÛĮ
ĠÙħÙĨ ØªÙĩÛĮ
ĠØ§ÙĨØ¯ Ø§Ø²ÛĮ
ĠØ¢ Ø²Ø§Ø±
ÙĤÙĦ Ø¹Ùĩ
ĠØ® ÙĨÚ©
ĠØ¨Ø§Ø² Ø§Ø±ÛĮ
ĠÙĨØ§Ø¨ ÙĪØ¯ÛĮ
ĠÛ¸Û ·
ĠÙģØ± Ø³
ĠØ§ÙĤ ØªØ¨
ĠØ§Ø¯Ø¹ Ø§ÛĮ
ĠØ§Ø¹ØªØ±Ø§Ø¶ Ø§Øª
Ø³ ÙĨØ¬ÛĮ
ĠØ¨Ø¹ ÙĨÙĪØ§ÙĨ
ĠØ±Ø³ Ùħ
ĠÙ¾ Ø§Ø±Ùĩ
ÙĨ Ø¹
Ø³ Ø§ÙĦÙĩ
ĠØª Ø§ÙĨÚ©
ĠØ¨ÙĦ Ú©
ĠÛĮÙĩ ÙĪØ¯
ĠÙĩ Ø§Ø¯ÛĮ
ĠØ±ÙĪØ² Ùĩ
ĠØ¬ÙĪØ±Ø¬ ÛĮØ§
ĠÙħØ¹Ùħ Ø§Ø±
ĠØ¹Ø±Ø§ÙĤ ÛĮ
ĠÙħØ¯ Ø§Ø±Ú©
ĠÙģØ±Ø§ÙĨ Ø³
in a
p r
ĠÚ©ÙĪÙĩ ÛĮ
ĠÛ±Û¹Û¶ Û³
ĠØ± ÛĮÚ©
ĠØ§Ø´ Ø®Ø§Øµ
ĠØ³ÙĪ Ø§ØŃÙĦ
as t
ĠØ±Ø¹ Ø§ÛĮØª
ĠÚ© ÛĮØ´
ĠÙģÛĮÙĦÙħ Ø¨Ø±Ø¯Ø§Ø±ÛĮ
ĠÛ¹Û ´
ÙĪØ± Ø¯Ùĩ
ÛĮØ³ Ùħ
ĠÙĨØ¯Ø§Ø´Øª ÙĨØ¯
Ø§ ÙĪÙĨØª
ĠÙ¾ Ø§ÙĨØ²Ø¯Ùĩ
ĠÙħØ¨ Ø§ØŃ
ĠÙ¾Ø±ÙĪ Ùģ
ĠÙĩÙħØ§Ùĩ ÙĨÚ¯
ĠÙĤ Ø§ÛĮÙĤ
ĠØŃ Ø¨Ø³
Ø§ÚĨ ÙĪØ³Øª
Ù¾ Ø´Øª
ĠÙ¾ ØªØ§ÙĨ
ĠÙħØŃ Ø¶
ĠØ¯ÙĤÛĮÙĤ Ø§
ĠÙĨÛĮ ÙĪØ¬Ø±Ø³ÛĮ
ĠÙĨÙĪØ² Ø§Ø¯
ĠÙ¾ ÙħÙ¾
Ø§ÛĮØ´ Ú¯Ø§Ùĩ
ĠÙĪÛĮØ± Ø§ÙĨ
ĠÙħØ§Ø¯ Ø±ÛĮØ¯
ĠØŃØ§Ú© ÙħÛĮØª
ĠØªØŃ ÙĤ
ĠØ² Ø§ÛĮ
ĠØ«Ø±ÙĪ Øª
ĠØ¨Ø± Ø§ÙĪÙĨ
ĠØ¨ÙĨØ§ ÙĩØ§ÛĮ
ĠØ¯ Ø®ØªØ±ÛĮ
ĠÚ© Ø§ÙĪ
ĠÙĨÙħØ§ÛĮØ´ ÛĮ
ĠÙĪ ÙĪØ¯
ĠØ´Ø§Ùĩ ÙĨØ§ÙħÙĩ
ÙĤØ§ÙĨ ÙĪÙĨÛĮ
ĠÛ±Û³Û¸Û ¶
ĠÙĤ Ø§Ø¹Ø¯Ùĩ
ĠÙħØ¯Ø± Ø³
ĠÙ¾ÛĮ Ø§ÙĨÙĪ
ĠØªØ§Ø¨ Ø´
Ú¯Ø± Ø§ÙģÛĮ
ĠØª Ø§Øª
ĠÙ¾ ÙĩÙĨ
ĠÚ©Ø´ ÛĮØ¯ÙĨ
ĠØªÙĪÙħ Ø§ÙĨ
ĠØµ Ø§ÙĦØŃ
ĠÙħÙĦ Ø§ØŃ
Ġ[ [
ĠØª ÙĪØ±ÛĮ
ĠØ¬ Ø§ÙĦØ¨
ĠØµØ¯ ÙĪØ±
er n
ĠØ¢Ùħ ÛĮ
ĠØ¢ÙħØ¯ ÙĨØ¯
ĠÚ©ÙĦÛĮ Ø¯ÛĮ
Ġ 7
Ø§ÙģØ²Ø§Ø± ÙĩØ§ÛĮ
ĠØ¢ÙĦÛĮ Ø§Úĺ
ĠØ¹ÙĦÙħÛĮ Ùĩ
ĠÚ©ÙĪØ± ÙĪØ´
ĠÙħ ÙĦØ§
ĠØªÙĦ ÙĤÛĮ
ĠÛ±Û¹Û¶ Û¶
ĠØ®Ø·Ø± ÙĨØ§Ú©
ĠÙħÛĮØ´ÛĮ Ú¯Ø§ÙĨ
ÙģØ± ÛĮÙĨÛĮ
ĠÛĮ Ø§ÙĨ
ĠÛ±Û¹Û¶ Û²
ĠØ³ØªØ§Ø± Ú¯Ø§ÙĨ
Øº Ø§ÙĦÛĮ
ĠØ³ÙĨ Ø§ÛĮ
ĠØº Ø§ÙĦØ¨
ĠÙĪÛĮØª ÙĨØ§Ùħ
ĠØ¢ Ø³ØªØ§ÙĨÙĩ
ĠÙħÙĤØ¯ ÙħÙĩ
ĠØŃØ±Ú© Ø§Øª
ĠØ§ØµÙģÙĩ Ø§ÙĨÛĮ
ĠØ§ ÙĪØ¯
ĠØª Ø§Ø¨ÙĦ
ĠÙħØ§Ø³ Ø§ÚĨÙĪØ³Øª
ĠØ§Ø®ØªØµØ§Øµ ÛĮ
ĠÙĦ ÙĪØ¨
ĠÙħÙĨ ÚĨØ³ØªØ±
ĠØ· ÙĨØ²
ĠÙħÛĮ Ú©
ĠÛ³Û ¸
ÙĦ ÙĨØ¯ÛĮ
ĠÙĨ Ø§Ùĩ
ĠØ³Ø± ÙĪØ¯
ĠØ¬ÙħØ¹ÛĮØª ÛĮ
ĠÙ¾Ø±Ø¯Ø§Ø² ÙĨØ¯Ùĩ
ĠØ®Ø§Øµ ÛĮØª
ĠØªÛĮ Ù¾
ĠÙĩÙħØ§Ùĩ ÙĨÚ¯ÛĮ
ĠØ¯ Ø¨
ĠØ§Ø³Øª ÙĪÙĨ
ĠØ§Ø¹ Ø²Ø§Ùħ
ÙĤ Ø¯
ĠØ³Ø± Øª
ĠÙĪ Ø§Ø¬
Ġ 9
ĠÙħØŃ Ø±Ú©
ĠÙĩØ± Ú¯ÙĪÙĨÙĩ
ĠÙħØ¬ Ø§ÙĪØ±
ĠØ§ÙĪØ±Ø´ ÙĦÛĮÙħ
ĠØ¢ Ø±ÛĮ
ĠÙħÙĤ Ø¯Ø§Ø±ÛĮ
Ø¢ÙĪØ± ÙĨØ¯
Ø§ÙĦ Ø³
ĠØ§Ø¬ Ø²Ø§ÛĮ
ĠÙģ Øª
ÙĪÚ¯Ø± Ø§ÙģÛĮ
Ø¶ Ø§Ø¹
ÙĪÚ© Ø±
ĠÙħÙĪ Ø§Ø²ÛĮ
en d
ĠØ¨Ø§Ø± ÛĮÚ©
ĠØ³ÛĮÙħ Ø§
Ùħ ÛĮÚ©
ĠØ´ÙĨ Ø§Ú¯Ø±
ĠĠ ĠĠ
ĠÙĩÙĪØ§Ø¯ Ø§Ø±Ø§ÙĨ
ĠÙħØ§Ø±ÛĮ Ø§
Ø¨ Ø§Ø®
ĠÚ©Ø§Ø± Ú¯Ø§Ùĩ
ow n
ĠÚ¯Ø± ÙħØ§
Ûµ Û·
ÙĦÛĮ Ø§
Ø§Ø¨ Ø§ÙĨÛĮ
ĠØ¢ Ø¦
ĠØ¨Ø§Ø²ÙĨØ´ Ø³ØªÙĩ
Ú© ØªÙĪØ±
ĠÚĺ Ø±Ùģ
ĠØªØ¬ ÙħØ¹
ĠØ¬ ÙĨÛĮÙĨ
ĠØ±ÛĮ Ø®ØªÙĩ
ĠØ´ÙĪØ± Ø´ÛĮ
ĠØ³ ÙħÛĮ
ĠØ§Ø¬ØªÙħ Ø§Ø¹
Û±Û¹Û ¶
Ø§ÙĦØ¹ Ø§Ø¯Ùĩ
Ú©Ø±Ø¯ ÙĨ
Ø± Ø®
Ø¹ Ø¯Ùĩ
Ø³Øª ÙĨ
ĠØªØ¨ Ø§Ø±
ĠÙĨÙģ Ø³
ĠØ¨Ø± Ùģ
ĠÛ±Û² Û°
ĠÚĺÙĨØª ÛĮÚ©ÛĮ
ĠØ¨Ùĩ Ø¯Ø§Ø´ØªÛĮ
ĠÙĪØ¨ Ú¯Ø§Ùĩ
ĠØ¢Ø±ÛĮØ² ÙĪÙĨØ§
ĠØªÛĮÙħ ÛĮ
ĠØ¬ÙĦ ÙĪÙĩ
ĠÙ¾Ø±Ø¯Ø§Ø®Øª ÙĨØ¯
Ù¾ ÙĪØ³Øª
ĠØ¹ÙĦÛĮ Ø±Ø¶Ø§
ÙĪØ¦ ÛĮØ¯
ĠÙĩ Ø§ÛĮØ¯
ĠÙģÛĮÙĦÙħ ÙĨØ§ÙħÙĩ
ĠØ§ÙĨÚ¯ ÛĮØ²Ùĩ
ĠØ¬Ø²Ø¦ÛĮ Ø§Øª
ĠØ¯Ø§Ø¦ ÙħÛĮ
Ø±Ø¨ Ø²Ø±Ú¯
ĠÛ±Û¹Û¶ Ûµ
ĠÙĨÙĪØ¬ÙĪØ§ÙĨ Ø§ÙĨ
Ø¢ÙĪØ± Ø¯Ùĩ
ĠâĢ Ķ
ĠÙħØŃØ§Ø³Ø¨ Ø§Øª
ĠÙĨ Ø²
Ø±ÙĪ ØŃ
i re
Ûµ Û¶
ĠØ¬Ø§ÙĨ ÙĪØ±
ĠØªØ¹ Ø§ÙħÙĦ
Ø¨ ÙĪØª
ĠÙĤØ¨ Ø§ÛĮÙĦ
Ø§Ùħ ÛĮØ¯
ĠÛ¶ Û·
ĠØ§Ø± Ø§Ø¶ÛĮ
ĠÛ²Û°Û ²
ĠÙħÙĨØª Ø¸
ĠØ´Ø§Ø± ÙĦ
ĠØªØ±Ø¬ÛĮ ØŃ
Ùĩ Ø±ÛĮ
ĠØ§ÙĦ Ø¯
ĠØ§ Úĺ
ĠÚ¯Ø± ÙħÛĮ
ĠÙħØ±Ø§Ø¬ Ø¹Ùĩ
ÛĮØ´ ÛĮ
ĠØ§ÛĮ ÙħØ§ÙĨ
ĠØ§ÙĦ Ú¯ÙĪÛĮ
ĠÙħØªÙħØ§ÛĮ Ø²
ic h
ĠÙģ Ø§ÛĮ
ĠÙ¾Ø´ ØªÛĮ
ĠÙĪÛĮØ¯ Ø¦ÙĪ
ĠØ§Ø³Øª ÙĤØ±Ø§Ø±
Ø¬ ÙĪÛĮÛĮ
ĠÙħØ¹ ÙĨØ§
ĠØ§Ø« Ø±ÛĮ
ĠÙħÙĪØªÙĪØ± ÙĩØ§ÛĮ
ĠØ¯ Ø§ÙĨÛĮ
ig ht
ĠØ§Ø¹ Ùħ
ĠÚ©Ø§ÙĨ Ø²Ø§Ø³
ĠØ§Ùģ Ø³Ø±
ÙĪ Ø¬ÙĪØ¯
ĠÙĪ Ø§Ù¾
ĠØ¢ Ø¬Ø±
ĠÛĮÚ©Ù¾Ø§Ø± ÚĨÙĩ
ĠÙĪÙĦØ³ ÙĪØ§ÙĦÛĮ
ĠØŃ Ø§ÙħÙĦ
Ø¨Ø±ÛĮ Ø¬
ĠÛ´ Û¸
ĠØ¹ Ø¸
ĠØ¢ÙĨ Ø¬Ø§ÛĮÛĮ
ĠØ¬ÙĪ Ø§Ø¯
ĠØ±Ø³ÛĮØ¯ Ú¯ÛĮ
ĠÙ¾ØªØ§ÙĨ Ø³ÛĮÙĦ
Ø¯Ùĩ Ø§ÙĨÙĩ
Ø§Øª Ø³
ĠÚ©Ø§Ø¨ ÛĮÙĨÙĩ
ĠØ´Ø§Ùĩ ÛĮÙĨ
ĠØ¢ Ø±Ø²
ĠØ§ÙĪ Ø¶Ø§Ø¹
ÙĦ ÛĮÚ©
ĠÚ©ÙĨØ¯ ÛĮ
ĠØ®Ø§Ùħ ÙĨÙĩ
ĠØ¢Ø¯Ø± Ø³
ĠÛ±Û¹Ûµ Û¶
Ø±Ø§ÙĨ Ø¯
ĠØªÙĪØ§ÙĨØ³Øª ÙĨØ¯
ĠÙĤØ±Ø§Ø±Ø¯ Ø§Ø¯ÛĮ
ĠØ§ Ù¾ÙĦ
ÙĪÙĦ ÙĨ
ĠØ±Ø§Ùĩ ÙĨÙħØ§ÛĮÛĮ
ĠØºÛĮØ± ÙĤØ§ÙĨÙĪÙĨÛĮ
on t
ĠØ®ÙĪØ¯ Ø±ÙĪÛĮÛĮ
ĠØ¨Ø¯ ÙĦ
Ø® ÙĪØ¯
ĠØ´ ÙĨÛĮ
ÙģÛĮ ÙĤ
ĠØµØ±Ùģ Ø§
ĠÙĪÛĮÚ©ØªÙĪØ± ÛĮØ§
ØªØ± Ùĩ
ĠÙħØ¹ Ø§ÙĪÙĨØª
ĠØ§ÙĦ ÛĮØ²
ĠØ²Ø± ÛĮÙĨ
Ø³Øª ÛĮÙĨ
Ø¶ Øª
ÙĪÙħ ÛĮØª
ĠØ°Ùĩ ÙĨÛĮ
Ø³ÛĮ Ø§ÙĨ
ĠÛ±Û³Û¸Û ´
ĠÙĨØ§Ù¾ ÙĦ
Ø¨ Ø¯ÛĮ
ĠØªÙĪ Ø§ÙĦÛĮ
ĠÛ±Û¹Ûµ Û¸
Úĺ Ø§ÙĨ
Ø§Ø±Ø¯ ÛĮ
ĠÙħØ¬ Ø§ÙĩØ¯
ĠØ £
ar y
2 0
ĠÙģÙĦØ² Ø§Øª
ĠØª ÙĨÛĮØ³
ĠØ±Ø² ÙħÛĮ
) )
ĠØŃ Ø±Ùħ
ĠÙĨÙĪØ± ÙĪØ²
Ùħ Ø±Ùĩ
ĠØ¨Ø± ÙĤØ±Ø§Ø±ÛĮ
ĠÛĮÙĪÙĨ Ø³Ú©ÙĪ
ĠÙĪ ØµÙĦ
ĠÚ© ÙĪÛĮØª
ĠØ³Ù¾ Ø±ÛĮ
ĠØ§Ø¶ Ø§ÙģÛĮ
Ø¨Ø§ÛĮ Ø³Øª
ĠØ§Ø³Øª ÙĪÙĨÛĮ
ĠÙ¾ ÙĪØ³ØªÙĩ
ÙħÙĦ Ú©
ĠÙħØ· Ø¨ÙĪ
ĠÙĩÛĮØª ÙĦØ±
ĠØ¯ÙĪ Ø´
ÙĪØª ÛĮÚ©
Ø§Ù¾ ÛĮ
ĠÙħØ§ÙĦ Ø²ÛĮ
ĠØ§Ø± ÛĮÚ©
ĠÛ±Û¹Û±Û ¸
ĠÙħÙĨ Ø§ÙģØ¹
ĠØ¯ ÛĮÙħ
e p
Ú¯ Ø²Ø§Ø±
Ø®ÙĪ Ø§ÙĩÛĮ
ĠØ²Ø§Ø¯ Ú¯Ø§Ùĩ
ĠØ³ÙĪØ¦ Ø¯ÛĮ
ĠØ§Ùģ Ú©Ø§Ø±
ĠÛ¶ Û¶
Ġ 8
ĠØ¨ ØªÙĪØ§ÙĨ
ĠØ³ ÙĪÙ¾
ĠØ¨ÙĦ ÙĪØ±
ĠØ§Ø±Ø¯ ÙĨ
ÚĨ Ø³Ø¨
ĠÙħÛĮØ² ÙĪØ±ÛĮ
ĠÙĩÙħ Øª
ĠØ§ÙĨØªØ®Ø§Ø¨ Ø§ØªÛĮ
Ûµ Û´
ĠÙħÙĩØ§Ø¬ Ø±
ĠØ¯Ø±ÙĪ Øº
ĠØ¹Ùħ Ø§Ø±Øª
ĠØ§Ùģ Ø´Ø§Ø±
I I
ĠÚ¯ ÙħØ§ÙĨ
ÙĨØª ÙĪ
ĠÙħÛĮ Ø¨Ø§Ø´Ø¯
ĠÙħ ÙĪÙĨÛĮ
ĠÙĩ ÙĪÛĮ
ĠÚ¯ Ø´
ĠØ¯ÙħÙĪÚ©Ø±Ø§Øª ÛĮÚ©
Ø§ÛĮ Ø³
ĠØ¨Ø§ÙĦ Ùĩ
ĠÚ©ÙĨØª Ø§Ú©ÛĮ
ĠØ´ Ø±Ú©
ĠØ³Ø§Ø®Øª Ø§Ø±ÛĮ
ĠØªØ¹ ÙĦÛĮÙħ
ĠÙħ Ø²Ø±Ø¹Ùĩ
ĠØ§Ø³ Ø§Ø·
Ú© ÙĪØ¨
Ú¯Ø° Ø´Øª
ĠØ§Ø¨Ø± Ø§Ø²
Ùģ ÙĪÙĦ
ĠÚĨ Ø±Ø¨ÛĮ
ĠØ®ØµÙĪØµÛĮ Ø§Øª
ĠÙĪ Ø§ÙĦØ¯ÛĮÙĨ
ĠØªÙģ Ú©Ø±
ĠØª Ø§Ø²
ĠÚ©Ø§Ø±Ø¢ ÙģØ±ÛĮÙĨ
ĠØ¢ÙħÙĪ Ø®Øª
ĠÙĨÚ¯Ø± Ø§ÙĨÛĮ
ØªØ± Ø§
ĠÙģØ±ÙħØ§ÙĨ Ø¯Ø§Ø±
ĠØ§Ø´ÛĮ Ø§Ø¡
ĠÙĨÛĮØ§Ø² ÙĩØ§ÛĮ
à ¤
Ø³Ú© Ø§
ĠÙĪØ³ Ø·ÛĮ
ĠØ¹ÙĤ Ø§ÛĮØ¯
ï º
ĠØ§Ø± Ø¬
ÙħÙĨ Ø§ÙĨ
i z
Ġ Ø§ÙĨÛĮ
ĠÙħØ³ Ø§Ùģ
ĠÛĮ Ø§Ø²Ø¯ÙĩÙħ
ĠÙĪÛĮØ³ Ú©Ø§ÙĨ
u p
ĠÙħÙĪÙĤ Ø¹
ĠÙħØ¹ ÙĨÙĪÛĮ
Ú© Ø¯Ùĩ
ĠØ¨Ø²Ø±Ú¯ Ø³Ø§ÙĦ
ĠÙĦ Ø§Ùħ
ĠØ·Ø¨ Ø§Ø·
Û±Û³Û ¹Û
ĠØ¬Ø° Ø§Ø¨
ÙĨ ÙĪØ±
ĠØ¢ ÛĮÙĩ
ĠØ¨Ùĩ Ø§Ø¦ÛĮ
ĠÚ©ÙĦ ÛĮÙĨ
ÙĨØ´ Ø§ÙĩÛĮ
Ø§Ø³Øª ÙģØ§Ø¯Ùĩ
ĠC anton
ĠÚĨØ± Ø§Øº
ÛĮ ÙĪÙĨ
ĠØ±ÙĪ Ø¨
Ù¾ Ø§ÙĨ
ĠØ³Ø± ÙĨÙĪØ´Øª
ĠØ§ÙĨØ¯ Ú©
ĠØªÙģÚ© ÛĮÚ©
ĠÙħ Ø§Ø¯ÛĮ
ĠØ¢Ø± ØªÙĪØ±
Ø§Øª ØŃ
ĠØ¢ÙĨ Ø§Øª
ĠØ§Ø±ØªÙģØ§Ø¹ Ø§Øª
ĠØ§ØŃØªÙħ Ø§ÙĦÛĮ
ĠØ®ÙĪØ§Ùĩ Ø§ÙĨ
ĠØ¹Ø² ÛĮØ²
ĠØ¢ ØªÙĨ
Ø¨ ÙĪØ±Ø¯
ĠÛ±Û¹Û¶ Û±
ĠÚ©ÙĪØ§ÙĨØª ÙĪÙħÛĮ
g e
ĠÚ© Ø§Ø´ÛĮ
ĠØ§Ú© Ø´ÙĨ
ĠØªÙĤ ÙĦÛĮØ¯
ĠÙģ ÙĤÛĮÙĩ
ĠØ§ÙģØ² ÙĪØ¯
ØŃÛĮ ÛĮ
ĠÚ© Ø±Ø§ÙĨÙĩ
ĠØªØ£Ø«ÛĮØ± Ú¯Ø°Ø§Ø±
ÙĦ ÙĨ
ĠØ¨ Ø®ØµÙĪØµ
ĠÙĤ ÙĦÛĮ
ĠØ¯ÙĪ Ø¨
ĠÙĪÛĮØ³Ú©Ø§ÙĨ Ø³ÛĮÙĨ
Ø³Ø§Ø² ÙĨØ¯
ĠØªÙĪ ÙĤÙģ
Ø§Ú© Ùĩ
ĠØ®Ø· Ø§Ø¨
ĠÚ¯ÙĪØ´ ÛĮ
ĠØº Ø´
ĠØ¢ÙĦÙĪÙħ ÛĮÙĨÛĮ
Ø¯ Ø®
ĠÙ¾ Ø±Ú©
ĠÙħØ·Ø¨ÙĪ Ø¹Ø§Øª
Ø§ÙĦ Ùģ
ĠØ±ÙĪ Ø§ÛĮØ§Øª
ÙĨ Ø§ØŃÛĮÙĩ
Ø§Ø±Ø¯ ÙĪ
ĠØ³Ø§Ùħ Ø§ÙĨ
ĠØª Ø«
Ø³ ÙĦÛĮ
ĠØ´ ÛĮÙĨ
ĠÙĦÛĮ ÙĪØ±
ĠØ§Ùħ Ø±ÛĮÚ©
ĠØ§Ø³ØªÛĮ ÙĪÙĨ
Ø§Ùĩ Ø±Ùĩ
ĠÙĦ ÙĪØ¯
ĠØ·ÙĦ Ø§ÛĮ
ĠÙĨÙħØ§ÛĮ Ø§ÙĨ
Ø¬ÙĪ Ø§ÙĨÛĮ
ĠØ¢ Ø®
ĠØ§ÛĮØ± ÙĪØ§ÙĨ
ĠÙĨ ÛĮÙħÛĮ
ĠÙĤ ÙĨØ¯
ĠØ§Ø± Ø§Ú©
ĠØ§Ú© ØªØ´
ĠÙĨØ® ÙĦ
ĠØ±ÛĮ ÙĪ
Ø§Ø¯ Ø´
ĠÙģ Ø¬Ø±
ĠÙ¾Ø± Ùĩ
ĠÚ¯Ø±Ø¯ Ø¢ÙĪØ±ÛĮ
ĠØ´Ø§Ùĩ ÙĨØ´Ø§ÙĩÛĮ
ĠÛĮ ÙĪÚ¯
ØªÙĪ Ø§ÙĨÛĮÙħ
Ú¯ ÙĪÙĨÛĮ
ĠØ´ Ú©Ø±
ĠØ®ÙĪØ§ÙĨ ÙĨØ¯Ú¯Ø§ÙĨ
ĠØ¨Ø±Ø¯ ÙĨØ¯
ĠØ´ ÛĮÙħ
ĠØ· Ø¨Ø±
ĠØ¨Ø§Ø± Ø³ÙĦ
ĠØªÙĦÙģ Ø§Øª
ĠØ¨Ø§ÛĮØ± ÙĨ
ĠØ§Ùħ ÙĪØ§ÙĦ
ĠØ´Ø§Ùĩ Ø§ÙĨ
Ø²ÙĨ ÙĨØ¯
ĠØµØ±Ø¨ Ø³ØªØ§ÙĨ
Ú© ÙĪÙĨ
ĠÙĩ Ø´Ø¯
Ù¾ ÛĮÙĨ
ĠÙĨÙĩ Ø¶Øª
ĠÙ¾ÛĮÙĪØ³Øª ÙĨ
ĠØ® Ø±Ø³
ĠÚ¯ÙĨ Ø§Ùĩ
ĠÙĤ Ø§Ø¦Ùħ
ĠÛĮ Ø§Ø³
ĠØ´Ø§ Ú¯Ø±Ø¯
ĠØ¢ÙĨ ÙĦØ§ÛĮÙĨ
ĠÙħØ¹ Ú©ÙĪØ³
ĠÙĪ Ùĩ
ĠØ® Ø³
ĠÙ¾ÚĺÙĪÙĩØ´ Ú¯Ø±Ø§ÙĨ
ĠØ¨ ÙħØ§ÙĨØ¯
ĠÛµ Û²
ĠØ´ÙĨ Ø¨Ùĩ
ÙĦØ§ ÙĪÛĮ
ĠÛ±Û¹Û³Û ¹
ĠØ§ØªÙĪØ¨ ÙĪØ³
u c
ĠØŃ ÙģØ±Ùĩ
ĠØ¨ ÙĪÙĨ
Ùģ Ú©
ĠØª Ø³Ùĩ
ĠØ±ÙĪ Ø¯Ùĩ
ĠÙĨØ§Ùħ ÛĮØ¯
Ø§Ú© ÙħÙĩ
ĠØ¯ Ø§Ú¯
ĠÙħØ§Ø¯ Ø±ÛĮ
Ø± Ø³Ø§ÙĨ
ĠØ®ÙĪØ¯Ùħ Ø®Øª
ĠØªØ§Ø± ÛĮÚ©
ĠØ³ Ú©ÙĨÙĩ
ĠÙĨ ÙĪÙĩ
Ù¾ Ø¯
ĠØ¨Ø± Ù¾Ø§
ĠÙģÛĮ Ø¨Ø±
Ø§Ùģ ÛĮÚ©
ĠØ§ÙĨØ¨ ÙĪÙĩ
ĠÙģØ± Ø¹ÛĮ
ĠØ± ÛĮØª
ĠØªØ® ÙĦÛĮÙĩ
ĠÙĪØŃ Ø´Øª
ÚĨ ÙĪÙĨ
Ùħ ÙĪØª
ĠØ¯Ø± Ø¨
ĠÚĨÙĩØ§Ø± ØµØ¯
ĠÚ¯ Ø§Ø²ÛĮ
ĠÛĮÚ© ÙħÛĮÙĨ
ĠØ¬ Øº
ÙĤ Ø§Ø³Ùħ
Ø§Ø¨ ØªÛĮ
Ġ '
ĠØ±Ø§ÛĮ Ú¯Ø§ÙĨ
ĠØ¯Ø± Ø³ØªÛĮ
ĠØª Ø§ÙĨ
ĠÙħØ¬ ÛĮØ¯
ĠÛ²Ûµ Û°
ĠØ§Ø³ØªÙĪØ¯ÛĮ ÙĪ
ĠÙħØ§Ùĩ ÛĮØª
ĠÙħØ´ØªØ±ÛĮ Ø§ÙĨ
Ù¾ÛĮ ÙĪÙĨØ¯
Â Ń
ĠØ¨ ÙĪÙħ
ĠØ¨ Ø§Ø¯ÛĮ
ĠÙħÙĪ Ø§ÙĤØ¹
ĠÚ©Ø§Ø± Ø´ÙĨØ§Ø³Ø§ÙĨ
ĠØ´ÙĨ Ø§Ø®ØªÛĮ
ĠØ®ÙĪØ´ Ùĩ
ĠÙħØ¹ ØªØ±
ĠØ§Ø±ÙĪÙ¾ Ø§ÛĮ
Ø¯ ÙĪØ±
ĠØ´ Ú¯ÙģØª
ĠÚ¯ Ø´ØªÙĩ
ÙĪØ´ ÛĮÙħÛĮ
ĠÙ¾Ø§ÛĮ Ø¯Ø§Ø±ÛĮ
ĠØ«Ø±ÙĪ ØªÙħÙĨØ¯
Ùĩ Ø²Ø§Ø±
ĠØ¢Ùħ Ø§Ø±ÛĮ
ĠØ§ÙĦ Ø¨Ø±Ø²
ĠØ´ ÛĮÙĦ
ĠØ®Ø´Ú© ÛĮ
ĠØ§Ø¹Ø· Ø§
1 6
ĠØ¨ Ø¯Ø±
ĠÙħØµ Ø±ÛĮ
ĠØ¢Ø± Ø§ÛĮÙĩ
ĠÚ¯Ø² ÛĮÙĨÙĩ
Ø³ Ø§ÛĮØª
ÙĪØ¯ ÙĪØ±
ĠÙĨØ´ Ø±ÛĮ
ĠØ´Ø±Ø§ÛĮ Ø·ÛĮ
ĠØ³Ùħ Ùģ
ĠØŃ Ø±ÛĮÙģ
ĠÙ¾ÛĮØ´ Ú¯ÛĮØ±ÛĮ
ĠØ´ÛĮÚ© Ø§Ú¯ÙĪ
ĠØ§ ÙĪÛĮ
ĠØ¯Ø± ÙħÛĮ
ĠØ§Ø³ Ø¯
ĠÙħØ±Ú© Ø¨
ĠØµ Ø¯ÙĩØ§
ĠÙħØªØŃ Ø±Ú©
ĠÙħØ¨Ø§ØŃ Ø«
ĠØ± ÛĮÙħ
ĠØ¹ Ø§Ø±Ùģ
ĠÚĨ Ø´
ÙĦÛĮ ÙĪ
Ø±Ø¯ Ø§Ø¯
ĠÙĤ ÙĪÙĩ
ĠÙħØªØ± ÙĪÛĮ
Ø³ Ø±ÛĮ
ĠÚ©Ø±ÛĮ Ø³
ĠÚ©ÙĪØ´ Ø´
ĠØ¯Ùģ Ø¹
ĠØ±ÙĪÛĮØ¯ Ø§Ø¯ÙĩØ§ÛĮ
ĠÚ© Ø§Ú©
ĠÙ¾ ÛĮØª
ĠØ´ Ø§ÙĩÛĮ
ĠÙģØ± ÙĨÚ¯ÛĮ
ĠÛ±Û¹Û´ Û·
ĠÙħ Ú©Ø±
Û³Û ±Û
ĠÛ±Û¹Ûµ Û´
ĠØ²ÛĮØ³Øª Ú¯Ø§Ùĩ
ĠØ±Ø£ Ø³
ÙĪØ¦ ÙĨ
ÙĦ ÛĮÙĨÚ¯
Û· Û´
ĠØ³Ø§Ø²ÙħØ§ÙĨ Ø¯ÙĩÛĮ
ĠØªÙĪØ± Ùħ
ÚĨ ÙĨ
ĠØ¦ ÛĮ
ĠØ¯Ø§ÙĨ Ø´ÙĨØ§ÙħÙĩ
ĠÙħØ® Ø¯Ø±
ĠØ³ ÙĪÙĦÙģ
ĠÙ¾Ø±Ø³ Ø´
Ġt o
ĠÙħÙĨØ§Ø³ Ø¨Øª
ÙĨÛĮ Ùģ
Ø¶ Ø§Ø¡
ĠØ³ÙĦ Ø·Ùĩ
ĠÚ¯Ø±Ø¯ Ø§ÙĨ
ĠØ± Ø·ÙĪØ¨
ĠÙģ Ø§Ú©ØªÙĪØ±
ĠØ³Ø± Ø´ÙĨØ§Ø³
Ø§ÛĮØ´ ÛĮ
ÙĨØ¸ Ø§ÙħÛĮ
ĠØ¯Ø´Ùħ ÙĨØ§ÙĨ
ĠÙħØ¯ Ø§ÙĪÙħ
ĠØ¨ÙĦ ÙĨØ¯ÛĮ
ĠØ´Ú© Ø§ÛĮØª
ĠØ³Ùģ Ø§Ø±Ø´
ĠÙģØ³ Ø§Ø¯
ĠØ¯ ÙĦÙģ
Ø¬ ÛĮÙĨ
ĠØ±ÙĪ Ø¨Ùĩ
ĠÛ¶ Û°Û°
ĠÛ±Û¹Û³Û ¶
ĠØ¨Ø± Ø¯Ø§Ø±
ĠÙħØ® Ø²ÙĨ
ĠÙģØ±ÛĮØ¯ ÙĪÙĨ
ÙģØ± Ùħ
ĠØ¨Ø§Ø² Ùĩ
Ø§ÙĨØ¯ ÙĪ
ĠÙĨÙĩØ§ Ø¯ÙĩØ§ÛĮ
ÙĪÙĦ Ø§ÙĨ
ĠØ±ÛĮØ³ Ú©
ĠØ§Ø³Øª Ø¹Ùħ
Ø²Ø¨ Ø§ÙĨÛĮ
ĠØ¢Ø´ Ù¾
ĠÚĨÚ¯ Ø§ÙĦÛĮ
Ø§ ÙĪØ±Øª
Ú¯ Ø³
ÙĪÙħ ÙĨØ¯
ÙĪØ² ÙĪÙħ
ĠØŃØ¨ÛĮ Ø¨
ĠØ±Ø³ Ø§ÙĨØ¯Ùĩ
ĠØµØ§Ø¯ Ø±Ø§Øª
ÙĪÙħ Ø§ÙĨ
ĠØŃØ¯ÛĮ Ø«
ĠÙħØ®ØªØµ Ø§Øª
Ø¯Ø§ÙĨ Ø§ÙĨ
ĠØ¯Ø§Ú© ÙĪØªØ§ÛĮ
ĠØ± ÙĤÛĮØ¨
ĠØ®ÙĪØ¯ Ø¯Ø§Ø±ÛĮ
ĠØ§ÙĦ Ú©ÙĦ
ÛĮØ§ Ùģ
ĠÛ³Û ¹Û
ĠØ¬Ø§ÙĨ Ø´
ĠØ¹Ø¨ Ø¯
ĠØ¯ ÙĨØ¯Ùĩ
ĠÛ±Û¹Ûµ Û²
ĠØ§Ø³ Ú©ÙĨ
ĠØ¹ Ø¬ÛĮØ¨
Û±Û³Û ¸Û
ĠØ¹Ø« ÙħØ§ÙĨ
ĠØ±Ø§ÙĨ ÙĨØ¯Ùĩ
ĠÙ¾ ÙĦÙĩ
ĠÙ¾Ø²Ø´Ú© Ø§ÙĨ
ĠÙħÙĪÙĦ Ú©ÙĪÙĦÛĮ
ĠÚ©Ø§ÙħÙ¾ÛĮ ÙĪØªØ±ÛĮ
ĠØ¬Ø§Ø¨ Ø¬Ø§ÛĮÛĮ
ĠØ²ÙĨØ¯ Ø§ÙĨÛĮØ§ÙĨ
Ø¦ ÛĮÙĨÛĮ
r i
ĠÙģ Ø§ÙĨ
ĠØ§Ø¶ Ø·Ø±
ĠØ¨Ø§ Ú©ÙĪ
ĠØ¢ÙĨ Ø±Ø§
ĠÙ¾ÛĮ Ú¯ÛĮØ±ÛĮ
ĠÙħØµØ¯ ÙĤ
Ø§Ø± Ùħ
ÙĨÙĩ Ø§Ø±
ĠØ± Ø´
ĠÙĤØ§Ø± ÚĨ
ĠÙħØ± Ø§
ĠØªØŃ Ø±ÛĮ
ĠÛ±Û¹Ûµ Û¹
ĠØ® ÙĪÛĮ
ÙĦ Ú©
ĠÚ© ÙĨÛĮ
ĠØ³ Ø§Ø¯Ú¯ÛĮ
ĠÙħØ«ÙĦ Ø«
Ø¬ ÙĪÛĮØ§ÙĨ
ĠØ´Ú© Ùħ
ĠÛ±Û¹Û´ Û¶
ĠÚ¯Ø± Ø¬ÛĮ
ĠÙħØ¹Ø§Ø¯ ÙĨ
ÙĪ ÙĪÙĨ
ĠÙĦ Ø§ÙĨÚ¯
ĠÚĺ Ø±
ĠØ¨ÛĮ Ø³
ĠØªÛĮÙħ ÙĪØ±
ĠÛ· Û¶
Ùĩ Ø§ÙĨÛĮ
ĠØ§ ÙĪØ±Øª
Ø¯Ø§ÙĦ ÙĦÙĩ
ĠÙħØ³ØªÙĤÛĮÙħ Ø§
ĠØ¯ Ú©
ĠØ¨ÙĨÛĮ Ø§Ø¯ÛĮ
ĠØ¢Ø±Ú© Ø§ÙĨØ²Ø§Ø³
ĠØ´ Ø§ÙĨØ²Ø¯ÙĩÙħ
ĠÚ©Ø§Ø± Ø§Ú©
ĠÙĨÙĤ Ø´ÛĮ
ĠÙħØ´Ø®Øµ Ø§Øª
ĠØ¨ÛĮØ² Ø§ÙĨØ³
ĠÙħØŃ Ø§Ú©ÙħÙĩ
ĠÛĮ ÛĮÙĦ
ĠØ³Ù¾Ø§ÙĩÛĮ Ø§ÙĨ
ĠØ± Ú¯
ĠÙĦÙĩ Ø³ØªØ§ÙĨÛĮ
Ø° Ùĩ
ĠÚĨ Ø³Ø¨
ĠI n
ĠØºØ° Ø§ÛĮ
Ú©ÙĦØ§Ùĩ ÙħØ§
ĠÚ© Ù¾ÛĮ
ĠÙħØ¨ Ø¯ÙĦ
ĠØ¬ Ø³Ø¯
ĠØ¢Ùħ ÛĮØ²
ĠØ¯ Ø§Ø¦Ùħ
ĠØªØ± Ø³ÙĨ
Ø§ÛĮ Ø³Øª
Ø§Ø¯ ÙĨ
ĠÙħÙĨ Ùģ
ĠÙģØ± Ø§ØªØ±
Ù¾ÛĮ ÚĨ
Ø® Ø·
ĠÙ¾ÛĮØ± ÙĪ
Ø§Øª ÙĪØ±ÛĮ
ĠØªØŃ Ø³ÛĮÙĨ
ĠÙħØª ÙĨÙĪØ¹
ĠÛ±Û¹Ûµ Û·
ÙĨÙħØ§ÛĮ ÙĨØ¯
Ø§Ø±ÛĮ ÙĪ
ÙĪÙģ Ø§ÙĨ
ÙĪØ³ ÙĨ
Ø§Ø¯ Ø§ÛĮÛĮ
ĠØ´ÙĪØ± Ø§
ĠØª Ø´ÛĮ
ĠÙģÛĮÙĦÛĮÙ¾ ÛĮÙĨ
ĠØ¬ ÙĪÙĨØ²
ĠÛĮ Ø§ÙĦ
ĠØªÙĪÙĨ Ø³
ĠÙĤ ÙĨ
ĠÙħØ¯ÛĮ ØªØ±Ø§ÙĨÙĩ
ĠØ° Ø±Ùĩ
ÙĪØ³Øª ÙĪÙĨ
ĠØ®ÙĦ Ø§ÙĦ
ĠÙħØŃÙħ Ø¯ÛĮ
ĠÙĨÙĪ Ø¬ÙĪØ§ÙĨÛĮ
ĠÙ¾Ø§ÛĮÛĮ Ø²
e y
ĠØ¨ Ø§Ø®Øª
ĠÙħØ¤Ø³ Ø³
ĠÙ¾ÙĪØ± ÙĨÙĪ
ĠØ§ÙĨØ¯ Ø§Ø®Øª
ĠØ¯ Ø²Ø¯
ĠØ¢ÙĦ ÙĪØ¯Ùĩ
Ø§Ø® Ø§ÙĨ
ĠÛ· Û´
ĠØ¨ØŃ Ø±ÛĮÙĨ
ĠØ³Ø§ÙĨØª ÛĮÙħ
ĠØªÙĪ Ø¬
ĠØ´Ùħ Ø§Ø±ÛĮ
ĠÙĩ Ø§Ø³Øª
ĠØªÙĤØ§Ø¶ Ø§ÛĮ
ĠÙĨÙĤ Ø¶
ĠØ¨Ø¯ ÙĨÛĮ
ĠÚ©ÛĮ Ø³Ùĩ
Ø¯Ø® ØªØ±
ĠØª Ø·Ø¨ÛĮ
ĠÙĤ ÙĪØ§ÛĮ
ĠÚ¯Ø± Ú¯Ø§ÙĨ
Ø±Ø³ ÙĨØ¯
ĠØ§Ø¦ØªÙĦ Ø§Ùģ
ĠØ¨ÛĮ ÙĦÛĮ
ĠÙĪ Øµ
ĠØ¢ ÛĮØ±
ĠÚ©Ùħ ØªØ±ÛĮÙĨ
Ø´ÙĨ Ø§Ø®ØªÛĮ
ĠS h
ØŃ Ø¯ÙĪØ¯
ĠÙħØ³ Ø§ÙĪÛĮ
ĠÙĤØ· Ø¹ÛĮ
Ø¯Ø§ÙĨØ³Øª ÙĨØ¯
ĠÙ¾Ø±ÙĪÙģ Ø³ÙĪØ±
ĠØ¢ ÙģØ±ÛĮÙĨ
ĠØ¬ ÙĪÙĨ
ĠÙ¾ÙĦ Ø§Ø³
ĠÙħ Ø§Ø¨ÛĮÙĨ
ĠÙħÙħØª ÙĨØ¹
ĠÙģ Ø¯
ĠÚ©ÙĪØ± Ùĩ
ĠØ¨ Ú¯ÛĮØ±ÛĮ
ĠØ· Ø±Ø²
ĠÙħ Ú©Ùĩ
ÙĩØ§ÛĮ Øª
ĠØ§ÙĨ Ø³
ĠØ±Ø·ÙĪØ¨ Øª
ĠØ±Ø§Ø¨ Ø·
ĠØ§Ø±Ø² Ø´Ùħ
ĠÙĨØ§Ø² Ú©
Ùħ Ø§Ø³
ĠØ§Ø± Ø´Ø§Ø¯
ĠØªØ¨ Ø§Ø¯ÙĦ
ĠØ´Ú© Ø§Ùģ
Ùģ ÙĪ
ĠÙĦÛĮ Ø²Ø±
ĠÚ©Ø± Ø¬
ĠÙħØ§Ø± Ø´
ĠÙħØ¬ Ø²Ø§
ĠÙģ ØªÙĪ
ĠÛ±Û¹Ûµ Û³
Ù¾ Ø§Ø´ÛĮ
ĠÙħØªØ± ÙĪ
ĠØ®Ø± Ø§Ø¨
ĠØ¯Ø±Ø®Ø´ Ø§ÙĨ
ÙħØ¯ Øª
ĠØ§ÙĤ ÙĦÛĮØª
ĠØ®ÙĦ Ø§ÙĤ
ĠØ§Ø³Ùħ Ø§Ø¹ÛĮ
Ø§ÙĨ Ø¨Ø§Ø±
Ø® ÛĮØ²
ĠÛĮ Ø§ÙĨÚ¯
Øª Ù¾Ùĩ
ĠØ¢ ÛĮÙĨÙĩ
ĠÛ±Û³Û¹Û ¸
ĠØªÛĮØ± Ø§ÙĨØ¯Ø§Ø²ÛĮ
ÙĨ Ø§Ø¨
ĠÚĺ ÛĮÙħÙĨ
ĠÙħÙĤØ± Ø±Ø§Øª
Ùģ ÛĮÙĩ
Ø§ÙĨØ¯ Ø§
ĠÂ °
Û±Û¹Û µ
Ø¨ Ø³Øª
Ú©Ø§Ø± Ø§ÙĨ
ÚĨ ÙĪ
ĠØ²ÛĮØ±Ø²ÙħÛĮÙĨ ÛĮ
Ø¨ ÛĮØ´
ĠØª ÙĤÛĮ
ĠÛ³Û ¹
ĠØªØ±Ø³ÙĨ Ø§Ú©
ĠØ³Ø§Ø² Ø¯
ĠÚ© ÙĪØ§Ø±
ĠØ¯Ø³ØªÙĪØ± Ø§ÙĦØ¹ÙħÙĦ
ĠÙĦ Ø·
ĠØ§Ùħ Ø¶Ø§ÛĮ
ĠÛĮ ØŃÛĮÛĮ
ĠÙģØ±ÙħØ§ÙĨØ¯Ùĩ Ø§ÙĨ
ĠÙħØ§Ø¬ Ø±Ø§ÛĮ
ĠÚ©Ø§Ø´ Ø§ÙĨ
Ú¯Ø±Ø¯ Ø§ÙĨØ¯
ĠÙħÙĦ ÙĤØ¨
ĠÛ±Û¹Ûµ Ûµ
ĠØ§Ø· ÙĦØ³
ÛĮÙĨÚ¯ Ø²
ĠØ³Ùģ Ø§ÙĦ
a e
ĠØ¹Ùħ ÙĪØ¯ÛĮ
ĠÙĤØ¨Ø± Ø³ØªØ§ÙĨ
Ø² ÛĮØ±
ĠÙħÛĮ Ø®
Ú¯Ø± ÙĩØ§ÛĮ
Ø§Ø¯ Ø§Ø±ÛĮ
ĠØ§Ø³ Ø§ÙħÛĮ
ĠÙĪÛĮØª Ø§ÙħÛĮÙĨ
Û±Û¹Û ´
ĠÙĤØ· Ø¨ÛĮ
ĠØ±Ø¶ Ø§ÛĮØª
ĠÙ¾ÛĮÚĨ ÛĮØ¯Ú¯ÛĮ
ĠØªØ§ ÙĪÙĨ
ĠB r
ĠÙ¾ ÙĪØ¯Ø±
ĠÛ³Û ¸Û
ĠØ§Ø®ØªØµ Ø§Ø±
ØŃ Ø¯
Ø± ÙĩØ§ÛĮ
ĠØ¬ ÛĮØ±
ĠÙħÚ© Ø¹Ø¨
u g
Ø§ÙĪ ÛĮÙĨ
a z
ĠØ§Ø± Ùħ
ĠÙħØ±Ú¯ Ø´
ĠØ¹Ø§Ø´ÙĤ Ø§ÙĨÙĩ
ĠØ¹ ÙħØ§ÙĨ
ÛĮØ§ ÙģØªÙĩ
ĠÙħØ± Ø§Ø¯
ĠÙħØ· Ø¨
ĠØ¢Ø´ ÙĪØ±
ĠØªØ¶ ÙħÛĮÙĨ
ĠØ¯ÛĮÙ¾ÙĦ Ùħ
ĠØŃÛĮØ¯ Ø±
ĠÚ©ÙĨ Ùģ
ĠÙħØ°Ø§Ú© Ø±Ùĩ
ĠÙģØ±Ùĩ Ø§Ø¯
ĠØ¨ ÙĪÙĦÛĮ
ØªØ± Ú©ÛĮ
Ø¬ Ø§ÙĨÛĮ
ĠØªØ± ÙĪÛĮØ¬
ĠØ¹Ùħ ÙĦØ§
ĠÙĦÛĮ Ø¨ÛĮ
Ø§ÚĨ Ø§ÙĤ
Ø· ØŃ
ĠA m
ĠÙħÙģ ØµÙĦ
ĠØ§ØŃØ³Ø§Ø³ Ø§Øª
' s
ÙĨ ÙĪÙĨ
ĠØªÙģ Ø±ÛĮ
ĠÙĦØ° Øª
ÛĮ Ø§ÛĮ
ĠM ar
ĠØ¬Ùĩ Ø´
ĠØ³Ø±Ù¾Ø± Ø³Øª
ĠÙĦÛĮÙĪØ± Ù¾ÙĪÙĦ
Ùģ Ø§ÙĦ
ĠØ¬ÙĨ Ø§ØŃ
Ø§Ú¯ Ø±Ø§ÙĨ
ĠÙ¾Ø§Ø³ Ø¯Ø§Ø±Ø§ÙĨ
Ø®Ø§ÙĨ ÙĪ
ĠÙ¾ÚĺÙĪÙĩØ´ Ú¯Ø±
ÙĨÚ¯ Ø§Ø±Ø§ÙĨ
ĠØ¯ÙĪ Ø§Ø²Ø¯ÙĩÙħ
ĠÛ±Û¹Û´ Û¹
ĠØ¯Ø± ÙĩÙħ
ĠØ¬Ùħ Ø§ÙĦ
ĠØ±Ø¦ Ø§ÙĦ
ĠÛ±Û¹Û±Û ·
Ú©ÙĨ Ùħ
ĠØ´ÛĮ Ø·Ø§ÙĨ
ĠØªÙĨÚ¯ Ùĩ
ĠÙģ Ø§ÙĨØª
er t
ĠØ° ÛĮÙĦ
Û±Û° Û°
ĠØ² Ø§Ùĩ
ĠØ²Ø® Ùħ
ÙĪÚ¯ ÙĪ
ĠÙģØ± ÙĨ
ĠØªØ±Ú© Ø§ÙĨ
ĠØ¢Ø³ÛĮ Ø§Ø¨
ĠÛ· Û·
ĠØ®ÙĪØ± Ø§Ú©ÛĮ
ĠØ§ÙģØªØ® Ø§Ø±Ø§Øª
l y
ĠÚ¯ ÙĪØ§Ø±
ĠÙĦ Ø§Øª
ĠØ¨Ø§Ø² Ú¯
ĠØ§ÙĦ ØªÙĩ
Ø³Ø¨ ÙĪØ±Ú¯
Ø§ÙĨØ¯ ÛĮ
ĠØŃÛĮ Ø§Ø·
ĠÙħØ¹ ÛĮØ§Ø±
ĠÙħØ¤ ÙĦÙģ
ĠÙĩÙĪØ§Ù¾ÛĮÙħ Ø§ÙĩØ§ÛĮ
Ø® Ø§Ø±
ĠÚ¯ ÛĮÙħ
ĠØ¬Ùĩ Ø§Ø¯
Ø§ÙĨÛĮ ÙĪÙħ
ĠØ§Ø³ ÙĨ
ĠÙħÙĪÙĨÛĮ Ø®
i es
Õ ¡
Ø³ Ø§ÙĦÛĮ
ĠÚ©Ø§Ø± Ú©Ø±Ø¯
ĠØ³Øª Ø§ÛĮØ´
ĠÛ±Û¹Û±Û ¹
a ch
ĠØ² ÙĪØ±
ĠØ¨ Ø¨ÛĮÙĨ
ĠØ¢ Ú©Ø³
ĠØ¬ ÙĪØ²Ùģ
ÙĪØ§ÙĨ Ø§
ĠØ¯Ùħ Ø´ÙĤ
ĠÙħØ¯ ÛĮÙĨÙĩ
ĠØ´Ø¹ Ø§Ø±
Û±Û¹Û ±Û
ĠÙĪØ§Ø¨ Ø³ØªÚ¯ÛĮ
ĠÙĩØ´Ø¯ Ø§Ø±
Ø¨ ØªÛĮ
ÙĦ Ø§ÙĨÛĮ
ĠØ® ÙĨ
Ø°ÛĮ Ø±ÛĮ
ĠÙĨØŃ ÙĪÛĮ
ĠÙģ Ø§Ø¶ÙĦ
ĠÙĨØ§Ú¯ ÙĩØ§ÙĨÛĮ
ÙħÙĨ Ø·
ĠÙħØ°Ø§Ú© Ø±Ø§Øª
Ø§ÙĨ ÙĪØ±Ø¯
ĠÙ¾ÛĮØ´ ØªØ±
ĠÙħØ®ØµÙĪØµ Ø§
ĠÚ© ÛĮÚ©
ĠØ§ Ú©ÙĦØ§ÙĩÙħØ§
ĠØ³Ù¾ Ùĩ
Ø¯Ø§ÙĨ Ø´Ú¯Ø§Ùĩ
ĠØªÙĤØ³ÛĮÙħ Ø§Øª
ĠØŃØ³Ø§Ø³ ÛĮØª
ĠØ± ÙģØ³
ĠÙģ ÙĪØ±Ø¯
ÙĪØ§ÙĨ Ú¯
ĠØ¨ÛĮ Ø§Ø¨Ø§ÙĨ
ĠÙĩÙģØª ØµØ¯
ÙĪÚĨ ÙĩØ±
ĠÚ©Ø§Ø¸ Ùħ
ĠØªØ§ÛĮÙĦ ÙĨØ¯
ĠØ® ÙĪÙĨÛĮ
ĠÙħØ¬Ø§ÙĩØ¯ ÛĮÙĨ
Ø± Ø§Ø³ÛĮ
ĠØ¨Ø§ÙĦØ§Ø® Ø±Ùĩ
Ø§Øº ÛĮ
ĠÙĨÙģ Ø¹
Ġ Ø§Ø±ÛĮ
ĠÛ±Û³Û ¸Û°
ĠØ§Ùģ Ø´
ĠÛ´ Û³
ĠØ§Ø³ØªØ§ÙĨØ¯Ø§Ø± Ø¯ÙĩØ§ÛĮ
Ø§Ø³ ÙĦØ§Ùħ
ĠÙĩÙĨØ¯ Ø³Ùĩ
Ø§ÙĦ Ø³ÙĦØ·ÙĨÙĩ
ĠØ§Ø³ ÛĮØ±
ĠØª Ø¹ÙĩØ¯
ĠØ§ÛĮ Ø§Ùħ
ÙĪÙĨÛĮ Ùĩ
ĠØ§Ø´ Ø±Ø§Ùģ
ĠÙħÙĤØ§ ÙĪÙħ
ĠØ¹ÙĨ Ú©
ÙĨ Ø´Ø§ÙĨ
ĠØŃÙģ Ø§Ø±ÛĮ
Ø§ÛĮ Ø±ÛĮ
Ø· Ø¦Ùĩ
ĠØ¨Ø§Ø²Ø§Ø± ÙĩØ§ÛĮ
Ø§Ø« ÛĮØ±
ĠØ§Ø¯ÛĮ Ø§ÙĨ
Ø² ÙĪ
ĠØ¯Ø§ ÙĪØ±ÛĮ
ĠØ³Ø§Ø² Ú¯Ø§Ø±
Ø§Ø±Øª ÙħØ§ÙĨ
ĠØ±ÛĮ Ø§Ø¶
an s
Ø§Ø³ Ú©
ÙģÙĦ Ø¯
ĠØ§ÛĮØ¯ Ø¦
ĠÚ© ÙĪØ±Øª
ĠÙħÛĮ Ùĩ
ÙĦÛĮ Ø³ÛĮ
ĠØ§ÙĦÛĮØ² Ø§Ø¨Øª
Ø§ ÙĪØ³
Û±Û¹Û ¸Û
ĠØ±ÙħØ§ÙĨ ØªÛĮÚ©
ĠÙ¾ÛĮØ´ ÛĮÙĨÙĩ
ĠØ± Ø§ÙĨØ¯
ĠÛ±Û¹Û³Û ¸
a la
Ã Ĺ
Ø¦ ÙĨ
Ġ ÛĮØ¯
ÙĪ Ø§ØŃ
ĠØ·Ø±Ùģ Ø¯Ø§Ø±
ĠÙħÛĮ ÙĨÛĮ
ĠÙħØ· ÙĦØ¨
ÙģØ± Ø§Ø¯ÛĮ
ĠØµÙģ ÙĪÛĮÙĩ
ĠØ·Ø¨Ø§Ø· Ø¨Ø§ÛĮÛĮ
ĠØ¨ ÙĪØ³ÛĮÙĦÙĩ
Ø´ Ø§Ø®
ĠÚ©Ø§Ø± Ø´
ĠÙģØ¹Ø§ÙĦ Ø§ÙĨ
ĠÛ¸ Û°Û°
Ø± Ø§ÙģÛĮ
Ùħ Øµ
ĠÙģØ¹ ÙĦ
ĠÙħØ³Øª Ø¹
ĠØ¯Ø±ØŃ Ø§ÙĦÛĮ
ĠØ¯Ø®ØªØ± Ø´
ĠÙĦ Ø§ÙĦÙĩ
ĠØ§Ø³Ù¾ Ø±
ĠÙģØ±Ø¶ ÛĮÙĩ
ĠÚ©ÙĪØ¨ Ø§
ĠØ§ÛĮÙĨ Ú¯ÙĪÙĨÙĩ
Ø¸ Øª
Ø´Ùĩ Ø±ÛĮ
ĠØ¯ÛĮÙĪØ§Ø± ÙĩØ§ÛĮ
Ø¯ Ø§Ø¯ÛĮ
ĠÙ¾Ø±Øª ØºØ§ÙĦÛĮ
ĠÚ©Ø§ÙĨØ¯ ÛĮØ¯
ĠØ¶Ø® Ø§ÙħØª
Ø§Ø³ ÙħÛĮ
ÙĨ Ø§Ù¾
ĠÚ©ÙĨ Ø´
Ã ³
ĠÛĮ Ø¹ÙĤ
ĠÙħØ´Ø®Øµ ÛĮ
ĠØ®Ø§Øª ÙħÙĩ
ĠØªÙĪ Ø·Ø¦Ùĩ
ĠØ§Ø¯ Ø¨
ĠØ§Ø®ØªÙĦ Ø§ÙĦØ§Øª
Ø³ ÙĨÛĮ
Ø´ Ø§Ùħ
ĠØ³Ø§ÙĨØªÛĮÙħ ØªØ±
Ø§ÙĦ ÙĨÙĩØ§Ø±
ĠØ¬ ÙĦØ³
Ø± Ú¯
ĠÙģØ±ÙĩÙĨÚ¯ Ø³ØªØ§ÙĨ
ĠØ¨Ø±Ø§ÙĨ Ú¯ÛĮ
ĠØ¬ ÙĪÙĦÛĮ
ĠÙĩØ± ÚĨÙĩ
ĠÙĩØ³Øª ÛĮ
Ø³ ÙĨÚ¯ÛĮ
Ø§ÙĦ Ø§ÙĨ
ĠÚ©ÙĦ Ø§Ùħ
ĠØ³Ø§Ø² ÙĩØ§ÛĮ
Ù¾ Ø§Ø¯
ĠØ¹ÙĦ ÙħØ§ÛĮ
ĠÙħØªÙĪ Ø§ÙĦÛĮ
ĠØŃØ³ Ø¨
ĠØ¨ÙĦÙĨØ¯ ØªØ±ÛĮÙĨ
ĠØ³ Ø¹Ø¯
Ø§Ø¯ ÙĦÙĩ
ĠØŃ Ø§ÙħÛĮ
ĠÛ±Û³Ûµ Û¸
ĠÙĦ Ø§Ø³
ĠÚ¯ÙĪ Ø§ÙĩÛĮ
ĠØ¬Ø§ÛĮÚ¯Ø² ÛĮÙĨÛĮ
Ġ Ð
ĠØ¹ Ø³ÙĦ
ĠÚ¯Ø±Ø§Ùģ ÛĮÚ©
ÛĮÙĨ Ú¯ÛĮ
Ø§Ø² Ø§ÙĨ
ĠØ§Ùħ ÙĦØ§Ú©
ĠØ¯Ùĩ Ú©Ø¯Ùĩ
ĠÙħØªÙĪØ³ Ø·Ùĩ
l and
ĠØ¨Ø§Ø¨ Ø§
Ø¯Ùĩ Ø§ÛĮÛĮ
ĠØªØ§ÛĮ ÙħØ²
ĠÙĤ Ø§ÚĨØ§ÙĤ
ĠØª ÛĮØª
ĠØªÙĤØ±ÛĮ Ø¨ÛĮ
ĠØªØ³Ùĩ ÛĮÙĦ
Øµ ÙĪØ±
ĠÙĨÚ¯ Ø§Ø´ØªÙĩ
ÙĪÚ© ÙĦ
ĠØŃØ§ÙĦ Ø§
ĠØ±Ø³ ÙĪØ¨
ÚĨÛĮ Ø§ÙĨ
ĠÚ©Ùĩ ÙĨÙĩ
ĠØ§ÙĨ ÙģØ±Ø§Ø¯ÛĮ
ĠÙħÙĩØ§Ø¬ Ø±Ø§ÙĨ
a w
ĠÙĪ Ø¬
ĠÙ¾ÛĮ Ø³Øª
en s
ĠØ¨Ø±Ø¯ Ø§Ø´ØªÙĩ
ĠÙĩ Ø±Ø¯
ĠØ§ÙĤ ÙĦÛĮÙħ
Ùİ Ùĳ
ĠÙĨÙħÙĪØ¯ Ø§Ø±
ĠÙĩØ¬ ÙĪÙħ
Ø¨ÙĪØ± ÙĨ
ÙĪÙĦÙĪ ÚĺÛĮÚ©ÛĮ
ĠÙĪ ÙĨØ²
ĠØ±Ø³ ÙĪÙĦ
ĠÛ±Û³Û¸Û ³
Ø§Ø³ ÙĦ
ĠÙĨØ´Ø±ÛĮ Ø§Øª
Ú© Ø§Ú©
ĠØ§Ø¯ Ø±
ĠØ¬Ø§ÙĨ Ø³ÙĪÙĨ
ĠØ§Ø±Ø² Ø§ÙĨ
Ø¨Ø§ÙĦ Ùĩ
Ø¹ Ú©Ø³
Ø³ÛĮ Ø³Ú©ÙĪ
ĠÙĦ ÙĪØª
m an
ĠØ± Ø§ÛĮÙĨ
ĠÚĨÙĨØ¯ Ø§ÙĨÛĮ
ĠÙĤ ØµÙĩ
ĠØ¯Ø§ÙĨØ´Ø¬ ÙĪÛĮ
ĠÙĤØ± ÙĤ
ĠØ§Ø³ØªØ¹ ÙģØ§
ĠØ¨Ø±Ø§ÛĮ Ø´
ĠÙħÙĨØŃ ÙĨÛĮ
ĠÙĩÙħ Ø§ÛĮ
ĠÙħØ±ÛĮ ÙĦÙĨØ¯
ĠØºÙĦ Ø¸Øª
ĠÙĨ Ø§Ø¦
ĠØ« Ø¨Ø§Øª
ĠÛ±Û³Ûµ Û°
ĠØ§ÙĦÙģ Ø¨Ø§ÛĮ
ĠÙģÙĦØ³Ø· ÛĮÙĨÛĮ
Øµ ÛĮØ±
ĠÚ©Ø± ÛĮÚ©
ĠØ´Ø´ ØµØ¯
ĠÚ©ÙĦØ± Ø§Ø¯ÙĪ
ĠØ§ÙĨØªØ®Ø§Ø¨ ÛĮ
ĠÙħØ´Ø®Øµ Ùĩ
ĠØ¹Ø¨Ø¯Ø§ÙĦ Ø±ØŃ
ĠØ±Ú© Ø§Ø¨
Ùħ Ú©ÙĨ
ĠÚ©Ø§ÙĨ Ø§Ø¯Ø§ÛĮÛĮ
ØªÛĮ Ø³
ĠÙħØ³Øª Ø¹Ùħ
ĠØŃØ±Ú© ØªÛĮ
Ø¯ Ø±ÛĮ
Û±Û¸Û ¶
ĠØ¨Ø§Ø²Ø§Ø±ÛĮ Ø§Ø¨ÛĮ
on d
ĠØªÙĨØ¯ ÛĮØ³
Ø®Ø§ÙĨÙĪ Ø§Ø¯Ùĩ
Ø¨ Ø§Ø¹
ĠÚĨ Ø§Ø±Øª
Ø±Ú© Ø´ÛĮ
ĠØ¹Ø¯ Ø¯ÛĮ
= "
ĠØ¨ Ø§Ø±Øª
ĠØ¯Ø§Ø¯ Ú¯
ĠØªØ±ÙĪØ±ÛĮ Ø³ØªÛĮ
Ùħ Ø²Ø¯
Ø³ ÙĨØª
ĠØ¨Ùĩ Ø´ØªÛĮ
ÙĦÛĮ Ø²
ÙĪØ¦ ÙĦØ§
ĠÙģ ÙĤØ±
ĠØ· Ø§ÙĩØ±
ĠØº Ø§Ø±Øª
Ù¾Ø²Ø´Ú© ÛĮ
ĠØ¬ÙĨ Ø¨
Ø§Ø³Øª ÛĮÙĨ
ĠØ§Øµ Ø§ÙĦØª
ĠØ®Ø§Ùħ ÙĪØ´
ĠÙĨÙĤ Øµ
ĠÙħØ¨ Ø¯
ĠÙĩØ´Øª ØµØ¯
ĠÚ©Ø§ÙħÙ¾ Ø§ÛĮÙĦ
ĠÙħØ§Ø³ Ùĩ
is h
ĠØ¢Ø¨Ø§Ø¯ Ø§ÙĨ
ĠØ¨ÙĤ Ø§ÛĮØ§ÛĮ
ĠØ¨ Ø´Ú©
ĠØ¯ÙĪ Ø²
ĠØ¢Ø±Ø§Ùħ Ø´
ĠØ§Ø± ÙĨ
ĠØ§Ø¹ ØªØµ
ĠÙĦ Ùģ
ĠÛ±Û¹Û³Û ·
ĠÙĦÙĪ Ø§Ø²Ùħ
1 5
âĢĮ âĢĮ
ĠØªÙĨ Ø³ÛĮ
ĠØªØ« Ø¨ÛĮØª
ĠÚ©Ø§Ù¾ ÛĮØªØ§ÙĨ
ĠØ§Ø²Ø¨Ú© Ø³ØªØ§ÙĨ
Ø¨ ÙĪÙĨ
ÙĦØ§ ÙĪÙĩ
ĠØ³Ø±Øª Ø§Ø³Ø±
ĠØ¯Ø§ÙĨØ´Ø¬ ÙĪÛĮÛĮ
ĠÙħØ¹Øª Ø¯ÙĦ
ĠØ¬ÙĨ Ø§ÛĮØª
ĠØ¯ÙħÙĪÚ© Ø±Ø§Ø³ÛĮ
Ø· Ø§Ùģ
ĠØ¨ÙĨ Øª
ĠÙĤ Ø¶Ø§
ÙĪØ³ Ú©
ĠÙ¾ÛĮØ´ Ú¯Ø§Ùħ
Ø±Øª Ø´Øª
ĠÙĩØ§Ùģ Ø¨Ú©
ĠÛ±Û¹Û³Û ³
ĠÙģØ±Ø²ÙĨØ¯ Ø´
ĠØ§Ø± Ú¯
Û´ Û²
Ú©ÙĦ ÛĮÙĨ
ĠØªÙĪÙĦÛĮØ¯ Ø§Øª
Ø¯ Ø§ÛĮ
ĠØ§ÙĦ Ø²
ĠØ¯Ø§Ùħ Ø¯Ø§Ø±ÛĮ
ĠÙĨÛĮÚ© ÙĪÙĦ
Û±Û³Û ·
Ø§Øª Ø§ÙĨ
ĠØµ ÛĮ
ĠØ§ÙĦ Ú©
1 8
ĠØ¨ Ù¾Ø±Ø¯Ø§Ø²Ø¯
ĠØ§Ø³Øª ÙĨØ§Ø¯
Ø¦ ÙĪÙ¾
ĠÙħØ±Ú©Ø² ÛĮØª
ĠØ³Ø± ÙĨÚ¯
Ø§Ú¯ ÙĨ
ĠÙħØ¬ Ø§ÙĪØ±Øª
ĠØ¯Ø§Ø± ÙĪÛĮ
ĠÚ©ÙĨ Ø³ØªØ§ÙĨ
ĠÚ© Ø§ÛĮ
ĠÛĮ ÙĪÚ©
ĠØ¯ÛĮØ¯ ÙĨÛĮ
ĠØ¯Ø§Ø¯Ú¯ Ø³ØªØ±ÛĮ
ĠØ±ÙĪØ§ÙĨ Ùĩ
ĠÙĩØ³Øª ÛĮÙħ
ĠÚ©ÙĪÙĩ ÙĨ
ĠÚ©Ø±ÛĮØ³Øª Ø§ÙĦ
T he
ĠÛ· Û²
Ø§Ø¯ Ùģ
ĠØ¨Ø±ÙĪØ¬ Ø±Ø¯
ÛĮØª Ø³
ĠÙ¾ÛĮØ´ Ø±ÙĪÛĮ
ĠÛ´ Û±
ĠÙħØ§ Úĺ
ĠÚ©ÛĮÙĩ Ø§ÙĨ
ĠØ§Ø³Øª Ø¹Ø¯Ø§Ø¯
Ø¬ Ø±ÛĮ
ĠØ¢ÙĦ Ø¨Ø±Øª
ĠØŃØ¶ Ø±Øª
Ùħ ÙĩØ±
ĠØ³ ÙħÙĨØ§ÙĨ
Ø§Øµ Ø±ÛĮ
ĠØ® Ø§Ú©ÛĮ
ĠÙħØ´ Ú©
ĠÙģØªØŃ Ø¹ÙĦÛĮ
ÙĪÙĪ ÙĪ
ĠÙ¾ ÙĪØ¯
ĠÙħØ¹ ÛĮ
ĠØ³ÛĮ Ø§ÙĦ
ĠÛ±Û¹Ûµ Û±
b r
Ġ re
ĠÙħ ÙĪØ¯
ĠÙħØŃØ§ÙģØ¸ Ùĩ
ĠØ§Ø¹ Ø¶Ø§
ĠØµÙĦØ§ØŃ ÛĮØª
ĠØ±Ø³Øª ÙĪØ±Ø§ÙĨ
ĠÚ¯Ø° Ø§Ø±
ĠÚ¯ÙĦ ÙĪØ¨
ĠÙħØ® Ø±ÙĪ
ĠØ¢ÙĦÙĪÙħÛĮÙĨÛĮ ÙĪÙħ
ÙĤ ÙĩØ±
ĠØ² Ø±ØªØ´Øª
ĠØŃØ§ÙĦ ØªÛĮ
ĠÙģØ±ÙĪ Ù¾Ø§Ø´ÛĮ
ĠÙħØ£Ùħ ÙĪØ±Ø§ÙĨ
ĠØ®Ø§Øª ÙħÛĮ
Ð °
ĠØ±ÙĪ Ø¨Ø±
ĠÙĨÛĮ Ø§Ø²ÛĮ
ĠÙĩ Ø§ÛĮÛĮ
ĠÛ±Û¹Û³Û µ
É Ļ
ĠØ§ØŃ ØªÛĮ
ĠØ¨Ø§ÙĦ ÛĮÙĨÛĮ
ĠÛ±Û³Û¶ Û°
Ú¯Ø± ÙħÛĮ
ĠÛ±Û³Û¸Û ²
il le
Ø§ÙĨ Ø¬
ĠØ§Ø®ÛĮØ± Ø§
ĠØ¹Ø¨ Ø±ÛĮ
ÙĪÙģ Ø³Ú©ÛĮ
ØªÙĪ Ø§ÙĨÛĮØ¯
ĠØ¨ÙĪØ³ ÙĨÛĮ
ØŃ ÙĦ
ĠÙħÙĨ ÙĤ
Ø² Ø´
ĠØªØ§Ø±ÛĮØ® ÚĨÙĩ
Ø§Ùħ Ø§ÙĨ
Ø§Ø¯ Ú¯Ø§ÙĨ
Ø²Ø¨ ÙĪØ±
ĠØªÙĪÙĨ ÙĦ
ĠØŃÚ© ÛĮÙħ
ĠØ·Ø±Ùģ ÛĮ
ĠÙģØ¶Ø§ ÙĩØ§ÛĮ
ĠØ¯ ÙĪØ±ÛĮ
ĠØµ ÙĪÙħ
ĠØ¯ÛĮ ÙĪ
ĠØŃÙĪ Ø¶Ùĩ
O S
ĠØ¢ÙĨ Ø§
ĠÙħØ¹ Øµ
Ø³Ø§ ÙĪÛĮ
ĠÙĨØ§Ø® Ø§ÙĦ
ĠØ¨Ø± ÙĩÙħ
ĠØ·Ø±Ùģ ÛĮÙĨ
ĠØ§Ø¹ØªØ± Ø§Ùģ
Ø® ÙĪØ±Ø´
ĠØ¹ Ø§Ø²Ùħ
ĠØ§Ø®ØªÙĦØ§Ùģ Ø§Øª
ĠØ·Ø¨Ø± Ø³ØªØ§ÙĨ
ĠØªØ² Ø¦ÛĮÙĨ
ĠØ¯Ø³ØªÛĮ Ø§Ø±
ĠÚĨÙĨØ§ÙĨ ÚĨÙĩ
ĠØµ Ø§Ùģ
ĠØ³Ø¨ Ø²ÛĮ
ĠÙħ Ú¯Ø±
ĠØ¯Ø± Ø¬
ĠÙħØ±Ø§Øª Ø¨
ĠØ´ Ø§ÙĨØ²Ø¯Ùĩ
ĠÙĦ ÙĪÛĮ
ĠØ³Ø§Ø®ØªØ§Ø± ÙĩØ§ÛĮ
ĠØ³Ø¹ Ø¯ÛĮ
ĠØ¬Ø§ÙĨØ´ ÛĮÙĨÛĮ
ĠÙħÛĮ Ø¯
or d
ĠØ§ÙģØ³ Ø±Ø§ÙĨ
ĠØ§Ø¨Ø±ÛĮ Ø´Ùħ
ĠØ¨Ø²Ø±Ú¯Ø³Ø§ÙĦ Ø§ÙĨ
u re
ĠØ¨Ø§Ø± Ø´
Ø¢Ùħ Ø±ÛĮÚ©
ĠÙħØ§ÙĨØ¯ ÙĨ
ĠØ§Ùģ ÙĤÛĮ
Ø³Ø¨ Ø²
Ø´ ØªØ±
ĠÛĮ Ø§Ø±Ø§ÙĨ
ĠÙĤØ²Ø§ÙĤ Ø³ØªØ§ÙĨ
ĠÛ´ Û¹
Û³Û ³Û
Ú© ÛĮÙħ
ĠØ¨ Ø¨Ø±Ø¯
ĠÙĨ Ø§ÙĤ
ĠØµÙĨØ¯ ÙĦÛĮ
ĠØ¢Ø«Ø§Ø± Ø´
Ø§ÛĮ Ø±Ø§ÙĨ
Ø±ÙĪ Ø¨
ĠÙħØª ÙĤØ§Ø¨ÙĦ
ĠØ´ÙĨ Ø§ÙĪØ±
Ø³ Ø§ÛĮÛĮ
Ø±Ø§Øª ÙĪØ±
ĠØªÙĪ Øª
ĠØ· ÙĪØ§ÛĮ
ĠØª ÙĪÙĨÛĮ
ĠØ³ Ø§ÙĤÙĩ
ĠØ¬ Ø¨Ø±
ĠÙĤØ´ ÙĦØ§ÙĤ
ĠÙĪÛĮÙĦÛĮØ§Ùħ Ø²
ĠØ² Ø§Ú¯Ø±
ĠØ¬Ùħ Ø§Ø¹Øª
ĠÙħØŃ Ú©Ùħ
ĠÚ©Ø±ÙĪ Ø§Ø³ÛĮ
ĠØ± ÛĮÙĩ
ÛĮØª ÙĪÙĨ
ÛĮ Ø¹ÙĨÛĮ
ĠÙĪ Ø¹Ø¯Ùĩ
ĠØ¬ Øª
ĠÙģ Ø³Ùģ
ĠØ§ÙĨÚ¯ ÙĪØ±
ĠØ¨Ø§Ø± Ø²
ĠÛĮØ§Ø¯ Ø¨ÙĪØ¯
ĠÛ±Û¹Û³Û ´
Ø´Øª Ø§ÛĮÙĨ
ĠØ³ÛĮØ² Ø¯ÙĩÙħ
ĠØª Ø²ÛĮ
ĠÚ©Ø´ ÛĮØ´
ĠÙĨØ¸ Ø±Ø§Øª
ÙĦØ§ Ú¯
ĠÙħÙĨØª Ø®
ĠØ±Ùħ Ø¶Ø§ÙĨ
ĠÚ¯ ÙĪØ³Ùģ
ĠØ¢ÙĦ ÙģØ§
ĠØ¨Ø§Øª Ø±ÛĮ
ĠØ¢ØºØ§Ø² ÛĮÙĨ
ĠØ§ÙĦ ÛĮØ§Ùģ
ĠØ®ÛĮ Ø§ÙĦÛĮ
ĠÙĩÙĨØ¯ Ø³ÛĮ
ĠØ´Ø¹ Ø±ÛĮ
Ø¬Ø² ÛĮØ±Ùĩ
ĠØ¬ÙĦØ³ Ø§Øª
ĠØªØ§Ø± ÛĮÚ©ÛĮ
ÛĮÚ© Ø§ÙĦ
ĠØ³ Ø§ÙĨØ¯
ĠÙĨ ÙĩÙĨÚ¯
Ø³Ø± Ø®
ĠØµ ÙĪÙģÛĮ
Ø§ÙĪØ± Ø¯Ùĩ
ĠÙħ ÙĪØ±ÛĮ
Ùģ ÛĮÙĨ
ĠØ³ Ø§Ø¯Ø§Øª
ĠØ§ ÙĪÙħ
is s
ĠÚ© Ø³Ø±
ĠØ¹ ÛĮ
ĠÚ©Ø§ÙĦ Ø§ÙĩØ§ÛĮ
ĠØ¯ Ø§Ø¹
Ø¨ ÙĤ
Ø§Ø´ Ø§Ùĩ
ĠÙĩØ± Ø²
la r
ÛĮØ¯Ùĩ Ø§ÛĮ
ĠØ§ÙģØ² ÙĪÙĨ
ĠÙħØª ÙģÙĤ
ĠØ§Ù¾ Ø±Ø§
ĠØ³ÛĮØ² Ø¯Ùĩ
ĠÙģØ±ÙĪ Ø®ØªÙĩ
ĠØ¢Ùħ ÙĦ
ĠØ³Ø± Ø§
ĠØ§ÙģØªØ® Ø§Ø±ÛĮ
ĠØ¨Ø±Ú¯Ø² ÛĮØ¯
ĠÙħ ÙħÙĦ
Ø§Ùħ Ø±
ĠÙħÙĪ Ø¨
ĠØªØ± Ø§ÙħÙ¾
ĠÛ±Û¹Û² Û¹
ĠØªÙĤØ¯ ÛĮØ±
ĠØ§ ÙĩØ±
Û´ Û±
ÙĪ Ø®
Ø¶ Ø§ÛĮÛĮ
Ø§Øº ÙĦ
ĠØ¯Ø§ÙĪ Ø·ÙĦØ¨
ÙĪØ· ÛĮ
ĠÙĨÙĪØ³ Ø§ÙĨ
ĠØŃ ØµØ§Ø±
Ø³ÛĮ Ùĩ
ĠØ¢ÙĦ Ø¨Ø±
ĠÙĨÙĪ Ø¢ÙĪØ±ÛĮ
ĠÚ©ÙĪØ¯ ØªØ§ÛĮ
ĠÙħÙĨØ§Ø· ÙĤÛĮ
ĠÙģÙĤ ÛĮØ±
ĠØ²Ø¯ ÙĨØ¯
1 4
Ù¾ Ø§ÛĮØ§ÙĨ
Ú¯Ø± Ø§Ùģ
ĠØ±ÙĪÛĮ Ùĩ
ĠÙħØ± Ø·ÙĪØ¨
Ø§Ø³Øª ÛĮØ´ÙĨ
ĠØ¯Ø¨ÙĦÛĮ ÙĪ
ĠÙ¾ÙĪØ±ÙĨÙĪ Ú¯Ø±Ø§ÙģÛĮ
ĠÚ© ÙĪØ²
ĠØª Ø§Ø«ÛĮØ±
ĠÙħÛĮ Ø¯Ø§ÙĨÛĮ
ĠÙħÙĪØ³ Ø³Ùĩ
ĠÙĨ ØµÛĮ
ĠÙĩ Ø¯ÛĮÙĩ
as s
ÙĪØ§Ø¯ ÙĪØ±
Ø³ ÙģØ±
ĠØªØ± Ø³ÛĮÙħ
ĠØŃÚ© ÙħØª
ĠØ· ÙĦØ§ÙĤ
ĠÚ©ÛĮÙĦ ÙĪ
ÛĮÚ© Ø±
ĠÙĤ Ø§ÙĩØ±Ùĩ
ĠÚ¯Ø³Øª Ø±Ùĩ
ĠØ¹ Ø§ÙħÙĩ
Ø¢ ÙĤ
ac k
ĠÙħØ³Ø¦ÙĪÙĦ Ø§ÙĨ
Ù¾ Ø§Øª
ĠÙĨØ¨ÙĪØ¯ ÙĨØ¯
ĠÙĦ ÙĪÙ¾
ĠÙĨÙĪØ± Ø«
Ġhttp s
ĠÙĨØ§ÙĪ Ú¯Ø§ÙĨ
ĠÙħ Ø²Ø¨ÙĪØ±
ĠÙģ ÙĩØ±
Úĺ ÙĪ
ĠØ¯ÙĪØ³ØªØ§ÙĨ Ùĩ
ĠØªÙħ Ø§ÛĮØ²
ĠÙħÙĦØ§ØŃ Ø¸Ùĩ
ĠØª ÛĮØ²
ÙĪØ¯ ÙĪ
ĠÙĦÛĮ ÙĨØ¯
ĠØªÙĪØ¬ ÛĮÙĩ
ĠÚ¯ Ø´ÙĪØ¯
ĠØ¢Ø± Øª
ĠØ¬ÙĦ Ú¯Ùĩ
ĠØ§ÙĪØ± Ú¯ÙĨ
ĠÙħÛĮ Ø²Ø¨Ø§ÙĨÛĮ
ĠØ® ØªÙħ
ĠØ² Ùĩ
ĠÙħÙĨØ¸ ÙĪÙħÙĩ
ĠØªØ®Øµ Øµ
ĠØ§Ø³Øª ÛĮÙĦ
ĠÙħÙĨ Ø³ÙĪØ¨
ĠØ¢Ø± Ø³ÙĨ
it h
ÙĪÙĦÙĪ ÚĺÛĮÚ©
ĠØ¨ Ø§Ùĩ
ĠÚ©Ø§Ø± ÙħÙĨØ¯
ĠÙĪØ± ÙĤ
ĠØªÚ© Ø«ÛĮØ±
ĠÙĪÙĨ ÛĮØ²
ĠÙĩØ§ÙĦÛĮ ÙĪÙĪØ¯
ĠØª ÙĦÙĩ
ĠØ¬ Ø§Ø¨Ùĩ
ĠÛĮ Ø§Ø®ØªÙĩ
Û´ Û¸
ĠØ§ÙĦÚ©ØªØ± ÙĪÙħ
ĠÙħØ¹Ø§Ø¯ÙĦ Ø§Øª
ĠØ§Ø³Ø§Ø· ÛĮØ±
ĠØ¬ Ø§ÙĨÛĮ
ĠÛµ Û±
ĠØ³Ù¾ Ø±Ø¯
ĠØ§ÙĨØ¹ Ø·Ø§Ùģ
ĠÙ¾ Ø®Øª
Ø§Ø±ÛĮ Ùĩ
Ø¢ ÙĦØ¨
ĠÛ±Û¹Û³Û ²
ĠÙħØªÙĨ Ø§Ø³Ø¨
l in
Ùģ Ø´Ø§ÙĨ
ĠØŃÙĪ Ø¶
ĠÚ© ÛĮØ±
Ø¨ ÙĪÚ©
ĠÙħÙĨ ÙĪÚĨÙĩØ±
ĠÙĨÙĩ ØµØ¯
ĠÛ±Û³Û· Û°
Ø¨ Ø¹Ø¯
ĠÙģ ÛĮØ²ÛĮ
ĠØ³ÙĪ Ø®ØªÙĩ
Ø§Ø¦ÛĮ ÙĦÛĮ
Ø§Ùħ ÛĮØ±
ĠØ¢Ø± Ø§ÙħÛĮ
ĠÚ¯ÛĮØ± ÙĨØ¯
5 0
ÙĦ ÙĪÚ©
ĠØ´ÙĩØ±Ø¯ Ø§Ø±
ĠÙħØ± Ø³ÙĪÙħ
ĠÙģØ¶ ÙĦ
Ú¯ÙģØª ÙĨØ¯
Ø§Ø´ÙĨ Ø§Ø³ÛĮ
Ùħ ÙĪÙĨØ¯
ĠÙĤ ÙĪØ§Ø¹
ÙĨ Ø§ÙĪ
ĠØ¨Ùĩ Ùħ
ĠØ² ÙĩØ±Ø§
Ú©ÙĦ Ø§
ĠØ§Ø¨ÙĪØ§ÙĦ ØŃØ³ÙĨ
ĠÙĨØ§Ø´ÙĨ Ø§Ø®ØªÙĩ
Ú© Ø§ÙĨÛĮ
ĠØ§Ø± Ú¯Ø§ÙĨ
ĠÚ©Ø± Ø§Ø³
ĠØ« Ø§ÙĨ
ar e
ĠÙĩÙħ Ø§ÛĮØ´
ĠØªØ± Ø§ÙģÛĮÚ©
ĠØ¯Ø§ÙĪ ÙĪØ¯
ĠØ®ÙĪØ¯ÙħØ®Øª Ø§Ø±
ĠØ¬ Ø¨Ø±Ø§ÙĨ
ĠØ± ØµØ¯
ĠØ¨Ø§Ø² ÙħØ§ÙĨØ¯
ĠØ¬ÙĨ Ø§ÛĮÛĮ
ĠØ¯Ø§ÙĪØ± Ø§ÙĨ
ĠÙģØ±Ø§Ø® ÙĪØ§ÙĨ
ĠØª Ø§Ø³
ĠØ¢ Ø±Ø¯
ĠÙĦ ÙĪØ³
ĠØ§Ø¹ ØªØ¨
Ø³ Ø§Ø¨
ĠØ§ Ú¯
ĠÛ· Û°Û°
ĠÙħØ± ØŃ
ĠØ³Ø±Ø¯ Ø¨ÛĮØ±
ĠØ§ÙĨØªØ¸ Ø§ÙħÛĮ
ĠÚ©Ø± Øª
ĠÛ±Û³Û¸Û ±
ag e
ĠØ¨Ø± Ø§Ø¨Ø±ÛĮ
Ú©ÙĦ Ùħ
ĠÙ¾ÙĦÛĮ ÙħØ±
ĠÚ¯Ø±Ùħ Ø³ÛĮØ±ÛĮ
Ø§Ø¯ ÛĮÙħ
Ø¢ ÙĨØ¬
ĠØ¯Ø§Ø± Ùħ
ØªØ§ ÙĪÙĨ
ĠØ³Ø¯ ÛĮÙħ
ĠÚ¯Ø±ÛĮ Ø®Øª
1 7
ĠÙ¾ ÙĪÙĨØ¯
at h
ĠØ®ØµÙĪØµ Ø§
ĠØ¨ÙĤ Ø¹Ùĩ
Ø§ÙĦ ÙĪÚ¯
Ø¯Ø± Ø§Ø³ÛĮÙĪÙĨ
ĠÚĺ Ø§Ú©
ĠØ±Ø³Ø§ÙĨØ¯ ÙĨ
r y
ÙĦ ÙĪØ§ÙĨ
Ø±ÛĮ Ø²Ø¯
ØªÛĮ Ø§ÙĨ
ĠØ§Ø³ Ú©ÛĮ
ÙĨÙĪ Ø§Ø®Øª
ÙĪ Ø§Øª
ĠØ§Ø´ Ø±Ùģ
er v
ĠØ¨Ø± ÙĤÛĮ
ĠÛĮ ÙĪØ±
ĠÙĩÙĪØ± ÙħÙĪÙĨ
Ġ1 0
ĠÙħÙģÙĩ ÙĪÙħÛĮ
ÙĨ ÙĪØ³
Ø±ÙĪ Ø³Øª
Øª ÙĪÙħ
ĠØ¨Ø§ ÙĤØ±
ĠÚ©Ø´ÙĪØ± ÙĩØ§ÛĮÛĮ
ĠØªØºÛĮÛĮØ± Ø§ØªÛĮ
ÙĪÛĮ ÚĺÙĨ
ĠÛµ Û³
ÙĨ ÙĩØ§
ĠØ¹ Ø§Ø¯ÙĦ
ĠÛ¶ Û²
ĠØ§Ø³Øª Ø§ÙĨÛĮ
ĠØ¢ÙĦ ÙģØ±Ø¯
ĠÙĥ Ùĩ
ĠÙĨÙħÙĪØ¯ ÙĨ
o h
ĠØ±ÙĪØ´ÙĨ Ø§ÛĮÛĮ
s s
ĠØ® Ø´ÙĨ
ĠÙħØ±Ø§Ø¬ Ø¹
ĠØªÛĮÙĦ ÙĪØ±
Ø¢ÙħÙĪ Ø®ØªÙĩ
ĠØ² ÙĪØ¯ÛĮ
ĠØªÙģØ±ÛĮ ØŃÛĮ
ĠØ·ÙĪØ§ÛĮ Ùģ
ĠØ§Ø¨Øª ÙĦØ§
ĠÙĨØ§ÚĨ Ø§Ø±
ÙĨ Ø¨Ø±Ú¯
ĠÙ¾ ÙĨØ¯
Ø±Ø¯ Ø§Ùħ
ĠØ§ÙĪ Ú©
ĠØ¢ÙĩÙĨÚ¯ Ø³Ø§Ø²ÛĮ
ĠØ¨Ø§ÛĮ Ø³ØªÛĮ
ĠØ¨Ø³ Ø·
Ø§Ùħ ÙĪ
Ø±ÛĮ Ø´ÛĮ
ÙĪÛĮ ÙĦÛĮ
Ø® ÙĪÙĨ
ĠØ² ØºØ§ÙĦ
ÙĪÛĮ Ú¯
ĠØªØ£ Ø®ÛĮØ±
Ø§Ú¯ ÛĮØ±
u e
ĠØµ ÙģÛĮ
ĠØ¨Ø§Ø´ ÛĮÙħ
ĠØ§Ùħ ÛĮ
Ø®ÙĪØ§Ùĩ ÙĨØ¯
ĠØ´Ø¹ Ø§Ø¹
ĠØº ÙĪÙĦ
Ø§Ø· Ùĩ
ĠÙħØ´Ø§ÙĪØ± Ùĩ
ĠÙħØ´ Ø±ÙĤ
i al
ØŃ Ø§ÙĤ
ĠÚ©ÙĪ ÛĮÙĨ
ĠÙĤ Ø§ØªÙĦ
ĠØ¯ Ø´ØªÛĮ
ĠØ±ÙĪ ØŃÛĮ
ĠØ´ ÙĪÚ©
ĠØ®Ø· Ø§
ĠÛ±Û±Û µ
ĠØ¢Ø¨ÛĮ Ø§Ø±ÛĮ
Ø® Ø§ÙĦ
ÙĪÛĮ Ø¶
Ø³ÙĦ Ø·Ø§ÙĨ
ĠØ±Ø² Ùħ
ĠØºÙĦ Ø¨Ùĩ
ĠØ³ÙĦØ¬ÙĪ ÙĤÛĮØ§ÙĨ
ĠÙĨØ§ÙħØ² Ø¯ÛĮ
ĠÙħ Ø²Ø¯
ĠÙĨ Ø¯Ø±
ĠÙħÛĮ Ú©ÙĨØ¯
Ø³ ÙĪØ²ÛĮ
ĠÙĩ Ø§Ø±Øª
ĠØ´ÙĩØ± Ú©ÛĮ
ĠÛĮ ÙĪØ±Ø´
ĠØ§Øµ ÛĮÙĦ
ĠÛ±Û² Ûµ
ĠÛµ Û¸
ĠØ§Ø³ØªØ± Ø§ØŃØª
ĠØºØ° Ø§ÙĩØ§ÛĮ
ĠÙħØ² Ø§ÛĮØ§ÛĮ
Û´ Û³
ĠÙħÙĪØ³ÛĮ ÙĤ
Øª ÙĪØ³
ÚĨ Ú©
Ø· Ø§ÙĨÛĮ
ĠØ¢ÙĦ Ø§Ø³Ú©Ø§
ĠØ®ÛĮ Ø§ÙĨØª
ÙĨÚ¯ Ø±ÛĮ
ĠØ´Ø®Øµ ÛĮØªÛĮ
ÙħØ± Øº
ĠØ³Ø§Ú© ÙĨÛĮÙĨ
k a
ĠØªØ¨ Ø±ÛĮØ²ÛĮ
ĠØµØ±Ùģ Ùĩ
ĠØª Ø¨Ø±
Ø¹ Ø²
ĠØ¹ ÛĮØ¯
ĠØ§ØŃ Ú©Ø§Ùħ
ĠØ³Ø® ÙĨÚ¯
ĠØªØ£Ø«ÛĮØ± Ø§Øª
ĠØ³ ÙĩØ±
ĠÚ¯ Ø³
ĠÙģØ± Ø´ØªÙĩ
ĠØ§ØªÙģØ§ÙĤ Ø§Øª
Ø± Ø¦
ĠØ± Ø¨ÛĮ
ĠÙĩ Ø§Øª
ĠÙĩ Ø§ÛĮÙĨ
ĠÙĤØ¯ Ø³
ĠÛ¸Û ¸
ĠÛ±Û¹Û² Û±
ÙħØŃ ÙĪØ±
ĠÙĪØ§ÙĦ ØªØ±
ĠØªØ¨ÙĦÛĮØº Ø§ØªÛĮ
ĠØ¨ Ø§Ø·
ĠØ³Ø® ÙĨØ§ÙĨ
ĠØ¹Ùħ Ø±Ø§ÙĨ
Ú¯Ø±ÙģØª ÙĨØ¯
ĠØ¯Ø± Ø³ÛĮ
ÙĤ ÙĪÙĩ
S O
Ø§Ùĩ ÙĨ
ĠÙĦ ÙĨØ²
ĠØ¹ÙĤ Ø§Ø¨
ĠØ³ÙĨØ¬ Ø´
w eb
ĠØ§ÛĮ ÙĦÛĮ
ĠÙħÛĮ ØªÙĪØ§ÙĨ
Ø® ÙĪØ´
ĠÚ¯ÙĦ Ø¯ÙĨ
Ø¯ ÙĦÛĮÙĦ
t a
Ø§Ø² Ø¯
Ø§ÙĪ Ø§Øª
ĠÙĨÙģ Ø±ÛĮ
Ġ e
Ùģ Ø³ÛĮ
Ú¯Ø° Ø´ØªÙĩ
ĠØ±ØŃ ÛĮÙħ
Ùģ ÙĪØ±Øª
ĠØ± ÙħØ§ÙĨÛĮ
ĠØ§ÛĮ Ùħ
ĠÛ±Û³Û· Û¶
ĠØ²Ùħ Ø³ØªØ§ÙĨÛĮ
ĠØ¢Ø¯ Ø§Ø¨
ĠÙĨ ÙģÛĮ
ĠÛĮ Ø§Ùħ
ĠÙ¾Ùĩ ÙĨØ§ÛĮ
) ,
ĠØªÙĪØ± Ø¨ÛĮÙĨ
ĠØ³ ÛĮØª
ĠØ± ÛĮØ¯
ĠÚ¯Ø§Ùĩ Ø´ÙħØ§Ø±ÛĮ
Ø±Ø² Ø§Ø¯Ùĩ
Ùħ Ø±Ú©Ø²
ĠØ±ÙĪØ¯ Ø¨Ø§Ø±
ĠØ¹Ø±ÙĪ Ø³
Ú¯Ø´ Ø§ÛĮÛĮ
Ú¯ ÙĦÛĮ
ĠØ¬ Ø§Ø¯ÙĪ
ĠÙĦ Ø§ÙħÙ¾
ĠÙĦ Ùħ
ĠØ±Ø§Ø¨ ÛĮÙĨ
Û±Û³Û µ
ĠØ§Ø³ØªÛĮ ÙĪ
ĠÙħÙħÙĨ ÙĪ
Ø¯ ÙĨØ¯Ùĩ
ĠÙģ ÙĪÚ©
ĠØ§Ø³ Ú©ÙĦ
ĠØ§Ø± Ø¨Ø§Ø¨
ĠÚ¯Ø±Ùħ Ø§ÛĮÛĮ
ĠØ±Ø§Ø¬ Ø¹
ĠÙħ Ø§Ø³Øª
Ú¯ Ø§Ø³
Ø« Ùĩ
Ġ1 2
ĠØ§Ø±ØªÙĤ Ø§Ø¡
ĠÙĪ ÙĨØ¯
ĠÙģØ± Ø§ÙĪØ±Ø¯Ùĩ
ĠÙħØ¬ ÙĦ
ĠØ±ÙĪØŃØ§ÙĨÛĮ ÙĪÙĨ
Ø§Ø± Ø¨
ĠØ§Ø³Ù¾ Ø±Ø§ÙĨ
ĠØªØ£Ø³ÛĮØ³ Ø§Øª
ĠÛ±Û³Û· Ûµ
ĠÙħ ÙĪØ±ÛĮØ³
ĠØ¯Ø± Ø®ØªÛĮ
ĠØºÛĮØ± ÙĨØ¸Ø§ÙħÛĮ
ĠØ®ÙĪØ± Ø§Ú©
ĠØ³ÛĮÙħ Ø§ÛĮ
ĠØ·Ø¨ÙĤ Ø§Øª
ĠÙĩ ÙĪØ§ÙĨ
Øº Ø¯
ĠØ§Ø¹ ØµØ§Ø¨
ĠÚ©ÙĪ ÛĮØ±
ĠÙħØ·Ø¨ ÙĪØ¹
ĠÛ±Û¹Û±Û ´
ĠØªØ§ÙĦ Ø§Ø¨
ĠØ¹Ø´ Ø§ÛĮØ±
Ø¯Ùĩ ÛĮÙħ
ĠÙħÛĮ Ø³ÛĮ
ĠÙĩ Ø§Ù¾
ĠØ¨Ø± Ú¯Ø±Ø¯Ø§ÙĨ
[ [
Ø¬ ÙĪØ±
ĠÙħØ±Øª ÙģØ¹
ĠØ¢ÙĨ Ø§ÙĦÛĮØ²
ĠØ¯ÙĪ Ú¯Ø§ÙĨÙĩ
ĠØ³ÙĨ Ø§
ĠÙĩÙħ Ø¨
Øº Ø±Ø¨
ĠÙħÙĩ Ø¯
ĠÙħÙĪØ³ Ø³Ø§Øª
ĠÙħØ¹ Ø§ÙĩØ¯Ùĩ
ĠÙĨØ¨Ø± Ø§Ø³Ú©Ø§
ĠÙ¾ ÛĮÙĦ
ĠÙĦ Ø±ÛĮ
ĠÚ©ÙĦ Ø³ÛĮÙħ
ÙħÙĨ Ø¸
ÙħØŃ Ø§ÙĦ
ÙħÙĨØ· ÙĤÙĩ
ĠÙĨ ÙĪØ±Ø¯
ĠØ¬Ø¹ ÙģØ±ÛĮ
p ort
ĠØªØµ ØŃÛĮØŃ
ĠØ±Ø³ Ø§ÙĨÛĮ
Ø¨Ø§Ø² ÛĮÚ©ÙĨ
ĠØ® Ø§ÙĪØ±ÛĮ
Û¶ Û²
ĠØªØµ ÙĨÛĮÙģ
ĠÛ±Û¹Û±Û µ
ĠØ¢Ú©Ø³ ÙģÙĪØ±Ø¯
ĠÙħÛĮ Øª
ĠØ¨ÛĮØ§ÙĨ Ú¯Ø±
ĠÙħØ¸ ÙģØ±
ĠØ¹ÙĦ Ø§ÙħÙĩ
ĠØ§Ø¨ÙĪØ§ÙĦ ÙĤØ§Ø³Ùħ
ÙĦØ³ ÙĪÙĨ
ĠÙħÙĨØŃ Øµ
Û´ Û¹
ĠØ´ÙĨ Ø§
ĠÙĪÛĮÙĦ Ø³ÙĪÙĨ
ĠØ§Ú©ØªØ´ Ø§Ùģ
ĠØ®ÙĨ Ø«ÛĮ
2 01
ÙĪØ± Ùħ
Ø²ÛĮ Ø±ÛĮ
ÙĤØ± Ø§Ø¶
Ø¨ÙĪ ØªØ±
ĠÚ¯Ø°Ø§Ø´Øª ÙĨ
ĠØ¹Ú© Ø§Ø³
ĠÙħÙĪØ¶ Ø¹
ĠÙ¾ ÙĪØª
ĠÙ¾ÙĦ Øª
ĠT h
ÛĮ Ø¹
ĠÚ©Ø´ ÛĮ
Ú©ÙĦ ÙĨ
ĠÙģ ÛĮØ´
ĠÛ±Û¹Û³Û ±
ÙģØ¹ Ø§ÙĦ
ÙħÙĩ Ø¯ÛĮ
ĠÙģØ±Ø§ÙĨ Ø³ÛĮØ³
ĠÚ¯ÙĪÛĮ Ø§
m ent
ĠØ³ Ø§Ø¨
ĠØªØµØ§Ø¯ Ùģ
ĠØ¯Ø± ÙĪØ³
Øª Ø¹
Ø³Øª ÙħÛĮ
ĠÚ¯Ø± Ø§ÛĮÛĮ
ĠØ³ÙĪ Ø§Ø¯
ĠØ®Ø± Ø¯Ùĩ
ĠØ§ØªÙģØ§ÙĤ ÛĮ
ÙĨØ¸ Ø§Ùħ
ĠÙħØ´Ø§Ø¨Ùĩ ÛĮ
Ø³Ùģ Ø§ÙĨÙĩ
ĠØ¢ÙĨ Ú¯
ĠØµ Ø±
Ø´ Ø±Ú©Øª
ĠØµÙĦÛĮ Ø¨
ĠØ¯Ú¯Ø± Ú¯ÙĪÙĨÛĮ
Ø± Ø§ÙĦ
Ù¾ Ø§ÛĮÛĮ
ĠÙĦ ÙĪØ³ÛĮ
ĠØµÙĪÙħ Ø¹Ùĩ
on e
ĠÛĮØ§Ø¯ Ø¯Ø§Ø´Øª
ĠÚ©Ø±ÛĮØ³Øª ÛĮÙĨ
ÙĨ Ø®
ĠØ§ÙĦ Ø³
ĠØ±ÙģØª Ø§Ø±ÛĮ
ĠÙ¾Ø±Ø¯ ÛĮØ³
ĠÙģØ±Ø§Ùħ ÙĪØ´
ĠÚ© ÙĨÙĪØ§ÙĨ
ØªØ± ÙĨ
ÙĨØ¯Ùĩ Ø§
ĠØªØ±Ú© ÙħÙĨ
ĠØªÙĩØ§Ø¬ Ùħ
ĠÙĪÙĨØ² ÙĪØ¦ÙĦØ§
ĠÙģ Ø®Ø±
ĠØ®ÛĮ Ø±ÛĮÙĩ
Ã ¼
Ùħ Ø§Ùħ
Ú© ÙĪØ´
ĠØ§ÙĤØªØ¨ Ø§Ø³
ĠÙħÙĨ Ùĩ
ĠÙģØ± Ø§Ø±ÛĮ
ĠÚ¯ÙģØª Ø§Ø±
ĠÛ¹Û ³
ĠØ¬ØºØ±Ø§ÙģÛĮ Ø§ÛĮ
ĠØ´ Ø§ÙĨÙĩ
ĠÙħÙĨ Ø§Ø²
ĠØ§Ø³ Ø§Ø±Øª
ÛĮØ²ÛĮ Ø§ÙĨØ§
ĠÙħØ² ÛĮØª
ĠÙħØ³Ø§Ùģ Ø±Ø§ÙĨ
ĠÙģØ¶ Ø§Ù¾ÛĮÙħ
ĠÙĦØ´Ú© Ø±Ú©Ø´ÛĮ
ĠÙħØ¯ Ø§Ø®
ĠÙĨÙĤ ÙĦÛĮÙĩ
ĠØ¹ÙĦ Ùģ
or e
ĠØ±ÙģØª Ø§Ø±ÙĩØ§ÛĮ
ĠÛ±Û¹Û² Û¸
ĠÙĪØ§Úĺ Ú¯Ø§ÙĨ
ĠØ¯Ø§Ø¹ Ø´
ĠØ± Ø¨Ø§Øª
ĠØ¢ÛĮ Ø§Øª
Ø¹ Ø§Ùħ
ĠÙ¾ ÙĪÛĮØ§
ĠÚ©ÙĨ Ùħ
Û· Û²
ÙĪØ¦ ÛĮÙĩ
ĠÙ¾ÙĦ Ø§Ø³ØªÛĮÚ©
ÙĨ ÙĩØ§ÛĮØª
ĠØ§ÙĪ Ø³
ĠÙĨØ³ Ø¨
ĠÙħ Ø§ÙĪØ±
ÙħÛĮÙĨ Ùĩ
ĠÙħÙĤ ÛĮÙħ
ĠØ¹Ø±ÙĪ Ø³ÛĮ
ĠÙĪØ§Ù¾ Ø³ÛĮÙĨ
ĠØ´ Ø§Ø¯ÛĮ
ĠÛĮÚ© Ø¨Ø§Ø±
Øµ Ø¯ÛĮ
ØªÙĪØ§ÙĨØ³Øª ÙĨØ¯
Ø¨ ÛĮØ§
ĠØ¨Ø§ Ú©
n a
Ø§Ú© Ø¨Ø±
ĠØ®Ø¨Ø± ÙĨÚ¯Ø§Ø±
Ø¢Ùħ Ø¯Ùĩ
ĠÛ±Û³Û· Û¹
i er
Ûµ Û°Û°
ĠØ° ÛĮ
ĠÛ¹Û ¸
ĠØ¬Ø³ ÙħÛĮ
in d
Û³Û ¹Û
ĠÙĨØ§Ø¯Ø± Ø³Øª
ĠØ§ÙĪÙĦ ÙĪÛĮØª
ĠÙĨØ¯ Ø§Ø¯
ĠØ³ÙĨØ¯ Ø±Ùħ
ĠÚ©ÙĨÙĪØ§ÙĨ Ø³ÛĮÙĪÙĨ
ĠØ± Ø§ÛĮØª
ĠØº Ùħ
ĠØº Ø²
Ø´ÙĨØ§Ø³ ÙĨØ¯
ĠØ´Ø¯ ÛĮØ¯ÛĮ
ĠØŃÛĮ Ø§ØªÛĮ
ĠÙħÙĪÙĨ ØªÙĩ
ĠÙĪ Ø§Ø¶
ĠØ± ÛĮÙĨ
ĠÚ©ÙĦ Ø§Ø±Ú©
ĠÚ¯ÙĪ Ø§Ùĩ
ĠØ±Ø§ÙĨ ÙĨØ¯Ú¯ÛĮ
ĠØ§Ø¹ØªØµ Ø§Ø¨
ĠÙĪ Ø±Ø¯
ĠØ´ Ø§ÙĦ
ÙĪØ´ ÙĨ
ĠØ¨Ø§ÙĨ ÙĪØ§ÙĨ
ĠØ·Ø§ÙĦ Ø¨Ø§ÙĨ
ĠÙĤ ÙĪÚĨ
ĠÙĩØ§Ø± ÙĪØ§Ø±Ø¯
ĠT r
Û· Û¸
ĠÙģÙĦ Ø§Øª
ĠØ³Ø§ÙĦÛĮ Ø§ÙĨÙĩ
ĠØ¬ ÙĪÙĨÛĮ
ĠØ´Ùħ Ø±Ø¯Ùĩ
ĠØ¢Ø²ÙħØ§ÛĮØ´ ÛĮ
ĠÙĤØ±Ø¨ Ø§ÙĨÛĮØ§ÙĨ
ĠØ¹Ø±Ùģ Ø§ÙĨ
ĠÙĩ ÙĪÙĨ
ĠÚ¯ÙģØª ÙĨØ¯
ĠØ¨ØŃ Ø±Ø§ÙĨÛĮ
ĠØ§Ø±Ø²Ø´Ùħ ÙĨØ¯
ĠÚĨÙĩØ§Ø± ÙħØŃØ§ÙĦ
ĠÙĨØ§Ú¯ ÙĩØ§ÙĨ
Ä ģ
ĠØ¨Ø§Ø±Ø¯ Ø§Ø±ÛĮ
ĠØ¢ÙĨØªÙĪÙĨÛĮ ÙĪ
ĠÙĩÙģ Ø¯ÙĩÙħ
ĠÙĤ Ø±ÛĮØ¨
ĠØŃÚ© Ø§ÛĮØª
ĠÙģØ±Ø¯ Ø±ÛĮÚ©
ĠØ®ÙĪØ§Ø± Ø²Ùħ
ĠØ³Ø§ÙĨ ØªØ§
ĠØ±ÙĪØ§ÙĨ Ø´ÙĨØ§Ø³ÛĮ
ĠÙ¾ÛĮØ´ Ùĩ
Û±Û¹Û ²
ĠØªÙĤØ§Ø¶ Ø§
ĠÙĨÚĺ Ø§Ø¯ÛĮ
Ġ i
ĠÙħÙĨØªØ® Ø¨
Ùģ ÛĮØ±
ĠØ´ Ø±ÛĮÚ©
ØªÙĪ Ø§ÙĨÛĮ
ĠØªÙĪ ÙĤÛĮ
ĠÙħØ¬ Ø±ÙĪØŃ
ĠØ¨ Ø·
Ú¯ Ø§Ø±Øª
ÙĤ Ø§ÙĨÛĮ
ĠØ§Ø² Ø¬ÙħÙĦÙĩ
ĠØ¨Ø± ØªØ±ÛĮÙĨ
ĠØ§ÙĨØ¯ ÛĮØ´
ĠØ· ÙĪÙģØ§ÙĨ
ĠÚ©Ùħ Ø¨Ø±ÛĮØ¬
ĠØ§ÙĦÙħ Ø§Ø³
ĠØ³ÙĦØ§Ùħ ØªÛĮ
l d
ĠÚ¯ ÙĪØª
ĠÙ¾Ø§Ø´ Ø§
ÚĨ ÙĨØ§ÙĨ
Û¶ Û±
ion al
ĠØ§Ø³Ø± Ø§Ø¦ÛĮÙĦÛĮ
ÙĦÛĮ ÙĤ
Ø²Ø§Ø¯ Ú¯Ø§ÙĨ
ĠÙħØªÙģÙĤ ÛĮÙĨ
ĠÙĪ ÙĪ
ĠØ¹ Ø§ÛĮÙĤ
Ø© Ø§ÙĦ
ĠØŃ Ø§ÙħÛĮØ§ÙĨ
ÛĮØ³ ÙĪÙĨ
ĠØªØ¹ Ø¨ÛĮØ±
ĠÚ©Ùģ Ø´
ĠØªØ±ÙĪØ±ÛĮ Ø³Ùħ
ĠÙħØ¨Ø¯ Ø£
ÚĨ ÙĨÚ¯
ĠÚ©Ø±Ø¯ Ùħ
ĠØ¯Ø§Ø± Ø§ÙĦ
ĠÙĩÙħØ§ÛĮ ÙĪÙĨ
ĠØ¨ÙĦ ÙĪØ§Ø±
ĠÛ±Û¹Û² Û´
ĠØ¨Ø§Ø¯ Ø§Ùħ
ĠÚ© Ø±ÙĪØ²
ĠØ³ Ø§Ø±Ø§
ĠÙģ Ø§Ú©Ø³
ĠÙ¾Ø± Ø´
Û¸Û ±Û
ĠÙħØ³ÛĮØ± ÙĩØ§ÛĮ
ĠØ¨Ø§Ø±Ø³ÙĦ ÙĪÙĨØ§
Ù¾ ÙĪ
ĠØ¨Ø± ÙĪØ³
ĠØ² Ø§Ø±
ĠÙĦ ÙĨÛĮÙĨ
ĠØ´ Ø§ÙĨØ³
ĠØ¢ ØªÙĦ
Ø§Ø±ÛĮ Ø§
ĠØ³Ø± ÙĩÙĨÚ¯
am p
ĠÙħØ´Ø±ÙĪ Ø·
ĠØ¨Ùħ Ø¨Ø§Ø±Ø§ÙĨ
Ú© Ø¯Ø§Ùħ
ĠÙĤ ÙĪØ±
ÙĪÙĨØ¯ Ø§
Ú© ÙĪØª
ĠØŃ Ø§Ú©ÛĮ
Ø§ÙĦÛĮ Ø§ÛĮ
} ,
ĠØº Ø²ÙĦ
ĠÙħØ³ÛĮ Ø±ÛĮ
ÚĨÙĩ Ø§Ø±
ĠÙĦÙĪØ¦ ÛĮØ²ÛĮØ§ÙĨØ§
ï »
ĠÙĦØ§ÛĮ ØŃÙĩ
ĠØ§Ø¹ÙĦØ§Ùħ ÛĮÙĩ
____ ____
ĠÙĨÙĪ Ø§Ø®ØªÙĨ
ĠÙħØ± ÙħØª
ĠÚ©ÙĦ Ùħ
ĠØ§Ø³ØªÙĪØ¯ÛĮ ÙĪÛĮÛĮ
ĠÚ©Ø§Ø±Ø§Ú© ØªØ±
ĠÙĤÙĪØ§Ø¹ Ø¯
ĠÙĪ Ø·ÙĨ
ĠÙħÛĮ Ú©Ø±
ÛĮÙĨ Ø³
ĠÙ¾ Ø§ÙĨØ²Ø¯ÙĩÙħ
Õ¡ Õ
ĠÙ¾ Ø´ØªÙĩ
ĠØŃ Ø§Ø¦
ĠÚ©Ø§Ø± Ú¯Ø±ÛĮ
ĠÛ±Û³Û· Û¸
ĠØ¢ Ø¦ÛĮÙĨ
ĠÙħÛĮ ÙĦÙĩ
ĠÙĨØ´Ø§ÙĨ Ú¯Ø±
ĠÙĦÛĮÙĨ ÙĪÚ©Ø³
ĠØ¨Ø± Ø¢ÙĪØ±Ø¯Ùĩ
Ø§ÙĨÛĮ Øª
ÛĮØ¯ ÙĨÛĮ
Û°Û ³Û
ĠØ±ÛĮ Ø®Øª
Ġ for
ĠØ§ÛĮ ÙĨØ¯
Ø§Ø±ÛĮ Ø¯
ĠÙħØ¬ ÙĦØ§Øª
ÙħØ± Ø§ÙĨÛĮ
ĠÙĨÛĮÙĪØ² ÛĮÙĦÙĨØ¯
ĠØ³ Ø²Ø§Ø±
ĠÙħØ³Ø§ÙģØ± Ø¨Ø±ÛĮ
ĠÙħÛĮØ´ ÙĦ
ĠØªØ§Ø² Ú¯ÛĮ
ĠÙĩØ± Ùħ
ĠØ¯ ÙĦÛĮ
ĠØ³Ø± Ø§Ø¨
ĠØ§ÛĮØ± Ø¬
ĠØ´Ø¬ Ø§Ø¹
ĠØ§Øµ Ø±Ø§Ø±
Ûµ Û±
ÛĮ Ø§Ø¨ÙĨØ¯
ÙĪ Ø¨Ùĩ
ĠÚ© Ø¨Ø¯
Û· Û±
Û¶ Û¸
ĠÚ¯Ø±Ø§Ùģ ÛĮÚ©ÛĮ
oc k
ĠØ¬ ÙĪØ²
Û· Û¹
ĠØ´Ùĩ Ø§Ø¨
ĠÛĮØ¹ÙĤ ÙĪØ¨
Ù¾Ø± Ø³Øª
ĠØ¨ÙĨÛĮØ§ÙĨ Ú¯Ø°Ø§Ø±
Ø³ÛĮ Ø§Ùĩ
ĠØ¨Ø§Ø¨ Ú©
Ø³Ùģ ÛĮØ¯
Ø§ÙĨ Ø³ÛĮ
ĠØº Ø±ÙĤ
ĠØŃÙĦ Ø§ÙĦ
ĠØ¨ Ø§Ø¨ÛĮ
ĠØ¨ÙĪØ¯ Ø§ÛĮÛĮ
ĠØ®ÙĪØ±Ø¯ Ú¯ÛĮ
Ø§ ÙĬ
ÙĪÙĨ ÙĪ
ĠÙĤ Ø§Ø¦ÙĦ
ĠØ§ØŃ Ø§Ø·Ùĩ
ĠU n
ÙĦÛĮ ÙħÛĮ
ĠD NA
Ø¢ÙĩÙĨÚ¯ ÛĮ
ÙħØª Ø±ÛĮ
ÙĪÚ¯ ÙĪØ¦Ùĩ
ĠÙħØ¯ÛĮ Ø±ÛĮ
Ġ y
ĠÚ© Ø§Ø´Øª
Ø¢ÙĦØ¨ ÙĪÙħ
ĠÚ¯ ÙĦÙĩ
ĠØ§Ø¬ Ø§Ø±Ùĩ
Ø²Ø¨ ÙĪØ±Ú¯
ĠÙĦÙĪ ØŃ
ĠÙĤØ¨Ø± Ø³
ĠÙĦ ÙĪÛĮÛĮ
ĠØ¨Ø§Ø² ÙħØ§ÙĨØ¯Ùĩ
ĠØ³Ø± Ø³
ĠØº Ø±
Ûµ Û³
ĠØ³ÙĪ Ú¯
ĠÛĮ Ú¯Ø§ÙĨ
ĠØªÙĨ ÙģØ³ÛĮ
ØªÙĪ ÙĦÛĮØ¯
Ø®ÛĮ ÙĦÛĮ
Ġ13 9
ĠØ¨ Ú¯Ø°Ø§Ø±Ø¯
ĠØ±ÛĮ ÙĪØ±
ĠØ¨Ø± Ø¢ÙħØ¯
ĠÛ±Û³Ûµ Û¹
ĠØ± Ø§ØŃØª
ĠØ²ÙĨ Ø¨ÙĪØ±
ĠÙĤØ¶Ø§ ÙĪØª
Û· Û³
ĠÚĨÙĩØ§Ø± Ø¯ÙĩÙħ
Ø±ÛĮ ÙĦ
ÙģØª Ú¯ÛĮ
ĠÙĪØ² ÙĨÙĩ
ĠØ³ÙĦØ¬ÙĪ ÙĤÛĮ
ĠØ¢ ÙĨØ¯Ø±
ĠÙĨØ§Ùħ Ø¯Ø§Ø±
Ã ¡
ĠÙĨ Ú©ÙĨØ¯
ĠÚ¯ ÛĮÙĨÙĩ
ÙĪÙħ Ú©
ĠÚ©Ùħ Ú©ÛĮ
ÙĪÙģ Ø§
ĠÙħØ· Ùħ
ĠØ´Ú© ÙĪÙĩ
ĠA n
ĠÙ¾ÙĨ Ø¨Ùĩ
ĠØ§Ø³ØªØ±Ø§Øª ÚĺÛĮÚ©
Ùģ Ø±ÙĪØ´
Ø§ÙĤ Ø¨
Ø² Ø¨ÛĮ
ĠÙĩ Ø§Ø¯
ĠØ³ÛĮ Ùģ
ĠØ¨ÛĮØ´ ÛĮÙĨÙĩ
âĢ İ
ÛĮØ¯Ùĩ Ø§
ĠG r
ĠØ§ÙģØ³ Ø±Ø¯Ú¯ÛĮ
ĠØ§ÙĤ Øª
ĠØ¨Ùĩ Ø§ÙĨÙĩ
ĠÙģ Ùĩ
ÚĨ ÙĦ
ĠØ´ÙĨ Ø§Ø³ÛĮ
Ùħ ÙĪÙĨÛĮ
ĠØ± Ø§Ø²ÛĮ
Ø§Ú© Ø³ÛĮØ¯
ĠØ±ÙĪØ³Øª Ø§ÙĩØ§
ĠØªØ¨ Ø¹ÛĮ
ĠÚĨÙĩØ§Ø± Ø¯Ùĩ
Ú¯ÛĮØ± ÙĨØ¯Ùĩ
ĠÙĦ Ø§ÙĩÛĮ
ĠØ¢Ø± Ø§ÛĮØ´
ac t
ĠÙħØ§Ø±Ø´ Ø§ÙĦ
ĠØ§Ø±ÙĨ Ø³Øª
A C
ÙĨØ¯ Ø¬
ĠØ¢ÙĦØ¨ ÙĪÙħÛĮ
ÙĨÙĪÛĮØ³ Ø§ÙĨ
ĠÛ±Û¹Û±Û ²
ĠØ¨Ø±Ú©ÙĨ Ø§Ø±
ĠØªØ® ØªÙĩ
a f
ĠØ¯ÛĮ ÙĪÛĮØ³
ĠÛĮ ÛĮ
Ø¢ Ø¨ÛĮ
ĠØ®ÙĪØ§Ùĩ ÛĮÙħ
ĠØ§Ø±ØªÙĤ Ø§
. )
A S
ĠØ¯ÙĪ Ø´ÙĨØ¨Ùĩ
Ûµ Û²
Ø¹ Ø§ÙĨ
ĠØ® ÙħÛĮØ±
ĠÙĦ Ø§Ø±ÛĮ
Ø§ÛĮØ´ Ø§ÙĨ
ĠØ³ Ø¬
Ø³ÛĮ ÙĪ
ĠÙħÙĨ Ø¬
ĠÙħØº Ø±Ø¨
Ù¾Ø¯ ÛĮØ§
Ùĩ ÛĮØ¯
ĠØ¨Ø± Øª
ĠÚĨ Øº
Ù¾ ÙĨØ¯
ÙĪØª ÙĪÙ¾
ĠÚ¯Ø± ÙħØ§ÛĮ
ĠØŃØ¯ ÙĪØ¯ÛĮ
ÙĦ Ø§Ø·
ĠØ§ÙĨØ¬ ÛĮÙĦ
ĠØ¨Ø§Ø´ ÛĮØ¯
Ø¯ Ø§Ø¯Ùĩ
ĠØ· Ø¨Ø±ÛĮ
ĠØ´Ø± Ø§Ø¨
ĠØ±Ùģ Ø§Ùĩ
Ø¦ ÙĪÙĦ
ĠØªÙĤØ¯ ÛĮÙħ
ĠØ³Ø± Ú¯Ø±ÙħÛĮ
ĠÂ ·
ĠØ¢ÙĦ Øª
Ø¨Ø§Ø´ Ú¯Ø§Ùĩ
ĠP ar
ÙħØ« ÙĦ
ĠÙĨØ¹ ÙħØª
ĠÙ¾ÙĦ Ø§Ú©
Ø±Ùģ Ùĩ
ĠØªÙħ ÛĮØ²
ĠØ¢Ø± ÙħØ§ÙĨ
ĠØ³ÛĮÙĦ ÛĮÚ©
ĠØ´ÙĨÛĮ Ø¯Ùĩ
a u
o od
ĠØ¨Ùĩ ØªØ±ÛĮ
ĠØ¨Ø±Ø®ÙĪØ±Ø¯ ÛĮ
ĠØ±Ø¶ Ø§Ø´Ø§Ùĩ
ĠÙħØ®Ø§Ø¨Ø± Ø§Øª
ĠØ¢ÙĨØ§Øª ÙĪÙĦÛĮ
Ø³ÛĮ Ù¾ÛĮ
Ø§Ú© Ø±
ĠØ±ÙħØ² ÙĨÚ¯Ø§Ø±ÛĮ
Ø§Ùħ ÛĮÚ©ÛĮ
Û°Û ¹Û
Û¶ Û³
ĠÙĨØ´ Ø³ØªÙĩ
ĠØ¸ Ø±ÛĮÙģ
ĠØ¬Ø§Ø³ ÙĪØ³ÛĮ
ĠØ³ÙħÙģ ÙĪÙĨÛĮ
ĠØ¨ Ø§Ø¨Øª
ĠÙĦ Ø±Ø¯
ĠØ¨ÛĮ Ú¯Ø§ÙĨÙĩ
ĠÛ±Û±Û ²
ĠØ¨ Ú©Ø±
Ø¬ ÙĨØ¯
Ø¢ Øº
ĠØ¢ØªØ´ ÙģØ´Ø§ÙĨ
ĠØ±Ø¨ Ø§Ø·
ĠÙĨ Ø§Ø¯ÛĮ
ĠÙĪ Ø¶ÙĪ
ĠØ¢ÙĨØ¯ Ø±Ùĩ
ĠÙĩÙħ Ø³Ø§ÛĮ
Ø±ÙĪ Øª
Ø« Ø±ÛĮ
ĠØ§ÙĦ Ú¯ÙĪ
Ø§Ø¬ Ø¹Ùĩ
Ú¯Ø° Ø§Ø´Øª
la t
Ûµ Û¸
ĠØ¬ÙĨ Ø¬
ĠØ¬Ø¯ Ø§Ø³Ø§Ø²ÛĮ
Ø® Ø§Ø·Ø±
ĠØ² Ø§Ø¦
ĠØ¢ÙĨ ØªÙĨ
ĠÙħÙĦ ØŃÙĤ
ĠÛ¹Û ±Û
ĠØ§Ø³ØªØ¹Ùħ Ø§Ø±
ĠØ¨Ùĩ Ø§Ø¯Ø§Ø±
ĠØ² Ø§Ùħ
ĠÙ¾Ø³ Ø±ÛĮ
ĠÚĨØ´Ùħ Ú¯ÛĮØ±ÛĮ
ĠÙħØº ÙĦÙĪØ¨
ĠÛ±Û³Ûµ Û¶
Ø¨ Ø²Ø±Ú¯
Ù¾ ÙĪØ±Øª
ĠÙħØ§ÙĨØ¯ Ú¯Ø§Ø±
ĠØ¯Ø§Ú¯ ÙĦØ§Ø³
Ø¬ Ú©
om p
y s
Ø³ ÙĪØ²
ĠØªÙĪ Ùĩ
ĠÙ¾ÛĮØ± Ø§ÙĩÙĨ
ĠÛ±Û¹Û² Ûµ
ĠØ§ÙĦÚ©ØªØ±ÙĪÙħ ØºÙĨ
ĠØªÙĨ Ú©
ĠØ¢Ø° Ø±ÛĮ
ĠÙħØªØ£ Ø³ÙģØ§ÙĨÙĩ
Ø¨Ø± Ø§
ĠÙĤ ÙĪØ³
ĠØªØµ ÙģÛĮÙĩ
ĠÙħØ±Ø¨ÙĪØ· Ùĩ
ĠØ¨ ÛĮØªÛĮ
ĠØ¨ Ø²ÙĨØ¯
ĠÚĺØ±Ùģ Ø§ÛĮ
ĠÚ© ÙĦÙĩ
ĠÙĩØ³Øª Ùħ
Ø´Ø¯ ÛĮØ¯
ĠÙ¾Ø¯ Ø±ÛĮ
ĠØ§ÙĦØªÙĩ Ø§Ø¨
ĠÙĪØŃ Ø´
Ø¨ÙĪØ¯ ÙĨØ¯
ĠÛ±Û±Û ´
ĠÙĦÙģ Ø¸
ĠØª ÙģØ±
ĠØ¢ÙĨ Øª
Ø¨Ø¹ Ø¯ÛĮ
Ø¯ Ø§Ø³ØªØ§ÙĨ
ÛĮÙĦ ÙĪ
ĠÙħØ³ Ùħ
ĠÙħØ³ Ø§ÙģØª
ĠÙħØŃØ§Ø³Ø¨ Ø§ØªÛĮ
ĠÛĮØ² Ø¯ÛĮ
ĠØ¨Ø´ Ø±ÛĮ
ĠÚ¯ Ø±ÛĮØ²
ĠØªØ´Ú©ÛĮÙĦ Ø§Øª
ĠÚ¯Ø´Øª Ø§ÙĪØ±
ĠÙĨØŃ ÙĪ
ĠØ³ÙĨÚ¯ Ø§Ù¾ÙĪØ±
ĠÙħØ±ØŃ ÙĪÙħ
2 00
I S
ĠÙģØ¶ Ø§ÙĨÙĪØ±Ø¯
c he
Ú¯ ÙĪØ¯
Ø§Ùĩ Ùĩ
ĠÙ¾Ø§ ÙĪÙĦ
ĠÙħØ´Øª ÙħÙĦ
ĠØ§ÙĨ ÙĤØ±Ø§Ø¶
ĠØ§Ø± ÙĪÚ¯ÙĪØ¦Ùĩ
Ø¨ÛĮ Ø±ÛĮ
Ùģ Ùģ
ĠØ§Ø³ Ø§Øª
ĠØŃÚ© ÙħØ±Ø§ÙĨÛĮ
ĠÛ±Û¹Û² Û·
Û±Û¹Û ³Û
Ø§Ø¦ÛĮ Ø§ÙĨ
ĠÚ¯Ø±Ø¯Ø´ Ú¯Ø±Ø§ÙĨ
ĠÙĦÙĪØ¦ ÛĮ
Ùħ ØŃÛĮ
Û°Û ¸Û
ĠÙħØ¹ Ø¯Ùĩ
ĠÙĨÛĮ Ø¬
Ø®ÙĪØ§ÙĨ ÙĨØ¯
ĠÚ¯Ø²Ø§Ø± Ø´ÛĮ
ĠØªØŃÙĪÙĦ Ø§Øª
Ø¯ ÙĪØ³Øª
ĠÙĨ ÛĮØª
ÙĨØ¬ Ø§ÙĨÛĮ
ĠÚ¯Ø±Ø¯ ÙĪ
le y
ĠÙħÙĨØŃ ÙĦ
Ø³ ÙĦØ§ÙĪÛĮ
ĠØ¨Ø± Ù¾Ø§ÛĮÙĩ
Ø§Ùĩ Ø§Ùħ
ĠÛ±Û¹Û² Û²
Ø± ÙĩØ§
ÙĪØ± ÙĩØ§
ĠØ³Ø± ÙĤØª
ĠØ¢Ø± Ø§ÛĮ
ĠØ´ÛĮØ± ÛĮÙĨÛĮ
ĠØ¢ÙĦØ¨ Ø§ÙĨÛĮ
ĠÙĪ ÛĮØ²
ĠØ® ÙĦÛĮÙĦ
ĠÛ±Û±Û ·
Ùħ ÛĮÙħÛĮ
ĠØ¬ ÛĮÙħÛĮ
ĠØ§Ø¬ Ø³Ø§Ùħ
ĠÛ¶ Û¸
ĠÙĦ ÙĪÙħ
ÙģØ± ÙĩÙĨÚ¯
ĠØ¨Ø§ÙĨ Ú©ÛĮ
ĠØ±ÙĪÙħÛĮ Ø§ÙĨ
Ø® Ùħ
ĠÙ¾Ø§Ø¦ ÛĮÙĨ
ĠØ¨Øµ Ø±ÛĮ
ĠØªØŃÙĤ ÙĤ
ĠÙĨØ§Ù¾ Ø¯ÛĮØ¯
Ú© Ø§Øª
Ø§Ú© Ø§ÙĨ
ĠÙħÙĤ Øª
Ġ1 8
ÙģØ±ÙĪ Ø´ÛĮ
Ùĩ ÙħÙĩ
ĠØ¨ÛĮ Ø§ÛĮØ¯
ĠÙħØ¯ÛĮØ± Ø¹Ø§ÙħÙĦ
ĠÙ¾ÛĮØ´ÙĨÙĩ Ø§Ø¯ÛĮ
ĠØ³ÙĪØ³ÛĮØ§ÙĦÛĮ Ø³Øª
ĠÙģÙĩØ± Ø³ØªÛĮ
ĠÛ±Û³Û· Û·
Ùħ Ø§ÛĮÙĩ
ĠÚ¯ÙĦ Ø¯
ĠÛ±Û³ Û°
ĠÙĤ ÛĮØ¯
ĠØ¯Ú©ØªØ± Ø§
ĠÙ¾Ùĩ ÙĦÙĪØ§ÙĨ
Ø³ Ø§Ø±ÛĮ
ĠÙĪ Ø§Ø¯Ø§Ø±
Ø´Øª ÛĮÙĨ
ĠØ³ÛĮ Ú¯Ø§Ø±
Ûµ Û¹
ĠØ¢Ø´ ÙĪØ±ÛĮ
ĠÛĮ ÙĪØ±Ú©
Ø§Ø¬ Ø¯
ÙģØ´ Ø§ÙĨÛĮ
Ġ ÛĮØ±
Ø§ ÙĪÙĦÛĮÙĨ
ĠØª Ø´Ø¯ÛĮØ¯
ĠÙ¾ ÙĪÛĮØ§ÙĨ
Ø¨Ø± ÙĨ
ĠØ¢ÙħÙĪØ² Ø§ÙĨ
ĠÚ¯Ø°Ø±Ø§ÙĨ Ø¯ÙĨ
ĠØªÙĪÙĤÛĮ Ùģ
Ø¨ ÙĪØ¬
Ú¯Ø±Ø¯ ÛĮØ¯
ĠØ±Ø³ ÙĪÙħ
ĠÛ±Û¹Û² Û³
ĠÚ©ÙħÙ¾ ÛĮÙĨ
ĠØ¨ÛĮØ§ ÙĪØ±Ø¯
ĠÙĨØ¯Ø± Øª
Ġ ÙĬ
ĠØ¨Ø± ÚĨØ³Ø¨
ĠÛ±Û¹ Û°Û°
ĠØ´Ø§ÛĮ Ø³ØªÙĩ
Û³Û ¸Û
ĠÙ¾Ø§Ø± ØªÛĮ
ĠÛ±Û³Û´ Û°
) ØĽ
Ú© Ø±ÛĮÙħ
ĠÙĨ Ø§ÙĩÙħ
ĠÙĩ ÙĪÙħ
Ø§Ø³ ÛĮÙħ
ĠØ³Ø§Ø®Øª ÙĨØ¯
ÙģÛĮ Ùģ
re f
ĠØ±ØŃ Ùħ
ÙĩØ± Ø§ÙĨÛĮ
ĠÙĦ Ú©
Ø¨ÙĪ ØªÛĮ
ĠØ³ ÙĪØ±ÛĮ
ĠØ§ÙĪ Ø¨
ĠØ¨Ø§Ø²ÛĮ Ø§Ø¨ÛĮ
ĠÛĮØ® ÚĨØ§ÙĦ
ĠØ¨ Ø¯ÙĩÛĮ
ĠØ§ÛĮØ± ÙĦØ§ÛĮÙĨ
ĠÙĨØ¸Ø§ÙħÛĮ Ø§ÙĨ
ĠØ®ÙĦ Ø¹
ĠÙģÛĮ ÙĦÛĮ
ĠØ´ ØªØ±
ĠÙħØŃ Ø±
ĠØªØµ Ø¯ÛĮ
ĠÙ¾Ø±Ø³Øª Ø§Ø±ÛĮ
ĠÚ© Ø§Ø¯
ar ch
ĠØ¹Ø¨ Ø§Ø±ØªÛĮ
ĠØ®ÛĮ Ø§Ø¨Ø§ÙĨÛĮ
ĠÙ¾Ø¯ÛĮØ¯ Ø§Ø±
ĠØ²Ø§Ú¯Ø± Ø³
ĠÚ¯Ø§Ø² ÙĩØ§ÛĮ
Â °
ĠØ¹Ø¸ ÛĮÙħÛĮ
ĠÙħÛĮØ³ÛĮ Ø³ÛĮÙ¾ÛĮ
ĠÙĤØ± Øµ
ĠÙ¾Ø¯ Ø±Ø¨Ø²Ø±Ú¯
ĠÙħÙħØª Ø§Ø²
ĠÛĮÙĪÚ¯ Ø³ÙĦØ§ÙĪÛĮ
ĠØ§Ø³ ÙĤÙģ
ĠØ´Ú©Ø³Øª ÙĨ
ĠÚ©Ø§Ø±ÙĦ ÙĪØ³
ÙĨØ¸ ÛĮØ±
ĠÙĨØ§Ø´ Ø±
ÛĮ Ø§Ø¨ÛĮ
ĠØ¨ ÙĦÛĮ
ĠØ® ÙĦÙģ
ĠÙħÙĨ ÛĮØ²
ĠØªÙĨ Ø§Ø³
ĠÚ©ÙĪØ¯ ØªØ§
ĠØŃØ´ Ø±Ùĩ
ĠØŃØ´ Ø±Ø§Øª
ĠÚ©ÙĨÙģ Ø¯Ø±Ø§Ø³ÛĮÙĪÙĨ
i el
Ã ¶
ĠÙ¾ Ø§ØªØ±
ĠÙĨÙĪ Ø§Ø¯Ú¯Ø§ÙĨ
ĠÛ±Û³Û¶ Û¸
ĠÙģØ±ÙħØ§ÙĨØ±ÙĪ Ø§ÛĮ
Ú¯Ø±Ø¯ ÛĮ
Ú¯Ø° Ø±
ĠØªØ¯ Ø§Ø±Ú©
ĠÙħÚ©Ø± Ø±
ĠÙĨÛĮØ¬ Ø±ÛĮÙĩ
e e
ĠÙħ Ø§ÛĮÙĩ
ØªÛĮ Ù¾
ĠØ¨Ø§Ø® ØªØ±ÛĮ
ĠØ§Ø± Ø«
ĠÙħÙĩ Ø±Ø§ÙĨ
Ø±Ø³ ÙħÛĮ
ĠØ¹ÙĤ Ø¯
ĠØ² ÛĮØ¯
ĠÂłĠÂł ĠÂłĠÂł
Øª Ø¨ÛĮ
Ø§ÙĨØ¯ Ø§Ø±
ÙĪØ³ÛĮ Øª
ĠØ¨ Ú©Ø´Ø¯
ÙĪØ± ÙĨØ¯
ĠÙģ ØµÙĦÛĮ
ĠØ§Ø¨ Ø²Ø§Ø±ÛĮ
ĠÙĪÙģ Ø§Øª
Ù¾ ÙĪØ³ØªØ§ÙĨ
ĠØ¨ÙĨ Ø²
ĠØ³Ø§Ø² ÙĨØ¯
ĠØ³Ø§Ø² Ú¯Ø§Ø±ÛĮ
ĠØ¢Ø³ ÙħØ§ÙĨÛĮ
ĠØ´ÙĩØ±ÛĮ Ø§Ø±
ĠÙĩØ®Ø§ÙħÙĨØ´ÛĮ Ø§ÙĨ
Ú© Ø§Ø³
ĠÙģ Ø´
ĠØµØŃ Øª
ĠØ®ÙĪØ§ÙĩØ± Ø´
ĠØ§Ø³Øª Ø§Ø±
ĠØ¨ÙĨÚ¯ ÙĦ
2 2
Ð ¾
ĠØªÙĪØ± ÙĨ
ĠØ§ÙĨ ØµØ§Ø±ÛĮ
ĠØ§Ø´ Ø¹Ùĩ
ĠØ¨ÛĮÙĦ Ø¨ÙĪØ±Ø¯
ĠÚĨ Ø§ÙĤ
ĠÙĩØ¬ Ø¯ÙĩÙħ
ĠØ§Ø´Ú© Ø§ÙĨÛĮ
ĠÙħØ²Ø§Ø± Ø¹
ĠØ®ÙĪØ§ÙĨ ÙĨØ¯Ú¯ÛĮ
ĠØ¯ÙĦ Ø®ÙĪØ§Ùĩ
ĠÛ±Û¹Û² Û¶
ĠØ§Ú©Ø« Ø±Ø§
ĠÚ© Ø§ØªØ±ÛĮÙĨ
ÛĮÙĨ Ú©
ĠÛ¹Û ±
ĠØ¯ÙĪÙĨ Ø§ÙĦØ¯
ĠØ¯Ø¨ Ø³ØªØ§ÙĨ
ĠÙħÙĪ Øª
ĠÚ© ÙĪØ±ÛĮ
ĠØ® ÙĪØ²Ùĩ
ĠØ³Ú© ÙĪØª
ĠØŃØ³Ø§Ø¨ Ø¯Ø§Ø±ÛĮ
ÙĪØ¯ Ø§ÙĨ
ĠØ¨Ø±Ø§ÛĮ Ø§ÙĨ
ĠØ¯Ùĩ ÛĮÙħ
ĠÛ±Ûµ Û°Û°
ĠØ®Ø² Ø§ÙĨÙĩ
ĠØ® Ø§Ø³Øª
ØªØ± ÙĪÙĨ
ĠÙħØŃ Ùģ
ÙĪØ¨ Ø§
ĠØ²ÛĮØ± Ø³Ø§Ø®Øª
ØªÙĨ Ø§Ø¨
ĠÙģ Ø±ÛĮØ¨
Ú©Ø´ ÙĨØ¯
Û±Û³Û ¶
ĠØ´ÙĪ Ø§ÙĦÛĮÙĩ
Ø¹Ø² ÛĮØ²
ĠØ®ÛĮ Ø§ÙĦ
Ú© Ø±Ø§Øª
ĠÚ© Ø§Ùģ
ÙĪÙĨ Ø¯ÙĩØ§ÛĮ
ĠÚ©ÙĦ Ø§
ĠØ¶Ø± ÙĪØ±Øª
ĠØ³ÛĮØ¯ ÙĨÛĮ
Ġp r
Ø¯ Ø§ÙĨÙĩ
Ø³ ÙĨØ¬
Ø±ÙĪ Ú©
ĠÙĦ Ú©Ùĩ
ĠÚĨØ± Ø§Ú©Ùĩ
ĠÙ¾Ø³ØªØ§ÙĨ Ø¯Ø§Ø±Ø§ÙĨ
Ù¾ Ø¯Ø±
ĠØº ÙĪ
ÙĪØ¨ Ú©Ø±
ic a
ÙģØ±Ø³Øª Ø¯
ĠØ¯Ùĩ ÙħÛĮÙĨ
ĠØ±Ø§Ùĩ Ø¨Ø±Ø¯
Ù¾Ø±Ø¯ Ø§Ø²ÛĮ
ĠØ²Ùħ Ø±Ùĩ
ĠÙ¾ÙĪØ³Øª ÛĮ
ĠÙħØ³ØªØ¹ Ø§Ø±
ĠÛ±Û³Ûµ Û´
ĠÚ©Ø§Ø´ Ø§ÙĨÛĮ
ĠÙĨØ§Ù¾ÙĦ Ø¦ÙĪÙĨ
ĠÙĤ ÙģÙĦ
ĠØŃ ÙĦÙĤ
ĠÚĺ ÙĨÙĪ
or k
ĠØªØ±Ø´ ØŃ
ĠØªØ¨Ø¹ÛĮ Ø¶
ĠÚ© ÙĨØ¯Ùĩ
ĠÚ©Ø´ Ø´
ĠØµØŃ Ø±Ø§ÛĮÛĮ
ĠØªÛĮ ØºÙĩ
ĠÙĩÙħØ¨ Ø³ØªÚ¯ÛĮ
ĠØ§ÛĮÙĨ ÙĩØ§
ĠØ´Ø¹ ÙĦÙĩ
ĠØ¨ Ø³ØªØ±ÛĮ
ĠØ¯ Ù¾
ĠÛĮÚ© Ø´ÙĨØ¨Ùĩ
Û¶ Û¹
ĠÚĨÙĩØ§Ø± Ø´ÙĨØ¨Ùĩ
ĠÙħØ´Ú©ÙĦ Ø§ØªÛĮ
ĠÙĨØ¬ ÙģÛĮ
ĠÙĩØ§Ø´ Ùħ
" (
ĠØ§Ùħ Ø§Ú©ÙĨ
ĠØµÙĦÛĮØ¨ÛĮ ÙĪÙĨ
Ø§ ÙĪÙĨØ¯
Ø¶ Ø±
ĠÚ©Ùħ Ø±
Ø³ÙĦ Ø§ÙĨ
ĠØ¯ÙĪ Ø§Ùħ
ÙħÙĪ Ø³ÛĮ
ĠØŃØ¯ÙĪØ¯ Ø§
¡ Ù
ĠÚ©Ø§Ø± ÙĩØ§
ĠØ¯ÙĦ Ø§Ø±ÛĮ
ĠØ® Ø¯Ùħ
ĠÚ©Ø§Ø± ÙħÙĨØ¯Ø§ÙĨ
ig n
Ä ±
Ú© ÙħÛĮ
ĠØŃ ÙĪÙĦ
ĠÙĪØ§ÙĤØ¹ Ø§
ĠØ¯Ø§Ø¯ Ø³ØªØ§ÙĨ
ĠØ¹Ø¶ ÙĦØ§Øª
ĠØ§Ø¯ÛĮ Ø¨
p er
ĠÙĪ Ø¯
Ø® Ø³Ø±ÙĪ
ĠØªØ¯ Ø±ÛĮ
Ø²ÛĮÚ© ÙĪ
ÙĪÙĦ Ø§ÛĮ
or th
ĠØ´ÙĨ Ø§Ø³Ø§ÙĨ
ĠØŃØ¯ Ø³
ĠÙĩ Ø±ÛĮÚ©
Ø±ÙĪ ÙģÛĮ
ĠÙĦÛĮØ¨Ø± Ø§ÙĦ
ÙĪ ÛĮÙĨÛĮ
ÚĨ ÛĮÙĨÛĮ
ĠÙĩÙĨØ± Ø³ØªØ§ÙĨ
ĠÙĨÚ¯ Ø§Ø±Ùĩ
ĠÙĩÙĪØ´ ÙĨÚ¯
ĠØ¨Ø´Ú© Ùĩ
ĠØ§Ø¬ ØªÙĨØ§Ø¨
Ø¨ÛĮ Ú¯
ĠØªØ±Ú© ÙħÙĨØ³ØªØ§ÙĨ
Ø§ÙĩØ¯ Ø§Øª
ĠÙ¾ÛĮØ§ Ù¾ÛĮ
w iki
ĠØª Ø°
ĠÚ¯ Ø³ÙĦ
ĠÙħØº Ø§Ø²Ùĩ
ĠÚ©Ø±Ø¨ ÙĦØ§
ĠØ¯ ÛĮØª
ĠØ¯ Ø§ÛĮØ±
ĠØ¨Ø§ÙĦ ÙĤÙĪÙĩ
ĠÛ¶ Û±
Ù¾Ø°ÛĮØ± ÙģØª
ĠØ¨ÙĪØ¦ ÛĮÙĨÚ¯
ĠØ¬ Ø§ÙĪØ§
ĠØªØ¹ ÙĪÛĮØ¶
Ø¨Ø®Ø´ ÛĮ
Ú© Ø±Ø¨
Ø² Ø¯Ùĩ
ĠÙĩ ÙĪØ³
ĠÙĤ ÙĪØ§Ùħ
N O
ĠÛ¶ Û³
ĠÛ±Û¹Û±Û ¶
ĠÙĨÙĪØ¨ Øª
ĠÙħØ¨Ø§Ø±Ø² Ø§Øª
ĠØ³ Ø§Ø¦
ĠÙģ ÛĮØ³
Ø§Ø³Øª ÛĮÚ©ÛĮ
ĠØ³ÙĨ ÙĨØ¯Ø¬
ĠØ²ÙĨ Ø§ÙĨÙĩ
Ø«ÛĮ Ø±ÛĮ
o ok
Ø§ÛĮ Ú©Ø³
Ø§Ø³ Ø§ÙĨÛĮ
ĠØ³Ø§ÙĦ Ú¯Ø±Ø¯
ĠÛµ Û¹
ĠØ«Ø§ÙĨ ÙĪÛĮÙĩ
ĠØ¨ÙĨÚ¯ Ø§Ùĩ
ÙĪØ±ÛĮ ÙĪ
ĠØ§Øª ÙĦ
ĠØ§ÙģØ² ÙĪØ¯ÙĨ
ĠØ± Ù¾
ĠØ¯Ø§Ø± Ø§Ø³Øª
ĠÚ¯Ø±ÙĪ Ú¯Ø§ÙĨ
ĠØ³ÙĨ ØªØ±
ĠÙħØ§Ø± ÙĪÙĦ
ĠØªØ´ Ø±ÛĮØŃ
ĠÙħÙĪØ± Ø®Ø§ÙĨ
Ùħ ÙĪØ³
ĠØ· Ø¹Ùħ
ĠØªÙĨ ÙģØ³
ĠØ¯Ø§Ùħ Ø§Ø¯
ĠØªÙĪ Ú©
ĠÙģØ± Ø®
ĠØ¯Ø§Ø¦ Ø±
ĠÙħÙĪØ²ÛĮÚ© Ø§ÙĦ
ĠÙĩØ±Ú© Ø¯Ø§Ùħ
ĠÙĨ Ø§Ø¸Ø±
ĠØ¢ ÙĪÛĮ
ĠØ¹ Ø§Ø·
Ø· ÙĪ
ĠÙĤ Ø´Ø±
ĠØ§ÙĨ Ø³Øª
ĠI nt
ĠÛ±Û³Ûµ Û³
ÙħØ« ÙĦØ§
Ø± Ø§Ø²
ĠØ¨Ø®Ø´ ÛĮØ¯
Û¹Û ¹Û
ĠÙħØ®Ø§Ø· Ø¨Ø§ÙĨ
ĠÙģ ÙĪØ±Øª
ĠÙ¾Ø± Ø§Ú¯
ĠÙĩÛĮ Ø¬Ø§ÙĨ
ation al
- -
Ùħ Ø§Ø¯
ĠÙħØ¨ Ø§Ø¯ÙĦÙĩ
ĠÙħØ§ÛĮ Ú©
ĠØ¹ÙĨ Ø§ÙĪÛĮÙĨ
Ø±ÛĮ ÙĪ
ĠØªØ± Ø§Ø²
ĠÙģÙĪÙĤ Ø§ÙĨÛĮ
ĠØ¯Ø² ÙģÙĪÙĦ
ĠÙĩÙħÚ©Ø§Ø± Ø§ÙĨ
ĠØ± ÙĩØ§ÛĮÛĮ
ĠØªÙĦ Ø³Ú©ÙĪÙ¾
ĠØ¢Ùĩ Ú©
Ù¾ÛĮÙĪÙĨØ¯ Ø¯
ÙĪ Ø¬Ùĩ
ĠÙĪ Ø§Ø±ÛĮ
ÙĨØ¯ ÙĪ
ĠÚ¯ ÙĪØ±Ø¯
ĠØªØ±Ø¯ ÛĮØ¯
ĠØ± Ø§Ø¯Ø§Ø±
Ø§Ø® ÙĦ
ÙħÛĮ Ø¯Ùĩ
ĠØ¨Ø¯ ÙĪ
c o
ĠÙĦ Ø§ÙĨ
ĠØµ Ø§ØŃ
ĠØ§Øµ ØºØ±
i de
ÛĮØ´ Øª
ÙħØ¯ Ø§ÙĨ
ĠØ³ ÙĪÙĨÛĮ
Ø§ÙĦ Ø«
ĠØ§Ùħ Ø±ÛĮ
an n
ÙĪÙĤ Øª
Ùħ ÙĦÛĮ
Ø¯ Ø¯
ĠØ¨ÛĮ ÚĨ
Ø³ØªØ± ÙĨ
ĠØ§ÙĨØŃ Ø±Ø§Ùģ
ĠØ§Ùħ ØªØŃ
Ú¯Ø±Ø§ÛĮ Ø§ÙĨÙĩ
Ø¯ Ø²
ĠÙģ Ø§Ø´
ĠØ³Ø§Ùħ ÙĪØ¦ÙĦ
ĠÛ±Û¸ Û°
ĠÙħ Ø³ØªÙħ
ĠÙĨÛĮ ØªØ±ÙĪ
Û¹Û ±Û
ĠØ¢Øª Ø´Ú©Ø¯Ùĩ
ĠÙĦØ· Ùģ
ĠØ´ÙĨ ÛĮØ¯ÙĨ
ĠØ§ÛĮÙĨ ÚĨ
ĠØ§ ÙĬÙĨ
ĠØ² Ø¹
ĠØ§ÙĨ Ø²ÙĦÛĮ
ĠØ¸ ÙĩØ±
ĠØ§ÛĮØ³Øª Ø§Ø¯Ùĩ
ÙĪØ² ÛĮØª
ĠØ§Ø¯ Ø±Ø§Ø±
ĠØ±Ø§Ùĩ ÙĨÙħØ§ÛĮ
ĠØ´ÛĮ Ø¡
ĠÙģØ§ÙĨØª Ø²ÛĮ
ĠØ¨ Ø§ÙĨÛĮ
ĠÙĦÛĮ ØªØ±
ĠØ´Øº ÙĦÛĮ
2 7
ĠÚ¯ÙĦ ÙĪÚ©
ĠÚ© Ø¨ÙĪØªØ±
ÙĪØ± Ø§ÛĮÛĮ
Ø§Ùģ Ø¹ÛĮ
ĠÛ±Û³Û· Û²
Ù¾ ÙĦÛĮ
ĠÙ¾Ø± Ø¬ÙħØ¹ÛĮØª
in t
ĠØ§Ø³Ø§Ø³ Ø§
ĠØ§Ùħ Ø§ÙħÛĮ
Ø¯Ùĩ ÙĨØ¯Ú¯Ø§ÙĨ
ĠØª Ø³Ø§ÙĪÛĮ
ĠØ± ÛĮÙĨÚ¯
ÙĪØª Ø³
Ø§ ÙĪØ±Ø¯
ĠØ¨Ø³ÛĮ Ø¬
ĠÙħÙĪØ¶ÙĪ Ø¹ÛĮ
ĠØ¨Ø§ÙĨÚ© Ø¯Ø§Ø±ÛĮ
ĠØ§Ø¹ØªØ¨ Ø§Ø±ÛĮ
ÙĪÙĦ Ø§Ø±
ĠÚ¯Ø±ÙģØª Ø§Ø±
ĠÙ¾Ùĩ ÙĦÙĪ
ĠØ¹Ø§Ùħ ÙĦÛĮ
ĠÙģ Ø§Ø¬Ø¹Ùĩ
ĠØ¨Ø±Ø® Ø§Ø³Øª
ĠÙ¾ÙĨØ¬ Ø§Ø¨
ÙĩÙħ Ø±Ø§Ùĩ
ĠØ³Ø¨Ø² ÙĪØ§Ø±
Ø± Ø§Ø¯
ĠØ¢ Ø±ÛĮØ§ÛĮÛĮ
ĠØ¨ÛĮÙĨ Ø§ÛĮÛĮ
ÙĦ ÙĪØ¯
ĠÙĩ Ø§Ø¨
ĠØ§ÙĨ Ú©Ø§Ø±
ĠØ§Ø¬ Ø±
ĠÙħØ¹ Ø§ÙĪÛĮÙĩ
Ú©ÙĨ ÛĮØ¯
ĠØ¨ ØªØ§
ĠÙĨØ´ Ø§ÙĨÛĮ
ĠØºÛĮØ± Ø±Ø³ÙħÛĮ
ĠÙģØ±Ø§ Ú¯ÛĮØ±ÛĮ
ÙĨÙĪØ´ ØªÙĩ
ĠØ³Ø§ÙĨØªÛĮ Ú¯Ø±Ø§Ø¯
ĠØ§ÛĮØ±ÙĦØ§ÛĮÙĨ Ø²
ĠØ¨ Ø¯ÙĩÙĨØ¯
ĠÙħÙĪ Ø²
or y
ĠA d
ĠÙĨØ§Ø³ Ø§
Ø®ÙĪØ±Ø´ ÛĮØ¯ÛĮ
o y
ĠÙħØ¯Ø§Ø® ÙĦÙĩ
ÙĪÙħÚ© Ø²ÛĮÚ©ÙĪ
ĠØ³ÙĪØ¯ Ø§ÙĨ
2 3
ĠØ¨ÙĪØ¯ Ùħ
ĠØ¯ÙĪÙħ ÛĮ
ĠÙħÙĨØªØ¸ Ø±
ĠÙĨØ§Ø¯ÛĮ Ø¯Ùĩ
ĠØ® ÛĮØ²
ĠÚ¯ Ùĩ
Ø§Ùģ Ø²
ĠÚ©Ø± ÙĪÙĨ
ĠØ¹ÙĦ ÙĦ
ĠØºÙĦ Ø·
ĠØ¨Ø§Ø²ÙĨØ´ Ø³ØªÚ¯ÛĮ
ĠØ²Ø§Ùĩ Ø¯Ø§ÙĨ
ØªÙĪ Ø¬Ùĩ
ĠØ¬ÙĨØ³ÛĮ Øª
ĠA ir
ĠÙħØªØºÛĮØ± ÙĩØ§ÛĮ
C A
Ú© ÛĮÙĩ
ĠÙĪ ÛĮØ¯ÛĮ
ĠÙħØª ÙĨØ§
ĠÛ±Û³Û¶ Û·
Ú¯ ÛĮØ²
ĠØ¨Ø§Ø± ÙĨØ¯Ú¯ÛĮ
ĠØª Ú©ÙĦÙħ
ĠØ±ÙĪØ² ÙħØ±Ùĩ
ĠÙĩÙĨØ¯ ÙĪ
ic al
ĠÛ¸Û ±Û
Ø¨ ÙĨÛĮ
ĠÙĨ ÛĮÚ©ÛĮ
ĠÙĤ Ø±ÛĮÙĩ
ĠØªØ¬ ÙĪÛĮØ²
ĠØ§Ø³ØªØ± Ø§ÙĦÛĮØ§ÛĮÛĮ
ĠØ±ÙĪ Øª
ĠÛĮ ÙĪØªØ§
ĠÙĨÙĪØ§Ø² ÙĨØ¯Ú¯ÛĮ
Ø§Ú© Ø³ÛĮ
r om
ĠÚ©Ø±ÛĮ Ø³ØªÛĮ
ÛĮÙĦ ÙĨ
ÛĮØ´ Ø§ÙĨ
ĠØ®ÙĪØ¯Ø±ÙĪ Ø³Ø§Ø²ÛĮ
ĠÙĪ ÙĦÙģ
ĠØ§ÙĪ Ø¨Ø±
ĠÛ±Û³Û² Û°
ĠÙĪØ§Ø¶ ØŃ
Ø¨ ÛĮØ¯
in n
ĠØ¢Ø²ÙħØ§ÛĮØ´ Ú¯Ø§ÙĩÛĮ
ĠØ¯Ø§Ø±ÙĪ ÙĩØ§
ĠØ¢ÙģØ±ÛĮÙĨ Ø´
ĠØªØ¹ Ø¨ÛĮÙĩ
ĠÛ±Û±Û ¶
Ġs t
ĠÙĨ Ø¬ÛĮØ¨
ĠØ® Ùģ
ĠØ§Ùħ Ù¾Ø±
ĠØ³Ø± Ø§ÛĮ
ĠØªÙĦ Ø®
ĠÙħØ®Ø§Ø· Ø¨
Ø§Ø¯ÛĮÙħ ÛĮØ±
ĠÙĨ Ø§Ø¸
ĠÙĨÛĮ ÙĪÙħÚ©Ø²ÛĮÚ©ÙĪ
ĠÙ¾ÙĨØ§Ùĩ Ú¯Ø§Ùĩ
ĠÛ· Û¸
Ø¯ ÙĪÙħ
ĠØ§ÛĮ Ø³ÙĦ
Ø§ÙĦØ¨ ØªÙĩ
ĠØ¨Ø§ÙĪØ± ÙĨØ¯
ĠØ§Ø³Ùģ ÙĨØ¯ÛĮ
ic k
Ø³ÙĪÙĨ Ú¯
Ø¨ Ø§Ø·
ĠÙħØ³ Ø§Ø¬Ø¯
ĠÛ±Û³Û³Û ²
ĠÙĩÙħ Ø¯ÛĮÚ¯Ø±
ĠÙħØª Ø§Ø¨
ĠÛ±Û³Ûµ Ûµ
ĠØ¢ØªØ´ ÙģØ´Ø§ÙĨÛĮ
ĠØ² Ø§Ø¨ÙĦ
ĠØªØ§Ø¨ Ø¹ÛĮ
ĠØ§ÙĪØ³Øª Ø§
ĠÙĨ Ø±Ø³ÛĮ
ĠØ§Ø³Øª Ø§ÙĦÛĮÙĨ
ĠØ¹ÙĦ ÙĪÛĮ
ĠÙĪØ²ÛĮØ± Ø§ÙĨ
ĠÚ¯ Ø¯
ÙĤ ÛĮÙĨ
ĠØ±Ø³ Ø§ÙĨÛĮØ¯
ĠØ¯Ø±ÛĮ ÚĨÙĩ
ot a
Øª Ùģ
ĠØ¯Ø± Ú¯Ø§Ùĩ
ĠØ´ Ø³Øª
Ø§Ùĩ Ø±ÛĮ
ÙħØ¯ ÛĮÙĨ
ĠØ§Ø¨ ÙĪÙħ
ĠN ew
ØŃ ÛĮØ¯
ĠØ· Ø§ÙĦØ¨
ĠÛ¹Û ¹
ĠØªØ® ÛĮÙĦÛĮ
ĠÙĨÙĤ Ø¯ÛĮ
ĠÙ¾ÙĦ ÙĨÚ¯
ĠÚ©Ø´Ø§ÙĪØ± Ø²Ø§ÙĨ
ĠØ§ÙĦÚ¯ ÙĪÙĩØ§ÛĮ
Ø± Øº
ĠØ§ ØªÛĮ
ÙĪÛĮ Ø³ÛĮ
ĠÛ±Û¹Û±Û ³
ĠØ² ÛĮÙħ
ĠÛĮ ÙĪØ´
ĠÙģÛĮ ÙģØ§
ĠÙħ Ø§Ú¯
ĠØ¯ Ø§Ø¨
Ø® Ø§Ø°
ÚĨ Ø§ÛĮ
en ce
ĠØ¢Ø´ ØªÛĮ
ĠÙĤØ§Ø¬ Ø§Ø±ÛĮÙĩ
ĠØ´ Ø±Ùģ
ĠØ´ÙĩØ± Ø³ØªØ§ÙĨÛĮ
ĠÙĩØ± ÙĪØ¯
ĠÙ¾Ø§ÛĮ ÛĮÙĨÛĮ
ĠÙħØ±Ø¯ Ú¯Ø§ÙĨ
ĠÙħØ¤ ÙĦ
ĠØ³Ø®ÙĨÚ¯ ÙĪÛĮ
Ø± ÙħØ§ÙĨ
ĠØ¬ ÙĨÛĮ
ĠØ² Ø§Ú©
ĠÚ©ÙĨØ³ØªØ§ÙĨ ØªÛĮÙĨ
ĠØ§Ø¨ ÙĪØ¨Ú©Ø±
ĠØ¯ÙĨ ÛĮÙĦ
ĠÙħØŃÙģ Ø¸Ùĩ
ĠØ§Ø³Øª ÙĪØ§ÙĨÙĩ
ĠØªØŃØ±ÛĮ Ø±
ĠØªØŃ ÙĦÛĮÙĦÛĮ
ÙĨØ§Ù¾ Ø°ÛĮØ±
ĠÙħØ³ Ø¯ÙĪØ¯
ĠÙħÙĤ Øµ
ĠØ³Ù¾ ÛĮØ¯
ĠÛ±Û³Û¶ Û¹
ĠØ¬ÙĪÙĨÛĮ ÙĪØ±
âĢ Ŀ
ĠØ³ ÙĨÛĮÙĨ
ĠÙĨ ÛĮÙĨ
ĠÙ¾ÛĮØ´ Ø±ÙĪ
Ø³ØªÛĮ ÙĪØ§ÙĦ
ÙħØ± Ú¯
ĠÙħØ³Ø§ÙģØ± Øª
ĠÙĩØ±Ø¯ ÙĪ
ĠØŃ Ø§ÙĦØ§Øª
al e
ĠÛ³ Û°Û°Û°
ĠÙĩ Ø§Ø±Ø¯
ÙĪØ³ Ú©ÛĮ
ĠÙħØ®Ø§Ø¨Ø± Ø§ØªÛĮ
Ø¨ ÙĪØ¯ÛĮ
ĠÙģØ± ØŃ
Øª ÙĤÛĮ
ĠØ¨ Ø§ÙĦØª
ĠØ§Ø± Ø§Ø¯Ùĩ
Ø¨ÛĮ ÙĦÛĮ
ĠÙģØ±ÙħØ§ÙĨ Ø¯Ø§Ø±ÛĮ
ĠØ¹Ø¶ ÙĦØ§ÙĨÛĮ
ĠÚ©Ø±ÙĪÙħ ÙĪØ²ÙĪÙħ
Ġ 0
ĠÙħØ§ÙĦÛĮ Ø§ØªÛĮ
ĠÚ¯ÙĪØ³Ùģ ÙĨØ¯
ĠØ´Ø±ÛĮ Ø¹Øª
a i
ĠÛĮ ÙĪÙĩØ§ÙĨ
ĠØ®Ø¯ ÙħÙĩ
ĠØªØ²ÛĮ ÛĮÙĨ
ĠÙħ ÙĪÛĮ
ĠÚ© Ø¯ÙĩØ§ÛĮ
ĠØ´ ÙĪÚ¯
ĠÙģØ± Ø§Ú¯ÛĮØ±
ĠÛ±Û³Û· Û³
Ø¨ÛĮ Ø§ÙĨ
ĠÙĨÚ¯ Ø±Ø§ÙĨ
Ø§Ø¶ Ø¹
ĠØ¯ÙĪØ³ØªØ§ÙĨ Ø´
ĠØ³ Ø§Øª
ĠÚ¯ Ø§
ĠÙħØ¹ ÙĨ
ĠÛ±Û³Ûµ Û²
ĠÙĪØ¶ÙĪ ØŃ
ĠØ®Ø§Ø³Øª Ú¯Ø§Ùĩ
Øª ÙĪØ¨
ĠÙħÙĨ Ø´ÛĮ
ĠÛĮØ§Ø¯ Ú¯Ø§Ø±
ĠØ§ÙħØªØŃ Ø§ÙĨ
Ø¬ Ø¨
ĠØ´ÙĪØ±Ø´ÛĮ Ø§ÙĨ
Ùĩ Ø§ÙĦ
ĠØ¨ Ø´ÙĪØ¯
ĠØ¯ÙĪ Ù¾
ĠÙĪÛĮ ÙĪÙĦÙĨ
ĠØ¯Ùĩ ÙĦÛĮ
ĠØ§ÙĤ Ø¨Ø§ÙĦ
ĠÙħØ· ÙĦØ¹
ÙĨØ¯Ø± Ø§ÙĨÛĮ
Øª Ø§Ø±
ĠØµ ÙģØª
Ø¨ÛĮ Ø¯Ùĩ
ĠØ§Øª Ø®Ø§Ø°
ĠÛ±Û¹Û°Û µ
Øª Ø®ÛĮÙĦÛĮ
ĠØªØ§Ø¨ Ø¹Ùĩ
ĠÚ¯Ø§ÙĦ Ø±ÛĮ
ĠÙĨÚ¯Ø± Ø´
Ù¾ÛĮÙħ Ø§ÛĮÛĮ
ÛĮØ² ÛĮÚ©
ĠØ§Ø³ ØŃØ§ÙĤ
ĠØ²ÛĮØ± ÛĮÙĨ
ÙĪÙ¾ ÙĦ
Û¸Û ³Û
os t
ĠØ±Ø§Ø³ ÙĦ
Ø± ÙĨ
ĠØ®Ø± Ø§Ø³Ø§ÙĨÛĮ
ĠØ³ÛĮÙħ Ø§ÙĨ
am e
ĠÙ¾ÛĮÙĪØ³Øª ÙĨØ¯
ÙĤÙĩØ± ÙħØ§ÙĨ
Ø¨ ÙĨØ¯Ø§ÙĨ
Ù¾ ÙĨØ¬
Ø¯Ø± Ú¯Ø°Ø´ØªÙĩ
ØºÛĮ Ø¨
ĠÙħØ³Ø¦ ÙĪÙĦÛĮÙĨ
ĠØ°Ø® Ø§ÛĮØ±
ĠØ¯Ø´Ùħ ÙĨÛĮ
ĠØ¨Ø± Ø¹Ú©Ø³
ĠØ¨ÙĦ Ø®
ĠØªÙĪØ± ÙĨØªÙĪ
ĠØŃØ§Ú© ÙħØ§ÙĨ
Ø§Ø± ÙĪØ³
Ø§Ø± Ø´ÛĮ
Ùģ ØµÙĦ
ĠØ³ ÙĪÚ©
ĠØ¹ Ø§ÙĦ
Ùħ ÛĮØ¯
ĠØ± Ø§Øª
ĠÚ©Ø§Ø± Ø´ÙĨØ§Ø³
ĠØ§Ú© Ø³Ù¾
Ġ ÛĮÙĦ
ÙĨ ÛĮØ±
Ù¾ Ø±Ø³ÛĮ
ĠØ¨Ø± ÙĪÙĨØ¯
ĠÙħØ² ÙħÙĨ
ĠØ§ØµØ·ÙĦØ§ØŃ Ø§Øª
ĠØ³ÙĦÛĮ ÙħØ§ÙĨÛĮ
ĠÛ¸Û ³
ĠÛ¸Û ¹
od ice
Ø´ Ø§
ÙĪØ± Ø«
ĠÙħØŃÙħØ¯ ØŃØ³ÛĮÙĨ
Ø§Ø¡ Ø§ÙĦØ¯ÛĮÙĨ
ĠÙħØ³ÙĦ Ø·
Ġ |
Û±Û³Û ´
ĠÛ±Û³Û´ Û²
ĠÛ±Û¹Û°Û ¸
ĠÙħÙĪÙĨØª Ø§ÙĨØ§
ĠÙħÛĮ ÙħÙĪÙĨ
ĠÙħÙĨ Ø²
ĠÙħØµ ÙĪØ¨
ĠÙĨÙĪØ´ ÛĮØ¯ÙĨÛĮ
ĠÙĨØ¸Ø±ÛĮ Ø§Øª
ĠÙħÙĨØªÙĤØ¯ ÛĮÙĨ
ÙĦ ÙĪØ±
ĠÙħ ÙĪÙħ
ĠÙ¾ Ø§Ø±Øª
ĠØ§ÙĨØª Ú¯Ø±
ĠÛ±Û³Û¶ Û²
ĠØ±ÙĪÙĨ ÙħØ§ÛĮÛĮ
Ú¯ Ø§ÙĦ
ĠÚĨ ÙĪ
ĠØ´Ùħ Ø§Ø±Ø´
ĠÙĪ Ø§ÙĦØª
Ø¨ Ø§Ùģ
ĠÙħØ³ÙĦ Ùħ
ĠÛ±Û³Û· Û´
Ø¦ ÙĪØ¯
ĠÛ±Û³Û· Û±
ĠØ¯ ÛĮØ§
ĠØª ÙĨÛĮ
Ø§Ùĩ Ø§ÙĨ
ĠØ®Ø³ Ø§Ø±Øª
ĠÙħÙĨÛĮØ² ÛĮÙħ
ĠØ§ÙħÙ¾Ø± Ø§Ø·
ĠÚ© ÛĮØ§
ĠÚĨ Ø§Ø¯Ø±
ĠÙħØ± Ø§ØºÙĩ
ĠØ³ÙĦ ÙħØ§ÙĨ
ĠØªØµÙĪÛĮØ± Ø¨Ø±Ø¯Ø§Ø±ÛĮ
ĠØ¨ÙĪ ØªÙĩ
ĠØ¨Ø³Øª ÙĨ
Ùħ ÙĪÙĦØ§
ĠØ¯ ÙĦØ§
ĠÙĨ Ø§Ø¢
ĠØ¶ Ø§ÛĮ
Ø§Ú¯ ÙĪØ¦Ùĩ
ĠÙħØ§Ø¬ Ø±Ø§Ø¬
Ø¬Ø§ÛĮ Ø²Ùĩ
ĠØ§ÛĮÙĨ Ú©
Ø¨Ùĩ ØªØ±ÛĮÙĨ
sh ip
s p
Øª Ø¬
ĠØ´ ÙĪÙĨØ¯Ùĩ
Ø¢ Ø²
ĠÙ¾Úĺ ÙĪ
s k
ĠØ¨ ÙĪÙĩ
Ø³ÙĦ Ø§ÙĪ
ĠØªØ³ ÙĦÛĮ
ĠØ¯Ø¨ÛĮØ± Ú©ÙĦ
ĠØ¹Ø±Ùģ Ø§ÙĨÛĮ
ĠÙģÙĪ Ø§ØµÙĦ
E T
S A
ÙĤ ÙĨØ¯
Ø§Ø³ Ú©Ø§Ø±
ĠÙĩÛĮÚĨ Ú¯Ø§Ùĩ
Ø§ÙĨÚ¯ ÙĦÛĮØ³ÛĮ
ĠØ§Ø±Ø¬ Ø§Ø¹
f f
ÙĦ Ø§ÙĨÚ©Ø§
Ø§ÛĮ ÙĪ
ĠØ±Ø§ ÙĪÛĮ
ĠÚ©Ø± ÙĨ
ĠÚĨØ§Ø± ÙĦÛĮ
ĠØ³Ø± ÙĨØ´ÛĮÙĨ
ĠÚ©ÙĪØª ÙĪÙĦÙĩ
ĠØ¨ÙĨØ¯Ø± Ø¹Ø¨Ø§Ø³
ÛĮÙħ Øª
ĠØ¬Ø± Ø§ØŃ
Ø² ÙĨØ¯Ú¯ÛĮ
ĠØ§Ø³ Ú©Ø§ÙĨ
ĠÛ±Û¹Û±Û ±
ĠÛ±Û³Û´ Û·
ĠØªØ§ÛĮ ÙĪØ§ÙĨ
ĠÙ¾Ø§ÙĦ Ø§ÛĮØ´Ú¯Ø§Ùĩ
ĠØ³ Ø§ÙĨØ³
ĠÙħØŃØª ÙĪÛĮ
ĠØ±ÙĨ Ø³Ø§ÙĨØ³
u k
Ø§ÙĤ Ø¶
ĠØ· ÙĨØ§Ø¨
ĠÙĨÙħ Ø±Ùĩ
ĠØ¨ÛĮØ± ÙĪØª
ĠÛ±Û¹Û±Û °
Ġ ;
ĠÚ¯ ÙĪØ³Øª
ĠÙħÚ© Ø§Øª
ĠØ¯ÙĤÛĮ ÙĤÛĮ
2 6
3 0
ĠØ±ÙĪ Ø§ÛĮØªÛĮ
ĠÙĨØ§Ùħ ÙĨ
it e
ol og
ĠØ¨Øµ Ø±Ùĩ
ĠÚ¯Ø°Ø§Ø´Øª ÙĨØ¯
ĠØ±ÙģØ³ ÙĨØ¬Ø§ÙĨÛĮ
ĠÙħÙĪØ¨ Ø§ÛĮÙĦ
ĠØª ÛĮØ³
ĠØ¢ Ø³Ø§ÙĨÛĮ
ĠÙ¾ Ø°ÛĮØ±ÛĮ
ĠØ¨ÛĮÙĨ ÙĨØ¯Ùĩ
ĠØªÙĪØ§ÙĨ Ø¯
ÙĪÛĮØª Ø³
Ú¯ ÛĮØª
ĠØ±ÙĪÛĮ Ø§ÙĦ
ĠØ®Ø· Ø§ÛĮ
ÚĺÛĮ ÙĪÙĨ
ĠØ³Ù¾Ø§Ùĩ Ø§ÙĨ
ĠØ¨ÙĪÙĦÛĮ ÙĪÛĮ
Ø§Ø¯ ÛĮÙĨ
ĠØ§Ùģ ÙĦØ§Ø·
Ø´Ø¯ Øª
Ø§Ø« Ø±
ĠØ§ÙĦÙĩ Ùĩ
ĠØ³ ØªÛĮ
ĠØ± Ø´ÛĮØ¯
Ø§Ø³ Ø§
Ø¬Ø§Ùħ Ø¯
ĠÙħØ±ÛĮ Ø®
Ð ¸
ĠÙ¾ÛĮ Ø§Ø²
ĠÙģØ±Ø§ÙĨ Ú©ÙĦÛĮÙĨ
ĠÚ©ÙĪ ÙĦÛĮ
Ø¨Ø®Ø´ Ø¯
ĠÚ¯Ø² Ø§Ø±Ùĩ
ĠÛ³Û¶ Û°
8 6
ĠØ¯ Ø§ÛĮÙĨ
Ø§ÙĦ Ø¨ÛĮ
ĠÙģ Ø³ØªÛĮÙĪØ§ÙĦ
ÛĮØ´ Ú¯ÛĮ
ĠØ³ÙĨØª Ø²
ĠÙħÙĤØ± Ø±
ĠØ¹ Ø§ÙħÛĮ
ĠÙ¾ Ø´Ùħ
ĠØ®Ø§Øª ÙĪÙĨ
ĠÛĮÚ© ÙĨÙĪØ§Ø®Øª
ĠÚ©Ùħ ÛĮÚ©
ĠØ³ÙĪØ¦ ÛĮ
ÙħØ±Ø¯ Ùħ
ĠØºÛĮ Ø±Ø¯
Ø¯ ÙĪØ±Ùĩ
ØŃ ÙħØ¯
ĠØ¯Ùĩ ÛĮØ¯
ĠØ§ÙĨØŃ ÙĦØ§ÙĦ
ĠØ® Ø³ØªÚ¯ÛĮ
ÙĩØ± Ùħ
ĠØ¯Ùħ Ú©Ø±Ø§Øª
ĠÙĨ Ø§Ø³ÛĮÙĪÙĨ
ĠÙħØ¹ Ø§Ø±Ùģ
ĠØ§ÛĮØ± ÙĦÙĨØ¯ÛĮ
ÙħÛĮÙħ Ùĩ
ĠR e
ĠÙĪÛĮÙĦ Ùĩ
ĠØ³ØŃ Ø±
ĠÚ© Ù¾
ĠØª ÙĩØ±Ø§ÙĨÛĮ
Ú¯Ø± Ø§Ùħ
ĠÙĦÛĮ Ø²
ÙĩÙĨ Ø±
ĠÙĨØ±Ùħ Ø§ÙĦ
ĠÙħØ¹Ø¯ ÙĪØ¯
ĠØªØ¶ Ø¹ÛĮÙģ
2 4
ĠØªÙĩ ÙĪÛĮÙĩ
ĠÙħØµ Ø±ÙģÛĮ
ĠÛ³Ûµ Û°
ĠØ¯Ùĩ ÙĨØ¯Ú¯Ø§ÙĨ
ĠÙħÚ©Ø§ÙĨÛĮ Ø²Ùħ
ĠÙħØ¶ ÙħÙĪÙĨ
ÙħØŃÛĮ Ø·ÛĮ
ĠØ¨ ÙĪØ³ØªÙĪÙĨ
ĠØ¯ ÙĨØ¯
ĠÚ¯ ÙĪÙĦ
Ø¨Ø§Øº Ùĩ
y n
ĠØ¨ ÙĪØ±Ú©
ĠÙħ Ø§Ú©Ø³
ÙĪØ¯Ùĩ Ø§ÛĮ
on s
ĠØ¢Ùħ Ø§Ø¯Ú¯ÛĮ
ĠØ¢Ø± Ø´
ĠÚ©ÙĪ ÙģÙĩ
ĠÛ· Û³
ĠÙħÙĩÙĨØ¯ Ø³Ø§ÙĨ
ÙħØ§ÙĦ Ú©
ĠØ¬ Ø§Ø²
ĠØ® Ø§ÙĦØ¯
Ø§Ø¯ÛĮ Ø§ÙĨ
ĠÚĺÙĨØª ÛĮÚ©
ĠÙ¾ ÙĪÙĨ
ĠØ§ÙĨØªÙĤ Ø§Ø¯ÛĮ
ĠÙĩ Ø§ÙĨØ³
Ø§Ø² ÙĪÙĨ
Ø¨Ø± Ø®ÛĮ
ĠØ¨Ø± ÙĩØ§ÙĨ
Ø²ÛĮ Ø±Ø¯Ø±ÛĮØ§ÛĮÛĮ
ĠÙħØ³Øª ØŃ
M A
ĠÙĨØ§Ù¾ Ø°ÛĮØ±
E C
Ø¹ ÙĪÙĨ
ĠÙħÛĮ ÙĩÙĨ
ĠÛ¶ Û¹
ĠÙĪÛĮØ± Ø§Ø³Øª
ĠÛ±Û³Û¶ Ûµ
ĠÙħØ³ØªØ¹Ùħ Ø±Ùĩ
h er
ĠÙħØ·Ùħ Ø¦ÙĨ
ĠÙĨ ÙĩØ±
ÛĮÙĨ Ø§Ùģ
ĠØŃ ÙĦØ¨
Ø³ÛĮ ÙĦÛĮ
ĠÛ¸Û ±
ĠØµ Ø¯Ø§Ùħ
ĠØ¬ÙĨ Ø±Ø§ÙĦ
ĠÛ· Û¹
ĠØ¸ Ø±ÙĪÙģ
ĠÙĨÚ¯ Ø§Ø´Øª
ĠÚ©Ø±ÛĮ ÙħÛĮ
Ġ on
ĠØ´ ÙĪÙħ
ĠØ§ÙĪ Ú¯
ĠØ´Ùĩ Ø§Ø¯Øª
Ú¯Ø§ÙĨÛĮ Ø³Ùħ
ĠØ§Ø³ÙĦÙĪ Ø§Ú©ÛĮ
ĠÙħØ¤ÙĦ ÙģÙĩ
ĠØ´ Ø±Ø¨
ĠØ¹ Ø§Ø±
ĠØ³Ø§ÙĦ ÛĮØ§ÙĨ
ĠÙ¾Ø±ÙĪ Ø³
ĠØ´ÙĪØ´ ØªØ±
ĠØªØ·Ø¨ÛĮ ÙĤ
ĠÙħ ÙģØª
Ø§ÙĦ Ú©
ĠÚ©Ø§Ø± Ø¢ÙħØ¯
Ø§Ú¯ ÙĪÙĨ
ĠÙ¾ÙĨ Ø¬Ùĩ
ĠÚ¯Ø² ÛĮÙĨ
ĠØ¢Ø´Ù¾ Ø²ÛĮ
ĠÚ© Ø¨ÙĪØ¯
Ø¬ Øª
ÙĪÙĦ ØªÛĮ
ÙĪØ§Ø³ Ø·Ùĩ
ĠâĢ ľ
ĠØ§ÙĨ Ø§Ø±
Ø§ØªÛĮ ÙĪ
ĠÙ¾ÙĪØ´ Ø§Ú©
ĠÙ¾Ø±Ø§Ú© ÙĨØ¯Ú¯ÛĮ
Ġ ÛĮÙħ
ÛĮ Øµ
ĠØ±Ø§ Ùģ
ĠØ±Ø³ Ø§ÙĨ
ĠØ¹Ø¶ ÙĪÛĮ
ĠÙħØ§Ø¬Ø±Ø§ ÙĩØ§ÛĮ
ĠÙħØªÙĨØ§ ÙĪØ¨
Ø´ Ø§ÛĮØ±
ĠØ´ÛĮ ÙĪØ¹
ĠÙħØ®Øª Ø§Ø±
Ú¯ÙĪ ÛĮÙĨ
ĠÛ±Û³Ûµ Û±
ĠÙĨØ§Ø®Ø§ÙĦ Øµ
Ø´ Ø§ÙħÙĦ
ĠÙĩ Ø±Ø¨
ĠØ¯Ø³Øª Ø§ÙĪØ±
ĠÙħÛĮÙĦ Ø±
ĠØ° Ø§ØªÛĮ
ĠÙħØ® ÙģÙģ
ĠÚ©Ø´Ø§ÙĪØ± Ø²
ĠØ§ÛĮØ² ÙĪØªÙĪÙ¾
ĠÙħÙĪØ¶ Ø¹ÛĮ
ĠÙĨ Ø«Ø±
Ø® ÛĮÙħ
ĠÚ¯ Ø¦
Ø¹ Ø§
ĠÙħÙĨ ØµØ¨
ĠÙ¾Ø³ ÙĪÙĨØ¯
ĠØ¨ÛĮ ÙĨØ¯
ĠÛ±Û´ Û°
ĠÛ±Û³Û´ Û¹
ĠØ± Ø§Ø¶ÛĮ
ĠÙĤ ÙħØ±
ÙĨÚ¯ Ø±
ÙħØ¯ Ø§Ø¯
ĠØ§ÙĨÚ¯ ÛĮØ²
ĠØ§ÙĤ Ø¯
Ø³Ø§ÙĦ Ø§Ø±
ÙħØ¹ ÙħÙĪÙĦØ§
l es
ÛĮÙĦ ØªÙĪÙĨ
ĠÙĦ ÙĪØ²
ĠÙħØ³ Ø§ÛĮÙĦ
ĠÙħØ´ Ø§ØºÙĦ
ĠÚ¯ ÙĪÛĮÛĮ
ĠØ§ÙĦ Ø±
ĠØ§Øµ ÙĦØ§
ĠØ³Ú© ØªÙĩ
Ùħ Ø¯Ø±
ĠØ¨Ø§Ø² Ø±Ø³ÛĮ
ĠØ§Ø¨Øª Ú©Ø§Ø±
ĠÙĪØ²Ø§Ø±Øª Ø®Ø§ÙĨÙĩ
v ille
ĠÙĪ Ø²ÛĮØ±ÛĮ
ĠØ¢ ÛĮØ²
ĠØªÙĤ Ø§Ø·Ø¹
ĠÙħØŃÙĦ Ø§Øª
ĠÙħØ§Ø² ÙĨØ¯Ø±Ø§ÙĨÛĮ
ĠØ³ÛĮØ§ ÙĪØ´
ÙĪ ÙģÙĩ
ĠØªØ± ÙħÛĮÙħ
ĠØ§Ø±Ùħ ØºØ§ÙĨ
ĠØ¢Ø±Ø³ÙĨ Ø§ÙĦ
b ur
Ø¯ Ùģ
Ø³ ÙħÛĮ
ÙĤ Ø·
ĠØ¨Ø± Ø·Ø±Ùģ
ĠØªØ± Ø§Ø¨Ø±ÛĮ
ĠØ§ÙĨØª Ø²
ĠØªÙĨ Ùĩ
Ø±ÙĪ Ø²ÛĮ
ĠÙħØ¹ ÛĮÙĨÛĮ
ĠØ¶ ÙħÛĮÙħÙĩ
ĠÙĪÙģ Ø§Ø¯Ø§Ø±
a x
Ø§Ùħ ÙĨÙĩ
ĠØ® Ø´Øª
ÙĪÙĨ Ø§Ú¯Ø§
ĠØµØŃ ÙĨ
ĠØ·Ø±Ø§ØŃ Ø§ÙĨ
ĠØ§Ø³ Ø¨Ø§Ø¨
ĠÚ¯ ÙĦÙĪ
Ø· Ø§Ø¨ÙĤ
ĠØ· ÙĩÙħ
ĠØ§ÙĦ Ø¬
ĠÙħÙĪÙĦ Ø§ÙĨØ§
ĠØ±Ø¶ Ø§ÛĮÛĮ
ĠØ¨ÙĪÙħÛĮ Ø§ÙĨ
ĠÙĨ ØµÛĮØ±
ÙĨØ¯ Ú¯Ø§ÙĨÛĮ
ĠØ§ØŃ ÛĮØ§ÛĮ
ÙĪØ²ÛĮ Ø±ÛĮ
ĠÛ±Û³Û´ Û¸
ĠØ§ÙĤÛĮØ§ÙĨ ÙĪØ³ÛĮ
ĠØªØ±Ø§Ø´ Ùĩ
ÛĮ Ùģ
ĠÛ±Û³Û ³Û°
ĠØ²ÙĪØ¯ ØªØ±
Å ¡
ĠØ³ ÙħØ±
ĠÙ¾ Ø®ØªÙĩ
ĠÙħØ´ Ø§ÙĩØ¯Ø§Øª
ĠØªÙĩ ÛĮ
ĠØ° ÙĪØ§ÙĦ
Û¸Û ¹Û
ĠÙħØªØ®ØµØµ Ø§ÙĨ
ĠØŃ ÙģØ±
Øº Ø±Ø¨ÛĮ
Ø·ÛĮ ÙĦÛĮ
ĠØ³ÛĮÙĦ ÙĨØ¯Ø±
ĠÙ¾Ø§Øª Ø±ÛĮÚ©
ĠØŃ Ø§Ø¯
ĠØº Ø²Ùĩ
Ø¨Ø±Ø¯ ÙĨØ¯
ĠC ar
ĠØºÙĦØ§Ùħ ØŃØ³ÛĮÙĨ
ĠØ¯Ø§ÙĨÛĮ ÙĦ
ĠØ¹Ùħ ÙĪØ¯
ĠØ¨ÙĨÚ¯ÙĦ Ø§Ø¯Ø´
Ø§Ø³ Ø¯
ĠÙħÙĨ Ø§ÙĤ
ĠØ²ÛĮ Ø§ÙĨ
ĠØ²ÙĨØ¬ ÛĮØ±
ĠÙ¾ Ø±Ø¨
ĠÙħÙĪ Ø§Ø¯ÛĮ
ĠØ¨Ø§Ø² Ø¯Ùĩ
ĠØªØµ Ø§ØŃØ¨
ĠØ¢Ùĩ ÙĨÛĮ
Ø·ÙĨ Ø·
Ø§ÙĨ ÙĪØ³
ĠØ¯Ø§Ø± ÙĨØ¯Ùĩ
ĠÙħØ®ØªÙĦ Ø·
ĠÙĨØµØ± Øª
ĠØ§Ø³ØªÙĪØ§Ø± Øª
ĠØ¨Ùĩ Ø¨Ùĩ
ĠÛĮÙĪÙĨ Ø§ÙĨÛĮØ§ÙĨ
ĠÙĩÙħ Ø¬
ĠØ¯ÙĪ ÙĤÙĦ
ĠÙģÛĮ Ø¶
Ø§Ø¦ ÙĨ
o x
ĠÙĪ Ø²Ø±
ĠØº ÙĦØ§Øª
A l
ĠØªÙħØ§Ø´ Ø§Ú¯Ø±Ø§ÙĨ
ĠÙħÙħÙĨÙĪ Ø¹ÛĮØª
g r
ÙĪØ² Ø§
ĠØ§ØŃ ÛĮØ§
ĠÛ· Û±
ĠØªØ¹ ÙĦÛĮÙĤ
Û¹Û ³Û
ÙħØ§ÙĨ Øª
Ø±Ú© ÙĨ
ĠØ§ÙĨØ¯ Ø§Ø®ØªÙĩ
ĠØ²Ø§ÛĮ ÙħØ§ÙĨ
ĠØ§ÙħÙ¾Ø±Ø§Ø· ÙĪØ±ÛĮ
ÙĦ Ø¨Ø±Ú¯
ĠØ¢ ÙĪØ±ÛĮ
Ø±Ú© ÛĮ
ĠØ¯Ùĩ ÙĤØ§ÙĨ
ĠÙĦÛĮ Ù¾
ĠØ¢ÙĨ ÛĮ
ĠÚĨ Ø³
ĠØ¨ÙĨ Ø²ÛĮÙĨ
ĠÛ²Û°Û² Û°
ĠØºÙĪ Ø§Øµ
Øª Ø§Ùħ
ĠØ¨Ø§Ø²Ú¯ Ø´ØªÛĮ
ĠÙĪ Ú©
ĠT own
ÙħØ§ÙĩÛĮ Ø§ÙĨ
ĠÙĨ Ø§Ø¨Ø±
ĠØ²Ø±ØªØ´ØªÛĮ Ø§ÙĨ
ĠÙ¾Ø±Ùĩ ÛĮØ²
ÙĪ Úĺ
ĠØ³ ÛĮÙĨÚ¯
ĠØµ Ø±ÛĮØŃ
ĠÙ¾Ø§ÛĮ Ø§ÙĨÙĩ
ĠÙĪØ±Ø² Ø´Ú©
ÙĪÛĮÙĨ Øª
ĠØ¢Ø³Øª ÛĮÙĨ
ĠØ³ÛĮÚ© ÙĦ
Ø¢ Ø®Ø±
us t
Ø³Ù¾ Ø§Ø±
ĠÙ¾ÙĪÛĮØ§ÙĨ ÙħØ§ÛĮÛĮ
ÙĦ Ø§ØŃÛĮ
ĠØŃ Ø³ÛĮ
Ø¢ Ø´
Ø§ØŃ Ø§ÙģØ¸
ĠÚ©ÙĪÚĨÚ© ØªØ±ÛĮÙĨ
ĠÙħØ§Ø±Ú© Ø³
ĠØ§Ø³Ø§Øª ÛĮØ¯
T P
ĠØ¨ Ú¯
ĠØ¯ ÙĪØª
ĠÛĮÚ© Ø§ÛĮ
ĠØ¯Ùĩ Ø®Ø¯Ø§
ĠØ§ÙĨØ¯ Ø±ÙĪ
Ù¾ Úĺ
Ø§Ø¨ ÙĨØ¯Ùĩ
Ġ {
ĠØ¨Ø§ÙĦØ§Øª Ø±ÛĮ
Ø³Ø§Ø² ÙħØ§ÙĨ
ĠØ³ÙģØ± ÙĩØ§ÛĮ
ĠØ¯ÙĪØ¨ ÙĦÙĩ
ÙħØ¯ Ø§Ø±Ø§ÙĨ
ĠØªÙĦÙģ ÙĨÛĮ
Ø®ÙĪØ§Ùĩ ÛĮÙħ
Ø·ÙĨØ· ÙĨÛĮÙĩ
ĠØ· Ø¹
ĠØµ ÙĪØª
ĠØ¢Ø²Ø§Ø¯ Ú¯Ø§ÙĨ
ac e
ĠØ¨Ú¯ÛĮØ±ÛĮ Ø¯
i le
ĠÙĨ Ø¦
ĠØ± Ú©ÙĨ
ĠÙģØ± ÙĪØ±
ĠØ§Ø³Ø± Ø§Ø±
ĠÙģØ±ÛĮ Ø§Ø¯
Ø¹ÙĦ ÙĪÙħ
Ùĩ ÙĪ
Ú© ÙĨÛĮ
ĠØ¨ Ø§Ø¬
ĠÙģ ÙĪØ±ÛĮ
Ø±ÙĪ Ùĩ
Ú¯Ø± ÙĩØ§
Ø§Ø· ÛĮÙĨ
ÙĦÙĪ Ø§Ú©ÛĮ
ĠØªØ®Øµ ÛĮØµ
Ø¢ÙĨØ¬ ÙĦØ³
ĠØ±Ø§ Ú©Øª
Øµ ÙĨ
ĠØ§ÙĦ Ø´
ĠØ¢ÙĦ Ù¾
ĠØŃØ³ÛĮÙĨ ÛĮÙĩ
un d
ĠØ¯ÛĮÚ© Øª
ĠØ¯Ø± ØŃØ§ÙĦ
ĠØªÙĪÙĦÛĮØ¯ Ú©ÙĨÙĨØ¯Ú¯Ø§ÙĨ
ĠÛ±Û³Û´ Û¶
ĠØ§Ø³ ÛĮØ¯ÙĩØ§ÛĮ
Ø³Ø§ÙĦ Ø§Ø±ÛĮ
ĠØ§ÙĨØŃ ØµØ§Ø±ÛĮ
ĠØ§ÙĨØªÚ¯Ø± Ø§ÙĦ
" ,
ĠÙĨÛĮØ§ ÙģØª
ÙģÚ© Ø±Ø§ÙĨ
) -
ĠÙģ Ø§ØªØŃ
Ø±Ø³ ÙĪÙĨ
ol l
Ø« Ø§Ø±
ĠØ¢Ø± ÙĨ
ĠØ¨ ÙĪØ²
ĠÚĨ Ø±Ø¨
ĠØº Ø±ÛĮØ¨
Ø¯Ø§Ø± ÙĨØ¯Ùĩ
ĠØ³Ø±Ø¨ Ø§Ø²ÛĮ
ĠÙĨÛĮØªØ±ÙĪ ÚĺÙĨ
ĠØ³ Ú©Ø³
ĠÙĨ Ù¾Ø§ÙĦ
ĠØµ ÛĮØ¯
ĠØ¯ÛĮ Ø§Ø¨Øª
ĠØ§ÙĦ Ø§ÙĨ
ĠÙħØ§ÙĩÛĮ Ø§ÙĨ
ĠØ¨Ø§ ÙĤ
ĠÙĤØ· Ø±Ùĩ
ĠØ± ÙĪØ¯ÛĮ
Ø¬ ÛĮÙħ
ĠÚ©Ø±ÛĮØ³Øª ÙĪÙģØ±
ĠÙĦØ² ÙĪÙħ
ĠØ´Ø±Ú© ØªÛĮ
ĠØ¨Ø§Ø²ÙħØ§ÙĨØ¯ Ú¯Ø§ÙĨ
ĠØ¹ Ø³
ĠÚ©ÙĦ Ú©
Ġ la
ĠØ± ÛĮØ²ÛĮ
ĠØ® Ø§Ø´
Ø§ÙĨØ¯ Ø±ÙĪ
ĠÙħÙĦ Ø®
ĠØµØ§ØŃ Ø¨Ø§ÙĨ
ĠÙĦ Ø§ÙĨÙĩ
ĠØº Ø¶
ÙĨÙĪ Ø§Ø²
ĠÛ±Û³Û¶ Û´
ĠÙģÙĨ ÙĪÙĨ
Ġ19 9
ÙĨ Ø§Ø²
ÙĨØª Ø³
ĠÙħÙĪØ¬ÙĪØ¯ ÛĮ
ĠÚ©Ø§Ø±ÙĪØ§ÙĨ Ø³Ø±Ø§ÛĮ
Ø¬ ÙĦ
ĠÙĦ ÚĺÛĮÙĪÙĨ
ĠÙĦØ± Ø²Ùĩ
ĠÚ©Ø§ÙħÛĮ ÙĪÙĨ
an o
ĠÙĤØ³ Ø·ÙĨØ·ÙĨÛĮÙĩ
Ø¨ Ø§ÙĤ
ĠÙ¾ Ú©ÙĨ
ĠÙĤ Ø´ÙĤ
Ø§Ø´ Ø§
ÙĪØª ÙĪÙĨ
Ø§Ø· ÛĮØ³
ĠÛ±Û¶ Û°
iv ers
ĠØ¨Ø±Ø¯Ø§Ø´Øª ÙĨ
ÙĤÙĦ Ø¨
ÛĮÙĨÚ¯ ÙĩØ§Ùħ
ĠÛĮÙĪØ±ÙĪ ÙĪÛĮÚĺÙĨ
ĠØ¯ÛĮÙ¾ÙĦÙħØ§Øª ÛĮÚ©
ĠØ¨ÙĦÙĪ Øº
c k
ĠØ¯Ø± Ø´Øª
ĠØ§Ø³Ù¾ ÛĮÙĨ
Ú¯Ø±ÙģØª ÙĨ
ĠÙ¾ÙĨØ§Ùĩ ÙĨØ¯Ú¯Ø§ÙĨ
2 5
Ø¨ Ø§Ú©Ø³
ĠØ¹ Ø²ÙĦ
en g
ÙĪØ³ Ø§Ø²ÛĮ
ĠØ³ÙĪ Ø§Ø±ÛĮ
Ù¾Ø± Ø³ØªÛĮ
ĠÙģØ± ÙĤ
ĠØ±ÙĪØ² ÙĩØ§
Ø´ÛĮ Ø®
ĠØ±ÛĮ Ø§ÙĦ
ĠÙĪÙĤ ÙģÙĩ
ĠØªÙĪÙ¾ Ø®Ø§ÙĨÙĩ
Ø² ÙĨØ§ÙĨ
ĠÚĨ ÙĪÙ¾
Ø¨Ø± Ø¯Ùĩ
ĠÙ¾ÙĨ ÛĮØ±
ĠÙģ Ú©
ĠÚ©ÙĦ ÙĨ
ĠÙģØ±Ø³Øª ÙĨØ¯Ùĩ
ĠÙħØ£Ùħ ÙĪÙĨ
ĠØ±ÙĪØ¨ Ø§Ùĩ
ĠÙĨ Ø³Øª
ÛĮÙĦ Ø¯
ĠØ¶ ÛĮ
ĠÙģØ±ÙĪ Ø´ÛĮ
ĠØ³Ø§Ùħ ÙĪØ±Ø§ÛĮÛĮ
ĠÙħÙĪÙĨ ØªØ±
ĠØ´Ú©Ø§Ø± ÚĨÛĮ
ĠÙħÙĨØ´ ÙĪØ±
ĠÙĪØ§Ø³ Ø·
ÙĦÛĮ ÙĪØ³
ĠØ¯ÛĮ ÙģØ±Ø§ÙĨ
Â» )
ĠÙĪÙĦ Ø§Ø¯ÛĮÙħÛĮØ±
as h
Ġc odice
ĠØ¢ÙħÛĮØ² Ø´
ĠÚĺÛĮÙħÙĨ Ø§Ø³Øª
ĠØ² ÛĮØªÙĪÙĨ
Ùĭ ØĮ
an a
ĠÙ¾Ø§Ø±ÙĦ ÙħØ§ÙĨÛĮ
ĠÙģØ±ÛĮØ¯ Ø±ÛĮØ´
ĠÙħÙĪ Ø§Ø²
ĠØ§ÙĦ ØªØŃ
ĠÙĨÛĮ Ø§Ùħ
ar a
Ø´Ø§Ø® Ùĩ
ĠØ§Ø³Ù¾Ø±Ø§ÙĨ ØªÙĪ
ĠÙĩØ±ÙĪØ¯ ÙĪØª
ĠÚ© Ø¨ÛĮ
Ø±Ú© Ø§ÙĨ
ĠÙ¾Ø± ÛĮÙĨ
ĠØ²ÛĮØ± Ø®Ø§ÙĨÙĪØ§Ø¯Ùĩ
Ø±Ø¦ ÛĮØ³
ĠØ§ØªÛĮ ÙĪÙ¾ÛĮ
Øª Ø§ÛĮÛĮ
ĠÙĪ Ø±ÛĮ
ĠØ§ÛĮÙĨ Ø³Øª
ĠÙĪÙĤ Ùģ
ĠÙĪ ÛĮØ§
ĠØ¨Ø§ÙĦ Ú¯Ø±Ø¯
Û±Û¸Û ·
ĠÙħØªÙħ Ø§ÛĮÙĦ
Ø³ÛĮ Ø³ØªÙħ
ĠØ³Ø± Ø§Øº
Ø§ÙĦÙĨ ÙĩØ±
ĠØ³Ø§ÙĪ Ø§Ú©
ĠÙĦØ§ÙĩÛĮ Ø¬Ø§ÙĨ
Ù¾ Ø±ÛĮ
Ø§Ø¦ ÛĮÙĩ
ĠÙħÙĨØ¹ Ú©Ø³
Ø± Ø§ÙħÛĮ
ĠØŃÙħ Ø§Ø³ÛĮ
ĠÚ© Ø§ÙĦØ¨
ĠÙĨÛĮØ² Ùĩ
Ø§Ø¦ Øª
ĠØŃ Ø²Ø¨ÛĮ
Ø³ÛĮ Øª
ĠÙĨØ³ Ø§Ø¬ÛĮ
ĠÙĪÙĦÛĮ Ø¹ÙĩØ¯
ĠØ³ÛĮÙħ ÙĪÙĨ
ĠØºÛĮØ±Ùħ ÙħÚ©ÙĨ
ĠÙĪØµ ÛĮØª
ĠØ¢ÙĪØ± ÙĨØ¯
ĠØ¨Ø§ÙĪØ± ÙĩØ§ÛĮ
Ùħ ÙĪØ²
Ùģ Ø±ÛĮØ¯
ĠØ¨ÛĮ Ø§Øª
Ø§Øµ Ø¯
ĠÚ¯ÙģØª ÙĨ
ĠØ®Ø± Ú¯ÙĪØ´
ĠØ§Ø³ØªØ± Ø§ÙĦÛĮØ§ÛĮ
ĠÙĨÛĮØ±ÙĪ ÙĩØ§
Ùĩ ÙĦ
ĠÙ¾ Ø§ÙĩØ§ÛĮ
ÙĪÙħ ÙĪ
ĠÙħØª ÙĨÙĪØ¹ÛĮ
ĠØ¨Ø§Ø±Ø¯ Ø§Ø±
ĠÙħÙĪØ± Ú¯Ø§ÙĨ
ÛĮ Ø§Ø¯
ÛĮÚ© Ø§ÙĨ
ĠÙħØ¹ Ø±ÙģØª
ĠØ¬ÙĨ Ø§Ø²Ùĩ
ĠÙħØ®ÙģÛĮ Ø§ÙĨÙĩ
r u
ĠÙĩ Ø±ÛĮØ³
ĠÙģ Ø§Ùħ
ĠØ¹ ØªÛĮ
ĠÙħØµ ÙĪØ¨Ùĩ
ĠØ´Ø§Ùĩ Ø±Ø®
ÙĤØ± Ø¶
ĠÙħØŃØªÙĪ Ø§
Ø§ÙĨØ¬ ÙħÙĨ
ĠØ¨ Ø¨Ø±
ĠØ· ÙĪÙĦÛĮ
ÙĪÙĨÛĮ Ø³Øª
Ø¨Ø§ÙĨ ÙĪ
ĠÙħØ±Ø¯ Ø§ÙĨÙĩ
ĠÙĦÛĮ ÙĪ
ĠØ³Ø±Ø²ÙħÛĮÙĨ ÛĮ
ĠÙĨÙĪØ¨ ÙĪÙĨØ§Ú¯Ø§
ĠÚĺÙĨ ÙĪÙħ
ĠØ¯ÙĦÙģ ÛĮÙĨ
C h
ĠØº Ø²ÙĨ
ĠØ·Ø± ØŃÛĮ
ĠØ¨Ø® Ø§Ø±Ø§
ĠØ³ ÙĪÙģ
ĠØŃ ØªÙħ
ĠÙĨÙĪØ± ÙĪÙĨ
ou th
ĠØ§ÙħÛĮØ¯ ÙĪØ§Ø±
ĠØ¢ÙħÙĪ Ø®ØªÙĩ
ĠØªÙĪÙĩ ÛĮÙĨ
Ùħ Ø®
Ø¯ Ú©ØªØ±
ĠÙ¾ÙĦ Ø§ÙĨ
ĠÚĨØ´ ÙħØ§ÙĨ
I P
Ú¯ Ø§Ø¯
ĠØ¯Ø± Ø¨ÙĨØ¯
ĠÙĩ ÙĢ
ÙĪØ´ ÛĮÙħØ§
ĠÛ±Û³Û¶ Û±
ĠÙħÙĨ ÛĮ
p e
ĠØªØ² Ø¦ÛĮÙĨÛĮ
i x
Ø¹ ÙĦØ§ÙĪÙĩ
ÙĩØ§ ÙĪØ²ÙĨ
ĠÙĦ Ø±Ø²
ĠÚ© ÙĪÙ¾Ø±
ØªÛĮ Ø§Ø¯
ĠÙĦ Ø§Ø´
ĠÚ¯Ø± Ø§
ĠÙħÚ©Ø§ÙĨÛĮ Ø³Ùħ
ÙĪÙħ ØªØ±ÛĮ
ĠØ¢ÙħÙĪØ² Ùĩ
ĠÚ©Ø§Ùħ Ø±ÙĪÙĨ
ĠØ¨Ø§ÙĨ ÙĪÛĮ
ĠÙĨ ÙĪØ±Øª
Ø¹ ØµØ±
ĠØ§ÛĮ ÙĪ
Ø· Ø§ÙĦØ¨
ĠÙĦ ÙĤ
Û² Û°Û°
ĠØ§Øª Ø±ÛĮØ´ÛĮ
ĠØªÚ© ÙħÛĮÙĦÛĮ
al ity
ĠÙħØ¨ Ø§Ø±Ú©
ĠØ±Ø§Ø¯ ÛĮÚ©Ø§ÙĦ
ĠØ¨Ø§Ø® ØªØ±
ĠØµ Ø§ÙħØª
ĠØ¯ÛĮ Ø§Ø±
ĠØµØ¯ Ø§Ù¾
Ø°ÛĮ Ø¨
Ø§Ùĩ ÙĨÚ¯
ØŃ Ø§ÙĨ
ĠÚĨ Ø±ÛĮÚ©
ĠÚĨ Ú©Ø³
ĠØ¯ÛĮ ÙĪØ§ÙĨÙĩ
ĠØŃÙħ Ø²Ùĩ
ĠÙħØ³Øª ÙĪÙģÛĮ
ĠÙ¾ÙĨ Ø§ÙĦØªÛĮ
Øª Ø§ÙĦ
ĠÙĦ Ø§Ø²
ĠØ§Ùħ Ø¶Ø§Ø¡
ĠÙħØ³ Ø·ØŃ
ĠÙĨÛĮØ± ÙĪÙħÙĨØ¯
ĠØ¬Ø± ÙħÛĮ
ĠÙħ ÙģØ±
ĠÙ¾ Ø§Ø²
Ø§Ø¦ ÛĮÙĨ
ĠØªØ± Ø§Ú©ØªÙĪØ±
Ø³Ùħ Ø³
ĠØ¨ ÙĪÙĨØ¯
ĠÙĩ ÙĪÚ©
ĠØ° Ø§Øª
ĠØ®Ø§Ø· Ø±Ùĩ
ĠÙĩØ§ÙĪ Ø§ÛĮÛĮ
ÙĪØ¯ Ø´Øª
ĠØ² ØŃ
ĠØ§ÙĨ ÙĤØ¨
ĠÙħØŃ ÙĪØ±ÛĮ
Ø¨Ø§Ø± Ø§
ĠT e
ĠB e
Ú©Ø´ ÛĮØ¯
ĠØ§Ø¸ Ùĩ
Ã Ń
ÙĪ ÛĮÚ©ÛĮ
Ùħ Ø±Ø²
ĠØ±Ø§ÛĮ Ø§ÙĨ
ĠØ±Ø§ÙĨ Ø¯Ùĩ
ĠØ§Ø¹Ø· Ø§ÛĮ
Ø³ÙĦÛĮ ÙħØ§ÙĨ
Ø¯ Ø³ØªÛĮ
ĠØ§ ØªØ§Ø¨
ĠØ² Ø¨Ø§ÙĦÙĩ
ĠÙĦ Ø¹
ÙĪÙĨØª ÙĪØ³
ĠØµØŃ Ø±Ø§ÛĮ
ĠØ§Ø±Ø³ Ø·ÙĪ
8 0
C P
ĠÙĨ Ø·
ĠÙģØ±Ø§ÛĮ ÙĨØ¯ÛĮ
ĠÙĩÛĮØ¯ Ø±
ĠÙĨÙĪØ§Ø² ÙĨØ¯Ú¯Ø§ÙĨ
ĠÙħØ¹ØªØ± Ø¶Ø§ÙĨ
Ø§ÙĪ ÙĦÛĮ
ĠØ±Ø§Ø³Øª Ø§
Û±Û¸Û ¹Û
ĠÚ¯Ø°Ø± Ú¯Ø§Ùĩ
ĠÙ¾ØªØ± ÙĪØ´ÛĮÙħÛĮ
ĠÙħØ³ÙĦØŃ Ø§ÙĨÙĩ
ĠØ¨ÛĮØ¯ Ø§Ø±
ĠÙĩÙĪØ§ÙĨ ÙĪØ±Ø¯ÛĮ
6 0
D A
ĠÙħÛĮ Ú¯
ÙħÛĮ Ø±Ø¯
Ø´Ø¯ Ú¯Ø§ÙĨ
ĠØªÛĮØ± ÙħØ§Ùĩ
ÙĤ ÙĪÙĦ
ĠÙħÙĪ Ø§Ø¶Ø¹
ĠÚ¯Ø± Ø¯ÙĩÙħ
ĠØ´Ú©Ø³Øª Ú¯ÛĮ
Ø¢ÙħØ±ÛĮÚ© Ø§ÛĮÛĮ
ĠØ¢ Ø±Ø§ÙĨ
ĠÙĦ ÛĮÚ©ÙĨ
ĠÚ©Ø± ÙħØ§ÙĨÛĮ
ĠØ³Ø±Ø¯ Ø´Øª
ĠØ§ÙĦØ¯ ÙĪÙĦÙĩ
Ø§Ùħ Ø²
Ø® Ø§Ø´
ĠÙħØ¹ Ø§ÙħÙĦ
ĠÙħÙĩØ± ÙħØ§Ùĩ
ĠØ¨Ø±Ø§ÙĨÚ¯ÛĮ Ø®Øª
ĠÙĨØ§ÙĤ Øµ
Ø±ÙĪ ÚĺÙĨ
ĠØ§ÙĤØª Ø¯Ø§Ø±
ĠÙĩÙħ ÙĪØ§Ø±
ĠÚ©ÙĦ ÙĪØ¯
ĠÚ¯ÙĦ ÙĨ
ĠS c
Ø¹Ø¨ Ø¯Ø§ÙĦ
ØŃ ÙĪØ²Ùĩ
Ø´ÙĪ Ø§Ø±ÛĮ
Øª Ø£
ĠØ§ ØªØ±
Ø¨Ø± ÙĨØ§ÙħÙĩ
ĠØªÙĨ Ø§Ø³Ø¨
ĠØªØ¶ Ø§Ø¯
ĠØ§ÙĨØ¯Ø± ÙĪÛĮØ¯
ĠØ¢Ø¯Ø§Ùħ Ø²
y l
ĠØ³ Ø§ØªØ±
ĠØµ ØºÛĮØ±
ĠØ§Ø³ ÙħÛĮ
ĠØ³Ø± Ø³Ø¨Ø²
ĠØ³Ø±Ø¯ Ø§Ø±Ø§ÙĨ
ĠØ¹Ø±ÙĪ Ø³Ú©
ĠÙĪ ØµÙģ
ÙĪØ± Ø§Ø³
ĠÙĩ ÛĮÙħ
Ø§ÙĨÛĮ Ø§ÛĮ
Ø±ÙĪ Ø²Ùĩ
Ø¦ Ø§
ÙĪØ´ ÙĪ
ĠÚ¯ÙĪ ÙĩØ±
ĠØ¯ÛĮØ± ÛĮÙĨÚ¯ÛĮ
ĠØ¶Ø±Ø¨ Ø§Øª
Ġ Ã
ĠÙħ Ø¨Ùĩ
ĠØªØ± ÙĤÛĮ
ÙĪÛĮÙĨ Ø¯Ùĩ
ĠØ§ØŃ ÙĪØ§ÙĦ
ĠØ±ÙĨÚ¯ ÛĮÙĨ
ĠÛĮØ§Ø¯ Ø¢ÙĪØ±
ĠG e
ĠØ±ÛĮØ§Ø¶ ÛĮØ¯Ø§ÙĨ
ĠØ´Ø¯ Ú¯Ø§ÙĨ
ĠÙħØ¬ ØªÙĩ
ĠØ±ÛĮØª Ùħ
ĠÚĨ ÛĮØ±Ùĩ
ĠØ§ÙĪ ÛĮÙĨ
ĠÙĨÙħ Ø§ÛĮÛĮ
Ø¨Ø±Ø§ÙĨ Ú¯ÛĮØ²
Ø¬ Ø¹
ÙģØª Ø¯
ĠÙħÙĨ ÙģØ±Ø¯
ĠÙĨØ§Ùħ ÙĪÙģ
ĠØ§Ø¹ ÙĦØ§ÙĨ
m e
ĠØ¨ ØªÙĩ
ĠØª Ø¨ÛĮ
ĠØ§ÙĦÚ©ØªØ± ÛĮÚ©
ĠØªÛĮ ØªØ±
â Ī
ĠÙĩÙģ Ø¯Ùĩ
ĠØªØ¬Ø±Ø¨ÛĮ Ø§Øª
ĠÙĤØ´ÙĤ Ø§ÛĮÛĮ
ĠÙħØ´ Ø±Ùģ
ĠØ¹ÙĦ Ø§ÛĮÙħ
Ú©Ø§Ø± Ú¯ÛĮØ±ÛĮ
Ø§Ø¯ Ø§ÙĨ
ĠØ§ÙĪ Ù¾
ĠØ§Ø± Ø§ÙħÙĨÙĩ
ĠØ¢ÙħÛĮ Ø®ØªÙĩ
ĠÙĪÛĮÙĦÙĩ ÙĦÙħ
ĠÚĨÚ©Ø³ ÙĦÙĪØ§Ú©ÛĮ
ĠØ¨ Ø³Ø§Ø²Ø¯
Ùģ Ø¶ÙĦ
ÙĪÚ© Ø³ÛĮ
ĠÙħØ§Ùħ ÙĪØ±ÛĮØª
ĠØ¬Øº Ø±Ø§Ùģ
ĠØ´ Ø§ÙĨÚ¯
ĠØ® ÙĨØ¯
Ø§Ùĩ Ø¨
ĠØ¬Ùħ Ø¬ÙħÙĩ
ĠØ¨ÙĪÚ© Ø§ÙĨ
ĠØ¨ Ø°Ø±
ĠÚ© Ù¾Ø³
ĠÙħÙĨØ¸ Ø±
ĠÙħ ÙĪØ§ÙĨ
ĠØ³Ø§Ø² ÙĨØ¯Ú¯Ø§ÙĨ
ÙĪØ§ ÚĺÙĩ
Ġt h
ĠÛ±Û³Û´ Û±
ĠÚ©ÙħÙĪÙĨÛĮ Ø³ØªÛĮ
ÙĨ Ø¨
ĠØ¯Ø± ÙĪÛĮØ´
ĠÙģØ±Ø§ÙĨ Ø³ÛĮØ³Ú©ÙĪ
ĠØ³ÙĨ Ø³ÙĪØ±
ĠÛ±Û¹Û°Û ·
ĠÚ©Ø§Ø³Øª Ùĩ
Ú© ÛĮÙĨØ²
ĠØ¨ ÙĪÚ¯
ĠÙĦ Ø§Ù¾
ĠØ³ÛĮ Ø³ØªÙħÛĮ
ĠÙĦÛĮ ØªÙĪØ§ÙĨÛĮ
ĠØ±ÙĤ Ø§Ø¨ØªÛĮ
ĠÙħØºÙĪÙĦ Ø§ÙĨ
ĠÙħÙĨØŃØµ Ø±Ø¨Ùĩ
ĠÚ©Ø¨ÛĮ Ø³Ùĩ
ĠØ§ ÙĪÛĮÙĦ
ÚĨ Ø§Ùĩ
ĠÚ©Ùħ ÛĮØª
ĠØ§Ø±Øª Ø¯
ĠÚ©ÙħÛĮ Ø§Ø¨
ĠØ®Ø¨Ø± Ú¯Ø§ÙĨ
Ø± Ø§ÙĤ
Ø³ ÛĮÚ©
ĠØ± Ø§Ø´
Ù¾ Ø§Ø³
ĠÛĮÚ© ØµØ¯
ĠÙħÙĨ ÙĤØ±Ø¶
ÙħÛĮÙĨ Ú¯
ĠÙħÙĩ Ø±Ø¯Ø§Ø¯
ĠÙĤÙĦ ÙħØ¯Ø§Ø¯
ĠØ±ÙĪØŃ ÛĮÙĩ
ĠØ³Ø§ÙĨØ³ ÙĪØ±
i um
ĠØ§ÛĮ ÙħÛĮÙĦ
Øµ Ø±ÛĮ
ĠÙĪØ§Ø±Ø¯ Ø§Øª
ĠØ²ÛĮØ¨ Ø§ØªØ±ÛĮÙĨ
ĠÚ¯Ø±Ø§ÙĨ Ø´
ĠÙĨÚ© Ø§Øª
Ġ j
ÙĦ Ø§Ø¹
Ø¨ ÛĮÙħ
ĠØŃ Ø§Øª
ĠØ³ÙĪØ² Ø§ÙĨ
n o
ĠØ¨ Ø®Øª
ĠÙħÙĤ Ø§Ø·Ø¹
ĠL e
00 0
ĠØ´Ø±ÛĮ Ø¹ØªÛĮ
ĠØ® ÙĪÚ©
ĠÙĨÙħ Ø§
ØªÙĨ ÙĩØ§
ĠØ§ØµØ· ÙĦØ§ØŃÛĮ
ĠØ¶Ø® ÛĮÙħ
ĠÙĪØ±Ø²Ø´Ú© Ø§Ø±Ø§ÙĨ
ĠØ¨Ø§Ø² ÛĮØ§ÙģØª
ÙĨÛĮÙĨ Ú¯
ĠÙħØ¹Ø±ÙĪÙģ ØªØ±ÛĮÙĨ
Ø³Ø§Ø² Ø§ÙĨ
Ù¾ Ø³Ø±
ĠØ¢ÙĨ ÙĤØ¯Ø±
ĠÚ©ÙĨ ÛĮØ§
ĠÛ±Û¹Û°Û ¶
ĠØŃØ¬ Ø§Ø¨
4 0
ĠØ¨ Ø¯Ùĩ
ĠÚ© Ø±Ø§ÙĨ
ĠÚ© Ø¬Ø§
ĠØµ Ø¯ÛĮ
ĠÚ©Ø´ Ùħ
ÙĨØ¸ Ùħ
ĠØ§Ù¾ Ø±Ø§ÛĮ
ĠØ®Ø´Ùħ Ú¯ÛĮÙĨ
ĠØ³ Ø³
ĠÙħØ¹ Ø§ÛĮ
ĠØ¢ÙĦ Ø§Øª
Û¹Û ¸Û
ĠÙĦÛĮÙĨ Ú©
Øº Ø§ÙĨÛĮ
Ø´ÙĨ Ø§Ø®Øª
ĠÙ¾Ø±Ø³Øª Ø´
ĠØ¯ÛĮØ¬ÛĮØª Ø§ÙĦÛĮ
ĠØªØ¹ ÙħÛĮÙħ
ĠØ³Ø§Ùħ Ø³ÙĪÙĨÚ¯
ĠØŃÛĮ Ø«
ĠØ¯ÛĮØ² ÙĨÛĮ
Ø³Øª ÛĮÚ©
ĠØ¹ Ø§Ø¬
ĠÛĮ Ú¯Ø§ÙĨÙĩ
ĠÙĨØ´ ÛĮÙĨ
ĠØ±Ø§Ùĩ Ù¾ÛĮÙħØ§ÛĮÛĮ
ĠÙĨØ¸Ø± Ø³ÙĨØ¬ÛĮ
Ġ2 0
ĠÛ±Û³Û´ Ûµ
ĠÛ±Û³Û¶ Û³
ĠÚ¯Ø´ Ø§ÛĮØ´
ĠÙģÙĪØª Ø³Ø§ÙĦ
Ð ½
ĠØ¨ Ø¬Ø§ÛĮ
ĠØ¯ Ø´ÙĪØ§Ø±ÛĮ
Ø² ÙħØ§ÙĨÛĮ
Ø§Ùħ ØªÛĮ
ĠÙħÙĩ ÛĮ
ĠØ§ØªÙĩØ§Ùħ Ø§Øª
Øª ÛĮØ±
Ù¾ ØªÙĪÙĨ
ĠØŃ ÙĨ
ĠÙħØ¹ ÙĨØ§ÛĮÛĮ
ĠÚ©Ø± ÙĪÛĮ
ĠÙĨØ¨ÙĪØ¯ ÙĨ
ÙĤØ¯Ø± Øª
ĠÙ¾Øª Ø§Ø³ÛĮÙħ
ĠØ§Úĺ Ø¯ÙĩØ§
ĠØŃ Ø¨
Û±Û³Û ²
ĠÚĨÙĦ Ø³ÛĮ
C l
I C
ĠÙĨ Ø±Ø³Ø§ÙĨØ¯
ĠØº Ø±ÛĮ
ĠØªØ± ÙĪÙħ
ĠÙħ Ú©Ø³
ĠÚĨØ´Ùħ Ú¯ÛĮØ±
ĠÙĪØ¨ ÙĦØ§Ú¯
ĠØ²Ø±Ùĩ ÛĮ
ĠØ®Ø¯Ùħ Ø§ØªÛĮ
ĠØ¯Ø³ØªØ§ÙĪØ± Ø¯ÙĩØ§ÛĮ
ĠØ¨Ø± Ù¾Ø§ÛĮÛĮ
ĠÚ©Ø§Ø± ÙĩØ§ÛĮÛĮ
ĠÙħØ´ Ø§ÙĩÛĮØ±
Ú© Ø¨ÛĮØ±
Ø¨ ÛĮÚ©
Ø¨ÙĪØ¯ ÙĨ
ĠØ®Ø¯ Ø§ØŃØ§ÙģØ¸
ĠÙĨ Ú¯Ø§ÙĩÛĮ
ÙĪØ¯ ÛĮÙĨ
Ø¢ ÙģØ±ÛĮÙĨÛĮ
ĠÙħØ³ ÙĪ
ĠØ§ÙĨØª ÙĩØ§
Ø³Ø± Ø¯Ùĩ
ĠØ§Ø³Ù¾ ÙĪØ±Øª
ĠØ³ÙģØ± ÙĨØ§ÙħÙĩ
ĠØ¬ÛĮØ± ÙģØª
ĠÙģØ§Ø¶ÙĦ Ø§Ø¨
Ú¯ ÙĪØ±ÛĮ
ÙĪØ± ÛĮØ§
ÙĪØ± Ø¯ÙĩØ§ÛĮ
Ø§Ø±ÛĮ Ø³Øª
ĠÙħØŃØ¯ ÙĪØ¯ÛĮ
ĠØªÙĩØ§Ø¬ ÙħÛĮ
r os
ÙĨØ¯ ÙĪØ±Ùģ
Ø³ÛĮ ØªÙĩ
ÙĪÙĩ ÛĮ
ĠÙĨÙĪ Ú©ÙĦ
ĠØªØ±Ø¨ Øª
Ø²Ø§ÛĮ ÙĨØ¯Ùĩ
ĠØ§ÙĦÙĩÛĮ Ø§Øª
Ñ Ģ
ĠØ¬ Ùģ
ĠØ§ ÙĪØ±ÛĮ
ĠÙ¾ÙĨØ§Ùĩ ÙĨØ¯Ùĩ
ĠÙħÚ¯ Ø³
ĠÙģÛĮØ±ÙĪØ² Ø¢Ø¨Ø§Ø¯
ĠÙĪ Ø§ØªØ±
ĠÚ©Ø´ÙĪØ± Ø´
ĠØ¯Ùģ Ø§ØªØ±
ĠØ¨Ø§Øº Ø§Øª
ĠÙĨØ§Ú© Ø§Ùħ
ĠØ§Ø¶Ø·Ø± Ø§Ø¨
ĠÙĨ Ù¾Ø°ÛĮØ±ÙģØª
ĠÚ¯ Ø§ÙĨ
ĠÛĮ Ø§Ø¨ÛĮ
ĠÚ¯Ø± Ø§Ø¯
ĠØ¨ÛĮ ÚĺÙĨ
ĠØ³ÙĨÚ¯ ÛĮÙĨÛĮ
M S
ĠØ§Ø± Ø³ÙĦØ§ÙĨ
Ø§ÙĨØ¯ Ø±Ø§
ĠÙ¾Ø±ÙĪ Ø³Ùĩ
ĠÚ© ÙĪØ³
ĠØ§ÛĮ ÙħÙĨ
Ø¶ Ø§Ø±
Ø±ÛĮÚ© Ø³
Ø§Ø¦ ÙĪØ³
ĠÙħØ§ÙĨØ¯ ÙĨØ¯
ĠØ¯ Ø§ÛĮÛĮ
ĠÙĪ Ø§ÙĦØ¯
ĠÚ©ÙĦ Ø§ÛĮÙĨ
Ø·ÙĦ Ø¨Ø§ÙĨ
ĠØ³ ÙĦÛĮÙħ
ĠÛ¸Û ¹Û
ĠØ®ÙĪØ´ ÙĨÙĪÛĮØ³ÛĮ
ĠÛ±Û¹Û°Û ´
ĠÚ©Ø§Ø³ Ùĩ
ĠØªØ¯Ø±ÛĮ Ø¬ÛĮ
ĠØª Ø§ØªÛĮ
ĠØ§Ø³ Ø±Ø§ÛĮ
Ø²ÛĮ Ø§ÙĨ
ĠØ§Ú© ÙĪØ§Ø¯ÙĪØ±
Ġ *
ĠÚ© Ø¬
ĠØ§ÙĨ ØªØ±
ĠÙģØ± ÙħØª
Ú©ÙĪ ÙĪØ±
ÙĤ Ø§Ùħ
ĠØ³ ÙĪÙĤ
ĠØ¹Ùħ ÙĪÛĮ
ĠØ§Ø³ØªÙĪØ¯ÛĮ ÙĪÛĮ
Ø³Øª ÙĤÛĮÙħ
ĠÙĩ ÙĪØ´ÛĮ
ĠØ§ÙĨ Ø¯ÛĮ
ĠÙ¾Ø§Ø±Ø§ÙħØªØ± ÙĩØ§ÛĮ
ĠØ³ Ú©Ø§ÙĨ
ĠØ´ Ø§Ù¾
ĠØ¨Ø¯ ØªØ±ÛĮÙĨ
ĠØªØ´ Ø±ÛĮÙģ
Ø¬Ø§ÙĨ Ø¨Ùĩ
Ù¾ Ø±Ø³
ĠØŃ Ø±ÛĮÙħ
Ú¯Ø±Ø¯ Ø§ÙĨÛĮ
ĠØªÙĦ Ú¯Ø±Ø§Ùģ
ĠØ³ÙĦ ÙĪÚ©
ĠÛ±Û³Û¶ Û¶
ĠØ§Ø¸Ùĩ Ø§Ø±Ø§Øª
ĠØªØ§Ø¨ Ø¹ÛĮØª
ĠØ±Ú© ÙĪØ¯
ĠØ´ÙĪÚ¯ ÙĪÙĨ
ĠØ³ ØªÙħ
ĠØ³Ø± Ø´Ø§Ø±
ĠÛ±Û² Û°Û°
ĠÙ¾Ø§Ø¯ Ø§Ø´
ĠØ³Ø¹ Ø§Ø¯Øª
ĠÛ±Û¹Û°Û ¹
Ø·Ø¨ ÙĤ
Øª Ø³Ùĩ
ĠØ¨ Ø§ÙĩÙħ
ĠÙħ ÙĪØ±Øª
ĠØ¹ ÛĮÙĨÛĮ
ĠØ¨ÙĦ Ø§
ĠÛ¸Û ³Û
ĠÚ¯ ÙĪÛĮØ¯
ĠØ§ÛĮØ¯Ø¦ ÙĪÙĦÙĪÚĺÛĮ
ĠØ§ØªÙĦ ØªÛĮÚ©
ĠÙ¾ ÙĨÛĮ
ĠØ¨Ø§ ÙģÛĮ
Ø§ÙĦÛĮ Ø³ØªÛĮ
ĠØ§Ø¹ ØªÛĮØ§Ø¯
ĠÙħØŃÙħØ¯ ØªÙĤÛĮ
ic ip
ĠØ¹Ø§Ø· ÙģÛĮ
ĠØ¨ Ø´ÙħØ§Ø±
Ø±ÙĪØ³Øª Ø§ÛĮ
ĠÙĨØ§ÙħÙĨ Ø§Ø³Ø¨
ĠØ§ÛĮ ÛĮ
ĠÙĤÙĦ ÙħØ±
Ù¾ÛĮ ÚĨÛĮ
Û¸Û ¸Û
ĠÛ¹Û ¹Û
ĠÙħØªÙĤ Ø§Ø¹Ø¯
ĠØªØ´ÛĮ Ø¹
ÙĨØ¯ Ø§
Ú©ÛĮ Ø§ÙĨ
ĠØªØ§Ø¬ Ø±
ĠØ¯ÛĮÙĪØ§Ø± ÙĩØ§
ĠØ¨ Ù¾Ø±Ø¯Ø§Ø²ÙĨØ¯
ĠÙħÙĨ Ú¯
ĠÙħØ¹Ùħ Ø§Ø±Ø§ÙĨ
ĠÚ¯ÙĪ Ø¬Ùĩ
ĠØ§ØŃØªÛĮ Ø§Ø¬
ĠØ§ÙĦÚ©ØªØ±ÙĪÙħØºÙĨ Ø§Ø·ÛĮØ³ÛĮ
E S
Ú© ÛĮÙĨÚ¯
ĠÚ¯ Ø§Ø¨Ø±ÛĮ
ĠØ§ÙĦÚ©ØªØ± ÙĪÙĨÛĮ
ĠÙĨØ§Øª ÙĪØ§ÙĨÛĮ
ĠØ²ÛĮ Ú¯
ÙģÛĮ Ø³
ĠØ¬Ø§ÙĨ ÙĪØ±ÛĮ
ĠÙģØ±Ø¯ ÛĮÙĨ
ĠÚ©Ø±ÛĮ Ø³ÙħØ³
ĠÙĤØ±ÙĤ ÛĮØ²
ĠØ¯Ø§Ùħ ÙĨ
ĠØ§Ø®ØªÛĮ Ø§Ø±Ø§Øª
ĠÙħØ¹ÛĮ Ø§Ø±ÙĩØ§ÛĮ
ĠØ±ØµØ¯ Ø®Ø§ÙĨÙĩ
Ġ al
ĠÙĦ Ø§ÙĪ
Ø§Ø¦ ÙĦÛĮ
Ġ1 5
Ø¢Ùħ ÛĮØ²ÛĮ
A T
ĠØ¨ Ø§Ø±Ú©
ĠÙģ Ø²Ø§ÛĮÙĨØ¯Ùĩ
ĠØ¹ Ø§Ø¯Øª
ÙĬ Ø±
ak e
I D
Ġ &
Ø¨ Ø§Ø´ÛĮ
ĠØ³Ø§ÙĦ Ø§Ø±
ÛĮØ¯ Ø±
ĠØ¯Ø±Ø¢ ÙĪØ±Ø¯Ùĩ
ĠØŃÛĮ ÙĪØ§ÙĨÛĮ
ĠØ¢ÙĦÛĮ Ø³
ul t
ĠÚ¯ ÙĪØ±Ú©
ĠØ³ÛĮ Ø¨Ø±ÛĮ
ĠÙĨÙĤ ÙĪØ´
ĠØ®ÛĮ Ø§Ùħ
ĠÛĮØ²Ø¯ Ú¯Ø±Ø¯
ĠCH O
Ø¨Ø§ÙĤ Ø±
ĠÚ©Ø§Ùħ ÛĮÚ©Ø³
ĠØ¨Ø§Øº ÛĮ
ĠÙĦÛĮÙĨ Ú©ÙĦÙĨ
ĠÙģØ±Ø§ÙĨÚ© ÙģÙĪØ±Øª
ĠØ´ÙĪÙĩØ± Ø´
ĠØ± Ø§ÛĮØ´
ĠÚ¯Ø± Ø§ÛĮ
ĠÙ¾ÙĦ Ø§Ø³ØªÛĮÚ©ÛĮ
m a
Ø± Ø³Øª
ĠØ®ÙĪØ¯ ÛĮ
ĠØ§Ø´ Ø¨Ø§Ø¹
or ld
ĠÚ©Ø§Ùħ ÛĮÚ©
ĠL a
ĠÙĦÛĮ ÙĦØ§
ĠÙħÙĦ Ø§ÛĮØ±
ĠÙĨØ§Ø´ÙĨ Ø§Ø³
ĠÙ¾ÛĮØ´Ú¯Ø§Ùħ Ø§ÙĨ
ĠØŃØªÙħ Ø§
Ø² ÙĪØ±
ĠØ§Ø¹ Øª
ĠÚ¯Ø±ÛĮÙĨ ÙĪÛĮÚĨ
ĠÙĪØ§Ú© Ø³ÙĨ
Ú© ÙĪÛĮ
Ġ" (
ØªÙħ Ø§Ùħ
ĠØªÙģ ÙĦÛĮØ³
ĠÚ©Ø§Ø² Ø±ÙĪÙĨ
ÙĪ Ø¢ÙħØ¯
Ø¢ Ú©ØªÙĪØ±
ĠØ¨ÙĦ ÙĪØ·
ĠÚ© Ø§Ø¯Ø±
ĠÙĩ Ø§Ú©
Ø§Ø¯ Ø±ÛĮ
ÙĨÚ¯ Ùĩ
ĠÙĨÚ¯ Ø§Ø±ÛĮ
ĠÙĩØ¬ Ø¯Ùĩ
Øª Ø³Ø§
Ø´ÙĨ Ø§ÙĦ
Ø§Ø³ÛĮ Ø³
ĠØªØŃ ÙħÛĮÙĦ
ÙĤØ§ÙĨ ÙĪÙĨ
ĠÚ©Ø§Ù¾ ÙĪØ±
ĠÙ¾Ø± Ø³ÛĮ
ĠØ¹Ø¨Ø¯Ø§ÙĦ Ø¹Ø²ÛĮØ²
ĠØ±ØŃ ÙħØª
ĠÙĨÙħØ§Ø¯ ÛĮÙĨ
ĠÙħØ±Ø¨ÛĮ Ú¯Ø±ÛĮ
ĠØ¯ Ø³ØªØ§ÙĨ
ĠÙĨ Ú¯Ø±ÙģØªÙĩ
ĠI s
ĠØ¹ÙĦ ÙħØ§
ĠÙĨØ¨Ø±Ø¯ ÛĮ
ĠØ¹Ø² Øª
ĠÙ¾ÛĮÙĨ Ú©
ĠÙ¾Ø´ØªÛĮ Ø¨Ø§ÙĨ
ĠØ±Ø¨ÛĮ Ø¹
Øª Ø¹Ø¯Ø§Ø¯
ĠÙĨÙĪ Ø¨Ùĩ
ĠØ³ÙĪ Ø§Ø±Ùĩ
ĠÚĨÙĨÚ¯ ÛĮØ²
ĠØ¬ ÙĪÛĮÛĮ
Ø§Ø³Øª ÛĮ
ÙĨÚ¯ Ø§ÙĨ
ĠØ¯Ø³Øª ÙħØ²Ø¯
ĠØ§Ø¨ ÙĦ
ĠØ¨Ø²Ø±Ú¯ Ø¯Ø§Ø´Øª
ĠÛ±Û¸Û ¹Û°
ĠØ§ÙģØ± Ø§Ø·ÛĮ
ĠØ§ÛĮØ² ÙĪ
ĠÙĤØ² ÙĦ
ĠØªØ§ÛĮ Ùħ
ĠØ±Ø§Ø¬ Ø±
ĠÚĨÙĨ Ø§Ø±
ÛĮÙĨ Ø§ÙħÙĩ
Ø¨Ø§ÙĨ Ú©
ĠÛ±Û° Ûµ
ĠÙģÙĪÙĦ Ø§Ø¯ÛĮ
ĠØ¨Ø±Ø³ ÙĨØ¯
ĠØ¨Ø±Ùĩ ÙĨÙĩ
E R
ĠÙħØ³ Ø¬
ĠÙħÚ© ØªÙĪØ¨
ĠÙģØ±Ø¯ Ø§
ĠÙ¾Ø±ÙĪØ§Ø² Ø´
ĠØ³ÙĪØ³ÛĮ Ø§ÙĦ
ĠØ§ÛĮØ³ÙĦ ÙĨØ¯
ĠÙģÙĤ Ø¯Ø§ÙĨ
ĠØ¢Ø´ ÙĪØ¨
A M
Øª ÙĨÙĩ
ĠÙĨÛĮ ØªØ±
ĠØ³ Ø§Ø±Ø¯
ĠØ² Ø§ÙĨÙĪ
ĠÙħÙĨ Ø§Ø¸
ĠÙģØ± Ø¶ÛĮ
ĠÙ¾Ø± Ø²
ĠÙĨØ³ Ø¨ÛĮØª
Ú©Ø§Ø± Ø§
ĠØ¯Ø¹ Ø§
ĠØ¹Ùģ ÙĪ
Ù ł
Ú¯ ÙĨØ¬
Ø¶ ÙĪÛĮ
ØŁ Â»
ĠÙĪÙĨ Ú©ÙĪÙĪØ±
ĠØ§Ø³ÙħØ§Ø¹ÛĮ ÙĦÛĮ
ĠØ¬ ÙĪØ¯
ĠÙħØ¹ Ø§Ø´
ĠÚ©Ø±Ø¯Ùĩ Ø§
ĠØ®ÙĪØ¯Ø±ÙĪ ÙĩØ§
ĠØ§Ø±ØªÙĤ Ø§ÛĮ
ĠØ± ÙĨÙĪ
p p
ĠÙ¾ ÙĪÛĮ
Ú©ÙĨØ¯ ÛĮ
ĠÙħÙĩ Ø§Ø¨Ø§Ø¯
ĠØ³ÛĮÙħ Ø±Øº
ĠØ´Ø§Ø± Úĺ
ĠÚ¯ÙĦ Ø®Ø§ÙĨÙĩ
ØºÛĮ Ø§ÙĨ
ĠØµÙģ Ø§Øª
ĠØ¢ÙĦÛĮØ§Úĺ ÙĩØ§ÛĮ
A N
ĠØ¢ Ø¬Ø±ÛĮ
Û³ Û°Û°
ÙĪÚ¯ Ø§ÙĪØ§
Ø¨Ø§Ø¨ Ú©
ĠÙĤÙĪØ± Ø¨Ø§ØºÙĩ
Ø± ÙĪØ§ÙĨ
ØªÙĪØ§ÙĨ Ø³ØªÙĩ
ĠØ¯Ø§Ø± Ø§Ø¨
ĠÙ¾Ø± ÙĨØ³
ĠØµØŃ Ø±Ø§
ĠØ§Ø³Ú© Ø§ÛĮ
ĠØ¢Ø¯ ÙĪÙĦÙģ
ÙħÙĨØ¸ ÙĪØ±
ÙĨ Ø§Ø±
ĠØ« ÙĦ
ĠØµÙģ ÙĪÛĮØ§ÙĨ
Ø¨ÙĦ Ø§Ø³Øª
ĠÙĨØ¯Ø§Ø´Øª ÙĨ
ĠÛ±Û³Û³Û ·
ĠÙħ ÙĪÙĦØ¯
ØºØ± ÙĦ
ĠØ¹Ø¨Ø¯Ø§ÙĦØ±ØŃ ÙħÙĨ
ĠÙģØ³Ùģ Ø§Øª
ĠØ§ÙĨÙĤØ¨ Ø§Ø¶
ĠÙĪ Ø±Ùħ
ĠÙħÙĪ ÙĩØ§ÛĮ
ĠØ¨ÙĦ ÙĪØ±ÛĮ
ĠÙĨØ±Ø³ÛĮ Ø¯Ùĩ
Ùĩ ÛĮØ±
ÚĨ Ø§
Ø§Ø³ ÙĪÛĮ
ĠÙĨÙħ Ø§Ø¯ÙĩØ§ÛĮ
Ø£ Øª
ĠÚ¯Ø³ Ø³ØªÙĩ
Û±Û ¸Ûµ
ĠÙħØ¨ Ø§ÙĨÛĮ
ĠØ¨ÛĮØ± Ø¬ÙĨØ¯
ĠØ±Ú©ÙĪØ±Ø¯ Ø²
ĠØ§ÙĪØ¨ Ø§ÙħØ§
ĠØ¹Ø§ÙħÛĮ Ø§ÙĨÙĩ
ĠÙħØ® ØªØ±
ĠØ¨Ø¯ÙĨ Ø¨Ø§ÙĦ
Ú©Ø´ ØªÛĮ
Ø¨ Ø²
ĠØ¨Ø±Ø¬ Ø§ÛĮ
ĠØ§ÛĮØ¯ Ø²
ĠØ¨ Ø§ÙĨÙĪ
Ø¸ Ø§Øª
ĠÙĦÛĮ ÙĪÙĨ
ĠØªØºÛĮ ÛĮØ±ÛĮ
ĠD e
ĠØ¯ÙħØ§ ÙĪÙĨØ¯
ĠÙĩØ§ÛĮØ¯ ÙĦØ¨Ø±Ú¯
ĠÙĨØ§ÙħÙĪÙģ ÙĤ
ĠÙ¾ Ø§Ø±ÛĮ
ĠØ¨Ø§Ø´Ú¯Ø§Ùĩ ÛĮ
ĠÙ¾ÙĪØ´ Ø§ÙĨØ¯Ùĩ
ĠØ¹ÙĩØ¯ ÙĨØ§ÙħÙĩ
ĠØªØ¹Ø·ÛĮÙĦ Ø§Øª
ĠØ¯Ø± Ø¨Ø§Ø±ÛĮ
ÙĤ Ø±Ùħ
ĠØ¢ÙĨ ÙĩØ§Ø³Øª
ÙģÛĮ ÙĤÛĮ
ĠÚ©Ø§ÙĨ Øª
ĠÚ©Ø§ÙĨ ØªÛĮ
Ø¨ Ø³ÛĮ
Ø±Ø§ÙĨ Ú¯
ĠÙħÛĮØ§ÙĨ Ø¬ÛĮ
ĠÛ²Ûµ Û°Û°
ĠÙĨØ§Ø± ÙĨØ¬ÛĮ
ĠÙĪÙģ Ø§Ø¯Ø§Ø±ÛĮ
ĠØ²Ø§Ø¯Ú¯Ø§Ùĩ Ø´
ĠÙ¾ Ø§ÙĨÚ©
ĠØŃ Ø§ÙħØ¯
Ø§ÙĤ Øª
ÙĬ Ø¯
ÙħØ¹ Ø§Ø±Ùģ
ĠØ±Ø¬ Ø¨
ĠTown ship
ĠÙħØª ÙĨÛĮ
ĠÙħÙĤØ¯ ÙĪÙĨÛĮÙĩ
ĠÚ©ÙĨÚ¯ ÙĪ
ĠØªÙĨÚ© Ø§Ø¨ÙĨ
Ġ _
Ø¯ Ø§ÙĨÛĮÙħ
ĠØ¯ÙĪ Ø¨ÙĦ
ĠÙ¾Ø± Ø³ÙĨ
ĠØ§ØŃ Ø³Ø§ÙĨ
Ø¨ÙĦ Ø§Øº
ĠÛ±Û³Û³Û µ
ĠÙħØ´Ú© ÙĪÚ©
ĠØ¨ Ø¨Ø±ÙĨØ¯
ĠØª Ø´ÙĨ
ĠØ¨ÙĨ ÙģØ´
ĠÛ±Û³ Û°Û°
ĠÙĨÙĪØ²Ø§Ø¯ Ø§ÙĨ
ĠÙħØ´ Ú©ÙĦÛĮ
ĠØ³Ùģ Ø±ÛĮ
ĠÙ¾Ø§Ø¯ Ú¯Ø§ÙĨ
ĠØªØ¯ Ø§Ø®ÙĦ
ĠÙ¾ØªØ± Ø²Ø¨ÙĪØ±Ú¯
Ùħ ØŃÙĦÙĩ
Ø® ÙĨØ¯
ĠØ¹Ø¨ Ø§Ø¯Øª
ĠØ¬Ø§Ø¨ Ø¬Ø§
ĠØ³ Ø§ÙħÛĮ
Ø§Ùħ Ø§Ùħ
ĠØ¨Ø§Ø² Ù¾Ø³
Ø§ÙĪ ÙĪØ³
ÙĨÙħ ÙĪÙĨÙĩ
Ø³Øª ÙĨØ¯
ĠÙħØŃ ØµÙĪØ±
Ø´Ú© Ø±
ĠØ§Ùģ Ø²Ø§Ø±
ic s
ĠÙħÙĪÙĦ ÙĪÛĮ
ĠÙĨØ§Ø± Ø³Ø§ÛĮÛĮ
A R
Øª Ø¦
ĠÙħÛĮ Ú©ÙĨÙĨØ¯
ĠØ§Ø± Øº
ĠØ²Ø¨Ø§ÙĨ ÙĩØ§ÛĮ
ou nd
ĠØ§Ø¹ØªÙĤØ§Ø¯ Ø§Øª
ĠÙħØ§Ú© Ø±ÙĪ
Ð µ
ĠØ³ ÙĪÛĮÛĮ
ĠØ§Ø³Øª Ùģ
ĠÙħÙĨ Ø§Ø±Ùĩ
ĠØ³Ø± Ø§ÙħÛĮÚ©
ĠÙħØ§ÛĮ Ø¹Ø§Øª
h am
ĠØ¨Ø± ÛĮØ¯Ùĩ
Ø¦ ÙĦ
ĠØµØ§Ø¯ ÙĤÛĮ
ĠØ¯Ø§ÙĨÙħØ§Ø±Ú© ÛĮ
ĠØ¨Ùĩ Ø²Ø§Ø¯
ĠØ· ÙĪØ³ÛĮ
ĠÙ¾ÛĮØ± Ø§ÙĨ
ĠØ¨Ø±ÛĮØª ÛĮØ´
ÙĪØ± Ø³
Ø³ÛĮ ÙĪØ³
ĠÚ¯Ø± ÙĨØ¯
ĠØ§ÙĤ ÙĦÛĮØ¯
ĠÚ¯ÙĦ Ù¾Ø§ÛĮ
ÙģØ§Ø¹ ÛĮ
ĠØ¬ÙĪ Ø¬Ùĩ
ĠÛĮÙĪÙĨ Ú¯
ĠÚ©Ø§ÙĦ Ø§ÛĮ
ĠÙ¾Ø±ÙĪØª Ø³ØªØ§ÙĨ
ĠØ¯ÙĨÛĮ Ø³
ĠØ³Ø§Ø¹ Ø§Øª
ĠØ§Ø³ÙģÙĨØ¯ÛĮ Ø§Ø±
Ùħ Ø¨Ùĩ
ĠÚ¯ ÙĪÙħ
Ø§Ø¨ ÙĪ
ĠØ§ÙĨ ÙĪØ´
ĠØ´Ø¯ ÛĮØ¯Ø§
ĠØ´ÙĩØ± Ø³Ø§Ø²ÛĮ
Ø¬Ùĩ Ø§ÙĨ
ĠÙĦÛĮ ÙĦÛĮ
ĠÙħØ§Ùĩ Ø±
ĠÙĩØ§Ø± ÙĪÙĨ
ĠÙĪ Ø±Ø³
Ø³Ø± Ø¹Øª
ĠØ¹ÙĪ Ø§Ùħ
ĠØ¨Ø±ÙĨ Ø§Ø±Ø¯
Ġ ×
ÙĦ ÙĪØ³
ĠÙħÙĤ Ø¯ÙħØ§Øª
ĠS an
Ø±ÙģØª ÙĨØ¯
ĠØ§ØµØ·ÙĦØ§ØŃ Ø§
Ġ ÙĲ
ĠÚ© ÛĮØ³
ĠØª Ø¯Ø§
ĠØ§Ùħ Ø§Ø±Øª
Ø²ÛĮ Ø³ØªÛĮ
ĠÙĤØ±Ø§Ø± Ú¯ÛĮØ±ÛĮ
ĠÙĩÙĪ Ø§Ø´ÙĨØ§Ø³ÛĮ
ĠØ´Ú© ÙĪÙģ
ĠÚ©ÛĮ ÙģÛĮ
ĠÙħØ§Ø±Ú© Ø³ÛĮ
I V
ĠØ§ÙĨØ¯ Ø§Ø®ØªÙĨ
ĠØ®Ø± Ø¬
ĠÙĪØ¨ Ø³Ø§ÛĮØª
ĠÚ¯ÙĨØ¬ ÛĮÙĨÙĩ
ĠØ¬Ø§Ø¯ ÙĪÛĮÛĮ
Ú© Ø¨
ĠÙĩ ÙĦÛĮ
ÛĮØ± ÙĪØ§ÙĨ
ĠÙĩÙħ Ú¯Ø§ÙĨ
ĠÙħÙĦ ÙĪØ¯ÛĮ
ĠH e
Ø·ÛĮ Ùģ
ĠØ¬ Ø¨Ø±ÛĮ
ĠÙĤ Ùģ
ĠØªØŃ Ø±Ú©
ĠÛ±Û¸Û¹Û ¶
ĠÙĨÙĩØ§ ÙĪÙĨØ¯
ĠÚ¯ÙĪØ§Ùĩ ÛĮÙĨØ§ÙħÙĩ
ĠØ®Ùģ Ø§Ø´
2 9
ĠØ§ÛĮ Ø³
ĠÙħÛĮ Ø±ØŃ
ĠØªÙĪØ± ÛĮÙĨ
ĠØ¹Ø§Ø± Ø¶Ùĩ
Ø³ÙĦ Ø±
ĠØ¨Ú©Ø§Ø± Ú¯ÛĮØ±ÛĮ
ÙģØ± Ø¶
ÙĪÚ© Ø§ÙĨ
ĠØ´Ø± Ø¹ÛĮ
ÛĮÙĨÛĮ Ø§ÙĨ
ÙĦÙĪ Ùģ
ÙĦÙĪ Ø¹
ĠØ¢Ø± Ø§Ø¡
ĠÙģØ±Ø³ Ø§ÛĮØ´
ĠØ¯ÛĮÙģØ±Ø§ÙĨ Ø³ÛĮÙĦ
Ø³Øª ÙĪÙĦ
ĠØ§Ùħ ÛĮÙĦÛĮ
ĠØ±ÙĪØ´ ÙĨÛĮ
ĠÙ¾ÛĮÚ© Ø§ÙĨ
ĠÙ¾Ø±ÙĪØ§Ø² ÙĩØ§ÛĮ
ĠØ´ÙĩØ±ÙĪÙĨØ¯ ÛĮ
ct ion
ĠÙĩØ±Ø² Ú¯ÙĪÛĮÙĨ
ĠØªØ¨ÛĮ ÛĮÙĨ
ĠØ±ÛĮ Ú¯
Ú¯ÙĪÛĮ ÛĮÙħ
ĠØªØ§ÛĮ Ù¾
Ø·Ø¨ÛĮ Ø¹ÛĮ
ĠØ¨ÛĮÚ© Ø§Ø±ÛĮ
Ø¬ ÛĮØ±
ĠÙģ ØµÙĪÙĦ
ĠØ§ÙĦ ÙħÙĦÚ©
ĠS p
ĠØ¹Ø¨Ø¯Ø§ÙĦ ØŃØ³ÛĮÙĨ
ĠÙħØ¹ØªØ± Ø¶
ĠÙħØ¯ÛĮØ±ÛĮ ØªÛĮ
ĠØ§ÙģÙĦØ§Ø· ÙĪÙĨ
ð Ĳ
ĠÙĨ Ø±Ø³ÛĮØ¯
Ø§Øª Ø±Ø§
ĠØ§Ø³ ÙģØ±
ĠÙĪÙĦ ÛĮÚ©ÙĨ
ĠÙĪØ± Ø´ÙĪ
ĠÛ±Û³Û³Û ¶
Ġd istrict
Ø³ ÙĨØ¯
ĠÙ¾ ÙĪÙħ
ÙģÛĮ Ø¹
ĠØ¹ÙħØ± Ø´
t o
à ¸
ĠØ¢ Ø´Ú©
Ø´ÛĮ Ø±ÛĮ
ĠØ¯ÙĦ Ø§ÛĮÙĦÛĮ
ĠØ¬ÙĪ ÙĩØ±
ĠI P
ĠØ³Ú© ÙĪÛĮ
Øª ÛĮÚ©ÛĮ
ĠØŃ Ø¨Ø§Ø¨
ĠÚĨ Ø§Ú©
ĠØ¹Ùħ Ø§Ø¯
ÙĪØ¦ Ø±
ĠÛ¹ Û°Û°
ou s
ĠØªÙĪÙħ ÙĪØ±
ĠÙĪ Ø§Ø¯
ĠØ§ÙĦ Ø³ÙĦØ·ÙĨÙĩ
ÙĪØ² ÛĮÙĨ
ĠÙħØªØ± Ø§Ú©Ùħ
ĠÛĮÙĪ ÙĪÙĨØªÙĪØ³
ÙĪØ³ Ø§ÙĨ
ĠØ¨ÛĮ Ø¶Ø§ÛĮÛĮ
ĠØ§ÙĨØ¯Ø± Ø³ÙĪÙĨ
ĠÙħØŃØ± ÙħØ§ÙĨÙĩ
ĠÛĮ Ø§Ø¨ÙĨØ¯
ĠÙħØ· ÙĩØ±ÛĮ
ĠØŃØ¬ Øª
ĠÙħ Ø§Ø¦
ĠÚ¯Ø±Ø¯ ÙĨØ¯
ĠØµØ¯ Ùģ
ĠÛ±Û³Û´ Û³
ĠØ¹ÙĨÚ© Ø¨ÙĪØª
ĠÙħØ´Ø±ÙĪØ· ÛĮØª
ĠØ¨ÙĪØ±Ú© ÛĮÙĨØ§Ùģ
7 0
ÙĪ Ø§ÙĤØ¹
Ø³ Ú¯
ĠØ¢ ÛĮÙĦÙĨØ¯
ĠÙģ ÛĮØª
ĠØ§ Ú¯Ø²
ĠÚ©ÙĦ Ø§Ø±
ĠØ³ÙĪØ² ÙĨ
ĠØ¢Ø® ÙĪÙĨØ¯
g h
Î ±
ĠØª Ø§ÙĨÚ¯
Ø§Ùĩ Ø¯ÛĮ
ĠÚ¯ ÙĨÙĪ
Ø§ÛĮÛĮ Ø§ÙĨ
ĠÙĨØ¯ Ø§Ø¯Ùĩ
ĠÚ©Ø§ÙĦ Ø§ÙĩØ§
Ø®ÙĪØ§Ùĩ Ø§ÙĨ
ĠØ±Ø¬ Ø§ÙĦ
ĠÙħØ³ØªÙħ Ø±
ĠÚ© ÙĪØ³Ùĩ
ĠØ¨Ø§ ÙģØªÙĩ
ĠØ¢ÙĨ ØªÙĪÙĨ
ĠÙħØ° Ø§ÙĩØ¨
ÙħØ³ Ø¬Ø¯
Ø¹ ÙĪØ¯ÛĮ
ĠØ¢ ÙĪÛĮØ²
ĠØº Ø§ÙģÙĦ
ĠÙĩØ± Ú¯Ø§Ùĩ
ĠØ¹ÙĦ ÙĨÛĮ
Ú¯Ø° Ø±Ø§ÙĨØ¯
ĠÙħØ« Ø¨ØªÛĮ
ĠØ¯Ø±Ø¨Ø± Ú¯ÛĮØ±ÙĨØ¯Ùĩ
ĠÙ¾ Ø§ÙĪØ±
Ø§Ø¨ Ø§
ĠØ§ÙĨØª ØµØ§Ø¨
Ø³Øª ÙĪ
ĠÙĩÙħ ÛĮÙĦØªÙĪÙĨ
Ø¢ ÙĨÛĮ
ĠØ³Ø± Ø´
ÙĪÙħ Ø±ÛĮ
ĠØ§ÙĨ Ø²
ĠÙħØ± ÙħØ±
ĠØ§Ùģ ÙĤ
ĠØ±ÙĪÛĮ Ø§Ø±
ĠØ¹Ø¶ ÙĦÙĩ
A r
ÚĨ Ø§ÙĦÙĩ
ĠØªØ± ÙħÛĮÙĨ
ĠØ´Ø§ÙħÙĦ ÙĪ
ÙĤØ± Ø§Ø·
ĠÛ±Û³Û² Û¹
ĠÙħØªØ£ Ø«Ø±
ĠØ§ÛĮ Ùĩ
ĠÛ² Û±Û°
ĠÚ©Ø§Ø± Ø§Ø¦ÛĮ
ÙĨØ¬ Ø±
ĠØºÛĮØ± Ø¹
ĠØªÚ© Ø§ÙħÙĦÛĮ
ÙħÛĮØ± Ø²Ø§
ĠØ¹Ø±ÙĪ ÙĤ
ÙħØ±Ø¯ Ø§ÙĨ
ĠÙħØ¹Ø§ÙħÙĦ Ø§Øª
Ø¯ Ø±Ø¨
ĠØ² Ø¦ÙĪØ³
ÙħÛĮ Ø³
Ø¯ÛĮ ÙĪÛĮØ¯
ĠÙħØ¬ ØªØ¨ÛĮ
ĠØ¨ÙĨ Ø§ÛĮÛĮ
ĠÙ¾ÛĮ ÙĪÙĨØ¯ÙĩØ§ÛĮ
Ú©Ø³ Ø§ÙĨØ¯Ø±
ĠØ§Ø¬Ø±Ø§ ÙĩØ§ÛĮ
ĠÛ±Û¹Û°Û ³
ĠØ¯ÛĮØ± ÛĮÙĨÙĩ
ĠÙħØ·Ø¨ÙĪØ¹ Ø§ØªÛĮ
ÙĪ Ø§Ø³ØªÙĩ
Ùĩ ÙħØ§ÙĨ
ÙĪÙĦ ÛĮÙĨÛĮ
ĠØ³ÛĮÙĦ ÙĪØ§
ĠÛ±Û³Û³Û ¹
ĠØ³ Ø§
ĠØ² ÙĪ
ĠØ³Ø§Ø¨ÙĤ Ø§
Ø¢ÙħÙĪØ² Ø§ÙĨ
ĠÙħ Ø§Ø¨
ĠØ¢Ø³Øª Ø§Ø±Ø§
ĠÙĦØ² ÙĪÙħØ§
ĠÚ©Ø´Ùħ Ú©Ø´
S P
Ùħ ÛĮØ²
ĠØ± Ø¢Ú©ØªÙĪØ±
ĠØ§ÙĨ Ø´Ø¹
Ø±ÙĪ Ù¾
ĠÙĨÙĪ Ø§Ø¯Ø§
ĠÙħÙĦ Ø§ÛĮÙħ
en n
ĠÛ¸Û ¸Û
ĠØ´ÙģØ§Ùģ ÛĮØª
ĠÙģÛĮØ´ Ø±
ÙĪÙĨÛĮ Ø§ÙĨ
Ø§Ø¦ Ø±
ĠØªØ£ Ø«ÛĮØ±ÛĮ
Ø´Ø± ÙĤÛĮ
ĠÙģØ±ÙĪØ´ ÙĨØ¯Ùĩ
Ġ Å
Ø§Ø± Ø¬
ĠØ¨Ø± Ú©ÙĦÛĮ
ĠØ§ÙĦ Øª
ĠÛ±Û¹Û°Û ±
ĠÚ¯Ø±Ø§ÙĨ Ø´ÛĮ
ĠØ§Ø³ØªØ¹ ÙģØ§ÛĮ
Ø³ Ø§Ø±Ø§ÙĨ
ÙĪØ± ÛĮÚ©
Ø§Ø³ ÛĮØ§
ĠØ§Ø´ ÛĮØ§
ĠØ´Ø± Ø·ÛĮ
ĠÙĪØŃ ÛĮØ¯
Ø¢ÙħØ¯ ÙĨØ¯
ĠÚ© Ø§ÙģÙĩ
ĠÙħØª Ø¹ÙĩØ¯
ĠØªÙĨ Ø¨
ĠØ±Ø³Ø§ÙĨØ¯ ÙĨØ¯
ĠØ¯ ÙĪÙĨØ¯Ùĩ
ĠØ¢Ùĩ Ø³ØªÙĩ
ĠØ§Ø³ÙĦÙĪ ÙĪÙĨÛĮ
ĠØ¨ Ø¨ÛĮÙĨØ¯
ĠØªØ¨ Ø®ÛĮØ±
ĠØ³ÙĪ Ø§Ø¨ÙĤ
ĠØ¢Ùħ Ø³Øª
ĠÚ©Ø§Ø± ÙĪÙĨ
ÙĪÙ¾ ØªØ±
C O
ĠÚ© ÙħØ¯ÛĮÙĨ
ĠÙ¾ ÙĨØª
ĠÚĺ ÙĪØ²Ùģ
ĠØ®Ø§Ú© Ø³ØªØ±
ĠÙĤØ² ÙĪÛĮÙĨÛĮ
ĠØ¯Ú¯Ø± Ú¯ÙĪÙĨ
Ø¢Ø®Ø± ÛĮÙĨ
ĠØ³ ÙĪØª
Ø§ÙĦ Ú©ØªØ±
ĠÙģ ÙĪØ±Ø§ÙĨ
ĠÚĨ ØªØ±
ĠÙħØ¯ Ø§Ø±ÛĮ
ØªØ´ Ø§ÙĨ
ĠØ§ÙĤ ÙĦÛĮÙħÛĮ
ĠÙħØµ Ø§Ø¯Ùģ
ÙĨ Ø´Ø§Ùĩ
Ø¨ Ø®Øª
ĠØ¨Ùĩ Ø§Ø¡
ĠØ¹ ÛĮÙĦ
ĠØ§ÙĪØ³Øª Ø§ÛĮÛĮ
Ġ ÛĮÙĨ
ĠØ³ Ø§ÙĪÙĩ
ÙĪØ¯ Ø¨ÙĦÛĮ
ÛĮØ§ Ú¯ÙĪ
ĠØ§ÙĦ Øµ
ĠÙĨØ§Ø± Ø§ØŃØªÛĮ
ĠØ³ÛĮØ± Ø¬Ø§ÙĨ
ĠØ§Ø¨Ø±Ø§Ùĩ ÛĮÙħÛĮ
ĠØµ ÙĪÙģ
ĠØ¯ÛĮ ÙĪØ§Ø±ÛĮ
ĠÛĮ ÙĪØ²
Ø¯Ø§Ø± Ø§ÛĮ
ĠÙħÙĦ ÙĪØ§ÙĨ
ÙĪÙģ ÙĨ
Ù¾Ø± ÙĪØ±ÛĮ
ĠØ¢Ú¯ ÙĩÛĮ
ĠÙĨØ¨Ø± Ø¯ÙĩØ§ÛĮ
ÙĨ Ùģ
ĠØª Ø§Ø®Øª
Ø±Ú© Ùĩ
ou t
y st
ĠÚ¯ Ø§Øª
ĠØ¶ ÙĦ
ĠÙ¾Ø±ÙĪ ØªÙĪÙĨ
ĠÙħØ³Øª Ø·ÛĮÙĦ
ĠØ´ÛĮØ± ÙĪØ§ÙĨ
ĠÙħØ° Ø§Ø¨
as e
ĠØ¯ÙĪØ³Øª Ø´
ĠÙĦÙĪÙ¾ Ø²
s c
ĠØ§Øµ Ø§Ø¨Øª
ĠÙĩÙĦ Ø§ÙĦ
ĠÙĪØ§Ø± Ø«
ie w
ĠØ³ÙĩØ± Ø§Ø¨
ĠØ¬ ÙģØ±
ĠÙģÙĪØª Ø¨
ĠÙħ Ø§ÙĦØª
ĠÚĨ Ø§ÙĨ
ĠØ§ÙĤ ÙħØ§Ø±ÛĮ
Ø±ÙĪØ¯ Ø§ÙĨ
for d
ĠÙĤÛĮÙħ ØªÛĮ
Ø¯ ÙĪÙĦØª
ĠØ¢ ÙģØ±ÛĮÙĨÛĮ
ÙĦÛĮ ÙĪÙĨ
Ø²ÛĮ ÙĦÛĮ
Ø¨Ø± Ø¬
at a
ĠØ§Ø±Ø² Ø´ÛĮ
ĠØ¨Ø±Ú©ÙĨ Ø§Ø±ÛĮ
ĠÛ±Û³Û´ Û´
ĠØ±Ø¯ÛĮ Ø§Ø¨ÛĮ
ĠØºÙĦØ§Ùħ Ø±Ø¶Ø§
ĠØ¨Ø¯ÛĮ Ø¹
8 7
l i
ĠØ±ÙĪØ¯ Ø±ÛĮ
Ø®ÙĪØ§ÙĨ ÙĨØ¯Ùĩ
ĠW est
ĠØ±ÙĪØ´ÙĨ ÙģÚ©Ø±Ø§ÙĨ
ĠØ± ÙĨØ¯
ÙĨÚ¯ Ø§Ùħ
ĠÙħØŃ ØªØ±
Ø¸ Ùģ
ĠØ§ÙĨØ¬ ÛĮØ±
ĠÚ©Ù¾Ø³ ÙĪÙĦ
B C
ĠØ¨Ø± Ú©Ùĩ
ĠÙĤ ÙĨØ¯Ùĩ
ĠØ§ÙĪ Ø²
ĠÙħØ± Ø³Ø¯
ĠØ§ØŃ Ø¶Ø§Ø±
Ø´ Ø®Øµ
ĠØ² Ø¨
ĠÙĦ Ø§Ø¬
Ø§ÙĪ Ø§Ø³
ĠØ° Ø±Øª
ĠÚ©ÛĮ Ø§ÙĨ
ĠN orth
ĠÙĨÙĪØ´Øª Ø§Ø±
I T
ĠØ¨ ÙĪÚ©Ø³
ĠÙħ Ø§ÛĮÙĨ
ĠÙĪ Ø³ØªØ±ÙĨ
ĠÙħØ®Øª ØµØ±
ĠØªØµÙħÛĮÙħ Ø§Øª
ĠØºÛĮØ±Ø¯ ÙĪÙĦØªÛĮ
ĠØ¯ ÙĦÛĮÙĦÛĮ
il la
ĠØ®ÙĪÙĨ ÛĮÙĨ
ĠÙ ¡Ù
Ø®ÙĪØ± Ø¯Ùĩ
ĠØªÙĨØ§Ø³ ÙĦÛĮ
Ø±ÙĪ Ø³ØªØ§
ĠØ§ÙĦ ÙħÙĦ
ĠØ§Ø· Ø§Ø¹Øª
ĠÙ¾Ø±ÙĪ Ø³Øª
ĠÙħØ§Ùĩ ÙĨØ§ÙħÙĩ
ĠØ§ÙģØªØ§Ø¯ ÙĨ
ĠÙħÛĮÚ©Ø±ÙĪ Ø³Ú©ÙĪÙ¾
ĠØªØ§Ø¨ÙĦ ÙĪ
Ö Ģ
ÙĤ ÙĪØª
ĠØ´ Ø§ÙģØ¹ÛĮ
Ø§ÙĦ ÛĮÙħ
ĠØ¨Ø§Ø² Ø¬ÙĪÛĮÛĮ
ĠÚĺ Ø¦
Ú©Ø± Ø¯ÙĩØ§ÛĮ
ĠØ±Ø® Ø¯Ø§Ø¯
ĠÙħÛĮ Ø§ÙħÛĮ
Ø§Ø² ÙĨØ¯
ĠØ¢Ùħ Ø§Ø²ÙĪÙĨ
ĠÙħØ± Ø§Ø³ÙħÛĮ
Ú¯Ø±Ø¯ Ø§ÙĨØ¯ÙĨ
ĠØ§ÛĮØ± Ø§Ø¯
ĠÙĨÙĪØ´Øª Ø§Ø±ÛĮ
ĠÙĩØ§Ùħ Ø¨ÙĪØ±Ú¯
ĠØ¢ ØªÛĮ
ÙĦÛĮ Ú¯
ĠÙĦ ÙĪÚ©Ø³
ĠÛµ Û°Û°Û°
ĠØ§Ú© Øª
ĠÙħØ« ÙĨÙĪÛĮ
ar i
ĠÙħØºÙĪÙĦ Ø³ØªØ§ÙĨ
ĠÛĮÙĩÙĪØ¯ ÛĮØª
s on
Ø³ ÙħØª
ĠÙĩ Ø§Ú¯
ĠÚ©Ø§Ø± Ú¯Ø²Ø§Ø±
ĠØ§ÙħÛĮØ± Ú©Ø¨ÛĮØ±
ĠØ¨ÙĪ Ø³ØªØ§ÙĨ
ĠØªÙħØ¯ ÛĮØ¯
ĠÙ¾ Ø³ØªÛĮ
ĠÙħØŃ Ø±Ø§Ø¨
ĠØ§Ø¨ ÙĩØ§Ùħ
ĠØ³Ø¨ Ú©ÛĮ
ĠÛ±Û· Û°
ĠÛĮÙĪÙĨ ÛĮÚ©Ø³
âĢį âĢį
ĠÛ±Û³Û² Û´
ĠØ®Ø±Ùħ Ø´ÙĩØ±
ĠÛĮÙĪØªÛĮ ÙĪØ¨
ĠØªØŃÙĤ ÛĮØ±
ĠØ§ÙĨØªØ² Ø§Ø¹ÛĮ
ĠÚ© Ø§Ø¬
ĠÙ¾ ÙĪØ²
Ø· Ø§ÙĦ
ĠØ§ÛĮØ±Ø§ÙĨ Ø´ÙĩØ±
ĠÙĨÙĪÚ© ÛĮØ§
ĠÙĤÙĦÙħØ± ÙĪÛĮ
ĠØ§ ÙĪØ¯Ø§
Øº ÙĨÛĮ
ĠØ§Ø³ ÛĮØ¯ÛĮ
ĠØ¨ÛĮ Ø¬Ø§Ø±
ĠÚ©ÙĪ ÙģÛĮ
ĠØ±ÛĮØ² Ø´
ĠÚĨÛĮ Ø³Øª
ÙĨÙģØ± Ùĩ
ĠÙ¾ÙĨÙĩ Ø§ÙĨÛĮ
ĠÚ©ÙĦÛĮÙĨ ØªÙĪÙĨ
ĠØ· ØºØ±ÙĦ
ĠØ³ÛĮ Ø§Ø±
Ø®ÙĪ Ø§Ø¨
Ú© Ø¯
ĠØ³ Ø§ÛĮØ²
ĠÙĩØ± Ø§Ú©
ĠØ§ÙĨØª Ø§Ø±ÛĮÙĪ
ĠÙĩÛĮÚĨ Ú¯ÙĪÙĨÙĩ
ĠØ¹Ø¯ Ø³ÛĮ
ĠØ§Ù¾ ÛĮØ²
ĠØªÙĪÛĮ ÙĪØªØ§
ÙħÙĪØ³ÛĮ ÙĤÛĮ
. (
ÙĪØ³ÛĮ Ø§ÙĨ
ĠV al
op h
Û±Û¸Û ´
ĠØ§ØªÙĪÙħ Ø§ØªÛĮÚ©
Ø¬ Ø±Ø¯
ĠÙħØ¹ Ø¬
ĠØ§ÙĦ Ú©ÙĦÛĮ
ĠØªØ± ØºÛĮØ¨
Ø§Ú¯ Ø§Ø³Ú©Ø§Ø±
ĠÙģØ´Ø§Ø± ÙĩØ§ÛĮ
ĠÙĩÙĦ ÙĨ
ĠÙģØ±Ø§Ø® ÙĪØ§ÙĨÛĮ
ĠÙĦÙĨ Ùģ
p t
ĠÙĤ ØŃ
Ø§Ø±ÛĮ Ùģ
ĠÙĩÙģØª Ú¯ÛĮ
ĠØ§ØªØµ Ø§ÙĦØ§Øª
ĠÚ¯Ùħ Ø´Ø¯Ùĩ
ĠÙĨØ§ÙħØ´ Ø®Øµ
iel d
Ø§Ø± Ø²Ø´
ĠÛĮØ§Ø¯ Ø¢ÙĪØ±ÛĮ
E E
Ġ âĢĮ
ĠØ³ ÙģØª
ÚĨ ÛĮØ²
ĠÙħØ¹ ÙĦÙĤ
ĠØ§Ø³Ù¾ Ø§Ø±Øª
ĠØ³ÛĮÙħ ÛĮÙĨ
ÙĪÙĨÚ¯ Ø§
ĠÙħØ±ÙĪ Ø§Ø±ÛĮØ¯
ĠØ¹ÙĨÚ© Ø¨ÙĪØªÛĮ
ĠØ®Ø¯Ø§ØŃØ§ÙģØ¸ ÛĮ
ĠØ¬ÙĩØ§ÙĨ Ú¯ÛĮØ±
Ġ1 6
ĠÛ±Û³Û² Ûµ
ĠØ¨ ÙħØ§ÙĨÙĨØ¯
ĠÙĨÛĮ ÙĪØªÙĨ
ĠØªÙĦ ÙģÛĮÙĤ
ar k
ĠØªÛĮØª Ø§ÙĨÛĮÙĪÙħ
" "
Ø³Øª Ø§Ø±Ùĩ
ĠÙĤ Ø¨Ø§ÙĦ
ĠØ´ÙĨ ÛĮØ¯
ĠØ¨Ø±ÙĪØ¬ Ø±Ø¯ÛĮ
ĠÙħÙħÙĦ Ú©Øª
Ùħ ÙĪØ´
ĠØ§ÛĮ Ø¬
Ø§Ú© ÛĮÙĩ
ĠØº Ø¨Ø§Ø±
ĠÙ¾Ø± ØªØ±Ùĩ
ĠØ§Øµ ÙĪÙĦØ§
ĠØªØ± Ø§
ØŃÙħ ÛĮØ¯
ÙĪÙħ Ø§Øª
ĠÚ©Ø± Ø§ÛĮ
ĠØº Ø¯Ùĩ
Ø¯Ø§ÙĨ Ø´
ĠÙħØ· ÙĦ
om e
ĠÛ±Û³Û³Û ¸
ĠØ®Ø±Ùħ Ø§
ĠØ³ÙĪØ³ Ú©
ĠØ¯Ø± Ú¯Ø±ÙģØª
ĠØ±ÛĮ Ú¯Ø§ÙĨ
ĠØªÙĤ Ø±ÛĮØ¨
ĠØºÛĮØ± ÙģØ¹Ø§ÙĦ
ĠÙĪÙĦ Øª
ĠÚ©ÙĪØ¦ ÛĮÙĨØ²
Ú© ÙĪÙģ
Ø³ ÛĮÙĨÛĮ
ĠØª Ø·Ø§Ø¨ÙĤ
Ø¬ Ø§Ø±ÛĮ
ĠØ¨Ø§Ø± Ú¯Ø°Ø§Ø±ÛĮ
ĠØ§ØŃ Ø³
Ø³Ø§ÙĨ ÙĨØ¯
ĠÙĪØ± Ø´Ú©
ĠØ¹Ø¨Ø¯Ø§ÙĦ Ú©Ø±ÛĮÙħ
ĠÛ±Û±Û ¹Û
ĠØª Ú¯
ĠØª Ø§Ø¯
ĠÚ¯ Ø§ÛĮ
ĠÙĦ Ø§Ùĩ
Ø§Ø¹ Ø¸Ùħ
ĠØ¨ÛĮ Ø¹Øª
Ú©ÙĪ ÙĪ
ĠÙĦØ§Ø± ÙĨØ³
ĠÙ¾Ø±Ø³ÙĨ ÙĦ
ĠØ§Ùĩ Ùħ
ĠC O
Ø³ÙĦ Ùħ
ĠØªÙĪØ± ÛĮÙĨÚ¯
ĠÙħØ§Ø±Ú© ÙĪØ³
ĠØ¯ÙĪØ¯ ÙĪÛĮÛĮ
ĠÙĨÙĤØ§Ø´ Ø§ÙĨ
ĠØŃÙĦÙĤ ÙĪÛĮ
A P
Ø¨ ÙĪØ³
ĠØ¨Ø± ÙĪ
ĠØ² Ø§ÙĦ
ĠØ´Ø§Ùĩ Ø±ÙĪØ¯
ĠÛĮØ² ÛĮØ¯
ĠÙħÙĤØµ ÙĪØ¯
ĠÙħØ§Ø¬Ø±Ø§Ø¬ ÙĪÛĮÛĮ
ĠÙĩÙħ ÛĮØ´Ú¯ÛĮ
ĠØ§ÙĤØªØµØ§Ø¯ Ø¯Ø§ÙĨ
ĠØªÙħØ§Ø´ Ø§ÛĮ
ĠØ§Ø° ÛĮØª
ĠØ§Ø¯Ø± Ø§Ú©
icip ality
ĠØ¶ÙĦ Ø¹ÛĮ
Ú¯ Ø§Ø±Ø¯
ĠÙħÛĮ ÙĨØ§
ĠØ¨Ø±Ú¯ Ùĩ
ĠØ´Ø¹Ø± ÙĩØ§ÛĮ
ĠØ§ÙĤØ¯ Ø§ÙħÛĮ
2 1
Øª Ø§Ø¬
Ú©ÙĨ Ø´
ĠØ§ØŃ Ø§Ø¯ÛĮ
ĠÛ¹Û ³Û
ĠÙĦÙĪÚ© Ø²Ø§Ùħ
ĠØ§Ø³Øª Ø±Ø³
ĠÚĺ ÙĪØ±ÙĨ
ĠÙĨØ³ Ø®
ĠØ³ÙĦØ· Ø§ÙĨÛĮ
Ø§Ú©ÛĮ Ø§ÙĨ
ĠØ´Ø§Ø¹ Ø±ÛĮ
ĠÙħØ·Ø§Ø¨ÙĤ Øª
Ù¾Ø±Ø¯Ø§Ø®Øª ÙĨØ¯
ĠØ¨Ø§Ø²Ø±Ú¯Ø§ÙĨ Ø§ÙĨ
ĠÙĨ Ø§ØµØ±ÛĮ
ĠÚ©Ø§Ø± ØªØ±
ĠØªØ± Ùħ
ĠØ´Ø®Øµ Ø§
Ø¨ÛĮÙĨ ÛĮÙħ
ĠØ¨Ø§Ø¨ ÙĦÛĮ
ĠÚ©Ø§ÙħÙ¾ ÙĪØ²ÛĮØª
ĠÙ¾ÙĦØ§Ø³ ÙħØ§
Ġ ch
Ø¹ Ø§Ø´
ĠÙĨÙģØ± Øª
ĠØ§ÛĮÙĦ Ø®Ø§ÙĨÛĮ
ĠÛ±Û³Û² Û¸
ĠÙ¾Ø±Ú© Ø§Ø±
ĠØªÙĤ Ø§Ø±ÙĨ
Ú©Ø§Ø± ÙĩØ§ÛĮ
ĠÙħÙħ Ø³ÙĨÛĮ
ĠG m
ĠØ¨Ø®ØªÛĮ Ø§Ø±
ĠØ¯ Ø§Ø³
ĠØ¯Ø± Ø§ÛĮÙĨ
ĠÙģ Ø±ÛĮÙħ
ĠÙħØ¯ Ø§Ø±ÙĩØ§ÛĮ
ĠM un
ĠÙħØ§Ø¯Ùĩ Ø§
ĠÙĨÙĩØ§Ø¯ ÙĨØ¯
ĠÚ¯ÙĨØ¬ Ø§ÛĮØ´
Ø± Ø§Ø³Øª
Ø§Ø± Ø³
ĠØ¬ Ø§Ú©
ÙģØª ØŃ
Ø§Ø¨Ø± Ø§ÙĩÛĮÙħ
ØªÙĤ Ø§ÙĦ
ĠÙĨØ§Ø² ÙĦ
ĠÙĤØ±ÙĤÛĮØ² Ø³ØªØ§ÙĨ
ĠØ¯ ÙĤ
ĠÙħØª Ú©ÛĮ
ĠÙ¾Ø±ÙĪ Ø§Ø²ÛĮ
ĠÙģÙĦ Ø¬
ĠØ¢ÙĩÙĨÚ¯ ÛĮ
ĠØªÙħØ±ÛĮÙĨ Ø§Øª
ĠÙĨ Ú¯Ø±ÙģØª
ĠØ² ÙĩØ±
ĠØ§Ùħ ÛĮØ±ÛĮ
ĠÙģØ± Ø§Ùĩ
ĠØ§Ø³ Ø¯Ø§ÙĦÙĦÙĩ
Ø¢ ÙĨØª
ĠØ¢Ø¯ ÙħÛĮ
ĠØ¬ ÛĮØ³ÙĪÙĨ
Úĺ ÙĨÛĮ
ĠÙħÙĪ Ø¸Ùģ
Û´ Û°Û°
Ù¾Ø± Øª
ĠE l
ĠØ³ÙĤ Ø·
ĠØ¨ÛĮÙħØ§Ø± Ø³ØªØ§ÙĨÛĮ
ĠÙĨØ±ÙĪ ÚĺÛĮ
: "
Ú¯ ÙģØªÙĩ
ĠÙĨ Ú©Ø±Ø¯ÙĨØ¯
Ø² ÙĨØ¯Ùĩ
Ø® Ø±Ø¯
ĠØŃ ÙħØ¯
ĠÚ©ØªØ§Ø¨ Ø´
ĠÚ©Ø§Øª Ø§ÙĦ
ĠÙħÙĪØ´Ú© ÛĮ
Ùħ Ø¤
Ø³ Ø±Ø²
ĠÙĨØ§Ùħ ÙĨØ¸Ùħ
ĠÙħØ´ ÙĪØ±Øª
ĠÛ±Û² Û¸
ĠÙĤØ¯ Ø±ÛĮ
ĠÙ¾Ø§Ø¦ ÙĪÙĦÙĪ
ĠØ²Ø¹ ÙģØ±Ø§ÙĨ
ĠÙħ Ø§Ùģ
Ø§ÙĦ ØŃÛĮ
ÙĪÚ© ÙĪÚ©
ĠÚĨØ§Ù¾ ÛĮ
ĠØ§ÙĦØŃ Ø§ÙĤ
ĠØºÛĮØ±Ùħ Ø³ØªÙĤÛĮÙħ
ĠØ±Ø§ÙĩØ¨Ø±Ø¯ ÛĮ
ĠØ±ÙĪÛĮØ§Ø± ÙĪÛĮÛĮ
S S
Ø§Ø± Ø¶
ĠØ¨ÙĦ Ø§Ø±ÙĪØ³
ÙĨ Ø§Ø³
ĠØ® Ø³ØªÙĩ
Ø±ÛĮÚ© ÙĪ
ĠØ§ÙĨØª ÙĩØ§ÛĮÛĮ
at t
ĠØ¬ÙĨØ³ÛĮ ØªÛĮ
ĠØ§Ø¶Ø·Ø± Ø§Ø±ÛĮ
8 5
ĠØ´ ÙĪÛĮ
ĠØ± ÛĮÙĦ
ĠØ¨Ø± ÙĨØ¯Ú¯Ø§ÙĨ
ĠÙĩÙħ Ø¯Ø§ÙĨÛĮ
ÛĮØ¯ ÙĪ
ĠØ¯ÛĮ Ùĩ
ÙĪØª ÛĮÙĨ
ĠÙĨÙħ Ø§Ø¯ÛĮ
ÙĪØ§Ø± Ø§
ĠØ®Ø± Ø§Ø¨Ùĩ
ĠØŃÚ©Ùħ Ø±Ø§ÙĨ
ĠØ´Ùģ Ø§ÙĩÛĮ
âĢ Ļ
ĠØ§Ø³Øª ÙģØ§ÙĨ
ÙĦÙģ Ø§
ĠÙĪØ§ Ú¯Ø°Ø§Ø±ÛĮ
ĠÙħÙĨØ¸ Ø±Ùĩ
ĠÙĨØ§Ø® ÙĪØ§Ø³ØªÙĩ
ĠØ³ÙĪÚ¯ ÙĨØ¯
Ùħ Ø§Ø¬
Ø§Ùĩ ÙĨØ¯
ĠC on
ĠØ³Ø§ÙĨ ØŃÙĩ
ĠØ¯Ø² Ø¯ÛĮ
ĠÙħØ¨Ùĩ Ùħ
C C
ĠØ´ÙĩØ± Ø§Ùħ
ĠØªÚ© Ø°ÛĮØ¨
ĠÙĨÙĪÚ©ÙĦ Ø¦
ĠØ¨Ø± Ø´Ùħ
ĠØ§ÙĤØªØ¨ Ø§Ø³ÛĮ
ĠØ§Ø³Ù¾Ø± ÛĮÙĨÚ¯Ø²
M L
ÙĪ ÚĺÙĨ
ĠÚ© ÙħÛĮÙĨÙĩ
ĠÙĦ ØªÙĪÙĨÛĮ
ĠØ´ÛĮ Ø±ÛĮ
ĠÙģØ±Ø² ÙĨØ¯ÛĮ
ĠÙģØ±Ø³ØªØ§Ø¯ ÙĨ
Ø´ ÙĪÛĮÛĮ
Ø¢ ÙĨØ¯
ĠØ³Ø± ÙħØ§
ÙĪØ¨ Ø±ÛĮ
ĠÙ¾ÛĮØ´ Ø¨Ø±Ø¯
ĠØ²Ùħ Ø§Ùħ
ĠÙģÛĮØ²ÛĮÚ© Ø¯Ø§ÙĨ
im e
ĠØ®ÙĦØ§ÙĤ ÛĮØª
ĠÙħØ®ØªØ± Ø¹
ĠØ¨ Ø¬Ø²
ĠØ¬ ÛĮØ±ÙĪ
ÚĨ Ú¯ÛĮ
Ø±Ø¨ ÙĨØ¯ÛĮ
ĠØ§Ø¯ ÙĪØ§Ø±
Ø±Ø§ ÙģØª
ĠC ol
ĠØ®ÙĪÙĨ Ø±ÛĮØ²ÛĮ
ĠÛ±Û¹Û°Û ²
ĠØ®Ø§ÙĦ ÙĤ
ĠÙģÛĮÙĦØ³ÙĪÙģ Ø§ÙĨ
ĠÙħØ®Ø±ÙĪ Ø·ÛĮ
ĠÙĪ Ø§ÛĮÙĦ
ĠÚ©Ø§Ø± ÛĮÚ©
ĠÙĨØ¬ ÙĪÙħ
ĠÙħ ÚĨ
ĠØ³ Ø§ÙĤ
ĠÙĨ ÙħØ§ÙĨØ¯Ùĩ
ØŃ Ú©
ÙĪØ³ ÙĪØ±
id ae
ĠÙħÙĪØ§Ø¬Ùĩ Ùĩ
m er
Ø¹ Ø´ÙĤ
ĠØ® Ø§ÙĨÛĮ
ĠØ§Ø¬ Ø¯Ø§Ø¯
ĠÛ´ ÛµÛ°
ĠÙģÙĦ ÙĪÛĮØ¯
ĠØªÙĪØ± Ø§ÙĨ
Ú© Ø§Ù¾
ĠØ³ ÙĪÙĨÚ¯
ĠÙĤ ÙĪØª
ĠÙħÙĪÙĨ ØªØ§Úĺ
Ø´Ø¨ Ú©Ùĩ
ĠØ¨Ø§ Ùģ
or n
ĠØ§Ø±Ø¯ ÙĪÛĮ
ĠØªØ¯Ø§ ÙĪÙħ
ĠØ´ Ø§ØªÙĦ
Ø² Ø±Ø¯
ÙħØ§ÙĨ Ø§ÙĨ
ĠØ¨ÙĨ ÙĪÛĮØ³
ĠÚĨÙĨØ¯ Ú¯Ø§ÙĨÙĩ
ĠØ¨Ø¹ Ø«
ĠØ¢ÙħÙĪØ² Ú¯Ø§Ø±
ĠÙĪÛĮØ± Ø§ÙĨÛĮ
Ø¨Ø§Ø²ÛĮ Ú¯Ø±
ĠÚ©Ø§Øº Ø°ÛĮ
ĠØ¬ØºØ±Ø§Ùģ ÛĮØ§
Ã ¤
ĠÙ¾ Ø§Ø³Øª
ĠØ¬ Ø§Ùĩ
ÙĪÙĨÛĮ ÙĪÙħ
ĠØ´ÙĪ Ø§ÙĩØ¯ÛĮ
ĠÙħØ±Ø³Ø¯ Ø³
4 5
Øµ ØŃ
ĠØµØ¯ ÙħÙĩ
ÙĨØ² Ø§
ĠØªØ¦ ÙĪØ¯ÙĪØ±
ĠØªØ± ÙĨØ³
ĠÛ²Û°Û ´
ĠÚ©ØªØ§Ø¨ ÙĩØ§ÛĮ
ĠØ³Ø±ÙĪ Ø´
ĠØ¨Ø§Ùħ Ø¯Ø§Ø¯
ĠÙħÙĪØ§ÙĨ Ø¹
A D
á ĥ
ĠÚ©ÙĦ Ø§ØªÙĩ
Ø®Øµ ÙĪØµÛĮ
ĠÙħØµ ÙĪØ±
ÙĤØ¯ Ø³
ÙĪØ³ ÙĪ
ĠØ¢Ø´Ù¾ Ø²
ÙĨ ÛĮØª
Øª Ø¯
ĠM e
Ġâ Ĩ
ĠØ³ØŃ Ø§Ø¨ÛĮ
ĠÙħÙĨÙĩ ØªÙĨ
Ùĩ ÙģØª
âĢ Ķ
ĠÙĩ Ø§Ú©ÛĮ
ĠÙħØµ Ø§Ùģ
Ú© Ùģ
ĠØ²ÛĮØ± Ú©
ĠÙģÙĦ Ø§ÙĨØ¯
ĠÙħÙĪØ± ÚĨÙĩ
ĠĠ ĠĊ
ĠØ¯Ø¨ÙĦÛĮ ÙĪØ¯Ø¨ÙĦÛĮ
ĠØ´Ú©ÙĪÙģ Ø§ÛĮÛĮ
Ø³ Ø§Ø¹Øª
ĠØ§Ø± ÙĪØ§ØŃ
ĠØ®Ø· Ø±Ø§Øª
ĠÙ¾ÛĮÙĪÙĨØ¯ ÛĮ
ĠØ¨Øª ÙħÙĨ
ĠØ¬Ø±ÛĮ ÙħÙĩ
ĠØŃØ§Ø¦ Ø²
ĠØ¬ Ø§Ø¬
ĠØ¬ Ø§ÙĩØ§ÛĮ
ĠØ¨Ø®Ø´ ÛĮØ¯ÙĨ
ĠØ¨ÙĦ ÙĪÙħ
ĠÙĦÛĮ ÙĦ
Ġ200 9
ĠØ¨Ø¨ÛĮÙĨ ÛĮØ¯
ÙĪÛĮÙĦÛĮ Ø§Ùħ
ĠØ§ÙĦØªØŃ ØµÛĮÙĦ
r ed
Ø³ Ø§Ø¯
Ø³ Ø±Ø¯
ĠØ§Ùħ Ø§ÙħØª
ĠØº ÙĨ
ĠÙħØ± Ø¹
ĠØ¯Ø§Ø± ÙĪÛĮÙĨ
ĠØ¨Ø®Ø´ ÛĮØ¯Ùĩ
ĠØ§ÙĨØŃ ØµØ§Ø±
ĠÚ© ÙģØ±
ĠÙģÛĮÙĦ Ø¯
ĠØ¢Ù¾ Ø§Ø±ØªÙħØ§ÙĨ
3 5
Ø± Ø´ØªÙĩ
ĠØ¹ Ø·Ø±
ĠØµ ÙħÛĮÙħÛĮ
ĠA b
ĠÙħÙĪØªÙĪØ± Ø²
ĠØ²Ø± Ø§Ø¹Øª
ĠÙħØ§Ø³ Ú©
ÙħØ±Ø¯ ÛĮ
ĠÚ©Ø§Ø±Ø§Ø¦ÛĮ Ø¨
ĠÛ²Û°Û µ
ĠØ§Ø¬ Ø²
ÙħØŃ ÙħÙĪØ¯
ĠÙĨÛĮÚ© ÙĦ
ĠÙĩÙħ Ø¯
ĠÚ©Ø±Ø¯ ÛĮÙħ
ĠÙĪØ§ØŃ Ø¯ÛĮ
ĠÙĤÙĨØ¯Ùĩ Ø§Ø±
Ø® Ø§ÙĦÛĮ
ĠÙħÙĨ Ø§Ø¸Ø±
ĠØº Ø±ÙĪØ¨
ĠØ¯Ø³ØªÚ¯Ø§Ùĩ ÛĮ
ĠØªØ±ÙĪØ±ÛĮ Ø³Øª
ĠØ§ÙħØ±ÛĮÚ© Ø§
ÙĦ ÙĪÙħ
ĠØ¯Ø± ØµØ¯ÛĮ
ĠØ§Ø³Øª Ø±ÛĮ
ĠÙĩ Ø¬Ø±
Ú©ÙĨ Ø§Ø±
ĠØ§Ø¨ ÙĪØ³
ĠÙģØ¹Ø§ÙĦÛĮØª Ø´
ĠÙ¾ÛĮÚ© Ø±Ùĩ
ĠØ³Ø§ÙĨØª ÙĪØ³
ĠÚ©Ø³ Ø±ÛĮ
ĠÙĤØµ ÛĮØ¯Ùĩ
ĠÚ©Ø§Ø¸ ÙħÛĮ
ĠÙĤÙĪÚĨ Ø§ÙĨ
ĠØ¯Ù¾ Ø§Ø±ØªÙħØ§ÙĨ
ĠØ¨ Ø§ÙĦÛĮ
ĠØªØ§Ú© Ø³ÛĮ
ĠØ±Ø¨ ÙĪØ¯Ùĩ
ĠØ¯Ø±Ø®Ø´ Ø´
ÙĪÙĨÛĮ Ø³Ùħ
ĠÙħØµ Ø§Ø±Ùģ
ĠÚ©ÛĮ Ù¾
ĠØ§Ø³Ú©ÙĨØ¯ Ø±ÛĮÙĩ
ĠØ¬ ÛĮÙĦ
ĠØ´Ø§Ùĩ ÙĨØ´Ø§Ùĩ
mu n
ĠÛ±Û³Û³Û ´
ĠÙĨØ§Ù¾ Ø§ÛĮØ¯
ĠØ§Ø¨ÙĪØ§ÙĦ ÙģØ¶ÙĦ
ĠÚ©Ø§ÙħÙ¾Ø§ÛĮÙĦ Ø±
ĠØªØ²Ø¦ÛĮÙĨ Ø§Øª
Ø¢Øº Ø§Ø²
ÙĨ Ø¨Ø±Ø¯
ĠÚ¯Ø° Ø§Ø±Ø¯
ÙĦØ§ÙĤ ÛĮ
ĠØ³Ø±Ø® Ø³
ĠÙĨÙĪØ³ Ø§Ø²ÛĮ
Ùħ Ø§Ø±Øª
Ø¨ Ø®ØªÛĮ
ĠÙ¾ ÙĪÙ¾
ĠÙħÙĤ Ø§ØµØ¯
ĠØ¨ÛĮ Ø¶ÛĮ
ĠØ§Ø¬ ÙĦØ§Ø³
Ø³Ú© Ø±ÛĮØª
Ùª )
ĠØ¬ Ø¨Ø§ÙĦ
ĠÙĨÙĪ Ø§
ĠÙĨØ¬ ÙĪÙħÛĮ
ĠØ±ÙĪØ´ÙĨ Ùģ
ĠÙģØ±Ø²ÙĨØ¯Ø§ÙĨ Ø´
ain t
h a
ĠØ¯ Ø§Øª
ÚĨ ÛĮÙĦ
Ø¢ Ù¾
ĠÚ©Ø§Ø± ÙĦÙĪ
ĠØ§ÙĦ ÙĦ
ĠØªØ§ÙĦ Ø´
ĠÙħÛĮ Ø³Ø±
ĠÙ¾ ÛĮØ²
ĠØ² Ø§ÙĨ
ĠÛ±Û° Û²
ÙĩÛĮ ÚĨ
ĠØ¯Ø§ÛĮ ÙħÛĮ
ĠÚ©Ø§ÙĨØ¯ÛĮØ¯ Ø§ÛĮ
ĠØ¬ÙĨÛĮ ÙģØ±
ĠØ·ÙĩÙħ Ø§Ø³Ø¨
ĠÙĦÙĪÚ©Ø²Ø§Ùħ Ø¨ÙĪØ±Ú¯
Ùħ Ø´Ùĩ
ĠÙĪ Ø§Ø²
Ø¨ ØŃ
ĠØ³ Ø§Ù¾
ĠÙĩ ÙĪØ¯
Ø³ÛĮ ØªÛĮ
ĠØ§Ø± Ø¨
Ø¬ÙĪ Ø§Ø¯
ĠÚ¯ÙĪ Ú¯Ø±Ø¯
ĠÙħØ§Ø´ ÛĮÙĨÛĮ
Ø¨ÛĮØ´ ØªØ±
ĠØŃÙħ Ø§Ø³Ùĩ
ĠÙĩØ§ ÙĪØ³
ĠÙħÙĩØ± Ø¨Ø§ÙĨ
ĠØ¯Ø§ÙĨØ³Øª ÙĨ
v er
ĠØª Ù¾
ØªØ± ÙĪÙ¾
ĠÛ²Û² Û°
ĠÙĨØ´Ø¯ ÙĨØ¯
ĠÙĩÛĮÙĦ Ø²
ĠÙħØªÙĤ Ø§Ø±ÙĨ
ĠØ§Ø³Ú©ÙĨ Ø§Ø³
ĠØ¯Ø²Ø¯ Ø§ÙĨ
ĠØ±ÙĪØ¨Ø± ÙĪÛĮ
ĠÙĨØ§Ø¨Ø± Ø§Ø¨Ø±ÛĮ
ĠGm ina
I N
Ġ is
ĠÙĨ Ø¨ÛĮ
ĠÙĨ Ø§ÛĮØª
Ø¹ Ø§ÙĦ
Ø§Ø¯ Ø±Ùĩ
ĠØ³Ùĩ ÙħÛĮÙĩ
ĠÙģØ±Ø¯ ÙĪØ³
ĠÙĨÙĪØ² Ø¯Ùĩ
ĠÚĺÛĮÙħÙĨ Ø§Ø³ØªÛĮÚ©
ĠØ³Ø¨Ø²ÛĮ Ø¬Ø§Øª
ĠØ³ ÙĨØ¬ÛĮ
ĠØ¨Ø± Ø²ÛĮÙĦÛĮ
ĠÙħÙĪØ¬ÙĪØ¯ ÛĮØª
ĠØ§Ø³Ú© ÛĮØª
ĠØ§Ø³Ú©Ø§Øª ÙĦÙĨØ¯ÛĮ
ĠØ§ÙĨ Ø¹ÙĤ
ĠÙħÙĪ ØµÙĦ
ĠÙĨÙĪÛĮØ³ Ø§ÙĨ
Ø§ÙĨØª ÛĮÚ©
Ġ ÛĮØª
ĠÙĪ ÙĪÙĦ
Ø¨ ÙĪÙĦÛĮ
ĠØª ÙģØª
ÙĪØ§Ø± Ø§ÙĨ
Ø§Ø¨Ùĩ Ø§Ø±
ĠØ¢Ø²Ø§Ø¯ Ø³Ø§Ø²ÛĮ
ĠØ®Ø¨Ø± ÙĨÚ¯Ø§Ø±Ø§ÙĨ
ĠØ¢Ùģ Ø±ÛĮ
ĠÙ¾Ø§Ú© Ø³Ø§Ø²ÛĮ
ĠØ§ÛĮÙĦ Ø§Øª
ÙĩØ² ÛĮÙĨÙĩ
ĠØ¹Ø¨ Ø§Ø±Ø§Øª
ĠÙħÙĪØ³ÛĮÙĤ Ø§ÛĮÛĮ
o la
ÛĮ Ø§Ø¨
ĠØ¨ ÙĪØ±Ø¯
ĠØª Ø§ÙĨØ²
ĠØ§ÙĦ Øº
ĠØ¯Ø§Ø± ÙĪØ³Ø§Ø²ÛĮ
ĠÙĩÙĨØ¯ Ø¨Ø§ÙĦ
ĠÚ©Ø§Ùħ ÙĦÛĮ
Ø®ÙĪØ± ÙĨØ¯
ĠØ§Ø³ØªÙĨ ÙĦÛĮ
ĠØ¨ÛĮÙĩ ÙĪØ´ÛĮ
Ø¯ ÙĨÛĮ
Ø´ Ú©ÙĨ
ĠÛĮÚ© Ø³Ø§ÙĨÛĮ
Ø´Øª ÙĨ
ĠÙ¾Ø§Ø± Ø§Ø¯
ĠÛ¹Û ¸Û
ĠØ§ÙĨÛĮ ÙħÙĩ
ĠØ¢ Úĺ
ÛĮØ± Ø²
ĠØ§Ùħ ÙĦ
ĠÙĩØ± ÙħØ§ÙĨ
ĠÙħØ¹ÙĦ ÙħØ§ÙĨ
ĠØªÙĪÚ© ÙĪÚ¯Ø§ÙĪØ§
Ø· Ø§Ø±
ĠØ¨Ø§Ø² Ø¨ÛĮÙĨÛĮ
ĠØ§ÙĦ Ø²Ø§Ùħ
ĠØ²Ø± Ø§Ø¹ÛĮ
ĠÙģØ§Ø· ÙħÛĮ
ĠÙħØ¬ÙĦ Ø³ÛĮ
ĠØ§Ø³Øª Ú©Ùĩ
ĠÙĤ ÛĮØ±
ĠÚ¯Ø± Ø¯Ùĩ
ĠØ§ÙĪØ± Ø§ÙĨÛĮÙĪÙħ
ĠØ³ÙģØ± Ùĩ
Ø´ÙĨØ§Ø³ Ø¯
ĠÙ¾Ø§ÙĦ Ø³
ĠÛ±Û³Û² Û·
ĠÙħÙĨÙģ Ø¬Ø±
ĠÙħØ³ØªØŃ Ú©Ùħ
Ø± ÙĪÛĮØ¯
Ø¯ ÙĪØ±Ùģ
ĠÙĤØµ Ø¨Ùĩ
L ist
ĠÙħØŃ Ø§ÙģÙĦ
Ø¹ÙĦÛĮ ÙĤ
ÛĮ Ø¨
ĠØ³ ÙĪØ§ÙĨ
ĠØ¬ ÙĩØ±Ùħ
ĠØªÙĨ Ø§ÙĤØ¶
ĠÙ¾Ø±ÙĪ ÛĮÙĨ
it t
ĠØ±ÛĮØ´ ØªØ±
ĠÙħÙĨ Ø³ÙĪ
ĠØ§Ø± ÙĤØ§Ùħ
Ø§ÙĨØ¯ ÛĮÙĨ
ĠØ³Ø±Ø¯ Ø¨ÛĮØ±ÛĮ
ĠÙĩÙĦ ÛĮÚ©
ĠÛ±Û¸Û¹Û µ
ĠØ¢ÙħØ³Øª Ø±Ø¯Ø§Ùħ
8 9
l o
ĠØ¬ Ø¹ÙĦÛĮ
ĠØ§Ùĩ Ø±ÛĮ
ĠØ¨ØŃ Ø±
ĠÙ¾Ùĩ ÙĨÙĩ
ĠÙĨÙĪØ³ ÙĨÚ¯ÛĮ
Ùħ ÛĮØ¯Ø§ÙĨ
Ø¯ Ø±ÙĪ
Ú© Ø§Ø¨
ĠØ¨ Ú¯ÙĪÛĮØ¯
ĠØ³Ø§Ø®Øª Ú¯ÛĮ
ĠØ§ÙĨØ¯ Ø§Ø²
Ø³ØªØ± ÙĪÙĦ
f t
Ø³ Ø±Ø¨
ĠØ³ ÙħÛĮØ±
ØŃ Ø§Ø¬ÛĮ
ĠÙģØ± Ø¹ÙĪÙĨ
ÙĪØª Ø§ÙĨ
Ø¯Ø± Ø®Øª
ÙĪÙĨÛĮ ÙĪ
ĠØ¨Ø§Ø± ÙĪÙĨ
ĠØ¨ØªÙĩ ÙĪÙĪÙĨ
ĠØ³ Ú©ÙĪ
ĠÙ¾ Ø³ØªÙĩ
ĠØ¨Ø± Ø³Ø§ÙĨÙĨØ¯
ĠØµ Ø¨Ø§
Ø¯ÛĮ ÙĪ
ĠØ¯Ø³Øª Ú©Ø§Ø±ÛĮ
ĠÛ±Û° Û·
ĠÚ©Ø±ÙĪ Ø¨ÛĮ
ĠÙģÛĮØ± ÙĪØ²Ùĩ
Øª Ø§Ù¾
ĠÚ© Ø¨Ø¯ÛĮ
Ú¯ ÙĪÙĦ
ĠÙħÛĮ Ø«
ĠÙĦ ÙĨÚ©
ĠÙĤØ± Ø§Ø¦Øª
ĠØ¯ÙĪØ± ÙĪØ¯
ĠØ´ÙĨ ÙĪØ§ÛĮÛĮ
ĠÙħØ® Ø§Ø²ÙĨ
ĠØ´ÙĦ ÙĪØ§Ø±
ĠØ¨ ÙĨØ¯Ùĩ
ĠØ± ØºÙħ
ØŃ Ø²Ø¨
Ø§ÙĤ Ø§ÙĨ
ĠÙĦ ÙħØ³
ĠÙģØ± Ø§Øª
ÙĨØ¬ Ø§Ø±ÛĮ
ĠP h
Ø¨Ø¯ ÙĪÙĨ
inn es
ĠÙĤ Ø§Ø¦
ĠÚ©Ø§Ø± Ø®Ø§ÙĨ
ĠØ®Ø± Ø§Ø¬
Ø´Ø± ÙĤ
ĠØ¹ÙĪ Ø§ÙħÙĦÛĮ
Ø± Ø§Ø³
ĠÙĦ Ø§ÛĮÙĨ
ĠÚ©Ø´ ÙĨØ¯Ùĩ
Ø§ÙĨØ¯Ø§Ø² Ø¯
ĠØª Ø§Ø´
ĠÙħØª Ø§Ø®Ø±
ĠÙħØ³ Ø§Ø¦ÙĦÛĮ
ĠØ¯Ø§ÙĨ ÙĦÙĪØ¯
ĠØ³Ù¾ Ø±
ĠÙħØ§Ø± ÛĮÙĨ
ĠÙħØ´Ùĩ ÙĪØ¯
ĠÙħÙģ ØµÙĦÛĮ
ĠÙħØ¬ÙħÙĪØ¹ Ø§
ĠØ±ÙĪØŃØ§ÙĨÛĮ Øª
ĠØ¨ÙĨÛĮØ§Ø¯ ÛĮÙĨ
ĠØ¢ÙħÙĪ Ø®ØªÙĨ
Ø§ÙĨ Ø¬Ø§ÙħØ¯
ĠØ¯ ÙħÛĮ
ĠØ§Ø³Øª Ø¹Ø¯
ĠØ¬ Ø§ÙĨØ¯
ĠØ¢Ùħ ÛĮÙĨ
Ø§Ø¹ Ø¸
Ø²ÛĮ ÙĪ
ĠØ¨ÛĮ Ø§Ø¨Ø§ÙĨÛĮ
ĠÙĨÛĮ Ø§ÛĮØ´
Ø§Ø¨Ø¯ ÛĮÙĨ
ĠØ§ØŃÙħØ¯ Ø¢Ø¨Ø§Ø¯
ĠØ¢Ú©Ø§Ø¯ ÙħÛĮÚ©
ĠØ¯Ø§ÛĮÙĨ Ø§Ø³
ĠÙĤÙģ Ø³Ùĩ
3 3
ĠØ¯ ÙĦØ¨
ĠÙĪ Ø§ÙĨÚ¯
ĠÙģ Ø´Ø§Ø±ÛĮ
ĠØ³ÛĮ Ø³ÛĮÙĦ
ĠØ³ÙĪÙħ Ø§ÙĦÛĮ
Ġ201 3
ĠÚ¯ÙĪØ±Ø¯ ÙĪÙĨ
ĠÙĩÙħØ¬ ÙĪØ§Ø±
innes ota
Øª Ø§Ø²
Ø§Ø± ÛĮÙĨ
ĠÚ© ÙĪØ±Ø¯
Ø§Ùħ Ø§Øª
ĠØ¨Ø± Ùħ
ĠØªÙħ Ø³
ĠØªØ¹ Ø§Ø±ÛĮÙģ
ĠØ´Ú© Ø§Ø±ÛĮ
ĠÚ¯ÙģØª Ú¯ÙĪÛĮ
Ù¾Ø³ ÙĨØ¯
ĠÙģØ±Ø§ÙĨØ³ ÙĪØ§
ĠØ¶Ø§ÛĮ Ø¹Ø§Øª
ĠÙĨÛĮØ§Ùħ Ø¯Ùĩ
Ġ tr
ÙĪ ÚĨÙĩ
Ø² ÛĮÚ©ÛĮ
Ù¾ Ø±Ùĩ
ØªÙĩ Ø±Ø§ÙĨ
ĠØ§Ùħ Ø±Ø§ÛĮ
ĠØ§ÙĦ Ø®
ĠÙģÙĦ Ø´
ÙĨÙĪ Ø¬
ĠÙħØ¯Ø± ÙĨÛĮ
ĠØªØ® ÙĦ
ĠÙħØ§Ø±Ú© ÙĪ
ĠØºÛĮ Ø¨Øª
ĠØ´Ø¬ Ø§Ø¹Øª
ĠØ²ØŃ ÙħØª
m on
ĠØ³ ÙĪÙħÛĮ
ĠÛĮ ÙĪØ´ÛĮ
ĠØ¨Ø¹ Ø¶Ø§
ĠØªØ´Ú© ÙĦ
ĠØ®Ø± Ø§Ø¨ÛĮ
ĠØ§Ø³Ú©ÙĦ Øª
c a
Ùĩ ÙĪÙĦ
Ø³ Ø§Ú©
Ø¨ Ø§ÛĮØ¯
Ø§Ø±ÛĮ Ùħ
ĠØ¯ÙĪØ± Ø§ÙĨÛĮ
ĠØ±ÛĮ ÙĦÛĮ
ĠØ¬ÙĨØ¨ Ø´ÛĮ
l ic
ĠØ¨ Ø®ÙĪØ§ÙĩØ¯
ĠØ§ÛĮÙĨ Ø´ØªÛĮÙĨ
ĠÚ©ÙĪÙĩ Ù¾Ø§ÛĮÙĩ
Ø§ÙĪÛĮ Ø±ÛĮ
ess ional
ĠØŃÛĮØ¯ Ø±ÛĮ
ĠØ§ÛĮ ÙħÙ¾
ĠÚ¯ Ø²ÛĮØ¯Ùĩ
ÛĮØ± Øª
ĠØ®Ø· Ø¨Ùĩ
ĠØ¨ÙĤ Ø§ÛĮ
ĠÚ©Ø§Ø±ÙĪØ§ÙĨ Ø³Ø±Ø§
Ø®Ø´ Ø§ÙĨ
ĠØ¢ÙħØ±ÛĮÚ© Ø§Ø³Øª
ĠØ¢Ø¨ Ø´Ø§Ø±ÛĮ
ĠÛ±Û° Û´
ĠØ¬ÙĪ Ø§ÙĩØ±
ĠÙħØ§Ø¯ Ø§Ú¯Ø§Ø³Ú©Ø§Ø±
ĠØ®ÙĪÛĮØ´ Ø§ÙĪÙĨØ¯
ĠÙĨØ§Øª ÙĪ
ĠØ¢Ù¾ ÙĪÙĦÙĪ
ĠØ±ÙħØ² Ú¯Ø°Ø§Ø±ÛĮ
âĢ ı
ØŃ Ø´
ÚĨ Ø§ÙĨ
Ø±ÛĮ ÚĨ
Ø¢ Ú¯Ø§Ùĩ
ÙħÛĮ Ø±ÛĮ
ĠØ¨ÛĮ ÙĪÙĦÙĪÚĺÛĮÚ©ÛĮ
ĠÚ©ÙĦ Ø±ÛĮØ¯
ĠÚĺØ± ÙħÙĨ
d i
ĠÙĤ Ø§Ø·Ø¹
ĠØ±Ø§ Ú¯
ĠØ´Ø¯ Ùħ
ĠÙĨÙĤ Ø¯ÙĩØ§ÛĮ
ÙģÙĩ Ø§ÙĨ
ĠÚ¯Ø±Ùħ Ø§ÛĮØ´
ĠØ¨Ø±Ø®ÙĪØ±Ø¯Ø§Ø± ÙĨØ¯
ĠØ§Ø¨ÙĦ Ø§Øº
P r
ĠØ§Ø¬ Ùħ
ĠÙħØªØ± ÙħØ±Ø¨Ø¹
ĠÙħÙĩÙħ Ø§Øª
ĠÙħØªÙĨ Ø§Ø¸Ø±
ĠØªØ·Ø¨ÛĮ ÙĤÛĮ
Ø¯ ÛĮØ±
ĠÙħØ¹ Ø±Ùģ
ÙĦØ³ ÙĦ
ĠÙħØµ ÙĦØŃ
ĠÙħØŃÚ©ÙĪÙħ ÛĮØª
ĠÙģØ±ÙħØ§ÙĨØ±ÙĪ Ø§ÛĮØ§ÙĨ
ĠØ¹Ø¨Ø§Ø³ÛĮ Ø§ÙĨ
ã ĥ
ĠØ´ ÙĪÙĨ
Ù¾ Ø§Ø±Ú©
ĠØ§Ø³Øª Ø§Ø±Ú©
ĠØ§Ùħ Ø¨
ĠÚ©Ø´ ÙħÛĮØ±
ĠÙħØ¯ ÙģÙĪÙĨ
ĠÙĨÙĪ ØŃ
ĠÚĺ ÙĪÙĦÛĮ
ĠØ±ÛĮ ÙĪÛĮ
ĠÙħØ® Ø±Ø¨
Ø§ÙĨÚ¯ Ùĩ
Ø³Ø¯ ÙĪØ±Ùģ
ĠÙħØ±Øª Ú©Ø¨
Ø¯ Ø³
Ø§Øª ÙĨ
ĠØ§Ø® ÙĪØ§ÙĨ
ÙĪÙĤ ØªÛĮ
ĠÙħØªÙĨ Ø§ÙĩÛĮ
ĠØ®Ø´ Ø§ÛĮ
ÙħØ¯Ø± Ø³Ùĩ
Ø±ÛĮ ÙģÛĮ
ĠÙĤ ÙĪ
ĠÙĤØ±Ø§Ø± Ú¯Ø§Ùĩ
Ú©Ø± ÙħØ§ÙĨ
ĠÙħØŃÙħØ¯ Ø¨Ø§ÙĤØ±
Ø¢ÙĪØ± Ø¯ÙĩØ§ÛĮ
ĠÚ©Ø§Ù¾ ÛĮØª
em ent
ĠØ¬Ùħ ÙĦØ§Øª
ÙħÙĪ Ø«
ect ion
ĠØ¢ÙĨ Ø§ÙĦÙĪÚ¯
ĠÙħØ¹ Ø·
ÙĨÛĮ Ø§Ø²
ĠØ¯Ø³Øª ÙĪØ±ÛĮ
ĠØŃØ¶ ÙĪØ±Ø´
ĠÙĪØ§Ø± Ø¯Ùĩ
ĠÙħØ±ÙĪØ± Ú¯Ø±
ĠØ¬Ø§Ø¯ ÙĪÚ¯Ø±
ĠØ§Ø³ØªÚ©Ùĩ ÙĦÙħ
ĠØ³Ø± Ø§Ø¬
ĠÛĮ ÙĪØ±ÛĮ
ĠØªØ± ÙħØ²
ĠM an
ĠØ±ÙĪÙħ ÙĨ
Ø®ÙĪØ§Ø³Øª ÙĨØ¯
ĠØ§ØªÙħ Ø³ÙģØ±
Ú¯ÙĪØ¯ Ø±Ø²
Ġ( )ØĮ
Ø¯Ø± Ø§Ø²
ĠÙħØ¯ ÙĪÙĦ
ĠE d
ĠØ¨ Ø§ÛĮØª
ĠØ¨Ø±ÛĮØª Ø§ÙĨÛĮØ§ÛĮ
ĠØ´Ø¹ Ø¨Ø§ÙĨ
ĠØªÙģ Ø±ÛĮØŃ
ÙĤÛĮÙħ Øª
ĠØ§ÙĨØ´Ø¹ Ø§Ø¨
n g
Ø² ÙħÛĮ
ÛĮÙĨ Ø§ÙĦ
ĠØ§Ùħ ÛĮÙĨÛĮ
ĠØ¨ÛĮ ÙģØªØ¯
ĠÛ±Û³Û³Û ³
ĠØ¢ Ø³ØªØ§ÙĨ
ĠÚ¯Ø± Ø³ÙĨÚ¯ÛĮ
ĠØ¨Ø§Ø´ Ú©ÙĪÙĩ
ĠM innesota
Ø¨ÛĮÙĨ ÙĨØ¯
ĠÙħØ¤Ø³ Ø³Ø§Øª
ĠØ§ÙħØªÛĮØ§Ø² Ø§Øª
ĠÚ©ÙĪØ¦ ÛĮÙĨ
ĠÚ¯ ÙĨÚ¯
ĠÙħØº Ø§ÙĨ
ĠO r
ĠÚ¯Ø§Ø¨Ø±ÛĮ ÙĦ
r am
ĠØª ÙĪÛĮÛĮ
Ù¾ ÙĪÙĨ
ĠØ³Ø±ÙĨÚ¯ ÙĪÙĨ
Ġ Õ
ØªÛĮ Ùĩ
ĠÙ¾ÛĮ Ø±ÛĮ
em ber
ĠØ´ Ú©Ø³
ĠÙģ ÙĪÙħ
ĠÚ¯ Ø³ÛĮÙĦ
ĠÙħØ´ Ø§ÛĮ
ĠØ¨ÙĦ ÙĪØ²
ÛĮÙĨÛĮ ÙĪ
la y
Ø³ÙĪÛĮ ÙĦ
ĠÚ©Ø±Ø¨ ÙĨØ§Øª
ĠÙ¾ÛĮØ§Ùħ Ø¯ÙĩØ§ÛĮ
ĠØªØ§Ú© ØªÛĮÚ©
ĠÙħØ§ÙĪØ± Ø§Ø¡
ĠØ± Ø¬ÙĪ
ĠÚ©ÛĮ ÙĪ
ĠØ¯Ø§ ÙĪØ¯
Ø¬ÛĮÙħ Ø²
ĠÙħÙĨØ§Ø¸ Ø±Ùĩ
a j
ĠÙħ Ø£
ĠØ±ÛĮ ÛĮØ³
ĠÙħÙĤØ¯ ÙĪÙĨÛĮ
ĠØ³ÙĪØ¯ ÙħÙĨØ¯
ĠÙħÛĮØ® Ø§Ø¦ÛĮÙĦ
ĠÙĪ Ø§ÛĮÙĨ
ĠØª Ú©Ø§ÙĨ
ĠØ§Ø³Øª Ø®ÙĪØ§ÙĨÛĮ
Ø§Ø¨ ÙĪØ±ÛĮ
Ø¢ ÙĦØ§Øª
ĠØ¬ÙĪØ§ÙĨ Ùĩ
ĠÙĨØ´Ø³Øª ÙĨ
ĠÚ©ÙĪØ´ Ú©
ÙħÙĪØ¯ ÛĮÙĨ
ĠØªÙĪØ±ÛĮ Ø³ØªÛĮ
ĠÙħ ÙħØ§ÙĨ
ĠÚ¯ ÙĪØ²ÙĨ
ĠÛ²Û°Û ¶
ig h
ĠØ¨Ø´ Ø±ÛĮØª
ĠÙĩÙħÚ©Ø§Ø± Ø§ÙĨØ´
Ġ Ï
ĠØ§ÛĮ Ú©
ĠÚ¯ ÙĪÛĮÙĨØ¯Ùĩ
Ø§Ø® Ø§ÙĨÙĩ
Ø¯Ø± ØµØ¯
ĠØ§ÙĨØªÙĤØ§Ø¯ Ø§Øª
ĠÙ¾Ø§Ø±Ø³ÛĮ Ø§ÙĨ
B S
Øª Ø§Ú©
ĠØ® Ø§Ø²ÙĨ
ÙĪÙĨ ÛĮØª
ĠØ§ÙĪ Ù¾ÙĨ
Ø§ÙĦÛĮ Ø§ÙĨ
ĠØªØ¹Ø¯ ÛĮÙĦ
un g
arch ive
Ù¾ Ø§Ú©
ĠØµ ÙĩÛĮ
ĠØ¨Ø§Ø² Ú¯Ø±Ø¯Ø¯
Ø¢ Ø³ÛĮ
ĠØ§Ùĩ ÙĦÛĮ
ĠG re
ĠÛ±Û¸Û¹Û ·
ĠØ³Ø±Ø³ Ø®Øª
ÙĨ Ø§ØµØ±
Øª ÙĨÚ¯
Ø¹ Ø§ØªÛĮ
ĠØ· ÙĦÙĪØ¹
ĠØ¨Ø§Ø² Ú¯ÙĪ
ĠØ§ÙĦ Ú©ØªØ±ÛĮ
ĠØ¨Ø§ÙĦ Ú©Ø§ÙĨ
Ø§Ú¯ Ø§ÙĪØ§
ĠØ¯ÙĦ Ø§ÙĦØª
ĠØ³ÙĪÛĮ Ø§
ĠÙħØ·Ø§ÙĦ Ø¨ÛĮ
ĠÙħÙĪØ± ÙĪ
ĠÙ¾ÙĪ Ø³ØªØ±
ĠÚ¯Ø±Ø¯ÙĩÙħ Ø§ÛĮÛĮ
ĠÚ©ÙĪØ¦ÛĮÙĨØ² ÙĦÙĨØ¯
ĠÙ¾ ÙĪÛĮÙĨØª
Ø· ÛĮØ±
Ø§Ø´ ÛĮÙĨ
ĠÚ¯Ø±Ø¯ÛĮØ¯ ÙĨØ¯
ĠÙ¾ÙĪØ´ Ø´ÛĮ
ĠÙĪØ§Ú© Ø±
ĠÙĤØ´ ÙĪÙĨ
ĠÙĪØ§Ø¬ Ø¯
ĠØ§ÙĪØ³ Ø§Ú©Ø§
B A
ĠÙĪ ÛĮØ´
Ø· ÙĪÙĦ
Ú¯Ø± Ùĩ
ĠÙħÙĨØ· Ø¨ÙĤ
ĠØ´Ø¨ Ø³ØªØ§ÙĨ
ĠØ¨Ø¹ ÙĦØª
Ù¾Ø± Ø¯Ùĩ
ov e
ĠØ¢ÙĨÚ¯ ÙĪÙĦØ§
ĠØª Ø§ÛĮØª
Ø® Ø§Ú©
ĠØ¬ Ø§ÙħÙĩ
ĠØ§ÙĦ ÙħØ§ÙĨ
ĠÚĺØ± Úĺ
ĠØ³Ø§ÙĦ ÙĩØ§
Ú¯Ø± ÙĨ
ĠÛĮØ§ ÙĤÙĪØª
ĠØ¹Ø± Ø¶ÛĮ
ÙĪ Ø¶
ĠØ¢ Ø±ÙĪ
ĠØ§ ÙĬ
ĠØ³Ø± Ø·Ø§ÙĨÛĮ
ĠØªÙĨ Ø¨ÛĮÙĩ
ĠØ¢Ø¨ Ø´
ĠÚĨÙĨØ¯ Ø¬ÙħÙĦÙĩ
ĠØ¢Ø± Ú¯
ĠØ§Ø³Ù¾ ÙĨ
ÙĨØ§Ùħ ÛĮØ¯ÙĨØ¯
ĠÙģÙĤÙĩ ÛĮ
Ø©Ø§ÙĦ ÙħØ¹Ø§Ø±Ùģ
Ø¨ Ø§ØªÛĮ
ĠØ¢ Ø´ÛĮ
ÛĮØ¯ ÙĨØª
ĠÛ±Û° Û¶
is e
ĠE x
ĠÙħÙĨØ§Ø² ÙĦ
ĠÚ©Ø§Ø±Ø®Ø§ÙĨ Ø¬Ø§Øª
o de
ĠØ¨Ùĩ Ø±ÙĪØ²
ĠÙĤ ÙħÛĮ
ÙĪÙħ ÛĮÙĨÚ¯
ĠØ³Ø± Ú¯Ø±Ùħ
ĠÙĤØ± Ø¶
ĠÙĩÙĪ Ø§Ùģ
Ø¬Ø² Ø§ÛĮØ±
w ard
ĠØ¨ Ú¯Ø°Ø§Ø±ÙĨØ¯
ĠØ¬ ÛĮÚ©
ĠØ¬ ÙĪØ§Ø±
ĠÙģØ±ÙĪ Ø®Øª
ĠÙ¾Ø±ÙĪØª Ø¦ÛĮÙĨÛĮ
ĠÙĦØ´Ú© Ø±ÛĮØ§ÙĨ
ĠØ§Ø´ÛĮ Ø§ÛĮ
ĠÚ¯ÙĪØ³Øª Ø§ÙĪ
Ø® Ø§
ĠÙģ ÙħÛĮÙĨÛĮ
Ø´ÛĮ ÙĪ
ĠØ³ÛĮÙĨ Ùħ
ĠÚ¯ÙĨØ¬ Ø´Ú©
ĠØ§ÙĨØ¹ Ú©Ø§Ø³
ĠÙħÙĨØªØ¸ Ø±ÛĮ
ĠÚ¯Ø²ÛĮÙĨ Ø´
ĠØ§ØŃØ³ Ø§Ø³ÛĮ
S I
ÙĨ ÙĪØ±Ø¯
ĠØ¨ Ø³ØªØ§ÙĨ
ĠÙģ ÙĨØ¯
ĠÙģ Ø±ÛĮØª
ĠÙĪÛĮ ÙĪ
Ø§Ø³ÛĮ Ø§Ø¨
ĠØªØµ ÙĪÙģ
ĠØ±ÛĮ Ø¨
ĠØ®Ø´Ú© Ø³Ø§ÙĦÛĮ
ĠJ ul
ĠØ¨ÙħØ¨ Ø¦ÛĮ
ĠØ¢ÙĩÙĨÚ¯Ø³Ø§Ø² Ø§ÙĨ
ĠÙĦ ÙĪÙĨ
ĠØ§Ø± Ø§Ø¨Ùĩ
ĠØ¢Ø´ ÙĪØ±ÛĮØ§ÙĨ
Ø¹ÙĤ Ø¯
ĠÚ©Ø§ÙĦØ¨ Ø¯
Ñ ģ
Ø³ Ø§ÛĮØ¯
ĠÚĨ Ø±Ùħ
ĠØµ ÙĪØ±
ĠØ¯ÙĪ Ø³
ĠØ¹Ùħ Ø±ÙĪ
ĠØ§ÙĨØ³Øª ÛĮØªÙĪ
ĠÚ¯ÙĦÙĪÚ© Ø²
ĠØ¨ ÙĪØ§Ø³Ø·Ùĩ
Øµ ØªÛĮ
ĠØ³Ùĩ ÙĪÙĦØª
ĠØ´Ø§Ùĩ Ø²Ø§Ø¯Ú¯Ø§ÙĨ
ĠØ¨Ú¯ÛĮØ±ÛĮ Ùħ
ĠØªØ±ÙħÛĮÙĨ Ø§ÙĦ
ĠÙ¾ ÙĨÚ¯
ĠØ¢Ø¨ Ø±ÛĮØ²
ĠØ¨ÙĦÙĪØ± ÛĮÙĨ
ĠØ¢ØªÙĦ Ø§ÙĨ
ĠØ´Ú©Ø³ Ù¾ÛĮØ±
i y
Ø§ ÙĪÙĨÛĮ
Ø±ÛĮ Ø®Øª
ĠØªØ± Ø§Úĺ
ĠÙħØªØŃ ÙħÙĦ
an k
ÙĬ Ùħ
ĠØ¯Ø±ØµØ¯ Ø¯
ĠÛ±Û¸ Û°Û°
ĠØ¯ÙħØ§ ÙĩØ§ÛĮ
Ø¬ Ø´ÙĨ
Ø§Ø³ Ùģ
ÙĪÙĦ ÙĪÙĨ
ĠØ§Øµ ÙĪÙĦÛĮ
in o
ÙĨØª Ø²
Ø³Ú© Ø±ÛĮ
ĠÛĮØ§Ø²Ø¯Ùĩ ÙħÛĮÙĨ
ÙĪØ¯ Ø§Ø±
ĠØ® Ø§Ø¯
ĠØ±Ø§ ÙĪ
ĠÙħØŃ ÙģÙĦ
Ú©ÙĨ Ø¯Ùĩ
ĠØ¨Ø§Ø± ÙĪØ±ÛĮ
ÛĮÙĨÚ¯ ÙĪ
ÙĨØ´ Ø¯Ùĩ
ĠØ³Ø±Ø¯ Ø±
ÙħÙĪÙĨ ÛĮÚ©
ĠØ¢ÙĨØ¯ Ø±ÛĮ
Ø§Øª ÙĪÙĨ
ÙĪÙĦ ÙĪØ³
ĠÙĦ Ø¦ÙĪ
ĠØ§Ø³ Ø¯ÛĮ
ĠÙħØª Ø¶
ĠØ³Ø± Ú¯
ĠÚ©Ø§Ø± ØªÙĪÙĨ
Ø¨Ø± Ø§Ø¨Ø±
ĠØ¢Ø± ØªØ³
ĠØ¨ÛĮØ³Øª ÙĪÙĨ
ÙģÙĨ ÙĪÙĨ
ĠÙĪ Ø§Ú¯
ĠÙħÛĮ ÙĨÙĪ
Ø§Ø¯ Ø±Ø§ÙĨ
ÙĪÙĨØ¯ Ø§ÛĮ
ÙģÛĮ Ø¹ÛĮ
ĠØªØ¬ Ø§Ø±
ĠÚ¯ÙĨØ¬ Ø§ÙĨØ¯Ùĩ
ĠØ§Ø³Ø±Ø§ÛĮ ÛĮÙĦ
Ùħ Ø¹ÙĨÛĮ
ÙĦ Ø§Ø±
Ø¢ ÙĪ
ĠØ³Ø· Ø±
ĠØªØµ Ø§ÙĪÛĮØ±ÛĮ
ĠÙģØ±Ø§ÙĨ ØªØ³
ĠØ®Ø¯ Ø§Ø¨ÙĨØ¯Ùĩ
ĠØŃØ± Ø§Ùħ
ĠÛ³Û±Û ¶
ĠÙģ Ø§ÛĮÙĨ
Ø¨Ø± ÙĪÙĨ
Ø§Ø¦ ÙĪÙĦ
ĠØ±Ø¨ Ø§Ø¹ÛĮ
Ù¾Úĺ ÙĪÙĩ
ĠØ¨Ø± ØŃ
ĠÛĮ ÙĪØ²Ùģ
Ġ1 4
ĠØ§ØŃØ§Ø¯ÛĮ Ø«
ĠØ³ Ø¦ÙĪÙĦ
Ø¶Ø§ÛĮ ØªÛĮ
ĠÙħØ¤ Ø«Ø±ÛĮ
ĠØªØ® ÙĦÙģ
ĠÙħÛĮØ±ØŃ Ø³ÛĮÙĨ
Ø§Ø¯Ùĩ Ø§ÛĮÛĮ
ĠØ³Ø± Ù¾ÙĪØ´
ĠÚ©Ø§Ø± Ø§
ĠØ§Ø³Ú© Ø±ÛĮ
ĠÙĪÛĮÙĦ Ø§
ĠMun icipality
A F
Ø¯ ÙĨØ¯Ø§ÙĨ
ĠØ¯Ø± Ø¬Ø§Øª
ĠØ±Ø³ Ø¯
ĠÙħÚ© Ø²ÛĮÚ©ÛĮ
Ø³Ø§ÙĦ Ú¯ÛĮ
Ø¬Ùħ Ø¹
ĠØ¹Ø§Ø´ ÙĪØ±Ø§
ĠØ¯Ú© ÙħÙĩ
Ø³Ø±Ø² ÙħÛĮÙĨ
ĠÙĩ Ø§ÙĨÛĮ
ĠØ³ÛĮ Ø±ÛĮ
ĠÙħØ¬ Ø§Ø±ÛĮ
Ø¯ÙĨ Ø¨Ø§ÙĦ
ĠØ§Ø¬Ø² Ø§Ø¡
Ø§ ÙĪØ¨
ĠÙħ Ø§ÛĮØ±
Ú¯ ÙĪØª
ĠÚ¯ Ø§ÙħØ§
ĠØ³ÛĮ ÙĦÛĮ
ÙĦÙģ ÙĦ
ĠØµØ¯ Ø§ÛĮÛĮ
Ø¹Ùħ ÙĦÛĮ
ĠÙĨØ§Øª ÙĪØ§ÙĨ
ĠÛ±Û¸Û¹Û ¸
ĠØ±Ø§Ùģ Ø§Ø¦ÙĦ
ĠØ´Ø§ÙĨÚ¯ ÙĩØ§ÛĮ
Øµ Ø§Ø¯
ĠØ±ÙĪ Ø¯ÙĩØ§ÛĮ
ÙĪØ² Ø§ÙĨ
ĠØ§Ø¨ ÙĪØ¹
ĠØ³ÙĤ Ø²
ĠØ¯Ø± ÛĮÚ©
ĠØ§Ø³Øª Ø§Øª
ÙģØ± ÙħØ§
ĠÙĨØ§Ùħ Ø·
ÙģÙĩ ÙħØ¯
ĠÙħÙĦ Ú©ÛĮ
ÙĪÙĦÛĮ Ø³Ùħ
Ø²ÙħÛĮÙĨ Ùĩ
ĠØ¹Ø² Ø§Ø¯Ø§Ø±ÛĮ
Ø§Ø¯ ÙĦÙģ
ĠÙħØ¹ Ø±ÙĪÙģÛĮ
ĠØ§Ø¯ Ø§ÛĮ
ĠÙħ Ø³ØªØ±
Ø³ Ø±Ø§ÙĨ
ĠØª Ø§ÙĦÛĮ
ĠØ§Ø³Øª ÙĪØ§ÛĮÛĮ
Ø® Ø·ÛĮ
ĠÙħØª Ø®ÙĦ
ĠØªØ± ÙħÙĪØ¯ÛĮÙĨ
ĠÙħÙĦÛĮ Øª
ĠÙĦÙĪØ¯ ÙĪÛĮÚ¯
ĠÚ¯ Ø±ÛĮÙĩ
Ø±ÙĪ Ø¦
ĠÙħØ¹ Ø§Ùģ
ĠÙħØ¬ Ø§ÙĦØ³
ĠG u
ĠÙħÚ¯ Ø§ÙĪØ§Øª
Ú© ÛĮØ±
ĠÙĨ Ú©ÙĨÙĨØ¯
ĠØ¬ Ø§Ø±
ĠØ§Ø³ ÙĩØ§ÙĦ
ĠØ§ÙĦ ÛĮØ³
Ø´ÙĨ Ø§
ĠØ¯Ø³ØªÙĪØ± ÙĩØ§ÛĮ
Ø§ÙģØ²Ø§Ø± ÙĩØ§
ĠØµØ± Ø§ØŃØª
ĠØ¯Ø±ØŃØ§ÙĦ ÛĮÚ©Ùĩ
ĠØ¨ÙĪØ±Ú©ÛĮÙĨØ§Ùģ Ø§Ø³ÙĪÛĮ
Ø§ÙĨØ¯ÛĮÙĨ Ø§ÙĪÛĮ
C H
S t
ĠØ¨ Ø¬ÙĨ
Ø´Ùħ Ø§ÙĦ
ĠÙ¾ÛĮØ´ Ø§ÙĨÛĮ
ĠÙ¾ÛĮ Ø§ÙħÛĮ
ĠI I
ĠØ¢ÛĮØ¯ Ø§ÙĩÙĪ
R I
ÙĤ Ø§
ĠÚ©Ø´ Ø´ÛĮ
ĠØªØµ Ø±ÛĮØŃ
ĠØ¢Ø± Ø§Ø±Ø§Øª
ĠÙĤØ¯Ø± ØªÛĮ
Ø§ÙĨØª Ø®Ø§Ø¨
ĠØªÛĮ Øº
ĠÙħØ§Ø±ÛĮ ÙĪ
ĠÙĨØ§Ø¯ Ø±ÛĮ
ĠÙĨØ§ÙħØ² Ø¯ÙĩØ§ÛĮ
ÙĨ Ø§ÙĨÛĮ
Ùĩ ÙĨØ¯
ĠØ³ ÙħÙ¾
ĠØªÙĦ Ø§Ø´ÛĮ
ĠÛ±Û¸Û ¸Û°
ĠI SO
ÙħÙĪØª ÙĪØ±Ùĩ
ĠØªØ´ÛĮ ÛĮØ¹
Ø± Ø§Ø¨Ø±Øª
ĠÙħ Ø²Ùĩ
Ø¨ Ø§ÙģÛĮ
ĠØ§ÙĪ Ø¨ÙĦØ§Ø³Øª
ĠØ³Ø± Ú¯Ø°Ø´Øª
ĠØ¨ÙĦ ÙĪØ±ÙĩØ§ÛĮ
ĠØ§Ù¾ Ø±Ø§ØªÙĪØ±
ĠÚ¯Ø°Ø±Ø§ÙĨ Ø¯Ùĩ
Ã ¢
ĠØ´ ÙĪØ±ÛĮ
ĠÙĨ Ø§ÛĮÙĦ
Ø¢ Ø±Ú©
ĠØ¨Ø¹Ø¯ ØªØ±
ĠØªÙĪØ±ÙĨ ÙħÙĨØª
ĠÙħØŃØªØ± Ùħ
ĠØ¬ Ø¨ÙĦ
ĠÙħØ´ ÛĮ
ĠØ³ÛĮÙĨ Øª
Ù¾ÙĨ Ø§Ùĩ
ĠØ² ÙĩÛĮ
ÛĮÙĦ Øª
ĠÛĮ ÙĪÙģØ§
ĠØ®ÛĮ Ø¨Ø±
ĠÙħØ³Ø¬Ø¯ Ø³ÙĦÛĮÙħØ§ÙĨ
ĠÛ±Û³Û² Û¶
ĠØ·Ø§ÙĦ ÙĤØ§ÙĨÛĮ
2 8
Ø§ÛĮ ÙĨÛĮ
ĠØ¨Ùĩ Ø¨ÙĪØ¯ÛĮ
ĠÙħÙĪ Ø¬ÛĮ
ĠÛ±Û¸Û¹Û ¹
ĠØªÙħØ§Ø´ Ø§
ĠÙĩÙħØ³Ø§ÛĮ Ú¯ÛĮ
ĠÙĩ Øª
Ø¢ ØªØ´
ĠÙħØ¬ Ø±Ø§ÛĮ
ĠÙħØµ Ø§Ø¯Ø±Ùĩ
ĠØ¬Ø§ÙĨ Ø§ØªØ§ÙĨ
ĠÙģÙĦ Ú©
ĠØªÙĪØ± Ø§Øª
ĠØ¢ÙħÙĪØ²Ø´ Ú¯Ø§Ùĩ
ĠÙ¾Ø§ÙĦ Ø§ÛĮØ´
ĠÚ©ÙħÙĪÙĨÛĮ Ø³Ùħ
ĠÙĪÛĮØ¯Ø¦ ÙĪÛĮ
Ú© ÙĪØ¯
ÛĮÚ© Øª
ĠÙħÙĩ ÙħØ§ÙĨÛĮ
ĠØ³ÙĨÚ¯ Ø±
ĠØ§ÙĨØªÙĤ Ø§ÙĦÛĮ
Ø³Ù¾ Ø§Ø±ÛĮ
" :
ĠÙħØ± Ø¬Ø§ÙĨ
ĠÙĨÛĮ ÙĪÙĩ
Ø§Ú©ÙĨ ÙĨØ¯Ùĩ
ĠÙ¾Ø§Ø³ Ú©Ø§ÙĦ
ĠÚ©ÙĪØ± ÙĨ
Ø± Ø§ØªÛĮ
ÙĦ ÙĪÙĨ
Ø¨ Ø§Ú©
ĠØ¬ÙĦ Ø¯ÛĮ
ĠØ¯ÛĮÙĨ Ø§Ø±
ĠÙħØŃØ¶ Ø±
ivers ity
ĠÙģ Ø§ØµÙĦ
ĠØ¨Ø± Ø§ÙĨØ¯
ĠØº Ø¯Ø¯
ĠØ¬Ùĩ Ø§Øª
ĠÚ©ÙĦ Ø§Øª
ÙĪÙ¾ Ø§ÛĮÛĮ
Ø§ÙĪØ± Ø§ÙĨ
ĠØ¢Ú© ÙĪØ±Ø¯
ĠÙĨØ§Ø± Ø§ØŃØª
ĠÙĩØ§ÙĪ Ø§Ø±Ø¯
ĠØ¢Ø±Ø² ÙĪÛĮ
ĠØ¬ ÙĦÛĮÙĦ
ĠÙħØ¹ Ø§ÙĦ
Ø´Øª Ú¯Ø§ÙĨ
ĠÛ´ Û°Û°Û°
er m
ĠS e
ĠÛ±Û±Û ±Û
ĠØ¨Ø§Ø²Ú¯Ø´Øª ÙĨØ¯
ĠØ®ÙĪØ§Ø³Øª ÙĨØ¯
ĠÛ±Û³Û³Û ±
Ù¾ÛĮØ´ ÛĮÙĨ
ĠÙĩ ÙĪÙĨØ¯Ø§
ĠØ¨Ø§Ø² ÙĪÛĮ
Ø¨ÛĮ ÙĪØªÛĮÚ©
ĠØ¨ÙĨ Ø§Ø¯Ø±
Ġâ Ī
ĠØ¬ÙĨØ¬ Ø§ÙĦ
Ùħ Øº
ĠØ³ÛĮ Ø§Ø±Ø§Øª
ĠÙħØ´ ØªØ±Ú©ÛĮ
ÙĪØ¨ ÛĮÙĦ
ĠÙħØ§ÙĨ ÙĪØ¦ÙĦ
ĠØ²ÙĨØ¯ Ú¯
ĠØ¹ÙħÙĦÚ©Ø±Ø¯ ÛĮ
ĠÚ©Ø§Ø¨ ÛĮÙĨ
ĠÚ©ÙĦÛĮØ³Ø§ ÙĩØ§ÛĮ
ĠØ§ØŃØªØ± Ø§ÙĤ
ĠØªØ±Ø§ÙĨ Ø²ÛĮØ³Øª
ĠØ´ ÙĦÙĪ
ĠØŃ ÙĪØ²
Ġ( Â°
ĠÚĨ ÛĮØ±
Ú¯Ø± Ú¯
in s
ĠØ§Ø³Ø§Ø³ ÙĨØ§ÙħÙĩ
ĠÚ©Ø±ÛĮ ÙħÙĩ
ĠØ¹Ø´ Ø§ÛĮØ±ÛĮ
ĠØ·Ø¹ ÙħÙĩ
ĠÙĨØ³Øª Ø¹ÙĦÛĮÙĤ
ÙĨ ÙĪÚ©
ÙĦ Ø´Ú©Ø±
ĠÙĨ Ø§Øµ
ĠØ± Ø§Ø¨Ø±
ĠÙĦ Ø§Ø³ØªÛĮÚ©
Ø¶ Ø±Ø¨
Ú©ÛĮ Ø¯Ùĩ
ĠØªÛĮÙħ ÙĪØ±ÛĮ
ĠÙĨØ§Ø± Ø¶Ø§ÛĮØªÛĮ
ĠØªÙĪØ¶ÛĮØŃ Ø§Øª
ĠØ¬Ø³ ÙħØ§ÙĨÛĮ
ĠØ¨ÙĩØ§Ø¦ÛĮ Ø§ÙĨ
7 5
ÙĨ Ø§ÙħÛĮ
Ùħ ÙĪÙĨØª
ĠØ¹ ÙĪØ¯
ĠÚĨ ÙĤØ¯Ø±
ĠØ¢Ùħ ÛĮÙĨÙĩ
Ø¢ ÙĦÛĮ
ÙĲ Ùĳ
ĠØªØŃØª Ø§ÙĨÛĮ
ĠÙĨÙĪØ± ÙħÙĨ
ĠÙĦØ¨ ÙĨÛĮ
ĠØ²ÙĨØ¬ Ø§ÙĨÛĮ
ĠÚ©Ø§ÙħÙ¾ÛĮÙĪØªØ± ÙĩØ§ÛĮ
ĠÙģØ³ ÙģØ±
ĠØºÙĪØ§Øµ ÛĮ
Ø¯ Ø¨ÙĦÛĮ
Ø¨ Ú¯Ø§ÙĨ
ÙĪÙħ ÛĮÙĨ
ĠÚĨ Ø§ÙĨÚ¯
Ø¢ Ú©
ĠÚ©Ø§Ø± Ø§ØªÙĩ
Ø¯Ø± Ø§Ùħ
ĠØ®ÙĪ Ø§ÙĨÛĮ
ĠÙĪØ¬ÙĪØ¯ ÛĮ
Ø¨Ø±ÛĮ Ø§
ĠÙ¾Ø§Ø± Ø§Ú¯ÙĪØ¦Ùĩ
ĠØ¹ØªÛĮ ÙĤ
ĠØªØ§ÙĨØ² Ø§ÙĨÛĮØ§
ĠØ¯ ÙĦÙĪ
ĠØª Ø§ÙħÙ¾
Ø² ÙĩØ±Ø§
ĠØ¨ÙĪØ¯ Ø§
ĠØ¯Ø® ÛĮÙĦ
ĠØµÙĨ ÙģÛĮ
http s
ĠÙ¾Ø±ØªÙĪ ÙĩØ§ÛĮ
ĠØ²ÛĮØ§Ø±Øª Ú¯Ø§Ùĩ
ĠÚ¯ Ø§ÙĦÛĮ
ĠÚ¯Ø±Ø¯ ÙĨÙĩ
ĠÙĤØ¨ Ø§Ø¯
ĠS outh
ĠØ¨Ø±Ú¯Ø±Ø¯Ø§ÙĨ Ø¯Ùĩ
ĠÙħØ³Ùħ ÙĪÙħÛĮØª
Å Ĥ
Ú© Ø±Ø§ÙĨ
ØŃ Ø§Ø¨
ĠÙħÙĨ Ø¹ÙĤØ¯
ĠÙģØ± ØµØªÛĮ
ĠØ§Ø± Ú¯Ø§ÙĨÛĮØ³Ùħ
ĠØ¨Ø§Ø± Ø§ÙĨÛĮ
ĠÚ¯ÙĦ Ùģ
ĠÙħÙĩØ§Ø¬ ÙħØ§ÙĨ
S T
ÙĪ ÙĪÛĮ
ĠØª ÛĮÙĨ
ĠÛ±Û° Û±
ĠØªØ¹ Ø·ÛĮÙĦÛĮ
ĠØ®ÙĪØ§Ùĩ Ø±Ø§ÙĨ
ar s
ĠØ¹ÙħÙĦ Ú¯Ø±
ĠØ§Ø³Ú© Ø§ÙĨØ¯ÛĮÙĨØ§ÙĪÛĮ
ĠÛ²Û´ Û°
ĠÙģÙĦÙĪØ± Ø§ÙĨØ³
Ú¯ Ø§Ø±Ø§ÙĨ
ØĮ "
ĠÙĨÙĪ Ø§Ø¨
ÙĨÙĩ Ø§Ùħ
ĠÙĤÛĮ Ø§Ø³
Ø§Ø¯ÙĦÙģ ÛĮØ§
D P
ĠØ³ ÙĪØ¨
Ø§ÙĦ ÙħÙĨ
Ø¬ ÙĦÙĩ
ĠÛ²Û°Û ·
ĠØ³ÙĪ Ø§ÙĦØ§Øª
ÙħØ¬ Ø§Ø±Ø³ØªØ§ÙĨ
ĠØ®ÙĪØ±Ø¯ ÙĨØ¯
ĠÙħØŃÙĤÙĤ ÛĮÙĨ
ĠÙ¾ Ø±Ø§ÙĨ
ĠØ¹ Ø§ÙĤ
ØªÛĮ Ø³Øª
ĠÙĦ ÙĪÚ¯
ĠØ§Ø± Ø¶ÛĮ
Ø§Ùģ Ø²ÙĪÙĨ
Ġ" Â«
Ú¯Ø° Ø±Ø§ÙĨ
ĠÙģÛĮÙĦÛĮ Ù¾Ø³
Ø§ÙĨ Ø³Ø§ÙĨ
ĠÚ© Úĺ
ĠØ¢ ÙĪØ§Ø±
Ø® ÙĨ
Ø¯Ø§ÙĨ Ùħ
ĠØ·Ø¨ Ø¹
ĠÚ©Ø§Øª Ø§ÙĦÛĮØ²
ÙģÙĦ Ø²ÛĮ
ĠÙĪØ§Ø± ÙĨØ±
ĠØ¨Ø±ÙĪÚ© Ø³ÙĦ
ĠØµÙĪÙģ ÛĮÙĩ
Ø§ÛĮ Ø¯Ùĩ
ĠÙĨ ÙĤÛĮ
Ø§Ø® ØªØ±
ĠØ§ÙĪÙĦ Ø§Ø¯
ĠÙ¾ÛĮÚ© Ø³ÙĦ
ĠÚ¯Ø±Ø§ÙĨ Ø¯
ĠØ³Ø±ÙĨÚ¯ ÙĪÙĨÛĮ
ĠÙĤØŃ Ø·ÛĮ
Î ¿
ĠÙĪ Ø§Ø¯ÛĮ
ĠØ¬ Ø§Ø´
Ø§Ú© ÙĦ
ĠØ§Ø¯ Ø§Ø±Ø§Øª
ĠØ§Ø¬ Ø¨Ø§Ø±
ĠØ¸ ÙĦÙħ
ĠØ§ÙĩØ¯ Ø§ÛĮ
ĠØ¯Ø§ÙĪØ·ÙĦØ¨ Ø§ÙĨÙĩ
ĠØ§Ùħ ÛĮÙĦ
ĠÚ¯Ø± Ø§Ùħ
ĠÙĩÛĮ Ø¯Ùĩ
ĠS ch
ÙĨÙĪ Ø§Ø²ÛĮ
Ø³ÛĮØ³ Ùħ
ĠØ±Ùĩ Ø³Ù¾Ø§Ø±
ÙħÙ¾ ØªÙĪÙĨ
ĠÙ¾Ø°ÛĮØ± Ø§ÛĮÛĮ
ĠØ¨ ÙĪÙģ
ØªØ± Ø²
ĠØ¨Ø§Ø² Ú¯Ø±Ø¯Ø§ÙĨØ¯
ĠØ§Ø± Ùĩ
ĠØ§Ø¹ Ø¶Ø§Ø¡
ĠÙħØ§ÛĮ ÙĦÛĮ
ĠÙĤØ±Ø§Ø±Ø¯ Ø§Ø¯ÙĩØ§ÛĮ
ĠØ§ÛĮØ²Ø¯ Ø§ÙĨ
ĠÙħØ±Ø¹ Ø´ÛĮ
Õ ¸
Ø³ ÙĪØ¯
Ø§Ø¨ Ú©
ĠÚ©Ø§Ø± ÙĨ
ĠÙħØŃÙħØ¯ ØŃØ³ÙĨ
ĠÙĩÙħØ§ÙĨ Ø·ÙĪØ±
ĠÙħØ§Ø± Ú¯Ø§Ø±Øª
ĠØ¬ÙĪ Ø§ÙĩØ±Ø§Øª
he l
ÙħØ§Øª ÛĮÚ©
ĠÙģÛĮØ²ÛĮ ÙĪÙĦÙĪÚĺÛĮ
S M
ĠÙ¾ Ø§Ø¨Ø±
Ø§Øª Ø±ÛĮ
Øº ÙĦ
ĠØ¹Ø¨ ÛĮØ¯
ÙħØŃ ÙĦ
ĠØ¯ÛĮÙĨ Ø§ÙħÛĮÚ©
ĠØ±Ø® Ø¯
ĠÚĨÛĮØ² ÙĩØ§ÛĮ
ĠÙĨØ§Ø¯Ø± Ø´Ø§Ùĩ
ĠØªÙħØ§Ø´ Ø§Ú¯Ø±
ĠÚĨØ±Ø®Ø´ ÛĮ
ÙĨØ® Ø³ØªÛĮÙĨ
ĠØ§ÙĦÚ©ØªØ±ÛĮ Ø³ÛĮØªÙĩ
Ġ z
Ú© Ø³Øª
ĠØ± Ø§ÙĦ
ĠØ§ÙĨ ØµØ§Ø±
ĠØ¨Ø±Ø§ÛĮ Ø´Ø§ÙĨ
ĠÙħØŃ ÙĪ
Ø®Ø± Ú¯
ĠØªÚ© ÙĪØ§ÙĨ
ĠØŃÙĤ Ø§ÛĮÙĤ
ĠØ§Ø´Ø¹ Ø§Ø±ÛĮ
ĠØ§Ø³Ù¾Ø± ÛĮÙĨÚ¯
ĠInt ern
ĠÙħÙĨØ§ÙĤ Ø´Ùĩ
ĠGe org
ĠÚ© ÙĪØ²Ùĩ
ĠÙĨØ§Ùħ ÛĮØ¯ÙĨØ¯
ĠØ¬Ùĩ ÙĨÙħ
ĠØ« ÙĪØ±
ĠÙĨØ§Ú¯ Ø²ÛĮØ±
ĠØ¨Ø±ÛĮ Ø³ØªÙĪÙĦ
ĠÙħØŃØª ÙħÙĦ
ÙĤ Ø´
ĠØ´ ÙĪØ§Ø±
ĠÙħØ¹ Ø§Ø¨Ø¯
ĠØ§Ø³ØªØ§Ø¯ÛĮ ÙĪÙħ
Ùģ Ø§Ø±ÛĮ
ĠØ¨Ø± Ø§Ú©
Ø§Ø² Ø§Ú©ÛĮ
ĠØ§ÙĨ Ø¨Ø³
ĠØ¨Ø§Ø² Ú¯Ø´Ø§ÛĮÛĮ
ĠØ¢Ø²Ø§Ø¯ Ø§ÙĨÙĩ
ĠØ¹ÙħØ± Ø§ÙĨÛĮ
ĠØ¨Ø§Ø²Ú¯ Ø´ØªÙĩ
ĠØ³ÙħØ± ÙĤÙĨØ¯
ĠÙħØ¹Ø· ÙĪÙģ
ĠØ§ÛĮ Ø±Ø¨
ĠÙĦ Ø§ÙĦÛĮ
ĠØ¯Ø§ÙĨ Ø§
ĠÙĨØ§Øª ÙħØ§Ùħ
ĠØ¬Ø§ÙĨØ¯ Ø§Ø±Ø§ÙĨ
l an
ĠØ§ÛĮ Ø±ÙĪ
Ø§Ø³ Ú©ÙĪ
ĠØ· Ø§ÙĩØ±ÛĮ
ĠÙĦ Ù¾
Ø²ÛĮ Ø³ØªÙĩ
Ø§Ù¾ Ø³Øª
ĠÙħØ±Ø¨ ÛĮØ§ÙĨ
ĠØ¢ÙĤ Ø§ÛĮØ§ÙĨ
ÙģØ±Ø§ÙĨ Ø³ÛĮØ³Ú©ÙĪ
ĠÚĨÛĮØ² ÙĩØ§ÛĮÛĮ
ĠØ¨Ø³ Ø²Ø§ÛĮÛĮ
Ġ200 8
ĠÙĨØ² ÙĪÙĦ
Ø§Ø¯ ÙĪØ±
ĠØ¬ ÙĪÙĨÚ¯
ĠØ® ÙģÛĮÙģ
Ø§Ø¨ ÙĪÙĨ
ĠØ³ÛĮ ØªØ±
Ø±Ø§Ùĩ Ø§
Ø§ÛĮÙĦ Ø±
ĠØ¯ÛĮØ¯ Ø§Ø±ÛĮ
ĠÛĮØ§Ø¯ Ø´Ø¯Ùĩ
ĠØªÚ©Ø± Ø§Ø±ÛĮ
ÙĤ Ø§Ùĩ
ĠØ³ ÙĤØ±Ø§Ø·
Ø¢ Ø°
Ø§Ø¦ Ø¨
ĠÚ©ÙĪÙĩ Ø¯Ø´Øª
ĠÙ¾ÙĪØ´ ÛĮØ¯ÙĨ
ĠÚ¯ÛĮØª Ø§Ø±ÛĮØ³Øª
ĠØ§ÙĨÙĪØ´ ÛĮØ±ÙĪØ§ÙĨ
3 6
Ã ¨
Ø³Øª Ø±Ø§ÙĨÚ¯
ĠØªØŃ ÙĤÛĮÙĤÛĮ
ĠØªØŃ Ú©ÛĮÙħ
ĠØªÙħØ§Ùħ Ø§
ĠØ¨ÙĪØ± Ú¯
Ø¢ÙĪØ±Ø¯ ÙĨØ¯
ĠØ§Ø¹ØªØ± Ø§Ø¶ÛĮ
Ùħ Ø¯Ø±Ø¶Ø§
ĠÚ¯ Ø±ÛĮØ³
ĠØ³Ø± Ø¹ØªÛĮ
ĠÚ¯Ø± Ø§ÙħÛĮ
ĠÙģØ±Ø§ÙĨ Ú©ÙĪ
ĠØ§Ø³Ù¾ Ùĩ
ĠÙħØ§Ø± ÚĨ
Ø§ÛĮ Ú©
ĠÚ© Ø¹
ĠØ´ÙĩØ± Ø¨Ø§Ø¨Ú©
ĠØ³Ø± ÙĪØ¯ÙĨ
ĠÚĺ ÛĮ
ĠØ¹ÙĦÛĮ Ø²Ø§Ø¯Ùĩ
ÙĪÙĦÛĮ Ø§
ĠØŃÚ© ÙħÛĮ
ĠF or
ÙħØ¹ ÙĨØ§ÛĮ
Ø¬Ø§Ùħ ÛĮÙĨ
ĠØ§ÙĨÚ¯Ø´Øª Ø§ÙĨ
ĠØ¹ Ø°
ĠØ¯Ø§Ø± Ø§ÙĨ
Ø®Øª Ú¯ÛĮ
Ø¨Ø§ÙĨ ÙĪÛĮ
ĠÙ¾ÛĮ ØºØ§Ùħ
ĠM w
ĠØªØ§ÛĮ ÛĮØ¯
ĠÙĨØ§Ø³ Ø§Ø²
ĠÙħÙĩÛĮ Ø¬
8 8
ĠÚ© Ø§ÙĪÙĩ
ĠÙĨ Ø¬Ùħ
ĠØ±ÙĪ Ø¨Ø±Øª
ĠÙħØª Øµ
ĠØ³Ø± ØªÛĮÙ¾
ĠÙ¾ÛĮØ´ ÙĨÙĩØ§
ĠÚ©ÙĦ Ø§ÙħÛĮ
ĠØ§ÙĨØ¯ ÙĪÙĩ
it ion
ĠØ¬ÛĮ ÙĪÙĩ
ĠÙ¾ÛĮÚ© Ø±Ø¨ÙĨØ¯ÛĮ
ĠÙĪØ¬ ÙĪÙĩ
ØªÙĪØ¬Ùĩ ÛĮ
ĠØ± Ø¨Ø¹
ĠÙĩ Ø§ÙĨØª
ĠØ· ØºÛĮØ§ÙĨ
ĠÙĦ Ø§Ú¯
ĠØ¹Ùħ ÙĪÛĮØ´
ĠM on
ĠÙħØ·Ø§ÙĦ Ø¹Ø§ØªÛĮ
ĠØ§Ø³ÙģØ± Ø§ÛĮÙĨ
Ùħ ÛĮØ´
Ø§Ø² Ø§
ĠÙĦ ÙĪØ±ÛĮ
ĠÙĪØ± ÙĤÙĩ
ĠÚ©Ø§ÙĦ ÛĮÙĨ
ĠÛ²Û³ Û°
Û±Û¸Û ²
ĠÙ¾Ø¯ÛĮØ¯ Ø¢ÙĪØ±
ĠÙĦÙĪÚ© Ø§Ø³
ĠÙħ ØªÛĮ
Ø³Øª Ø¯
ĠÙ¾ ÙĪØ²Ùĩ
ĠØ¯ÛĮ Ú¯
Ú©Ø± Ø§ÛĮØ³
ĠØŃØ³ ÙĨÛĮ
ĠØ§Ø®ØªØ± Ø´ÙĨØ§Ø³ÛĮ
ĠÚ¯Ø§Ø± Ø³ÛĮØ§
Ú© ÙĪÙ¾
ĠØ¯Ø± Ø¨Ø±Ø¯
Ø§Ø³ÛĮ Ø§ÙĨ
ĠØ¯Ø®ØªØ± Ø§ÙĨÙĩ
ĠH T
ĠÙħØ§ÙĩÛĮ Ú¯ÛĮØ±ÛĮ
ĠØªØ±ÛĮ Ù¾ÙĦ
ĠØ¯ÛĮØ± Ø¨Ø§Ø²
ĠØ§ÛĮØ² Ø§Ø¨ÙĦ
Ù¾Ø§ÛĮ Ú¯Ø§Ùĩ
ĠØ¢ÛĮØ± Ø³
Ø¨ ÙĪÙħ
ĠØ§Ø± ÙĦ
Ø¨ÛĮ ØŃ
ĠÙ¾ÙĨØ¬ Ø´ÙĨØ¨Ùĩ
ÙĪØªÛĮ ÙĪ
ĠØ±Ø¤ ÛĮØ§
ĠÙĩ Ú©
ĠØ³Ø± Ù¾ÙĦ
ĠÛĮ ÙĪØ³
ĠÚĺ ÙĦ
ĠÚ¯ÙĦ ÛĮÚ©
ĠC D
ĠA g
ÙħØ§ÛĮ Ú©ÙĦ
at er
ĠÙĦØ´Ú© Ø±ÛĮ
ĠØ¨Ø±Ø§Ø¯ Ø±Ø²Ø§Ø¯Ùĩ
ĠØ¬Ø°Ø§Ø¨ ÛĮØª
P S
ĠÚ© Ø§Ø¦
ĠÙĨ Ø§ÙģØ±
ĠØ§ÙĨ Ø·Ø¨
ĠØ§Øª ÙĪ
ĠÙħÚ© Ø§ÙĦ
ĠÙĨÙĪØ± ÙĪØ²ÛĮ
ĠØ¯Ø§Ùħ ØºØ§ÙĨ
ĠØ¶Ø± Ø±
ĠØ³ÙĪØ³ÛĮØ§ÙĦÛĮ Ø³Ùħ
qu e
ĠÙħÙĪØ³ÛĮÙĤ ÛĮØ¯Ø§ÙĨ
________ ________
y r
ĠØ·Ø±Ùģ Ùĩ
ing s
ĠØª Ø²Ø§Ø±
ĠØ¨Ø± ØªÙĪÙĨ
Û¸ Û°Û°
ĠØªØ¨ Ø¹ÛĮØª
ĠØŃØ³ Ú¯Ø±
is m
ĠØ§Ø±Ø¯ Ú©
ĠÙĪØ± ÙĨ
ĠÙĩØ§ ÙĪÚ©
ĠÙħÙģ Ø³Ø±
ĠØªØ³ÙĦÛĮ ØŃØ§Øª
ĠØ´ Ø¨ÛĮ
ĠÙħÙĪ Ùģ
ĠÙĩØ± Ø§Ø³
ĠÙģÙĪØª ÙĪÙĨ
ĠÙĨÙĩ ÙģØªÙĩ
ÙĦØ² Ùħ
ĠØ§ÙĨÙģ Ø¬Ø§Ø±ÛĮ
ĠØªØ´ÙĨ Ø¬
ĠÙħÛĮ Ø¯ÙĩØ¯
ĠØ¨Ø± Ø§Ø²
ĠÙĦ Ø§ÙĨØ¯
ĠÂ »
ĠÙħØ³Øª Ø¹Ø¯
ĠØ³ÙĪ ÚĺÙĩ
ĠÙ¾Ø§Ù¾ ÛĮ
ĠÙĪØ§ÛĮ ÙĪÙħÛĮÙĨÚ¯
ĠØ¯ÛĮÚ©Øª Ø§ØªÙĪØ±ÛĮ
ĠÙĩØ¬Ø± Øª
ĠØ¬ÙĨ Øª
ĠØ¨Ø¯ ØªØ±
Ú¯ÛĮØ± Ø§ÙĨÙĩ
ĠØ¯Ø±Ø®Øª ÚĨÙĩ
ĠÚ©Ø´Øª Ú¯Ø§ÙĨ
ĠØ³ÛĮÙĦÛĮÚ© ÙĪÙĨ
ĠØ¨ Ø·ÙĨ
ĠÙģØ± Ø¬
ĠØ²ÛĮØ± Ú¯ÙĪÙĨÙĩ
ĠÛ±Û² Û¶
ĠÙħØ¨ ØŃ
ĠÙĩÙĨØ±ÙħÙĨØ¯ Ø§ÙĨÛĮ
ĠØ¨Ø¯ÛĮ ÙĩÛĮ
ĠØ§Ø¹Øª Ø¯Ø§ÙĦ
Ø¯ Úĺ
ĠØ¨Ø§Ø² ÙĨÚ¯Ø±ÛĮ
ĠÚ¯Ø± Ø§ÙĩØ§Ùħ
ĠØ§Ø¯ ÙĪ
ÙĩÙĨÚ¯ Ø§Ùħ
Ø¯Ø§Ø¯ ÙĨ
ĠÛ²Ûµ Û¶
ĠØ¨ÙĨÛĮØ§ÙĨ Ú¯Ø°Ø§Ø±Ø§ÙĨ
ĠØ§ÙħØªÛĮ Ø§Ø²ÛĮ
ĠØ¯Ø± Ø§ÛĮ
ĠØ² ÙĪØ§ÙĦ
ĠÙħØ³ ÙĨ
Ø§ÛĮØ¯ ÙĪ
ĠØ§ÛĮÙĨØªØ± ÙĨ
ĠØ³ÛĮÙĨÙħØ§ ÙĩØ§ÛĮ
ĠÙĩØ±Ú© ÙĪÙĦ
ĠØ§ÛĮÙĨ Ø§ÙĨ
ĠÚ¯ Ø±ÛĮØª
ØªØ± ØªÛĮØ¨
ĠÛ² Û±Û´
in c
ĠØ³Ùģ ÛĮÙĨÙĩ
ĠÙħÙĨØª Ø³Ø¨
ĠÙĨÙĪÛĮ Ø³ÛĮ
ĠÙĨÙħØ§ÛĮØ§ÙĨ Ú¯Ø±
olog y
ĠÙĩØ±Ø¨ Ø±Øª
I M
Øª Ú©ÙĨ
ĠÙĨ ÙĪÛĮØ²
ĠÙ¾ Ø§ÛĮØ´
ĠÚĨ Ø§Ø¨ÙĩØ§Ø±
ĠÙħØ³ Ø§ØŃØªÛĮ
ĠÙĩÙĪ Ú¯ÙĪ
la m
ĠÛ²Û¶ Û°
ĠØ³Ø§ÛĮ Ù¾Ø§
ĠØ¨ÙĦÙĪ ÚĨÛĮ
ĠÚ©ÛĮÙĩ Ø§ÙĨÛĮ
ĠØ§ÛĮ Ø´
ĠØ® ÙĨØ¯Ùĩ
Ø§Ø³ ÙĪÙĨ
ÙĪØ´ Ø§ÙĨ
ĠØ¨ÛĮ Ø§ÙĨÛĮ
ĠØ±ÙĪÛĮ Ø´
ĠØ²ÙħØ§ÙĨ Ùĩ
ĠÙħØ§Ø¯ Ø±Ø¨Ø²Ø±Ú¯
ĠØ§ÙģØªØª Ø§ØŃÛĮÙĩ
ĠÙħØŃØ±ÙĪÙħ ÛĮØª
Ùħ Ø§Ø¯Ø±
ĠØ¨Ùĩ Ø§ÛĮÛĮ
ĠÙģ ÙĦÙģÙĦ
ĠÚ¯ Ø§Ø¯
ĠÛĮÚ© Ø³Ø§ÙĦ
Ø§Ø´ Ø§ÙĨ
Ø²ÛĮ ÛĮ
Ø¯Ø± ÙħØ§ÙĨÛĮ
ĠØº ÙĨØ§
ĠÙģÛĮÙĦ Ø§Ø¯ÙĦÙģÛĮØ§
ĠØ¨Ø§Ø· ÙĦ
ĠJul y
ĠØ³ Ø§Ú©Ø³
ĠÙĤØ± Ø¢ÙĨÛĮ
ĠÙħØŃÙħØ¯ Ø¢Ø¨Ø§Ø¯
ĠØ±Ø§Ø³Øª ÛĮ
ĠØ¨ÙĪØ± ÙĨ
ĠÙĨÛĮÚ© ÙĦØ§Ø³
ĠÙģÙĪÙĦ Ú©ÙĦ
ĠÙĤØ±Ø¨ Ø§ÙĨ
ĠÙħØªØ®ØµØµ ÛĮÙĨ
Ø·Ø±Ùģ Ø¯Ø§Ø±
ew s
ĠÙĪÚ© Ø§ÙĦØª
ĠØ¬ÙģØ± Ø³ÙĪÙĨ
j p
Ø± Ø²ÛĮ
Ġ( ØĮ
Ø§Ø³Øª ÙĪÙĨ
ĠÙĦ Ø§ÛĮØª
ĠØ§Ùħ ØªÙĨ
ĠØ®ÙĪ Ø§ÙĩÛĮ
ĠØ¨Ø§Ø± Ø¨Ø§Ø±Ø§
ĠÙħØ³Øª ÙĦØ²Ùħ
ĠÙĨÙĩ Ø§ÙĨ
en e
ĠÙĪÛĮØ± ÙĪØ³ÛĮ
Ġa ir
ĠØ¨ÙĪØ¦ ÛĮÙĨ
ĠØ±Ø¤ Ø³Ø§ÛĮ
ĠÙĨØ² Ø§Ø¹
Ø§Ø± Ú¯Ø§Ø¯
Ø¬ Ø§Ø³Øª
ĠØ¨Ø±Ø§ÛĮ ÙĨ
Ø¢ Ø¯
ĠÙ¾Ø³ ÛĮÙĨ
ĠØ¬ÙĨÚ¯ Ø¬ÙĪÛĮØ§ÙĨ
ĠC omp
ĠØªÚ©ÙĨ ÛĮÚ©ÛĮ
ĠØ²ÙĨØ¯ Ú¯Ø§ÙĨÛĮ
ĠØ±ÙĪÙĨ Ø§ÙĦØ¯
ĠØ¢Ø±Ùħ Ø³ØªØ±Ø§ÙĨÚ¯
yst em
Ø³ Ø³
ØŃ Ø¯ÛĮ
ĠØ´Ùħ ÛĮØ±Ø§ÙĨ
ĠÙĨÛĮØ± ÙĪÛĮÛĮ
ĠÙĤÙĦ Ø¹
ĠØºÛĮØ± Ø·Ø¨ÛĮØ¹ÛĮ
ĠÛ±Û· Ûµ
ĠÛ±Û¹ Û°
ĠØ¢ÛĮ ÙĨØ¯
ĠØ¯Ø§Ø±ÛĮ Ø¯
l ight
u al
ĠÚ© ÛĮØ¯
ĠØ¨ÙĪØ¯ Ø§Ù¾Ø³Øª
ĠÙĦ Ø§ÙĦ
Ø´ÛĮ ÙĨØ¯
ĠØªÙĩ ÙĪØ¹
ĠØ³ÙĦ Ø§Ø·ÛĮÙĨ
ĠØ®Ø± ÚĨÙĨÚ¯
ĠÙ¾Ø§Ø±Ú© Ø±
ĠØ³Ø±ÛĮØ¹ ØªØ±
ĠÙģØ±Ø§Ùħ ÙĪØ´ÛĮ
Ø§ÙħÛĮØ¯ ÙĨÛĮ
ĠØ¬ Ø±Ø§ÛĮ
ĠØ² Ø§
ĠÙĦ Ú¯
ĠÙĨØ§Ùħ Ø¹ÙĦÙĪÙħ
ĠÙħØ´ Ú©ÛĮ
ĠÙħØ¯Ø§ÙģØ¹ Ø§ÙĨ
ĠÙĨÚĺ Ø§Ø¯ÙĩØ§ÛĮ
ĠØ³ ÛĮØ¯ÛĮ
ĠØª ÛĮÚ©
ĠØª Ø§Ø³ÛĮØ³
ĠØ¨Ùĩ Ø§ÛĮ
ĠÚ¯ ÙĦÛĮÙħ
ĠØ¢ÙĨ ÚĨÙĨØ§ÙĨ
ĠØªÙĪ ÙģÛĮÙĤ
ĠØ¢Ùħ ÛĮØ²ÛĮ
ĠÙħØ³ ÙĦØ³ÙĦ
ĠØ¨ÛĮØ´ Ùĩ
ĠØªÛĮÙħ ÙĪØ±ÛĮØ§ÙĨ
er e
Ø§ÙĨØª ÙģØ§Ø¹ÛĮ
ing ton
ĠØ´Ø§ÛĮ Ø¹Ùĩ
Ġ Ô
ĠÙĪ Ø¨Ø±
ĠØ´ Ø§ÛĮØ§ÙĨ
ĠÙħØª Ø¯
ĠB ar
ĠÚ¯ÙĨ Ø¬Ùĩ
ĠØ±ØŃ ÛĮÙħÛĮ
ĠØ¨ÛĮÚ© Ø±
ĠØ·Ø§ÙĦ ÙĤØ§ÙĨ
ĠØºØ²ÙĨ ÙĪÛĮ
ĠÙĪ Ø¨Ø§
ĠÙĩ ÛĮØ²
ĠÙ¾Ø± Ø³ÛĮØ¯
ĠÛ±Û² Û´
ĠÚ©ÛĮ ÙĪØªÙĪ
ĠØ¨Ø±Ø¯ Ú¯Ø§ÙĨ
ĠØŃÛĮ Ø·Ùĩ
ĠÙģØ±Ø¯ÛĮÙĨ Ø§ÙĨØ¯
ĠÙħØ¹Ø¬ Ø²Ùĩ
ĠØ§ÙĨØ¹ÙĤ Ø§Ø¯
Ø§Ø¹ Ùĩ
ĠÙħÙĤ ÙĪÙĦÙĩ
ĠÙħØ§Ùĩ ÙĪØ±
) (
ÙĪ ÙĪÛĮØªØ³Ùĩ
Ùħ Ø¨Ø±Ú¯
ĠØ¨ Ø²ÙĨ
ĠØ± ÙĨØ¯ÛĮ
ĠÛ² Û±Ûµ
ĠØ· Ø±ÛĮ
ĠÙĦ Ø·ÙģÛĮ
et h
ĠØ¹Ø² ÛĮÙħØª
ĠÛ±Û³Û±Û ¶
Û²Û°Û±Û ±
ĠÙĨÛĮÙĪØ² ÙĦÙĨØ¯
ĠÙĩØ§ÛĮÙĨ Ø±ÛĮØ´
ØºØ¯ ØºÙĩ
4 9
ĠÚ© ÙĪÙĦÛĮÙĨ
ĠØª Ø¨Øª
ĠÙĨÛĮÙħ Ø§
ĠÚ©Ø´Øª ÙĨØ¯
Ú¯ÛĮÙĨ Ø§ÙħÙĩ
ĠØªØ±Ø§ÙĨ Ø³Ùģ
ÙĨÙħÙĪØ¯ ÙĨØ¯
Ã³ w
ĠØºÛĮØ±Ø¹ Ø§Ø¯ÛĮ
ĠØ¬Ùħ Ø§Ø¯ÛĮ
ĠØ¯ÙĪ Ø²ÛĮ
ÙĪØ¯Ùĩ Ø§
ĠÙĨØ® Ø¨Ú¯Ø§ÙĨ
ÙĪÙģ ÛĮÙĦ
ĠÚĺÙĪØ±ÙĨ Ø§ÙĦ
A L
ĠØ§ÛĮ ÙĪØ¨ÛĮ
ÚĨ Ø±Ø²
ĠÙĩÙħ Ø§
Ú¯Ø§ÙĨ Ú¯
ĠÙĨØ´ ÛĮÙĨÛĮ
ĠØ¨ÙĦ Ø´ÙĪ
ĠØ³Ùĩ Ø§ÙħÛĮ
ĠØªØ¨ Ø¹
ĠØªØ¨ ÙĦÙĪØ±
Ø¨Ø±ÛĮ Øª
ĠÚ©ÛĮÙģ Ø±ÛĮ
Ø®ÙĪØ§ÙĨØ¯ ÙĨØ¯
ĠÙģÙĪ Ø¬ÛĮ
ĠÙħØŃØªÙĪÛĮ Ø§Øª
ĠØ¯ Ø§ÙĪÙĨ
Ù¾ ÙĪØ³
ĠØ§ÛĮ Ø°Ùĩ
ĠÙģ Ø¦ÙĪØ¯
ĠØ® Ø§ÚĨ
Ø¯ÙĨ ÛĮØ§
Ø®ÛĮ Ø§Ø¨Ø§ÙĨ
ĠØªØ³ ÙħÛĮÙĩ
ÙĨØ¸ Ø±ÛĮÙĩ
ĠCH NO
ĠÚ¯ÙĪØ§Ø± Ø´
ĠØŃØ§Øª ÙħÛĮ
ĠØ§Ù¾ÛĮØ² ÙĪØ¯
3 9
Ø§ÙĦ Ø¯ÙĪ
Ù¾ Ø²ÛĮ
ĠØ§Ø³Øª ÙĨØª
ÙĪÙĦ ÛĮÚ©ÛĮ
ÙħÙĨ Ùĩ
ĠØªÙĦ ÙģÛĮÙĤÛĮ
ĠÛ±Û° Û³
ĠØºÛĮØ± Ø§ÙĨØªÙģØ§Ø¹ÛĮ
ĠØ´ÛĮØ± Ø§Ú©
ĠÙĩÙĨÚ¯Ø§Ùħ ÛĮÚ©Ùĩ
ĠØµØ¯Ø§ ÙĩØ§ÛĮ
ĠØ´Ø¬ Ø±ÛĮØ§ÙĨ
ĠØ§ÙħØªÙĨ Ø§Ø¹
Ùħ Ø§Ø²
ĠØ± ÙĤÛĮ
Ø« Ø§ÙĦ
ĠÙĦÛĮ ØªÙĦ
ĠÙħØ§Ùĩ Ø§ÙĨÙĩ
es e
Û±Û¸Û ±Û
Ùħ ÙĪØ²Ùĩ
Ùģ ÛĮØ²ÛĮÚ©
Ø§ÙĦ Ø±
ĠØ¹ Ø°Ø±
Ø¹Ø¯ Ø¯
Ø¢Ø¨ Ø´Ø§Ø±
ĠØµØ¯ Ø¯
ĠÙħÙĩÙĨØ¯ Ø³ÛĮÙĨ
ĠÛ²Û· Û°
ĠØªÙĨØ¸ÛĮÙħ Ø§Øª
ĠÙĪØ§Ø± ÙĨ
b y
i j
Ø± ÙĪØ¯ÛĮ
ĠØ¨ Ø§ÛĮÙĨ
ĠØ§ ÙĪØ§ÙĨ
Ø§Øª ÙĪØ§Ø±
ĠÙĤ Ø´Ùħ
ÛĮØ± ÙĪØ³
ĠÛ² Û±Û¶
ĠØ¯Ø±ÛĮ Ø§ÙĩØ§
ĠØ§ÙħÙ¾ Ø±ÛĮ
ĠØ§ÙĦÛĮ Ú¯ÙĪØ¯Ø±Ø²
ĠÛ±Û³Û±Û ´
ĠØ¯ÙĪØ§Ø²Ø¯Ùĩ ÙħÛĮÙĨ
C D
Ġ Ùª
Ø¹ Ø¯ÛĮ
ĠØ¢ Ú©ÙĪ
ĠØ¨Ø± ÙĪÙħ
ĠØªÙĪ ÙĩÙħ
Ø§Ú© ÙĪØ±Ø§
ĠÙĨÙħ Ø§ÛĮÙĩ
ĠÚ¯Ø±ÙĪ Ø³
ĠÙħØªØ± Ø¬
ĠØºØ´ Ø§ÛĮ
ĠØª ØªØ±
ĠØ¨Ø± Ø´ÛĮ
ĠØ® Ø³Ø±
ĠØªØ± Ø§Ùħ
ĠØ¨ÙĨ Ø¬Ø§ÙħÛĮÙĨ
ÙĪØ¦ ÛĮÙĨ
ĠØ§ØŃ Ø±Ø§Ø²
ĠÙħØ§ÙĨ Ú©ÙĨ
ĠØ§ÙħØ§Ùħ Ø§ÙĨ
ĠØ¢Ø´ ÙģØªÚ¯ÛĮ
ht m
ĠÛ±Û¸Û¹Û ²
ĠØ±ÙĪÛĮØ¯ Ø§Ø¯ÙĩØ§
Ù¾ Ø§Ø´
ÚĨ Ø§Ù¾
ÛĮØ§ Ú©
ĠÛ±Û² Û²
ÙĨÙħ Ø§ÛĮØ´
ĠØ¢Ø´ Ø§ÙħÛĮØ¯ÙĨÛĮ
am a
ĠØ¹ÙħÛĮ ÙĤÛĮ
ĠØ¯ÙĪØ´ ÛĮØ²Ùĩ
ĠØ³ ÙħÙĨØ¯
ĠÙĨ ÙĪÙħ
Ø§ÛĮØ± Ø§ÙĨÛĮ
ĠØ¯Ø§ÙĨØ³Øª ÙĨØ¯
ĠØ´ Ú¯
ĠÙĨ ÙĦØ³ÙĪÙĨ
Ø±Ø¯ Ø§ÙĨ
ĠÙħÙĤ Ø§ÙħÛĮ
ĠØŃÚ© Ø§Ùħ
ĠØ§Ø³Ù¾ Ø±Ùħ
ĠØ±ÙĪØ¯ Ø³Ø±
ĠÙĨØ²Ø¯ÛĮÚ© Ø§ÙĨ
ĠØ¯Ø§Ùħ Ù¾Ø±ÙĪØ±ÛĮ
ĠØ¬ÙħØ¹ Ø§
ĠÙĨØ§Ø± ÙĨØ¬
Ù¾Ø°ÛĮØ± ÙĨØ¯
ĠØ³ÙĪØ¡ Ø§Ø³ØªÙģØ§Ø¯Ùĩ
ĠØ¢Ø±Ø² ÙĪ
ĠØ±ÙģØ³ ÙĨØ¬Ø§ÙĨ
ĠÙħØ§Úĺ ÙĪÙĦ
ĠØ¢ÙģØ±ÛĮ Ø¯Ùĩ
u de
Ø§ÙĦ ÙĤ
ĠÙĩ ÙĪÙĩ
Ø® Ø¨Ø±
ĠØªÙĤ Ø§Ø¨ÙĦ
Ø§Ú©ÙĨ Ø´ÛĮ
ĠÙĪØ± Ø§ÙħÛĮÙĨ
Ø±ÙĪØ² ÙĨØ§ÙħÙĩ
ĠÙĦÙĪØ¦ ÛĮØ²
ĠØ³ÙĪÙĦÙģ Ø§Øª
ĠØ¨ Ø®ÙĪØ§ÙĨØ¯
ĠØª Ø§ÛĮØ±
ĠÚĺ ÙĪÙĦ
Û¶ Û°Û°
ĠØ¨Ø¯ ÙĨØ´
ĠØ« Ø§ÙĦØ«
Ø§Ø¸ Ùħ
ĠØµØ¯ ÙĤ
ĠÙģÛĮ Ø§Øª
ĠØ§ÛĮØ³Øª Ø§Ø¯
ĠÙĤØ·Ø¹ Ø§ØªÛĮ
ĠÚ©Ø§Ø±Ú¯Ø±Ø¯Ø§ÙĨ Ø§ÙĨ
ÛĮ ÛĮ
Ø´ ÙĪÛĮ
ĠÙĨ Ø¨Ø§Ø´ÙĨØ¯
ĠÙĩ Ø¯Ø±
ØŃ Ø±
ĠØ¨Ø§Ø´ ÛĮ
ĠØ´ÛĮ Ø·Ø§ÙĨÛĮ
ĠC P
ĠÙħØ§Ø¯ Ø±Ø§ÙĨ
ĠØªØŃØµÛĮÙĦØ§Øª Ø´
ĠØ±ÙĪÙĦ ÛĮÙĨÚ¯
ĠÙĩÙĦÛĮÚ© ÙĪÙ¾ØªØ±
l er
ĠÙĨ ÙħØ§ÙĨØ¯
Ø¯Ùĩ Ùĩ
ĠØ¢ Ø±ÛĮØ§ÙĨ
ĠØ¯Ø³Øª Ø®ÙĪØ´
ĠÙĨØ´ Ø¯ÙĨ
ĠN e
ĠÙĪØ§Ø´ ÙĨÚ¯
ĠÙħØ±Øº ÙĪØ¨
ĠÛ±Û¸Û¸Û ¹
o is
Ùħ Ø§Ú©
ĠØ¨Ø± ÙģÛĮ
ĠÚ¯ Ø§ÙĨÙĩ
ĠØ¨Ø§Ø² ÙĨÙĪÛĮØ³ÛĮ
Ø²Ø¯ ÙĨØ¯
Ø¬ÛĮ Ø¨ÛĮ
ĠØ·Ø±ÛĮÙĤ Øª
ĠØ³ÙĪØ¦ ÛĮØ³ÛĮ
ĠÙĨÛĮØ§ Ú©Ø§ÙĨ
ĠØ¯ÙĪØª Ø§ÛĮÛĮ
ĠØŃ Ø±ÛĮ
Úĺ ÛĮØª
ĠÚ¯ÙĦ Ø¨ÙĪÙĦ
ĠØªØ¸ Ø§ÙĩØ±
ĠØ´ÛĮÙħ ÛĮØ¯Ø§ÙĨ
ĠØ¬ÙĨØ¬ Ø§ÙĦÛĮ
ĠÙħØ¹ÙĨ Ø§Ø³Øª
d r
ĠØ¨Ø± ÛĮØ²
Ø§Ø³ ÙģÙĩ
ĠØ¯ÛĮ ØªØ±
ĠØ§ÛĮØ² Ø¯ÛĮ
ĠÙĨØµØ± Ø§ÙĦÙĦÙĩ
Ġ ex
ĠØ´ ÙĪÙĦ
ĠÙĨ ÛĮÙĨØª
ĠÙĩ ÛĮÚ©
ĠÙ¾Ø± ÙĦ
Ø§Ø²ÛĮ Ø§ÙĨ
ĠÙĩÛĮ Ø³Øª
ĠØ¬ÙĨÙĪØ¨ Ú¯Ø§ÙĨ
ĠÙħØŃØ¯ Ø«
ĠØ³ÛĮØ§Ø³Øª ÙħØ¯Ø§Ø±Ø§ÙĨ
ĠÙģØ±Ø§ÛĮ ÙĨØ¯ÙĩØ§
ØªÛĮÚ© Øª
ĠÙĨØ®ÙĪ Ø§ÙĩÙĨØ¯
ĠÙĨØ§ÚĨ ÛĮØ²
ĠÙħØ±Ø§Øª Ø¹
ĠÙĩÙħØ³Ø§ÛĮ Ú¯Ø§ÙĨ
ĠØª Ø§ÙĤ
Ø¹ ÛĮÙĨ
ÙĪØ± ÙĪØ¯
ĠØ§Ø³ Ú©ÙĪ
or f
ĠC om
ĠÙĪÙĦ Ø§ÛĮØ§Øª
ĠÛ±Û±Û ¸Û
ĠØ®ÙĦÙģ Ø§ÛĮ
Ú©Ø±Ø¨ ÙĨ
ĠØ´ ÙĤ
ĠØ§ÙĪ Øº
ÙĪØ² Ø¯
ĠÛ±Û² Û·
ĠØ¯Ùħ Ø§ØºÙĩ
Ġ3 0
ĠØŃÛĮØ¯ Ø±ÛĮÙĩ
5 5
Ñ Ĥ
Ġ ÃĹ
ĠØ¨ Ø²ÙĨÙĨØ¯
Ú¯ Ùħ
ĠÙħØŃ Øµ
Ø§Ú¯ Ø±ÛĮ
Ø¬ÛĮ ÙĪ
ĠÛ±Û° Û¸
Ø®ÙĪ Ø§Ø±ÛĮ
ØµØ± Ø§Ùģ
ĠÙĪØ¶Ø¹ÛĮØª ÛĮ
ĠÛ±Û¸Û¹Û ´
ĠÚ©Ø³Ø± ÙĪÛĮ
ĠØ³Ø±Ø§ ÙĪØ§ÙĨ
a ur
ĠÙħÛĮ ØªÙĪ
ĠØ² ÙĩØ±Ùĩ
ĠØ§Ø´ Ø±Ø§ÙģÛĮ
ĠØºÛĮØ± ÙħØ¹
ĠÙĪØ² ÙĨÛĮ
ĠÙĪÛĮØ± Ø§ÙĨÙĩ
ĠÙħÙĪÙĦ Ø±
ĠØ¯Ø±Ø¢ÙħØ¯ ÙĨØ¯
ĠØ³ÛĮÙĦ ÙĪØ±
ĠÛ±Û¸Û· Û°
ĠÛĮÙĪÙĨÛĮ ÙĪØ±
Ø§ÛĮ ÙĨØ¯Ùĩ
ĠÙĪ Ø§Ú¯ÙĨ
ĠÙĨ ÛĮØ¯
ĠØ¢Ùħ ÙĦÛĮ
ĠÙħØª ÛĮÙĦ
Ø§Øº Øª
ĠÙĨÛĮØ´ Ø§Ø¨ÙĪØ±ÛĮ
ĠØ³Ø§Ø¹ ØªÙĩ
ĠØ¢Ø´Ú© Ø§Ø±Ø§
B M
ĠÚĨ Ø§Ø±Ùĩ
ĠÙħØ¬ Ø±Ø¯
ÙĪØ¨ ÙĪ
ĠØ¨Ø±Ø¯ Ø§Ø±Ø¯
Ø¢Ø± Ø§Ùħ
ĠÙħÛĮÙĨ ÙĪØ±
ĠÛĮÛĮÙĦ Ø§ÙĤ
y m
ĠØ³ Ø§Ø¦ÙĪ
ĠÙĨ Ø´Øª
ĠÙħØŃ Ø¨Øª
Ú©ÙĨ ØªØ±
ĠØ§Øµ ØŃØ§Ø¨
ĠØªØ¹ Ø§ÙĦÛĮÙħ
ĠØªØ¬ Ø³Ùħ
Û±Û³Û ³Û
ĠØ¢Ø´ ÙģØªÙĩ
ĠØ¨Ø³ Ø§ÙħØ¯
ĠÙĨØ§ Ø§Ùħ
ĠØ¹Ø¸ ÙħØª
ĠÙħÛĮ Ø³
ĠØ§Ø³Øª Ø±ÛĮØª
Ø±ÙĪ Ø¹
Ø§Ø® ÛĮØ²
ĠÚ©Ø§Ø¨ ÙĦÛĮ
ĠØµØ¯Ø± Ø§Ø¹Ø¸Ùħ
ĠØµØ¯Ø§Ù¾ ÛĮØ´Ùĩ
ÙĨ ÛĮØ´
ĠØ¨ ÙĪÛĮÙĩ
ĠØ± ÙĨÙĩ
Ø±ÛĮ Ø¹
ĠÙĤ Ø§Ø¹Ø¯
ĠØ² Ø§Ø¨
ĠÙĨÛĮ ÙĪÚ©
ĠÙĨÙĪØ´ ÛĮØ¯ÙĨ
ÙĨØª ÛĮÙĨÙĪ
ĠÙħØ§Ø± Ù¾ÛĮÚĨ
ĠÙĨÙħØ§ÛĮØ´ Ú¯Ø±
ĠÚ©Ø§Ùħ Ø±Ø§ÙĨ
ĠØ®Ø¯ Ø§ÛĮÛĮ
Ø´ÙĪ ÙĤÙĩ
ĠØ¨ ÙģØª
ÙĨÛĮ ÙĪ
ĠØ´Ùħ Ø¹
ÙĨ Ø§Ú©ÛĮ
ĠØ¬ ÛĮÙĨÛĮ
ĠÚ©Ø´ ÛĮØ¯ÙĨØ¯
an c
ĠØ¬Ø¯ÛĮØ¯ ØªØ±ÛĮÙĨ
ĠØ¯Ùħ Ø§ÛĮÛĮ
Ù¾ÙĪØ´ Ø§ÙĨØ¯
ĠÚ© Ø¨
ĠØ±ÙĪØ² Ø§ÙģØ²ÙĪÙĨ
ĠØ§ÙĦÚ©ØªØ± ÙĪØ¯
Û±Û¸Û ¸Û
ĠØªÙĪÛĮÛĮ ØªØ±
Ð »
Ø¶ Ø§ØŃ
ÙģØ± ÙħØ§ÙĨ
ĠÙĨÙģØ± ÛĮÙĨ
ĠØ®ÙĪØ§ÙĨ Ø³Ø§Ø±ÛĮ
ĠÛ±Û¸Û¹Û ³
ĠØ¯Ø§ÙĦ Ø§Ø³
ĠÚĨØ´ ÙħÛĮ
ĠØ¯ ØºØ¯ØºÙĩ
Ø³ Ø§Ø¨ÙĤÙĩ
Ø§Ø± ÛĮÚ©
Ùģ ÛĮÚ©
ÛĮÙĨ Ø³ÙĪÙĨ
ÙĪØ³ Ø§Ø²
le t
ĠØ³Ø§Ùħ Ø§ÙĨÛĮ
ĠÚ¯ÙĨ Ø¨Ø¯ÛĮ
ĠØ§Ø¨Ø²Ø§Ø± ÙĩØ§
ĠÛ±Û¸Û¶ Û°
Ø§ÙĦØ§ ÙĪÙĦ
ĠØ§Ø° Ø¹Ø§ÙĨ
ĠÙħØª Ø§ÙĨ
ĠØ¨Ø§Ø²ÛĮ ÙĩØ§ÛĮ
ĠØ§Ø· ÙģØ§ÙĦ
ĠØ§Ø· Ø±Ø§ÙģÛĮ
ĠØ§ÙĪØ± ÚĺØ§ÙĨØ³
ÙħØ¬ Ø§Ø²
ĠØ±Ø² ÛĮÙĨ
ĠÙħØ¹ØªØ¨Ø± ØªØ±ÛĮÙĨ
6 4
ÛĮ Ø§Ø³ÙĪ
Ùħ Ùħ
ĠÙĪ Ø§Ø¹Ø¸
ØŃ ÙĪÙĨ
ĠÚ©ÙĦ Ø§Øº
ÙĪØ¦ ÙĪØ±
ĠÙĨØ® Ø¬ÙĪØ§ÙĨ
ĠØ³Ú© ÙĪÙĦØ§Ø±
ĠØ´Ø§ÛĮ Ø³ØªÚ¯ÛĮ
ĠØ³ÙĪØ§Ø± Ø§ÙĨ
ĠÛ±Û¸Û¸Û ¸
ĠØ¢Ø±ÙĨ ÙĪÙĦØ¯
Ø¨ ÙĪÛĮ
ÙĤ Ø±Ùĩ
Ø§Ø¨ Ø¹ÛĮ
ĠÙħÙĨ Ø³
ĠØªÙĪ ØŃÛĮØ¯
ÙĪÚ¯ Ø§
Ġb y
ĠØ³ÙħÙģ ÙĪÙĨÛĮÚ©
ĠØ¯Ø§Ø±Ø§ÙĦ ÙģÙĨÙĪÙĨ
ĠÚ© Ø³Øª
ĠØª ÙĤÙĦØ¨
ĠÙ¾ Ø§ÙĩØ§
ĠÙ¾Ø± Ø·Ø±ÙģØ¯Ø§Ø±
Ú¯ÛĮØ± Ø§ÙĨ
ĠØ³Ùħ Ø¨ÙĦ
ĠÙ¾Ø±Ø³Øª Ø§Ø±
ĠØ¬ÙĪØ´ Ú©Ø§Ø±ÛĮ
ĠÙĦÛĮØ² Ø±ÛĮ
3 4
s tr
ÙĪ ÙĪÛĮÚĨ
ĠØ¬ ÙģØ±ÛĮ
ĠØ² ÙĪØ±ÛĮ
ĠØ¨Ø§Ø² Ú¯Ø±Ø¯Ø§ÙĨ
ĠÙ¾Ø± ÚĨ
Ġ) ØĮ
ĠØ±Ø³ ÙĦ
in ce
ĠÙħØªØ¹ Ø§Ø±Ùģ
ĠÛ±Û³Û² Û³
ĠØ¹Ùģ ÙĪÙĨÛĮ
ĠÙħØ·ÙĦÙĪØ¨ ÛĮØª
ĠØ¢ Ø³Ùħ
ĠÚ©Ø§ÙĨ ØªÙĪÙĨ
ĠØªØ£Ø«ÛĮØ± Ú¯Ø°Ø§Ø±ÛĮ
Ø§ÙģØª Ø§Ø¯Ùĩ
Ġf rom
ĠÙĨØªÙĪØ§ÙĨØ³Øª ÙĨØ¯
ĠØ§Ø³ØªÙĨ ÙģÙĪØ±Ø¯
Ø§Ø± ÛĮÚ©Ø§
ĠÚ© Ø§Ø´ØªÙĩ
ĠÙģØ± Ø´ØªÚ¯Ø§ÙĨ
ĠØ§ÙĦ Ø£
ĠÛ±Û¸Û ¸Ûµ
ÚĨØ± Ø®
ĠØ¯ÙħÚ©Ø±Ø§Øª ÛĮÚ©
Ġ ÛĮØ´Øª
ĠØ¨ Ø§ØªÛĮ
ĠÚ© ÙĪÙĨÚ¯
ĠÙģ ÙĪÙħÙĨ
ÛĮÙħ Ø§ÙĨ
Ø¢ ÙĦÙĪ
ĠØ¨ÙĦ ÚĺÛĮÚ©ÛĮ
ĠÙĨØ® ÙĪØ¯
ÙĤØ± ÙĨ
ĠØ§ÛĮÙĦ Ø§ÙħÛĮ
ĠÙ¾Ø§ÙĨ Ø§ÙħØ§
ov er
ĠÙĩÛĮØ¯Ø±ÙĪ Ú©
ĠØ§ÙĦØ¬Ø² ÛĮØ±Ùĩ
ĠÙĨÚ©Ø±Ø¯ ÙĨ
ire ct
ĠØ ¥
Ø±Ø¯ Ø§Ø±ÛĮ
ĠÚ©Ø§Ø± ÙĩØ§ÛĮØ´
ĠÙĩÙĪ Ø§Ø¯Ø§Ø±
ĠØ¨Ø±Ø® Ø§Ø³ØªÙĩ
ĠØŃØ³ Ø§Ùħ
ÙĢ ÙĢ
ĠÙħØ¸ÙģØ± Ø§ÙĦØ¯ÛĮÙĨ
ĠÙħÙħØ§ÙĨ Ø¹Øª
ĠÙĦ Ø¦
ĠÙĦ ÙĪØ±ÙĨ
ĠÙħØ± ÙħÙĪØ²
Ġ1 7
ĠÙħØ¨Øª ÙĦ
ÙĦ Ø¦
Ú© ÛĮØ§
ĠÚ© ÛĮÙĨÙĩ
ÙģØ± Ø´
ĠI nd
ĠØ¹ÛĮÙĨ Ú©
ĠØ³Ø§ÙĨØª ÛĮØ§Ú¯ÙĪ
ĠÙħØ¶ Ø±
ĠØ¢ÙĪÛĮØ² Ø§ÙĨ
Ø± Ø§Ø³ØªÙĩ
ĠØ´ Ú©ÛĮ
ĠØ¨Ø§ Ú©Ø³
ĠØ§ÙĨ ØµØ±Ø§Ùģ
ĠØªØ´ Ø¨ÛĮÙĩ
ĠØ®Ø§Øª Ùħ
w e
ÙĨ Ø³ÛĮØ§
ĠØ¨Ø§ Ø¯ÙĩØ§ÛĮ
Ø§ÙĤ ØªØµ
ĠÙĩÛĮ ÙĪØ³ØªÙĪÙĨ
Ø®ÙĪ Ø§ÙĩÙħ
al i
ĠØ³Ø§ÙĨ Ø³Ú©Ø±ÛĮØª
ĠØ¨Ø³Øª Ú©
ØªÛĮÙĨ ÙħÙĨØª
ĠØ¬ Ø²ÛĮÛĮ
ĠØ§Ø¯ ÙĪÛĮÙĩ
ĠÙħØªØ± Ø§Ø¯Ùģ
ĠØªØ¬ Ø³ÙħÛĮ
ĠØ§ØŃØªÙħ Ø§ÙĦØ§Øª
ĠÚ¯Ø² ÛĮØ¯
ĠØ¯Ø±Ø§Ø² Ø§ÛĮ
Ġw ith
ĠÙģØªÙĪ ØŃØ§Øª
Ġ as
ÙĨ ØªÛĮØ¬Ùĩ
Ø§Ø¯Ø± Ø§Ùĩ
ĠÙħØ±Ú¯ Ø¨Ø§Ø±
ĠØ§Ø³ØªØ§ÙĨØ¯ Ø§Ø±ÛĮ
ĠØºÛĮ Ø§Ø«
Ù¾ÛĮÙħ Ø§ÙĨ
ĠQ u
Ð º
Ùħ Ú©Ø§ÙĨ
ÛĮÙĨ Ø³Ú©ÛĮ
ĠØŃ ÙĦÛĮ
ĠØ±ÙĪ ØºÙĨÛĮ
ĠÚ©ÙĦ Ø³ØªØ±ÙĪÙĦ
Ø³Ú© ÙĪÙ¾ÛĮ
ÙĬ Øª
ĠØ§Ø±Ø¯ ÙĦØ§ÙĨ
ĠØ¨ÙĦÙĨØ¯ ØªØ±
ĠÚ©ÙĪØ´ ÛĮØ¯
Ø¢ÙĤ Ø§ÛĮ
ĠØ§Ø³Ù¾ÙĨ Ø³Ø±
f er
Ġ at
ÙĪÙĦ ÙĨØ¯
Øº Ø¯ÛĮ
ĠÙĨØ§Ùħ ÙĩØ§ÛĮ
ÙĪÚ© Ø§Ø³Øª
ĠØ±ÙĪØ² Ú¯Ø§Ø±ÛĮ
ĠÚ©Ø§ÙĨ ÙĪÙĨÛĮ
ĠØ²ÙĨ Ø§Ø´
et t
Ø§Ø±Ø´ Ø§
ĠØ³ÙĨØ¬ Ø§Ø¨
ĠØ±ÛĮÙħ ÙĪÙĨØ¯
| |
ÙĪØ± ÙĪÙĨ
ĠÙ¾ Ø§Ùħ
ĠØ¨Ø§Ø² Ø®ÙĪØ§ÙĨÛĮ
ÙĪÙĩ ÛĮØ¯
Ø§Ø· ÙĤ
ĠØ®Ø§ÙĨ ÙĤØ§Ùĩ
ĠÚ©ÙĦÛĮ ÙĪÛĮ
es h
ĠÚ©ÛĮ Ø®Ø³Ø±ÙĪ
ĠÙĩ Ø§ÛĮØª
ĠØ¨Ø± Ø¢ÙħØ¯Ùĩ
ĠØªÙĪ Ø¨
ĠØµ Ø§ÙĦØŃÛĮ
ÙģØ± Ø§Øº
ĠØ¨Ø§Ø² Ú¯Ø±Ø¯Ø§ÙĨØ¯ÙĨ
ĠØ³Ø±ÛĮ Ø§ÙĨÛĮ
ĠÙħÙĩØ§Ø¬ Ø±ÛĮÙĨ
ĠÚ¯ÛĮÙĦ Ø§Ø³
ĠÙ¾ÚĺÙĪÙĩØ´ Ú¯Ø§Ùĩ
ĠØ§Ø®ØªÛĮ Ø§Ø±ÛĮ
ad a
Û²Û°Û±Û °
ĠÙħÙĪØ§Ø² Ø§Øª
ĠÙħØ§Ø¨ ÙĤÛĮ
ĠØª Ø§ÙħÛĮ
Ø¢ Ø±Ø§
ÙĪØ´ Ú©ÙĨ
ĠÙħØ¯ ØŃ
ĠØ´Ùĩ Ø¯Ø§ÛĮ
ĠÛ±Û° Û¹
ĠØ±Ø¶ Ø§Ø®Ø§ÙĨ
ĠÙĤØ² ÙĦØ¨
ĠÙĤØ¶ Ø§Ø¦ÛĮÙĩ
ĠØ§ÙĦÙĤ Ø§Ø¹Ø¯Ùĩ
ĠØ®ÙĪØ§Ø± Ø²ÙħÛĮ
ĠÙħØ´Øª Ø§ÙĤ
ĠÚ¯Ø³Øª Ø±Ø¯Ú¯ÛĮ
Ø± Ø´
ĠØ´ ÙĪØª
ĠÚ©Ùĩ Ø±ÛĮØ²
ĠÙģ ÙĦÛĮ
ĠÙģ Ø³ÛĮÙĦ
ĠØ§Ø¬ ØªÙĩ
ĠØ¨Ø¹ ÙĦØ§ÙĪÙĩ
ĠØ¯ÙĦ ØªØ§
for m
ĠÛ±Û´ Ûµ
ĠÚ©Ø§Ùħ Ø¨ÙĪØ¬
ĠÙģØ±Ø§ Ú¯Ø±ÙģØª
ĠÚ©ÙĪÙħ Ø§Ø±
Ø¨ÙĨØ¯ Ø¯
ĠÙĦÙĪÚ© ÙĪÙħ
ĠØ´Ø§Ø±ÙĦ ÙĪØª
3 2
E D
Ġ or
Ú¯ Øª
ĠÙĨ Ø§Ùģ
ĠÙģ ÙĨØ¬Ø§ÙĨ
ĠØ³Ø± Ø®Ø±Ú¯
ĠØ¯Ø±ÛĮØ§ ÙģØªÛĮ
ĠÙħÙĦ Ø¨ÙĪØ±ÙĨ
ĠØªÚ© Ø§ÙĨÙĩ
ĠÚ¯ÛĮ Ú¯
ÙĬ ÙĦ
Û±Û³Û ±Û
Ø¨Ø§Ø² Ø§Ø±
ĠÙĨÛĮØ§ ÙĪØ±Ø¯
ĠØ¢ÙĪ Ø§Ø²Ùĩ
ĠØ¨ÙĪÛĮ ÚĺÙĩ
ĠÙħÙĪØ±Ø® ÛĮÙĨ
ĠÚ©ÙĪØ² ÙĪÙĪ
ĠØ§ÙĨØ¨Ø³ Ø§Ø·
S C
Å į
ĠØ¨ Ø³Ø§Ø²ÙĨØ¯
Ø³Øª Ø§ÙĦ
ÙĨÙĩ Ø§Ø¯
ĠÙĤØ§ÙĨ Ø¹
ĠØ®Ø±Ø¯ Ø³Ø§ÙĦ
ĠØ±Ø§Ø¬ Ø±Ø²
ĠÙħØ´ØªÙĤ Ø§Øª
ĠØ¹ÛĮ Ø¨
ĠÙħØ¬ØªÙĩ Ø¯
ĠÚĨ Ø§ÙĦÙĩ
ĠØ§ØŃ ÛĮ
ĠC r
ĠÚ©Ø±ÛĮØ³Øª Ø§ÙĦÛĮ
ĠÛ±Û¸Û¸Û ·
ĠØªÙĨØ¯ Ø±ÙĪ
ĠÙĨØµÛĮ Ø¨
Ã §
Ø¨ Ø³ØªÙĩ
ĠØ¨Ø± ÛĮÙĨ
ÛĮØ± Ø§ÙĨÛĮ
ĠÚ©Ø§Ø± ÙĪÙĦ
ÙĤÛĮ ÙĤÙĩ
Ø§Ø¦ ÙĪÙĦÙĪ
Ø§ÛĮØ´ Ùĩ
ÙĪÛĮØ± Ø§
Ø§ÙĪÛĮ Ø§
ĠØ§ÙĤØ¯Ø§Ùħ Ø§ØªÛĮ
ĠÚ¯ÙĨ Ø§Ø¨Ø§Ø¯
ĠØ±ÛĮØ² Ø´Ú¯Ø§Ùĩ
ĠÙĪØ§Ø¬ Ø¨
ĠØ³ ÙħÛĮÙĨ
ĠØª ÙĨØ¯ÛĮ
ĠØ¢ÙĨ Ú©Ø§Ø±Ø§
ÙģØª Ø±ÛĮ
Ø§Øµ ØºØ±
ĠØ±Ø§Ùĩ ÙĨÙħØ§
er g
ÙĦÙĪ ÙĦÛĮ
ĠC l
ĠÙħØ´Ø§ÙĪØ± Ø§ÙĨ
ĠÙĪØ§Ø´ÙĨÚ¯ ØªÙĨ
Ø§ÙĨ ÙĪØ±Ø¯ÛĮ
Ø§ÙĦ Ø²ÙħØ§ÙĨ
ĠÚ©Ø±Ø¯Ùĩ Ø§ÛĮ
ĠØ§Ùģ Ø´Ø§Ø±ÛĮ
ĠÙħØ´Ùĩ ÙĪØ±ÛĮ
ĠÛ±Û±Û ³Û
Û±Û±Û °
ĠÚĨØ§ÙĦ ÙĪØ³
ĠØ¹Ø´ ÙĤÛĮ
Ø¶ÙĦ Ø¹ÛĮ
] .
Ø¬ Ø±Ùĩ
Ø§Ø³Øª Ø§Ø¯
ĠÚĨ Ø±Ú©
Ø¢ ÛĮÙĨ
ĠÙħØ± ÙĪØ¯Ø´Øª
ÙĨØ¬ Ø§Ø±
ĠA C
ĠPr ov
ĠØ³ÙĪØ¦ÛĮ ÚĨ
ĠÙĨÛĮÙĨØª ÙĨØ¯ÙĪ
ĠØ¹ Ø¬Ùħ
ØªØ± Ø³
Ø¯Ø± Ø¬Ùĩ
ĠØ³Ùĩ ÙĦ
Ø§ÛĮØ³Øª Ú¯Ø§Ùĩ
) Â»
ÚĨ Ùģ
ĠÛ² Û±Û·
ĠÛĮ Ø§Ø¨
ÙĪØ¨ ÙĦ
ĠØ¨ÙĨ Ùĩ
ĠÙ ¢
ĠØ¢ÙĪ Ø§Ø²ÛĮ
ĠÛĮÛĮÙĦ Ø§ÙĤÛĮ
ĠÙħØ¨ØŃ Ø«
Ø¨ ÙĨØ²
Ø¹ ÙĨ
ĠÙģ ÙĦØ§Ùħ
Ø®Ø´ ÛĮ
Ø§Ù¾ ÙĪ
Ø§Ø±Øª ÙĪ
ĠÚĨÙĩ Ø§Ø±Ø¯
ĠØ´Ø¹ Ø¨
ĠØ±ÙĤØµ ÙĨØ¯Ùĩ
ĠÙģØ± Ú¯Ø´Øª
ĠÚ©ÙĨ Ø³Ø±ÙĪ
ĠÚ©Ùħ Ù¾ÙĦ
ĠØªÙĩ Ùħ
ĠÙħØ« Ø§Ø¨Ùĩ
ĠØ·Ø¨ Ø³
ĠØ¯ÛĮØ¯ ÙĨØ¯
ĠØ¬Ø± ÙĤÙĩ
os e
Ø§Ùģ Ø§Øª
ĠØ¨ÙĨ Ø§ÙĩØ§
ÙħÙĩ ÙĨØ¯
ÙĨØª ÛĮÙĨ
ĠÙ¾ÛĮØ± Ø³
ĠÚ©ÙĨØªØ± ÙĦÛĮ
ĠÛ²Û² Ûµ
ĠÙ¾Ø§Ú© Ø³ØªØ§ÙĨÛĮ
ĠØµÙĪÙģÛĮ Ø§ÙĨ
ĠØ±Ø§Ø¨ÛĮÙĨ Ø³ÙĪÙĨ
ĠØ¯Ø¨ÙĦÛĮÙĪØ¯Ø¨ÙĦÛĮ ÙĪØ¦ÛĮ
c on
ĠØ² Ø±ÛĮ
ÛĮÙħ Ø´Ú©
ĠØ´ÙĩØ± Ú©Ø±Ø¯
ĠØ« Ø§Ø¨ØªÛĮ
ĠØ¨ÙĦ Ø§Ú©
ĠØªØ¹ Ø§ÙĪÙĨÛĮ
ĠØ§ÙħÛĮØ± Ø§ÙĨ
ĠØ±ÙĪÙĨ ÙĪÛĮØ³ÛĮ
uc k
Ø§ÙĦÙĨÙĩØ± ÛĮÙĨ
ĠØ±Ø§Ú¯ Ø¨ÛĮ
8 4
9 0
i en
Ø´ Ø´
ĠØ´ ÛĮØ±Ùĩ
ĠÙĩ Ø§ÙĨØ§
Ø® Ø±Ùħ
Ø§Ú© ØªÛĮÙĪ
Ø§ÙĨØ¯ Ø§Ø²Ùĩ
ĠÙħÙĪØ¶ÙĪØ¹ Ø§ØªÛĮ
ĠØ¬Ø±Ø§ÛĮ Ùħ
! Â»
3 7
ĠÙħØ¹ Ø´ÙĪÙĤÙĩ
Ø§Ùģ Ø³
ĠØ¯ÛĮÚ¯Ø± Ø´
an y
ĠØ²ÙĨØ¯ Ú¯ÛĮÙĨØ§ÙħÙĩ
ĠØ®Ø³ Ø§Ø±Ø§Øª
ĠÙģØ¶Ø§Ù¾ÛĮÙħ Ø§
ĠØªØ±Ø§Úĺ Ø¯ÛĮ
ĠØ§ÛĮØ±Ø¨ Ø§Ø³
Ú© ÙĪØ¨ÛĮ
ĠØ³ Ø§ÙĨÚ¯
Ø² ÛĮØª
ĠØ§ÛĮÙĨ Ú©Ø§Ø±
Ø§ÙĤ ÙĦÛĮ
ĠÙģØ± Ú¯
ĠÙģØ± ÙĪÛĮØ¯
ÙĪÚ© ÛĮÙĨ
ĠÙģÙĦ Ø§Ø³ÙģÙĩ
ĠÙħØ§Ø± Ù¾ÛĮÚĨÛĮ
ÙħØ¬ ÙĦÙĩ
ĠØ§Ø¹Ùħ Ø§ÙĤ
ĠÙħØ§Úĺ ÙĪØ±
oh n
Ð ²
Ùħ ÙĪØ±Ø¯
ĠÙħ ØªÛĮÙĪ
ĠØ³ ØªØ±
ĠÙĨ ØªÙĪØ§ÙĨØ³ØªÙĩ
ĠØ§Ø³Øª Ø¨
ĠÙĩ Ø§ÙĦÙĩ
ĠÚ¯ ÙĪØ³
Ø§ØŃ ØªÙħ
ÙģÛĮ Ø§ÙĨ
Ø§Ø¨ÙĦ ÙĪ
ĠÛ· ÛµÛ°
ĠÙĤØ·Ø¹ Ø§
ĠÙħÙĨØŃ Ø±Ùģ
ĠØ¨ÙĩØ§Ø¡ Ø§ÙĦÙĦÙĩ
ĠÚ© Ø§Ú©Ø§
Ú¯ ÙĪÙĩØ§ÛĮ
ĠÙĨ Øº
ĠØ±ÙĪ Ú©Ø´
Ø§ÙĨØ¯ ÛĮØ´
Ø³ØªØ± ÙĪÙĨ
ĠÙħÙĪÙĨ Ø±ÙĪ
ĠÙĨØ§Ø¢ Ø±Ø§ÙħÛĮ
ĠØ§ØªÙĦØªÛĮÚ© ÙĪ
ĠØ±Ø¬ÙĪ Ø¹
ĠÙĨ Ø§Ø¦ÙĦ
ĠØ± Ø¬Ø§ÛĮÛĮ
ĠØ® ÛĮØ±Ùĩ
ĠØ° ÙĪÙĤ
ĠÙĩÙĪØ§Ù¾ÛĮÙħ Ø§ÙĩØ§
ĠÙħØ² Ø§ØŃ
Ø¨ÙĨ Ø§Ø¨Ø±
ĠÙħØ¹Øµ ÙĪÙħÙĩ
c r
l u
Ø³ Ø§Ø®ØªÙĩ
Ø®ÙĪ Ø¨ÛĮ
at es
ĠØ²ÙĨ Ø§ÙĨÛĮ
ĠØ¬ÙĦ Ø§ÙĦÛĮ
ĠØ·Ø¨ÙĤ Ø§ØªÛĮ
ĠÚ¯Ùħ Ø±Ú©
ĠÛ±Û¸Û¸Û ¶
ĠÙħØ³ØªØ¹Ùħ Ø±Ø§Øª
ÙĨ ÛĮÙħ
ĠØ³ Ø§Ùģ
ĠÙĨ ÙĪÛĮØ¯
ĠÙ¾ Ø±ÛĮØ´
ĠØ¬ Ø§Øª
ĠØ¨Ø§ ÙĤÛĮÙħ
ĠÙĦ Ú¯Ø§Ø±ÛĮ
ĠØ²ÛĮØ± Ø¨
an ce
ĠØªØ¬ ÙĦÛĮÙĦ
ĠA k
ĠÙ¾Ø§Ø³ Ø§Ø±Ú¯Ø§Ø¯
ĠØ§ÙħØ§ÙĨ ÙĪØ¦ÙĦ
ĠÙĦØ§Ø±ÛĮ Ø¬Ø§ÙĨÛĮ
ÙĨ ÙĩØ§ÛĮÙħ
Ø¨ ÙĪØ±ÛĮ
ĠØª ÙĨØ¯Ø±
ĠØ´ÙĩØ± ÙĩØ§ÛĮÛĮ
ĠØ§Ø¯ ÙħÙĪÙĨØ¯
ĠØªØ¹ ÙĪÛĮÙĤ
ĠÚ©ÛĮ ÙĪØ§ÙĨ
ĠÙģØ±Ø³ØªØ§Ø¯ ÙĨØ¯
ĠÚ¯Ø±Ú¯ ÙĪØ±ÛĮ
ĠÙĤØ¯Ùħ ØªÛĮ
ĠØ§Ø³ØªØ¹Ùħ Ø§Ø±ÛĮ
ĠÚ©ÙĪØ§Ø± Ú©
ĠÚĨØ³ Ø¨ÛĮØ¯Ùĩ
Ú© Ø§Ø±Øª
Ø§Ùħ Ø±ÙĪØ²Ùĩ
ĠØ§Ùĩ ÙĪØ±
Ø³Ø± Ø§ÛĮÛĮ
ĠØ®Ø±ÛĮ Ø¯Ø§Ø±
ĠØ±Ø³ÙĪØ¨ Ø§Øª
ÙĩØ± ÙħØ²
ĠØ· ÙĪØ·ÛĮ
ĠÚĨÙĩØ§Ø± ÚĨÙĪØ¨
ØºÛĮ ÛĮØ±
ĠØ®ÙĦ Ø£
ØªØ³ Ø§Ø¨
ĠØ§ÙĦÙħ ÙĪØª
Ø¢ÙĦ ÙħØ§ÙĨ
ĠÚ¯Ùħ Ø§Ø´Øª
ĠÙħØªÙĤ Ø§Ø¶ÛĮ
ÙĪØ±Ø² Ø´Ú¯Ø§Ùĩ
ĠØ³ÙĪØ§Ø¯ Ú©ÙĪÙĩ
ĠØ¨Ø±ØŃ Ø³Ø¨
ĠÙĪ Ø§Ú©ÙĨØ´ÛĮ
ĠÙĨ ØªÙĪØ§ÙĨØ¯
ĠÙģØ± ÙħÛĮ
ĠØ§ÙĨØª ØŃ
ĠÙĤÛĮ ØµØ±
ĠØ¯Ø§ ÙĪÛĮØ¯
ĠÙ¾ÙĪØ±Øª ÙĪ
ĠÙħØµØ¯ ÙĪÙħÛĮØª
ĠÙĨÛĮÙĦ ÙĪÙģØ±
ĠØ²ÙĨØ§Ø´ ÙĪÛĮÛĮ
Ùģ ÙĪØª
ĠØ¯Ø± ÙħÛĮØ§ÙĨ
ĠØª Ø¨Ùĩ
ĠØ¨Ø± Ø¨Ø±
ĠØ® ØªÙĨÙĩ
ÙĪÙħ ÙĪÙĨ
ĠØµ ÙĦ
Ø§ÙĨØ¯ Ø²
ĠØ¨ÛĮ Ú¯Ø§ÙĨ
Û²Û° Û°Û¸
ĠØ¨Ø§Ø¯ ÙĨ
ĠÙħØ±ÛĮ ÙĪØ§ÙĨ
ĠØ²ÛĮÙĨ ØªÛĮ
ĠØ¬Ø§Ø³ ÙĪØ³
F A
Ú© Ø§ÛĮ
ĠÙħ Ø§Ø®
Ø® Ø±ÛĮ
ĠÙģØ± Ø§Ú©
ĠØ¨Ø§Ø± Ø§Ú©
ĠØªÛĮÙħ Ø´
ĠÙ¾ÚĺÙĪÙĩ Ø´Ú©Ø¯Ùĩ
ĠÙħÙģ Ø§ØµÙĦ
ĠÙ¾Ø§Ø±Ú© ÛĮÙĨÚ¯
ĠÚ¯Ø´Øª ÙĨØ¯
Ġd el
Ø§ÙĦØªØŃ ØµÛĮÙĦÛĮ
ĠÙĨÙĪÛĮ Ø³Ùĩ
ĠÙħØ¹Øµ ÙĪÙħ
ĠØ¨Ø¬ÙĨ ÙĪØ±Ø¯
ÙĪ Ø§Ø¨
ĠØ¢ÙĨ Ø§Ùĩ
ĠØ´Ø± Ùħ
ĠÙĨØ® Ø§Ø¹ÛĮ
ĠÙ¾ÙĦ Ø§Øª
ĠÙĩØ§Ø± ÙĪÙĦØ¯
ĠØ§Ø³ØªØ« ÙĨØ§ÛĮÛĮ
l ine
Ø§Ø¨ ÙĪØ§ÙĦ
ĠÙħÙĪ Ùĩ
ÙĨØª Ø§ÙĦ
ĠØªØ§Ø¨ÙĦ ÙĪÛĮ
ĠØªØ³ÙĩÛĮÙĦ Ø§Øª
ĠÙħ Ú©ÙĨ
ĠØ« Ø§ÙĨÛĮ
ar r
ĠÙĦÙĪ ØªØ±
ĠØ²Ø¯ Ø§ÛĮÛĮ
Ø§Úĺ ÙĨØ²
ĠØŃØ¬ Ø§Ø²ÛĮ
ĠÛ±Û³Û±Û ³
f a
ØŃ Ø§Ú©
ĠÙģÛĮÙĦÙħ Ø³Ø§Ø²ÛĮ
Ú©ÙĦ ÙĨØ¯
ĠØ´Ú©ÙĦ Ø§Øª
ĠØ³Øª ÙĪØ¯Ùĩ
ow er
ĠÙĦØº Ø§Øª
ĠÙ¾ÙĨØ§Ùĩ ÙĨØ¯Ú¯ÛĮ
ĠØ³ÙĪØ®Øª Ú¯ÛĮ
ĠØ¨ÙĨÚ¯ Ø§ÙĦ
ĠÙĨØ§Ùĩ ÛĮØ¯
ĠØ²ÙĪØ±ÛĮ Ø®
I n
ĠØ´ Øª
Ù¾ ÛĮÙĦ
ĠØ¢ Ø¯ÙĦ
Ø¬ Ø§Ø¯Ùĩ
ÙĪÙħ Ø§ÙĦÛĮ
ĠÚĨ ÛĮØ¯
Ø³Ø± ÙĪØ¯
ĠÙħØ§Ø± Ø³ÛĮ
ĠR eg
Û²Û° Û°Û¶
ĠÛ±Û³Û±Û °
Ø¬ÙĨ ÙĪØ¨ÛĮ
ĠØ§Ø³ØªØŃÚ©Ø§Ùħ Ø§Øª
ÙĪØ§ØŃ Ø¯
Ø§Ø± Ø§ØªÛĮ
Ø² ÙĪÙĨÛĮ
ĠØ§Ø³Øª ÙĪØ§
ÛĮØ§ Ø¯Ùĩ
ĠØ³ÛĮ Ø§ÙĦØ§Øª
ĠÙ¾Ø± ÙĪØ±
ĠÙ¾Ø´Øª Ú©ÙĪÙĩ
ot t
ĠØ¯Ø±Ø§Ùħ Ø§ØªÛĮÚ©
ÙĦ ÙĪØ¦
ĠØ¨ Ú©Ø´
en a
ĠÙ¾Ø§Ø³ Ø®ÛĮ
Û²Û° Û°Ûµ
ĠÛ±Û³Û±Û ¸
Ù¾ÙĪØ´ Ø§ÙĨ
ĠØ¶ÙħÙĨ Ø§
ĠØªØ±Ø¯ Ø¯
ĠÙħØ®Ø±ÙĪ Ø·
ĠØ§Ø¨ÙĪÙħ Ø³ÙĦÙħ
Ø³ ÙĦØ§Ùħ
ĠÚ¯ Ø§Ø³
ĠØºØ±ÛĮ Ø¨Ùĩ
ĠÚ©Ø¹ Ø¨Ùĩ
ĠÙĪ Ú¯Ø§Ø³
ĠØ§Ø³Øª ÙģØ±Ø§Øº
Ø§Ø² ÛĮØ±
ÙĪÙĦ Ø²
Â» "
ĠØ¨Ø§Ø± ÙĩØ§ÛĮ
ĠØ³Ø±Ø¯ Ø±Ø¯
ĠØªØ±Ø¨ ÛĮØªÛĮ
f r
o z
Ùģ ÙĪØ¹
Ø§ÙĦ Ø§Ùħ
ĠÙģ Ø§Ø³Ø¯
ĠØ¯Ø³Øª Ø§ÙĪØ±Ø¯
Ú©ÙĦ Ø±
ĠÙ¾ÙĦ Ø§ÙĨÚ©
ÙĪØªØ± Ø§Ù¾ÛĮ
ĠØ³Ø§ÛĮ ÙĪØ²
ĠÙħÛĮÚ©Ø±ÙĪ Ø¨
ĠÙħÛĮÚ©Ø±ÙĪ Ø¨ÛĮ
Ġ op
ĠØ³ Ø§Ø¯
Ø¹ Ø´
ĠÙĩ Ø§Ø±Ø¯ÛĮ
ĠÙĤ Ø§Ø³ÙħÛĮ
ÙĩØ± ÙĨÚ¯
ĠÙĦ ÙĪØ§Ø³
ĠÙ¾Ø§Ø± Ø§ÚĺÙĨØ²
ĠØ¯ÛĮÙĦ ÙħÛĮ
ĠÙĦØ¦ÙĪÙĨ Ø§Ø±Ø¯
ĠØ¨Ø§ÙĤ Ø±ÛĮ
Ùħ Ø§Ø¯Ùĩ
ĠØ¯Ø± ÙĪØ¯
ĠØ¯Ø± ÙĩØ§ÛĮ
ĠØ³ Ø§ÛĮÙĨ
ĠÙĨ ÙĪØª
ĠØ§ÙĨ Ø·
ĠÙĦ ÙĪÛĮØ¯
ĠÙ¾Ø³ ÙĨØ¯
ĠØªØ± ØªÛĮ
Ø§ØªÛĮ ÙĪÙĨ
la ss
ÙĨØ³ Ø®Ùĩ
ĠÙħØ§Ø¯ Ø§Ùħ
ĠÙģØ¶Ø§Ù¾ÛĮÙħ Ø§ÛĮ
ĠØ¯Ø§Ø¦Ø± Ø©Ø§ÙĦÙħØ¹Ø§Ø±Ùģ
ĠØ¨Ø§ÙĤÛĮÙħ Ø§ÙĨØ¯Ùĩ
t he
Ø§Ø± ÙĪØ¯
ĠÙĩ ÙĪÙ¾
ĠÙĩ ÙĦÙĪ
ĠØ³ÛĮ Ø³ØªØ§ÙĨÛĮ
ĠØ³ÙĦ Ùģ
ĠÙĩÛĮ ÙĪÙĨØ¯Ø§ÛĮ
ĠÛ±Û³ Û°Û´
ĠØªÙģ Ø§ÙĩÙħ
ĠØ±Ø§ÙĨ Ø´
ĠØ§Ø³ØªØ« ÙĨØ§ÛĮ
ĠØ§Ø±ØªØ¯ Ú©Ø³
Ø® Ø±ÙĪ
ĠØ¬ Ø§ÙħÛĮ
ĠØ¨Ø± Ø¢ÙĪØ±Ø¯ÙĩØ§ÛĮ
ÙĩØ§ ÙĬ
ĠÙģØ± Ø¢ÛĮÙĨØ¯
ÙĨÛĮ Ø§ÙĨ
Ø§Øµ Ø¨
ÙĪØ§Ø± ÙĪÙ¾Ø§ÛĮÛĮ
Ø´ÛĮ Ù¾
ĠØ§Ú© Ø³Øª
ĠS tr
ĠÙħØªØºÛĮØ± ÙĩØ§
ĠÛ±Û³Û±Û ²
ĠÚ©Ø§Ø´ Ùģ
ter n
Ù¾Ø±ÙĪ Øª
ĠØ¨Ø§ÙĦØª ÛĮÚ©
ĠØªØ±Ø§ÙĨØ³Ùģ ÙĪØ±Ùħ
" >
Ø³ Ú©Ùĩ
ĠØ¬ Ø§Ø³ØªÛĮÙĨ
ĠØ² Ø¨Ø±
ĠØµ Ø¨Ø±
ĠØ¯ÛĮ Ú¯ÙĪ
ĠÙħØ¯ Ø®ÙĦ
Û· Û°Û°
ĠØªØ¹ Ø¬Ø¨
ĠÙĨØ§ ÙĪØ¨Ø±ÛĮ
ĠØ¨Ø§Ø±Ø³ÙĦ ÙĪÙĨ
ĠØ¹Ø§ÙĤ Ø¨Øª
ĠØ¢ Ø¬
ĠÙĩ Ø§Ø³
ĠØ§ Ù¾ÛĮ
Ø¢ Ø³
ÙħØª ÙĨ
ĠØ¬Ø§ÛĮ Ú¯Ø§ÙĩÛĮ
ĠØªØ¬ Ùħ
al d
ĠØ³ÛĮØ± ÙĪØ³
ĠØ¨ÙĩØ¨Ùĩ Ø§ÙĨ
Ù Į
ÙĪ ÙĤÙĩ
Ø¯ ÙĦÛĮ
ĠØ³ Ø±Ø§ÙĨÙĩ
ĠØª Ø§ÛĮÛĮ
ĠØ§Ø³Øª Ø§ÙĦ
ĠÚ¯ ÙĪØ§ÙĨÚ¯
Ø¸ ÙħÛĮ
ĠÙħÙĪØ³ ÙĪÙĦÛĮÙĨÛĮ
ĠØ§Ø´Øª ÛĮØ§
ĠÙĨÛĮØ§ ÙģØªÙĩ
ĠÙģØ±Ø§Ùħ Ø±Ø²
ĠÙħÛĮ Ú©Ø³
ĠÙħÙĨ Ø§Ø±
ĠØ¢Ùħ Ø§ØªÙĪØ±
ĠÙĨÙħ Ø§ÙĩÙĨÚ¯
ĠÙĩØ± Ø¬
ĠÙħÙĦ Ø§Øª
ĠÚ¯ÙĦ Ø²ÙĨÛĮ
ĠA P
ĠØ¢Ùģ Ø±ÛĮØ¯
ĠØ¨Ø§ÛĮ Ú¯Ø§ÙĨÛĮ
ĠØ±ÙĪØ³ Ù¾ÛĮ
ĠØ§ÙĨØ³ ÙĪÙĦÛĮÙĨ
bur g
ĠØ§ÙĨØ·Ø¨ Ø§ÙĤ
Ø§ÙĦ Ø§Ø³ÙĦØ§Ùħ
Ø§Ùĩ ÙħÛĮØª
ĠØ¹ÙĦ Ø§Ø¡
ÙĪØ±Øª ÙħØ¨Ø±Ú¯
ĠÙĨÛĮ Ø³Ø§ÙĨ
ĠÙĤÙĪØ§ÙĨ ÛĮÙĨÛĮ
ĠØªØ§Ú© Ø³ØªØ§ÙĨ
ĠÙĩÙħØ³ Ø±ÛĮ
ĠØ¨ÛĮØ§ ÙĪØ±ÙĨØ¯
Ø§Ø² ÙĪ
ĠØ§Ùħ Ø¯Ø§Ø¯
ĠØ§Øª Ø¨Ø§Ø¹
ĠØªØ±Ú© ÙħØ§ÙĨ
Ø¨Ø±ÛĮ Ø¯
ĠÚ¯ÛĮ Ø¬
ĠØ¹ÙĨ ØµØ±ÛĮ
ĠÙĦØ¨ ÙĨØ§ÙĨÛĮ
ĠØ¯Ø±ÙħØ§ÙĨ Ú¯Ø§Ùĩ
ĠÙħÙĪÙĨ Ø§Ú©ÙĪ
ĠÛ³Û² Û°
ĠÙħÙĤØ§ÙĦØ§Øª ÛĮ
ÙģÙĪ Ø¸
Ï Ĥ
ĠØ¹ Ø¬ÛĮØ¨ÛĮ
ĠÚ©Ø§Ø± Ø²Ø§Ø±
ĠÙĤØ± ÙĨÛĮÙĩ
Ø§ÙĪ Ø¨ÛĮ
ĠA nd
Ø§Ø¯ÙĦ Ø§Øª
ĠÙħÙĪÙĤØ¹ÛĮØª ÛĮ
ĠÙ¾ÛĮÚ© ÚĨØ±Ø²
ĠÚ¯Ø±Ø§ÙĨ Øª
ĠØ§ÙĦÛĮ Ø§Ø³
W ikipedia
ĠÚ© ÙħÛĮÙĨ
ĠØ±ÛĮ Ø¬
ĠØ´ÛĮ ÙģØªÙĩ
ĠS ant
ĠÙħØ¤Ø³ Ø³Ø§ÙĨ
ĠØŃØ§ØµÙĦ Ø®ÛĮØ²
ĠØ§ÙĦÛĮ ÙĪØª
Ø§Ø° Ø¨
ĠÙĩÙħØ³ Ø±Ø§ÙĨ
ĠÙģØ§Ú©ØªÙĪØ± ÙĩØ§ÛĮ
ĠØ¨ÙĦØ´ÙĪ ÛĮÚ©
ĠÚ©Ùħ Ø±ÙĨÚ¯
ĠÙĨØ´ ÙĪÙĨØ¯
ÙĪØ¦ ÙĪÚ©Ø§
ĠØ§ÙģØ± Ø§Ø³ÛĮØ§Ø¨
ĠÙħØŃÙħ ÙĪØ¯ÛĮ
ĠÙ¾Ø°ÛĮØ± Ø§ÛĮ
ĠØŃØ¬ Ø±Ùĩ
ĠÛĮØ® Ø¨ÙĨØ¯Ø§ÙĨ
ĠÚ¯ÚĨ Ø³Ø§Ø±Ø§ÙĨ
ĠØ³Ú©Ø§ÙĨ Ø³
" )ØĮ
ĠÙĪ Ú©ÙĦ
ĠÙĪ Ø±Ø¯ÛĮ
Ø§Ø³ Ø¨ÛĮ
Ø¯Ø± ÙĨÚ¯
ĠØªØŃ Ø±ÛĮÙģ
ĠC ity
Ø§Ø¨ÛĮ Ø§ÙĨ
ĠØ¸ ÙĩÛĮØ±
Û²Û° Û°Û·
os s
ĠÙħÙĨØ´ Ø¹Ø¨
ĠØ§Ø³ØªØ¨ Ø¯Ø§Ø¯
Ġ Ù¬
ĠØ¨ Ú©ÙĨØ¯
ĠØ³ Ø§ÙĨÛĮ
Ø§Ùħ ÙĪØªÙĪ
ĠØ¨Ø± ÙĪÛĮ
ĠÙĤ ÙĪØ´
ĠÙĤ Ø¯ÛĮ
ÙĨÚ¯ Ø§Ùĩ
Ø¢ ÙĨØ§
ĠØ³Ø± Ú¯ÛĮ
ĠØ§ÙĦ Ø¨ÙĦ
ĠÚ¯Ø± Ø§ÙħØ±
ĠØ®ÙĪØ§Ùĩ Ùħ
ĠÙģØ±ÙĪ ØºÛĮ
Ġ1 00
ĠØ¢ÙĦØ¨Ø± ØªØ§
ĠÙ¾ÙĦØª ÙģØ±Ùħ
Ø¨ Ø§ØŃ
ĠÛĮ Ø§ÙĩÙĪ
ĠÚ©ÙĨ Ø§Ø±ÛĮ
ĠÙ¾Ø± Ø§Ø¯Ø´
ĠØ²ÛĮØ± Ø±Ø§Ø³ØªÙĩ
ĠØ®ÙĦ Ø§Ø¡
ĠØ§Ø±ØªØ´ ÛĮ
ĠØ¹ÙĨ Ø§ØµØ±ÛĮ
ĠØŃØ§Ø¦ Ø±ÛĮ
o ch
Ùģ ÙĦØ³
ÙĪØ± ÛĮÙĨ
Ø§Ø² ÙĩØ§
ĠÙĨÛĮ Ø³
ĠÙĦÛĮ Ø¯
Ù¾ÛĮ ØªØ±
ĠÚ©ÛĮ Ø§Ø±
ĠÙĨØ§Ø® ÙĪØ¯
ĠØ¬ÙĦØ¨ Ú©
ĠØ§ÙĪØ±Øª ÙĪÙĨ
ĠØ¢Ø±ØªØ³ Ø§Ø®
ÙĦ ÙĨÚ¯
ĠØ´ Ø±ÛĮØ§ÙĨ
ĠØ¨ÙĪØ¯ ÛĮÙħ
ĠÙħØ±Ø¯ ÙħØ§ÙĨÛĮ
ÙħÙĦ Ø§
ĠØ³Ú© ÙĨÛĮ
M P
Ú© Ø§ÚĨ
Ø¨ ÛĮØ²
Ù¾ ÛĮØ¯
ĠÙĩ ÛĮÙĨ
Ø³ÛĮ ÙħÛĮ
ĠÙĦ Ø´
ĠÙĤØ± Ùħ
Ø§Ùģ ÛĮÙĦ
Ø§Ø¦ ÛĮÚ©
ĠÚ©Ø§ÙĨ ØªØ±ÛĮ
ĠÙĨÛĮÙħ Ú©Ø±Ùĩ
ĠÙĩØ§ ÙĬ
Û²Û°Û±Û ²
ĠØ§Ø³ØªØ¹ ÙħØ§ÙĦ
ĠØ®Ø² ÙĨØ¯Ú¯Ø§ÙĨ
ĠÙ¾ÛĮØ¯ Ø§Ø³Øª
ĠØªØµØ¯ÛĮ ÙĤ
Ú¯Ø± Ø¯ÙĩØ§ÛĮ
Ø²ÛĮ ÙĨØ¯
ÙħÙĪ Ø¬
ĠÚĨÙĩØ§Ø± Ú¯Ø§ÙĨÙĩ
ĠØ´Ú© ÙħÛĮ
ĠØ§Ú©ØªØ´ Ø§ÙģÛĮ
ĠØ¯ÙĦÙģ Ø§ÙĨ
ĠØ¢Ø´Ù¾Ø² Ø®Ø§ÙĨÙĩ
Ùĩ Ø´Øª
ĠØ¢ÙĨ ÙĪÙħØ§ÙĦÛĮ
ĠØ§Ø± Ú©Ø§ÙĨ
Ø§ÙĨØ¯ ÙĨØ¯
ĠÛĮ Ø®ÛĮ
ĠØ§Ø¯ Ú¯Ø§Ø±
ĠØ±ÙĪØ² Ø¨Ùĩ
Ú¯ÛĮØ±ÛĮ Ùħ
Ø±ÛĮØ´ Ùĩ
ĠÙħØ¶ Ø§ÙħÛĮÙĨ
ĠØ¯ÛĮÙĦ Ùħ
k i
Ùģ ÙĦÙĪ
ÙĤ Ø§Ø±
ĠÙģ Ø§Ø²ÛĮ
ĠØ¨Ø± Ú©
ĠØŃ ÙĪØ§Ø³
ĠÙħØ´ ÙħÙĪÙĦ
Ø¨Ø§ÙĨ Ø§ÙĨ
ĠØ±ÙĪÛĮ Ø§ÙĨ
ĠÙĩÛĮ Ø¬
ĠÛ±Û¶ Ûµ
ĠÛ±Û¶ Û°Û°
Ø¢Ùħ Ø¯ÛĮ
ĠÙĨÛĮÚ© ÙĪ
ĠØ·ÙĦ Ø§Ø¨
ĠØ¨Ø±ÛĮ Ø¬
ĠØ¨ÛĮÚ¯ Ùħ
ĠÛĮÚ©Ù¾Ø§Ø± ÚĨÚ¯ÛĮ
ĠÙĨØ§Ùĩ ÙĨØ¬Ø§Ø±ÛĮ
F C
Ï ģ
ÙĤ Ø·Ø¨ÛĮ
Ø§Ø¨ Ø§ÛĮØª
ĠØ§ÙĨ Ø¶
ĠÚ©ÙĨ ØªÛĮÚ©Øª
ĠØ¢Ø± ÙĪÙĨ
ĠØ®ÙĦ Ø®Ø§ÙĦ
ĠÙ¾Ø´Øª ÙĪÙĨ
ĠØ¨ÙĪ Ø¬ÙĪØ¯
Ùħ Ø³Øª
Ø¨ Ø§Ø³
Ø¹ Ø¨ÛĮ
Úĺ Ø±
ĠØ¨Ø§Ø² Ø¯ÙĩÛĮ
ĠÙĨØ§Ùħ ØŃØ¯ÙĪØ¯
ĠÚ©ÙĪØ± ÛĮÙĨ
ĠØ¢Ùĩ ÙĪ
ĠÙĨØ§ Ø§ÙħÛĮØ¯
ĠâĢ ¢
ĠØ±Ùģ Ø§ÙĩÛĮ
ÙĨ Ø²Ø¯
ĠÙħÛĮ Ø§Ø¯ÛĮÙĨ
ĠØ¨Ø± Ú¯Ø±Ø¯Ø§ÙĨØ¯
ĠØ· ÙĪÛĮÙĦ
Û² Û°Û°Û°
ÙħØ¯ Ø§Ø±ÛĮ
ĠÙģÛĮÙĦÙħ Ø³Ø§Ø²
ĠØ§Ø¨ Ø¯ÛĮ
ĠØ¬Ø¯ÛĮØ¯ ØªØ±
ĠØ§ÙĦÚ©ØªØ± ÙĪ
ĠØ§Ø³Ú© ÙĪØ±
ĠØ®ÙĪØ´ ØŃØ§ÙĦ
ĠÙĨØ§Ø® ÙĨ
ang u
O R
o ol
ĠØ¹ Ø³Ú©Ø±ÛĮ
ĠØªÙĪ Ø¨Ùĩ
Ø¨Ø± Ø¢Ø¨Ø§Ø¯
ĠÙĦÛĮ Ø¯ÛĮ
ĠÙħÙĦ ÙĪÚ©
Ú¯ÙĪÛĮ Ùħ
ĠØ¢Ùĩ Ú©ÛĮ
ĠÙ¾Ø¯ Ø§Ùģ
ĠØ¯Ø§Ø¨ ÙĦÛĮÙĪ
Î ½
ĠÛ² Û³Ûµ
Ø¦ ÙĪÙĨÚ¯
ĠÛĮ ÙĪØª
ĠÚ©Ùħ Ø§Ú©Ø§ÙĨ
ÙĦÙģ Ø¸
ĠØ³Ø¨ Ø¯
Ø³Ú© ÛĮÙĩ
ĠØ§Ø¨Ø± ÙĤÙĩØ±ÙħØ§ÙĨ
ĠÛ±Û³Û±Û ·
ĠØ¯Ø§Ø¦Ø± Ø©
ðĲ ¬
I A
Ø³ Ø¹ÛĮØ¯
ĠØ± ÛĮÙĨØ²
Ø§ÙĦ ÛĮÚ©
Ø±Ø¯ Ø§Ø±
ÙĪÙĨ ÛĮÙĨ
Ø¢ Øª
ĠØŃÙħ Ø§Ø³
ÙĨØ² ÙĪ
ĠØ´Ú¯ ÙģØªÛĮ
Ù ´
Ø¹ Ø¶
Ø¬ ÙĪÙĨ
ĠÙģ Ø§Ø´ÛĮ
ĠÙĤ ÙĪØ§
ĠÚ©ÙĪ Ø¨Ùĩ
ĠÙĪÙĦ Ø¯
ĠØ´ÙĪ Ø®ÛĮ
Ø§ÙģØª Ø®Ø§Ø±
Ġb e
ĠØ®Ø´Ø§ÛĮ Ø§Ø±Ø´Ø§
k in
ĠÙħ Ø§ØªÛĮ
Ø§Ùģ Ú©ÙĨ
ÙħØ¯ ÙĦ
ĠØ¹Ùħ ÙĪ
an e
ĠÙĩÛĮ ÙĪ
ĠØ³ÙĪ Ø®ÙĪ
Ø±Øª Ø¨Ùĩ
ĠÙ¾ÛĮÚ© Ø§Ø±
ĠØ¨ÙĨØ¯ Ø±ÛĮ
ĠØ§Ø´ØªØ± Ø§Ú©ÛĮ
ĠÙħØµÙĦØŃ Øª
ĠÙĪ ÙĦÙĪ
Ø¹ Ø±
Ø§Ùĩ ÙĦ
ĠØ² ÙĨÚ¯ÛĮ
ÙĪØ²ÛĮ Ø³ÛĮÙĪÙĨ
ĠØ¹Ø±ÙĪ ÙĤÛĮ
Û²Û°Û±Û ´
ĠØ¯ÙĪÙĨ ÙĪØ±
ĠÙģØ§Ùħ ÛĮÙĦ
l or
Ùħ Ø§ÙĤ
Ø² ÙĨØ´
Ø¯Ùĩ ÛĮØ¯
ĠÙĦ Ø§Ø¯
ÙħØª ÛĮÙĦ
ĠÙħØ§ÙĨ ÙĪØ±
Ø´Ø§Ùĩ ÙĨØ§ÙħÙĩ
ĠÛ±Û±Û ±
of t
ation s
ĠØ²ÛĮÙĨ Ø¨
ĠØªÙĨØ¨ Ø§Ú©ÙĪ
ĠØŃÙĪØ² ÙĪÛĮ
ĠÙħØ¨ØªÙĦ Ø§ÛĮØ§ÙĨ
ĠØ¨ Ø´Ø§Ø±
ĠØª Ø§Ø¦
ĠØ§ÛĮ Ú¯ÙĦ
ĠÙĩ Ø§Ø¦
ĠØ¨Ø± Ø§Ùĩ
ĠÚ¯ ÛĮØªÛĮ
ĠÙħØ± Ø§Ø¯ÛĮ
ĠØ¬ÙĨ ÙĪÙĨ
ĠÛ±Û¸Û¶ Û³
D B
z e
Øª Ú©Ùĩ
ÙĪØ± Ú¯ÛĮ
ĠØ¨Ø± ÙħÙĩ
ĠØªÙĪ ÙģØ§ÙĨ
ĠØ¯Ø§Ø± ÙĨ
er r
ĠÙħØ¯ÛĮ ÙĪÙĨ
ou p
ĠØ§ØµØ§ÙĦØª Ø§
Ø§ÙħØ² Ø¯Ø§
S L
ÙĦ Ø§ÛĮÙĩ
ĠØ¯ Ú©ÙĦ
ØŃ Ø¶
ĠÚ¯ Ø§ÙĨÚ¯
ĠÙĤ Ø§Ùģ
ØªÛĮ Ø´
ĠÙħØ± ÙĨØ¯
ĠØ§Ø´ ÙĨ
ĠØ¯ÙĪØ± ØªØ±
ĠØ¨ÛĮ Ø§Ø¨Ø¯
ĠÚ©ÙĦÛĮ Ø³
ĠØ³ÙĨÚ¯ ÙĪØ§Ø±Ùĩ
ÙħØ¹ Ø±ÙĪÙģ
ĠØ¶Ø±Ø¨ Ø§ÙĨ
Ø·Ø±Ùģ Ùĩ
ĠØ¯ÛĮØ² ÙĦ
ĠØ¨ ÙĨØ¯ÙĩØ§ÛĮ
Ø¨Ø§ÙĦ Ø§
ÙĪØ¦ ÛĮÙĦ
ĠØºÛĮØ± ÙģÙĦØ²ÛĮ
ĠÛ±Ûµ Ûµ
ĠÚ¯ÙģØª ÙħØ§ÙĨ
ĠÙĩØ§Ø± ÙħÙĪÙĨÛĮ
ĠÙ¾ÛĮØ§Ùħ Ø¨Ø±Ø§ÙĨ
ĠØ¢Ø¯ Ø±ÛĮØ§ÙĨ
Û²Û°Û±Û ¶
ĠØ¨Ø±ÙĪÙĨ ÙĪ
ÙģÛĮØ± ÙĪØ²
Ø´ ÙĪÛĮÙħ
ĠØ¯Ø± Ø¨Ø±Ø¯Ø§Ø±
ĠØ´ Ø§Ú©
Ù¾ ÛĮØª
ØªØ± Ø§ÙĨ
ĠØ§Ùħ ÙĪÛĮ
ĠÙĨÙĪ ØªØ±ÙĪÙĨ
ĠØ¹ÙĦ ÙģÛĮ
Ø§Ø±Øª Ø§
ĠØ´Ùĩ Ø¯Ø§
Ú¯Ø±ÛĮ Ø²Ø¯
Ø±Øª Ø²
ĠÙħØŃÙħ ÙĪÙĦÙĩ
ĠÙ¾Ø§Ø³Ø® Ú¯ÙĪÛĮÛĮ
ÙħØ³ Ø§Ø¨ÙĤØ§Øª
ĠØ°Ùĩ Ø§Ø¨
ber g
ĠØ§Ø³ØªØ« ÙĨ
Ø±Ø³Ø§ÙĨ ÙĨØ¯
ĠØ¨Ø±Ø§ÙĨÚ¯ÛĮ Ø®ØªÙĩ
ĠØ¢ÙĨ Ø§Ø±Ø´ÛĮ
ØªÛĮ ÙĪØ³
ĠÙĨÙĪ Ø§Ø®ØªÙĩ
ĠÙħÙĩ ÛĮØ§
ĠØ¢Ø¨ Ú¯Ø±Ùħ
ÙħØ± Ø§Ø¯
ĠÙĦØŃ Ø¸Ø§Øª
Ġ201 2
eb ru
ĠÚ¯ÙĪØ¯ Ø§ÙĦ
Ú© Ø§Ùĩ
ĠÙĪ ÛĮÙħ
Ø§Ø± ÙĨØ¯
ĠØ§Ø² Ø¨
Ø§Ùħ Ú©
ĠÙĦ ÙĪÙĦ
ĠÛ¶ ÛµÛ°
ĠÙħÛĮØ§ÙĨ ÙħØ§Ø±
ĠS aint
ĠØ±ÙĪØ´ ÙĩØ§ÛĮ
ÙĬ Ùĩ
ĠÙ¾Ø±Ø¯Ø§Ø®Øª ÙĨ
ĠÙģØ±Ùħ ÙĪØ¯
ĠØ¢Ø¨Ø§Ø¯ Ø§ÙĨÛĮ
ĠØ¬Ø¹ ÙĦ
ĠÛ±Û¸Û¹Û ±
ĠÙĨØ§ÙĨ ÙĪÙħØªØ±
Ú©ÙĪØª Ø§Ùĩ
ĠØªØ±Ø§ÙĨØ³ÙģÙĪØ±Ùħ Ø§ØªÙĪØ±
ĠÚ¯ Ø§ÙĨØ¯ÛĮ
ĠØŃ Ø´Ùħ
ĠÙĤØ± Ø¹Ùĩ
Ø¯Ø± Ø§
Ø±ÛĮÚ© Ùĩ
ĠØ·Ø± ÙĤ
ar g
us h
ĠÚ¯ÙĪ Ø§Øª
ĠØ§ÙģØ³ Ø±ÛĮ
ĠØ±Ùħ Ø²ÛĮ
ĠØŃØ¬ Ø§Ø²
ĠØ§Ø³Ø¨ ÙĤ
ra ph
Ø¬ÙĨ ÙĪØ¨
ĠØ¨Øª ÙĨÛĮ
Øª ÙħÛĮ
ĠÙĩÙħ Ø³Ø§ÙĨ
Ø±ÙĪ Ø¶
ĠÙħØ±Ú© Ø¨Ø§Øª
ĠØ¬ÙĨ Ø§ÛĮØ§Øª
ĠØ±Ø³ ÙĪØ§ÛĮÛĮ
ĠÙħØº ÙĪÙĦÛĮ
ĠÙħÙģ Ø§Ø¯
ĠÙ¾Ø´ Ùĩ
ĠØ±ØŃ ÙħØ§ÙĨ
ĠØ³ÛĮØ² Ø¯ÙĩÙħÛĮÙĨ
ĠØ§ÙĨØ· Ø§Ú©ÛĮÙĩ
- %
6 3
ĠØ§Ùģ ØºØ§ÙĨÛĮ
ĠØ¢Ø¨ Ø²ÛĮ
ĠØ¨Ø§Ø± Ø¨Ø±ÛĮ
ÙĤÙĦ Ø§Ø¨
ÙĪÛĮØ³ Ø±Ú©Ø§ÙĨ
a ir
ĠØ¢ÙĨ ØªØ±
ĠØ§ÙĨ ÙĪØ±
ĠÙĦ Ø¬
ĠÙħØ¯ ÙģÙĪØ¹
ĠØªÙĦ ÙħØ¨Ùĩ
ĠØ³Ù¾ ÛĮØ¯Ùĩ
ĠÙĩÙħØ§ÙĨ Ú¯ÙĪÙĨÙĩ
ĠØ²Ø± ÙĨØ¯
ĠÙĪÛĮÙĨ Ø³ÙĨØª
ÙĨ ÙħÛĮ
Ø´ ÙĦ
ĠØ´ Ø§ÙħÙ¾
ĠØ± Ø®Øª
ĠØ§ÙĦ ÙĪØ§Ø±
ĠÙħØ¯ Ø§Ùħ
ĠØŃØ³ Ø§Ø¨ÛĮ
Ø¨Ø§ ÙģØª
ĠÛ±Û±Û ³
ĠØ³ÙĦÙĪÙĦ ÙĩØ§ÛĮ
ĠÛ±Û³Û² Û²
ĠÛ±Û³Û² Û±
all s
ĠĠĠĠ ĠĠĠĠ
ĠØªÛĮØªØ± Ø§Úĺ
ĠÙĨØ§ÙħØ· ÙĦÙĪØ¨
Ø§ÙĦ ÙħØª
ĠØ¨Ø± Ø§ÙĤ
ĠÙĨØ§Ùħ Ø±
ĠÙħØŃØµÙĪÙĦ Ø§ØªÛĮ
ĠW h
Ø¨Ø§Ø² Ø§ÙĨ
ĠØ¨ÙĨÛĮØ§ÙĨ Ú¯Ø°Ø§Ø±ÛĮ
ĠØ¹Øµ Ø§Ø±Ùĩ
ĠÛ±Û¸Ûµ Û°
ĠÚ¯Ø´ ÙĪØ¯Ùĩ
ĠØ³Ù¾Ùĩ Ø³Ø§ÙĦØ§Ø±
ĠÙĨØ§Ø®Ø§ÙĦ ØµÛĮ
4 7
ĠØ¯ Ø§Ùģ
ĠÚĨ Ø§
ĠØ³Ø± ØŃØ¯
Ø¨Ø± Ú¯Ø±
Ø¨Ø± ØªÙĪ
ĠÙĨÙģØ± Ø§Øª
ĠÙĨÙĪ Ø§Ø±ÛĮ
ĠÙħØ® Ø§Ø±Ø¬
ĠÙ¾ÙĦ Ø§Ø³Ùħ
ĠW orld
ÙħØ¬ ÛĮØ¯
ĠØ±ØŃ ÙħØ§ÙĨÛĮ
ĠØ¨ÙĤ Ø§
ĠâĢ Ŀ
ĠÛ±Û¸Û¸Û ´
ĠØ¢ØªÙĦØ§ÙĨ ØªØ§
ĠÙĨÛĮÙĪÙĩ ÙħÙ¾
ĠØ¯ Ø³ÛĮ
ÙĤ Ø³ÙħØª
Ø±ÛĮ Ø¨Ø§
Ø§Øª ÙĪÙħ
Ú©ÙĨ Øª
ĠÙ¾ÛĮØ´ Ú¯ÙĪÛĮÛĮ
ĠÛ±Û² Û³
ÙĨØª ÙĪÙĨ
ĠÚ©Ø§ÙĨ ÙĨ
ĠÚ¯ÛĮ Ø¨
at ch
ĠØ§ÙģØª Ø¯
ĠØ¨Ø§Øº ÚĨÙĩ
ĠØ´Ø§Ø¹ Ø±Ø§ÙĨÙĩ
ĠÙħØªØ¹ Ø§ÙĤØ¨
ĠØ·ÙĦ Ø¨ÛĮ
ĠØ·ÙĦ Ø¨Ø§ÙĨ
ĠÙħØ³ØªÙĨØ¯ Ø§Øª
ĠÛ³Û±Û °
ÙħÙĨØª Ø¸
Ø¨ÙĪØ¬ ÛĮÙĩ
ĠØ§ØªØ§Ø¨ Ú©
ĠØ§Ø³Ú©Ø±ÛĮ Ù¾Øª
ĠØ¬ Ú©ÛĮ
ĠÙĤ Ø§Øª
Øµ Ø§Ùģ
ÙĪØ¨ Ø§Øª
ØªÙħ ÙĨØ¯ÛĮ
ĠÙĤÙĦ Ø§Ø¨
ĠØªØ±ÛĮ ÙĦØ±
ĠÛ±Û¸Û¸Û ±
ĠÙĦÙĨÚ¯ Ùĩ
ĠØ§Ø¬ØªÙĩ Ø§Ø¯
ebru ary
w ay
Ø· Ùģ
ĠÚĨ Ú©Ø´
ÙĨÚ¯ Ø§Ø±Ùĩ
ĠØº Ø§Ø²ÛĮ
Ø²Ø¯ ÙĨ
ĠØ§ÙĨØ¯ ÙĦØ³
er a
ĠÚ©ÙĦÛĮ Ø¯ÙĩØ§ÛĮ
ĠL ake
id ge
ĠØ®Ø±ÙĪ Ø³
ĠÚĨØ§ÙĤ ÙĪ
ĠÙĨØ§Ø³ÛĮÙĪÙĨ Ø§ÙĦ
ĠÚ© ÙĪÙĦÙĩ
ÙĦÛĮ Ø¸
ĠÚ¯ ÙħØ§ÙĨÙĩ
ĠÙĩØ± ØªØ²
Ġ1 1
ĠÛ±Û±Û ¸
ĠÚ¯ÛĮÙĦ Ø§ÙĨÛĮ
op e
ĠÚ©ÙħÙ¾ Ø±Ø³
ĠØªØ£ÙĦÛĮÙģ Ø§Øª
ĠØªØ±Ø§ÙĨ Ø³
ĠÙ¾Ø±ÛĮÙĨ Ø³ØªÙĪÙĨ
ĠÛĮØª ÛĮÙħ
ĠØ¬ Ø±Ø¯ÙĨ
Ø±Ø¯ Ø§ÙĨÛĮ
Ø« ÙĪØ±
ĠØ§ÙĦ ÙħÙĨ
ĠØ§Ùģ Ø´ÛĮÙĨ
ĠÚ¯ÙĦ Ø²ÙĨ
Ø³Ú© ÛĮÙĨ
ĠÚ¯ÛĮÙĦ Ú©ÛĮ
ĠÙħØ¸ ÙĨÙĪÙĨ
ĠØ±ÙĪÙĦ Ø²
ØªØ±Ú©ÛĮ Ø¨
ĠÙĦØ¹ Ø§Ø¨
S E
Ú© Ø§ÙĪÛĮ
ĠÙĨ Ø±Ø¯
ĠÙħÛĮ Ú©ÙĦ
ĠØ¬ Ø«Ùĩ
Ø§Ø· ÙĦØ§Ø¹
ĠØ¨ÙĦ Ø§ÙĨ
ĠØ¢Ø² Ø§Ø¯Ø±Ø§Ùĩ
ĠÚ©ÙĦÛĮ Ø³Ø§ÛĮÛĮ
ĠP C
Ġ2 5
ĠÙħÙĨØµ ÙĪØ±ÛĮ
ĠØªØ§Ùħ Ø³ÙĪÙĨ
ĠØ§ÙħØ±ÛĮÚ© ÙĨ
ĠØ¯Ø± Ø²
Ø¨ ÙĦÙĩ
ĠØ´ ÙĪÛĮØ¯
Øµ Ø¯Ø§
Ø° Ú©Ø±
Ø´Ú© ÙĨÛĮ
ĠØ§Ø¬ Ø±Ø§Ùħ
ĠØºÛĮØ± ÙħØ¬Ø§Ø²
ÙĪÚ¯ ÙĦÙĪØ¨
ĠØ¨ÛĮØ± Ùħ
il m
Ø³Ù¾ Ø³
ĠØ±Ø² Ø±ÙĪ
ĠØ¨ Ø§Ø³Øª
ĠÚ© ÙĪØ±Ø´
ĠÚ© Ø§Ø°Ø¨
Ù¾ ÛĮÚ©
ĠÚ¯ ÙħÙĨ
ĠØ² Ø´Øª
Ø¨Ùĩ Ø§Ø±
ĠØ¬ÙĨÚ¯ ÛĮØ¯
ĠÙħØ§Ø± Ø³ÙĦ
ĠØŃÙģØ§Ø¸ ØªÛĮ
ĠÙĦØ§Ú© ÙĩÛĮØ¯
ĠÙħØ¨ÙĦ ØºÛĮ
ÙĦ Øº
ĠÙĤ Ø¯ÛĮØ³
Ø§Ø³ ÛĮØ±
ØªÛĮ Ø²
Ø§ÙĤ Ø¨Ø§
ĠÙĨÛĮ Ø§ÛĮ
ĠØ´Ø± Ø¹
ĠÙ¾Ø±ÙĪ Ù¾
ĠÙĩÙħÛĮÙĨ Ø·ÙĪØ±
ĠÙ¾Ø§Ø± ÛĮÙĨÙĩ
am b
Ġ201 4
ĠÙģØ±ÙĨ Ø§ÙĨØ¯ÙĪ
ĠØ±ÙĪØ¨Ø± ØªÙĪ
ĠØ¨Ø· Ø±ÛĮ
i ed
n et
ĠÙħ Úĺ
Ø¨ ÙĨØ¯Ø±
ĠÙĨ ÙĬ
Ø§ÙĦ Ø¬Ø²Ø§ÛĮØ±
Ø§Ùħ ØŃÙħØ¯
Ø´Ú© ÛĮ
ĠØ¨Ø§Ø± ÙĪÚ©
ĠÙ¾ÙĦÛĮ ÙħØ±ÛĮ
ĠØ¨Ø±Ø®ÙĪØ±Ø¯ Ø§Ø±ÛĮ
ĠØ¯Ø±Ø§Ø² Ø§
ĠÙĨ Ø§Ø¬
ĠØ§Ø³Øª Ø§ÛĮÙĦ
ĠÙĩÙħ ÛĮ
ĠÙĦ Ø³ØªØ±
Ø¢ Ø´Ø§Ùħ
ĠÙĩØ± ÙħÛĮ
ĠØ§Ø¹ Ø²
ĠØ¨Ø§ÙĦ Ø§Ø³Øª
ĠÙħØ³Øª ÙĤÙĦÛĮ
ĠÙħØ§Ø¯ Ø±Ø²
ĠÙĪÙģ ÙĪØ±
ĠÙħÙĪØª ÙĪØ±ÛĮ
ĠØ¨ Ø³Ø±
ĠØ§ÛĮ Ú¯
ĠØ² Ú©Ø±ÛĮ
ĠÙħØª ÙĪÙĦÛĮ
ĠÙħØ´ ÛĮØ±
ĠÛ±Û² Û±
Û²Û° Û°Û¹
ĠØ¨ÙĪØ¦ ÙĨÙĪØ³
ĠÙĪ ØŃÛĮ
ĠÙĪ Ø§ØªÛĮÚ©
Ù¾ ØªØ±
Ø° Ø¨
ĠÙĨØ§Ùħ Ø¨Ø±Ø¯Ùĩ
ĠØ§ÙĦ Ø§Ø³ÙĦØ§Ùħ
Ø¯ÛĮ ÙĪØ§ÙĨ
ĠØ§Ø¬ Ø³Ø§Ø¯
ĠÙģØ¹ ÙĦØ§
ĠÙħØ§ÙĨ Ú¯Ø§
ĠØ§Ú© ÙĪ
ĠR NA
ĠØ¹ÙĨ Ø§ÛĮØª
ĠÙĦØº Ø²Ø´
ĠØ´ÛĮÙĦ Ø¯
ĠÙħÙĩØ¯ ÙĪÛĮ
ĠÚ©Ø§Ø±ÛĮÚ© Ø§ØªÙĪØ±
] ØĮ
Ø´ ÙĪØ´
ĠÙĨ Ø¯ÛĮØ¯Ùĩ
ĠÙħØŃ ÙģÙĪØ¸
ĠØ³Ø± Ø§Ø²ÛĮØ±
ĠØ¯Ø§ÙĨ Ú¯
ĠÚĨÙĩØ§Ø± Ø¯ÙĩÙħÛĮÙĨ
ĠÙĨØ§Ø± Ø§Ø¶ÛĮ
ĠÙĨØ§Øª ÙĨÛĮ
Û²Û°Û±Û ³
ĠÙĪØ¬Ùĩ ÛĮ
ex as
Ø³ Ø±Ùħ
ĠØ¯Ø± ÙĪÛĮ
Ù¾ Ø§Ù¾
ĠØ¨Ùĩ Ø§Ø±ÛĮ
ĠÙħÛĮ Ø®ÛĮ
ÙĨÚ¯ ØªØ³Ø§
ĠØµ ÙĪØ±ÛĮ
ĠÛµ ÛµÛ°
ĠØ¬ÙĦ ÙĪÛĮÛĮ
ĠØ§ØµØ· Ú©Ø§Ú©
ĠØ¯Ø¨ÛĮØ± Ø®Ø§ÙĨÙĩ
m en
ĠÙħ Ø®ØµÙĪØµÛĮ
ĠØ¯Ø± Ø¯ÙĨ
ÙĦÛĮ Ø´
ĠØ¢ÙĨ ØªÙĪØ§ÙĨ
ĠÛĮ Øº
ĠØ¨ÛĮ ÙĪÙĩ
ĠÚ©Ùħ Ø¨ÙĪØ¬ÛĮÙĩ
Ø§Ø´Øª ÙĨØ¯
ĠØ³Ø±ÛĮ Ø§ÙĦÛĮ
ĠØ§Ø±Øª Ø¹Ø§Ø´
it s
ÙĨÙĪÛĮØ³ ÙĨØ¯Ùĩ
ĠØ®ÙĪØ´ ÙĨÙĪÛĮØ³Ø§ÙĨ
ĠÙħØ² ÛĮÙĨ
ĠØ³ÙĦÛĮ ÙĤÙĩ
Ù¾Ø§Ø¯ Ø´Ø§Ùĩ
ĠÙĨÛĮÚ©ÙĪÙĦ Ø§Ø³
Ø§Ø³Øª Ø§Ø±
ĠØ¨ÛĮ ÙĪØª
ĠÙĨÙĪ Ø§Ø±ÙĩØ§ÛĮ
ĠØ§Ø¹ ÛĮØ§ÙĨ
ĠØ±ÙĪØ³ØªØ§ÛĮÛĮ Ø§ÙĨ
ĠÙģØµÙĦ ÙĨØ§ÙħÙĩ
ĠØªÙģ Ø§ÙĪØªÛĮ
ĠØ±Ø¶ ÙĪØ§ÙĨ
ĠÙħØ§Ú© Ø³ÛĮÙħ
ĠÙĨÙĪØ³Ø§ÙĨ Ø§Øª
ĠÙĤØ§Ø¹Ø¯ Ú¯ÛĮ
v e
Ø§ Ú¯Ø±Ø¯
Ø¨ Ø§Ø¯ÛĮ
ĠØ³ ØºØ¯ÛĮ
ĠØ¢ Ø±ÛĮØ§
ĠØ§ÛĮÙĨ ØªÙĦ
ÛĮØª Ø³Ø§
ĠÛĮ ÙĪØ¨ÛĮ
Ø®Øª ÙĨØ¯
ÙħÙĩ Ùħ
ÙĨÙĪ ÙĪ
ĠÙĪØ±Ø² ÙĤØ§ÙĨ
ĠÛĮÙĪÙĨ Ø³
ĠØ§Ø³ØªÛĮ Ø¶Ø§ØŃ
B r
ĠØ¨ Ø´Ø¯Øª
Ù¾ Ø±Ø³Ø¯
ĠØ´ÙĩØ± Ø¨Ø§ÙĨÛĮ
ĠØ¨ÙĨ Ùģ
ÙĪÙ¾ Ø§ØªÛĮ
ĠØªÙĪØ§ÙĨ ÙĨØ¯
ĠÙħØ®Ø§ÙĦÙģ ÛĮÙĨ
ĠØªØ´Ø®ÛĮ ØµÛĮ
ĠÛ±Û¸Û¸Û ²
ĠØªÙĪØ§ÙģÙĤ ÙĨØ§ÙħÙĩ
ĠÙħØ¹Øª ÙħØ¯
ĠØ¯ÙĨØ¯ Ø§ÙĨÙĩ
U n
ĠÚ© Ø§Ú¯
ĠØ± Ø§ÙĨÛĮ
Ø§Ø´ Ùħ
ĠÛ² Û³Û²
Ø¶ ÛĮÙĩ
ĠØ³Ø§Ø² ÙĪÚ©Ø§Ø±
Ø±Ùħ Ø§Ùĩ
ĠÛ±Û³ Û°Û·
ĠF ebruary
Ù¾ÙĦ ÛĮÙĨ
ĠÚ¯ÙĪØ§Ø± Ø´ÛĮ
ĠØ¢Ø´ØªÛĮ Ø§ÙĨÛĮ
ĠÙģÙĪØªØ¨ Ø§ÙĦÛĮØ³Øª
ĠØ± Ø§ÙĦÙģ
ĠØ§ÛĮ ÙħÛĮ
ĠÙ¾ ÙĪØ³ÛĮ
ĠØ¹ Ø§ÛĮØ´Ùĩ
ÙĩØ§ ÙĪØ³
ĠÚ©Ø§Ø± Ø§ÙĨ
ĠÚ©ØªØ§Ø¨ Øª
ÙĦØ¨ Ø§ÙĨÛĮ
ĠÙħÙĪÙĤ ØªÛĮ
ÙħØŃ ÙħØ¯ÛĮ
ÚĨØ± Ø®Ø¯
ĠØ¨ÛĮØ¯ Ø§Ø±ÛĮ
ĠÚ©ÙĦÛĮÙĨ ÛĮÚ©
ĠÙĪÛĮØ±Ø§Ø³Øª Ø§Ø±
ĠØ±ÙĪØ¯Ø±ÛĮ Ú¯Ø²
ĠØºÛĮØ±ÙħØ¹ ÙħÙĪÙĦ
ĠØ§ÙĨØªØŃ Ø§Ø±ÛĮ
Õ ¥
Ø® ÙĦÛĮ
Ø· Ø±Ùĩ
Ø§Ùģ ÙĪØ±Ø¯
ĠØ¨Ø±Ø® Ø·
ĠØ¯Ø±Ø¢ ÙħØ¯ÛĮ
Ø±ÛĮØ² ÙĨØ¯
Ø´ÙĩØ± Ú©
Ø¯Ø§Ø´Øª ÙĨ
ĠØ¯Ø±Ø¢ÙĪØ±Ø¯ ÙĨØ¯
ĠØ¨Ø¨ÛĮÙĨ ÙĨØ¯
ĠØ§ØŃØªÛĮ Ø§Ø·
ĠÙĪØ§ØªÛĮÚ© Ø§ÙĨ
u ch
Ġ an
ĠÚ© Ø«ÛĮ
ĠÛ² Û±Û²
Ø§Ø® ÛĮ
ĠÙħØ¯ Ø¯
ĠØ§Ùģ ÙĪÙĦ
ĠÚ¯ÙĦ Ø§Ø¨
ĠÙħØ§Ùĩ Ùĩ
ĠÙĨÛĮØ§Ø² ÙħÙĨØ¯ÛĮ
ÙĨØ¸ Ø§ÙħÛĮØ§ÙĨ
ĠÙĤØ¶ Ø§Øª
ÙħØ³ Ø¦
ĠÛ±Û¸Û¶ Û¸
ĠØ²Ø§Ú© Ø³ÙĨ
ĠØ§ÙĤÛĮØ§ÙĨÙĪØ³ÛĮ Ùĩ
u lar
Ø¯ ÙĤÛĮÙĤÙĩ
ĠØ± Ø§ÙħÛĮÙĨ
ĠÙĩ ÛĮØ³
Ø¶ Ùħ
Ø¬Ùĩ Øª
ĠÙ¾Ø§ÛĮ ØªÙĪÙĨ
ĠØ¨Ø¯ Ø®Ø´Ø§ÙĨ
ĠØ¨Ø§ÙĦ Ø§Ø¯
ĠØ§Ø±Ø¯ Ø¨ÛĮÙĦÛĮ
ĠÚ¯Ø§Ø² ÙĩØ§
ĠØ¨Øº Ø¯Ø§Ø¯ÛĮ
ĠÙ¾Ø¯ Ø±Ø§ÙĨ
ĠÙĩÙĪÙĦ ÙĪÚ©Ø§Ø³Øª
ĠØ¢ÙĦØ¨Ø± ØªÙĪ
ĠØµØ± Ø¹
ĠÙħØ¹ ÙĤÙĪÙĦ
ĠØ±Ø³ Ø§ÙĦØª
ĠÙħØ« Ø§ÙĦÛĮ
Ø¯ Ø±ÛĮØ§
ÙĤ Ø²
ÛĮØ¯ Ø§Ø¯
ĠØ±ÙĪ Ø§ÙĦ
ĠÙĦ Ø§Øº
ĠØ³ÛĮ Ùĩ
ÙĪØ§Ø± Øª
Ø¯ÛĮØ¯ ÙĨØ¯
ĠØ¨Ø±Ø¯ Ú¯ÛĮ
ĠÙħÙĨØ¸ÙĪØ± Ùĩ
ĠØ§ØªÙģØ§ÙĤ Ø§ØªÛĮ
ĠØ³Ø±Ú© Ùĩ
ĠÛ±Û¸Û¶ Û±
ĠØ±Ø³Øª Ø§Ø®ÛĮØ²
ĠÙģÙĩÙħ ÛĮØ¯
ĠØ§ÙĩÙĪØ± Ø§ÙħØ²Ø¯Ø§
d a
ĠØ¯ ÙĪØ±Ø¯
ÚĨ Ø²
ĠÚ©Ø§Ø± ØªÙĪÙĨÛĮ
ĠÚĺ ÙĨÛĮ
ĠØ´ÙĨ ÙĪØ¯
Ø®Ø± Ø§Ø´
ĠÙħØªØ¹ Ø§ÙĤØ¨Ø§
ĠÙħØ¹ÙĦ ÙĪÙĦ
ĠØ¢Ø¨Ø± Ø§ÙĩØ§Ùħ
ĠØ¯ÙĩÙĤØ§ÙĨ Ø§ÙĨ
ĠÙħÙģØ± Øº
ĠØ§Ø² Ø¢ÙĨ
ĠÙħÛĮ ÙĨÚ¯
ĠÙĩ Ú¯Ø²
Ø¬ ÙĪØ´
ĠØ¬ Ø§ÙĦØ¨ÛĮ
Ø§ÙĪ Ø³ÛĮ
ĠØªÙĤ ÙĪÛĮ
Ø±Ø§ÛĮ Ø¨
ĠH ill
ĠØªØ§Ø¬ Ú¯Ø°Ø§Ø±ÛĮ
ĠØªØ§Ø³ ÙħØ§ÙĨÛĮ
Ú© ÙĨÚ¯
Ø§Ø± ÙĤ
Ù¾ Ø²
Ø¹ ÙĪ
ĠØ§Ø³Øª Ùĩ
Ø§Ø¯ ÙĦÛĮ
ÛĮØ¯ ÛĮÙĨ
ĠØªÙĪ Ùģ
Ø§Ø¬ Ø§ÙĨ
ĠØ¶ ÙħÙĨÛĮ
ĠÛ¶ Û°Û°Û°
ĠØ¬Ø§ ÙĪÛĮØ¯
ĠÛ±Û¸Û¶ Û·
ĠÙģÙĨÙĦØ§ÙĨØ¯ ÛĮ
Ø·ÙĦ Ø¨ÛĮ
ĠØ¨Ø§Ùĩ ÙĪØ´
ĠØªØ±ØªÛĮ Ø¨ÛĮ
b e
u x
ĠØ¯Ø± Ø¨ÛĮ
ĠÚ¯ ÙĪØ§ÙĨ
ĠÙĤ Ø§Ø´
ĠØ¨ÛĮ Ø³Ùħ
ĠØ¬ÙĨ Ø§Ø¨
ĠÚ©ÙĦÛĮ Ø¨Ø±
ĠÚĨÛĮØ± Ú¯ÛĮ
à ¥
ĠØ± Ú¯Ø±
ĠÙħÛĮ Ø±Ø§ÙĨ
ĠÙĩ Ø§ÛĮØ´Ø§ÙĨ
ĠÚ¯ Ø±ÛĮÙħ
ĠÚ©Ø± ÙĨØ´
ĠØ§Ø¬ Ø²Ø§
ĠÙĨÙĩ Ø§Ø¯ÛĮ
ĠÚ©Ø±Ø¨ ÙĨÛĮ
ĠØ§Ø¯Ø¹ Ø§ÙĩØ§ÛĮ
ĠØ§Ø¹ØªÙĤ Ø§Ø¯ÛĮ
ĠØ¨Ø§Ø²ÛĮÚ© ÙĨÛĮ
Ø³Ø§Ø®Øª Ø§Ø±
ĠØ¨ÙĪÚ© Ø³ÙĪØ±
Ø´Ø¹ Ø±
ĠØªØ¹ÙĩØ¯ Ø§Øª
ĠÚĨÙĪÙ¾ Ø§ÙĨ
Ø§Ø± Ø«
Ø¹ ÙħÙĦ
ĠÙħÛĮ Ú¯ÛĮØ±Ø¯
ÚĨ ÙĩØ±Ùĩ
ÙģØª ÙĨ
ĠØ¨Ø§Ø² ÙĪ
ĠØ§ÙĦ ÙĪÙĨØ¯
ĠØ®ÛĮ Ø§Ø±
ÙĩÙħ Ø³Ø±
ĠØªØ¯ Ø¨ÛĮØ±
ĠØ¢Ú© ÙĪØ³Øª
ĠÛ±Û¸Û· Û±
ĠÚ¯ÙĦÙ¾Ø§ÛĮ Ú¯Ø§ÙĨ
ĠÙĪ Øª
ĠÙĨ Ø±ÛĮ
ĠØ¨Ùĩ Ø±
ĠÙĦ Ø§Ø±Ø³ØªØ§ÙĨ
Ú©Ø±Ø¯ Ùħ
ĠÙĨØ²Ø¯ÛĮÚ© ØªØ±ÛĮÙĨ
ĠÙħØ´Ø±ÙĪ Ø¹ÛĮØª
ĠØ§ÙĪÚ©Ø± Ø§ÛĮÙĨÛĮ
Ø´ÙĪØ± Ø§ÛĮ
ĠÙħÙĨØ¬ ÙħØ¯
ĠÙģØ±Ø§Ú© Ø³ÛĮÙĪÙĨ
ĠØª Ø§ÙĨØ¯
Ø§Øª Ø³ÙĪ
ĠÙĤ Ø°
Ġ( (
ĠØ¯ÙĪ Øº
ĠÚ©Ùħ Ø§
ĠØŃØ³ Ø§Ø¨Ø±
ĠÙħÙĨØµ Ø±Ùģ
Ø¹Ø¨ Ø¯Ø§ÙĦÙĦÙĩ
ĠØ¯ÛĮØ± ÛĮÙĨ
ĠØªÙħØ§ÛĮÙĦ Ø§Øª
Ø¢ÙĤ Ø§
3 8
Ġ le
ĠØ¯ Ø§ÙĦÛĮ
ĠÙħÛĮ Ø¯ÙĦ
ĠÙĩ Ø±ÙĪ
ĠÙ¾ Ù¾
ĠØ² ÙĪØ§ÛĮ
ĠØº Ø§Ø²
ĠØ§Øª ÙĦØ§Ùģ
ĠØ³ÙĦ ÙħØ§Ø³
ĠØ§ÙĨØ¯ ÛĮÙħØ´Ú©
ĠÚ©ÙĪ Ø¨ÛĮ
is c
ĠÛ±Û´ Û°Û°
ĠØ§ØŃÙħØ¯ Ø´Ø§Ùĩ
ĠÚ¯Ø±Ø¯Ø´ Ú¯Ø±
ĠÙĩÙĪØ± ÙĨ
ĠÙĨØ§Ø¦ ÛĮÙĨ
ĠØ¨ÙĩØ¨Ùĩ Ø§ÙĨÛĮ
r on
Ġ å
ÛĮ Ø³Ùĩ
ÙĨØ¯ ÙĦ
ĠØ¨Ø± Ú¯Ø±Ø¯Ø¯
ĠÙħÙĨ Ø¨
ĠØ¢ÙĦ ÙĪ
ĠØ¨Ø²Ø±Ú¯ Ø´
ĠÙĦÛĮ ÙħÙĪ
ĠØ³ÙĨ ØªÙĪØ±
ĠØ±Ø§Ùĩ Ø±ÙĪ
Ø§ÙĪØ± Ùĩ
ĠØŃÙĪ Ø§Ø±ÛĮ
ĠÙ¾ÛĮÙĪØ³Øª Ú¯ÛĮ
ĠÚ¯Ø±ÛĮ Ú¯ÙĪØ±ÛĮ
un e
ĠØ¨Ø§Øª ÙĦØ±
ĠØºØ´ Ø§Ø¡
ĠâĨ Ĵ
ĠÙĦÙĪÚ©ÙĪÙħ ÙĪØªÛĮÙĪ
Ø« ÙĦ
ĠÙĨØ¸ Ø§Ø±ØªÛĮ
ĠÙ¾ÛĮØ´ ÙĪÙĨØ¯
ĠØ±ÙĪÛĮ Øª
an i
ĠÙĤØ¨ ÙĦÙĩ
ĠØ®ÙĪØ§Ùĩ ÛĮØ¯
ĠÙħØŃÙħØ¯ Ø®Ø§ÙĨ
ĠØ¸ ÙĦ
ĠØ³Ø§Ùħ Ø§ÙĨÛĮØ§ÙĨ
ch n
ĠÛ±Û³Û±Û µ
ĠÛ±Û¸Û¸Û ³
ĠÚ©Ø§ÙĪØ´ Ú¯Ø±
Ø§ÙĦØ« Ø§ÙĨÛĮ
Ú© Ø§Ø²
ĠØ¨ Ø·ÙĦ
Ø´ ÙĪÙĨØ¯Ùĩ
ĠÙģ ÙĦÙĪ
ĠØ® Ø¬
ĠØ² ÙĦ
ĠÙĦ ÙĪÛĮÙĨ
ĠØ¯ÛĮ ÙĪØ¯
ĠÙħØ¬ Ø±Ùħ
ĠÙħØ¯ ÙĪØ±
ĠÙħÙĪØ±Ø¯ ÛĮ
er b
ĠÙħÙĦ Ø²Ùħ
ĠØªØ¬ Ø§Ø±Ø¨
ØªÙĤ Ø±ÛĮØ¨Ø§
ĠÙħØ§Ø² Ø§Ø¯
ĠØ§ÙĦÙħ Ù¾ÛĮ
ÙħÙĤ Ø§Ùħ
ĠØ±Ø¤ ÛĮ
ĠØ§Ø³Ø§Ø· ÛĮØ±ÛĮ
ĠÚ©Ø±Øª Ø§Ø³Ùĩ
ĠÙħØ³Ø¬ Ø¯ÛĮ
o o
Ùģ ÛĮØª
ĠØ§Ø³Øª Ø§Ø±Øª
ĠÙĤ ÙģØ³
Ø³ÛĮ ÙĪÙħ
ÙĪÙĦ Ø§ÛĮØª
ĠÙħØ³ Ø¤
ĠØªÙĨ Ø§ÙĪØ¨ÛĮ
Ú©Ø§Ø± ÙĦ
ĠÛ±Û² Û¹
ĠÙħØªØ¹ Ø§Ø¯ÙĦ
ĠÙ¾Ø§Ù¾ ÙĪØ¢
ĠÚĺÙĨ Ø±Ø§ØªÙĪØ±
ĠÛ±Û¸Û· Û¹
ÙħÛĮÙĦÛĮ ÙĪÙĨ
ĠÙģØ±Ø§Ùĩ Ø§ÙĨÛĮ
ĠÙĨ ÙĪÙĨ
ĠÙĨ Ú¯Ø±ÛĮ
ĠØŃ ÛĮØ±Øª
ĠÚĨ ÙĦÙĩ
ĠÙħØ¯ ÙĦÛĮ
ÙĦØ§ ÙĪØ±
ĠØ´ÙĪØ± Ø§ÙĩØ§ÛĮ
ĠÙħØ³Øª ÙĨØ¯ÛĮ
Ø®ÙĪ Ùģ
ĠØªÚ© ÙĦÛĮÙģ
ĠM ich
ĠØ§ÛĮØ³Øª Ø§
ĠØ³Ø±ÛĮØ¹ Ø§
oc i
ĠØ¨Ø³Øª Ú¯Ø§ÙĨ
ĠÚ©Ø§Ø±Ø¯ Ø§ÙĨÛĮ
c c
ĠÙ¾ Ø§Ùģ
ĠÙ¾ Ø§ÙĨØª
Ø· Ø±ÙģÛĮ
ÙĪÙĨØ¯ Ú¯Ø§ÙĨ
ĠÙħÙĦ Ø§Ú©
ĠÙħØ§Ø¯ ÙĪÙĨ
Ø§ÙģØ² Ø§ÛĮØ¯
ĠÙħÙĨØ² ÙĦÙĩ
ĠØ§Ø¨ÙĪØ³ Ø¹ÛĮØ¯
ĠØ³Ø±Ù¾ÙĪØ´ ÛĮØ¯Ùĩ
ĠØªÙĩÙħ Ø§Ø³Ø¨
ĠÙħ Ø¨Ø§ÙĦ
ĠØª Ø²Ø§Ø±ÛĮ
ĠÙĨ ÙĨÚ¯
ĠÚĨ ÙĪÚ©
Ø¸ ÙĩØ±
ĠØªØ± ÙĨ
ĠØ´Ø§Ùĩ Ú©Ø§Ø±
ĠØŃØ¶ ÙĪØ±ÛĮ
ĠØ³ÛĮÙĦ Ø§Ø¨
Ø³Ùģ Ø§Øª
ĠØ±Ø§ÙĨ ÙĨØ¯Ú¯Ø§ÙĨ
ĠÙĤÙĪÙħ ÛĮØª
ĠØ§ÙĤØ§ÙħØª Ú¯Ø§Ùĩ
ĠØ¹Ø· Ø§
Ø±Ú©ÙĨ ÙĨØ¯Ùĩ
ĠØ±Ø®Ø¯ Ø§Ø¯ÙĩØ§ÛĮ
u ct
ÙĨ Ú©ÙĪ
ĠØ¨ Ú©Ø´ÙĨØ¯
Øµ Ø§ÙĦ
ØªØ± Ø§Ø´
ĠÙĦ Ø¦ÙĪÙ¾
Ø§Ú© Ø§Ø±ÛĮ
ĠØ§ÙĦ ÙĪ
ĠØ±ÛĮ Ø®ØªÙĨ
ĠÛ³Û ³Û°
ĠÙĩÙħØ±Ø§Ùĩ Ø§ÙĨ
ĠÙĪÙĦ Ø§ÛĮØªÛĮ
ĠÛ±Û´ Û¶
ĠØ¨Ø® Ø§Ø±ÛĮ
ĠØªÛĮØ± Ø§ÙĨØ¯Ø§Ø²
ĠÙħØ¸ ÙĩØ±
ĠÚ©ÙĨØ³ÙĪÙĦ Ú¯Ø±ÛĮ
ĠØ¨Ø±ÙĪÚ© ÙĦÛĮÙĨ
ĠÙĨÚ¯ÙĩØ¨Ø§ÙĨ Ø§ÙĨ
ĠØ¬Ø±ÛĮ Ø§ÙĨÛĮ
ĠØªØ¹ÙħÛĮØ± Ø§Øª
ĠØªØ´Ø±ÛĮÙģ Ø§Øª
Ġ ïº
Ø¯ ÙĪÙĨÚ¯
Ú© Ø´Øª
ĠØ³ ÛĮÙĨÛĮ
Ø§Ú© Ø³ÙĨ
ĠÙĨÙħØ§ÛĮ ÛĮØ¯
ĠÙħØº Ø°ÛĮ
ĠÛ±Û´ Û´
ĠØ¢Ø³ Ø§ÛĮØ´
ĠØ¹ÙĤ Ø±Ø¨
ian a
ĠÚ©Ø§ÙĪ ÙĪØ³
Ø§ÙĨØ¯ÙĪ Ø¢Ø¨
ĠÛĮØ§Ø±Ø§ÙĨ Ø´
Ø±ÛĮÚĨ Ø§Ø±Ø¯
ĠØªØ§ÛĮØª Ø§ÙĨ
Ú©Ø§ÚĨ ÙĪØ§ÙĨ
t t
ÙĦ Ø§ÙĪ
Ø¨ ÙĩØ§
Ø¨ ÙĩØ±
Ø¨ ÙĦÙĨØ¯
Ø« ÙĤ
ĠÙ¾Ø± Ø±ÙĨÚ¯
ĠØ¨Ø±Ú¯ Ø´ØªÙĩ
ØªØ§ ÙģØª
at ed
ĠÙĤØ§ÙĨÙĪÙĨ Ú¯Ø°Ø§Ø±ÛĮ
ĠÙĪØ§Øª Ø³ÙĪÙĨ
ĠØªØ§Ø¨ÙĦ ÙĪÙĩØ§ÛĮ
ĠÙĦØ±Ø² Ø´
ĠÙĪØ±Ø´Ú© Ø³ØªÚ¯ÛĮ
ĠØ±Ø§ÙĦ ÛĮÙĨØ²
Î »
ÙĪ ÙĪØ±ØªÙħØ¨Ø±Ú¯
Ø´ ÛĮÙħÛĮ
ĠØ® ÙħÛĮÙĨ
Ø· Ø±ØŃ
Úĺ ÛĮÙĨ
ĠØµ ÙģØ§
ĠÙĨØ¯ Ø§Ø±ÛĮÙħ
ĠØ±Ø¦ ÙĪØ³
ĠÙĤØ¯ Ø±Ø¯Ø§ÙĨÛĮ
ÙĨØ§Ùħ Ø¯
ĠI l
ĠÙĦØº ÙĪÛĮ
ĠØ§Ø´Øª Ø§ÛĮÙĨ
ĠÛ±Û¸Û· Û¶
ĠØ¨ÛĮØ² Ø§ÙĨØ³ÛĮ
ĠÙĩÙĪÙĦ ÙħØ²
ĠÙĦÙĪØ¨ ÛĮØ§
ĠØªÚ©ÙĪØ§ÙĨ Ø¯ÙĪ
Å Ł
Ø§Ø±Ø¯ Ø§Ø±
Ø¢ Ùģ
ĠØ³Ø± Ø²ÙĨØ´
ĠØ³Ùģ Ø§Ø±Ø´ÛĮ
ĠÙħØº Ø§ÛĮØ±
ĠP er
ĠØ³ÛĮØ¯ Ø¹ÙĦÛĮ
ĠØŃØ³ÛĮÙĨ Ø¹ÙĦÛĮ
Ø¢ÙĨ ÚĨÙĩ
Ġd i
ĠÙħØ®ÙĦÙĪØ· ÛĮ
ĠØ¨ÙĩÙħ Ø¦ÛĮ
ĠÙħÙĨÚ¯ ÙĨØ²
Ùĩ Ø¯
ĠØ® ÙĨØ¬
ĠØ¹ÙĦ ÙĪÛĮØ§ÙĨ
ĠØ¨ÙĦ Ø®ÛĮ
Ø®Ø§ÙĨ Ùħ
ĠØ¹Ø± ÙĤ
ÙĩÙĨ Ø±ÛĮ
ĠÛ±Û¸Û· Û³
ĠØ®Ø±ÛĮ Ø¯Ø§Ø±Ø§ÙĨ
ĠØ§ÙĨÙĤÙĦØ§Ø¨ÛĮ ÙĪÙĨ
ĠØªØ° Ú©Ø±Ùĩ
ĠØ³Ø±Ú¯ Ø¦ÛĮ
htm l
c ity
n ews
Øª ÙĪØ±ÛĮ
ĠÙĤ Ø±ÙĪÙĩ
ĠØ² Ø¨ÛĮØ±
ĠØ· Ùĩ
ĠÙĪÛĮ Ø³Ú©
ÙħØ¯ ÙĨ
ĠØ¨ÛĮ Ø§Ùħ
ĠÙĩØ³Øª ÛĮØ¯
ĠØ¢Øº ÙĪØ´
Ø®ÙĪ Ø³Øª
ĠØªØ§Ø¨ ÙĪØª
ĠÙĦØŃ ÙĨ
ĠØ³Ø®ÙĨ Ø±Ø§ÙĨ
ÙħØ§Ùĩ Ùĩ
ĠØ¨Ø±Ø§Ø¯Ø±Ø§ÙĨ Ø´
ĠØ²Ø§Ùĩ Ø¯ÛĮ
ĠÚ©ÙĪÙĩÙĨ ÙĪØ±Ø¯
z a
ĠØ¹ Ø§Ø±ÛĮ
ĠÙĦ Ø·ÛĮÙģ
Ø§Ø¬ ØªÙħ
ĠØ¯Ø§ÙĨØ´ ÛĮ
ĠØ§Ø® Øª
ĠØ§ÛĮØ± ÙĪÛĮØ²
ÙĪØ³ÛĮ Ø³ØªÙħ
ĠØ³Ø¹ ÛĮØ¯ÛĮ
ĠÚ¯Ø§Ø±Ø¯ ÛĮÙĨ
ĠØ§Ø¯Ø± Ø§Ø±ÛĮ
Ø¬Ø¹ ÙģØ±
ĠÙĤØ²ÙĦØ¨ Ø§Ø´
ĠØ¨Ø·ÙĦ ÙħÛĮ
Ġ mu
ÛĮÙĨ Ú¯Ø±
ĠÚ¯ ÙĪÙĦØ¯
ÙĪÙħ ÙĪØ±Ùģ
Ø§Ùģ ØªÙĩ
ĠÙħØ± Ø®Øµ
ĠÙĨÙĤ Ø§Ø¨
ĠØ§Ø¨ ÙĪØ·
ĠÚ©ÙĦ ÙĩØ±
ĠÙģØ±ÙĪ Øº
ĠÚĺØ§ÙĨ ÛĮØ±ÙĪ
ĠÛ²Û¸ Û°
ot h
Ø¨Ø§Ø¨ ÙĪÙĩ
ĠØ§Ø¨ÙĪ Ø¹ÙĦÛĮ
ĠÙħÛĮÚ© Ø±ÙĪÙģ
ĠÙħÛĮÙĩ ÙħØ§ÙĨ
ĠØŃÙĪØ¶ ÚĨÙĩ
ĠØ¨ÙĦÛĮ Ø·
ĠÚ© Ø§Ø³ÛĮ
ĠÙģ ÙĪØ¬
ĠØªØ§ ÙĪ
ĠÙħØªØ± ÛĮÚ©
ĠA er
ĠØ¨Ø±Ø¬ Ø³ØªÚ¯ÛĮ
ÙħØ§ÙĦ Ø§
Ù¾ÙĨ ÙĩØ§
ĠØ§Ø³ØªÙĤ Ø§ÙħØª
ĠÙĨØ§Ú© Ø§ÙħÛĮ
Ø®Ø¯ Ø§ÛĮ
ĠÙĨØ§Ù¾Ø§ÛĮØ¯ Ø§Ø±
3 1
ĠØ¢ ÛĮØ³
ÛĮÚ© ÙĪÙĦ
ÛĮÙħ ÙĪ
ØªÛĮ ÙĪÙħ
ĠØ· Ø§Ùĩ
ĠÚĨÙĩØ§Ø± Ø±Ø§Ùĩ
ĠØ·ÛĮ ÙģÛĮ
Ø±Øª ÛĮÚ©Ø±
ĠØ§ÛĮØ³Øª Ø§Ø¯Ú¯ÛĮ
ĠØ¯Ø§ÙĦ Ø§ÙĨ
ÙħÙĪØª ÙĪØ±
ĠØ«Ø±ÙĪØªÙħÙĨØ¯ ØªØ±ÛĮÙĨ
ĠÚĨØ³Ø¨ ÙĨØ¯Ú¯ÛĮ
ĠÙħØªØ§Ø¨ ÙĪÙĦÛĮØ³Ùħ
ĠÚĨØ±ÛĮÚ© ÛĮ
Ø§ÙĦ ÛĮØª
ĠØ¹ ÙĨÙĪ
ĠÙĦ Úĺ
ĠÙħÙĪ ÙĪÙħØ§ÙĨ
ĠØ³ÛĮ Ú¯
ĠØ¨Ø®Ø´ Ø´
ĠØ§Øª Ø§ÙĨ
ol e
Ø§Ø³Ùħ Ø§Ø¹ÛĮÙĦ
ĠÙ¾ÙĨ ÙĦ
ĠÚ¯ÙĨ Ø¨
ĠÛ±Û¸Û· Û¸
ĠØ±Ø§Ùħ Ø³Ø±
ĠÙģÙĪÙĦÚ©ÙĦ ÙĪØ±
ĠÙĨÛĮÙĪÙĩÙħÙ¾ Ø´Ø§ÛĮØ±
Ø§ ÙĪÙĨØ¯ÛĮ
ĠØ´ Ø§ÙĪ
ĠÙģ ÙĪÙĨØª
ĠØ§Ùħ Ø§ÙĨØª
Ø¢ ÙģØª
Ø´Øª Ø¯Øª
ÙĪÙ¾ Ø§
Ø±ÙĪØ¯ Ø®Ø§ÙĨÙĩ
ĠØ§Ø³Ù¾ Ø§ÙĨÛĮ
ĠØ§Ø³ØªÙĨ Ø¨Ø§Ø·
Ø§Ø³ØªØ± Ø§ÙĦÛĮØ§
ÙħØµ Ø±Ùģ
ĠØ§Ø¬Ùħ Ø§Ø¹
Ġ #
Ùĩ ÙħÛĮÙĨ
ÙĤ Ø§Ø¯Ø±
ØŃ Ø³Ø§Ø¨
ĠÚ¯ ÙĪØªÛĮÚ©
ĠØ· ÙĦØ³
ĠÙĦ Ø§ÙĪØ±
Ø§Ø® ÙĪ
ĠÚĺ ÙĪ
ĠØ³Ø§Ø² ÙĨØ¯Ú¯ÛĮ
ĠØ±Ø³ Ø§ÙĨØ§
ØªØ¨ Ø±ÛĮ
Ù¾ÙĦ Ø±
ĠÙħÙĪØ± ÙģÛĮ
Ø¨ÛĮØª Ø§ÙĦ
ĠÙĦÙĨÚ¯ Ø±
ÙĨÙĤ Ø´
ĠØ³ÙĪØ³ ÙĨ
ĠÙģØª ÙĨÙĩ
ĠØ§Ø±ÛĮÚ© Ø³ÙĪÙĨ
ĠÙģØ±Ø§Ø®ÙĪØ§ÙĨ Ø¯
ĠØªØ§ÙħÙ¾ Ø³ÙĪÙĨ
( "
ÛĮ ÙĪØ´ÛĮ
ĠØª ÙĨÚ¯ÛĮ
ĠØ² Ø§ÛĮÛĮ
Ø§ÙĨÛĮ Ø¯Ùĩ
Ø¦ ÛĮØ¯
ĠÙħØ¬ Ø§Ø±
ĠÙħØ¬ ÙĨÙĪÙĨ
ĠØªÙĨ Ø§ÙĪØ¨
Ø¯Ø§Ø± Ùħ
ĠÚ¯ÙģØª Ø§Ø±ÛĮ
Ø¨ÙĪØ± ÙĪ
ĠØ¢Ùĩ ÙĨÛĮÙĨ
ĠØŃØ¨ÛĮ Ø¨ÛĮ
ĠØ§Ú©Ø³Ù¾ Ø±Ø³
ÙĨ Ø±Ùħ
Ú© ÛĮØª
Ø§ÙĨ ÙĦÙĪ
ĠÙĪ Ø§ÙĤ
Ø±ÙĪ Ø¨ÛĮ
ĠØ³Ø± ÙĦØ´Ú©Ø±
ĠØ§ÙĦ Ø±ØŃ
ĠÙĨÛĮ ÚĨÙĩ
ĠÙħØ§ÙĨ ÙĪÛĮ
ĠØ¬Ø§ÙĨ Ø¨Ùĩ
ĠC or
ĠØ¯ÙĨ Ø§
ÙĪØ³Øª ÛĮÙĨ
ĠØ¹Ø· Ø§Ø±
ĠÙĦØ¦ÙĪÙĨ Ø§Ø±Ø¯ÙĪ
ĠØªØŃØ±ÛĮ Ø±ÛĮÙĩ
ĠØ¢ØªÙĦ Ø§ÙĨØªÛĮÚ©
ĠØªØ±Ø§Ú©ØªÙĪØ± Ø³Ø§Ø²ÛĮ
ĠØ§Ø´ØªÛĮØ§ ÙĤ
ĠØ¯Ø±Ø¨Ø±Ø¯Ø§Ø± ÙĨØ¯Ùĩ
! "
Ø§Ø± ØªØ´
ĠÙ¾ Ø°ÛĮ
Ø§Ø² ÙĪÙĦ
ĠÚĨ Ø±Ø¯
Ø§Ø²ÛĮ Ø§Ø±
ĠØ¯Ø§Ø´Øª Ùħ
ĠØ³Ø¨ Ø§Ø³ØªÛĮÙĨ
ĠØ®ÙĪØ§ÙĨ ÛĮÙĨ
ĠØ´ÙĩØ±ÛĮ Ø§Ø±ÛĮ
Ø¬Ùħ ÙĨØ¯
ĠØ§Ø³ØªØ§ÙĨØ¯Ø§Ø±Ø¯ Ø³Ø§Ø²ÛĮ
ĠÚ©Ø§Ø±Ø¢ Ú¯Ø§Ùĩ
ĠØ¹Ø§ÙĦ ÙħØ§ÙĨ
ĠÙ¾Ø±ÙĪØ³Øª Ø§Øª
ĠØ¯ Ú©ÙĪØ±
Ø´ ÙĪÙĤ
ÙĪÙĨ ÙĦÙĪ
ĠØ¨Ø§ ÙģØªÛĮ
Ø¸ Ø±
ĠÙ¾Ø§ÛĮ ÙĨ
ÛĮÚ©ÛĮ Ø§ÙĨ
ĠØªÙĪØ§ÙĨ Ø§
ĠØ§ÙĦÙģ Ø¨Ø§
ĠØ±ÙħØ² Ú¯Ø´Ø§ÛĮÛĮ
ĠÙĤØ¯Ø±ØªÙħÙĨØ¯ ØªØ±ÛĮÙĨ
Ø§Ø³ÙĦ Ø§ÙħÛĮ
T S
Ø¯ ÙĪØ´
Ú© Ø§ÙħÛĮ
Ø§Ø± Ø²
ÙĪØ§ÙĨ Ø¯
ĠÚ©ÙĨ Ú©ÙĪØ±
Ø´ÙĨ ÙĪØ¯
ĠÙ¾Ø± ØªÙĤØ§ÙĦ
ĠØªØ± ÙĨØ±
ĠÙ¾ÛĮ Ø¬
ĠM ont
Ø§ÙĦÙĦÙĩ ÛĮ
Ø§ÙģØª ÙĨØ¯
ÙĪÚ©ÛĮ ÙĪ
ĠÙħØªÙħ Ùħ
ĠÚ©Ø§Ø³Øª Ø§Ø±ÛĮÚ©Ø§
Ø®ÙĪØ§Ø± Ø§ÙĨ
4 4
ĠØª Øº
Ø§Ø¨ ÛĮØ±
ÙģØ± ÙħØ§ÛĮ
ĠØ¯ÙĪ Ú¯Ø§ÙĨ
ĠØªØ§ Ù¾
ĠØ²ÛĮØ± Ø´Ø§Ø®Ùĩ
ĠØ²ÛĮ Ø±Ø¯
ĠØ¨Ø¯ Ø§ÙĨØ¯
ĠÙĤØ¨ ÙĪÙĦÛĮ
ĠÙģØ§Ø± Ø§Ø¨ÛĮ
ĠÙĩÙĨØ¯ ÙĪØ§Ø±ÙĪÙ¾Ø§ÛĮÛĮ
ou n
ĠÙħÛĮÙĨ Ø§Ø¨
ĠÚ©ÛĮÙħ ÛĮØ§
ĠØ¨ÙĨÙĪÛĮØ³ Ø¯
s ur
Î ¹
Ġ u
ĠØ³ ØºØ¯
ĠØ´ ÙģØª
ĠÙĨ Øµ
Ø§Ø¹ ÙĦÛĮ
ĠÙħØ¬ Ø°
ĠC a
ĠC o
ĠT ur
ou gh
ĠH ar
Ġs p
ĠØ§ØªØ§ÙĤ Ú©
ĠÛ±Û¸Û´ Û¸
ĠØ¢ÙĦÙĪÙħ ÛĮÙĨ
ĠØ¹ØµØ¨ Ø§ÙĨÛĮ
ĠÙħÚ©Ø§Øª Ø¨
Øª ÙĪÙĦØ¯
Øª ØºÛĮÛĮØ±
Ú¯ ÙĪØ§Ø±
ĠØ¬ Ø§ÙĪÙĩ
ĠØ¬ Ø§ÙĨØ¯Ø§Ø±
ĠØ®ÙĪØ¯ Ú¯Ø±Ø¯Ø§ÙĨ
ĠØ¨Ø¯ ÙĪÛĮ
ÙĪØ¦ ÛĮØ¯ÛĮ
ĠØ±Ø³ ÙĪØ¨ÛĮ
ĠÙģØ±Ø§ÙĨ ÚĨ
ĠØ¢Ø± Ø´ÛĮÙĪ
ĠØ³ÙĨÚ¯ Ø§ÙĦ
ĠØ¯Ùģ Ø¹Ø§Øª
ĠE ast
ĠÙĨÚ¯Ùĩ Ø¯Ø§Ø±ÙĨØ¯Ùĩ
ĠÙĨØ§Ø´ Ø±Ø§ÙĨ
ĠØ¯Ø±Ø¢ÙĪØ±Ø¯ ÙĨ
Ù¾ÛĮÙĪÙĨØ¯ ÙĨØ¯
ĠØ§ÙģØ´ Ø§ÛĮ
ĠÙĨÙģÛĮ Ø³
ĠÚ©Ø§ØªØ§ÙĦ ÙĪÙĨÛĮØ§
f ield
Ġ are
ĠÙģØ± ÙĪÙħ
ĠØ±ÙĪØ² ÙĪÙĦØª
ÙĪÙģ ÙĪ
is ion
ĠÙ¾ÙĦÛĮ Ø³ÛĮ
ĠØªØ±ÛĮ Ø§Ú©
ĠÙģÙĪÙĦ Ú©Ø³
ĠÙħÙĪÙĨØª Ú¯
ĠÛĮØ§Ø± Ø§ÙĨÙĩ
ĠØªØ¹ÙĦÛĮÙħ Ø§Øª
ĠÙħÙħÙĦ ÙĪ
ĠÙħØ³Ùħ ÙĪÙħ
a il
b le
ĠØ± Ø³ØªÙĩ
Øµ Ø¯Ø±
ĠØ· Ø±Ø¯
Ø±Ø¨ Ø§
ĠØ§Ø± ÙĪ
ĠØ§Ø¯ Ø±ÛĮØ³
en er
ĠÛ±Û¶ Û·
ĠØ§Ø³Ùħ Ú©
ĠØºØ¶ Ø±ÙĪÙģ
ĠØ§ÙĩÙħ ÛĮØªÛĮ
ĠÙ¾ÙĨÚ¯ ÙĪØ¦ÙĨ
ĠØ¨ ÙģØ±Ø³ØªØ¯
ĠÙĪ ÙĨØª
ĠÙ¾ Ú©
ĠØµ Ø§ÙģÛĮ
Ú¯ÛĮ Ø§Ùĩ
Ø§Ù¾ Ø§
ĠØ¨ÙĦ Ø§Ø¯
ĠØ±Ø§Ùĩ Ø¨
ĠÛ±Û³ Û°Ûµ
Ø¬Ø§Ùħ Ø¹Ùĩ
ĠØªÙĪÙ¾ ÙĪÙĦÙĪÚĺÛĮ
Û²Û°Û±Û ·
Ø¹ÙĦ Øª
Ø¢ÙħØ±ÛĮÚ© Ø§
ĠØ´Ø±Ø¨ Øª
ĠÙĪ ÙĪÙĦÙģ
Ú¯ Ø§ÙĪ
ÙĨØ¯ ÙĨ
ĠÙģ Ø§ÙĨÛĮ
ĠÚĨ ÛĮÙĨÙĩ
ĠÙħØª ÙĦ
ĠØ¶ ØŃØ§Ú©
ĠÙħÙĦ Ú©Ø´
en tr
ÙĨÙĪ Ø§
ow s
ĠÛ±Û³Û±Û ¹
ĠÙħØªÙħ Ø§Ø¯ÛĮ
ĠØ§ÙĦØ¹ Ø§Ø¯Ùĩ
ĠØ²Ø§ÛĮ ÙĨØ¯Ùĩ
ĠØ²ÛĮÙħ Ø¨Ø§Ø¨ÙĪÙĩ
ĠÙħÛĮØªÙĪ Ú©ÙĨØ¯
R S
e in
ĠÚ© Ù¾ÙĨÙĩØ§
ĠØ¯Ø± ÛĮÙĨ
Ù¾ Ø§Ø±Ùĩ
ĠÙģØ± Ø¢ÙĪØ±ÛĮ
ĠÛĮ ÙĤÛĮÙĨ
ĠÙħØ± Ø´Ø¯
ĠØªØ± ÙħÙĪ
ĠØ®Ø· Ø§ÙĩØ§ÛĮ
ĠÙģÙĦ ÛĮÚ©Ø³
ĠÛ²Û² Û´
ĠÚ©Ø§Ø³ Ù¾ÛĮÙĨ
ĠÙħØ·ÙĦ Ø¨ÛĮ
T C
ã Ĥ
Ø± Ø¬
ÙĨ Ø³ÙĦ
Ø§ÙĨ ØªØ´Ø§Ø±
ĠØ¯ Ø¬ÙĦÙĩ
Ø§ÛĮ Ø¨
ĠØ¨Ø± ÚĨ
ĠØ§ÛĮÙĨ Ø·ÙĪØ±
ĠØ¨Ø§ ÙģØ±
ĠÙĩÙħ Ø®ÙĪØ§ÙĨÛĮ
Ø¢ ÙħÛĮÙĨ
ĠÛĮ Ø§Ø´
Ø²Ø§Ø± ÙĩØ§ÛĮ
ĠØ¹ÙĦ Ø§Ø¡Ø§ÙĦØ¯ÛĮÙĨ
ĠØ§ØŃ ÙħÙĤ
ĠØ§ØŃ ØªØ³Ø§Ø¨
ĠØ§Ø·ÙĦØ§Ø¹ ÛĮÙĩ
ĠÛ±Û· Û¶
ĠÚ¯ÙĪØ´ ØªÛĮ
ĠØ®ØµÙĪØµ ÛĮØª
ÙģØ±Ø§ÙĨ Ø³Ùĩ
ĠÙħØ§Ú© ÙĪ
ĠØ§Ø´ØªØ¨Ø§Ùĩ Ø§Øª
ĠØ¹Ø§Ø¯ÙĦ Ø§ÙĨÙĩ
ĠÚ©Ø§Ø±Ú¯Ø²Ø§Ø± Ø§ÙĨ
ĠÙ¾Ø°ÛĮ Ø±Ø¯
7 7
× Ļ
ÙĦ ÙĪØª
ĠØ¬ ÙĦÙģØ§
ĠÛ² Û³Û·
ĠØªÙĪ Ú©ÙĦÛĮ
ĠÚ©Ø§Ø± ÙĨØ§Øª
ĠÙ¾ÛĮØ´ Ø±Ø§ÙĨÙĩ
ĠØªØ± Ùĩ
ĠØ¯Ø§Ø¯ Ú¯Ø§ÙĩÛĮ
er y
ĠØ³ÛĮØ³ØªÙħ Ø§ØªÛĮÚ©
ĠØ¯ÛĮØ¯ Ùħ
Ø§ÙĦØ¯ Ø±Ø§ÙĨ
ĠÛ±Û³ Û°Û¸
ĠÛ²Ûµ Ûµ
ĠØªÛĮØ± ÙĪØ¦ÛĮØ¯
Ø·Ø± Ø§ØŃÛĮ
ĠÚ©Ø±ÛĮØ³Øª ÛĮÙĨØ§
ĠÛ±Û³Û±Û ±
Û²Û°Û±Û µ
ĠØ§ÙģØ²ÙĪØ¯ ÙĨÛĮ
Ú© ÙĪÚ©
ĠØ¯ ÙĦØ³
Ø¨ ÙĦÙĪ
Ø§ÙĦ ÙħÙ¾
ĠØ§ÛĮ ÙĪÙĦ
ØªÛĮ Ø³Ùħ
ĠÙħÙĪ ØªØ³
Ø¢ Ø«Ø§Ø±
ĠØ§ÙĦ Ø·
ĠÚ¯Ø± ÙĪÛĮØ¯
ĠØ³ÙĨ ÙĤØ±
ÙĪØ³Øª ÛĮ
ĠÙģÙĤ Ø±Ø§Øª
ĠÚ©Ø¯ Ú¯Ø°Ø§Ø±ÛĮ
ĠÙĨØ± Ú¯Ø³
Ú©ÙĦÛĮ Ø³Ø§ÛĮ
ĠØ¯Ø§ÙĪ Ø·ÙĦØ¨Ø§ÙĨ
av e
ĠÙħØ±Ø¬ Ø§ÙĨÛĮ
ĠÙĤÙĦÛĮ Ø§ÛĮÛĮ
ĠØ¨ÙĪÙĩ Ùħ
ĠØ§ÙĪÚ¯ Ø§ÙĨØ¯Ø§
ĠÚ¯Ø¦ ÙĪØ±Ú¯
ĠÙĦØ§Ø´ Ùĩ
ĠØ´ ÙĪØ§ÙĦ
Ù¾ Ú©
ĠØ¢ ÙĪØ§
ĠÙĩ ÙĦØ³
Ø® Ø·Ø±
ÚĨ ÛĮÚ©
ĠÚĨ ÛĮÙĦ
Ø§Ùģ ÙĤÛĮ
ĠÚ©ÙĪ Ø«Ø±
ĠÙĤÙħ Ø§Ø±
ĠÙĨÛĮÚ© ÙĦØ§ÛĮ
ĠØ¢ÙĨØ¯ Ø±ØªÛĮÚ©Ø±
ĠØ®ÙĪØ§ÙĨØ¯ ÙĨØ¯
ĠÙ¾Ø°ÛĮØ±ÙģØª ÙĨØ¯
sh ire
ĠØ²ÙĨÚ¯ ÙĨÙĩ
ĠØ«ÙĦ Ø§Ø«
k e
ĠØ³ ÙħØ¨
ĠÙħÛĮ ÙĪØ²
ĠØ® ÛĮÙĦ
ĠÚ¯ ÙĪØ±ÛĮ
Øµ Ø±Ùĩ
ÛĮØª Ø±ÛĮ
ĠØ· Ø§Ø¹
ĠÙĤØ· Ø¹ÛĮØª
ĠØ¢Ø° Ø±ÙħØ§Ùĩ
ĠÛ±Û´ Û²
Ø§ÙĨÚ© Øª
ĠÙĪØ§ÙĦ Ø§Ø³
ĠØ§ÛĮÙĦ Ø®Ø§ÙĨ
ĠÙ¾Ø¯ Ø±ÙĪ
ĠÙħØªÙģ Ú©Ø±
ĠØ±ÙĪÛĮÚ© Ø±
Ø¨Ø³ÛĮ Ø§Ø±ÛĮ
ĠØ§ÛĮÙĨØªØ±ÙĨ Ø´ÙĨØ§ÙĦ
u z
ĠØ¨ Ù¾Ø°ÛĮØ±Ø¯
Ø§ÛĮ ÙĤÛĮ
Ø´ ÙĨÛĮ
ĠÙģ Ø³ÛĮÙĦÛĮ
ĠØ§Ø¨ Ø±ÛĮØ´
ĠØ¨Ø¯ Ø§ÙĨÛĮÙħ
Ø§ÙĪ ÙĪ
ĠØªØ¹ ØµØ¨
ĠÙħÙħ Ø§ÙĦÚ©
ĠØ§Ø³ÙĦ Ø§ÙĪ
ĠØ³Ø§Ø³ Ú©Ø§ÚĨÙĪØ§ÙĨ
ĠØ¬Ø§ ÙĪØ¯Ø§ÙĨ
ĠØ¯Ø±Ø¨Ø§Ø±ÛĮ Ø§ÙĨ
c es
ØĮ âĢĮ
ØŃ Ø³
ĠØ±ÙĪ Ø¨ÙĨ
ÙĨÚ¯ Ø±ÙĪ
ĠØ§Ø¨ Ø±ÙĪ
ĠÙĨÙĪØ± Ø§ÙĦØ¯ÛĮÙĨ
ĠÛ±Û³ Û°Û¶
Ø¨Ø±ÙĪ Ú©
ĠÙĨØ§ÙĨ Ø³ÛĮ
ÙģØ±Ø³Øª ÙĨØ¯
ÙĤÙĩØ± ÙħØ§ÙĨÛĮ
ĠØ²Ø§Ùħ Ø¨ÛĮ
Ú© Ø±Ú©
ĠÚ© ÙĪÙĨÛĮ
ĠØ§Ø³Øª Ù¾
ĠÚĨ Ø·ÙĪØ±
ĠØ³Ø± Ú¯Ø±Ø¯Ø§ÙĨ
ĠÙ¾Ø± Ø§ÙģØªØ®Ø§Ø±
ĠÙĦÛĮ Øª
ar m
ĠN ov
ĠØªØ³ Ø±ÛĮØ¹
ĠÙħØ¨Ø§Ø± Ø²Ø§ÙĨ
ĠØ§ÙĦÛĮ ÙĪØ±
ØµÙģ ØŃÙĩ
ĠÙħÙĨØ² ÙĪÛĮ
ĠÛĮÙĪÙĨÛĮÙĪØ± Ø³Ø§ÙĦ
Ø§Ø± Ø§Ú©
ĠØ± Ø§ÙĨØ¯ÙĨ
ĠÙħÛĮ Ø±Ø§
Ø³Øª Ø§Ø±
ĠØ¨Ø± ÙĨØª
ÙĪÙĦ Ø§Øª
ĠÙħØ³ Ø§Ø¹Ø¯
ĠÛ±Û³Û ¸
ĠØ¨ÙĨ Ú©
ĠØ§ÙĨØª Ø³Ø§Ø¨
ĠF r
ĠØŃØ¬ ÙħÛĮ
ĠÙĪØ§Øª Ø±Ø²
ĠØ§ÙĨØ³ Ø¯Ø§Ø¯
. [
u la
ĠÙ¾ ÙĪÚĨ
ĠØ¨Ø± Ú©Øª
ĠØ² ÛĮÙĨØª
ØªÙĪØ§ÙĨ Ùĩ
in i
ĠÚ©ÙĦÛĮ Ù¾
ĠØ·Ø±Ùģ Ø¯Ø§Ø±ÛĮ
ĠØ¨Ø§Ø²Ø§Ø± ÚĨÙĩ
ĠØªØ´ Ø§Ø¨Ùĩ
ĠØ¨Ø® ÙĪØ±Ø¯
ĠÚ©Ø§Ø±ÛĮ Ø²
Ø¢ÙĦ ÙĪØ¯
ÙĩÙĨØ± Ù¾ÛĮØ´Ùĩ
ÙħØ´Ùĩ Ø¯
6 5
E M
v el
Ø¨ ÚĨÙĩ
ĠØ´ ÛĮÙĦØ§
ÙĪØ± ÛĮÚ©ÙĪ
ĠÙģ ÙĪØ±Ø§
ÛĮÙĦ ÛĮÙĨ
ĠÚĨ Ø§Ø¯
ĠØµ ÙħØ¯
Ø¯Ø§ ÙĪÛĮ
ĠØ¹Ø¨ ÙĪØ±ÛĮ
ĠÛ±Û³ Û°Û¹
ĠF ran
ĠØ¹ÙĤ ÙĦÛĮ
ĠÚ©ÙĦØ§Ùĩ Ú©
Ø§ØªØŃ Ø§Ø¯
ĠØ¹ÙĨÙĪ Ø§ÙĨÛĮ
Ġ q
ĠØ´ ÙĨÚ¯
ĠÙģ Ø§Ø±ÛĮ
ÙĪÙĦ ÙĪØ´ÙĨ
ĠÛĮ ÙĪÙĩ
ĠØ¯Ø³Øª Ø´
ĠÙħØ±Ø¨ Ø¹ÛĮ
ĠÙħÙĨØ§Ø³Ø¨ Ø§Øª
Û²Û° Û°Û´
ĠØ¨Ø·ÙĪØ± ÛĮÚ©Ùĩ
ĠÙĩØ§ÙĨ ØªØ±
II I
ĠØ® Ø´ØªÛĮ
ĠØªÙĪ Ø§Ø²ÙĨ
Ø° Ø±Ø§Øª
ØªÙĪØ§ÙĨ Ùħ
ĠÙħÙĤ Ø§Ø±ÙĨ
ĠP ol
ia m
ĠØ³Ú© ÙĪÙĨ
ĠÚ¯ÛĮÙĦ Ø¨Ø±Øª
ĠÙĨØ± ÙĩØ§
ab le
ĠÙģÙĦØ§ÙĨØ¯ Ø±ÛĮ
ĠÙħØ´Ø§ÛĮ Ø®
ĠØ´ ØªÙħ
ĠØ¬ ÙĦÛĮ
ĠØ±ÙĪ Ø¦
ĠØ§ÙĪ Ùĩ
ØªÛĮ Ùģ
ĠÚ©Ø± Ø§Ú©
ØªØ±ÛĮÙĨ Ú¯
ÙħÙĪ Ø²ÛĮ
ĠØªÙĦ Ø§ÙĤÛĮ
ĠØªÙĤ Ø·ÛĮØ±
ĠÙħØ§Ùĩ Ø§ÙĨ
ĠØªØ¬ ÙĦÛĮ
ĠØŃÚ© Ø§Ú©ÛĮ
ĠÚ¯ÙģØª ÙĨÛĮ
ĠØ´Ú©Ø§Ø± ÚĨÛĮØ§ÙĨ
ĠÛ±Û¸Û¶ Ûµ
ĠÙĩØ§Ùģ ÙħÙĨ
ĠÙħÙĨØ³ÙĪ Ø®
ĠGeorg ia
ÙħÙĨØªØ¸ Ø±Ùĩ
ĠÙĤØ° Ø§ÙģÛĮ
ĠØ± Ø¬ÛĮ
ĠØ® ÙĦØ¨Ø§ÙĨÛĮ
ĠØ±ÙĪ Ø§ÛĮÛĮ
ĠÙħØ± ÙĪØ§ÙĨ
ĠØ§Ø¯ ÛĮÙĨ
Û¹ Û°Û°
ĠØªÙĤ ÙĦÛĮÙĦ
ĠØ³Ùģ Ø§ÙĦÛĮ
Ø´ÙĨØ§Ø³ Ø§ÙĨÙĩ
of f
ĠÙħØŃÙħÙĪØ¯ Ø¢Ø¨Ø§Ø¯
ĠÛ±Û¸Û¶ Û²
ĠÛ±Û¸Û¶ Û´
ĠÛ±Û¸Û· Ûµ
ÙħÙĪÙĦ Ú©
ĠÙĨÚ¯Ø§Ø± Ø®Ø§ÙĨÙĩ
ĠØ§ÙĦØ² Ø§ÙħÛĮ
ĠÙĦÙĪØ§Ø³ Ø§ÙĨ
Ùĩ Ø¯Ùģ
ĠÙħ Ø§ÙĨÙĩ
ĠØ¹Ùħ Ø§Ø±
ĠØ§Ø±ÙĪÙ¾Ø§ÛĮÛĮ Ø§ÙĨ
ĠÙħØ¹Ø§ÛĮ ÙĨÙĩ
Ø¢Ø±Ú© Ø§ÙĨØ²Ø§Ø³
ĠØ¨Ø§Ø²Ú¯Ø±Ø¯Ø§ÙĨ Ø¯Ùĩ
© Ù
ĠÙĪ Ø«
ĠØ¢ ÙĪØ§ÛĮ
Ø® ÙĪÙĨÛĮ
ĠØ¹ Ø§Øµ
Ø¯Ø± ÛĮÚ©
ĠØ¨ÛĮ Ø¶ÙĪÛĮ
ĠØ§Ùģ Ú©ÙĨ
ĠÙħØ· ÛĮØ¹
ĠÚ¯ÙĦ Ø§Ø¨ÛĮ
ĠØ±ÙĪØ¯ Ú©ÛĮ
ĠÚ©ÛĮ Ø§ÙĨÛĮ
ĠØ§ÙĨØ¨ Ø§Ø´ØªÙĩ
ĠÙģØ§ÙĨ ÙĪØ³
ĠÙĪØ²Ø± Ø§ÛĮ
Ø¬Ø´ÙĨ ÙĪØ§Ø±Ùĩ
L A
p en
ĠØ´ Ø§Øª
ĠØª Ø§Ø®
ĠÙĩ Ø§ÚĨ
Ø±ÛĮ Ø³ÛĮ
ĠØ±Ø§ Ú©ÛĮ
ĠÙĦ Ø§Ùģ
ÙĨÛĮ ÙĪÙħ
ĠÙħØ±Ú© ÙĪØ±ÛĮ
Ø®Øª Ú¯Ø§ÙĨ
ĠÚ©ÙĦ ÛĮÚ©
ĠÚ©ÙĪ Ø®Ø±Ø¯
ĠÚ¯ÛĮÙĦØ§ÙĨ ØºØ±Ø¨
ĠØ¯Ø±Ø¢Ùħ Ø¯ÙĩØ§ÛĮ
Ø®Ø¯ Ø§ÛĮÛĮ
ĠØºØ± ÙĪØ±
ĠØªØ²ÛĮÛĮÙĨ Ø§Øª
ĠØ¹Ø° Ø§Ø¨
ĠÙħÙĪÙģ ÙĤÛĮ
l ing
Ú© Ø´ÙĨ
ĠØ¨ Ø®ÙĪØ§ÙĩÛĮÙħ
ĠÙĨ Ø¦ÙĪ
ĠØ± Ø§Ø´Ø¯
ĠÙĩ Ø§Ø¬
Ø° Ø§
ÙĪØ±Ø¯ ÙĨ
ÙĪØ´ Øª
ĠÚ©ÙĦ ÙĪÙ¾
Ø§ÙĨØª Ø³
ĠØªØ® ØªÛĮ
ĠØªØ® ÙģÛĮÙģ
ĠØ²ÙĨØ¯ ÛĮÙĩ
ĠÙĨÙĪØ´Øª ÙĨØ¯
ĠØ§Ù¾ ÛĮØ¯
ØŃÙħ ÙĦÙĩ
ĠÙ¾Ø§ÙĨØ²Ø¯Ùĩ ÙħÛĮÙĨ
ĠØªÙģØ± Ø´
ĠÙ¾Ø±Ú©Ø§Ø± Ø¨Ø±Ø¯
ĠØ¢ÙĨØ§Ùĩ ÛĮØªØ§
W E
Ø± Ø§Ú©
ĠÙħÛĮ Ø´Ø¯
ĠÚ¯ ÛĮØ³
ĠØ³Ø± Ø§ÙħÛĮÚ©ÛĮ
ĠØ³Ø± Ø¢ØºØ§Ø²
Ø¹Ùĩ Ø¯ÛĮ
ĠÚ¯Ø±ÙģØª Ú¯ÛĮ
ĠØªØ¹ Ø±ÛĮÙģÛĮ
ĠÚ©ÛĮ Ø³Øª
ĠØ¢ÛĮ ÛĮÙĨÛĮ
ĠØªÙĪØµÛĮ ÙģÛĮ
ĠØ§ÙģØªØ§Ø¯ ÙĨØ¯
ĠÚ¯Ø°Ø± ÙĨØ§ÙħÙĩ
ĠØ¯Ø±Ø®Ø´ Ø§ÙĨÛĮ
ĠØ³Ø§Ø¦ ÙĪÙ¾
ÙĪØ¬Ùĩ ÛĮ
ÙħØ¤ Ø³
ĠÙħØ¹Ø§ÙĦ Ø¬Ùĩ
Ġ $
Ø± ÙħÙĪ
ÙĦ Ø±ÛĮ
Ø§ÙĦ Ø³ÙĦØ·Ø§ÙĨ
Ø¹ ÙħØ±
ĠØ® Ø§ÙĦÙĩ
ĠØ¢ÙĨ Ùĩ
ØªØ± Ø¬ÙħÙĩ
ĠÙĨØ§Ùħ ØªÙĨ
Ø¨ÛĮ Ø³
ĠÚ©ÙĨ Ùĩ
Ø´Ùħ Ø§Ø±Ùĩ
ĠØ´Ùħ Ø´
Ø§Ø¦ Ø¯
Ø§Øµ ÙģÙĩØ§ÙĨ
ĠÙħØ±Ø¯ Ø§Ø¨
ĠØ¢Ø¨ Ø®ÙĪØ³Øª
ĠØ²ÙħØ§ÙĨ ÛĮÚ©Ùĩ
la s
ĠÙĨÚ¯ Ø§Ø±Ø§ÙĨ
ĠØ´Ø¹ Ø±Ø§ÛĮ
ĠØªÛĮ Ø±ÛĮ
ĠØ´ÙĨØ§Ø®Øª ÙĨ
ĠPar k
âĪ Ĵ
ĠÙ¾ÛĮØ±Ø§ÙĨ Ø´ÙĩØ±
ĠØ§ÙĩØ±ÛĮ ÙħÙĨ
ĠÙħÙĦÚ©Ø´ Ø§ÙĩÛĮ
Õ «
ÙĨ ÙĨÙĩ
ĠØ¨ Úĺ
ĠØ¬ ÙĪÙĦØ§ÛĮ
ĠØ¨Ø± Ø¢ÙĨ
ĠÙħØ¬ Ø§ÙħØ¹
ĠØ§Ø´ ÙħÛĮØª
ĠÙģØ±ÙĪ ÙĩØ±
ĠE r
ĠØ®ÙĪÛĮØ´ Ø§ÙĪÙĨØ¯ÛĮ
ĠØ¬ÙĪØ± Ø§Ø¨
ÙĪÙĩÛĮØ¯ Ø±Ø§Øª
Ø¯ Ø±Ø¯
ĠÙħ ÙĪÙħÛĮ
ÙĪÙĨ ÙĪØ³
ĠÙĤ Ø±ÛĮØ´
ÙĪÛĮ Ø¯ÛĮ
ĠÙĩÙħ Ø´ÙĩØ±ÛĮ
ĠØªÙĪ Ø§ÙĦØª
ÙĪØ´ Ùĩ
ĠÙĨÙĪ ØªØ±
ĠØ¨Ø§Ø± Ú¯ÛĮØ±ÛĮ
ĠÙħØ³Øª ÙĤ
ar n
ĠÚ¯ÙģØª Ú¯ÙĪÛĮÛĮ
ĠØªØ® ÙħÛĮØ±
ĠÚ©Ø§ÙĨØ¯ ÛĮØ¯Ø§
ĠØ§ÙĪØ±Øª ÙĨ
ĠÚ©Ø±ÛĮÚ© Øª
j ect
Ø§ÙĦ Ú©Ø³Ø§ÙĨØ¯Ø±
ĠØ¢ ÙĪØ§ÙĨ
Ø® Ø²
ĠØ® ÙĦÙĪ
ĠØ±ÙĪ Ø³ÙĪ
Ø§Ú© Ø§Ø±
ĠÙħØª Ø§Ùģ
ĠÚ¯Ø± ÙĨ
ĠØ¹Ùħ Ø¯ÛĮ
ĠÙħØ±Ø¯ Ø§ÙĨÛĮ
ĠØ¨Ø§Ø± ÛĮÚ©Ùĩ
ĠÙħØµ Ø±ÛĮØ§ÙĨ
ĠØºÛĮØ± ÙħÙĨØªØ¸Ø±Ùĩ
ĠØ¢ÛĮ ÙģÙĪÙĨ
ĠÙ¾ÛĮÙħ Ø§ÙĨÙĩ
ĠÙĪØ§Ø± ÙĪÙĨ
ĠØªØ§Ú© ØªÛĮÚ©ÛĮ
ĠØ¨Ø§Ø²Ø¯Ø§Ø´Øª Ú¯Ø§Ùĩ
ĠØ§Ø³ÙħØ§Ø¹ÛĮ ÙĦÛĮØ§ÙĨ
ĠÙħØ§Ø±Ú©Ø³ÛĮ Ø³Øª
ÙĪÙĦ ÙĪÚ¯
ĠÙĨÙħ Ú©ÛĮ
Ø¨Ø§ÙĦ Ø§ÙĨ
ĠØ´Ø± ÙĦÙĪÚ©
ĠØ¶ Ø±Ø§ÛĮØ¨
ĠØªØ¹ Ø²ÛĮÙĩ
ĠØªÚ© Ø§Ø¨
ĠÚ¯ÙģØª Ùħ
ĠØ§Ø®ØªØµ Ø§Ø±ÛĮ
Û²Û° Û°Û³
Û²Û°Û±Û ¸
ĠØ®ÙĦØ¨Ø§ÙĨ Ø§ÙĨ
ans as
ĠÚĨÛĮØ¯ ÙħØ§ÙĨ
R NA
ÙĤ ÙģÛĮ
ĠØ³ ÙĪØ´ÛĮ
Ø¹ ÙĦÙħ
ĠÙĩ Ù¾Ø§Øª
ĠÚ¯Ø± Ø§Ø²
ĠÙħØ´ ØªØ±
Ø§Ø±Øª ÙģØ§Ø¹
ĠØªÙĦ ÙħÙĪØ¯
ĠP e
le x
Ú¯ÙĦ Ø§ÙĨ
ĠØ±Ú© ÙĪØ±Ø¯ÙĩØ§ÛĮ
ĠÚ©ÙĦÛĮØ³ Ø§ÙĩØ§
b di
s ch
ÙĨ ÛĮØ²
Ø¨ Ø§Ø±Ø¯
ĠÙĨ Ø¯ÙĩØ¯
ĠÙ¾ ÙĪÚ©
ĠØ¬ ÙĦØ§
ĠØ¨Ø± ÛĮÚ©
ĠØ® Ø¶Ø±
ĠÙĤØ± Ø¶Ùĩ
ĠÚ¯Ø± ÙĪÛĮ
ÙĪØ±Ø¯ Ú¯ÛĮ
ĠÛ±Û³Û ³
ĠØ¨ÛĮ Ø¶Ùĩ
ĠØªØ± Ø§Ø¨
Ø§Ø¯Ø± Øª
ĠØªØ´Ú© Ø±
ĠØ±Ø¦ ÛĮØ³Ùĩ
Ù¾ÙĦ ÙĨÚ¯
ĠÙģØ±ÙĪØ´ ÙĨØ¯Ú¯Ø§ÙĨ
Û²Û° Û°Û²
Û²Û° Û°Û±
ĠØ¬Ø§ ÙĪØ¯
ĠØ¢Ù¾ Ø§Ø±Øª
ĠØ§ÙĦÙĤ Ø§Ø¨
ĠÙ¾Ø°ÛĮØ±ÙģØª ÙĨ
ĠÙĩØ§ÙĨ Ø±ÛĮ
ĠØ±Ø´ ÙĪÙĩ
ĠØ§Ø³ÙħØ§Ø¹ÛĮ ÙĦÛĮÙĩ
ĠÙĦÙĪÛĮ ÛĮØ³
ĠØ¶ÛĮ Ø§Ø¡
ĠÙĨØº ÙħÙĩ
9 5
ĠÙħ ÙģÙĤ
ĠÚ¯ ÛĮØ´Ùĩ
ĠØ§ÙĦ Ø§Ùĩ
ØªØ±ÛĮ Øª
ic o
at or
ĠØ§ÙĦÚ©ØªØ± ÙĪÙĦÛĮØª
ĠÙħØ§ ÙĪÙĨØª
ÙģØ¹ ÙĦ
Û±Û±Û ´
ĠÙĪØ§ÛĮ Ú©ÛĮÙĨÚ¯
Ø±ÙĤ Øµ
ĠÙĩÙĪÛĮ Ø¯Ø§
ĠIntern ational
ĠØ¹Ø°Ø± Ø®ÙĪØ§ÙĩÛĮ
ĠØ¯ ÙĪÙĨÚ¯
Ú¯ Ø§ÛĮ
Ø§Ø³ Ú©ÛĮ
ĠØ±ÙĪ Ø§ÙĤ
Ø¨Ø± Ø§Ø¯Ø±
ĠÛ±Û· Û·
ĠØ±ÙĨÚ¯ Ø§Ø±
ĠØ³Ú© Ø§ÙĩØ§
ul l
ĠÙĩØ±ÛĮ Ø³ÙĪÙĨ
ĠØ§Ø´Ø®Ø§Øµ ÛĮ
ĠÚ©Ø±ÛĮØ³ØªÛĮ Ø§ÙĨ
ĠÙĦÙĨÙģ ÙĪØ³ÛĮØª
ĠØ¨ÙģØª Ø§
V D
Ø¯ Ø¨ÛĮØ±
ĠØ¬ ÙĪØ¯ÙĪ
ĠÚ¯ ÚĨÛĮ
ÙĩÙĨÚ¯ Ø§ÙħÛĮ
ĠÙģØ¹Ø§ÙĦÛĮØª ÙĩØ§ÛĮ
ÙħØŃ ØµÙĪÙĦ
ent er
ĠÙ¾Ø±Øª ÙĪÛĮ
ĠØ³ÙĪØ² Ø§ÙĨØ¯ÙĨ
ĠAir port
Ú© ÙĪØ±Ø¯
ĠØ¨ Ø¬Ø§
Ø³ Ø¨Ø±Ú¯
ĠØ® Ø§ÙħÙĩ
Ø§Øµ ÙĪÙĦ
ĠØ¨ÛĮÙĨ ÙĨØ¯Ú¯Ø§ÙĨ
ĠØ§Øª ÛĮÙĦÙĨ
ĠÙģØ§Ø± Ø³Øª
ĠM us
ĠØ²ÙĨ Ø¨ÙĤ
ĠÙħØŃØ¯ Ø¨
ĠØ§ØªØ§ÙĤ ÛĮ
ÙĨØ´ÛĮÙĨ Ø§ÙĨ
ĠY ou
ĠØ§Ø·Ø±Ø§ÙģÛĮ Ø§ÙĨ
s ection
ĠØ¨ Ø§ÙħÛĮØ§ÙĨ
ĠØª Ø³ÙĨ
ĠØ³Ø± ÙģÙĩ
ĠÚ©ÙĨ Ø±Ø§Ø¯
Ø´Øª Ø§Øª
ĠÙħÙĤ ØµØ±
ĠÚ¯Ø±ÙĪ ÙĪ
ØªØµ ÙĪÛĮØ±
ĠØŃÙĦ Ø²ÙĪÙĨ
Âł Âł
ĠØ¯Ø±Ø¯ÙĨ Ø§Ú©
b a
Ġ !
ĠÙĪ Ø®
ĠØª Ø§ÙħÛĮÙĨ
ĠÙħÛĮ ÚĨÙĦ
Ø§Ø² ÙħØ§ÙĨ
ĠØ§Ø´ Ø§Ø¹Ùĩ
Ø§ÙĦØª ÙĪÙĨ
ĠØ¨Ø§Ø´ Ùħ
ĠÙħØ±Ú©Ø² ÙĪØ§Ø±
ĠÙħØµ ÙħÙħ
ĠÙĩÛĮ ÙĪÙĨ
ĠÙĩØ§Ø± ÙĪÛĮ
ØŁ "
ĠØ²Ø±Ø¯ Ø¢ÙĦÙĪ
Û±Û±Û ²
ÙĨÙĤ Ø·Ùĩ
ĠØ±Ø¤ ÛĮØ§ÛĮ
ĠÙħÙĨÙģ Ø¬Ø±Ùĩ
o int
ĠÚ© Ø§ÙĪÛĮ
Ù¾ ÙĪØ´ÛĮ
ĠØ¢ Ø¯ÛĮ
Ø³Øª Ø§Ø¯
ĠÙ¾ Ø§ÚĨ
ĠØ§ ÚĺÙĩ
ĠØ² ÙħØ²
ĠÙĩÙħ Ú¯ÙĨ
Ø¨Ùĩ Ø§Ø¡
ĠØ¹Ùħ Ùĩ
Ø§Ø¦ ÛĮÚ©Ø§
ĠØ§ÙĤ ÙĦØ§Ùħ
ĠÛ±Û² Û¹Û¹
al s
ĠØºÙĦ Ø§Ùģ
ĠÙĪÛĮØ¯ÛĮ ÙĪ
ĠØ³ÙĦÛĮÙħØ§ÙĨÛĮ Ùĩ
ĠØ§Ø¹Ø² Ø§ÙħÛĮ
/ >
ĠØ´ Ú¯Ø±
ĠÛ±Ûµ Û¶
he m
ĠF e
ĠF alls
id a
ĠĠ Ġ
ĠØ§Ù¾ ÙĪØ²ÛĮØ³ÛĮÙĪÙĨ
ĠØ¨Ø§Ø²ØªØ§Ø¨ ÛĮ
ĠØ¯Ø±ÙĪØº ÛĮÙĨ
ĠØ§Ø±Ú¯Ø§ÙĨ ÛĮÚ©
ĠÚ¯ÙĪØ±Ú© Ø§ÙĨÛĮ
ĠØ¯ Ø§Ø¹ÛĮ
ĠØª Ú©ÛĮ
ĠØ§Ø³Øª ÛĮØ´ÙĨ
ĠØ¨Ø± ÛĮØ¯ÙĨ
Ø§Ø´ ØªÛĮ
ĠØ´Ø± ÙĪØ±
Ø§Ø¨ÙĦ Ø³
ÙĦÙĪ Ø¨ÛĮ
ĠÙħØ¨ Ø§Ø¯Ø±Øª
Ø¬Ùħ Ø¹ÛĮ
ĠØ³ÙĪØ®Øª ÙĨ
ÙģØ§Ø± Ø³ÛĮ
ĠØ¢Ø´ÛĮ Ø§ÙĨÙĩ
E G
O H
w ood
ÙĨ Ø³ÛĮ
ĠØ¨ Ù¾ÛĮÙĪÙĨØ¯Ø¯
ĠØ³ Ø§ÙģØª
ĠØ¹ ÛĮØ§Ø±
Ø§Ø¨ ÛĮØ´
ĠØ¨Ø§Ø² Ø±Ø³
ÙħØ¯ ÛĮØ±
ÙħØ§ÙĨÛĮ Ø§
ĠØ¢Ø¨ ÙĩØ§ÛĮ
ÙĪÙ¾ Ø±ÙĪØª
ĠÛ±Û±Û ¹
ĠÙħØ§Ø¯Ø±Ø² Ø§Ø¯ÛĮ
Øª ÛĮÙĦ
Ø§ÛĮ Ø§ÛĮÛĮ
Ø§ÛĮ Ø§ÙĦØª
ĠØ´ ÙĪÙĤ
ĠØ§Ø² ÛĮÙĨ
ĠÙģ ÛĮØ¯
ĠÚ¯ Ø±ÛĮÙģ
ĠØ§ÙĨ Ùĩ
ĠÙħØª Ø¨
ĠÙħØ³ ÙĨØ¯
ÙĪÙĩ Ø±ÛĮ
ĠØ³ÙĦ Ø¨
Ø¬ÛĮ Ø§ÙĨ
ĠÙĨÛĮÙħ Ø±ÙĪØ²
Ø³ÙĪØ¨ ÛĮØ´ÛĮ
ÙĪØ¬ Ø§ÙĨ
ĠV ir
ĠÙħÙĨØµ Ùģ
ĠØªØ§Ùħ ÛĮÙĦ
ÙħÚ© Ø¹Ø¨
ĠØ®Ø§Ø¯ Ùħ
ĠÙħØªØ¶ Ø§Ø¯
ĠØªØ±Ø§ÙĨØ²ÛĮØ³Øª ÙĪØ±
ĠÚ©Ø§Ø±ÙĨØ§Øª Ø§Ú©Ø§
N S
T A
Ø¨ Ø§Ùħ
ĠÙ¾ ÙĪØ±Ø´
ØŃ Ø§ØªÛĮ
ĠØ¢ÙĨ ÙĩØ§ÛĮÛĮ
ĠÚ©Ø´ Ú©
Ø¢ Ø±Ø§ÛĮÛĮ
ÙĪØª ÛĮØ¯
ĠØº Ø§Ø±ÙĩØ§ÛĮ
ĠÙĨÛĮ ÙĪØªÙĪÙĨ
Ø¯Ø§ÙĨ Ø´Ú©Ø¯Ùĩ
ÙĪÙĦÛĮ ØªÛĮ
Ø§ÙĨÚ¯ Ø§
ĠØ§Øº ØªØ´
ĠØ±ÙĪØŃ Ø§ÙĨÛĮØ§ÙĨ
ĠÙ¾Ø´Øª ÙĪ
ĠÙħÛĮÙĨ ÛĮÙħ
ĠÙĦÙĪÚ© Ø§
ĠØ¨Ø§Ú©ØªØ±ÛĮ Ø§ÛĮÛĮ
ĠÚ¯Ùĩ ÙĪØ§Ø±Ùĩ
ĠØªÛĮØ³ ÙģÙĪÙĨ
ĠØ§Ø±Øº ÙĪØ§ÙĨÛĮ
Ø¹Ø¶ ÙĪÛĮØª
Ø§ÛĮ Ø§ÙħØ§
ĠÙĪ ÙĦÛĮØ¯
ĠØ± Ø¨Ø§ÙĨÛĮ
ĠØ± ÙģÛĮØ¹
ĠØ§ÛĮ ÙĪØ¨
ØŃ Ø§Ø¬
ĠØ¹ Ø±ÛĮ
ĠÛ² Û³Û´
ĠÙĦ Ú¯ÙĨ
ĠÙħØ´ Ø¹ÙĦ
ĠÙĩØ± Ø³Ø§ÙĦÙĩ
ĠØ§ÙĪÙĦ Ø¯
ĠØ¹Ø¨ Ø§Ø¯ÛĮ
ĠÙĦÛĮ ØªØ±ÛĮ
ĠØ¢Ø± Ø§ÛĮØ´ÛĮ
ĠØ´Ø¨ ØŃ
ĠØ§Ø³ØªØ± Ø¢Ø¨Ø§Ø¯
le c
ĠÚĨØ§Ù¾ Ø®Ø§ÙĨÙĩ
iv er
ĠÙħØ±Ø§Ø¬ Ø¹Øª
ĠØ¯Ø² Ø¯ÛĮØ¯Ùĩ
ĠØ®ÙĪØ¯ÙħØ®Øª Ø§Ø±ÛĮ
Ú©ÙĪØ´ Ø¯
ĠØ®ÙĨØ¯ ÙĤ
ĠØ³Ø§Ø¦ÙĪÙ¾ Ø§Ø¦ÙĪÙĦÙĪ
4 6
Ù °
ÛĮÙĨ ÙĪØ³
ĠÙ¾ Ø§ÙĨØ¯
ĠÙģ Ø§Ø¦
ÙĪÙĨ Ø³
ÙĪÙħ ÛĮØ±
ĠØ¯ÛĮ Ø¨Ø§
ÙĪØ´ Ø§
ĠÚ¯ÙģØª Ú¯ÙĪÙĩØ§ÛĮ
ĠØ§Ø³ØªØ± ÙĦÛĮÙĨÚ¯
ĠH IV
ĠØ§Ø±Ø² ÙĨØ¯Ùĩ
ĠØ¨ÛĮØ³Øª ÙħÛĮÙĨ
ĠØ³ÙĪØ² ÙĨÛĮ
ĠÚ©ÛĮÙĨÚ¯ Ø²
Ø§ÙĨØ¯Ø§Ø± ÙħØ±ÛĮ
ĠØ§ÙĦÙħÙĦ ÙĦÛĮ
ĠÙħÙĪØªØ³ Ø§Ø±Øª
ÙĨ ÛĮÙĦ
ĠÙħ Ø§Ø²ÛĮØ§Ø±
ĠÚ© Ø²
ĠØ§ÛĮ Ø§ÙĨ
ĠÙħÛĮ Ø±ÛĮ
ĠØ´ÙĩØ± Ùĩ
ĠØ¯ÛĮ Ø±ÛĮ
Ø§Ø³ÛĮ ÙĦÛĮ
ĠØªØ± Ø§Ú©ÙĨØ´
ĠÛ±Û° Û°Û°Û°
ÙĤØ± Ø¢ÙĨ
ĠÚ©Ø§Ùħ ÛĮÙĨ
ĠÙħÙĤØ¯ Ø³ÛĮ
ĠØ´Ø§ÙĨØ²Ø¯Ùĩ ÙħÛĮÙĨ
ĠÙĩÙĪØ§Ùģ Ø¶Ø§
ĠÙħØªØµ Ø±Ùģ
ÙĨ ÛĮÙħÙĩ
ĠÙĪ Ø«ÛĮ
ĠØ´ ÙģØ§
ĠØª ÙĪÛĮØ³Ø±Ú©Ø§ÙĨ
ĠØ± Ú¯Ùĩ
ĠØ§Ø³ Ú©Ø±
ĠÙħÙĩ ØªØ§Ø¨
ĠØ§Ú© Ø¨Ø±ÛĮ
ĠØ§Ú© ÙĪØ³ÛĮØ³ØªÙħ
ĠÙħØ° Ú©Ø±
ĠÙģÛĮ Ø«
Ø²ÙħÛĮÙĨ ÛĮ
âĢ¦ Â»
ÙĨÛĮØ± ÙĪÛĮ
ĠØ²Ø¨ Ø§ÙĨÙĩ
Ú© Ø§Ø¸Ùħ
Ø³ Ø§ÛĮÙĩ
ĠØ¢ Ø±Ø¨
Ø³ÛĮ Ø§Ø³Øª
ĠÙħØªØŃ Ø¯Ø§ÙĨ
ĠØ¹Ø¨ Ø¯ÛĮ
Ú©Ø§Ø± Ú¯Ø±Ø¯Ø§ÙĨ
ĠØ§Ø±Ø¯ Ú©Ø§ÙĨ
ĠÚ©Ø§Øª Ø¨
ĠÙħØ§Ø³ ÙĪÙĦÙĩ
ĠÙĨØ§Ø® ÙĪØ´
ĠØ®ÙĪØ§Ø¨ Ú¯Ø§Ùĩ
ĠØ¢Ø´Ú©Ø§Ø± Ø³Ø§Ø²
ĠØ¨Ø¯Ø§ÙĨ ÙĨØ¯
ĠØ³Ø§Ø¹ ØªÛĮ
ĠØ¯Ø§ÙĨÛĮ Ø§ÙĦ
ĠØ³Ù¾Ø±Ø¯ ÙĨØ¯
ĠØ¨ÙĪÙĨØ¯ Ø³
ØµØ§Ø¯ ÙĤ
ĠØ¨ÛĮÚ¯Ø§ÙĨ Ú¯Ø§ÙĨ
ĠØ±Ú¯Ø± Ø³ÛĮÙĪÙĨ
ĠÙħÙĨØ¨ Ø¹ÛĮ
ĠØ± ÙĤÛĮÙĤ
ĠÙħÛĮ Ø§
Ø§Ø´ Ø±
ĠÚ¯Ø± Ø§Ø¯ÛĮØ§ÙĨ
Ø§ÙĪ Øº
ĠØ¯ÙĪÙĦ ØªØ´
ĠØ´ÛĮ ÙĪØ§
Ø³Ø¨ ÙĪÙĨ
ĠÙĪØ± ÙĨØ±
ĠÚ©ÙĪØ± Ù¾ÙĪØ±
ĠØ¢Ú¯Ø§Ùĩ Ø§ÙĨÙĩ
ĠØ¯Ø¨ÛĮ Ø±ÛĮ
ĠØºØ² Ø§ÙĦÛĮ
ĠÙħÙĪÙĨØªØ± Ø§ÙĦ
ĠÚĨØ±Ø¯ Ø§ÙĪÙĦ
ÙħØ¤Ø³ Ø³Ùĩ
Ø¯ ÙĪØ±Ø§ÙĨ
ĠÙ¾ ÙĪÙĦÛĮØª
ĠØ§ÙĪ Ø§Ø¦ÙĦ
Ú¯Ø± ÛĮÙĨ
ĠØº Ø²ÙĨÛĮ
ĠÙħÛĮÙĦ Ø²
ĠØ±ÙĪØ² ÙĨÙĩ
ĠÙĩÛĮ ÙĪÙĦØ§
ĠØ¢Ø± Ø§Ø³ØªÙĩ
ĠS i
ĠÙħØ§ÙĦ Ú©Ø§ÙĨ
ĠØ³Ø¹ ÙĪØ¯
ÙģÙĦ ÛĮÚ©Ø³
ĠØ§ÙĦÚ¯ÙĪØ±ÛĮØª ÙħÛĮ
Ø¢ÙĪ Ø§Ø²Ùĩ
Øª Ø³ÙĪ
ĠØ¨ ÙĪØ±ÛĮØ³
ĠØ¯ Ø§ÙĨØ¯
ĠÙĨ Ø³ÛĮÙħ
ĠÛĮÚ© ØªØ§
ÙĪÙħ Ø§ØªÛĮÚ©
Úĺ Ø§Ú©
ĠÙģØ± Ø§ØºØª
Ø¯Ø± Ø§ÛĮÙĨ
ĠÙħØ¬ Ø±
ĠØ¢ÙĦ Ùħ
ĠÙ¾Ø§ÛĮ Ø¨ÙĨØ¯
ĠØ¯Ø§ÙĨØ´ Ø³Ø±Ø§ÛĮ
ĠØ¢Ø¨ Ø¬ÙĪ
ĠA v
ĠØ§ÙħÚ©Ø§ÙĨ Ø§ØªÛĮ
ex t
ĠÛ±Û±Û° Û°
ĠØ§ÙĦØªÙĩ Ø§Ø¨ÛĮ
ĠÙ¾Ø¯Ø±Ø¨Ø²Ø±Ú¯ Ø´
ĠÙħ Ú©ÛĮ
Ø´ Ø§Øª
ĠØ³ Ø³Øª
ĠÙħÛĮ ÙĨØ§Ùħ
ĠØº ÙĦÛĮØ¸
ĠØ§Ø¨ ØªÙĦ
ĠØ®Ø§ÙĨ Ø§Øª
ĠØ®Ø· Ø±ÛĮ
ĠØ¬Ø§ÙĨ Ú¯
ĠÙ¾ÙĦ Ú©Ø§ÙĨ
ĠÚ©ÛĮ ÙģØ±
ĠT exas
ĠØ¯Ø±ÛĮ Ø§ÙĨÙĪØ±Ø¯
ĠÙħØ¨ Ø§Ø¯ÙĦØ§Øª
ĠØ§ÙĤØªØµØ§Ø¯ Ø¯Ø§ÙĨØ§ÙĨ
ĠÙħÙĤØ± ÙĪÙĨ
ĠÛ±Û¸Û· Û·
Ø¬Ø§ÛĮ Ø¨
Û±Û±Û ·
ĠÙħØ¶ Ø§Ø¹
ĠØ¢ÙģØª Ø§Ø¨ÛĮ
Ù¾Ø±ÙĪ Ø§Ø²
ĠØŃÙħÛĮØ¯ Ø±Ø¶Ø§
ĠØ§ÙħØ±ÛĮÚ© Ø§ÛĮÛĮ
ĠØ§ÙĨØ¯ÛĮØ´ ÙħÙĨØ¯Ø§ÙĨ
ĠÙ¾ÙĩÙĦÙĪ Ø§ÙĨÛĮ
Î µ
Ù¾ ÛĮÚ©Ø±
ĠØ¬ Ø¯Ø§ÙĦ
Ø§Ùĩ Ø¯Ø§ÙĨ
ĠÚ¯ Ø§Ø¦
ĠØ¯Ùĩ ÙĦ
ĠÙĨÛĮ Ø§ÙħØ¯
ĠÙĦÛĮ Ø³Ùĩ
ĠØ³ÙĪ ÙģÛĮ
ĠÛ²Û² Û¶
ĠÙħØ¯ÛĮØ± Ú©ÙĦ
ĠÚ©Ø§ÙĦÛĮ Ø¨Ø±
ĠØ¨Ø§Ø¯ Ú¯ÛĮØ±
ĠÙģØ±Ú© Ø§ÙĨØ³ÛĮ
ÙģØ±ÙĪ Ø´Ø¯
ĠÚ©ÙĪÙĩÙĨ ÙĪØ±Ø¯ÛĮ
ØŃÙĦ ÙĤÙĩ
7 9
ĠØª Ø§Ø²ÛĮ
ĠÙħØŃ Ø§ÙĦ
ĠÙ¾Ø± ÙĪØ±Ø¯
ĠÚ¯ÙĦ Ø´ÙĨ
ĠØ±ÙĤ ÙħÛĮ
ĠØ³ÙĪØ§Ø± Ú©Ø§Ø±ÛĮ
ĠÙ¾ÙĪØ±Øª ÙĪØ±ÛĮÚ©ÙĪ
ĠØ¨Ø§Ø²Ø¯ÛĮØ¯ Ú©ÙĨÙĨØ¯Ú¯Ø§ÙĨ
Ġ5 0
ĠØ¯ÛĮØª Ø§ÙĦÛĮØ§
ØªØ¦ Ø§ØªØ±
: Â«
Ø³ Ø¯Ùĩ
Ø³ ÙĪÙ¾Ø±
ĠÚĨ ÛĮÙĨÚ¯
ĠÙħØ¬ ÙĦØ¯
ĠØªÙĪØ§ÙĨ ÙħÙĨØ¯
ĠÙ¾ÙĦ Ú©
ĠÚ©Ø±ÛĮ Ú¯
ĠÙħØ§ÛĮ Ø§
ĠÙ¾Ø´ ØªÙĪØ§ÙĨÙĩ
ĠÙĨÛĮÚ© Ø§Ø±
ĠØ§ÙħÛĮØ± Ø¢Ø¨Ø§Ø¯
ĠV o
ĠØ®Ø±Ø¯ ÙħÙĨØ¯
ĠÙģÛĮÙĨ ÛĮÚ©Ø³
ĠØ²Ø® ÙħÛĮØ§ÙĨ
Ġ201 1
ĠØ¨Ø±Ú¯Ø² ÛĮØ¯ÙĨØ¯
ĠØ±Ø´ Ø¯ÛĮ
ÙĤØ´ ÙĦØ§ÙĤ
ĠÚ©Ø«ÛĮ Ùģ
ĠØ¨ Ø·ÙĪØ±ÛĮ
Ø¬ ÛĮØ¯
ĠÛ² Û³Û¶
ĠÙħÙĨ Ø§ØµØ¨
ĠØ§Ùħ Ø«Ø§ÙĦ
ĠÙħØ³ Ø¹ÙĪØ¯ÛĮ
ĠØ¨ÛĮ Ú¯ÛĮ
Ø§ÙħÛĮ ÙĦÛĮ
ĠÚ©ÙĦ ÙħÙĨ
ĠØªÙĪØ§ÙĨ ÙħÙĨØ¯ÛĮ
ĠØ¹ÙħÙĦ Ú©Ø±Ø¯ÙĩØ§ÛĮ
ic an
ĠØ¨Ø±Ø§Ø¯ Ø±ÛĮ
ĠØ³Ø§ÛĮ ÙħÙĪÙĨ
ĠØ¯Ø±Ø¯ Ø³Ø±
ĠØªØ¹Ø§ÙħÙĦ Ø§Øª
ĠÂłĠÂłĠÂłĠÂł ĠÂłĠÂłĠÂłĠÂł
ĠÙ¾Ø¯Ø§Ùģ ÙĨØ¯
m p
ÙĨ Ø³Ø¨
ĠØ´ ÙĪÛĮÙħ
Ø¹ Ø§ÙĦÛĮ
ÚĨ Ø´
ÙģØ± Ø²ÙĨØ¯
ĠØ§Ùħ ÙĪÛĮØ§ÙĨ
ĠÙĪÛĮ Ø³ØªØ§
ĠÙĩØ± ØªØ³
ĠØ§Ø³ØªØ§ÙĨ ÙĩØ§ÛĮ
ĠÚ©ÙĦ Ø§Ø¨
ÙĪØ³Øª Ø§
ĠØ´Ø¹ Ø§Ø¹ÛĮ
ĠØ¹Ø¯ ÙĦ
ĠØ¨Ø§Ø¨ Ú©Ø§ÙĨ
ĠÙĩÙĨØ±Ùħ ÙĨØ¯ÛĮ
ĠÚ¯Ø±ÛĮ Ø®ØªÙĩ
Û±Û±Û ¶
ĠØ¹ÙĤÙĦ Ø§ÙĨÛĮ
ÙĨØ¨ Ø´ØªÙĩ
h y
Ø± Ø§Ø¯ÛĮ
ĠÙħ Ú©ÙĦ
ĠÚ© Ø§ÙĦØ¯
ĠØ³ ØªÙĪØ§ÙĨ
ĠÙ¾ ÙĦÙĪ
Øº Ø±ÛĮ
ĠØ¨Ø®Ø´ Ø¯
ĠÚ©ÙĦ ÙĪÛĮÙĨ
ĠÙĨÙĪØ´ ÙĩØ±
ÙĪÙĦÛĮ Ø²
ĠA nt
ĠØ§Ø·ÙĦØ§Ø¹ ÛĮ
ĠÙ¾ÙĦ Ø§ØªÛĮÙĨ
ĠÙħØ¤ ÙħÙĨ
ĠÙĪØ± Ø§Ø«
ĠØ¯ÛĮÙĦ ÙħØ§ÙĨ
ÙĪÙħØ± Ø«
ĠÚ©ÙĨÛĮ Ø³Ùĩ
ĠÙĩÙĪÚ© Ø§ÛĮØ¯ÙĪ
ĠØ®Ø³Ø± ÙĪÛĮ
ĠØ¯ÛĮØªØ± ÙĪÛĮØª
ĠÙĨÛĮÙĪÚ© Ø§Ø³ÙĦ
A n
ĠØ¨ ÙĦÙĩ
ĠØ¨ Ø§ÙĨÙĩ
Ø³ ÙĨÙĩ
Ùģ Ø§ØµÙĦÙĩ
ĠÙ¾ Ø§Ø³ÛĮ
ĠØ¬ Ø²Ø±
ÙĪÙħ Ø§ÛĮ
ĠÚĨ Ø§ÙĤÛĮ
Ø§Ø²ÛĮ Ø³
Ú©ÙĦ Ø§Ø³
ĠØªÙħ ÙĦÚ©
ĠØ¨Ø¹Ø¯ Ø§Ø²
ĠØªØ¹ Ø§ÙħÙĦÛĮ
ĠØ¬Ø§Ùħ Ø§Ø¦ÛĮÚ©Ø§
ĠØ®ÙĦ ÙĪØª
ĠØ±Ø§ÛĮ Ø§ÙĨØ´
Ġ2 4
ĠÚ©Ø±Ø¨ ÙĪÙĩÛĮØ¯Ø±Ø§Øª
ĠØ§Ø´Ø¹ Ø§Ø±Ø´
ĠÙħÙĦÚ© Ø´Ø§Ùĩ
ĠÙģØ±Ø§Ùħ Ø§Ø³ÙĪÙĨ
ĠØ§Úĺ Ø¯ÙĩØ§ÛĮ
ĠÙģØ±Ø§Ø®ÙĪØ§ÙĨ Ø¯Ùĩ
ĠØ§Ø³Ù¾Ùĩ Ø¨Ø¯
R P
Ú¯ Ø§Ø²
Ø¨ ÙĪØ²
ÙĪÙĨ Ø¯ÙĩØ§
ĠØŃÙħ Ø§ÛĮØªÛĮ
ĠÚ©ÙĦÛĮ Ø´Ùĩ
ĠÛ±Û´ Û±
ĠØ¹ÙĪ Ø§ÙĤØ¨
Ú¯Ø²Ø§Ø± Ø´
ĠØªØ¨Ø± Ø¦Ùĩ
ĠÙħÙĤØª Ø¯Ø±
ÙĤØ±Ùħ Ø²
Ø§ÙĦÙħÙ¾ ÛĮÚ©
ĠÙĪ Ø¯Ø±
ĠØ´ ØªØ§ÙģØª
Ù¾ Ø´
ÛĮØª Ø²
Ø¢ Ø®
ĠØ§ÙĦ Ø§
ĠÚ©ÙĦ Ø¨Ùĩ
ĠØ´Ø± ÙĪØ§ÙĨ
ĠØ´Ø¨ Ú©ÛĮÙĩ
ĠÚ©Ø§ÙĦ ÛĮÙĨØ²
ĠØ¬Ø± Ú¯Ùĩ
ĠØ¢ØªØ´ ÛĮÙĨ
ĠØ±ÙĪÙħ Ø¦ÙĪ
ĠØŃÙĪ Ø§Ø´ÛĮ
ĠÙħØ² Ø§ÛĮØ¯Ùĩ
Ú©Ø±ÛĮ Ø³Øª
ĠÚĨÛĮØ² ÙĩØ§
ĠØ®ÙĦØ§ÙĤ Ø§ÙĨÙĩ
ĠÙĪØ±ÛĮ Ø¯ÛĮ
ĠÙĨØ§Ø®ÙĪØ¯ Ø¢Ú¯Ø§Ùĩ
ÙģÙĦÙĪ Ø¢
ÙĨØ²Ø¯ ÛĮÚ©
ĠÙĤØ§Ø´ ÙĤ
ĠÚ© ÛĮØªÛĮ
Ø§Ùħ ÙĪØ³
ĠÙģ Ø§ØŃ
ÛĮØ² ÙĪ
ĠÚ©ÙĨ Ø§ÛĮÙĩ
ĠÙĨØ® ÙĪØ±Ø¯Ùĩ
ĠØ¢Ø± ÙĨØ§
ĠÙħØ® ÙĦÙĪ
ĠÛ±Û· Û°Û°
ĠØ§Ø³Ú© ÙĦÙĩ
ĠÚ©Ø´Øª ÛĮØ±Ø§ÙĨÛĮ
Ø§Ú¯Ø± Ø§Ùħ
ĠØ¢ÙĨØ¯ Ø±Ø³
ĠØ§Ø³ØªØ¹ Ø§Ø±Ùĩ
ĠÙģÙĪØ± Ø¨Ø²
ĠØ®ÙĪØ§Ø± Ø¬
16 6
ĠØ¯ÙĪØ¨ÙĦ ÛĮÙĨ
Ø¹ÙħÙĦÛĮ Ø§Øª
ĠØ·Ø§Ø¹ ÙĪÙĨ
. <
S h
Øª ÙĨÛĮ
ÙĪØ± Ø³Ú©ÛĮ
ĠÙ¾ ÙĦØ§
ĠÙ¾ Ø±ÛĮÙħ
ĠØ² ÛĮØ¯ÛĮ
Ú¯Ø± Ø¨Ùĩ
ĠØ¢ÙĦ Ø§ÛĮÙĨØ¯Ùĩ
ĠØ¨ÙĦ Ø¹
ĠØ¨Ø²Ø±Ú¯ ØªØ±ÛĮ
ĠÛ±Û¶ Û¸
Ù¾Ø± ÚĨÙħ
ĠØ³ÙģÛĮØ¯ Ù¾ÙĪØ³Øª
ĠØ¢ÛĮØª Ùħ
ĠAl l
ĠØ§ÙĨØ¨ Ø§Ø´Øª
O N
a ul
Ùĩ ÙħÙ¾ØªÙĪÙĨ
ĠÚ© ÚĨ
Ø¨ Ø¯Ø§ÙĦÙĦÙĩ
Ø§ÙĦ Ø§Ø±
Ø§ÙĦ Ø¬
ĠÙħÙĪ Ø¹ÙĪØ¯
ĠÙģØ± ÙĪÙĨ
Ø§Ø¹ ØªÛĮ
ĠÚ¯ÙĦ Ø¯Ø§ÙĨ
ĠÙĤØ· Ø±ÛĮ
ĠÛ±Û´ Û·
ĠØ±ÙĤ Ø¨Ø§ÛĮ
ĠØ´ÙĨØ§Ø³ ÙĨØ§ÙħÙĩ
Ġs erv
ĠØ§ÙĨØ¯Ø§Ø®Øª ÙĨØ¯
ĠÚ©ÙĪØ§Ø± ØªØ²
ĠØ³Ù¾Ùĩ Ø¨Ø¯
ĠÙħØ²Ø¯ Ú©
ĠÚ¯ÙĪÙħ Ø²
ĠØ§Ø¨Ø±ÛĮØ´ ÙħÛĮ
ĠÚ©ÙĪØ±Ù¾ÙĪØ± ÛĮØ´ÙĨ
ĠØ¯ Ø¯
ĠØ¢ ØªØ±
ĠØ¬ Ø§Ø¨Ø±
ĠÚ¯ Ø§Ø¨
ÙģØ± Ø§Ø²
ĠÙĨÛĮ Ø³ØªÙħ
ĠØªÙħ Ø±
er o
ÙĨØ´ Ø§ÙĨÛĮ
ĠÛ±Û³ Û°Û²
ĠØ®ÙĪØ´ Ø¨Ø®Øª
ĠÙĦÛĮÙĨ ÚĨ
ĠÚ¯ÙĪØ§Øª ÙħØ§ÙĦØ§
b or
Øª ÙĪÛĮ
Ú© Ø§Ø±Ùĩ
Ø¯Ø± Ø¢ÙħØ¯
ĠÛ±Û³Û ±
ĠÚĺ Ø§ÙĨØ¯Ø§Ø±ÙħØ±ÛĮ
ĠÙħØŃÙħØ¯ Ø¬ÙĪØ§Ø¯
ĠØ¹Ø¨Ø¯Ø§ÙĦ ØŃÙħÛĮØ¯
ÙĪØ¬ ÛĮÙĨ
ÙĪØŃ Ø´
ĠØ¬Ø³ ÛĮÚ©Ø§
ĠØªØ§ÛĮÙĦ Ø±
ĠÙĪØ§ÙĦØ¯ÛĮÙĨ Ø´
Ø¯Ùģ ØªØ±
ĠÚ¯ÙħÙĨ Ø§Ùħ
ĠØ¯ÙĪØ±Ø¯ Ø³Øª
ĠØ® ÛĮØ³
ĠÚ¯ Ø¯Ø§Ø±
ĠØ² Ø§ÙĨÚ©Øª
Ø§Ú© Ø´
Ø¢ ÙģØ±ÛĮÙĨ
ÙĪØ² ÙĪ
ĠØ§Ø¨ ÙĩØ±
ĠÚ©ÙĦ ÙĪÙĨ
ĠØ§ÙĤ Ø§ÙħÙĩ
ĠÙ¾Ø±Ø¯ Ø§Ø²ÛĮ
ĠØªØ¯ Ø§Ø¹ÛĮ
ĠÙ¾ÙĪÙĦ Ú©
ĠÙĤÛĮ ÚĨÛĮ
ĠØ´Ø§ÛĮ Ø¹Ø§Øª
ĠÙĦÙĨÚ¯ Ø±ÙĪØ¯
ĠØªÙģÚ© Ø±Ø§Øª
ĠØ¨ÙĪØª Ø§ÙĨ
ĠÚ¯Ø°Ø§Ø± Ø¯Ùĩ
ĠÙģØ¶Ø§ÙĨÙĪØ±Ø¯ Ø§ÙĨ
ĠÙĩØ§ÛĮØª Ø³
7 8
c ol
ĠØ¨ ØªÛĮ
ÙĤ Ø§Ø¨
Ø§ÙĦ ÙħØ¹
ĠØ¢ÙĨ Ø±ÛĮ
ĠØ¢Ùħ Ø¨Ø±
ĠÚ©ÙĦ ÙĪØ¨
Ø§ÙĨÚ© ÙĪÙĩ
ĠÙĨÛĮØ±ÙĪÙĩØ§ÛĮ Ø´
ĠØ®Ø§Ú© Ø³Ù¾Ø§Ø±ÛĮ
ĠØ¨Ø§Øº Ø¯Ø§Ø±ÛĮ
ĠÚ¯Ø°Ø´Øª ÙĨ
ĠÙĨØ§Ú© Ø§Ø±
ĠØ¬ÙĪÙĦÛĮ Ø§
ØªØ¯ Ø±ÛĮØ¬
Ø§ÙĤØªØµ Ø§Ø¯
d en
ĠØ§Ø³Øª ÙĪÚ©
ĠÚĨ ÛĮØ³
ÙħØ§ÙĨ Ø¯ÛĮ
ÛĮØ´ Ø§
ĠØ¯ÙĪ ÙĤØ·Ø¨ÛĮ
Ġ" "ØĮ
ÙĪÙĩ Ø§ÙħØ§
ĠÚ©Ùħ Ø±ÛĮ
ĠØ§Ùģ ÙĨØ¯ÛĮ
ĠØªØ¨ ÙĦØª
ĠØªØ¹ Ø§Ø±Ø¶
Ø®ÙĪ Ø§
ĠÙģØ±Ø¯ Ø§ÛĮ
ĠÚ¯Ø²Ø§Ø±Ø´ Ú¯Ø±
ĠÙħØ§Ø±Ú© Ø³ÛĮØ³Ùħ
Ġ201 8
Ø§Ø¨ÙĨ ÙģØ´
ĠØ§Ù¾ÙĦ ÛĮÚ©
ĠÙģÛĮØ¨Ø± ÙĩØ§ÛĮ
ĠØ¹Ø¨Ø¯Ø§ÙĦØ±ØŃ ÙħØ§ÙĨ
ĠÙħÙĨÙĤ Ø§Ø±
ĠØ«ÙĦ Ø«
Ø§ÙģØ³ Ø§ÙĨÙĩ
+ +
6 6
S D
Ø ¥
Ú© Ø§Ø´
ĠØ³ Ø§Ø±Ú©
Ø¶ Ø¯
ĠØ§ÙĦ ØªÙĪ
ĠÙĩØ± Ø§Ø²
ĠÚ©ÙĦ Ø§Ø¯
ĠÚ©ÙĪ ÙĩØ±ÙĨÚ¯
ÙĦÙĪ Ø§
ĠØªØ¹ Ø§ÙĦÛĮ
ĠØµØŃ Ø§Ø¨Ùĩ
ĠÙħØ¯ÛĮ Ø³ÙĪÙĨ
ĠØªØ±ÛĮ ÙĦ
Ø²ÛĮØ³Øª ÙĨØ¯
ĠÙħØªØ±ÙĪ Ú©Ùĩ
ĠÛ³Û±Û¶ Û¶
ĠÙħÙĨØ³ Ø¬Ùħ
ĠØ§ØŃÛĮ Ø§Ø¡
ĠProv ince
ĠÙĪØ«ÛĮ ÙĤÙĩ
Ùģ Ø§ÙĦÙĨ
Ø§Ø¯ ÙĪØ§Ø±Ø¯
ĠØ§ÛĮÙĨ ØµÙĪØ±Øª
Ø§Ø±Ø¯ ÙĨ
ĠØ§ÙĪ ÚĨ
ĠØµ ÙħÛĮÙħ
ĠÙħØŃ Ø³ÙĨÛĮ
ĠÙħØ¹ Ø²
ĠØ¯ÛĮ Ø³Øª
ĠØ¨Ø®Ø´ ÙĩØ§ÛĮ
Ú©Ø§Ø± ØªÛĮ
ĠÚ©ÙĪÚĨ ÙĪÙĦÙĪ
ĠÛ±Ûµ Û²
Ú©Ø§ ÙĪÚ©
Û±Ûµ Û°
ĠÙģØ±ÛĮ Ø²Ø±
ĠÚ¯ÙĪÛĮØ´ ÙĪØ±Ø§ÙĨ
ĠÙĩÙģ Ø¯ÙĩÙħÛĮÙĨ
ĠØ³Ø§ÙħØ§ÙĨ Ø¯ÙĩÛĮ
ĠØ§ÙĨØ³Øª ÛĮØª
ĠØ°ÙĪØ§ÙĦ ÙģÙĤ
o e
Ú© ÙħØ§ÙĨ
ĠØ¯Ø± Ø³Ø§ÙĦ
Ø¨ ÙĨØ§
Ø§Ø³ ÙĨ
ĠÙħÙĨ Ø§Ùģ
Øº ÙĦØ§Ùħ
Ø¢ ÛĮØ§
ĠØ¢ÙĦ Ø§ÙĨ
ĠÙ¾ÛĮØ´ ÛĮ
Ø²Ø± Ø³Ø§ÙĨÛĮ
ĠÙĦÛĮ Ø³Ø¨ÙĪÙĨ
ĠØ´ÛĮ Ø§Ø±
ĠØªØ¬ Ø§Ø±ØªÛĮ
Û±Û² Û°
Ú©ÙĪÙĩ ÛĮ
ĠÙħØ±ÛĮ Ø¯Ø§ÙĨ
ĠØ¢Ø±ÚĺØ§ÙĨØª ÛĮÙĨÛĮ
ĠÚ©ÙĦØ§ÙĨ ØªØ±
ĠØ§Ø¬ØªÙħØ§Ø¹ Ø§Øª
ĠØªØ®ÙĦ Øµ
Ú¯Ø°Ø±Ø§ÙĨ ÙĨØ¯
A A
Ø³ Ø±Ùĩ
ĠØ³ ÙĪØ±Ø§ÙĨ
ĠØ² Ø§ÛĮØ¯
ĠØ¢ÙĨ ÚĺÛĮ
ĠÙĩÙħ Ù¾
ÙĨÚ¯ Ø±Ø¯
ĠÙħØ´ Ú¯ÛĮÙĨ
la ck
Ø«Ø± Øª
ĠØ³ÛĮØ§Ùĩ Ú©ÙĦ
ĠØ³Ø§Ú© Øª
Ø§ÙĦÙħ ÙĤØ¯Ø³
ĠÛ±Û¸Û¶ Û¹
ĠØµØ§Ø¯Ø± Ø§ØªÛĮ
ĠÚ©Øª Ú©
ĠØ±ÛĮÚ© Ø§Ø±Ø¯ÙĪ
ĠØ®ÙĪØ§Ø±Ø²Ùħ Ø´Ø§Ùĩ
ĠÙĪØ§Ú¯ ÙĨØ±
- )
y le
Ø± ÚĺÛĮÚ©
ĠÙħ Ø§ÚĨ
ĠÙĪ ÛĮÙĨÛĮ
ĠÚ© Ø§ØªØ±
Ùģ Ø³Øª
ĠØ¯Ø± Ú¯Ø²
ĠØ± Ø§ÙĦÛĮ
ĠØ§Ø² Ø¯ÛĮ
Ø§Ø³ ÛĮØ¯
Ø¢ Ùĩ
ĠÙħØ³ Ø§ÙĦÙħØª
Ø§ØŃ ÙħØ¯ÛĮ
ĠÙĤØ±Ø§Ø± ÙĨØ¯
ĠÙħØ± Ø¦ÛĮ
ĠØ¨Ø±Ø¯ Ø³ÛĮØ±
it ed
ĠÙħØ§Ùģ ÙĪÙĤ
ÙĪ ÚĨÛĮ
Ø¯ ÛĮÙĨÚ¯
ĠØ¯ Ø§ÙħÛĮ
ĠØ¨Ùĩ Ø§Ø±Ø³ØªØ§ÙĨ
ĠÚ¯ Ø§Ø±ÛĮ
ĠØ¨Ø§ Ø§ÛĮÙĨ
ÙĨÚ¯ Ø§
ĠØ§Ùħ Ú¯Ø§
ĠØ¬Ùħ ÙĦ
ĠØ¯ÛĮ ÙĦÛĮ
ĠÙģÛĮÙĦÙħ ÙĩØ§ÛĮ
ĠØ¨Ø¯ ÙĦÛĮÙĦ
ĠØ¶ Ø¹ÛĮ
ĠÛ±Û¶ Û²
ig an
Ø¨ÙĨØ¯ ÙĨØ¯
ĠÚ©Ø§Ø³Øª ÙĦ
ĠÙĪØ§Ø±ÛĮ Ø§ÙĨØ³
ĠÚ¯Ø±Ø§ÛĮ Ø§ÙĨÙĩ
ĠÙĦÚ¯Ø§Ø±ÛĮ ØªÙħ
g in
Ùĩ ÙĪÙĨ
Ùħ ÙĨÛĮÙĨ
ĠØ¨ ÙĪØ¨
Ùģ ÙĪØ³
ĠØ¯Ø± Ø§
Ø§ÙĦ ØŃÙĩ
Ù¾ Ø§Ø±Ø§ÙĨ
ĠÙĩ Ø¶Ùħ
ĠØ² Ø±Ø§Ùģ
ÛĮÙħ ÙĪØ±
ĠÛĮØ§ Ú©ÙĪØ¨
Ø¸ Ø¨ÛĮ
ĠÙĤØ±Ø§Ø± Ú¯Ø±ÙģØªÙĩ
ĠÙ¾ÛĮØ´ Ú©Ø³
ĠØ¨ÛĮÙĨ Ø´
ĠØ³Ø§Ø² Ø´
ĠØ¯ÙĪÙĦ ØªÙħ
on a
ĠG o
ĠØªØ¦ ÙĪØ¯
ĠØªØ§ÛĮ Ø±Ø§
ĠÚĨÙħ Ø±Ø§ÙĨ
ĠØ¹Ø¨Ø¯ Ø§ÙĦÙħÙĦÚ©
ĠØ³ÙĪÙģ ÛĮØ§
c i
h r
ÙĦ ØªÙĪÙĨ
ĠÙħ Ø§Ø¯ÙĦ
ĠØ³ ÙĪÙĦÛĮ
ĠØ§ÛĮ ÚĨ
ĠØ¬ ÙĪØ¯ÛĮ
ĠØ¢ÙĨ ÙģÙĦÙĪØ¢
ĠÙĩÙħ Ø¨ÙĨØ¯
Ø±ÙĪ Ø§
ÙĪØª ÙĪÙħÛĮ
ĠØ§ÙĦ Ø±Ø¶Ø§
ĠØ³ÛĮ Ø§ÙħÚ©
ÙĪØ¦ ÛĮÚ©
ĠÙħØªØ± ÙĪÙ¾
ĠÙģØ¹ Ø§ÙĦÛĮ
ÙĤÙĦ Ùħ
Ø³ØªØ± ÙĪÙħ
ĠS pr
Ø§ÙĪÛĮ ÙħØ§ÙĤ
Û±Û±Û µ
ĠÚ¯Ø±ÛĮÙĨ ÙĦÙĨØ¯
ĠÙĨØ§ÙħØ² Ø¯ÙĩØ§
ÙģØ§Ø± Ø³
ĠØ¢ØªÙĨ Ø§
ĠÙħÛĮÚ©Ø± ÙĪÙĨØ²ÛĮ
ĠØ¢ÙĪÛĮ Ø®ØªÙĩ
ĠÙĪÚ©ÙĦ Ø§ÛĮ
£ Ù
ĠÚ© ÛĮÙħÛĮ
ĠÙĩ Ø§ÙĨÙĪ
Ġ( Â«
Ø¢ Ú¯Ø§ÙĩÛĮ
ĠÙħØ¹ Ø´ÙĪÙĤ
ĠØº ÙĪØ±
ĠÙħØ¯ ÛĮØ§
ĠØ§ÙĨØ¯ ÙĪ
ĠØ§Ø³Ù¾ ÛĮ
Ø¢ÙĨ ÙĩØ§
ĠÙħØ«ÙĦ Ø«ÛĮ
ĠØ¯ÙĪØ³Øª Ø¯Ø§Ø±Ø§ÙĨ
ĠØ§Ø¯ÛĮ Ø³ÙĪÙĨ
ĠÚĨÛĮ Ù¾
ĠØ§Ø¦ ÙħÙĩ
ĠØªÙģÙĨÚ¯ Ø¯Ø§Ø±Ø§ÙĨ
ĠUn iversity
ĠÚ©ÙĨØ³Ø±ÙĪ Ø§ØªÙĪØ§Ø±
Ø¢ÙģØª Ø§Ø¨
ĠÙĪ Ø±Ø§ÛĮ
ĠÙĤ Ø¶Ø§ÛĮ
ĠØ² ÛĮÙĦ
ĠÙħÙĨ Ø§Ø¨Ø¹ÛĮ
ĠØªÙĪ Ø£Ùħ
ÙĪØ² Ø§Ø±Øª
ĠØ¢ÙĦ Ú©Ø³
ĠÚĺ ÛĮØ²
ÙħÙĨ Ø´
Ú¯Ø±ÛĮ Ø¯
ĠØ±ÙĪØ´ ÙĨÚ¯Ø±ÛĮ
he im
ĠØ¢ÙĤ Ø§Ø®Ø§ÙĨ
ĠÙ¾ÛĮÙħ Ø§ÛĮØ´
ĠØ¹Ø±ÙĪ Ø³Ú©ÛĮ
ĠÙ¾Ø³Ø±Ø§ÙĨ Ø´
Ø¨ÙĨÛĮ Ø§Ø¯
ĠØ®ÙĪÛĮØ´Ø§ÙĪÙĨØ¯ Ø§ÙĨ
ĠØ´ÙĦÙĪ Øº
ĠØ·ÙĦØ³ Ùħ
i la
Ùħ Ø³ÛĮ
ĠØ´ ÙĦÛĮ
ĠØ´ Ø§Ø³ÛĮ
ĠØ¢ÙĨ Ø²
ĠÙĩÙħ Ú¯Ø±Ø§ÛĮÛĮ
ĠÚĨ Ø³ØªØ±
ĠØ±ÙĪ Ø¨ÛĮ
ĠÙħØª Ø¬Ø§
ĠØº Ø³ÙĦ
ĠØ¯Ùĩ Ø§ÙĨÛĮ
ĠØ¨ÛĮ Ø¶Ø§
ÙģÙĤ Ø·
ĠÙĨÚ¯Ùĩ Ø¨Ø§ÙĨÛĮ
ĠØ§Ø´Øª ÙĪØª
ĠÚ©Ø§Ø±Ø¯ ÛĮÙĨØ§ÙĦ
ĠÙħÙĩÙħØ§ÙĨ Ø§ÙĨ
ÙĦØ¦ Ø§ÙĨ
ÙĪÚ¯ÙĦÙĪØ¨ ÛĮÙĨ
O L
ĠÙģØ± ÙĨÚ¯
ĠÙ¾Ø± Ø¢Ø¨
ĠØªØ± Ø´ÛĮ
ĠÙ¾ÛĮ Ø³ØªÙĪÙĨ
ÙĪØ¯ÛĮ ÙĪ
ĠÙģÙĦ ÙĪØª
ĠØ¬ÙĪ ÙĪØ§ÙĨÛĮ
ĠÛ±Û· Û´
ĠØ¯Ø±Ø¢ ÛĮØ¯
ÙħØ¹ Ø§Ø¯ÙĦ
ĠØ®ÙĪØ´ ÛĮ
ĠØ¨ÙĪØ± Ø³ÛĮÙĩ
ĠÙĪØ§ÙĦ Ø§
Û±Û¸Û ³Û
ĠØªÙĪÙ¾ ÙĪÙĦÙģ
Ú©ÙĨØªØ± ÙĦ
4 8
Ø¯ Ø²Ø¯
ĠÚ© Ø¨Ø§Ø¨
Ø¢ Ø°Ø±
ĠØ¨ÛĮ ÙĪØ´ÛĮÙħÛĮ
ÚĨÙĩ Ø§Ø±Ùħ
ĠØ¨ÛĮÙħØ§Ø± Ø§ÙĨÛĮ
ĠÛ±Û¸Û· Û²
ĠØ´Ø§ÙĩØ¯ Ø®Øª
ĠØ¨Ø§Ø³ ÛĮÙĦ
ĠÛĮÙĪÙĨÛĮ ÙĪÙĨ
ĠØ¢ÙħÛĮ Ú¯Ø§
ĠÙģØ§ÛĮ Ø¯Ùĩ
ĠØ´Ø§ÙĦ ÙĪØ¯Ùĩ
Ø¢Ø² Ø§Ø¯ÛĮ
ĠØŃØ´Ùħ Øª
Ùħ Ø°Ùĩ
Ø³Øª ÛĮØ²ÛĮ
ĠØ¬ Ø³ÛĮ
ØŃ Ø§ÙĦÛĮ
ĠÙħØ´ Ø§Ø±Ú©
ĠÙħÙĤ Ø·
ÙĪÙĤ ÙĪØ¹
ĠB l
ol k
ØªØ³ Ú©ÛĮ
Ġd es
ĠÙĨÚ¯Ø§Ø± Ú¯Ø±ÛĮ
ĠØ§Ø±Ø²Ø´Ùħ ÙĨØ¯ÛĮ
ĠØ§Ø³ØªØ¹Ø¯ Ø§Ø¯ÙĩØ§ÛĮ
Ġ he
ĠÚ© Ø§ÙģØ±
ĠØ§Ø³Øª ÛĮÚ©
ĠØ¬ Ø§ÙĪÛĮ
ĠØ® ÙħÛĮØ¯Ùĩ
ĠÙĤ ÛĮØ³
ĠØ³Ø± Ø®Ùĩ
ĠØŃØ³ Ø§Ø¯Øª
ĠÚ©ÙĪ Ø³Øª
ĠÙĩÛĮ Ø£Øª
ĠÙħØ« Ø§ÙĨÙĩ
ut e
ĠJ an
ĠØ®Ø² ÙĨØ¯Ùĩ
ĠØ¢ÙĨØ§Øª ÙĪÙħÛĮ
ĠÙħØ³ØªÙĤ ÛĮÙħÛĮ
ĠØ±ÙĨÚ¯Ø§Ø± ÙĨÚ¯
Ú© ÙħÙ¾
ĠÙĪ Ø¹
ĠØ´ ØºØ§ÙĦ
ĠÙĩ Ú©Ø±
Ø§Øª Ø§ÙĤ
ĠØ¯ÛĮ ÙĪØ§ÙĨÛĮ
ĠØ¯Ø§Ø¯ Ø±Ø³ÛĮ
ĠØªÙħ Ø¨Ø±
Ø¯Ø§ÙĨ Ø³ØªÙĩ
ĠA s
ĠØªÙĪØ± Ø¨
ĠÙħØ§ÙĦ Ú©ÛĮ
ĠØ¯Ø¨ÛĮØ± Ø³ØªØ§ÙĨÛĮ
ĠÙĨÙĤØ§Ø· ÛĮ
ĠØ§ÙĦÙĤ Ø§ÛĮÛĮ
ĠÚ¯ÙĪÚ¯ ÙĪØ±ÛĮÙĪ
ĠØ§Ú©ØªØ´Ø§Ùģ Ø§Øª
ĠØŃØ³Ø§Ø¨Ø± Ø³ÛĮ
i us
Ä į
ĠÙĪ Ø®ÛĮÙħ
ÙģØ± Ø§Ú¯
ĠÚ©Ø± Ø§Øª
ĠØ³ÙĦ Ø³ÛĮÙĪØ³
ĠS P
ĠÙĤØ¯ Ø§ÙħÛĮ
ĠÙħÙĪØªÙĪØ± ÙĩØ§
ĠØ§ÙĦÙĤ Ø§
ĠØ§ÙģØ´ Ø§
ĠÛĮÙĪÚ© ÙĪÙĩØ§ÙħØ§
Ø¯ Ø§Ø¨
Ø§Ø³ ÛĮÙĨ
Ø§Ø±ÛĮ ÙĪÙħ
ĠØªÙĪ Ø§ÙģÙĤÛĮ
ĠÙĦ ÛĮÙĨÚ¯
ĠÙģØ± ÙħØ§ÙĨÛĮ
ÙħÛĮÙĨ ÛĮØ³Ùħ
ĠÙĨÛĮ Ø§Ø¨Øª
ĠØ§Ø¬ Ø§ÙĤ
ĠØ¶ ÙĪ
Ú©Ø§Ø± Ø§ÙĨÙĩ
ĠØ®ÙĪØ§Ùĩ Ø±Ø²Ø§Ø¯Ùĩ
ĠØªÙģ Ø³ÛĮØ±ÛĮ
Ú©Ø´ Ø§ÙĨÛĮ
ĠØ®Ø§ÙĦ ÙĤÛĮ
ĠØ±ÛĮÚĨ ÙĦ
ĠØ´Ø±ÛĮ ÙģÛĮ
if ic
ĠØ§Ø³Ø¯ Ø¢Ø¨Ø§Ø¯
ĠØ§ÙĦØ²Ø§Ùħ Ø§Øª
ĠÙģ Ø³Ø§
ĠØ¨Ø± Ø§
ĠØ® ÛĮÙħÙĩ
ÚĨ ÛĮØ²ÛĮ
ĠØ¹ Ø¬
ĠÙħÙĨ Ø¨Ø±
ĠÚ©Ø§Ø± Ø´Ø§ÙĨ
ĠÂ« ...
Ø²Ø§Ø± ÙĩØ§
ĠØ³Ù¾ Ø§Ø³
ĠØ³ÙĪÙħ Ø±ÛĮ
ÙħØ¯ÛĮ Ø±ÛĮØª
Ú©ÙĦÛĮ Ùģ
ĠØ¹Ú© Ø³ÛĮ
ĠÙĢ ÙĢ
ĠØºÛĮ Ø§Ø¨
our n
ĠÙ¾ÙĩÙĨ Ø§ÙĪØ±
ĠÙ¾Ø®Øª ÙĪÙĨ
ĠØ³ØªÛĮ Ø²
ĠÚ©ÙĦØ§ÛĮÙĨ Øª
ĠØ¨ Ø¦
ĠÙĪ Ø§ÙĨØ¯Ø±
ĠÙĩ Ø§ÙħÙĪÙĨ
ĠØ§ÛĮÙĨ ÚĨÛĮ
Ø³ÛĮ Ø²
Ø¢ Ú¯
ĠØ¯Ø§Ø¯ Ø³ØªØ§ÙĨÛĮ
ØªÙħ ÙĨØ¯Ø§ÙĨ
ĠØ§ÙĪØ± Ø³Øª
ÙĦÛĮÙĨ Ø§
Ú¯ÙĨ Ø§Ùĩ
ĠÚ¯ÛĮÙĦ ÙħÙĪØ±
ĠØ³ÙĨØ¬ Ø±
ĠÚĨÚ¯ Ø§ÙĦ
ĠÙħØ§ÙĨÛĮ ØªÙĪØ±
ĠÙĦØ§Øª ÛĮÙĨÛĮ
ĠØ¨ÛĮÙĨØ¯ Ø§Ø²Ø¯
Ø¯Ø±Ø¨ Ø§Ø±Ùĩ
ĠÙ¾Ø§Ø¨Ø± Ø¬Ø§
ĠØ¹Ø¨ÛĮØ¯ Ø§ÙĦÙĦÙĩ
m in
ĠÙĨ Ø¨Ø§Øª
Ø§ÙĦ Ú¯
ĠÙħØ¹ Ø·Ø±
ĠØªØ± Ø§Ú©
ÙĪÚ© Ø³ÛĮÙĦ
ÙħØª Ø¹
ĠØ¬ÙĩØ§ÙĨ Ú¯ÛĮØ±ÛĮ
Ø±ÙĪØ¯ Ø´Øª
ĠÛ±Ûµ Û´
ĠØ¢Ø° ÙĪÙĤÙĩ
ĠØ¨ÙĨÛĮ Ø§ÙħÛĮÙĨ
ĠÙħÛĮØ±Ø² Ø§ÛĮ
ĠØ¨ÙĦÙĨØ¯ Ù¾Ø§ÛĮÙĩ
ĠÙħØ±Ø² ÙĩØ§
ĠØ§ÙħØ± Ø§Ø±
ĠÚ¯Ùħ Ø§Ø´ØªÙĩ
ĠAm er
ĠÙĩØ§Ù¾ Ú©ÛĮÙĨØ²
ĠØ¯ÙĦØ§ ÙĪØ±
ĠØµØ¯ÛĮ ÙĤ
ĠØ¨ ÙĬ
ØŃ ØªÛĮ
ĠØŃ Øµ
ØªØ± ÙĩØ§
ĠØ§ÙĪ Ø´
Ú¯Ø§Ùĩ Ø±ØªØ²
ĠØ§Ø³ Ø¹Ø¯
ĠÙĦÛĮ Ùħ
ÙģØ§ ÙĪÛĮ
ĠØ¯Ø³ØªÙĪØ± Ø§Øª
ĠÙĨÙĩØ§ Ø¯ÙĩØ§
Ġf light
ĠÙĨØ¹ ÙħØ§ÙĨ
Ø¢ÙħÙĪ Ø²ÛĮ
ĠØ§Ø¦ØªÙĦ Ø§ÙģÛĮ
ĠØªØ¯Ø§Ø±Ú© Ø§Øª
N T
R C
ÙĦ ÙĪÙĦ
ĠÙħ Ø§ÙģÛĮ
Ø§ÙĨ Úĺ
ÙĪØ± Ø§ÛĮ
ĠØ¨Ø± ÙĪÙħÙĨØ¯
ĠÚ¯ ÙĦØ³
ĠÚĨ ÛĮØª
ĠÙģØ± Ø§Ø¨ÙĨÙģØ´
ĠÙ¾ÛĮ Ø§ÙĨ
ĠØ¨ÙĦ Ø§Øº
ĠØ§Ú© Ø¯ÛĮ
ĠÛ±Û¸Û ³Û°
ĠØ¬ÙĪ Ø§Ø¯ÛĮ
Ù¾Ø± ÙĪÙħ
Ú©ÙĪ ÛĮÙĨ
ĠØ¨ÛĮØ± Ø§ÙĨ
ĠÛ²Û² Û·
ĠN et
il d
ĠÙĦÙĪ Ú¯Ø§ÙĨ
ĠÙħØ±Ø² Ø¨Ø§ÙĨ
ĠØ¬Ø§Ø³ Ú©
ĠØ´ÙĪØ´ ØªØ±ÛĮ
ĠØ§Ø¨ÙĪ Ø¸Ø¨ÛĮ
ØªÙĪØ³ Ø·
ĠØ±ÙĪØ´ÙĨÙģ Ú©Ø±
× ķ
Ø¯ Ú¯ÛĮ
ĠÙĪ ÙĨÚ¯
ĠØ´ ÙģÙĤ
ĠÙĨ Ø¯Ø§Ø±Ùħ
ĠØ¢ ÙħØ§ÙĨ
ØŃ Ø³ÙĪØ³
ĠÚ¯ Ø§ÙĪÙħ
ĠØ¹ Ø¬Ø§ÛĮØ¨
ĠÙĦ ÙħØ¨
ĠÛĮ Ø§Ø³Ø±
ĠØ³ÛĮ Ø§ØªÙĦ
ĠÛ±Û³Û ¹
Ø§Ø· Ø¨ÛĮ
ĠÛ²Û°Û ¹
ĠØ³ÛĮØ§Ùĩ ÚĨØ§ÙĦÙĩ
ĠÚ¯Ø±Ùħ Ø³Ø§Ø±
Ø¸Ùĩ ÙĪØ±
ĠÙĤÙĦÙħØ±ÙĪ ÙĩØ§ÛĮ
Ø³Ø§Ø®Øª ÙĨØ¯
ĠØ±ÙĪÛĮÚ© Ø±Ø¯ÛĮ
ĠÙĦÙĨÚ© Ø³ØªØ±
ĠÛĮÙĪØ³ ÙģÛĮ
ĠØ§Ø³ØªÙĨØª Ø§Ø¬
Ø§ÙĦ ÙĪØ³
ĠØŃ Ø¬Ø±
Ø§Ù¾ Ø³
ĠÙ¾Ø± Ø®Ø§Ø´
ĠØ§Ø¨ ÙĪØŃ
ĠØ¨Ø§Ø± ÙĪ
ĠÛ±Û¶ Û¶
ĠB ur
Ø§ÙĨÚ© ÙĪ
ĠØªÙĪØ± ÙĪ
el le
ĠN a
Ø§Ø³Ø± Ø§Ø¦ÛĮÙĦ
ĠØ®ÙĦÛĮ ÙĦÛĮ
ĠÙĨØ§Ø¨ ÛĮÙĨ
ĠØ§Ø³ØªØ« ÙĨØ§
ÙĤ Ø¹
Ø§Ø² ÛĮØ§
Úĺ ÙĦ
ĠØ³ÛĮ ÙĦÛĮØ³
ĠØ¯Ø§ÙĨ ØªÙĩ
ĠØŃÚ© ÙĪÙħ
ÙĪÙģ Ø§Øª
ĠÙ¾Ø§Ø¯ ØªÙĨ
ĠÛ±Û´ Û¸
ÚĨØ± Ø§Øº
ĠØ³ÙĪØ± Ø¨ÙĨ
ĠÙħØ¯Ø±Ú© ÛĮ
Ø³Ø§Ø®Øª ÙħØ§ÙĨ
Ø·Ø¨ ÙĤÙĩ
ĠÙĦÛĮÙĨØ¯ Ø§
ĠÚ¯Ø±ÛĮØ®Øª ÙĨØ¯
Ú¯Ø°Ø§Ø´Øª ÙĨØ¯
ĠØªØ´Ø±ÛĮÙģ Ø§ØªÛĮ
ĠØ§Ù¾ÙĦÛĮÚ© ÛĮØ´ÙĨ
ÙĨ Ø«
ĠÚ© Ø§ÙĪÙĨ
Ø¨ Ø¯ÙĨ
ĠØ¨Ùĩ Ø§Ø¯Ø±
ĠÙħÙĪ ÙĩØ§
ĠÚ©Ø± ÙĪÙĦ
Ø§ÙĪ Ø§ÛĮ
ĠM or
as p
ĠØ¬Ø¯ Ø§ÛĮ
ĠØ¬ÙĦÙĪ ØªØ±
ĠÙħÙĤØ§ ÙĪÙħØªÛĮ
ĠØ±ÛĮØ³ ÙħØ§ÙĨ
ĠÛ±Û¸Û´ Û°
ĠØŃØ¨ ÙĪØ¨Ø§Øª
ĠÙħÙģÙĤ ÙĪØ¯
ÙĪÙ¾Ø±ÙĪØª Ø¦ÛĮÙĨ
ĠØ§Ø´ØªÙĪØª Ú¯Ø§Ø±Øª
P C
ĠÙħ Ø§Ø¦ÙĪ
ÚĨ Ø§Ú©
Ø§Ø² Ø§Ø¯Ùĩ
Ø§Ø³Øª ÙĨ
Ø±ÙĪ Ø´ÙĨ
ĠÙħÙĨ Ú©Ø±
ĠØ§Ø³ ÛĮØ¯ÙĩØ§
ĠØ³Ø± ÙĪØ§ÙĨ
ĠØ§Ø± Ø§ÛĮÙĩ
ĠÛĮ Ø§Øª
ĠÚ¯Ø± Ø§ÙģÛĮ
Ø§Øº ÙĦØ¨
ĠÙģØ±ÙĪ Ø³Ø±Ø®
ĠÙĨÛĮÙħ Ú©Øª
ĠÙĨÙģ ÙĪ
as k
ÙĪÙĪ Ø§Øª
ĠÛ²Û¶ Ûµ
ĠØªÙĪÙħ Ø§ÙĨÛĮ
Ú©Ø±ÛĮ Ù¾Øª
ÙģØ±Ø¯ ÛĮ
ĠÚ©ÙĪØ¯Ú© Ø§ÙĨÛĮ
ĠÙĦØ² ÙĨØ±
ĠÙħÙħÙĨÙĪ Ø¹Ùĩ
ĠÙħØ¹Ø§ÛĮ Ø¨
Ø´ÙĨØ§Ø®Øª ÙĨØ¯
ĠÚ©Ø±Ø§ÛĮ Ø³ÙĦØ±
ĠÚ© Ø«Ø±Øª
ÙĪØ± Ø§Øª
ĠØ® Ø¯ÛĮ
ĠØ® Ø¯Ø§Ø¯
ÙĨÛĮ Ø§ÛĮ
Ø¨Ø§ÙĦ ÙĪ
in k
ĠØ´ÛĮ ÙģØª
ĠÛ±Ûµ Û·
ĠP ort
ĠÛ±Û³ Û°Û³
us es
ĠÙĨØ§Ø¨ Ø¬Ø§ÛĮÛĮ
Ġ3 166
ĠÙħØ´Ø±ÙĪ Ø¨
Ø®Ø¯ ÙħØª
ĠÙĪØ§Úĺ Ú¯ÙĪÙĨ
ĠÚ©ÙĪÙ¾ Ø§
ĠØŃÛĮØ¯Ø± Ø¢Ø¨Ø§Ø¯
ĠÙħÚ©Ø§ÙĦ ÙħÙĩ
Ùħ Ø§ÙĦÛĮ
ĠØ¨ ÙĪÚĨ
Ø¬ Ø§Ø¨
ĠØ¨Ø± Ø§ÙĨÚ¯ÛĮØ²
Ø§Ùĩ ÛĮÙħÛĮ
Ø§Ø´ Ø¯Ùĩ
Ø§ÙĨÛĮ Ø³Øª
ÙĪØ±ÛĮ Ø³Ùħ
ĠØ¢ÙĦ Ú©Ø³ÛĮ
ĠØ¨Ø¹ ÛĮØ¯
ĠØªÙħØ§Ùħ ÛĮØª
ÙĪØ§ Úĺ
ion s
Ø§ÙģØª Ø§Ø¯
ĠØ¯Ø§Ø¦ ÙħØ§
ĠØºÙĦØ§Ùħ Ø¹ÙĦÛĮ
ĠÙĤØ¶Ø§ÛĮÛĮ Ùĩ
ĠÙģØ´ ÙĨÚ¯
l og
Ú© ØªÛĮ
ĠØ± Ù¾Ø±
Ø§ÙĦ Ø²
ÙĦÛĮ ØªÛĮ
ĠØ¢Ùħ ÙģÛĮ
ĠÙħØ¬ ÙĩÙĪÙĦ
ĠØ§ØŃ ÙħØ±
ĠØ±Ø§Ùĩ Ú©Ø§Ø±
ĠØ¬ÙĪ ÛĮÙĨ
ĠØ§Ø±Øª Ú©Ø§Ø¨
ĠÙħØ³ÙĦ ÙħÛĮÙĨ
ĠØ§ÙħÙ¾Ø±Ø§Øª Ø±ÛĮØ³
ĠÛ²Û´ Ûµ
ĠÛ±Û¸Û¶ Û¶
ĠÙĩØ±Ú© Ø³
ĠÚ©Ø±ÙĨ ÙĦ
ĠØ§ÙħÙĦ Ø´
ĠØ¨ Ø³ÙĪÛĮ
ĠØ´ Ø§ØºÙĦ
Ø¢ Ø²Ø§Ø¯
ĠØ¯ÛĮ Ø§ÙĦÙĪÚ¯
ĠÙĪÛĮ ÚĨ
ĠÚ©Ø± ÙħÛĮ
ĠÙĨØ´ Ø§Ø·
ĠØ§ÙĨØ¬ ÙħØ§Ø¯
Ø¨Ø±ÛĮ Ùħ
ĠÙĩÛĮÚĨ Ú©Ø§Ú©
ĠÚ©Ø§ÙĦ Ø±ÛĮ
ÙħØ¹ ÙħØ§Ø±ÛĮ
ÙĨØ³ Ø¨Øª
ĠØ®ÙĦÙĤ Øª
ĠÚ¯ÙĪÛĮ ÙĨØ¯Ú¯ÛĮ
Ø§Ø¬ØªÙħ Ø§Ø¹ÛĮ
ĠÙħ ÙĨØ¯Ø±
ĠÙĪ Ø±Ú©
Ø´ Ø§ÛĮØ¯
ĠÚ©Ø± Ø§Ùħ
ĠØ§Ø¯ ÙĪØ§Øª
ĠÙĦÛĮ Ø³ØªÛĮ
ĠÚ©Ø§ÙĨ Ø±
ĠØ¸ Ø±Ø§ÙģØª
ØªÙĤ Ø§Ø±ÙĨ
ĠØ®Ø± Ø§Ø´
ĠØªØ® ÙħØ¯Ø§ÙĨ
ĠØ³Ø§ÙĨ ÙģØ±Ø§ÙĨØ³ÛĮØ³Ú©ÙĪ
ĠØ¹Ø§ÙĦÛĮ Ùĩ
us s
Ø´Ùĩ ÛĮØ¯
ĠÚ©Ø§Ø³Øª Ø±ÙĪ
ĠØ¢Úĺ Ø§Ú©Ø³
ĠØ·Ø±ÛĮ ÙĤÙĩ
ĠØ²ÙĪØ§ÛĮ Ø§ÛĮ
P h
Ø¯ Ø§Ø´ØªÙĩ
ÙĤ Ø¨ÙĦ
ĠØ¢ ÙĪØ§ÛĮÛĮ
Â» ØĽ
Ø´Ùħ Ø³
ÙģÛĮ ÙĦÛĮÙ¾
ĠØ¢ÙħØ§Ø± ÙĩØ§ÛĮ
Ø¨Ø§Ø± Ø²
ĠØ³ÙĪ Ø²ÛĮ
ÙĨØ§ÛĮ Ø¯Ø±
it a
ĠØ¶ÙĪ Ø§Ø¨Ø·
t s
w are
Ø³ ÙĪØ¦
ĠØ¯Ø± Ø¯ÙĩØ§ÛĮ
ĠØ³ Ø§ÛĮØ´
ĠØ² Ø§ÙĩØ¯
ØªØ± ÛĮÚ©
ÛĮØ¯ Ø³
ĠØ¯ÛĮ Ø§Ø²
ĠØº ÙĨØ§ÛĮ
Ø±Ùģ ÙĪØ±Ø¯
ĠÙħÛĮÙĦ Ø§ÙĨÛĮ
ĠÛ²Û°Û ¸
[...]
