{"<s>":0,"<pad>":1,"</s>":2,"<unk>":3,"<mask>":4,"!":5,"\"":6,"#":7,"$":8,"%":9,"&":10,"'":11,"(":12,")":13,"*":14,"+":15,",":16,"-":17,".":18,"/":19,"0":20,"1":21,"2":22,"3":23,"4":24,"5":25,"6":26,"7":27,"8":28,"9":29,":":30,";":31,"<":32,"=":33,">":34,"?":35,"@":36,"A":37,"B":38,"C":39,"D":40,"E":41,"F":42,"G":43,"H":44,"I":45,"J":46,"K":47,"L":48,"M":49,"N":50,"O":51,"P":52,"Q":53,"R":54,"S":55,"T":56,"U":57,"V":58,"W":59,"X":60,"Y":61,"Z":62,"[":63,"\\":64,"]":65,"^":66,"_":67,"`":68,"a":69,"b":70,"c":71,"d":72,"e":73,"f":74,"g":75,"h":76,"i":77,"j":78,"k":79,"l":80,"m":81,"n":82,"o":83,"p":84,"q":85,"r":86,"s":87,"t":88,"u":89,"v":90,"w":91,"x":92,"y":93,"z":94,"{":95,"|":96,"}":97,"~":98,"¡":99,"¢":100,"£":101,"¤":102,"¥":103,"¦":104,"§":105,"¨":106,"©":107,"ª":108,"«":109,"¬":110,"®":111,"¯":112,"°":113,"±":114,"²":115,"³":116,"´":117,"µ":118,"¶":119,"·":120,"¸":121,"¹":122,"º":123,"»":124,"¼":125,"½":126,"¾":127,"¿":128,"À":129,"Á":130,"Â":131,"Ã":132,"Ä":133,"Å":134,"Æ":135,"Ç":136,"È":137,"É":138,"Ê":139,"Ë":140,"Ì":141,"Í":142,"Î":143,"Ï":144,"Ð":145,"Ñ":146,"Ò":147,"Ó":148,"Ô":149,"Õ":150,"Ö":151,"×":152,"Ø":153,"Ù":154,"Ú":155,"Û":156,"Ü":157,"Ý":158,"Þ":159,"ß":160,"à":161,"á":162,"â":163,"ã":164,"ä":165,"å":166,"æ":167,"ç":168,"è":169,"é":170,"ê":171,"ë":172,"ì":173,"í":174,"î":175,"ï":176,"ð":177,"ñ":178,"ò":179,"ó":180,"ô":181,"õ":182,"ö":183,"÷":184,"ø":185,"ù":186,"ú":187,"û":188,"ü":189,"ý":190,"þ":191,"ÿ":192,"Ā":193,"ā":194,"Ă":195,"ă":196,"Ą":197,"ą":198,"Ć":199,"ć":200,"Ĉ":201,"ĉ":202,"Ċ":203,"ċ":204,"Č":205,"č":206,"Ď":207,"ď":208,"Đ":209,"đ":210,"Ē":211,"ē":212,"Ĕ":213,"ĕ":214,"Ė":215,"ė":216,"Ę":217,"ę":218,"Ě":219,"ě":220,"Ĝ":221,"ĝ":222,"Ğ":223,"ğ":224,"Ġ":225,"ġ":226,"Ģ":227,"ģ":228,"Ĥ":229,"ĥ":230,"Ħ":231,"ħ":232,"Ĩ":233,"ĩ":234,"Ī":235,"ī":236,"Ĭ":237,"ĭ":238,"Į":239,"į":240,"İ":241,"ı":242,"Ĳ":243,"ĳ":244,"Ĵ":245,"ĵ":246,"Ķ":247,"ķ":248,"ĸ":249,"Ĺ":250,"ĺ":251,"Ļ":252,"ļ":253,"Ľ":254,"ľ":255,"Ŀ":256,"ŀ":257,"Ł":258,"ł":259,"Ń":260,"Ø§":261,"ĠØ":262,"ÛĮ":263,"Ø±":264,"ÙĨ":265,"ÙĪ":266,"Ùĩ":267,"Ùħ":268,"Ø¯":269,"Øª":270,"Ø§Ø":271,"ÙĦ":272,"Ú©":273,"ĠØ¨":274,"ĠÙħ":275,"Ø§ÙĨ":276,"ĠØ¯":277,"Ø§ÛĮ":278,"Ø³":279,"âĢ":280,"âĢĮ":281,"ĠØ§Ø":282,"ĠÙĪ":283,"Ø§Ø±":284,"ĠÚ©":285,"Ùģ":286,"Ø´":287,"Ú¯":288,"ĠØ¯Ø±":289,"Ø¨":290,"ÙĤ":291,"ĠØ³":292,"ĠØ´":293,"ĠØª":294,"ĠÙĨ":295,"ĠØ±":296,"Ø§ÙĦ":297,"Ø²":298,"³Øª":299,"ØĮ":300,"Ù¾":301,"Ø¯Ùĩ":302,"ĠØ¨Ùĩ":303,"Ø¹":304,"ĠØ¢":305,"ĠØ§Ø²":306,"ÙĨØ¯":307,"Ø§Ùħ":308,"ÙĪØ±":309,"ĠÛ":310,"ĠØ§ÛĮ":311,"ĠÙħÛĮ":312,"Ø³Øª":313,"ÙĪØ¯":314,"ÛĮÙĨ":315,"ĠØ§Ø³Øª":316,"ĠÙĩ":317,"ĠÙ¾":318,"ĠÚ©Ùĩ":319,"ÛĮÚ©":320,"Ø¬":321,"Ø®":322,"Ø§Ø¯":323,"ĠØ¬":324,"ĠÙģ":325,"ĠØ¨Ø±":326,"ÙĩØ§ÛĮ":327,"ĠØ§":328,"ĠØ®":329,"ÙĦÛĮ":330,"±Û":331,"ĠØ§ÛĮÙĨ":332,"Ø§Ùĩ":333,"ØŃ":334,"ĠÚ¯":335,"Ø±Ø¯":336,"ÙĪÙĨ":337,"ÚĨ":338,"Ø±ÛĮ":339,"Ø§Øª":340,"ĠØ¹":341,"Ø·":342,"Ø§Ø¨":343,"ĠÙĤ":344,"Ø§Ø²":345,"ĠØ±Ø§":346,"ÛĮØ±":347,"ĠØ²":348,"ĠÛ±Û":349,"ÙĪÛĮ":350,"ĠØŃ":351,"ĠÛĮÚ©":352,"Ġ(":353,"Û°":354,"ĠØ¨Ø§":355,"Ø§Ø³Øª":356,"Ø³ÛĮ":357,"Ø§Ø´":358,"ĠØ¢ÙĨ":359,"Ø§Ø³":360,"Øµ":361,"ØªØ±":362,"ÙĪÙĦ":363,"Ø§ÙĨÛĮ":364,"ÙĩØ§":365,"Ø§Ø±ÛĮ":366,"ĠØ³Ø§ÙĦ":367,"ÛĮÙĦ":368,"ØªÙĩ":369,"ÙĪØ§ÙĨ":370,"ÛĮØª":371,"Ø±Ø§ÙĨ":372,"ĠØ´Ø¯Ùĩ":373,"ÙĪÙħ":374,"ĠØ§ÙĨ":375,"ĠÙĩÙħ":376,"ÛĮØ§":377,"ÙĶ":378,"Ø§Ø±Ø¯":379,"ÛĮØ¯":380,"ĠÚĨ":381,"ÙĩØ±":382,"ĠØ´Ø¯":383,"Ø±ÙĪ":384,"ĠØ±ÙĪ":385,"ÛĮÙħ":386,"ĠØ¨ÙĪØ¯":387,"¹Û":388,"Ø³ØªØ§ÙĨ":389,"ĠØ§ÙĪ":390,"ØªÛĮ":391,"Ø§Ø¯Ùĩ":392,"Ø§ÛĮÛĮ":393,"ĠÛ²":394,"ÙħØ§ÙĨ":395,"Ø§ÙĤ":396,"ÙģØª":397,"Ø±Ú©":398,"ĠÙħÙĨ":399,"Úĺ":400,"ĠØªÙĪ":401,"ÙĨÚ¯":402,"ĠØ¨Ø±Ø§ÛĮ":403,"ĠÚ©Ø±Ø¯":404,"³Û":405,"ĠØ·":406,"ĠÙĦ":407,"Ø¶":408,"Ø§Ø®":409,"ĠØµ":410,"ĠØ´ÙĩØ±":411,"Ú¯Ø§Ùĩ":412,"ÛĮØ´":413,"Øº":414,"ÙģØ±":415,"Ø°":416,"ĠÙħÙĪ":417,"Ú¯Ø±":418,"Ø±Ø¨":419,"ÛĮØ²":420,"ĠØ§Ùħ":421,"ĠØ¢Ùħ":422,"ĠÙģØ±":423,"ĠØ¯Ø§Ø±Ø¯":424,"Ú¯ÛĮ":425,"ĠÙħØŃ":426,"Ø§Ú©":427,"ĠÚ©Ø´":428,"ĠØ¨Ø§Ø²":429,"ĠØ§Ø³":430,"ĠØ¬Ùħ":431,"ĠØ®ÙĪØ¯":432,"Ø¢":433,"ĠÛĮØ§":434,"ĠÙħØª":435,"ĠÙħØ³":436,"ĠØ³Ø±":437,"ÙħÛĮ":438,"Ø«":439,"ĠÚ©Ø§Ø±":440,"Ø¸":441,"Ø¦":442,"Û°Û":443,"ĠÙĤØ±":444,"Ø§Ø¯ÛĮ":445,"ĠÛ±Û¹Û":446,"ÙĦÙĩ":447,"ĠØ§Ø±":448,"Ø§ØŃ":449,"ĠØ§ÛĮØ±Ø§ÙĨ":450,"Ø§Ø±Ùĩ":451,"Ø´ÙĪØ¯":452,"ĠÙħØ¹":453,"Ø§ÙĨØ¯":454,"ĠÙĨØ§Ùħ":455,"Ø¨ÛĮ":456,"ĠØ¯ÛĮ":457,"ÙĨÛĮ":458,"Ø§Ø¹":459,"ÙĪØª":460,"Ø§ÙĤØ¹":461,"¸Û":462,"Ø²ÛĮ":463,"ĠÙĪØ§ÙĤØ¹":464,"ĠØ¯ÙĪ":465,"ĠØ§ÙĦ":466,"ĠÙĪÛĮ":467,"ĠÂ":468,"Ø§ÙĨÙĩ":469,"ĠÛĮ":470,"ĠØ³ÛĮ":471,"Ø§Ùģ":472,"Â»":473,"ĠØªØ§":474,"Ø¨Ùĩ":475,"Ø¨Ø±":476,"ĠÂ«":477,"Ú©ÙĨ":478,"ÙĤÛĮ":479,"Ø¯Ø±":480,"ĠÚ¯Ø±":481,"ÙĪØ±ÛĮ":482,"ÙĪØ±Ø¯":483,"ÙĪØ´":484,"Ø§ÙĦÛĮ":485,"Ø¯ÛĮ":486,"ĠÚ©Ø±":487,"ÙĨØ¯Ùĩ":488,"ĠÙĤØ±Ø§Ø±":489,"Ø¹ÛĮØª":490,"Ø§Ø´Ø¯":491,"ÙĪØ¯Ùĩ":492,"ÙħÛĮÙĨ":493,"Ø®Ø´":494,"ĠØ¯Ø§Ø´":495,"ĠÛ±Û³Û":496,"ĠØº":497,"ÙĪØ²":498,"ĠÙĨÙģØ±":499,"ĠØ¯Ùĩ":500,"ĠØ±ÙĪØ³Øª":501,"ĠÙĨÛĮØ²":502,"ÙĤÙĩ":503,"Ø¹Ùĩ":504,"ĠÙħØ¬":505,"ĠÙĨÙħ":506,"Ġ\"":507,"ĠÙ¾Ø³":508,"ÙĨÙĪØ§ÙĨ":509,"ĠØ¯Ø³Øª":510,"ĠÙħØ´":511,"ÙĪÙĨÛĮ":512,"Ø±ÛĮÚ©":513,"Ø§ÙħÙĩ":514,"ĠÙħØ±":515,"ØªÙĪØ§ÙĨ":516,"Û²":517,"ÙĪØ³":518,"ĠØ¬ÙħØ¹ÛĮØª":519,"ĠÙģÛĮÙĦ":520,"ÙģØªÙĩ":521,"ĠØ¯Ø§Ø±":522,"ĠÚ©ÙĨ":523,"Ø´Ùħ":524,"ÙĪØ¨":525,"Ø§Ø¬":526,"ÛĮÙĩ":527,"ÙĪÙĩ":528,"ĠØ¨ÙĪØ¯Ùĩ":529,"ĠØ§Ø´":530,"Ûµ":531,"ĠØ¨Ø®Ø´":532,"ĠÙħØ¯":533,"ĠØ¯ÙĪØ±":534,"ĠØ¯Ø§ÙĨ":535,"Ùĭ":536,"Ø´Øª":537,"ĠØ¢ÙħØ±ÛĮÚ©":538,"Ø§ÙĦØ§Øª":539,"ĠÙħÙĤ":540,"ĠØ´ÙĩØ±Ø³ØªØ§ÙĨ":541,"ĠÛĮÚ©ÛĮ":542,"Ø²Ø§Ø±":543,"ØĽ":544,"Û±Û":545,"ĠØ¨Ø§Ø²ÛĮ":546,"ĠØªÙĪØ³":547,"ĠÙĨÙĤ":548,"Ø´Ú©":549,"ĠØ³Ø§Ø®":550,"Ú©ÙĨØ¯":551,"ĠÚ©Ø´ÙĪØ±":552,"ĠÙħØ±Ú©":553,"ÙĨÛĮÙĨ":554,"ĠØ¹ÙĨÙĪØ§ÙĨ":555,"ĠØ¢ÙĦ":556,"Ø§Ø·":557,"ĠÙĩØ±":558,"ÙħØ¯":559,"Ø¬Ùĩ":560,"Ø¹Ø¯":561,"Ø§Ù¾":562,"Ú©Ùĩ":563,"Û´":564,"ĠÙĨØ¸":565,"Ø¨Ø§ÙĦ":566,"ØªØ±ÛĮÙĨ":567,"ĠØ¨ÛĮ":568,"Ø®Øª":569,"ĠÙģÛĮÙĦÙħ":570,"Ø±Ùģ":571,"Ø´ÙĨ":572,"ĠÙĨÙĪ":573,"Ø§ÙħÛĮ":574,"ĠØ´Ùħ":575,"ĠÚĺ":576,"ÙģØ§Ø¯Ùĩ":577,"ĠØ¹ÙĦ":578,"ĠØ§Ùĩ":579,"ÙĪÙĨØ¯":580,"ĠØ¹Ùħ":581,"ĠØ§Ø¹":582,"ĠØ§Ø³ØªÙģØ§Ø¯Ùĩ":583,"ĠØ§Ø³ØªØ§ÙĨ":584,"Ø§Ø¦":585,"ØªØ´":586,"ĠÙĩÙħÚĨ":587,"Û·":588,"ĠÙ¾Ø±":589,"Û¶":590,"Ø¨Øª":591,"Ø§Ø³ÛĮ":592,"Ø¨Ø§ÙĨ":593,"ĠÚ©Ø±Ø¯Ùĩ":594,"ÙĪØ±Øª":595,"Ø§Øµ":596,"ĠØ§Øµ":597,"Ø¬ÙĪØ¯":598,"ÙĪØ§Ø±":599,"ÙĨØ§ÙħÙĩ":600,"ĠÙ¾ÛĮØ´":601,"ĠØ¬Ùĩ":602,"ĠÙħÙĩ":603,"Û°Û°":604,"ĠÚ©Ùħ":605,"Ø²Ø±":606,"ÙĩØ§ÛĮÛĮ":607,"ĠØ§Ø¨":608,"Ø§Ø±ÛĮØ®":609,"Ø£":610,"ĠÙħÛĮÙĦ":611,"ĠØªØŃ":612,"Ø§ÛĮØ´":613,"ĠÙ¾Ø§ÛĮ":614,"ĠØªÙĪØ³Ø·":615,"ĠØ¬ÙĨ":616,"ĠØ¢ÙħØ±ÛĮÚ©Ø§":617,"ĠØ¨ÛĮÙĨ":618,"Ø§ÙħÙĦ":619,"ĠØªØ±":620,"Ú¯Ø§ÙĨ":621,"ĠØ¯Ø§Ø¯":622,"ĠØ¨ÛĮØ´":623,"ÙĪÚ©":624,"ĠØªØ§Ø±ÛĮØ®":625,"Ø±Ú©Øª":626,"ĠÛ²Û°Û":627,"ĠÙĨÛĮ":628,"ĠÙĩØ³Øª":629,"ĠÙħÙĨØ·":630,"ĠØ¯ÛĮÚ¯Ø±":631,"Ø§Ø²ÛĮ":632,"ĠØ²ÛĮØ±":633,"Ø¹ÛĮ":634,"ÙĲ":635,"Ø§Ø±Ú©":636,"Ø¨Ø§Ø´Ø¯":637,"Ø³Ùĩ":638,"ĠØ§ÙĪÙĦ":639,"Ú©ÙĦ":640,"ĠÚ©ÙĦ":641,"ĠØ§Ø¯":642,"Ú¯Ø±Ø¯":643,"ĠÙħÙĨØ·ÙĤÙĩ":644,"ĠØ§ÙĨÚ¯":645,"ĠØ¨ÙĨ":646,"ĠØ¯Ø§Ø´Øª":647,"ĠÛ²Û°Û±Û":648,"ĠÙĨØ´":649,"ØªØ§Ø¨":650,"ÙħÙĨ":651,"ÙĨØ¬":652,"ĠÙħØªØŃ":653,"ÙĪÙĨÙĩ":654,"ĠØ¯Ø§ÙĨØ´":655,"ĠØ§Ø¬":656,"ĠØ§ÙĨØª":657,"ĠØ¨Ø³ÛĮ":658,"ĠØ§Ùģ":659,"ĠÙ¾ÛĮ":660,"ĠÙģÙĪØª":661,"ĠÙħØ±Ø¯":662,"ĠÙħÙĦÛĮ":663,"ĠØ²ÛĮ":664,"Ø±Ùĩ":665,"ĠØ¨Ø²Ø±":666,"ĠÛ²Û°":667,"ÙħØª":668,"ĠØªÙĨ":669,"ÙħØ§ÙĨÛĮ":670,"ĠØ±ÙĪØ³ØªØ§":671,"ĠØ±ÙĪÛĮ":672,"ĠĊ":673,"ĠÙĩÙħÚĨÙĨÛĮÙĨ":674,"ĠØ§ÙħØ§":675,"Ø§Ø±Øª":676,"ĠØ¨Ø¯":677,"ĠØ«":678,"ĠØ¨ÙĦ":679,"Ù«":680,"Ú¯Ø°":681,"ĠØ®ÙĪ":682,"ĠØ´Ø±":683,"ĠØ§ÙĩÙĦ":684,"ĠØ´Ø±Ú©Øª":685,"ĠÙħÛĮÙĦØ§Ø¯ÛĮ":686,"Ù¬":687,"ĠÙĪØ¬ÙĪØ¯":688,"Ø§ÙĪ":689,"ĠÙģÙĪØªØ¨Ø§ÙĦ":690,"ÙĪØ¦":691,"ĠØ§Øª":692,"Ø®Øµ":693,"ĠØ±ÙĪØ²":694,"Ø´ÛĮ":695,"ĠÛ´":696,"ĠØ¢Ø¨":697,"ĠØµÙĪØ±Øª":698,"ĠÙħÙĪØ±Ø¯":699,"Ø´Ø¯":700,"ĠØ¯Ø§Ø´ØªÙĩ":701,"ĠØ¨Ø§Ø´Ø¯":702,"ÙħÙĪ":703,"ĠØ¯Ø±ÛĮØ§":704,"Ø§Ø¨Ø±":705,"Û³":706,"ĠÙĩÙĨ":707,"ĠØ§ÙĨØ¬":708,"ĠØ§ÛĮØ§ÙĦØ§Øª":709,"ĠÙħØªØŃØ¯Ùĩ":710,"Ø§ÙĦØª":711,"Ø§ÙĩÛĮ":712,"ĠØ¨Ø§Ø±":713,"Ø²Ùĩ":714,"ĠÚ¯Ø±ÙĪ":715,"ĠÙĩØ³ØªÙĨØ¯":716,"ĠÚ©ÛĮÙĦ":717,"ĠØªÙĩ":718,"Û¸":719,"ĠÚĨÙĩ":720,"ĠÚ©ØªØ§Ø¨":721,"ĠØ®Ø§ÙĨ":722,"ĠØ¨Ø§Ø´":723,"ÙĪÙ¾":724,"ĠØ³Ø§Ø®Øª":725,"ÛĮÙĨÛĮ":726,"Û±":727,"ĠØªÙĦ":728,"ĠÛµ":729,"ĠØ³Ø·":730,"ĠÙħØ±Ø¨":731,"Ø§ÛĮØª":732,"ÙģÛĮ":733,"Ø§ÛĮØ¯":734,"ĠØ³Ù¾":735,"ĠØªØ£":736,"Ú©ÛĮ":737,"ĠØ§Ø´Ø§Ø±Ùĩ":738,"ĠØªÛĮÙħ":739,"Ø¯Ø§":740,"ĠØ¨Ø²Ø±Ú¯":741,"ĠØ³ÙĦ":742,"ÙĨÙĩ":743,"ĠÙħØªØ±":744,"ĠÚ¯Ø±ÙĪÙĩ":745,"ĠØ§ØŃ":746,"ÙħÙĩ":747,"ĠØ¬ÙĨÚ¯":748,"ĠØ¹Ø¨":749,"ĠØ³Ø§Ø²":750,"ĠÙħØ±Ú©Ø²":751,"ĠÛ²Û°Û°Û":752,"ĠØ²Ø¨Ø§ÙĨ":753,"ĠÙģØ¹":754,"ĠØ³Ùĩ":755,"Ø²Ø¯":756,"ĠÚĨÙĨØ¯":757,"ĠØ³Ø·ØŃ":758,"or":759,"ĠØªÙħ":760,"ĠØ§Ø®":761,"ĠØ²ÙħØ§ÙĨ":762,"ĠØªØµ":763,"ĠØ²ÙħÛĮÙĨ":764,"ÙħÙĦ":765,"Ø§Ø¨Ø¹":766,"Ø¯Ø§Ø±":767,"ÙĩÙĨÚ¯":768,"ĠÙĨØ³":769,"Û¹":770,"ĠÙħØ§ÙĨ":771,"ĠÚ©ÛĮÙĦÙĪÙħ":772,"ĠØ¯ÙĪØ±Ùĩ":773,"ĠÚ©ÙĨØ¯":774,"ÚĨÙĩ":775,"ĠØ¬Ø§ÛĮ":776,"ĠÙĦÛĮ":777,"Ø±Ùħ":778,"ĠØ´ÙĨ":779,"Ú©Ø§ÙĨ":780,"ĠÙĩÙĪ":781,"ĠØ±Ø³ÛĮ":782,"Ø´ÙħØ§Ø±ÛĮ":783,"Ú©ÙĨÙĨØ¯":784,"Ø§ÛĮÙĨ":785,"ĠØ¨Ø§ÙĦ":786,"Ø§ØªÛĮ":787,"ĠØ¨Ø±Ø®":788,"ĠØ§ÙĤ":789,"Ú©Ø±Ø¯":790,"Ø§Ø¨ÙĦ":791,"ĠØ¨Ø¹Ø¯":792,"ĠØ§ÙĨÚ¯ÙĦÛĮ":793,"ÛĮØ³":794,"Ø´ØªÙĩ":795,"Ø¯Ø§ÙĨ":796,"ĠØªØ±Ú©":797,"ØªÙħ":798,"ĠÚ¯Ø±Ø¯":799,"ĠÚ¯Ø±ÙģØª":800,"Ø±Ø²":801,"ĠØ¯Ø§Ø¯Ùĩ":802,"ĠØ¶":803,"ĠØ§Ø«":804,"Ø³ØªÙĩ":805,"ÙĪØ·":806,"Ø±Ø§":807,"ĠØ·ÙĪÙĦ":808,"ÙĨØ¯Ú¯ÛĮ":809,"Ġ)":810,"ÙĤÙĦ":811,"ĠÙħØ·":812,"ĠØ³Ø±Ø´ÙħØ§Ø±ÛĮ":813,"ĠØ±Ø³":814,"ÙĦÛĮØ¯":815,"ĠØ¯Ø§ÙĨØ´Ú¯Ø§Ùĩ":816,"ĠØ¯ÙĩØ³ØªØ§ÙĨ":817,"ĠÙģØ¹Ø§ÙĦ":818,"ĠØ§Ú©":819,"Ø±Ø§Øª":820,"ĠÙĨØ®":821,"ÙĦØ§Ùħ":822,"ÙĦØ³":823,"ÙģÙĩ":824,"ÙĪÛĮØ³":825,"ÙĨØ¯ÛĮ":826,"ĠØ´ÙĪØ¯":827,"ĠØ§ÙĨØ¯":828,"Ø§Ø¶":829,"ĠÛ¶":830,"ĠØ§ÙĨØ¬Ø§Ùħ":831,")ØĮ":832,"âĢĵ":833,"ØªØ¨":834,"ĠØŃØ¯":835,"ĠÙħØµ":836,"ĠØ§ÙĨÚ¯ÙĦÛĮØ³ÛĮ":837,"ÛĮÚ©ÛĮ":838,"¸Ûµ":839,"ĠØ´Ùĩ":840,"ĠØ¯ÙĪÙħ":841,"ĠØ¹ÙĦÛĮ":842,"Ø¯ÛĮØ¯":843,"ĠØ±ÛĮ":844,"ĠÙģØ±Ø§ÙĨ":845,"Ú¯ÛĮØ±ÛĮ":846,"ĠÙĨÙĤØ´":847,"ĠÛ³":848,"Ø±Ø¨ÛĮ":849,"Ú©Ø±":850,"ØªØ±ÛĮ":851,"ĠØªØ¨":852,"ĠØ¯Ø§Ø±Ø§ÛĮ":853,"ĠØ³ÙĨ":854,"ÙĦØ§":855,"ÚĺÙĩ":856,"ĠØŃØ³":857,"Ø¨Ø±Ø¯":858,"ĠÚ©ÙĪ":859,"ÙĨØ§ÙĨ":860,"Ø§Ø¯Ø±":861,"ĠØªÙĤ":862,"ĠØ±Ø§Ùĩ":863,"ĠØ§Ø·":864,"an":865,"Ú©Ø§Ø±":866,"ĠØ´Ø§Ùĩ":867,"ĠÙĩÛĮ":868,"ĠØ¢Ø²":869,"Ø±Ø§Ùĩ":870,"er":871,"ĠÚ©ÛĮÙĦÙĪÙħØªØ±":872,"ĠÛ³Û":873,"ÙĦÛĮÙĦ":874,"ÙĦÙĪ":875,"ĠØ¯ÙĪÙĦ":876,"ÙĪÙħÛĮ":877,"ĠÙĨØ¸Ø±":878,"ĠØ²Ø§Ø¯Ùĩ":879,"ĠÙħØ¬ÙħÙĪ":880,"ĠÚ¯Ø°":881,"ÙĪØ¯ÛĮ":882,"ÛĮØ±Ùĩ":883,"ĠÚĨÙĩØ§Ø±":884,"ĠØŃØ§ÙĦ":885,"Ø³Ø§ÙĨ":886,"ĠØ§Ø«Ø±":887,"ĠÛ±":888,"ĠÙħÙĦ":889,"ĠÙħÛĮØ§ÙĨ":890,"Ġ(ØĽ":891,"in":892,"ĠÛ·":893,"ĠØ³Ø§Ø®ØªÙĩ":894,"ĠØ¨ÙĪØ¯ÙĨØ¯":895,"ĠÙħØ³Ú©":896,"ĠØ¢Ø±":897,"ĠÚ¯ÙĦ":898,"ĠÙħØ±Ú©Ø²ÛĮ":899,"on":900,"ÛĮÙħÛĮ":901,"ĠØ´ÛĮ":902,"ĠØ¨Ø§Ø´Ú¯Ø§Ùĩ":903,"Ø¯ÙĩØ¯":904,"ĠØªÙĪÙĦÛĮØ¯":905,"ĠÙĨÛĮØ±":906,"Ø§Ú¯":907,"ĠÙĤØ¨":908,"Ø§Ø²Ùĩ":909,"Ø¬ÛĮ":910,"ĠØ¨ÛĮØ´ØªØ±":911,"ĠÚ¯Ø±ÙģØªÙĩ":912,"ĠØ§ÛĮØ±":913,"ĠØ¨Ø±ÙĨØ§ÙħÙĩ":914,"ĠØ¢Ø«":915,"Ø³ØªØ±":916,"Ø§ØŃØª":917,"Ø³ØªÙħ":918,"Ú¯Ø±ÛĮ":919,"Ø´ÙĪÙĨØ¯":920,"Ø·ÙĪØ±":921,"ĠØ«Ø¨Øª":922,"ĠØ´ÙĪØ±":923,"ÛĮÙĨÚ¯":924,"Ø¢Ø¨":925,"ĠØ®Ø·":926,"ĠÛ±Û°":927,"Ø³Ø±":928,"ĠØªØ¹":929,"Ø§ÙĪØ±":930,"ĠÙĨØ®Ø³Øª":931,"Ø®Ø§ÙĨ":932,"ĠÙħØ®Øª":933,"ĠÙ¾Ø±ÙĪ":934,"ĠØ¨Ø³ÛĮØ§Ø±":935,"Ø®Ø§Ø¨":936,"ĠÙħØ§Ùĩ":937,"ĠÙģØ¹Ø§ÙĦÛĮØª":938,"ĠØ¨Ø±Ú¯":939,"ĠØªØ¬":940,"Ø§Ø´Øª":941,"Ø´Ø§ÙĨ":942,"Ġ-":943,"ĠØ´Ø¨":944,"ĠØ·Ø±":945,"ĠØ¢Ø«Ø§Ø±":946,"ĠØ§ØµÙĦÛĮ":947,"ØµØ¯":948,"Ø§ÛĮÙĦ":949,"ĠØŃÙħ":950,"ĠÙħØ³Ú©ÙĪÙĨÛĮ":951,"ĠØ§ÙĨØªØ®Ø§Ø¨":952,"Ø§Øº":953,"ĠÙĨÙĪØ´":954,"ÛĮÙĨÙĩ":955,"ĠØ§ÙĪÙĦÛĮÙĨ":956,"ÙĦÙģ":957,"ĠÙĤØ·":958,"ĠÙħØ§ÙĨÙĨØ¯":959,"ĠÙĨÙħÛĮ":960,"ĠÙģØ§Ø±":961,"ØºÛĮ":962,"ÙĪÙĦÛĮ":963,"ÛĮØ´Ùĩ":964,"ĠÙħØ¹Ùħ":965,"la":966,"Û³Û":967,"ĠØ±ÙĪØ³ØªØ§ÛĮÛĮ":968,"Ú©ØªØ±":969,"Ú©Ø³":970,"ĠØ³Ø¨":971,"ØªØ´Ø±":972,"ĠÙħØ±Ø¯Ùħ":973,"Ø±Ø³":974,"ĠÙħØ³Øª":975,"ĠØ¢Øº":976,"ĠØ®ÙĪØ§Ùĩ":977,"ĠÙħÙĨØªØ´Ø±":978,"ĠØ°":979,"ĠØ¬Ø§Ùħ":980,"ĠØ¯Ø§Ø±ÙĨØ¯":981,"Ø§ÙħØ¨Ø±":982,"Ø§Ú©ÙĨ":983,"Ùİ":984,"Ø¶ÙĪ":985,"Ø§ÛĮØ±":986,"Ø®Ø§ÙĨÙĩ":987,"Ø§Ø®Øª":988,"ĠØªÙĪØ§Ø¨Ø¹":989,"ĠØ¢ÙħØ§Ø±":990,"ĠÙħØ³Ø§ØŃØª":991,"ĠÙħØŃÙħØ¯":992,"ÛĮØ¯Ùĩ":993,"ĠØ´Ø§ÙħÙĦ":994,"Ø§ÙĨÛĮØ§":995,"Ø§Ø³Ø§Ø³":996,"ĠÙģØ±ÙĪØ¯":997,"ØªÙĪØ§ÙĨØ¯":998,"ĠØªÙĩØ±Ø§ÙĨ":999,"ĠØŃÚ©":1000,"ĠÙħØ®":1001,"Ø¯ÙĨ":1002,"ĠØ¬Ø²":1003,"ĠØ¬Ø§ÙĨ":1004,"Ø§Ø³ØªØ§ÙĨ":1005,"ĠC":1006,"Ø§Ø¨ÙĤ":1007,"ĠÙħØ«":1008,"ĠØ¬ÙĩØ§ÙĨ":1009,"ÙĪÙĤ":1010,"ĠØ¨Ø±Ø§Ø³Ø§Ø³":1011,"ĠØ¨Ø±Ø®ÛĮ":1012,"ĠØ³Ø§Ø²ÙħØ§ÙĨ":1013,"ĠØ¨Ø±Ø§Ø¨Ø±":1014,"ĠÛ±Û¹Û¹Û":1015,"ĠÙħÙĪØ³ÛĮ":1016,"ĠÙĪÙĦÛĮ":1017,"Ø¨Ø§Ø±":1018,"ĠØ¨Ø§ÙĦØ§Øª":1019,"ĠØ¨ÛĮÙħ":1020,"ĠØ¢ØºØ§Ø²":1021,"ĠØ²ÙĨØ¯Ú¯ÛĮ":1022,"Ø·Ùĩ":1023,"ĠØ¯ÙĨ":1024,"ĠÙħØ¬ÙħÙĪØ¹Ùĩ":1025,"ĠÛ±Û²":1026,"ĠÙĨØ´Ø§ÙĨ":1027,"ØªÙĦ":1028,"Ø§Ø®ØªÙĩ":1029,"ÙĪÛĮÛĮ":1030,"ĠØ³ÛĮØ§Ø±Ú©":1031,"ĠÙħÙħ":1032,"ØªØµ":1033,"ĠÙĩÙħØ±Ø§Ùĩ":1034,"ĠÙĤÙĦ":1035,"ĠØ¨Ø§ÙĦØ§ØªØ±":1036,"ĠØ¨Ø¹":1037,"Ø¹Øª":1038,"ĠÚ©ÙĦÛĮ":1039,"ĠØ´Ú©":1040,"Ø¯Ùħ":1041,"Ø¢Ø¨Ø§Ø¯":1042,"Ø¨Ø§":1043,"ĠÙĨÙĩ":1044,"ĠÚ¯ÙĪÙĨÙĩ":1045,"Ø®ÙĪ":1046,"ĠÛ±Û³Û¸Ûµ":1047,"ĠÚ©Ø±Ø¯ÙĨØ¯":1048,"ĠØ´Ú©ÙĦ":1049,"Ø§ÛĮÙĩ":1050,"ĠÙĩÙħØ§ÙĨ":1051,"Ø¬Ø§Ø¯":1052,"Ø±ÙĪØ¯":1053,"Ø²Ø§Ø¯Ùĩ":1054,"ÙħØ§":1055,"ĠØ±ÙģØª":1056,"ĠØĮ":1057,"ĠØ¬ÙħÙĩ":1058,"ÙĪØ³Øª":1059,"ĠÙĨØ²Ø¯":1060,"ĠØ¯ÙĪÙĦØª":1061,"ĠØºÛĮØ±":1062,"ĠØªØºÛĮ":1063,"ĠØ¯ÙĦÛĮÙĦ":1064,"ĠØ§Ø³Ù¾":1065,"ĠÛĮØ§ÙģØª":1066,"Û¹Û":1067,"ĠØªØ´Ú©":1068,"ĠØ¹Ø±":1069,"en":1070,"ĠØªÙĨÙĩØ§":1071,"Ø±ÛĮÙĤ":1072,"ĠØ§ÛĮØ¬Ø§Ø¯":1073,"ĠØ¨Ø³ÛĮØ§Ø±ÛĮ":1074,"ĠÙĨÙħÙĪØ¯":1075,"ĠÚ©Ø±Ø¯ÙĨ":1076,"Ø³Ø§Ø²ÛĮ":1077,"ĠØªØºÛĮÛĮØ±":1078,"Ø§ØŃÛĮ":1079,"ÙĪØ±Ø´":1080,"Ø¨Ø§Ø±Ùĩ":1081,"ÙĨØª":1082,"Ø±Ø³ÛĮ":1083,"ĠÙĩÙĨØ±":1084,"ĠØ¬ÙħÙĦÙĩ":1085,"ĠÙħÙħÚ©ÙĨ":1086,"ĠÙĤØ¯Ø±":1087,"ĠÚ©Ø§ÙĨ":1088,"ÙĪÙģ":1089,"ĠÙ¾ÛĮØ±":1090,"ĠÛ±Û¸Û":1091,"ĠÚ©Ø´ØªÛĮ":1092,"ĠØªØ´Ú©ÛĮÙĦ":1093,"ĠÚ©Ø´Ùģ":1094,"ĠØ³ÛĮØ³ØªÙħ":1095,"ĠÙ¾ÙĨØ¬":1096,"ĠØ¢ÙĦÙħØ§ÙĨ":1097,"ÙĦÙĤ":1098,"ĠØ§Ú¯Ø±":1099,"ĠØ¬ÙħÙĩÙĪØ±ÛĮ":1100,"ĠÙħØ±Ø¨ÙĪØ·":1101,"ÙĨØ¯Ø§ÙĨ":1102,"Ø¯Ø§Ùħ":1103,"ĠØ´Ø¯ÙĨØ¯":1104,"ÙĪØ¨ÛĮ":1105,"ĠØ§Ø³ÙĦ":1106,"ÚĺÛĮ":1107,"ĠØªÙĪØ§ÙĨ":1108,"ĠØªØ¹Ø¯":1109,"ar":1110,"ĠØ´Ø¯ÙĨ":1111,"ĠØ¯ÙĪØ±Ø§ÙĨ":1112,"ĠA":1113,"ÙģØ§Ø¹":1114,"ĠØ®Ø§Ø±":1115,"Ø¬Ø§":1116,"Ø§Ø¨ÛĮ":1117,"ĠÙħÙĪØ³ÛĮÙĤÛĮ":1118,"ĠS":1119,"ĠÙĨØ¯":1120,"Ù¾ÛĮ":1121,"ĠØ³ÙĪ":1122,"ĠØŃØ¯ÙĪØ¯":1123,"ĠÙĩÙħÛĮÙĨ":1124,"ĠÙĩØ²Ø§Ø±":1125,"ĠÚ©Ø§Ø±Ú¯Ø±Ø¯":1126,"Ùı":1127,"ØµÙĦ":1128,"ĠÙħÚ©":1129,"ĠÚ©ÙĪÚĨ":1130,"ĠØ§ÙģØ²":1131,"ĠØ´Ø®Øµ":1132,"ĠØ§Ø·ÙĦ":1133,"Ø¨Ø±ÛĮ":1134,"ĠÙģÙĦ":1135,"Ø®Ùĩ":1136,"ĠØªÙĪØ¬Ùĩ":1137,"ĠØ±ÙĪØ´":1138,"ĠÙģØ±ÙĩÙĨÚ¯":1139,"Ø§ÙĦÛĮØ§":1140,"ĠØ¬Ø¯ÛĮØ¯":1141,"Ø®Ø±":1142,"ÙĪÙĦØ§":1143,"Ġ()":1144,"ÙĪÛĮÙĩ":1145,"ĠÙ¾Ø±Ø¯":1146,"ØªÙĨ":1147,"ÙĦØ¨":1148,"ĠØ§ÛĮØ±Ø§ÙĨÛĮ":1149,"Ø³ØªÛĮ":1150,"ĠØ¬ÙĩØ§ÙĨÛĮ":1151,"ĠØ¸":1152,"ĠØªÚ©":1153,"ĠÚ©ÙĪÙĩ":1154,"ĠØ¨Ø§ÛĮØ¯":1155,"Ø§ÛĮØ¬":1156,"ĠØŃØ¶":1157,"ĠØ³ÙĨÚ¯":1158,"ĠØ³Ø±ÛĮ":1159,"ĠÙĨØ®Ø³ØªÛĮÙĨ":1160,"ĠØ®ÙĪØ§ÙĨ":1161,"Ø¯ÙĪ":1162,"Ø§ÙĦÙħÙĦ":1163,"ĠØ§ÛĮØª":1164,"ÙģÙĤ":1165,"ØªØ§":1166,"ĠÙģØ±ÙĪØ¯Ú¯Ø§Ùĩ":1167,"Ø¯Ø§Ø¯":1168,"ÙĨØ¯Ú¯Ø§ÙĨ":1169,"ØªÙĤ":1170,"ĠÙħØ§Ø±":1171,"ĠØ¯ÙĦ":1172,"ĠÙĩÙħÙĩ":1173,"Ø§ØŃÛĮÙĩ":1174,"Ú¯ÛĮØ±":1175,"Û¸Û":1176,"ĠØ±ÙĪØ¯":1177,"ĠÙĨÙħØ§ÛĮ":1178,"ĠØ§ÙģØ±":1179,"ĠÙĪÙĤ":1180,"ĠØ´ÙĩØ±ÛĮ":1181,"ØªÙĪ":1182,"ØµÛĮ":1183,"ÛĮÚ©ÙĨ":1184,"ĠÙħÛĮÙĦÛĮ":1185,"Ø¯Ø§Ø±ÛĮ":1186,"Ø´Ø§Ùĩ":1187,"ÙĪÙħØª":1188,"Ø¶Ø§":1189,"Ø¨ÙĪØ¯":1190,"ÙģØ§":1191,"ĠÚ¯ÛĮ":1192,"Ø³Ú©":1193,"ÙĤÛĮÙĤ":1194,"ØªÙĪØ±":1195,"ĠÙħØ®ØªÙĦÙģ":1196,"ĠÙĨÙĪØ¹":1197,"Ø´ÙĨØ§Ø³ÛĮ":1198,"ÙĨÙĪ":1199,"ÙĨØ§":1200,"ĠÚ¯ÙģØªÙĩ":1201,"ĠÙĨÛĮØ³Øª":1202,"ĠÛ±Ûµ":1203,"ĠØ³Ùģ":1204,"ÙĬ":1205,"Ø¤":1206,"ĠÙĩÙĨÚ¯":1207,"ÙĪÛĮØ²ÛĮ":1208,"ĠØ±Ø¦":1209,"Ø§ÙģÛĮ":1210,"for":1211,"ĠØ¬ÙĪ":1212,"ĠØªØ±Ú©ÛĮ":1213,"Ø³Ø¨":1214,"es":1215,"ĠÙħÙĩÙħ":1216,"ĠØ§Ø·ÙĦØ§Ø¹":1217,"ĠØ®ÛĮ":1218,"ĠÙģØ±ÙĪ":1219,"ĠØªÙĦÙĪÛĮØ²ÛĮ":1220,"Ø¯ÙĩØ§ÛĮ":1221,"ĠØ§Ø³Ø§Ø³":1222,"ĠØ§Ø³ÙĦØ§ÙħÛĮ":1223,"ĠØ³ÙĪÙħ":1224,"ĠØ·Ø¨":1225,"ÙĪÛĮØ¯":1226,"Ø®Ø§ÙĨÙĪØ§Ø±":1227,"mu":1228,"ĠâĢĵ":1229,"ĠØ³Øª":1230,"ĠØ¨Ø±ÛĮØª":1231,"ĠØ³ÛĮÙĨ":1232,"Ø²Ø¨":1233,"al":1234,"ĠÙĤØ¯":1235,"Ø±ÛĮØ§ÙĨ":1236,"ĠØªØŃØª":1237,"ĠÙħØ±Ø¨Ø¹":1238,"ĠØŃÙĤ":1239,"ĠÙĨÚ¯":1240,"ÙĪÙĩØ§ÛĮ":1241,"ĠÙģØ±Ø§ÙĨØ³Ùĩ":1242,"ĠØ¬ÙĨÙĪØ¨":1243,"Ø¶Ø§ÛĮ":1244,"Ú¯ÛĮØ±Ø¯":1245,"ĠÙĨØ³Ø¨Øª":1246,"ĠM":1247,"ĠØ§Ø±ÙĪÙ¾":1248,"ĠØ®Ø§ÙĨÙĪ":1249,"ĠØ±Ø³ÛĮØ¯":1250,"ÛĮØ¯Ø§":1251,"ĠÛ±Û¹Û·":1252,"ĠØ´ÙħØ§ÙĦ":1253,"ĠØŃØ¶ÙĪØ±":1254,"Ø±ÙĪÙģ":1255,"ĠÚ©ÙĨÙĨØ¯":1256,"ĠÙĨØ§ØŃÛĮÙĩ":1257,"Ø³ÛĮØ³":1258,"ĠÙ¾Ø§ÛĮØ§ÙĨ":1259,"ĠØ¯ÛĮØ¯":1260,"ĠØ¨Ø§Ø¹":1261,"ĠÙ¾ÙĦ":1262,"Ú¯Ø²":1263,"Ø§ÙĦØ¯":1264,"ĠØ´ÙħØ§Ø±Ùĩ":1265,"ĠÙģØ±Ø¯":1266,"ĠØ¨Ø§Ø¹Ø«":1267,"ĠÙĨÙĪÛĮØ³":1268,"ĠÙħÙĪØ§Ø±Ø¯":1269,"ĠÙģØ±ÙħØ§ÙĨ":1270,"Ø¶ÛĮ":1271,"Ø§Ø´ÛĮ":1272,"ÙĨØ§ÛĮ":1273,"Ø³ÙĦ":1274,"ĠÙĨÙħØ§ÛĮØ´":1275,"ĠØ¢ÙħÙĪØ²":1276,"ĠÙĤØ³":1277,"Ø§Ø¹ÛĮ":1278,"ĠÙĩÙĨØ¯":1279,"Ġ.":1280,"ĠØºØ±Ø¨ÛĮ":1281,"ĠÙĪØ§Ø±Ø¯":1282,"ĠÚ¯ÙģØª":1283,"ĠØ´ÙĨØ§Ø®ØªÙĩ":1284,"ĠØ®Ø§ÙĨÙĩ":1285,"ĠØ§ÛĮØ§ÙĦØª":1286,"ed":1287,"ĠÚ©ÛĮ":1288,"ĠØ³Ù¾Ø³":1289,"ĠØ²ÛĮØ§Ø¯ÛĮ":1290,"Û°Û°Û°":1291,"ĠØ±Ø´ØªÙĩ":1292,"ĠØ¹ÙħÙĦ":1293,"Ø±ÛĮÙĩ":1294,"ĠØ·ÛĮ":1295,"ĠØ¨Ø±Ø¯":1296,"Ø§ÙĦÙħÙĦÙĦÛĮ":1297,"ĠØ¯Ø§Ø®":1298,"ĠÙ¾Ø§Ø¯":1299,"mula":1300,"Ø§ÙĦÙĩ":1301,"ØµØ±":1302,"ĠÙĩØ§ÛĮ":1303,"ĠÙĪØ±Ø²":1304,"formula":1305,"ĠØ§Ø¨Øª":1306,"ĠØ¢Ø°":1307,"ĠØªÙħØ§Ùħ":1308,"ĠÛ±Û³Û¹Û":1309,"ĠØ§Ø¹ÙĦØ§Ùħ":1310,"Ú©ÙĨÙĨØ¯Ùĩ":1311,"ÙĪÙĨØª":1312,"ĠÙĤØ§ÙĨ":1313,"ĠÙ¾Ø§Ø±":1314,"ĠØ±Ø¦ÛĮØ³":1315,"Ùĳ":1316,"ĠØ¢Ø³ÛĮ":1317,"ĠØ¨Ø§Ø²ÛĮÚ©ÙĨ":1318,"ĠØ±ÙĪØ³ØªØ§ÛĮ":1319,"ĠÛ±Û·":1320,"ĠÙĨÙĪØ´ØªÙĩ":1321,"ÛĮØ¯ÛĮ":1322,"ĠÙĪÙĦ":1323,"Ø§Ø¨Øª":1324,"ĠØ¢ÙĨÙĩØ§":1325,"ĠØ´ÛĮØ±":1326,"Ø³ÙĨ":1327,"ĠØ§ÛĮÙĨÚ©Ùĩ":1328,"ĠØ±Ø³ÛĮØ¯Ùĩ":1329,"ĠÙĪØ²":1330,"ĠØ§Ø¯Ø§ÙħÙĩ":1331,"Ø±ÛĮØª":1332,"ĠÛĮÙĪÙĨ":1333,"Ø§Ø±Ø§ÙĨ":1334,"ØŃÛĮ":1335,"ØµÙĪÙĦ":1336,"ĠÙĩØ¯":1337,"ĠØ±ÙĨÚ¯":1338,"ÙĪØ§Ø±Ùĩ":1339,"ĠØµÙģ":1340,"ĠÚ©Ø§ÙħÙĦ":1341,"ĠØ¬Ø§ÛĮØ²Ùĩ":1342,"ÙħØ±":1343,"ĠÙħØ¯Ø±":1344,"ĠØ¬ÙĨÙĪØ¨ÛĮ":1345,"Ø¹ÙĨÙĪØ§ÙĨ":1346,"ÙĪÛĮØª":1347,"ĠØ¢ÙĦØ¨":1348,"ĠÛ±Û¹Û¸Û":1349,"ĠÛ±Û¹Û¶":1350,"Ú¯Ø°Ø§Ø±ÛĮ":1351,"ĠØ®Ø§ÙĨÙĪØ§Ø¯Ùĩ":1352,"ĠÛ¸":1353,"ic":1354,"Ù¾Ùĩ":1355,"ĠÙĨÙĪØ±":1356,"ĠÙĤØ§Ø¨ÙĦ":1357,"ĠÙ¾Ø¯Ø±":1358,"ĠØªØ¹Ø¯Ø§Ø¯":1359,"ĠØ§ÙĤØªØµ":1360,"ĠÚĺØ§Ù¾":1361,"Ø¬ÙħÙĩ":1362,"ĠÙĩÛĮÚĨ":1363,"ĠØ§ÙģØ²Ø§ÛĮØ´":1364,"ĠØ´Ø±ÙĤÛĮ":1365,"ĠÙħÛĮØ²":1366,"ĠÙĩÙģØª":1367,"ĠÚĺØ§ÙĨ":1368,"ĠÙħÙĪÙģÙĤ":1369,"Ú¯Ø±Ø§ÙĨ":1370,"ĠÙĤÙĩØ±":1371,"ĠØ³ÙĪÛĮ":1372,"ÙħØ§ÛĮ":1373,"Ø±Ø§ÛĮ":1374,"ĠØ´Ø¨Ú©Ùĩ":1375,"ĠØ³ÛĮØ§Ø³ÛĮ":1376,"ĠØ§Ø±Øª":1377,"ØµÛĮÙĦ":1378,"Ø³ÙĪÙĨ":1379,"ĠT":1380,"Ø³ÛĮÙħ":1381,"Ø§Ø¨Ùĩ":1382,"ĠØ®Ø±":1383,"Ø°ÛĮØ±":1384,"ÙĪØ§":1385,"ĠØ²ÙħÛĮÙĨÙĩ":1386,"ĠÛ±Û¶":1387,"ĠÙħØº":1388,"ÙĪÙĦØ¯":1389,"is":1390,"ĠØ´Ø¹":1391,"Ø§Ø¸":1392,"Ø¯ÙĩØ§":1393,"ÙĤØ±":1394,"ĠØ±Ùĩ":1395,"ØªÛĮØ¬Ùĩ":1396,"ĠØªØ£Ø³ÛĮØ³":1397,"ĠØ·Ø¨ÛĮ":1398,"ĠØ¯Ø±Ø¨Ø§Ø±Ùĩ":1399,"Ø¯ÛĮÙĦ":1400,"ĠØ¯Ø§Ø³ØªØ§ÙĨ":1401,"ĠÚ©ÙħÚ©":1402,"ĠÚ¯Ø³ØªØ±":1403,"at":1404,"ĠÙħØŃØµÙĪÙĦ":1405,"ĠP":1406,"ĠØ´Ø±ÙĪ":1407,"ĠØ®Ø§Øµ":1408,"ĠÚ¯Ø±Ø¯ÛĮØ¯":1409,"ĠÛ±Û´":1410,"ĠÙħÙĪØ¬ÙĪØ¯":1411,"Ġformula":1412,"ĠØ¢ÙĪØ±":1413,"ĠØ·Ø±Ùģ":1414,"ĠÛ±Û¹Û´":1415,"ĠØ¯ÛĮÚ¯Ø±ÛĮ":1416,"ĠÚ©Ø§Ø±Ú¯Ø±Ø¯Ø§ÙĨÛĮ":1417,"Ø¯Ø§ÙĦ":1418,"ĠÙħØ±Ú¯":1419,"ĠØ§ÙĦÚ©ØªØ±":1420,"ĠÙĨØªÛĮØ¬Ùĩ":1421,"ĠØ¯Ø±ÛĮ":1422,"ÙĦÙĨØ¯":1423,"ĠÚĨÙĪÙĨ":1424,"ĠØ²ÙħØ§ÙĨÛĮ":1425,"ĠÚ©ÙĪØ¯":1426,"Ú©Ø§Ø±ÛĮ":1427,"ĠÙĤØ¨ÙĦ":1428,"ĠÛĮØ§Ø¯":1429,"ÙĨØ´":1430,"ĠØ®ÙĪØ§ÙĩØ¯":1431,"Ø§ÙĨØª":1432,"ĠØ¨Ø±ÛĮØªØ§ÙĨÛĮØ§":1433,"ĠÙħØŃÙĦ":1434,"Ø³ØªØ§ÙĨÛĮ":1435,"ĠÙħØ¬ÙĦØ³":1436,"ĠÙĪØ§":1437,"Ø¹ÙĨÛĮ":1438,"ĠØ§ÙģØ±Ø§Ø¯":1439,"ĠÙħØ¨":1440,"ÙĪØ²Ùĩ":1441,"Ù¾Ø±":1442,"Ø³Ùħ":1443,"ĠØ¬ÙĩØª":1444,"ĠØªØ¨Ø¯ÛĮÙĦ":1445,"ĠB":1446,"ĠÚ©ÙĪÚĨÚ©":1447,"ĠØ¯ÙĩÙĩ":1448,"Ø§ÙĨÚ©":1449,"ĠØ¯Ø±ÛĮØ§ÙģØª":1450,"ĠØ´Ø±ÙĪØ¹":1451,"Ø§ÚĨ":1452,"ĠÙħØ³Ø¦":1453,"ĠØ·Ø±Ø§ØŃÛĮ":1454,"ØªÛĮØ¨":1455,"ĠÚĨØ´Ùħ":1456,"ĠÙħØ¹ÙħÙĪÙĦØ§":1457,"ĠØ¯Ø®":1458,"ĠØµØ¯":1459,"ÛĮØªÛĮ":1460,"ĠØ·Ø±ÛĮÙĤ":1461,"ĠØªØ§Ø±ÛĮØ®ÛĮ":1462,"Ø§Ø¨ÙĤØ§Øª":1463,"ĠØ§ÙģØª":1464,"ĠÚ©Ø§Ùĩ":1465,"ĠØ§ÙĨØªÙĤ":1466,"Ø±ÛĮÙģ":1467,"ĠÚĺÙĪØ¦":1468,"ĠÙĨÛĮØ§Ø²":1469,"ĠØ¹ÙĦÙħÛĮ":1470,"ĠØ³ÙħØª":1471,"ĠÚ©Ø§Ùħ":1472,"ĠÙħØ°":1473,"ÙĪÚ¯":1474,"ĠØ¢ÙĪØ±Ø¯":1475,"ĠØªÙĦÙĪÛĮØ²ÛĮÙĪÙĨÛĮ":1476,"ĠØ¯Ø±Ú¯Ø°":1477,"ĠÙħØ¤":1478,"ĠØŃØ²Ø¨":1479,"ĠØ¯Ø±Ø¢":1480,"ĠÙĤØ±ÙĨ":1481,"ĠÙ¾ÛĮØ¯Ø§":1482,"ĠØ²ÙĨ":1483,"ĠÛ¹Û":1484,"ĠÙĤØ³ÙħØª":1485,"Ø§ÙĨÚ¯":1486,"ĠØ¨Ø§ÙĦØ§":1487,"ĠØ´ÙħØ§ÙĦÛĮ":1488,"ia":1489,"ĠØªØ®":1490,"ĠÙħØ³Ø§Ø¨ÙĤØ§Øª":1491,"ĠØ±ÙĪØ³ÛĮ":1492,"ĠØŃÚ©ÙĪÙħØª":1493,"ĠØ®ÙĪØ±Ø´":1494,"ĠØ§ÙħØ±ÙĪ":1495,"ĠØ¹Ø¶ÙĪ":1496,"ĠØ¨ÙĨÛĮ":1497,"ĠØ¢ÙħØ¯Ùĩ":1498,"ĠØ¨Ø¯ÙĪÙĨ":1499,"ÙħØ²":1500,"ĠØ¹Ø¨Ø§Ø±Øª":1501,"ĠÙģØ±Ø²":1502,"ĠØ§ÙĨØ³Ø§ÙĨ":1503,"Ø§Ø¡":1504,"ĠÛ¹":1505,"ĠÙħØ¯Øª":1506,"ĠØ¬ÙĦ":1507,"ĠÙģØ§Ø±Ø³ÛĮ":1508,"ĠÙħØ¹Ø±ÙĪÙģ":1509,"ĠØ¢Ø®Ø±":1510,"ĠØ±ÙĤ":1511,"ĠØ¢ÙĦØ¨ÙĪÙħ":1512,"ĠØ§Ø±Ø¯":1513,"ÙĪØ³ÛĮ":1514,"ĠÙħØ´Ùĩ":1515,"Ø§ØªØ±":1516,"ĠØ¢ÙħØ±ÛĮÚ©Ø§ÛĮÛĮ":1517,"Ø§Ø¨ÙĤÙĩ":1518,"Ø¬Ø±":1519,"ĠØ§Ø±ØªØ¨":1520,"Ø§ÙĦØ¨":1521,"ĠØ§Ø±ØªØ¨Ø§Ø·":1522,"ĠØªÙĪØ³Ø¹Ùĩ":1523,"it":1524,"ĠÙħÙĨØ§Ø·":1525,"Ø§Ø¦Ùĩ":1526,"ÙĪØ±ÛĮÙĩ":1527,"ĠØ§Ø±ØªÙģØ§Ø¹":1528,"ØªÙĪÙĨ":1529,"Ø´Ø§Ø±":1530,"ĠØ§Ø·ÙĦØ§Ø¹Ø§Øª":1531,"Ø§Ú©ÙĨÙĪÙĨ":1532,"ĠÚ©ÙħÛĮ":1533,"ĠÛ±Û¹":1534,"ĠØªÙĪØ±":1535,"Ø§ØªÛĮÙĨ":1536,"ĠØ§Ø¬ØªÙħ":1537,"Ø²Ø´Ú©":1538,"ĠÙ¾Ø§ÛĮÙĩ":1539,"ÙĦØ§ØŃ":1540,"ĠÙĨÛĮÙħ":1541,"ĠØ¢Ø²Ø§Ø¯":1542,"Ú¯Ø±Ø¯Ø¯":1543,"ĠÙħØ§":1544,"ĠÙħØŃØ¯":1545,"ĠØ³ÙĦØ·":1546,"ĠØ¨Ø±Ú¯Ø²Ø§Ø±":1547,"ĠØ¬Ø±ÛĮØ§ÙĨ":1548,"Ø§Ø³Ø¨":1549,"ĠØ§ÙĨÙĤÙĦ":1550,"ĠØµØŃ":1551,"ĠØªØ§Ø¨":1552,"ĠØ³ÛĮØ¯":1553,"ĠØªØ±Ú©ÛĮØ¨":1554,"Ø¹Ø§Øª":1555,"ĠÙħÙĪØ§Ø¯":1556,"ĠÛĮØ¹ÙĨÛĮ":1557,"Ø«ÛĮØ±":1558,"ÙĦÛĮÙĩ":1559,"ĠD":1560,").":1561,"Ġ1":1562,"ĠÛ±Û¹Ûµ":1563,"ĠÙĪØ±":1564,"ĠÙĪØ³ÛĮ":1565,"ĠÙĦÙĩ":1566,"Ø´Ø¯Ùĩ":1567,"Ø«Ø±":1568,"Ø³Ø§Ø²":1569,"ĠØ´ÙĪØ±Ø§ÛĮ":1570,"ĠÙĨÙģ":1571,"ÙĪÙĦÙĩ":1572,"ĠÚ©Ø§ÙĩØ´":1573,"ĠÚ©ÙĨØ§Ø±":1574,"Ø³Ø§ÙĦ":1575,"ĠØ¢ÙĩÙĨÚ¯":1576,"ĠØ§ÛĮØªØ§ÙĦÛĮØ§":1577,"ÙĪÙĦÙĪ":1578,"ĠØ´Ú©Ø³Øª":1579,"ĠÙĪÛĮÚĺÙĩ":1580,"Ø³ÛĮÙĨ":1581,"ĠÙĤØ¯Ø±Øª":1582,"ĠØ¢ÙħØ¯":1583,"Ø§Ø¹Øª":1584,"ĠØ¨ÛĮÙħØ§Ø±ÛĮ":1585,"ĠØ¹ÙħÙĪÙħÛĮ":1586,"ĠØ§Ø±Ø§Ø¦Ùĩ":1587,"ĠÚ©ÙĪØª":1588,"ĠØ´ÛĮÙħÛĮ":1589,"ĠØµÙĨ":1590,"ĠÛ±Û³":1591,"ĠØ¨ÙĩØªØ±ÛĮÙĨ":1592,"ĠÙĤØ§ÙĨÙĪÙĨ":1593,"ĠÚ©Ø±ÛĮ":1594,"ĠØ§Ø±ÙĪÙ¾Ø§":1595,"ĠÙĨØ¸Ø§ÙħÛĮ":1596,"ÙħÙ¾":1597,"ĠÙħÚ©Ø§ÙĨ":1598,"ĠÙħØ´Ø®Øµ":1599,"..":1600,"ØºØ§ÙĨ":1601,"ĠÙģØµÙĦ":1602,"ĠØ®ÙĦ":1603,"ĠØ²ÙĨØ§ÙĨ":1604,"Ø³ÙĪÛĮ":1605,"ĠÙĨØ²Ø¯ÛĮÚ©":1606,"ĠÙĨÛĮØ±ÙĪÙĩØ§ÛĮ":1607,"Ø§Ø·Ø±":1608,"Ú©ÙĪ":1609,"Ø±Ø§ÙĨÙĩ":1610,"ĠØªÙģ":1611,"ØŃÙĩ":1612,"ĠØªÙ¾Ùĩ":1613,"ĠÛ²Û°Û±Û°":1614,"ĠØ±Ø§ÛĮ":1615,"ĠÙħÙĨØ§Ø·ÙĤ":1616,"ĠØ®Øµ":1617,"ĠØ®Ø¯":1618,"ÙĩÙĨ":1619,"ĠÚĺØ§Ù¾ÙĨ":1620,"ĠØŃÙħÙĦÙĩ":1621,"ĠÙħÙĨØ¸":1622,"ĠØ±Ø§Ø¨":1623,"ĠØ§Ø³ØªØ±":1624,"ÙĪØµ":1625,"ĠÙħÛĮÙĦÛĮÙĪÙĨ":1626,"ĠÙ¾Ø³Ø±":1627,"ĠØ¯ÙĨÛĮØ§":1628,"ĠØªØŃØµÛĮÙĦ":1629,"ol":1630,"Ø±Ø¨Ø§ÛĮØ¬":1631,"ĠÙħØ§ÛĮ":1632,"ÙĪØ§Ø³":1633,"Ø§Ø±Ø³ØªØ§ÙĨ":1634,"Ø³Ø§":1635,"Ø¨ÙĪØ±":1636,"ĠÙħØ¯ÛĮ":1637,"ĠÛ²Ûµ":1638,"ĠØ§ÙĨØ¯Ø§Ø²Ùĩ":1639,"ÙģØ§ÙĪØª":1640,"ÙħÛĮØª":1641,"Ø¬ÙĪ":1642,"Ø§Ù¾ÛĮÙħ":1643,"Ø§Ú©ÛĮ":1644,"ĠØ§Ø³ÙĦØ§Ùħ":1645,"Ø®ÛĮ":1646,"ĠØ¢Ø°Ø±Ø¨Ø§ÛĮØ¬":1647,"Ø§ÙĪÙĩ":1648,"ĠØ¯Ø±Ø¬Ùĩ":1649,"Ø¬Ùħ":1650,"ĠØ§ÙħÙ¾":1651,"Ø±Øª":1652,"ĠÙ¾Ø±Ø¯Ø§Ø®Øª":1653,"Ø¨ÛĮØ±":1654,"ĠÙĩØ´Øª":1655,"ÙĪØ§ÙĦ":1656,"ĠÙģÙĤ":1657,"ĠÚĨÙĨÛĮÙĨ":1658,"ĠØ³Ø®":1659,"ĠØ§Ø¬ØªÙħØ§Ø¹ÛĮ":1660,"ĠÙģÛĮ":1661,"ĠÙĦØ§ØªÛĮÙĨ":1662,"ĠØŃÙĦ":1663,"ĠØ³ÛĮØ§Ø³Øª":1664,"Ø§Ø¶ÛĮ":1665,"ĠÙħØ³ÙĦ":1666,"ÛĮØ²ÛĮ":1667,"re":1668,"ĠØ¢ÛĮ":1669,"ĠØŃØ§ÙĦØª":1670,"ĠÙħÙĪØ¶ÙĪ":1671,"ĠÙĨØ³Ø®Ùĩ":1672,"ĠØ¨ÙĨØ§":1673,"Ø³Ø§ÙĨÛĮ":1674,"ÚĨÛĮ":1675,"ĠØ¯Ùħ":1676,"ĠÙĪÛĮØ±":1677,"le":1678,"ĠÚ©ÙĨØªØ±":1679,"Ú¯ÙĪ":1680,"ĠØ¢ÙĨØ¬Ø§":1681,"ĠØŃØªÛĮ":1682,"Ø§Ø³Ø§ÙĨ":1683,"ĠÙ¾Ø§Ø³":1684,"ĠØ¯Ø®ØªØ±":1685,"ĠØºØ±Ø¨":1686,"Ø±ÙģÛĮ":1687,"Ø§Ø³Ùħ":1688,"ĠÙħÙĪØ¬":1689,"Û±Û¹Û":1690,"ÙĪÛĮØ±":1691,"ĠÛ¸Û":1692,"ĠÙħØ§Ø¯Ùĩ":1693,"ĠØªØ£Ø«ÛĮØ±":1694,"ĠØªÙĩÛĮÙĩ":1695,"ĠØ¨Ø§Ø²Ø§Ø±":1696,"ĠÙ¾Ø²Ø´Ú©":1697,"ÙħÛĮÙħ":1698,"ØªØ´Ø§Ø±":1699,"Ø§ÙĨØ³":1700,"ĠØ¹Ùĩ":1701,"Ø±ÛĮØ¯":1702,"ĠØ¹ÙħÙĦÛĮ":1703,"he":1704,"Ø²ÙħÛĮÙĨ":1705,"ĠØ³Ø§Ùħ":1706,"\"ØĮ":1707,"Ù¾Ø±Ø¯":1708,"ĠÚĨØ§Ù¾":1709,"ĠÙĨÙħÙĪÙĨÙĩ":1710,"Ø§Ø´ØªÙĩ":1711,"Ø¯ÙĩÙħ":1712,"ĠØ¨Ø±Ø¬":1713,"ĠØ§ÙĪØ±":1714,"ĠÙĨÛĮØ±ÙĪÛĮ":1715,"Ø§ØµÙĦÙĩ":1716,"ĠÙħØ¯ÙĦ":1717,"ĠØ§Ø±ØªØ´":1718,"ĠØŃØ§Ø¶":1719,"ĠÙĩÙħÚĨÙĪÙĨ":1720,"ĠÚ©Ø³Ø¨":1721,"Ø®ÙĪØ§ÙĨ":1722,"ÙħÙĨÛĮ":1723,"ĠØ¯Ø³ØªÚ¯Ø§Ùĩ":1724,"Ø¯ÙĩÙĨØ¯":1725,"ĠÙ¾ÙĪØ´":1726,"ĠØ¹ÙĦÙĪÙħ":1727,"ÙĨØ§Ùħ":1728,"ĠÚ©Ø±ÙħØ§ÙĨ":1729,"ÙĩÙħ":1730,"Ø¨ÙĨØ¯ÛĮ":1731,"ĠØŃÛĮ":1732,"ĠØ§ÙĨØªØ´Ø§Ø±":1733,"ĠÙ¾ÙĦÛĮ":1734,"ĠØ¯Ø±ØµØ¯":1735,"ĠØ§Ø¯Ø¨ÛĮ":1736,"ĠØ¹Ø±Ø§ÙĤ":1737,"ĠÙĩØ¬":1738,"ĠÙ¾Úĺ":1739,"ĠØ§ÙĨÚ¯ÙĦ":1740,"ĠØŃØ§Ø¶Ø±":1741,"ĠØŃÙģ":1742,"ĠÙĤÙĦØ¹Ùĩ":1743,"Ø±Ø§Ùģ":1744,"Ø¹ÙĦÛĮ":1745,"ĠÚ©Ø´ÙĪØ±ÙĩØ§ÛĮ":1746,"ÙĨÙħ":1747,"Ø§ÙħØª":1748,"ĠØ¨Ø±ÙĨØ¯Ùĩ":1749,"ĠÙħØ§ÙĦÛĮ":1750,"ĠÙĩÙĪØ§Ù¾ÛĮÙħ":1751,"ĠØ§ÙĨÙĤÙĦØ§Ø¨":1752,"ĠØ·Ø¨ÛĮØ¹ÛĮ":1753,"ĠØ±ÙĪØ³ÛĮÙĩ":1754,"ÙĨØ²":1755,"ÙģÛĮÙĦ":1756,"ÙĪÛĮØ´":1757,"Ø§ØµØ±":1758,"ĠØ¢Ø²Ùħ":1759,"ĠÙĩÙĨÚ¯Ø§Ùħ":1760,"ÙĪØ²ÛĮ":1761,"ĠØ¬Ø´ÙĨ":1762,"Ø±ÛĮØ²":1763,"ĠW":1764,"ĠØ³Ø¨Ú©":1765,"ØªØ¨Ø±":1766,"ĠØ¹Ø¨Ø¯Ø§ÙĦ":1767,"ĠÛ±Û³Û¸Û":1768,"Ø´Ø±":1769,"ĠØ§ÙħÙ¾Ø±Ø§Øª":1770,"ĠØ¨Ø§Ø²ÛĮÚ¯Ø±":1771,"ĠÚĨÛĮÙĨ":1772,"ĠÚ¯Ø²Ø§Ø±":1773,"ØºÙĪÙĦ":1774,"ĠØ³Ø±Ø¯":1775,"ĠÚ©ÙĨØªØ±ÙĦ":1776,"ĠØ§ÙħÙĨ":1777,"ĠÙħØ·Ø§ÙĦ":1778,"ĠL":1779,"ĠØ¨ÙĪØ¯ÙĨ":1780,"Â»ØĮ":1781,"ĠØ§ØŃØªÙħ":1782,"ĠF":1783,"ÙĪØ±Ú©":1784,"ĠÙħØ§ÙĦ":1785,"ĠØ¯Ùģ":1786,"ĠÙĩØ¯Ùģ":1787,"ĠØ¨Ø±Ø±Ø³ÛĮ":1788,"ĠÙ¾ÙĨ":1789,"ÙħØ±Ø¨":1790,"ĠØ³Ø§Ø®ØªÙħØ§ÙĨ":1791,"ÙĨÙĪÛĮØ³":1792,"ĠR":1793,"ĠØ®Ø§Ú©":1794,"ĠÚ©Ø§ÙĦ":1795,"ĠØ¢ÙħÙĪØ²Ø´":1796,"ou":1797,"ĠÙħÙĪÙĤ":1798,"ĠØŃØ±Ú©Øª":1799,"ĠÙħØ´ØºÙĪÙĦ":1800,"ĠØªÙĤØ³ÛĮÙħ":1801,"ĠØ¬ÙĪØ§ÙĨ":1802,"ĠÙħÙĤØ§Ùħ":1803,"Ø±ÚĺÛĮ":1804,"ĠØ¢ÙĨØ§ÙĨ":1805,"ĠÛĮØ§ÙģØªÙĩ":1806,"Ù¾ÙĦ":1807,"ĠG":1808,"Ø§Ø¨Ø§ÙĨ":1809,"ĠI":1810,"ĠH":1811,"ĠØ¨ÛĮØ§ÙĨ":1812,"ĠØ¨Ø§Ø´ÙĨØ¯":1813,"ĠØªØ´":1814,"ÙħØ±Ø¨Ø¹":1815,"ĠØ¨Ø§ÙĨØ¯":1816,"ĠØŃØ³ÛĮÙĨ":1817,"ĠØ³Ø±Ùħ":1818,"Ø§Ø¯Ø§":1819,"Ø·ÛĮ":1820,"ĠØªÛĮ":1821,"ĠØ¢Ø°Ø±Ø¨Ø§ÛĮØ¬Ø§ÙĨ":1822,"ĠØ¬Ø§ÙħØ¹Ùĩ":1823,"Ø§ÙĪÛĮ":1824,"ĠØ¨ÛĮØ±":1825,"ĠØ§Ø¬Ø±Ø§":1826,"ĠØ§ÙĨÚ¯ÙĦØ³ØªØ§ÙĨ":1827,"Ø¬Ø¯":1828,"ĠØ§ÙħÚ©Ø§ÙĨ":1829,"Ø§Ø¦ÛĮ":1830,"ĠÛ±Û³Ûµ":1831,"ĠØ³Ú©":1832,"ĠØŃÙĤÙĪÙĤ":1833,"ĠØ¯Ø§Ùħ":1834,"ĠØŃÙĪØ²Ùĩ":1835,"Ù¾ÛĮØ´Ùĩ":1836,"ĠÙħØŃÙħ":1837,"ĠÙĨÙĪÛĮØ³ÙĨØ¯Ùĩ":1838,"ĠE":1839,"ØŃÙĦÙĩ":1840,"ĠØ¹ÙĨ":1841,"ĠØ³Ø§ÙĨ":1842,"Ø§ÙģØ¸":1843,"ĠØ³Ø§ÛĮØ±":1844,"ĠØ§ØªØŃ":1845,"Ú©Ø±Ø¯ÙĨØ¯":1846,"ĠØ¯ÙĩØ¯":1847,"Ø¨ÙĦ":1848,"ĠØ®Ø§Ø±Ø¬":1849,"Ø¯ÙĪØ§Ø¬":1850,"ĠÛ±Û¸":1851,"ĠØ§Ø±Ø²":1852,"ØªÙĪØ§ÙĨÙĨØ¯":1853,"ÙħÙĨØ¯":1854,"ik":1855,"Ú¯Ø´Øª":1856,"Ġ2":1857,"ĠØ§Øº":1858,"Ú¯Ø§ÙĨÛĮ":1859,"ĠÚĨØ±":1860,"ĠÙħÙĪØ±":1861,"Ø±Ø³Ø¯":1862,"ĠØ¯Ø§Ø´ØªÙĨØ¯":1863,"Ø³ÙĪ":1864,"Ø¨Ø§Ø´":1865,"ĠÙħÙĩØ§Ø¬":1866,"ĠØ±Ø³ÙħÛĮ":1867,"ĠÙħØ³ÛĮ":1868,"ĠÙĨØ¯Ø§Ø±Ø¯":1869,"ĠØªØŃÙĤÛĮÙĤ":1870,"ĠØ¨ØŃ":1871,"Ø§Ø¯ÙĦ":1872,"ÙĩØ±Ø³Øª":1873,"ĠÙ¾ÚĺÙĪÙĩ":1874,"ĠØ§Ø²Ø¯ÙĪØ§Ø¬":1875,"Ø¢ÛĮØ¯":1876,"Ø§ÙĦØ¯ÛĮÙĨ":1877,"Ø§ÙĨÛĮØ§ÙĨ":1878,"Ø±Ø¨Ùĩ":1879,"ĠÙĤÙħ":1880,"ĠØ§ÙĨØ±ÚĺÛĮ":1881,"ĠÚ¯Ø²Ø§Ø±Ø´":1882,"ĠÙĩØ²":1883,"Ø§Ø¨Ø¯":1884,"ĠÙģÙĦØ³":1885,"ĠØ´Ø´":1886,"ĠÚ©ÛĮÙĦÙĪÙħØªØ±ÙħØ±Ø¨Ø¹":1887,"Ø§Ø«":1888,"ĠØ¨Ø®":1889,"ĠÙĩÙĨØ±Ù¾ÛĮØ´Ùĩ":1890,"ĠØ·Ø±ØŃ":1891,"ĠÙģÛĮÙĦÙħÛĮ":1892,"ĠÙħØŃÛĮ":1893,"Ø´ÙĩØ±":1894,"ÙĪØ¹":1895,"as":1896,"ĠØ³ÛĮØ§Ùĩ":1897,"ĠØ´Ø§Ø®":1898,"ĠØªØ¯":1899,"ĠÙĩØ§":1900,"ĠØ§Ø³Ú©":1901,"ĠÙħØ´Ú©ÙĦ":1902,"ĠØ¯ÛĮØ¯Ùĩ":1903,"ĠÙħÛĮØ¯Ø§ÙĨ":1904,"ÙĤØ¨":1905,"ĠÙģØ±ÙĪØ´":1906,"ĠØ´Ø±ÙĤ":1907,"ĠÙĨØ±Ùħ":1908,"Ø²Ø§Ø±Øª":1909,"ĠØ§ÙģØºØ§ÙĨ":1910,"ĠØ§Ø¹Ø¶Ø§ÛĮ":1911,"ĠØ¯ÙĨØ¨Ø§ÙĦ":1912,"ÙĨØ±":1913,"ĠØ¨Ø®Ø´ÛĮ":1914,"ĠÙħÙĤØ§Ø¨ÙĦ":1915,"ĠÛ±Û¹Û²":1916,"ĠØ¨ÙĨØ§Ø¨Ø±":1917,"ĠÛ²Û²":1918,"ĠÙĪØ§ØŃ":1919,"ĠØ´ÛĮÙħÛĮØ§ÛĮÛĮ":1920,"ĠØ®ÙĪØ¯Ø±ÙĪ":1921,"ĠÚ¯Ø±Ùħ":1922,"ĠÙħØ§Ø¯Ø±":1923,"ĠÙĪØ²Ø§Ø±Øª":1924,"ĠØ´ÙĪÙĨØ¯":1925,"ĠØ±ÙĪØ²ÙĨØ§ÙħÙĩ":1926,"ĠÙħØ¯Ø±Ø³Ùĩ":1927,"ĠØ³Ø±Ø¹Øª":1928,"ĠØ¹Ø±Ø¨ÛĮ":1929,"ĠÚ¯ÙĪØ´":1930,"ĠÚĨÙĨØ¯ÛĮÙĨ":1931,"ĠÙģØ±Ø§ÛĮ":1932,"Ø§ÙĦÙĦÙĩ":1933,"ĠØ´Ø®ØµÛĮØª":1934,"ip":1935,"ÙħØ¹":1936,"ĠÙħØ«Ø§ÙĦ":1937,"ÚĺÙĨ":1938,"ÙĨØ¯Ø±":1939,"ĠØ´Ø±Ø§ÛĮ":1940,"ĠÛ²Û´":1941,"ĠØ¯Ø³ØªÙĩ":1942,".Â»":1943,"Ø¬Ø§Ùħ":1944,"ĠØ¹ÙĦØ§ÙĪÙĩ":1945,"ĠÙģØ±ÙĩÙĨÚ¯ÛĮ":1946,"ĠØ³Ø¯Ùĩ":1947,"ĠÛ±Û¹Û³Û":1948,"ĠØŃØ±Ùģ":1949,"el":1950,"ĠØªØ±ØªÛĮØ¨":1951,"ÙĪØ±ÛĮØª":1952,"ĠÙĪØ³":1953,"Ú¯ÙĪÙĨÙĩ":1954,"Ø§ÙĩØ¯":1955,"ĠÙĨÚ¯Ùĩ":1956,"Ø¨ÛĮÙĨ":1957,"ĠØ§Ø¨ØªØ¯Ø§":1958,"Ø³ÙĪØ¨":1959,"ĠÙĦØ¨":1960,"ĠÙ¾Ø§ÛĮÛĮÙĨ":1961,"Ú¯ÙĪÛĮ":1962,"ÙĪØ¬":1963,"ĠÚ©ÙĦØ§Ø³":1964,"ĠÙ¾Ø°ÛĮØ±":1965,"ĠØªØ¦":1966,"Ùª":1967,"ÙĪØ§Ø¹":1968,"tr":1969,"ĠÙħØ¹Ø±ÙģÛĮ":1970,"ĠØ¨Ø±Ø®ÙĪØ±Ø¯":1971,"ĠÙģØ§ØµÙĦÙĩ":1972,"ÙĪÚĨ":1973,"ĠÙħÛĮØ²Ø§ÙĨ":1974,"ĠN":1975,"ĠÙĩÙħÚ©Ø§Ø±ÛĮ":1976,"ÙĦÛĮÙĨ":1977,"ĠØ¬Ø±":1978,"ĠØ¹Ø¯":1979,"ĠÙħÙĨØ§Ø¨Ø¹":1980,"ĠØ®Ø§Ø·Ø±":1981,"ĠÛĮÙĩ":1982,"ĠØ®Ø§ÙĨÙĪØ§Ø±":1983,"ĠØ³Ø§Ø¹Øª":1984,"ĠÙħØ®Ø§ÙĦ":1985,"ĠØ§Ø³ØªØ§Ø¯":1986,"ĠØ³ÙĪØ¦":1987,"Ø¢ÙĨ":1988,"ĠÙĦÙĩØ³ØªØ§ÙĨ":1989,"ĠÙģØ±Ø²ÙĨØ¯":1990,"ĠÙħØ¯ÛĮØ±":1991,"ĠØ¢Ø®Ø±ÛĮÙĨ":1992,"ĠØ§ÙĤØªØµØ§Ø¯ÛĮ":1993,"ĠØ®Ø¨Ø±":1994,"ĠÙħÙĪØ¶ÙĪØ¹":1995,"ĠÙĪØ³ÛĮÙĦÙĩ":1996,"ĠÚ©Ø´ØªÙĩ":1997,"ÙĪÙĪ":1998,"ÙĨØ³":1999,"ĠØ§ÙĪÙĦÛĮÙĩ":2000,"ĠÚ¯Ø°Ø´ØªÙĩ":2001,"ĠØ³Ù¾Øª":2002,"ĠØ§ØµÙģÙĩ":2003,"ĠØ±Ø§Ø¨Ø·Ùĩ":2004,"Ø¨Ø¯":2005,"Ø±ÛĮØ³":2006,"ĠØ±ÙĪØŃ":2007,"ĠØ§Ø³Ùħ":2008,"ĠØ¨Ø§Øº":2009,"ĠØ¢Ø³":2010,"ĠØ§ØŃØªÙħØ§ÙĦ":2011,"ĠÛ±Û¹Û±Û":2012,"ĠÙħØ±ØŃÙĦÙĩ":2013,"ĠØ§Ø®ØªÙĦ":2014,"Ø§ÙĨØ§":2015,"ĠØ¨ÙĩØ±Ùĩ":2016,"Ø±ØŃ":2017,"ĠØªÙĦØ§Ø´":2018,"ĠØªØ±Ø§ÙĨÙĩ":2019,"ÙĪÛĮÙĦ":2020,"ĠÙģÙĤØ·":2021,"ĠØ¹ÙĩØ¯Ùĩ":2022,"ĠÙĪØ§ÚĺÙĩ":2023,"ĠØ³ÛĮÙħ":2024,"ĠØ³Ù¾ØªØ§ÙħØ¨Ø±":2025,"Ø§ØµÙĦ":2026,"ĠÙĤØ¯ÛĮÙħÛĮ":2027,"ĠØ±Ø§Ø³Øª":2028,"Ø±ÙģØª":2029,"ĠØ¬Ø¯":2030,"ĠØ§ÛĮØ³Øª":2031,"ĠØ¯Ø³ØªÙĪØ±":2032,"ĠÙĦÛĮÚ¯":2033,"ĠØºØ°":2034,"ĠØ¢ØªØ´":2035,"ĠØ§ÙĤØ¯Ø§Ùħ":2036,"ĠÛ±Û±Û":2037,"ĠÙħÙĪØªÙĪØ±":2038,"ĠØ¹ÙĦØª":2039,"ĠÙħØ¯ÛĮØ±ÛĮØª":2040,"ĠØ¸Ø§Ùĩ":2041,"ĠØ³ÙģØ±":2042,"ĠÚ©ÙĪØ±":2043,"ĠØ±ÛĮØ§Ø³Øª":2044,"ĠØ§ÙĨØªØ®Ø§Ø¨Ø§Øª":2045,"ĠØ¯Ú©ØªØ±":2046,"ĠÙħØ³ÛĮØ±":2047,"ĠØ¹Ø±Ø¶":2048,"ĠØ¨Ø§ÙĤÛĮ":2049,"ĠØ±Ø´Ø¯":2050,"ĠØ§ÙħØ§Ùħ":2051,"ĠÙħÙĩÙĨØ¯":2052,"ÙħØŃ":2053,"ĠÙħØŃÙĦÛĮ":2054,"ĠÙħØ¯Ø§ÙĦ":2055,"ĠØ±ÙĪÙħ":2056,"ĠÙĪØ±Ø²Ø´":2057,"ÙĪÛĮÙĨ":2058,"ĠÚ©Ø´Ø§ÙĪØ±":2059,"ĠØªØµÙħÛĮÙħ":2060,"ĠØ¢Ùģ":2061,"ion":2062,"ĠÛ±Û±":2063,"ĠØ¹Ø±Ø¨":2064,"ÙħÛĮÙĦ":2065,"ĠØ¨Ø¯ÙĨ":2066,"Ø§ÙĨÙĪ":2067,"ĠÙħØ´ÙĩÙĪØ±":2068,"ĠÙħØ¹ÙĨÛĮ":2069,"âĢ¦":2070,"ĠØ§ØºÙĦØ¨":2071,"Û±Û°":2072,"Ú¯Ø°Ø§Ø±":2073,"ĠØ§ÙĦØ¨":2074,"ĠÙ¾Ùĩ":2075,"ĠÙĩÙĪØ§":2076,"ĠØ¯Ø§Ø®ÙĦÛĮ":2077,"ĠÙ¾Ø®Ø´":2078,"Ø±ÛĮØ¨":2079,"ÙĦÛĮØª":2080,"Ø¯Ø§Ø´Øª":2081,"Ø¢Ùħ":2082,"Ú¯ÙĨ":2083,"Ø§Ø²Ùħ":2084,"ĠØªÙĪØ§ÙĨØ³Øª":2085,"Ú©Ø´":2086,"ĠØŃØ³ÙĨ":2087,"ĠØ¯Ø§Ø¯ÙĨ":2088,"ÙĪÛĮØ§ÙĨ":2089,"ch":2090,"¹Û°":2091,"ĠØ·Ø¨ÙĤ":2092,"ĠÙ¾Ø§Ú©":2093,"Ø¬Ø§ÙĨ":2094,"Ø±ÛĮØ´":2095,"ĠØŃØ§ÙĦÛĮ":2096,"ĠÙģØ±Ø§ÙĨØ³ÙĪÛĮ":2097,"Ø¯ÙĩÛĮ":2098,"ĠÙĩÙĪØ§ÛĮÛĮ":2099,"ĠÙħØ§Ø±Ø³":2100,"ĠÛ±Û³Û·":2101,"Ø²ÙĨ":2102,"Ø§ÙĩÙħ":2103,"ĠÚ©Ø§Ø±Ø¨Ø±Ø¯":2104,"ĠØ¨Ø§Ø¨":2105,"il":2106,"Ø®ØªÙĩ":2107,"ĠÙĩÙĨØ±ÛĮ":2108,"Ø§ÛĮØ§ÙĨ":2109,"om":2110,"ĠØ³Ø±Ø¯Ùĩ":2111,"Ú¯Ø§Ø±":2112,"ÚĨØ±":2113,"ĠÙĪØ¶":2114,"ĠØ³Ø±Ø²ÙħÛĮÙĨ":2115,"ÙĪØ±Ø§ÙĨ":2116,"ĠÙħÙģ":2117,"ĠÙħÙĨØª":2118,"ĠØ¬Ø¯Ø§":2119,"ĠÙĪØ²ÛĮØ±":2120,"ĠØ®ÙĪÙĨ":2121,"ĠØ§Ú©ØªØ¨Ø±":2122,"ĠÙĪÛĮÚĺ":2123,"ĠÙħØ³Ø¬Ø¯":2124,"ĠØ¬Ø²ÛĮØ±Ùĩ":2125,"ØºØ±":2126,"ĠØ§ØŃÙħØ¯":2127,"Ø´Ú©Ø¯Ùĩ":2128,"Ú©Ø§":2129,"ĠÙħÙĩØ±":2130,"Û±Û³Û":2131,"ĠØ¯Ø§Ø®ÙĦ":2132,"ĠÙĨÙĩØ§ÛĮ":2133,"ĠØ§Ø¶":2134,"ĠØ¯Ø±Ú¯Ø°Ø´Øª":2135,"ĠÙħØŃØ¯ÙĪØ¯":2136,"Ø§ÙĩØ§":2137,"ĠØ§ÙģØºØ§ÙĨØ³ØªØ§ÙĨ":2138,"ĠÙħØ°Ùĩ":2139,"ÙĦØ±":2140,"ĠÛ³Û°":2141,"ĠØ¬ÛĮ":2142,"ÙħÛĮÙĨØ§":2143,"ĠÙħØŃÙĦÙĩ":2144,"ĠÙĦØŃ":2145,"ĠØ¬ÙĦÙĪ":2146,"ĠØ¯ÛĮÙĨ":2147,"ĠØ§ÙĨØªÙĤØ§ÙĦ":2148,"ĠÙħØ«ÙĦ":2149,"ĠÚ¯ÛĮØ§Ùĩ":2150,"ĠÙĤÙĩØ±ÙħØ§ÙĨÛĮ":2151,"ÙģØ§ÙĤ":2152,"ĠØ¢ÙĦÙħØ§ÙĨÛĮ":2153,"ĠØ³ÙģÛĮØ¯":2154,"ĠÙģØ±Ùħ":2155,"Ú¯ÙĪÛĮØ¯":2156,"ĠØªØ¹Ø±ÛĮÙģ":2157,"ĠÚ©Ø¯":2158,"ĠÚ©ÙĪØªØ§Ùĩ":2159,"ĠØ¢Ø²ÙħØ§ÛĮØ´":2160,"ĠÙħØªÙĨ":2161,"ĠØ±Ø®":2162,"ĠØ´Ø±Ø§ÛĮØ·":2163,"de":2164,"ĠÚĺØ§ÙĨÙĪÛĮÙĩ":2165,"ĠØ¢ÙĤ":2166,"ĠØ¨Ø§Ø²Ú¯Ø´Øª":2167,"ÙĤÛĮÙħ":2168,"ÙħØ¨":2169,"ĠÙĨØ¸Ø±ÛĮÙĩ":2170,"edia":2171,"ĠØ§ÙĪØª":2172,"ĠÙħØµØ±Ùģ":2173,"Ø§ÙĨÛĮØ§ÛĮÛĮ":2174,"ĠÙĪÛĮÚĺÚ¯ÛĮ":2175,"ØªØ¨Ùĩ":2176,"ĠÙħÛĮØ±Ø²":2177,"ĠØ§ÙĨÙĪØ§Ø¹":2178,"ĠØŃÙħØ§ÛĮØª":2179,"ĠØ®ÙĪØ´":2180,"Ø¨Ø§Ø´ÙĨØ¯":2181,"ĠÙ¾Ø§Ø¯Ø´Ø§Ùĩ":2182,"Ù¾Ø±Ø¯Ø§Ø²":2183,"ĠØ¬ÙħØ¹":2184,"ĠÙħÙĨØ¸ÙĪØ±":2185,"ĠÙħØŃÛĮØ·":2186,"ĠØªÛĮØ±":2187,"ĠÚ¯ÙħÛĮÙĨØ§":2188,"ĠÙħØ³Ø§Ø¨ÙĤÙĩ":2189,"ĠÙ¾Ø²Ø´Ú©ÛĮ":2190,"ĠØ´ÙĨØ§Ø³":2191,"ĠÙħÙĪÙĦ":2192,"ĠØ³Ø§ÙĦÚ¯ÛĮ":2193,"ĠØ§Ø¬Ø±Ø§ÛĮ":2194,"Ø§Ø±Ø§Øª":2195,"ĠØªØ±Ø¬ÙħÙĩ":2196,"ĠÙģÙĩØ±Ø³Øª":2197,"ĠØ¯Ø±Ø¢ÙħØ¯":2198,"ĠØ¨Ø¹Ø¶ÛĮ":2199,"ĠÙħØ·ÙĦÙĤ":2200,"Ø©":2201,"ĠÙħØŃØ³ÙĪØ¨":2202,"ĠÚ©ÛĮÙĦÙĪÙħØªØ±ÛĮ":2203,"ĠØ³Ø±Ø¨":2204,"ĠÙħÙĤØ¯Ø§Ø±":2205,"ĠØ¯Ø±Ø®Øª":2206,"ĠØªÙĤØ±ÛĮ":2207,"ĠÙĩØ¬Ø±ÛĮ":2208,"ĠØ®ÛĮØ§Ø¨Ø§ÙĨ":2209,"ĠØ¹ÙĦÛĮÙĩ":2210,"Ø¯ÛĮÚ¯Ø±":2211,"ĠØ¢Ø´":2212,"ÙģÛĮÙĦÙħ":2213,"ĠÙģØ¶":2214,"ĠØªØ§Ú©ÙĨÙĪÙĨ":2215,"ĠÙ¾Ø±ÙĪÚĺÙĩ":2216,"ĠØ¨ÙĦÙĨØ¯":2217,"ĠØ¯ÙĪÙħÛĮÙĨ":2218,"ĠØ´ÙĩØ±ÙĩØ§ÛĮ":2219,"ĠÚ¯ÛĮÙĦ":2220,"ĠØ¨ÙĨØ§Ø¨Ø±Ø§ÛĮÙĨ":2221,"ĠØ§ØªÙģØ§ÙĤ":2222,"Ø¨ÛĮÙĩ":2223,"ĠØªØµÙĪÛĮØ±":2224,"ĠØ¨Ø±Ø§Ø¯Ø±":2225,"ĠØ¹ÙħÙĦÛĮØ§Øª":2226,"ĠØ§Ø³Ù¾Ø§ÙĨÛĮØ§":2227,"Ø´ÙĨØ§Ø³":2228,"ĠÙĪØ¨":2229,"ĠØ¨Ø§ÙĨÚ©":2230,"ĠØ¯Ø³":2231,"ĠÙĨØ¬":2232,"ĠØªØµÙĪÛĮ":2233,"ĠØ²ÛĮØ±Ø§":2234,"am":2235,"ÙħØ§ÙĦ":2236,"Ø§Ø®Ø±":2237,"ĠØ§ØµÙģÙĩØ§ÙĨ":2238,"ĠØ¨Ø§Ø³ØªØ§ÙĨ":2239,"Ø¯ÙħØ§Øª":2240,"ĠØ¨ÙĪØ±":2241,"Ø´ÙħØ§Ø±":2242,"Ø§Ø³ÛĮÙĪÙĨ":2243,"Ø§ÙĦÛĮØ§ÛĮÛĮ":2244,"ĠÙĩÙħØ³Ø±":2245,"Ø¨Ø§Øª":2246,"ĠØ§ÙĨØ¬ÙħÙĨ":2247,"ØºØ§ÙĦ":2248,"ĠÛ²Û¶":2249,"ĠÙĨÙĤØ·Ùĩ":2250,"ĠØ³Ø§Ø¨ÙĤ":2251,"ĠØ®Ø§Ø±Ø¬ÛĮ":2252,"ĠØ§Ø³ØªØ§ÙĨØ¯":2253,"ĠÚ©Ø§ÙĨØ§Ø¯Ø§":2254,"Ú¯Ø±ÙģØª":2255,"ĠØ³Ø§Ø®ØªØ§Ø±":2256,"ĠØ¯Ø±ÙĪÙĨ":2257,"Ø¦ÛĮ":2258,"ÙĪÙĨÚ¯":2259,"ĠØ§Ø·Ø±Ø§Ùģ":2260,"Ø§ÙĤÙĩ":2261,"ing":2262,"Ø§ÙħØ§":2263,"ÙĦÛĮÙħ":2264,"ØªÙĤØ¯":2265,"Ġc":2266,"ĠÙĤØ·Ø¹":2267,"Ø¦Øª":2268,"ĠØ¨ÛĮØ³Øª":2269,"ĠÚ©Ø±Ùĩ":2270,"ĠØ³Ø¹":2271,"ĠØ´ÙĪØ±ÙĪÛĮ":2272,"ĠÙģØ´Ø§Ø±":2273,"ĠØ¹ÙĪ":2274,"ht":2275,"ĠÚ¯Ø³ØªØ±Ø´":2276,"ĠØ¢ÙĪØ±ÛĮÙĦ":2277,"ĠØ¯Ø±ÙħØ§ÙĨ":2278,"ĠÙģØ§Ø±Ø³":2279,"ÙħÙĨØ³ØªØ§ÙĨ":2280,"ÙĨÛĮØ§":2281,"ĠÙ¾Ø´Øª":2282,"ĠØ§ÙħÙĪØ±":2283,"ĠÚ¯Ø³ØªØ±Ø¯Ùĩ":2284,"ĠØ¹Ø§ÙĦÛĮ":2285,"Ø´Ø§ÙĩÛĮ":2286,"ÙĨÙĪÛĮ":2287,"of":2288,"ĠÛ±Û³Û¶":2289,"Ú¯Ø§ÙĩÛĮ":2290,"ĠØªØ§Ø¬":2291,"Ø¹ÛĮÛĮÙĨ":2292,"ĠÙĨÙĪØ§ÙħØ¨Ø±":2293,"ĠØ±ÙĪØ¯Ø®Ø§ÙĨÙĩ":2294,"ĠØ®ÙĪØ±Ø´ÛĮØ¯ÛĮ":2295,"Ø¨Ø±Ø§ÙĨ":2296,"ÙĨÚ¯ÛĮ":2297,"Ø°ÛĮ":2298,"ĠÙĪÙĤØªÛĮ":2299,"ĠØ³ÙĨØª":2300,"ĠØŃÙĪ":2301,"Ø§Ø³Ø±":2302,"ĠÙħØ§ÙĩÛĮ":2303,"ĠÙħØµØ±":2304,"ĠÙħÙĪØ¬Ø¨":2305,"ĠØ¨Ø³ØªÙĩ":2306,"ĠØ³Ø±ÛĮØ§ÙĦ":2307,"ĠØªØ¹ÛĮÛĮÙĨ":2308,"ĠØ±ÙħØ§ÙĨ":2309,"Ø§ÙĨØ²":2310,"ĠØ²ÛĮØ³Øª":2311,"ĠØ¯ÙģØ§Ø¹":2312,"ĠÙĤÙĩØ±ÙħØ§ÙĨ":2313,"ĠØ§ÙĦÙħÙ¾":2314,"ĠØ§Ø±ÙħÙĨÛĮ":2315,"ĠÚ¯ÙĪÙĨ":2316,"Ø¨Ø±Ø¯Ø§Ø±ÛĮ":2317,"ĠÚ©Ø´Ø§ÙĪØ±Ø²ÛĮ":2318,"ĠÙĨÛĮÙħÙĩ":2319,"ĠÙģÛĮØ²":2320,"ĠØ¯Ø³Ø§ÙħØ¨Ø±":2321,"Ú¯Ø§ÙĨÙĩ":2322,"ĠÙĨØ¨Ø±Ø¯":2323,"Ø²ÙħØ§ÙĨ":2324,"ĠØ´Ø¹Ø±":2325,"ĠØ±ÙģØªÙĩ":2326,"ØªØ±Ú©":2327,"ĠØ§Ø¯Ø§Ø±Ùĩ":2328,"ĠÚ©ÙħØªØ±":2329,"ĠØ³Ø±Ø§ÙĨ":2330,"ĠØ²ÛĮØ§Ø¯":2331,"Ø¹ØªÛĮ":2332,"ÛĮØ¯ÙĨ":2333,"ĠØ³Ø±ÙħØ§ÛĮÙĩ":2334,"ĠØªÛĮØ±Ùĩ":2335,"ĠØ§Ø³Ø±":2336,"Ø§ÙĩØ¯Ùĩ":2337,"ĠØµÙģØŃÙĩ":2338,"ĠØ§ÙĦØ¨ØªÙĩ":2339,"ĠØ³ØªØ§Ø±Ùĩ":2340,"us":2341,"ĠÛ²Û·":2342,"Ø®ÙĪØ§Ø³Øª":2343,"ĠÙħÛĮÙĦØ§Ø¯":2344,"ĠÙħÙĤØ¯":2345,"ĠÙĩÛĮØ¦Øª":2346,"Ø§Ø¦ÙĦ":2347,"ĠØ³ÙĤ":2348,"ĠÙħØ§Ø¯":2349,"ĠÛ°":2350,"Ø¸ÛĮÙħ":2351,"ĠÙħØªØ±ÛĮ":2352,"ĠØ¯ÙĪØ¨Ø§Ø±Ùĩ":2353,"ÙĪÙĦÛĮÙĨ":2354,"ÙĩÛĮ":2355,"ĠÚ¯Ø§Ø²":2356,"00":2357,"Ø¨Ø±Ú¯":2358,"ĠØ´ÙĪ":2359,"Ø§ÙĩØ§ÛĮ":2360,"ĠØ³ÙĦÙĪÙĦ":2361,"Ø§ÙģØ²Ø§Ø±":2362,"ĠÚ¯ÙĪ":2363,"ĠØ¢Ø²Ø§Ø¯ÛĮ":2364,"Ú©Øª":2365,"ĠØ±ÙĪØ§ÙĨ":2366,"ĠÚĺÙĪØ¦ÛĮÙĩ":2367,"ĠÙħØ§ÙĨØ¯":2368,"Ø¯Ø§Ø±Ø§ÙĨ":2369,"ĠØªØ±Ú©ÛĮÙĩ":2370,"ĠÙ¾Ø´":2371,"ĠÙģÙĪØ±ÛĮÙĩ":2372,"ĠÙĨØ§ÙħÙĩ":2373,"ĠØªØ³":2374,"ĠÙ¾ÚĺÙĪÙĩØ´":2375,"ĠØ®ÙĪØ§Ø³Øª":2376,"ĠÚ©Ø§ÙĦÛĮ":2377,"Ġt":2378,"ĠÙĨØ§ÙħÛĮØ¯Ùĩ":2379,"ĠÙĩÙĨÙĪØ²":2380,"Ø±ÛĮÙħ":2381,"ØªØŃ":2382,"ĠØ¬Ø´ÙĨÙĪØ§Ø±Ùĩ":2383,"ĠÙĨÙģØª":2384,"ĠÚĺÙĪØ¦ÙĨ":2385,"ĠÙĨÛĮÚ©":2386,"Ø³ØªÚ¯ÛĮ":2387,"ĠÙħÛĮØ±Ø²Ø§":2388,"ĠØ³Ø§ÙĦÙĩ":2389,"ĠÙħØ¬ÙħÙĪØ¹":2390,"ĠÙ¾Ø§Ø±Ú©":2391,"ĠÙ":2392,"ĠÙħØ§Ø´":2393,"ÙĨØ¸":2394,"ĠÙĩÙĨØ±Ùħ":2395,"Ø´ÙĤ":2396,"ĠÙ¾Ø±ÙĪØª":2397,"ac":2398,"ĠØ®Ø±Ø§Ø³Ø§ÙĨ":2399,"Ø¯ÙĦ":2400,"ĠÙĩØ²ÛĮÙĨÙĩ":2401,"ĠÙħØ¤Ø³":2402,"ĠØ²Ø±":2403,"Ø§ØŃÙĦ":2404,"Ø§Ú©ÙĨØ´":2405,"ĠØ§ÙħÛĮØ±":2406,"ĠØ¢ÙģØ±ÛĮÙĤ":2407,"ĠÙħÙĨØ¬Ø±":2408,"Ø¨Ø´":2409,"ĠØ¨Ø¯Ø³Øª":2410,"ĠØ¢Ø¨ÛĮ":2411,"ĠØ§ÙħÙĨÛĮØª":2412,"ĠØ§ÙĦÙħÙ¾ÛĮÚ©":2413,"ÙĦØ§ÙĤ":2414,"ĠØ§ÛĮÙĨØªØ±":2415,"ĠÙĪØ§ÙĦ":2416,"ĠÙ¾ÙĪÙĦ":2417,"ĠV":2418,"ĠÙĨØ¨ÙĪØ¯":2419,"ĠÙħØ¹ÙħØ§Ø±ÛĮ":2420,"Ú©Ùħ":2421,"ĠØŃÙħÙĦ":2422,"ĠØ´Ø§Ø¹":2423,"Ø¢ÙĪØ±":2424,"ĠØ§Ø¯Ø¨ÛĮØ§Øª":2425,"Û±Û²":2426,"ĠÙħØªÙģØ§ÙĪØª":2427,"ĠØ¯Ø§ÙĨØ´Ú©Ø¯Ùĩ":2428,"ØµØ¨":2429,"ĠÛ±Û³Û´":2430,"Ø§ÙĪÙĨ":2431,"ĠØ¢Ø¨Ø§Ø¯":2432,"ĠÙĪØ§ØŃØ¯":2433,"ĠÙħØªØ¹":2434,"ĠÙĨÙĪØ¹ÛĮ":2435,"Ø§Ú©Ùħ":2436,"ĠØ®Ø¯ÙħØ§Øª":2437,"Ø§ÙģÙĤ":2438,"ĠØ¢Ø±Ø§Ùħ":2439,"Ø¨Ø¹":2440,"ĠØ§ÛĮØªØ§ÙĦÛĮØ§ÛĮÛĮ":2441,"ĠÙĨØ±":2442,"ĠÙĪÛĮÙĦ":2443,"ĠØ±Ø¶":2444,"ĠÙĦÙĪ":2445,"ĠÚ©Ø§Ø±Ú¯Ø±Ø¯Ø§ÙĨ":2446,"Ø§ÙģÙĩ":2447,"ĠØ§ÙħØ±ÙĪØ²Ùĩ":2448,"ĠÙĨØ¸Ø§Ùħ":2449,"Ø²Ø§Ø±ÛĮ":2450,"ĠØ§ØµØ·":2451,"ĠØ¨Ø²Ø±Ú¯ØªØ±ÛĮÙĨ":2452,"ĠØªÙĤØ±ÛĮØ¨Ø§":2453,"ĠØ´Ø±ØŃ":2454,"ĠÙĩÙĨÚ¯Ø§ÙħÛĮ":2455,"ĠÙħØ³ÙĦÙħØ§ÙĨ":2456,"Ø³Ø§ÛĮ":2457,"ĠÙħØ¨Ø§Ø±":2458,"Ú¯ÛĮØ±ÙĨØ¯":2459,"ĠÛ²Û°Û±Û±":2460,"ĠÙ¾ÛĮØ´ÙĨÙĩ":2461,"ĠØ±Ø§Ø¯ÛĮ":2462,"Ø£Ùħ":2463,"ĠÙĤØ§Ø¬":2464,"ĠÙĨÙħØ§ÛĮÙĨØ¯Ùĩ":2465,"ĠÙ¾ÛĮÙĪØ³Øª":2466,"ĠØªÚ©ÙĨ":2467,"ĠÙħÛĮØ±":2468,"ĠØ¶Ø¯":2469,"Ø§Ø¦ÛĮÙĦ":2470,"Ø§Ø±Ø§":2471,"ĠÚ©Ø§Ø±ÛĮ":2472,"ĠÛĮÙĩÙĪØ¯ÛĮ":2473,"ĠØ®ÙĦÛĮ":2474,"ĠØ§Ø®ØªÛĮ":2475,"ĠØ§Ø±ÙħÙĨØ³ØªØ§ÙĨ":2476,"ĠØ¯Ø±ÛĮØ§ÛĮÛĮ":2477,"ur":2478,"op":2479,"ĠÙħØ³Ø¦ÙĦÙĩ":2480,"ÙĤØ§ÙĨ":2481,"ĠØ§ÙĤØªØµØ§Ø¯":2482,"ĠØ§ÙħÙ¾Ø±Ø§ØªÙĪØ±ÛĮ":2483,"ĠØ¹ÙħØ±":2484,"ÙħÛĮØ±":2485,"ĠØ¯Ø§Ø¯ÙĨØ¯":2486,"ÙĦØ²":2487,"ĠÙħØ±Ø§Ø³Ùħ":2488,"ĠØ³Ù¾Ø§Ùĩ":2489,"ĠÙĪÙĤØª":2490,"ĠÛĮÚ©Ø¯ÛĮÚ¯Ø±":2491,"ĠØ³Ø§Ø¯Ùĩ":2492,"ĠÙĦÙĨØ¯":2493,"ĠØªÙĦÙģ":2494,"Ø¦ÛĮÙĨ":2495,"ĠÚ©Ø§Øª":2496,"ÙĪÛĮÙĪØ±Ú©":2497,"ĠÙħÙĤØ§":2498,"ĠÙĩØ³ØªÙĩ":2499,"et":2500,"ĠÙħÙĪÙĨ":2501,"ĠÙħÙĨØ§Ø³Ø¨":2502,"ĠØ´ÛĮØ®":2503,"ĠØ§Ø®ØªØµ":2504,"ĠØ®ÙĪØ§ÙĨÙĨØ¯Ùĩ":2505,"ĠÙħØ±ØªØ¨":2506,"ĠØ¬ÙĨØ³ÛĮ":2507,"Ø§Ø±Ø´":2508,"ĠØ§Ø¬Ø§Ø²Ùĩ":2509,"ĠÙħØ³ØªÙĤÛĮÙħ":2510,"ĠÙ¾Ø¯Ø±Ø´":2511,"Ø¢ÙĪØ±Ø¯":2512,"ĠØ³ÛĮÙĨÙħØ§":2513,"ĠØ§ÙĪØ§Ø®Ø±":2514,"ĠÙħØ¹ÙĨØ§ÛĮ":2515,"Ø¨ÙĪ":2516,"ĠÙģØ±Ø§ÛĮÙĨØ¯":2517,"ĠÙĨÙĩØ§ÛĮØª":2518,"ĠÙ¾ÛĮÚĨ":2519,"ĠÙĨØ´Ø¯Ùĩ":2520,"ĠØ¨Ø¹Ø¯ÙĩØ§":2521,"id":2522,"ĠÙģØ±Ø§":2523,"and":2524,"ĠØ¯ÙĦØ§Ø±":2525,"ÙĪØµÛĮ":2526,"Ø³Ù¾":2527,"Âł":2528,"Ø¢ÙĪØ±ÛĮ":2529,"ĠØªÙħØ§ÙħÛĮ":2530,"ĠØ³ÛĮÙĦ":2531,"ÙĤÙĦØ§ÙĦ":2532,"Û²Û°":2533,"ĠÚĨÙĩØ§Ø±Ùħ":2534,"ĠØ¯ÙĪÙĦØªÛĮ":2535,"ĠØ·Ø¨ÙĤÙĩ":2536,"ĠØ³ÙĪØ±":2537,"ĠÙħÙĪÙĤØ¹ÛĮØª":2538,"ĠÙģØ±Ø³Øª":2539,"ĠØ¨Ø§Ø¯":2540,"ĠØ´Ø®ØµÛĮ":2541,"Ø¢ÛĮ":2542,"ĠÙĤØªÙĦ":2543,"ĠØ§Ø³ØªØ±Ø§ÙĦÛĮØ§":2544,"ĠÙ¾Ø§Ø³Ø®":2545,"ĠÙĨÛĮÙĪÛĮÙĪØ±Ú©":2546,"ĠÚ©Ø´Øª":2547,"ĠÙħØ±Ø²":2548,"ĠÙħØ¯ØªÛĮ":2549,"ĠÙĪØ¶Ø¹ÛĮØª":2550,"ĠØ²ÙĨØ¯":2551,"ĠØ§Ø³ØªÙĤÙĦØ§ÙĦ":2552,"ĠØŃØ§ØµÙĦ":2553,"ĠØ¹ÙĦÙħ":2554,"os":2555,"ĠÙĨÙĤÙĦ":2556,"ĠØ¹Ø§ÙħÙĦ":2557,"ĠÙĨØ²Ø¯ÛĮÚ©ÛĮ":2558,"ĠØ§ÙħØ±":2559,"ĠÙĪØ§Ú©ÙĨØ´":2560,"ĠÚ©Ø³ÛĮ":2561,"Ø¨Ø§Ø²":2562,"ĠØ¨Ø±Ø¯Ùĩ":2563,"ĠÙħØ´ØªØ±Ú©":2564,"ow":2565,"ĠØ³Ø¨Ø¨":2566,"ĠÙ¾Ø§Ø¯Ø´Ø§ÙĩÛĮ":2567,"ĠØ§ØµÙĦ":2568,"ĠØŃØ±ÙģÙĩ":2569,"ĠØ§ÙĦÚ©ØªØ±ÙĪÙĨ":2570,"ĠÛ²Û±":2571,"ĠØ¹Ø¶":2572,"ĠÙĪØŃ":2573,"ĠØ®ÙĪØ¯Ø´":2574,"ĠØ®Ø¯Ø§":2575,"ĠØ³Ø®Øª":2576,"ÙĪÙĦÙĪÚĺÛĮ":2577,"ĠØ±ÙĤØ§Ø¨Øª":2578,"¸Û°":2579,"Ø¬Ø²":2580,"ĠÙħØªÙĪÙĦØ¯":2581,"ĠØŃØ°":2582,"Ø§Ø³ØªØ§ÙĨÛĮ":2583,"ĠÙħØ´Ø§ÙĩØ¯Ùĩ":2584,"ĠØ¹ÙĦØ§ÙĤÙĩ":2585,"ĠÙĨØª":2586,"ĠØ¬Ø±Ùħ":2587,"ĠØ¯ÙģØªØ±":2588,"ĠÙħØ£Ùħ":2589,"ĠØ±ØªØ¨Ùĩ":2590,"ĠØ¨Ø¹Ø¯ÛĮ":2591,"ir":2592,"ĠÙĩÙĦ":2593,"ĠÛ²Û°Û±Û²":2594,"ĠÙħØ³ØªÙĤÙĦ":2595,"ĠØ®ÙĪØ±Ø´ÛĮØ¯":2596,"ĠK":2597,"Ø±ÛĮØ§ÛĮÛĮ":2598,"ĠÛ²Û³":2599,"ØºØ±Ø§ÙģÛĮ":2600,"ĠÙģØ¶Ø§ÛĮ":2601,"ĠØ²ÙĨØ¯Ø§ÙĨ":2602,"ĠÙĤØ±Ø§Ø±Ø¯":2603,"ÛĮØ³ÛĮ":2604,"ĠØ¨ÙĦÚ©Ùĩ":2605,"ĠÙ¾ÛĮØ±ÙĪØ²ÛĮ":2606,"Ø¨Ú©":2607,"ĠÚ¯ÙĪØ±":2608,"ĠÚ¯Ø±ÙģØªÙĨ":2609,"Ø§Ø±ÙĩØ§ÛĮ":2610,"ĠØ¯Ø¨ÛĮØ±":2611,"ikip":2612,"Ġs":2613,"ĠØ§ÙĦÚ¯":2614,"Ø§Ø¨Ø·":2615,"ĠÚ¯ÙĪÙĨØ§Ú¯":2616,"ĠÛ²Û°Û°Û¸":2617,"Ø§ÙģØª":2618,"ikipedia":2619,"ØªØ³":2620,"ÛĮÙĨØ§":2621,"ĠÙģØ¯Ø±":2622,"ĠÙħØ®Ø§ÙĦÙģ":2623,"ĠÙģØ±Ø§ÙĩÙħ":2624,"ĠÚ©Ø§ÙĦÛĮÙģØ±":2625,"ĠÙħÙĨØµ":2626,"ĠØ±ÙĪØ´ÙĨ":2627,"ĠÙħØ·Ø±ØŃ":2628,"ĠØ±ÙĩØ¨Ø±ÛĮ":2629,"ĠØ§Ø´Ú©":2630,"Ø§ØŃØ¨":2631,"Ú¯ÙĦ":2632,"ĠÙħØ§Ø´ÛĮÙĨ":2633,"ÙĪØ§Ø²":2634,"Ø§Ú¯Ø±":2635,"ĠØ¯ÙĤÛĮ":2636,"ĠØ¬Ø°":2637,"ĠØªØµÙĪÛĮØ¨":2638,"ĠØ´ÙĩØ±Ø¯":2639,"ĠÚ©ÙĪÙħ":2640,"ĠÙĤØ²":2641,"ĠØ¬ØºØ±Ø§ÙģÛĮ":2642,"ĠØ²ÛĮØ¨":2643,"ĠÙĨØ¯Ø§Ø´Øª":2644,"Ø§Ø¬Ùĩ":2645,"ĠØ¯Ø§Ø±ÛĮ":2646,"ĠØŃÙģØ¸":2647,"ĠØ°Ú©Ø±":2648,"Ø§ØªÙĪØ±":2649,"ĠØ³Ø¨Ø²":2650,"ĠÙħØ®ØªÙĦ":2651,"ĠÛ²Û°Û°Û¹":2652,"ĠØ³Ø±Ø§ÙĨØ¬Ø§Ùħ":2653,"Ø·Ø§ÙĨ":2654,"ĠØ®Ø¯ÙħØª":2655,"ÙĨØ§ÙĪØ±ÛĮ":2656,"ĠØ®ØµÙĪØµÛĮ":2657,"ĠÙ¾ÛĮÚ©":2658,"ĠÙħØ´Ø§Ø¨Ùĩ":2659,"ÙĩØ±Ùĩ":2660,"ĠØ®ØµÙĪØµ":2661,"ĠÚ¯ÙĨ":2662,"ĠØ¬Ø§Ø¯Ùĩ":2663,"ĠØªØ¬Ø§Ø±ÛĮ":2664,"ĠØ§Ø¨ØªØ¯":2665,"Ø§ØªØ§":2666,"ÙħØ§ÛĮÛĮ":2667,"Ø®ØµÙĪØµ":2668,"ĠØ³Ø§Ø³":2669,"ĠØ¨Ø±ØªØ±":2670,"ĠÙħÙĪØ²Ùĩ":2671,"ĠØ§Ø³Ø§Ø³ÛĮ":2672,"Ø§Ø¯ÛĮÙĩ":2673,"ÙĪÙĨØ§":2674,"ĠÙħØ¬ÙĦÙĩ":2675,"ĠØ®Ø±ÙĪ":2676,"ĠÙĪØ±ÙĪØ¯":2677,"Ù¾Ø³":2678,"ĠØ¹Ø¨Ø§Ø±ØªÙĨØ¯":2679,"ĠÙ¾ÛĮØ´ÙĨÙĩØ§Ø¯":2680,"ĠØ±ÛĮØ´Ùĩ":2681,"ĠØ¹Ø«":2682,"ĠØ¨ÙĨÛĮØ§ÙĨ":2683,"ÙĦÙĪÛĮ":2684,"Ø´ÛĮØ±":2685,"ĠÚ¯Ø§ÙĩÛĮ":2686,"ÙĩØ§ÛĮØ´":2687,"ĠØŃØ±":2688,"Ø²ÛĮÚ©":2689,"ĠÙĨÙĪØ´Øª":2690,"ĠØ¹Ø¯Ùħ":2691,"ÙĪØ´ÛĮ":2692,"Ø±Ú©Ø²":2693,"ĠØ²Ùħ":2694,"ĠØ§ÚĨ":2695,"Ø±ÛĮØ²ÛĮ":2696,"ĠÙħÙĩÙĨØ¯Ø³ÛĮ":2697,"ĠÙ¾Ø§":2698,"Ø§Ø±ÛĮØ³":2699,"ĠÚ©Ø±Ø¨":2700,"ĠÙĦÙĨØ¯ÙĨ":2701,"ĠÚ©Ø§ÙĦÛĮÙģØ±ÙĨÛĮØ§":2702,"ĠÛ²Û°Û°Û°":2703,"ĠÙĨÙĤØ§Ø´ÛĮ":2704,"ĠØ¨ÛĮØ´ØªØ±ÛĮ":2705,"Ġof":2706,"ĠÙħØ§Ø±Ú©":2707,"ĠÚ¯Ø±ÙĪÙĩÛĮ":2708,"ĠØµÙĨØ¹Øª":2709,"Ø§ÙĨÛĮÙĩ":2710,"Ú©Ø±ÙĪ":2711,"ĠØ¨Ø§ÙĦØ§ÛĮ":2712,"ÙĪÙĨØ¯Ùĩ":2713,"ĠÙĤÛĮÙħ":2714,"ĠØ³ÙĪØ±ÛĮÙĩ":2715,"ĠØ·ÙĦ":2716,"ĠØ«Ø§Ø¨Øª":2717,"ĠØ¯ÙĪØ³Øª":2718,"ĠØ±ÛĮØ§Ø¶ÛĮ":2719,"ĠØ®ÙĪØ§ÙĩØ±":2720,"ÙģÙĦ":2721,"ÙģØ±Ø§ÙĨ":2722,"Ø´Ùĩ":2723,"ĠØ¨Ø²Ø±Ú¯ÛĮ":2724,"ĠØ²ÙĨØ¯Ùĩ":2725,"ĠÙĨØ§Ø¨":2726,"ĠÙĪØ²ÙĨ":2727,"ĠÙĪØ§Ø¨":2728,"Û±Û·":2729,"ÚĨØ§Ø±":2730,"ĠØ³Ø±Ø®":2731,"ĠÙħØ§Ø²":2732,"ĠØ®Ø´Ú©":2733,"ĠØ´Ø§Ø®Ùĩ":2734,"ĠØ§ÙĪØ§ÛĮÙĦ":2735,"ĠÙĦØ§Ø²Ùħ":2736,"Ø®ÙĪØ§Ùĩ":2737,"ĠØµÙĨØ¹ØªÛĮ":2738,"ĠØ¯Ø³ØªÛĮ":2739,"ĠÙ¾Ø±ÙĪØ§Ø²":2740,"ĠĠ":2741,"ĠØªÙĪÙħ":2742,"Ø§Ø¬ÛĮ":2743,"Û±Ûµ":2744,"ÙĪØ§ÛĮ":2745,"ĠØ®ÙĪØ±":2746,"ĠÙĤØ§Ø¬Ø§Ø±":2747,"ĠØ¨Ø¯ÛĮÙĨ":2748,"ĠÙĤÙħØ±ÛĮ":2749,"ÙħØ¬":2750,"Ø§Ú©Ø³":2751,"ĠØ¯Ø±Ú¯Ø°Ø´ØªÙĩ":2752,"ĠÚ©ÙħÙ¾":2753,"ÙĨØªÛĮ":2754,"ĠØ§Ø¹ØªØ±":2755,"ĠÙħØªØ¹Ø¯":2756,"ĠÛ²Û¸":2757,"ĠÙģÙĨØ§ÙĪØ±ÛĮ":2758,"ĠØ±Ø³Ø§ÙĨØ¯":2759,"ĠØªØ±ÛĮ":2760,"ÙĪØªÛĮ":2761,"ÚĨØ±Ø®Ùĩ":2762,"ĠØ³ÙĦØ·Ø§ÙĨ":2763,"Ø¹Ùħ":2764,"ĠØªÙĪØµÛĮ":2765,"ĠØ§Ø±Ø²Ø´":2766,"ĠÚ©ÙĪØ¯Ú©Ø§ÙĨ":2767,"ĠÙĩÙģØªÙĩ":2768,"ĠØ®ÙĦÙĤ":2769,"ĠÚ©Ø§ÙħÙĦØ§":2770,"ĠØªØ£ÙħÛĮÙĨ":2771,"ĠØ·ÙĦØ§":2772,"ĠÙĤØ§Ø¨":2773,"ĠØ±Ø²":2774,"ĠØ®ÙĪØ±Ø¯":2775,"Ø¹Ø¨":2776,"ĠÙħØ¯Ø§Ø±":2777,"ĠÙħØ²":2778,"ĠØ¢ÙĪØ±Ø¯Ùĩ":2779,"Ø±ÙĪØ²":2780,"ĠØ¨Ø±Ø²":2781,"ĠÙħØ¨Øª":2782,"ĠÙĨØ¨":2783,"ĠØ±Ú©":2784,"ĠÛ²Û°Û°Û¶":2785,"ĠØ§Ø®ØªÛĮØ§Ø±":2786,"Ø±Ø§ÛĮÛĮ":2787,"ĠO":2788,"ĠØ¯ÙĤÛĮÙĤ":2789,"ĠÙħØ·Ø§ÙĦØ¹Ùĩ":2790,"ĠØ¢Ú©":2791,"ĠØ®Ø±Ø¯":2792,"ĠØ§ÛĮÙĦ":2793,"//":2794,"ĠÙĨÙħÙĪØ¯Ùĩ":2795,"ĠÙħØ°ÙĩØ¨ÛĮ":2796,"ĠØ¨Ø§ÙĪØ±":2797,"ĠØ³ÙĨØªÛĮ":2798,"ØºÛĮØ±":2799,"ĠÚ¯ÛĮØ±":2800,"ĠÙħÙĤØ§ÙĦÙĩ":2801,"ĠÚĨØ§Ø±":2802,"ĠØ±ÙĪØ§Ø¨Ø·":2803,"ĠØ¹Ø±Ø¶Ùĩ":2804,"ĠØ¹ÙħØ¯Ùĩ":2805,"ĠØŃØ³Ø§Ø¨":2806,"ĠØªØ§ÛĮ":2807,"ĠÚ¯Ø§Ùĩ":2808,"ĠÙħØ¹ØªÙĤØ¯":2809,"ĠÙħØŃØµÙĪÙĦØ§Øª":2810,"ÙħØ§ÙĨØ¯":2811,"ĠØ¬Ø¹":2812,"ĠØ´ÛĮÙĪÙĩ":2813,"tp":2814,"ĠØ±Ø¯":2815,"ĠØ¨Ø±Ø¬Ø³ØªÙĩ":2816,"ĠØ§Ø¨Ø²Ø§Ø±":2817,"ĠØ§Ø¨ÙĨ":2818,"ĠØ§Ù¾":2819,"Ø§ÛĮØ²":2820,"ĠÛ±Û°Û°":2821,"Ø¯ÛĮØ³":2822,"ĠØªØ´Ø®ÛĮ":2823,"ĠØ§Ø¶Ø§ÙģÙĩ":2824,"Ø³ÛĮÙĪÙĨ":2825,"ĠÚĨÚ©":2826,"ĠØ§Ø³Ø±Ø§Ø¦ÛĮÙĦ":2827,"Ġ[":2828,"ĠÛ²Û°Û±Û´":2829,"ĠÛ±Û³Û¹Ûµ":2830,"ÙĪÚ¯Ø±":2831,"ĠØ§ØµÙĦØ§ØŃ":2832,"ÙĦÙħ":2833,"ÚĺØ§Ø¯":2834,"ĠØªØ¹Ø¯Ø§Ø¯ÛĮ":2835,"ĠØµØŃÙĨÙĩ":2836,"nt":2837,"ĠØ´Ø¨ÛĮÙĩ":2838,"ĠÛ±Û¹Û°Û":2839,"ĠØ±Ø¯Ùĩ":2840,"ĠØ§ØµØ·ÙĦØ§ØŃ":2841,"ĠØ¬ÙĨØ¨Ø´":2842,"ĠØ³ÙĪØ¯":2843,"ĠÙħØªØŃØ¯":2844,"ĠØ¹ØµØ±":2845,"Ø³Ø¯":2846,"ĠÙĪØ¸":2847,"ĠØ¬Ø§":2848,"ĠØ§ÙģØ³":2849,"http":2850,"ĠØ§ÙĩÙħÛĮØª":2851,"ĠØ´ÙĩØ±Ú©":2852,"Ø³Ú©ÛĮ":2853,"ĠØ¨ÛĮØ±ÙĪÙĨ":2854,"âĢį":2855,"ÙĪÙĦÛĮØª":2856,"://":2857,"ĠØ§Ø®ÛĮØ±":2858,"ĠÙħØ§Ø³":2859,"ĠØ¯Ø¹":2860,"Ø¡":2861,"ĠÙħØ¬Ø¯":2862,"ĠØ¢Ø³ÛĮØ§":2863,"ĠÙħÙĦÙĦ":2864,"ĠØªÙĪØµÛĮÙģ":2865,"ĠÛ²Û°Û±Û³":2866,"ĠØ¬Ø§ÛĮÚ¯Ø²":2867,"ĠÛ²Û°Û°Û·":2868,"Ø³ÛĮØ¯":2869,"ĠØ¯Ø§ÙĨØ´Ø¬":2870,"ĠØªØ§ÙĦ":2871,"ĠØ²Ø¯":2872,"ĠÙħÛĮØ§ÙĨÙĩ":2873,"Ú¯ÛĮÙĨ":2874,"ĠÙĦØŃØ§Ø¸":2875,"Ú¯ÙĪÛĮÙĨØ¯":2876,"ĠÙħØ±Ø¯Ø§ÙĨ":2877,"ĠØ®Ø·Ø±":2878,"ÙĪØ±Ø§":2879,"ĠØ¯ÙĪÚĨØ±Ø®Ùĩ":2880,"Ø±Ø¯Ùĩ":2881,"ĠØªØ¦Ø§ØªØ±":2882,"ĠØ¯ÙĤÛĮÙĤÙĩ":2883,"ÚĺÛĮÚ©":2884,"ĠÙ¾ÙĪØ´Ø´":2885,"ÙħÙĪÙĨ":2886,"ĠØ§ÛĮØ³ØªÚ¯Ø§Ùĩ":2887,"ĠØ¯ÙĨÛĮ":2888,"Û±Û¶":2889,"ĠÙ¾Ø§ÙĦ":2890,"Ø±ÙĪÛĮ":2891,"ĠØ¬ÙĦÙĪÚ¯ÛĮØ±ÛĮ":2892,"ĠØªØ§Ø±":2893,"ot":2894,"Ø¢ÙħØ¯":2895,"ĠÛ±Û³Û²":2896,"ÙģØ§ÛĮ":2897,"Ú©ÙĪÙĩ":2898,"ĠÙħÙĪØ³":2899,"Ø±ÛĮÙĨ":2900,"ĠÚ¯Ø±Ø¯Ø´":2901,"ĠÚ¯Ø°Ø§Ø´Øª":2902,"ĠØ§ØªØŃØ§Ø¯ÛĮÙĩ":2903,"ĠØ¨ÙĪÙħÛĮ":2904,"ĠØ±Ø³Ø§ÙĨÙĩ":2905,"ĠÙģÙĪÙĦ":2906,"ĠØ¹Ø¨Ø§Ø³":2907,"ĠØªÙĪØ²ÛĮ":2908,"ĠÙħØ±Ø§Ú©":2909,"ĠÚ¯Ø´Øª":2910,"ĠÙĩØ§Ø±":2911,"ĠÙĪÛĮÙĦÛĮ":2912,"ĠÙģÙĪÙĤ":2913,"ĠØªØŃÙĤÛĮÙĤØ§Øª":2914,"ĠÙĤÙĪØ§ÙĨ":2915,"Â».":2916,"ĠØ·ÙĪØ±":2917,"ĠÙħÙģÙĩ":2918,"Ú¯Ø±Ø¯Ø§ÙĨ":2919,"ig":2920,"ĠØ§ØªØ§ÙĤ":2921,"ĠØ´ÙĩØ±Øª":2922,"ĠØ§Ø³ØªØ§ÙĨØ¯Ø§Ø±Ø¯":2923,"Ù¾ÙĪØ±":2924,"Ø§ÙħÛĮÙĨ":2925,"ĠØ¹Ø¯Ø¯":2926,"ĠØŃØ§ÙģØ¸":2927,"Ġp":2928,"ĠØªØ´Ø®ÛĮØµ":2929,"\")":2930,"ĠØ²ÙĨØ¬":2931,"ÙĴ":2932,"ÛĮÚ©Ø§":2933,"ĠÙ¾Ø§Ù¾":2934,"Ø§ÙĪØ§":2935,"ĠÙĦØ§ÛĮÙĩ":2936,"Ø´ØªÛĮ":2937,"ĠØªÙĦÙĪÛĮØ²ÛĮÙĪÙĨ":2938,"ĠÚ©Ø§Ø±Ø¨Ø±":2939,"ĠÙģÙĨ":2940,"ĠØ¢Ø´ÙĨ":2941,"ĠØ§Ø®ØªØµØ§Øµ":2942,"Ø§ÙĨØ¯Ø§ÙĨ":2943,"ĠØ³Ø±Ø¨Ø§Ø²":2944,"ĠÚ©ØªØ§Ø¨Ø®Ø§ÙĨÙĩ":2945,"ĠÙħØ§ÙĨØ¯Ùĩ":2946,"ĠØ´Ø¯Øª":2947,"Ú©ÙĨÙĪÙĨ":2948,"ut":2949,"ĠÙħØªÙĪØ³":2950,"ĠÙħÙĤØ§ÙĪÙħØª":2951,"ĠÛ²Û°Û±Û¶":2952,"ĠÛµÛ°":2953,"ĠØªØ§Ø²Ùĩ":2954,"Ø³Ùģ":2955,"Û±Û´":2956,"ĠØªØ§Ø¨Ø¹":2957,"ĠØµØ§ØŃØ¨":2958,"ĠØªØ¨Ø±ÛĮØ²":2959,"Ø³ÛĮØ±":2960,"ĠØªÙĪØ²ÛĮØ¹":2961,"Ø·Ø±":2962,"ØŁ":2963,"ad":2964,"ĠØªÙģØ§ÙĪØª":2965,"ĠØ°Ø®":2966,"ĠÙ¾ÛĮØ§Ùħ":2967,"ĠJ":2968,"ÙĦØŃ":2969,"ĠØ¨Ø§ÙģØª":2970,"ĠØ·ÙĪÙĦØ§ÙĨÛĮ":2971,"ĠØ®ÙĪÛĮØ´":2972,"ĠÙ¾ÛĮØ§":2973,"ĠÙģÙĦØ³ÙģÙĩ":2974,"ĠØ§Ø®ØªÙĦØ§Ùģ":2975,"ĠÙĪÛĮÙĨ":2976,"ĠØ¢ÙĨÚ©Ùĩ":2977,"ĠØ§Ø±Ø´Ø¯":2978,"ĠØ¯Ø±ÙĪ":2979,"ĠØ®ÙĪØ¨ÛĮ":2980,"ĠÚ¯Ø±ÛĮ":2981,"ĠØ³Ø±Ø§Ø³Ø±":2982,"ĠÚ©ÙĨÚ¯":2983,"ĠØ¯Ø±Ùĩ":2984,"Ø±Ø¯Ø±ÛĮØ§ÛĮÛĮ":2985,"ĠÙħÙĪÙģÙĤÛĮØª":2986,"ĠÙ¾Ø§Ø±ÛĮØ³":2987,"Ø¨ÛĮÙĦ":2988,"ĠØ¹ÙĤ":2989,"ĠÙĨÙĤØ§Ø·":2990,"ĠÙĨÛĮØ±ÙĪ":2991,"ĠØ±Ø£":2992,"ĠØ§ÙĨØ³Ø§ÙĨÛĮ":2993,"ĠØ¢Ø³ÛĮØ¨":2994,"ĠÙĪÛĮØ¯":2995,"Ø²Ø§":2996,"ĠÙĨØ§Ø±":2997,"ÙĪÙħÙĩ":2998,"ĠØ¯Ø§Ø´ØªÙĨ":2999,"ĠÙĩÛĮØ¯":3000,"Ø´Ú©Ø§Ø±":3001,"ĠÙħØ®ØªÙĦÙģÛĮ":3002,"ĠÚ©Ø§Ø±ÙĩØ§ÛĮ":3003,"ĠØªÙĪØ§ÙĨØ§ÛĮÛĮ":3004,"ĠÚ¯Ø±Ø§ÙĨ":3005,"ĠØ¨ÛĮØª":3006,"ĠØ§Ø¨Ø±":3007,"Ø¨Ø®Ø´":3008,"Ú¯ÙĪÙĨ":3009,"ĠØ§Ú©ÙĨÙĪÙĨ":3010,"ĠØ¬Ø§ÛĮÛĮ":3011,"ÙħØ§Øª":3012,"Û±Û¸Û":3013,"ĠÙĤØ·Ø¹Ùĩ":3014,"ĠØ§Ø³Ù¾Ø§ÙĨÛĮØ§ÛĮÛĮ":3015,"ĠØ¯Ø±Ø³Øª":3016,"ĠÙĪØ§ÙĤØ¹ÛĮ":3017,"ÙĨØ§ÛĮØ¹":3018,"ĠÙĪÙĦØ§ÛĮØª":3019,"ÙĤÛĮØ§ÙĨ":3020,"ĠÙħÙĩØ§Ø¬Ø±Øª":3021,"ĠØ´ÙĩØ±Ø¯Ø§Ø±ÛĮ":3022,"ĠØ§ØªÙħ":3023,"ÙĪØªØ±":3024,"ĠØ´ÙħØ§Ø±":3025,"Ø¬ÙħÙĩÙĪØ±":3026,"ÛĮÚ©Ø³":3027,"Ù¾Ø±Ø¯Ø§Ø²Ø¯":3028,"ĠÙĤÛĮÙħØª":3029,"ĠÙ¾ÙĩÙĦÙĪÛĮ":3030,"ÛĮØ§Ø¨Ø¯":3031,"ĠØ±Ø§ÙĨ":3032,"ĠØ¯ÚĨØ§Ø±":3033,"ĠÛĮØ²":3034,"ĠØ¢ÛĮÙĨ":3035,"ĠÙĨØ³ÙĦ":3036,"ĠØ¯Ø§Ø¯Ú¯Ø§Ùĩ":3037,"ĠØµØ±Ùģ":3038,"Ø§Ø¯Ú¯ÛĮ":3039,"ĠÛ±Û³Û³Û":3040,"Ø³Ø§Ø³":3041,"Ġ:":3042,"ĠØ¹ÙħÙĦÚ©Ø±Ø¯":3043,"ĠÙħØ¤Ø³Ø³Ùĩ":3044,"ĠØ¬Ø³Øª":3045,"ĠÙħØŃÙħÙĪØ¯":3046,"ØªØ®Øª":3047,"ĠÙ¾ÛĮÙħ":3048,"ĠØ®Ø§ÙĨØ¯Ø§ÙĨ":3049,"ÙĪØ±ØªÛĮ":3050,"ĠÙħÙĨØªÙĤÙĦ":3051,"ĠÙĪØ±ÙĪØ¯ÛĮ":3052,"ÙĪØ°":3053,"ĠØ³Ùħ":3054,"ĠÙĪÙĨ":3055,"ĠØ³Ú©ÙĪÙĨØª":3056,"ĠØ§Ø¯Ø¹":3057,"ĠØ¨Ø§Ø²ÛĮÚ¯Ø±Ø§ÙĨ":3058,"ĠØ³Ø±ÙĪ":3059,"ĠÙĨÙĩØ§ÛĮÛĮ":3060,"ĠÙĤÙĦÙħ":3061,"ent":3062,"ĠØªÙĨØ¸ÛĮÙħ":3063,"ĠØ³Ø§ÛĮØª":3064,"ĠØµÙĨØ§ÛĮØ¹":3065,"ĠÛ³Ûµ":3066,"ĠÙ¾Ø±Øª":3067,"ĠØ³Ø§Ú©":3068,"ĠÙĪÛĮØª":3069,"ĠØªÙĪÙ¾":3070,"ĠØ¯ÛĮÙĪØ§Ø±":3071,"ĠÙĤÙĪØ§ÙĨÛĮÙĨ":3072,"Ø§ÙģØ±":3073,"ÙĦØ§Øª":3074,"ĠØ¨Ø±ÙĤ":3075,"ÙĤÛĮÙĩ":3076,"ĠØ§ÛĮØ´Ø§ÙĨ":3077,"ĠÛĮÙĪØ§Ø³":3078,"ĠÛ²Û°Û±Ûµ":3079,"ĠØ§ØªØŃØ§Ø¯":3080,"ĠØ¯Ø§ÙĨØ´Ùħ":3081,"Ø²ÙĦ":3082,"ĠÚ¯Ø±Ø§Ùģ":3083,"ĠØ¸Ø§ÙĩØ±":3084,"Ø§Ø¯Ø«":3085,"ĠØ§Ø³Ùģ":3086,"ĠÙ¾Ø³Øª":3087,"ĠØ¯Ø±Ø®ÙĪØ§Ø³Øª":3088,"ĠØ±Ø³ÛĮØ¯ÙĨ":3089,"Ø§ÙĨÛĮÙħ":3090,"ĠØ¸Ø±Ùģ":3091,"ĠÚĨÛĮØ²ÛĮ":3092,"ĠØ³Ø§Ø¨ÙĤÙĩ":3093,"ĠØ±ÙĪØ³ØªØ§ÙĩØ§ÛĮ":3094,"ĠÛ²Û°Û°Ûµ":3095,"Ġd":3096,"ĠÙĦØ±":3097,"ÙĪÛĮØ²":3098,"ĠØŃÚ©Ùħ":3099,"ĠÙħÙĨØŃ":3100,"Ø¨Ø§Ø¨":3101,"ĠØ§ÙĦÚ¯ÙĪØ±ÛĮØª":3102,"Ø³ÛĮÙĦ":3103,"ĠØ®Ø§ØµÛĮ":3104,"ĠÚ©ÛĮÙģ":3105,"ĠÙ¾Ø§Ú©Ø³ØªØ§ÙĨ":3106,"ĠÙĦØ´Ú©":3107,"ÙĪØªØ§":3108,"ĠØ®ÙĪØ§ÙĨØ¯Ùĩ":3109,"ĠØ´Ø¯ÛĮØ¯":3110,"Ø´ÛĮÙĨ":3111,"ĠÙĦØ¨Ø§Ø³":3112,"ĠÙħØ§Ø±ÛĮ":3113,"ĠÚĨØ±Ø§":3114,"ĠÙĪØ±Ø²Ø´ÛĮ":3115,"ĠØ¹Ø¨ÙĪØ±":3116,"ĠÙħØªÙĪ":3117,"ØªÙĪØ§ÙĨØ³Øª":3118,"Ø¨ÛĮÙĨÛĮ":3119,"ĠØªØ¬Ø±Ø¨Ùĩ":3120,"Ø¯ÛĮØ¯Ùĩ":3121,"ĠØ¹Ø«ÙħØ§ÙĨÛĮ":3122,"ÛĮÚ©Ùĩ":3123,"ĠØ¬ØºØ±Ø§ÙģÛĮØ§ÛĮÛĮ":3124,"ĠØ±ÙģØªØ§Ø±":3125,"ĠÛ²Û¹":3126,"ĠÙ¾ÙĦÛĮØ³":3127,"ĠØ±Ø§ÛĮØ§ÙĨÙĩ":3128,"ĠØªØŃØµÛĮÙĦØ§Øª":3129,"ĠÚ¯ÛĮÙĦØ§ÙĨ":3130,"ĠÚ¯Ø²":3131,"ĠØ¨ÙĦÙĪÚĨ":3132,"ĠÙĪØ±Ø²Ø´Ú¯Ø§Ùĩ":3133,"ÙĨÙĪÛĮØ³ÛĮ":3134,"ÙĪÙħØ§":3135,"Ø³ÙĪØ±":3136,"ĠÛĮÙĪÙĨØ§ÙĨÛĮ":3137,"ĠÙħØŃØ¨":3138,"ĠÚĺØ§ÙĨØ±":3139,"ĠØ¨ÙĨØ¯":3140,"ĠÙĪØ§Ø±":3141,"ÛĮÙĨÙĪ":3142,"ĠØªØ®Øª":3143,"ĠÚ©Ø§Ø±Ø®Ø§ÙĨÙĩ":3144,"ĠÙ¾Ø§ÛĮÚ¯Ø§Ùĩ":3145,"un":3146,"ĠÙ¾ÙĪØ³Øª":3147,"ĠØªØŃÙĦÛĮÙĦ":3148,"ÙħØªØ±":3149,"Ø¨Ø§ÙĨÛĮ":3150,"ĠØ³Ø±ÛĮØ¹":3151,"Ø§Ø¦Ùħ":3152,"Ø§ÛĮØ³Ùĩ":3153,"Ø§ÙĤÙĦ":3154,"ĠÙĤØ§ÙĦØ¨":3155,"ÙĨØ´ÛĮÙĨ":3156,"Ø§Úĺ":3157,"Ú©Ø´ÛĮ":3158,"ĠÙĨÙĪØ²":3159,"ĠÙħØ´Ú©ÙĦØ§Øª":3160,"ĠØ¢ÙĦÛĮ":3161,"ĠØ®ÛĮÙĦÛĮ":3162,"ĠÙĨØ¸ÛĮØ±":3163,"Ù¾Ø°ÛĮØ±":3164,"ĠØ§ÙģØªØ®":3165,"ĠØ³ÛĮØ±":3166,"ÙħØ¯Ø§Ø±":3167,"ĠØ¢ÙĨÚĨÙĩ":3168,"Ø§Ø²Ø¯Ùĩ":3169,"ĠÙģØ±ÙħÙĪÙĦ":3170,"ØµÙĩ":3171,"ĠØ¨ÛĮÙħØ§Ø±Ø³ØªØ§ÙĨ":3172,"ĠÙħØªØ¹ÙĦÙĤ":3173,"Ø¹ÙĪØ¯":3174,"ĠÙģØªØŃ":3175,"Ġ(;":3176,"ÛĮØ§ÙĨ":3177,"ĠÙ¾Ø§ÛĮØªØ®Øª":3178,"ĠØ¨ØŃØ«":3179,"ag":3180,"ÙĪÛĮÙħ":3181,"ÙĪØ³ØªÙĩ":3182,"ĠØ¯Ø³ØªØ±Ø³ÛĮ":3183,"ĠØ¯Ø±ÛĮØ§ÛĮ":3184,"Ú©ØªØ±ÛĮ":3185,"ĠØ¢ÛĮÙĨØ¯Ùĩ":3186,"ĠØ§Ú©Ø«Ø±":3187,"ĠÙħØ¨Ø§Ø±Ø²Ùĩ":3188,"ÙĤØ±Ø§Ø±":3189,"ĠØ³ÙĪÙħÛĮÙĨ":3190,"ĠØµØ¯Ø§":3191,"ÙħÛĮÙĨÛĮ":3192,"ĠØ¨Ø±Ø®ÙĪØ±Ø¯Ø§Ø±":3193,"ĠÙĤØ§Ø¨ÙĦÛĮØª":3194,"ØµØª":3195,"Ú©ÙĪÙħ":3196,"ĠØ¨Ø±Ø²ÛĮÙĦ":3197,"ĠØ³Ø§Ú©ÙĨ":3198,"ĠØµØ§Ø¯":3199,"ÛĮØ´ÙĨ":3200,"ĠØ§Ø¹ÙħØ§ÙĦ":3201,"ÛµÛ°":3202,"ĠØ±ÙĩØ¨Ø±":3203,"ĠØ¯ÙħÙĪÚ©":3204,"Ø³Ø±ÙĪ":3205,"ĠØ§Ø¨Ø±Ø§Ùĩ":3206,"ĠØ²Ø¯Ùĩ":3207,"ĠØªØ£ÛĮ":3208,"ĠÙħØ±ÛĮ":3209,"ĠÙħÙĤØ§ÛĮØ³Ùĩ":3210,"iv":3211,"ĠÙĨØ§Ù¾":3212,"Ø¦ÙĪ":3213,"01":3214,"ĠÙĤØ¨ÛĮÙĦ":3215,"Ú¯Ø²Ø§Ø³":3216,"ĠØ§ÙĦÚ¯ÙĪØ±ÛĮØªÙħ":3217,"ÚĨÙĨÛĮÙĨ":3218,"ĠÙĤØ¶":3219,"ÙģØ¹":3220,"Û°Ûµ":3221,"ĠØ®ÙĪØ²":3222,"ĠÙģØ±Ø§Ø±":3223,"Ú©ÙĪØ±":3224,"ĠÙģØ±ÙħØ§ÙĨØ¯Ùĩ":3225,"ĠØ¯ÙĩÙĨØ¯":3226,"ĠØ§ÙĨØ¯ÛĮØ³":3227,"ĠØ¯Ø´Ùħ":3228,"ÙĩØ§Ùħ":3229,"ĠÙĪØ§Ø¨Ø³ØªÙĩ":3230,"ĠØ¢ÙħÙĪØ²Ø´ÛĮ":3231,"ĠÙĤØ¯ÛĮÙħ":3232,"ĠÙħØ±ØªØ¨Ø·":3233,"ĠØ¨ÙĪ":3234,"ĠÙĨÚ¯ÙĩØ¯Ø§Ø±ÛĮ":3235,"ĠØ±Ùħ":3236,"ĠØªØ£ÛĮÛĮØ¯":3237,"ĠØªØºÛĮÛĮØ±Ø§Øª":3238,"ĠØªÚ¯Ø²Ø§Ø³":3239,"ĠØ§Ø±ÙĪÙ¾Ø§ÛĮÛĮ":3240,"ĠØ¯Ø§ÛĮ":3241,"ĠÚ©Ø§ÙħÙ¾ÛĮ":3242,"ĠÙħÙĨØ¨Ø¹":3243,"ĠØ´Ø§Ø¹Ø±":3244,"Ú©Ø±Ø¯Ùĩ":3245,"ĠØ³Ø®ÙĨ":3246,"ØªÛĮØ¨Ø§ÙĨÛĮ":3247,"...":3248,"ĠØŃØ°Ùģ":3249,"ĠÙ¾ÙĨØ¬Ùħ":3250,"ĠÚ©Ø±ÙħØ§ÙĨØ´Ø§Ùĩ":3251,"ĠÙĦØº":3252,"ĠÙ¾ÙĪØ±":3253,"ĠØ¬ÛĮÙħ":3254,"Ø§ÙĦÙħ":3255,"ÙĪØ§Ø±Ø¯":3256,"ĠÚĨØ´ÙħÙĩ":3257,"ĠÙĩØ¯Ø§ÛĮØª":3258,"ĠÙĪÛĮÙĦÛĮØ§Ùħ":3259,"ĠÚ©Ø§Ù¾":3260,"ĠØ±ÙĪØŃØ§ÙĨÛĮ":3261,"ĠÙħØ§Ø¬":3262,"ĠØ´ÙħØ§":3263,"ĠØ¯ÛĮØ±":3264,"ĠÙĨØ§Ø´ÛĮ":3265,"ĠU":3266,"ĠØ³Ø§Ø²ÛĮ":3267,"ĠØ¯Ø±ÛĮØ§ÚĨÙĩ":3268,"ÙħØ¯ÛĮ":3269,"ĠØ¨Ø§ÙĨ":3270,"od":3271,"ĠØ§ØŃØ³Ø§Ø³":3272,"Ø«ÛĮ":3273,"ĠØ§ÙħØªÛĮ":3274,"Ġm":3275,"ĠÙ¾Ø´ØªÛĮØ¨Ø§ÙĨÛĮ":3276,"ĠØ´ÙĨØ§Ø³Ø§ÛĮÛĮ":3277,"ĠØ±Ø§ÛĮØ¬":3278,"ĠØ§ÙĦÛĮ":3279,"ĠÛ²Û°Û±Û·":3280,"ĠØ¯Ø´Øª":3281,"ĠØ²ÛĮØ±Ø¯Ø±ÛĮØ§ÛĮÛĮ":3282,"ĠÙĨØŃ":3283,"ÙĨØ§Ø¯":3284,"ĠØ³Ø§ÙħØ§ÙĨÙĩ":3285,"ĠØ®ÙĪØ²Ø³ØªØ§ÙĨ":3286,"ĠÙĦÛĮÙĨ":3287,"Ø³ØªØ±ÛĮ":3288,"Ú¯Ø§":3289,"ĠØ²Ø±Ø¯":3290,"ĠÙĩÙĦÙĨØ¯":3291,"ÙĨØ§Øª":3292,"ĠÚ©ÙĦÙħÙĩ":3293,"ĠØ°Ø®ÛĮØ±Ùĩ":3294,"Ú©Ø§Ùħ":3295,"ĠÙĩÙħÚĨÙĨØ§ÙĨ":3296,"ĠÙ¾ÛĮÙĪÙĨØ¯":3297,"ÛĮÙĪØ§Ø³":3298,"ĠØ¬Ø§ÛĮÚ¯Ø²ÛĮÙĨ":3299,"ĠÙĤØ§Ø¯Ø±":3300,"ĠÙĨÙħØ§ÛĮÙĨØ¯Ú¯Ø§ÙĨ":3301,"Û°Û±Û":3302,"ĠÙĤÛĮ":3303,"ĠØ¨ÙĨÛĮØ§Ø¯":3304,"ĠØ±ÙĪÙĨ":3305,"ĠØŃØ§Ú©Ùħ":3306,"ĠÙħØ¹Ø§Ø¯ÙĦ":3307,"ĠØ¯Ø±Ø§Ùħ":3308,"ĠÚ©Ø´ÙĪØ±ÛĮ":3309,"ĠÙĩÙħØ§ÙĨÙĨØ¯":3310,"ĠÙħØ¯Ø±ÙĨ":3311,"ĠÚ¯ÙĪÛĮ":3312,"ĠØªØ®Øµ":3313,"ĠÙħØ³ÛĮØŃÛĮ":3314,"ĠÛ´Û°":3315,"ĠÚ©Ø±ÛĮØ³Øª":3316,"Ø¸Ùĩ":3317,"ĠØ§Ø¹ØªØ±Ø§Ø¶":3318,"ĠÚ¯Ø°Ø§Ø´ØªÙĩ":3319,"Û°Û´":3320,"ØºÙĨ":3321,"Ø´Ø¯ÙĨØ¯":3322,"ĠÚ©Ø§Ø±Ø´ÙĨØ§Ø³ÛĮ":3323,"ĠØ¬Ø°Ø¨":3324,"ĠØ§ÙĦÙħ":3325,"ĠÛ³Û²":3326,"ĠÙ¾Ø¯ÛĮØ¯":3327,"ĠÙ¾ÛĮØ´Ø±ÙģØª":3328,"Ø§ÙĨØ¯Ø§Ø²ÛĮ":3329,"Û°Û²":3330,"ĠÙħØ·Ø§ÙĦØ¹Ø§Øª":3331,"ĠÛ²Û°Û°Û´":3332,"Ø¯ÛĮÙĨ":3333,"ĠØ¨Ú©Ø§Ø±":3334,"Ø§Ø¯ÙĩØ§ÛĮ":3335,"ĠÙħÙģÙĩÙĪÙħ":3336,"ĠÙĨÙĤØ±Ùĩ":3337,"ĠÙ¾Ø±Ø¯Ø§Ø²":3338,"ĠØ¯ÙĪØ¯":3339,"ĠÙĪØ§ÙĦÛĮ":3340,"ĠØ§ØªØ±ÛĮØ´":3341,"ĠÙģÛĮØ²ÛĮÚ©":3342,"ÙĨØ¯Ø±Ø§ÙĨ":3343,"ĠÙģØ±ÛĮ":3344,"ØªØ¨Ø§Ø±":3345,"ĠÙģØ±Ø¶":3346,"ĠÙĩÙħÛĮØ´Ùĩ":3347,"ĠÙĩÙħÚ¯Ø§ÙĨÛĮ":3348,"ĠÚ©ÙĨÛĮØ¯":3349,"ĠØ¬Ø§ÛĮÚ¯Ø§Ùĩ":3350,"ĠØ±Ø§Ú©":3351,"ĠÚ¯ÙĪÙĨØ§Ú¯ÙĪÙĨ":3352,"ĠÙĨÙĩØ§Ø¯":3353,"ÙĪØ·Ùĩ":3354,"ĠØ´ÛĮØ±Ø§Ø²":3355,"ĠÙħÙĤØ¯Ø³":3356,"Û°Û·":3357,"ĠÙħØªØµÙĦ":3358,"ĠÚ©Ùģ":3359,"ĠÛĮÚ©Ùħ":3360,"ĠÙħØ¹Ø¯":3361,"ØªÛĮÚ©":3362,"ÙĪØ§ÙĨÛĮ":3363,"ĠÙĨÙģÙĪØ°":3364,"ĠÙĨØ´Ø§ÙĨÙĩ":3365,"ĠØ³ÛĮØ³ØªØ§ÙĨ":3366,"ĠØ¯ÙĩÙĨØ¯Ùĩ":3367,"ĠØµÙĦØŃ":3368,"Ø§ÙĦØŃ":3369,"ĠØ±ÛĮØ²":3370,"ĠØ±Ø¶Ø§":3371,"Ø¬Ø§ÛĮÛĮ":3372,"ĠØ®Ø§Ùħ":3373,"ĠØªØ¯Ø±ÛĮØ³":3374,"ĠØ¨Ø´Ø±":3375,"ĠÙħØŃØ¨ÙĪØ¨":3376,"ÙĪØ§ÙĨÙĩ":3377,"ĠØ¬ÙĪØ±":3378,"ĠØ¹Ú©Ø³":3379,"ĠÚĨÙĨØ§ÙĨ":3380,"ĠÙħØ§ÙĦÚ©":3381,"ĠØŃØ¬":3382,"ĠÙĨØ´Ø¯":3383,"ÙĪØ±ÙĪ":3384,"ĠÙĨØ§ÙħØ²Ø¯":3385,"ĠØ¨Ø§Ø³ØªØ§ÙĨÛĮ":3386,"ĠØ§ÙĦÚ©ØªØ±ÛĮÚ©ÛĮ":3387,"ĠÙĨÙĤØ´Ùĩ":3388,"ĠÙħÙĩØ¯ÛĮ":3389,"ĠØ¹Ø±Ø¨Ø³ØªØ§ÙĨ":3390,"ĠÛĮÙĪ":3391,"³Û°":3392,"ĠÙĨÙĪØ§Ø²":3393,"ÙħÛĮÙĦØ§Ø¯ÛĮ":3394,"ĠÙģØ±Ø¯ÛĮ":3395,"ĠÚĨÙĩØ±Ùĩ":3396,"Ø³Ú©ÙĪ":3397,"org":3398,"Ú¯Ø±ÙģØªÙĩ":3399,"Ú©Ø±ÛĮ":3400,"ÙħØ§ÙĨÙĨØ¯":3401,"ÛĮÙĨØ²":3402,"ess":3403,"ĠÙĤÙĪÛĮ":3404,"ĠØ¹Ø´ÙĤ":3405,"__":3406,"ÙĪÚ©Ø³":3407,"ĠØ¬ÙĨÚ¯ÙĦ":3408,"Ø§Ø±ØªÛĮ":3409,"ĠØ¨ÙĩØ¨ÙĪØ¯":3410,"ĠØ§Ø¬Ø±Ø§ÛĮÛĮ":3411,"Ø¢Ø±":3412,"ĠØŃÙĦÙĤÙĩ":3413,"Û°Û¶":3414,"ĠØ§ÙĩØ¯":3415,"ĠØŃÛĮÙĪØ§ÙĨ":3416,"ĠÚĨÙ¾":3417,"ĠÚ©Ø§Ø®":3418,"Ø³ÛĮØ§Ø±Ú©":3419,"ĠØ³Ø¯":3420,"ĠÙħØ³Ø§Ø¦ÙĦ":3421,"Ø¨Ø·":3422,"ĠØ¹ÙĤØ¨":3423,"ĠØ³Ø±Ú©":3424,"Ø¦ÙĪÙĨ":3425,"ĠØ§ÙħØ±ÙĪØ²":3426,"Ø§ÙĦØ¹":3427,"Ø§Ø°":3428,"ĠÙħØŃØ§ÙģØ¸":3429,"ĠÙ¾ÛĮØ§Ø¯Ùĩ":3430,"ĠÙĨÙĪØ¨":3431,"Ø§ÙħÙ¾":3432,"ĠØ§ÛĮØ¯Ùĩ":3433,"ĠÚ©ÙħÛĮØªÙĩ":3434,"ĠØ¹Ø±ÙĪ":3435,"Ø¯Ø§Ø±ÙĨØ¯":3436,"ĠØ§ÙĪØ³Øª":3437,"ĠÚ©Ø³Ø§ÙĨÛĮ":3438,"ĠÙĩÙĪØ´":3439,"ĠØ¯Ø§Ø±ÙĪ":3440,"ĠØ®ÙĪØ¨":3441,"ĠÙ¾ÙĨØ§Ùĩ":3442,"ĠÚ©ÙĨÙĪÙĨÛĮ":3443,"ĠÙĤØµØ¯":3444,"ĠÙĩÙĪØ§ÛĮ":3445,"ĠÚ©Ø´ÛĮØ¯Ùĩ":3446,"Ø¨Ø±ÙĪ":3447,"ĠØ³ÙĨØ¯":3448,"ĠØ¨ÙĨØ¯Ø±":3449,"ĠØ¹Ø²":3450,"Ø§Ø¦ÙĪ":3451,"ĠØ¨ÙĩÙħÙĨ":3452,"Ø§Ø±Ùģ":3453,"ĠØ¢ÙĨØ¯":3454,"ĠÙĪØ§Ø³":3455,"ÙĢ":3456,"ĠØªØ§Ø¨Ø³ØªØ§ÙĨÛĮ":3457,"ĠØ´Ø¨Ùĩ":3458,"ĠØ¶Ø±Ø¨":3459,"Ú¯Ø±Ø§ÛĮÛĮ":3460,"Ø¨Ø§ÛĮ":3461,"ĠØ±ÙĪØ§ÛĮØª":3462,"ÙħØ§ÙĨØ¯Ùĩ":3463,"ĠÙħÛĮÙĨ":3464,"ĠÙħØ§Øª":3465,"ĠÚĺÙĨ":3466,"ÚĨÙĨØ¯":3467,"ĠÚ©Ø§ÙģÛĮ":3468,"im":3469,"ÙĪØ³Ùģ":3470,"ĠØ§ÙĨØªØ¸":3471,"ĠØ¨ÙĩØªØ±":3472,"Ø´ÙĨØ§ÙħÙĩ":3473,"ĠØ¨ÙĦÙĪÚĨØ³ØªØ§ÙĨ":3474,"ĠØ¹Ø¨Ø¯Ø§ÙĦÙĦÙĩ":3475,"ĠØ§ØµÙĪÙĦ":3476,"ĠØ¹ÙĪØ§ÙħÙĦ":3477,"Ø§Ø¯Ø§Ø±":3478,"ĠØµÙģØ±":3479,"Ø¯Ø§ÙĨØ¯":3480,"ĠÙĨØ§Øª":3481,"ĠÙĤØ±ÙħØ²":3482,"ĠØ´Ø§ÛĮ":3483,"ĠÙħØ®ØµÙĪØµ":3484,"ĠÙ¾Ø§ÙĨ":3485,"ĠØ¨Ø§ÛĮ":3486,"ÙĦÛĮÙ¾":3487,"ĠÛ±Û¸Û¹Û":3488,"ĠÙ¾ÛĮØ´ÛĮÙĨ":3489,"ĠØ³ÛĮÙĨÙħØ§ÛĮÛĮ":3490,"ĠØ§Ø³ÛĮØ¯":3491,"ĠØŃØ¯Ø§ÙĤÙĦ":3492,"ĠÙĩÙĨØ±ÙħÙĨØ¯":3493,"ĠØ§Ø¨Ø±Ø§ÙĩÛĮÙħ":3494,"ĠØ¢Ø¯":3495,"Û°Û±":3496,"ĠØ§ÛĮØ²":3497,"ĠØ¯Ø±Ú¯ÛĮØ±ÛĮ":3498,"ĠØ§ÙħØªÛĮØ§Ø²":3499,"ÙĪÚ©ÛĮ":3500,"ÙģØ±Ø¯":3501,"ĠÙħØ§Ø²ÙĨØ¯Ø±Ø§ÙĨ":3502,"Ú¯Ùĩ":3503,"Ú©ÙĪÙĦ":3504,"ĠØ¯ÛĮÙĨÛĮ":3505,"st":3506,"ĠØªØ²":3507,"ĠÙħØ¬Ø¨ÙĪØ±":3508,"ĠÙĨØ´Ø³Øª":3509,"ĠÙħØ¹ÙħÙĪÙĦ":3510,"Ø¯Ø§ÙĨÙĨØ¯":3511,"ĠØ¯ÛĮØ¯Ú¯Ø§Ùĩ":3512,"ĠÙħØªØºÛĮØ±":3513,"ĠÙħÙĩÙħÛĮ":3514,"ĠÙħØ³Ø¦ÙĪÙĦ":3515,"ĠÙĤØ§ÙĨÙĪÙĨÛĮ":3516,"em":3517,"ĠÙĤØ±Ø¢ÙĨ":3518,"Ø´Ú©ÙĦ":3519,"ĠØ§ÙĩØ§ÙĦÛĮ":3520,"ĠÙħØ±Øª":3521,"ĠØªÙĪØ¶ÛĮ":3522,"Ø³ÙĦÙĩ":3523,"ĠØ®ÙĦÛĮØ¬":3524,"ĠØ¬Ø¯ÙĪÙĦ":3525,"ĠÙģÙĨÛĮ":3526,"Ġ/":3527,"ÛĮÙħÙĨ":3528,"Ø§ÙħÙĪÙĨ":3529,"ĠÚ¯Ø±ÙģØªÙĨØ¯":3530,"ĠÙħØŃØ§Ø³":3531,"ĠØ§Ú¯Ø±ÚĨÙĩ":3532,"Ú©ÙĦÛĮ":3533,"ĠÚ©ÙĦÛĮØ³Ø§ÛĮ":3534,"ĠÙħÛĮÙĦÛĮØ§Ø±Ø¯":3535,"ĠÙĨÙĪØ±ÛĮ":3536,"Ø§Ø¯ÙĪ":3537,"ĠÙĤØ·Ø¹ÙĨØ§ÙħÙĩ":3538,"ĠØ§ÙħÙ¾Ø±Ø§ØªÙĪØ±":3539,"ĠØªØ§Ú©":3540,"ÙģÙĪØ±Ø¯":3541,"ÙĨÚ¯Ø§Ø±":3542,"ĠØ§Ø³Ø¨":3543,"ĠØ§ÙģØªØ§Ø¯":3544,"ĠØ¯Ø§ÙħÙĨÙĩ":3545,"ÙĨØ¬ÛĮ":3546,"Ø§ÙĨØ¯Ø±":3547,"ĠØ¯Ø§ÙĨØ³Øª":3548,"ĠØ®Ø§ÙĦ":3549,"ĠØµØ¯Ø§ÛĮ":3550,"ĠØŃÙģØ§Ø¸":3551,"Ø³ÙĪØ§Ø±":3552,"ÙĪÙĦÙģ":3553,"ĠÙĨØ§Ú¯":3554,"ĠØ±ØŃ":3555,"ĠØªØ¨ÙĦÛĮ":3556,"ĠØ¯ÙħØ§ÛĮ":3557,"um":3558,"ww":3559,"ĠÙħØ¯ÙĨÛĮ":3560,"ĠØ§ØŃØªÙħØ§ÙĦØ§":3561,"ĠØ§ÙĤÛĮØ§ÙĨ":3562,"ĠÛ³Û¶":3563,"ĠØ³ÙĦÛĮ":3564,"Ø¢ÙĩÙĨÚ¯":3565,"ĠØ³ÙĪØ¦Ø¯":3566,"ĠÙħÙĤØ±":3567,"ĠÙĩÙĪØ§Ù¾ÛĮÙħØ§":3568,"Ø§ÛĮÙĤ":3569,"ĠØ¨ÛĮÙħØ§Ø±":3570,"Ġb":3571,"ĠØªØ±Ø¨":3572,"th":3573,"ĠØºÙĦ":3574,"Ù¾Ø°ÛĮ":3575,"ĠØ§Ø¹ØªÙĤ":3576,"ĠÙħØŃÙĪØ·Ùĩ":3577,"ÙĨÙĪØ´":3578,"Ø¢ÙĦ":3579,"ĠÙģØ§Ø±Øº":3580,"ĠØ§ÛĮÙģØ§ÛĮ":3581,"ĠØ¢ÙħØ§Ø¯Ùĩ":3582,"ĠØ§Ø³Ú©Ø§Ø±":3583,"Ø²ÛĮÙĩ":3584,"ĠØ¨ÛĮØ´ØªØ±ÛĮÙĨ":3585,"ĠØ´ÙĦ":3586,"ĠØ¨Ø±Ø§Ø¯":3587,"ĠÙħØŃØ§Ø³Ø¨Ùĩ":3588,"ÙħØ§Ø±":3589,"Ú¯ÙģØª":3590,"Ġg":3591,"ĠØ³ÙĦØ³ÙĦÙĩ":3592,"ĠÙ¾Ø±ÙĪØ±Ø´":3593,"ĠÚ©ÙĪØ´":3594,"ĠÙģØ¶Ø§ÛĮÛĮ":3595,"ĠØªÙĨÚ¯":3596,"ĠØ¢ÙĩÙĨ":3597,"ĠÙħØ³ÛĮØŃ":3598,"ĠÛ¶Û°":3599,"ĠÙĨØªØ§ÛĮØ¬":3600,"ĠÛ±Û¹Û¹Û°":3601,"Ø¨ÙĪØ±Ú¯":3602,"ĠÙĤØ±Ø§Ø±Ø¯Ø§Ø¯":3603,"Û²Ûµ":3604,"ĠÛ²Û°Û±Û¸":3605,"ĠÙĦÙĪØ¦":3606,"Ø²ÛĮØ¯Ùĩ":3607,"Ø±Ø¶Ø§":3608,"Ø´ÙĪ":3609,"ÙħØ±Ø¯":3610,"ÙĪÛĮÚĨ":3611,"ÙģØ±ÙĪØ¯":3612,"ÙħØ³":3613,"Ø§ÙģØ¹":3614,"ĠÙĨÙĩØ§":3615,"ĠØ³Ø§ÙĨØªÛĮ":3616,"ec":3617,"ĠÙħÙĪØ§ÙģÙĤ":3618,"Ø³ØªÙĪÙĨ":3619,"ĠØ±Ø£ÛĮ":3620,"ĠØ¯ÙĪØ³ØªØ§ÙĨ":3621,"ĠÛĮÙĪÙĨØ§ÙĨ":3622,"ĠÚĨÛĮØ²":3623,"ĠØµÙĪØ±ØªÛĮ":3624,"ĠÙħØªÙĪØ³Ø·":3625,"Ù¾Ø§":3626,"ĠÚ¯Ø±Ø¯ÛĮØ¯Ùĩ":3627,"Ø§ÙĨØ¯Ùĩ":3628,"ĠÛ²Û°Û°Û³":3629,"ÙĪØ±Ùĩ":3630,"ÛĮÙģÙĩ":3631,"ĠÙĨÙĪØ§ØŃÛĮ":3632,"ÙħØ§Ùĩ":3633,"ĠÛ²Û°Û°Û²":3634,"ĠØªØ§Ø¨Ø³ØªØ§ÙĨ":3635,"ĠØ§Ø´Ø¹":3636,"ĠØ®Ø±ÛĮØ¯":3637,"ÛĮØ¯ÙĨØ¯":3638,"ĠÚ¯Ø±Ø¯Ø¯":3639,"ÙĪÙĦØª":3640,"ĠØªØ¬Ø§Ø±Øª":3641,"ĠÙħØ¯Ø±Ú©":3642,"Ø§Ø¹ÛĮÙĦ":3643,"ĠÙħØ³ÙĦÙħØ§ÙĨØ§ÙĨ":3644,"Ġn":3645,"ĠÙģØ¶Ø§":3646,"ĠØ¢Ù¾":3647,"ĠØ§ÙģØ±Ø§Ø¯ÛĮ":3648,"ĠØ¨ÙĤ":3649,"ĠÙģÛĮÙĨ":3650,"ĠØ¢Ùĩ":3651,"ĠØªÙĪØ¶ÛĮØŃ":3652,"ØŃØ³ÛĮÙĨ":3653,"ĠØ³Ø§ÛĮ":3654,"ĠÚĺØ§Ù¾ÙĨÛĮ":3655,"ĠÚ©ÙĪØ¯Ú©":3656,"Ġ3":3657,"ĠÙĨØµØ¨":3658,"ĠØ¢ÙħØ±ÛĮÚ©Ø§ÛĮ":3659,"ĠÙħØ´Ø±ÙĪ":3660,"ĠØ§Ø´Øª":3661,"ĠÙĨØ§Ø¯Ø±":3662,"Ġhttp":3663,"ĠÚ©ÙĨÛĮÙħ":3664,"ĠØ®Ø·ÛĮ":3665,"ĠØ¬Ø¯ÛĮØ¯ÛĮ":3666,"Ø¨Ø±Øª":3667,"ĠØ®Ø±Ùħ":3668,"ĠØ¹Øµ":3669,"ÙĨÚ©":3670,"Ø´ÙĨØ¨Ùĩ":3671,"ĠØ§Ø¨ÙĪØ§ÙĦ":3672,"ĠØªØ¨ÙĦÛĮØº":3673,"ĠØ³Ø¹ÛĮ":3674,"ĠØ´Ø§Ø±":3675,"Ø§ÙĪÛĮØ±":3676,"ĠØ¨Ø³":3677,"Ø²Ø¯Ø§ÛĮÛĮ":3678,"ĠÙĨÚ¯Ø§Ùĩ":3679,"ĠØ§Ø³Ú©Ø§Øª":3680,"ĠÙħØ§Ø±Øª":3681,"ĠÙħØ§Ø¯Ø±Ø´":3682,"ĠÙģØ±ÙħØ§ÙĨØ¯ÙĩÛĮ":3683,"ĠÙĨÙħØ§ÛĮØ¯":3684,"Û²Û´":3685,"ĠÙĪØ§Ø´":3686,"ĠÙħØ´ÙĩØ¯":3687,"ĠÚ©ÛĮÙģÛĮØª":3688,"ĠØ³ÙĪØ®Øª":3689,"Ġf":3690,"ÙĤØª":3691,"ĠÙĪØ¸ÛĮÙģÙĩ":3692,"ra":3693,"ĠØ²ÙħÛĮÙĨÛĮ":3694,"ĠØ§ØªØµ":3695,"Ø±Ø§Ùħ":3696,"ĠØ¯Ø§":3697,"ĠØ¯Ø¹ÙĪØª":3698,"ĠÙĨÚ©":3699,"ÙĤÛĮÙĤØª":3700,"ĠØ¨Ø§Ø²Ø±":3701,"ĠØ¹Ø§Ø´":3702,"ĠÙħÙĪØ´Ú©":3703,"Ø§Ø¯Øª":3704,"Ø¬ÙĪØ§ÙĨ":3705,"ĠÙĨØ§ØµØ±":3706,"ĠÙħØ±Ø§Ú©Ø²":3707,"ĠØ²ÛĮØ¨Ø§":3708,"ĠØ§ÙĦÙģ":3709,"ĠØ¨Øº":3710,"ĠØ¹ÛĮÙĨ":3711,"ĠØ§Ø³ØªÛĮ":3712,"ĠÙĩÙĪØ§Ú¯Ø±Ø¯":3713,"ĠØ³ÙĤÙĪØ·":3714,"ÛĮØ²Ùĩ":3715,"ĠØ±ÙĪØ³":3716,"ĠØ¶Ø±":3717,"ĠØ·Ø¨ÛĮØ¹Øª":3718,"ĠÙħØ§ÛĮÚ©ÙĦ":3719,"ĠÚĨÛĮÙĨÛĮ":3720,"Ø§Ø¨Ø±ÛĮ":3721,"Ø¬ÙĩÛĮØ²":3722,"Ø¨ÙĨØ¯":3723,"ĠÚ©Ø±ÙĪ":3724,"ÙĦÙĪØ¨":3725,"ÙģØ±ÙĪØ¯Ú¯Ø§Ùĩ":3726,"ov":3727,"ĠÛ±Û¹Û¹Û¹":3728,"Ø§ÙĪÛĮÙĩ":3729,"ĠÛ±Û³Û±Û":3730,"ĠØ´ÛĮØ¹Ùĩ":3731,"Ø¨ÙĩÙĩ":3732,"ĠØ¯ÛĮØ¯Ø§Ø±":3733,"Ø¯Ø³Øª":3734,"ĠØ±Ø§Ø¯ÛĮÙĪ":3735,"ĠÚ©ÙĨÙĨØ¯Ùĩ":3736,"Ú¯Ø§Ø±ÛĮ":3737,"ĠØ¬ÛĮÙħØ²":3738,"ĠÙħØŃÙĤ":3739,"ĠÙ¾Ø±ÙĪØªØ¦ÛĮÙĨ":3740,"Ø¨ÙĦÛĮ":3741,"ĠÙ¾Ø¯ÛĮØ¯Ùĩ":3742,"Û³Û°":3743,"Ø²ÙĨØ¯":3744,"ĠÚ©Ø§Ø´":3745,"ĠÙħØ³ØªÙĨØ¯":3746,"Ù¾ÙĪØ´":3747,"Ø¨ÙĨ":3748,"ĠÙħÙĪØ§Ø¬Ùĩ":3749,"ĠØ¬Ø§ÙħØ¹":3750,"ĠØ¨ÛĮÙĦ":3751,"ĠÚ¯ÛĮØ§ÙĩØ§ÙĨ":3752,"ĠØ³ÙĦØ·ÙĨØª":3753,"ĠÛ±Û¹Û¹Û¸":3754,"ĠÚ©ÙĪÙħÙĪÙĨÙĩ":3755,"ĠÙĪÛĮØ±Ø¬":3756,"ĠÙĦÙĪÙĦÙĩ":3757,"ĠÙħØŃØ¯ÙĪØ¯Ùĩ":3758,"ÚĨÙħ":3759,"ĠÚ©ÙĩÙĨ":3760,"ĠØ¢Ú¯":3761,"ph":3762,"ĠÙħØ¹Ø§ØµØ±":3763,"ĠÚ©Ø§Ø¨":3764,"Ø§Ø¨Ø±Øª":3765,"ĠÙģÙĦØ²":3766,"ĠØªØ¬ÙĩÛĮØ²":3767,"ĠØ¶ÙħÙĨ":3768,"ĠÛ²Û°Û°Û±":3769,"ant":3770,"ĠØ¬Ø²Ø¦ÛĮ":3771,"ĠØºØ°Ø§ÛĮÛĮ":3772,"ĠØ¨Ø±ÙĪØ²":3773,"ĠØ¯Ø§ÙĨØ³ØªÙĩ":3774,"ĠØ¶Ø¨Ø·":3775,"Ø³ÙĦØ·":3776,"ĠÚ©Ø±Ø¯Ø³ØªØ§ÙĨ":3777,"ĠØ¹Ú©":3778,"ĠÙģØ±Ø§ÙĪ":3779,"ĠØ¬ÙĨÚ¯ÛĮ":3780,"ØªØ§ÙĨ":3781,"ÙĪØŃ":3782,"ĠÙĨØ§":3783,"ĠÚ¯Ø°Ø´Øª":3784,"ĠØ§Ø¹ØªÙĤØ§Ø¯":3785,"ĠÙĩÙħÙĪØ§Ø±Ùĩ":3786,"ib":3787,"ĠÚĨÙĩÙĦ":3788,"Û³Ûµ":3789,"ĠÙĤØ·Ø±":3790,"ĠØ´Ø§":3791,"ĠØ®Ø§ÙĪØ±":3792,"ĠÚ¯ÛĮØ±Ø¯":3793,"Ø§Ø±Ú©Øª":3794,"ĠØ³ÙĪØ³ÛĮ":3795,"ĠØ´Ú©Ø§Ø±":3796,"ĠÙĩÛĮØ¯Ø±ÙĪ":3797,"ĠØ¨Ú¯ÛĮØ±Ø¯":3798,"ĠØ¨Ø§Ø²Ø³Ø§Ø²ÛĮ":3799,"ĠØ±ÙĪÙĨØ¯":3800,"Ø®ÛĮØ±":3801,"ĠØ³ÙĩØ§Ùħ":3802,"ĠØ±ÙĤØµ":3803,"Ø±ÙĪØ´":3804,"ĠØ¨Ø±Ú¯Ø²Ø§Ø±ÛĮ":3805,"ĠÙ¾ÛĮÙħØ§ÙĨ":3806,"ĠØ¨Ø±ÙħÛĮ":3807,"ĠÚĨÙĪØ¨":3808,"ĠØ¹ÙħØ¯":3809,"ĠØ±ÙģØªÙĨ":3810,"ĠÙħØªÙħ":3811,"ul":3812,"ĠÙħØºØ²":3813,"ĠØ¢ÙģØ±ÛĮÙĤØ§":3814,"ĠØ§Ø®ÙĦØ§ÙĤ":3815,"ĠØ¯ÙħÙĪÚ©Ø±Ø§Øª":3816,"ĠØ¹ÙĨØ§ØµØ±":3817,"ĠÙģÙĦØ²ÛĮ":3818,"ĠThe":3819,"ĠØªÙĪÙĨ":3820,"ØªÙĪÙĨÛĮ":3821,"ĠÙħØ´Ø§ÙĪØ±":3822,"ĠÙħØŃÚ©ÙĪÙħ":3823,"oc":3824,"ÙĨÙħØ§ÛĮØ¯":3825,"ĠÙģÙĦÙĪØ±":3826,"ĠÚ¯ÙĪÛĮØ´":3827,"ĠØ³Ø±ÙĪÛĮØ³":3828,"ØŃÛĮØŃ":3829,"ĠÙĨÙħØ§Ø¯":3830,"ĠÙ¾Ø±ÛĮ":3831,"ĠÛ±Û¸Û¶":3832,"Ø§ÙĤÛĮ":3833,"ĠØ¯Ø³ØªÚ¯ÛĮØ±":3834,"ĠØŃØ§ÙģØ¸Ùĩ":3835,"ĠØ¯ÙĨÛĮØ§ÛĮ":3836,"Ø²Ùħ":3837,"ĠÙĨÙĪØ´ØªÙĨ":3838,"ĠÙħØ§Ú©":3839,"ĠØ´ÙĩØ±ÙĩØ§":3840,"ĠØ¨Ø³Øª":3841,"Û³Û²":3842,"ĠØ¬Ø¨ÙĩÙĩ":3843,"ĠÙģØ±Ø§ÙĪØ§ÙĨÛĮ":3844,"ĠÛĮØ®":3845,"ĠØ´Ø´Ùħ":3846,"ĠÚ©Ø§Ø³Øª":3847,"ĠÙħÙĦÚ©":3848,"ĠØ¸Ø±ÙģÛĮØª":3849,"Û²Û²":3850,"ĠÙħØ¤Ø«Ø±":3851,"ĠØŃÙĤÛĮÙĤØª":3852,"Ù¾Ø§Ø±":3853,"ĠÙĨØ¸Ø§Ø±Øª":3854,"ation":3855,"ÙģØ§ÙĦØª":3856,"Ø²Ø§Ø¯":3857,"ĠØ³Ø±Ø·Ø§ÙĨ":3858,"Ø¨Ø§Ø²ÛĮ":3859,"ĠÙĪÛĮÚ©":3860,"ĠÚ¯Ø°Ø±Ø§ÙĨ":3861,"ĠâĢ":3862,"ĠÛ±Û¸Û·":3863,"ĠÙĨØ§Ø®":3864,"ĠØŃÙģØ§Ø¸Øª":3865,"ĠØªØ§Ùħ":3866,"ĠÙĤØ¨Ø±":3867,"ĠØ±ÙħØ²":3868,"ÙĩØ§Ø±":3869,"ĠØ§ÙĨØŃ":3870,"ĠØ§Ø³ÙħØ§Ø¹ÛĮÙĦ":3871,"ÙħØ§Ø±Ú©":3872,"ĠÛĮØ§ØªØ§":3873,"ĠØ±Ø§Ø³":3874,"ĠØ§Ø¸":3875,"ĠÚ©ÙĦØ§Ø³ÛĮÚ©":3876,"ĠØ®Ø´":3877,"ĠÙħÙĦØª":3878,"ĠÙĨØ§Ø´":3879,"ĠÂł":3880,"ĠÚ©ÙħÙĪÙĨÛĮ":3881,"Ú©ÛĮØ¯":3882,"ĠØ¯ÛĮÙĪÛĮØ¯":3883,"ĠWikipedia":3884,"ÙĦÛĮÙģ":3885,"Ø§Ø®ØªÛĮ":3886,"ĠØµØŃØ¨Øª":3887,"ĠÚ©Ø´ÙĪØ±ÙĩØ§":3888,"ĠÙĤØ¨ÙĦÛĮ":3889,"ØµÙģ":3890,"ĠØ³Ø§Ø±":3891,"ĠØ¬ÙĨØ³":3892,"ĠÚĨØ§Ùĩ":3893,"ers":3894,"ĠØ´ÙĩÛĮØ¯":3895,"ĠØµÙĦÛĮ":3896,"ĠÙĨØ¬Ø§Øª":3897,"ĠÙĨØ§ÙĨ":3898,"Ø±ÙģØªÙĩ":3899,"ĠÙħØ±Ø¨ÛĮ":3900,"ÙĪØ±Ú¯":3901,"ĠÙħØ¬Ø§Ø±Ø³ØªØ§ÙĨ":3902,"ĠØ¨Ø§Øª":3903,"ĠØ®Ø±ÛĮ":3904,"ÙħØ§ÙĩÛĮ":3905,"ĠÙħØ³Ú©ÙĨ":3906,"ĠÙĨÙĪÛĮØ³ÙĨØ¯Ú¯ÛĮ":3907,"ÙĨÙĪÛĮØ³Ø¯":3908,"ĠØ§Ø´ØªØ¨":3909,"ĠÙĨØ¯Ø§Ø±ÙĨØ¯":3910,"ĠÛĮÙĩÙĪØ¯ÛĮØ§ÙĨ":3911,"ĠÚ¯ÙĨØ¬":3912,"ĠØ³ÙĪØ²":3913,"Ø¨Ø§Ø±ÛĮ":3914,"ĠÙĦÙĪÚ©":3915,"ĠÛ²Û°Û°":3916,"ĠÙ¾ÛĮÚĨÛĮØ¯Ùĩ":3917,"ĠØ®Ø§Øª":3918,"ĠØ§Ø³ØªÙĪØ¯ÛĮ":3919,"ĠØªÚ©Ø±":3920,"ĠÙħØ¹Ø§Ø¯":3921,"ÙĪÙ¾Ø±":3922,"ÙĪØ§Ùħ":3923,"ĠÚ¯Ùħ":3924,"ĠØ§Ø®ØªØ±":3925,"ĠØ´Øº":3926,"ĠÛ´Ûµ":3927,"ĠÚ©Ø§Ø±ÙĦ":3928,"Ø¬Ø§ÛĮ":3929,"ĠØ³ÙĨØ¬":3930,"ĠÙħÙĨÙģÛĮ":3931,"ĠÙģØ±Ø³ØªØ§Ø¯":3932,"Ø±ÙĪÙĨØ¯":3933,"Ù¾ÛĮØ´":3934,"ĠØ¹Ø¶ÙĪÛĮØª":3935,"ĠØ±ÛĮÚĨ":3936,"ĠÙ¾Ø±ÙĨØ¯Ùĩ":3937,"ĠØ³ØªÙĪÙĨ":3938,"ĠØªÙĤÙĪÛĮÙħ":3939,"Ø³Ø§Ø²Ø¯":3940,"ÙĪØªÙĪ":3941,"ĠØ¯ÛĮÚ¯Ø±Ø§ÙĨ":3942,"ĠØ¬ÙĪØ§ÙĨØ§ÙĨ":3943,"Ø§Ù¾ÙĪØ±":3944,"ĠÚ©ÙħÙ¾Ø§ÙĨÛĮ":3945,"ÙĨÙĪØ¹ÛĮ":3946,"ĠÙħÙĨØ´":3947,"ĠØ§ÙĦØ¬Ø²":3948,"ĠÙģØ±Ø§ÙĪØ§ÙĨ":3949,"Ø´ÛĮØ¯":3950,"ĠÙħÚ©Ø§ÙĨÛĮ":3951,"Û²Û°Û±Û":3952,"ĠÙĤØ·Ø¨":3953,"ĠØªØµØ±Ùģ":3954,"ĠÛ±Û¹Û¸Û°":3955,"ĠØµØ§Ø¯Ø±":3956,"ÙħØ±ÛĮ":3957,"ĠÙĨØ§ÛĮ":3958,"ĠÙĩÛĮÙĦ":3959,"ĠØ®ÙĪØ§Ø¨":3960,"ĠÙħØ®Ø§ÙĦÙģØª":3961,"ĠØŃØ§Ø¬":3962,"ĠØ§Ø¹Ø¯Ø§Ùħ":3963,"Ø¹ÛĮÙģ":3964,"ĠØ¬Ø²ÙĪ":3965,"ĠØ¢ÙĤØ§ÛĮ":3966,"ĠØ¯Ø§ÙĨØ´Ø¬ÙĪÛĮØ§ÙĨ":3967,"ĠØ¢Ø°Ø±":3968,"ĠØ³ÙĦØ·ÙĨØªÛĮ":3969,"ÙĦØ±Ø²Ùĩ":3970,"ĠØ´Ø§ÛĮØ¯":3971,"ĠÛ³Û±":3972,"ĠÙĨÛĮØ´":3973,"ÙģØ±ÛĮÙĨ":3974,"ĠÙĩÙĨØ¯ÛĮ":3975,"Ø§ØŃØªÛĮ":3976,"ĠÙĪÛĮÚ©ÛĮ":3977,"ĠØªØ®Ø±ÛĮØ¨":3978,"ĠÚ¯Ø°Ø±":3979,"ount":3980,"Ø§ÙħÙĨ":3981,"ĠØ§Ø¯ÛĮ":3982,"ĠØ§ÙħÛĮØ¯":3983,"og":3984,"ĠØ¯Ø±ÙĪØ§Ø²Ùĩ":3985,"Ø¨ÙĪÙĦ":3986,"ĠØªÙħØ¯":3987,"Û±Û³":3988,"ĠØªØµØ§Ø¯":3989,"ĠØŃØ¬Ùħ":3990,"ĠØ®Ø·ÙĪØ·":3991,"ĠÚ©Ø§ÙħÙ¾ÛĮÙĪØªØ±":3992,"ĠØ¬ÙĦØ¯":3993,"ĠØ¯Ø±Ú©":3994,"ĠÙĨÙĪÛĮØ³ÙĨØ¯Ú¯Ø§ÙĨ":3995,"ĠÙħØªØ¹Ø¯Ø¯ÛĮ":3996,"ĠÙħØ¹Ø¯ÙĨÛĮ":3997,"ĠâĢ¦":3998,"ĠØ´ÙĩØ±ÙĪÙĨØ¯":3999,"ĠØ¨Ø®ØªÛĮ":4000,"Ø±Ø¶":4001,"Ø§Ø¨ÙĩØ§Ùħ":4002,"ĠØ§ÙħØ±ÙĪØ²ÛĮ":4003,"ĠÙħÛĮÚ©Ø±ÙĪ":4004,"ĠÙĩÙģØªÙħ":4005,"ÙĦØ§ÙĨ":4006,"ĠØ®ÙħÛĮÙĨÛĮ":4007,"ĠØ¨Ø±ÛĮ":4008,"ĠØ§ÙĩØ¯Ø§Ùģ":4009,"ĠØ¨Ø±Ø¯Ø§Ø´Øª":4010,"ĠÚ¯Ø§ÙĦ":4011,"ÙĪØ±Ø¯ÛĮ":4012,"ĠØ§ÛĮØ±Ø§ÙĨÛĮØ§ÙĨ":4013,"Û±Û¹":4014,"ĠØ³ÙĨÚ¯ÛĮÙĨ":4015,"ĠØ¨Ø§Ø²Ø¯Ø§Ø´Øª":4016,"ØªÙħÙĨØ¯":4017,"ĠÙħÙĨØµÙĪØ¨":4018,"ĠØ¯Ø¨ÛĮØ±Ø³ØªØ§ÙĨ":4019,"ĠÚ©ÙĪÙĦ":4020,"ÙħÙĪÙĦÛĮ":4021,"ĠÙħØ¹ÙĦ":4022,"Ø¨Ø±Ø§ÛĮ":4023,"ay":4024,"ĠÙħØªÙĪØ¬Ùĩ":4025,"ĠØ¹ÙĦÛĮØ§":4026,"ĠØ§ÙĤÛĮØ§ÙĨÙĪØ³":4027,"ÙĪØ±Ùģ":4028,"ĠØ®Ø±Ø¯Ø§Ø¯":4029,"ĠÙĩÙħØ²ÙħØ§ÙĨ":4030,"ĠÙħØ¹Ø§ÙĪÙĨ":4031,"ĠÙģÛĮØ²ÛĮÚ©ÛĮ":4032,"ĠÙĦØ°":4033,"ĠÚ©Ø§ÙĨØ§ÙĦ":4034,"ĠÙĤØ·Ø¹Ø§Øª":4035,"ĠÙĩÙĨØ±ÙĩØ§ÛĮ":4036,"ĠØ´ÛĮØ´Ùĩ":4037,"ĠØ§Ø³ØªØ®ÙĪØ§ÙĨ":4038,"ĠÛĮØ²Ø¯":4039,"Û°Û¸":4040,"Û²Û·":4041,"ĠÙĩØ±ÚĨÙĨØ¯":4042,"ĠÙĨÛĮØ³ØªÙĨØ¯":4043,"Û±Û¸":4044,"ĠØ´ÙĪØ±Ø´":4045,"Ú¯ÛĮÙĦ":4046,"Ø§ÙĨÛĮØ¯":4047,"ĠØ§ÛĮÙĨØªØ±ÙĨØª":4048,"ÙĦØ§ÙĨØ¯":4049,"ĠÙĤØ±Ø¨":4050,"ĠØ³ÙĦØ§ØŃ":4051,"ÙĨÙħØ§ÛĮ":4052,"ĠØ§Ø±Ø³Ø§ÙĦ":4053,"ĠØ«Ø±ÙĪ":4054,"ĠÛ³Û´":4055,"ĠÙħÛĮØ²Ø¨Ø§ÙĨ":4056,"ĠÙĩÙĪØ±":4057,"ÛĮÙĨÚ¯ØªÙĨ":4058,"ĠØ¨ÙĩØ§Ø±":4059,"Ø²Ø§ÛĮ":4060,"ĠÙģØ±ÙħØ§ÙĨØ±ÙĪ":4061,"ĠÙħØ´Ø§Ø±Ú©Øª":4062,"Ø¹ÙĦ":4063,"ĠÙ¾Ø±Ø§Ú©":4064,"ĠÙ¾ÛĮØ±Ø§ÙħÙĪÙĨ":4065,"ĠÙĦØ§":4066,"ĠØ¨ÙĨØ§Ùħ":4067,"ĠØ¨Ø§ÙĦØ§ÛĮÛĮ":4068,"ĠØ§ÙĦÙĦÙĩ":4069,"Û³Û·":4070,"ĠÚ©Ø¯Ø§Ùħ":4071,"ÙĦÛĮØ³":4072,"Û±Û±":4073,"ÙĦØ§Ùģ":4074,"ĠÙĦÙĤØ¨":4075,"Ġthe":4076,"ĠØªØ¬Ø²ÛĮÙĩ":4077,"ĠÚ¯ÛĮØª":4078,"ĠØŃØ¯ÛĮ":4079,"Ø¹ÙĩØ¯Ùĩ":4080,"ĠĠĊ":4081,"Ø§ÙĨØ´":4082,"ĠØ¹ÙħØ¯ØªØ§":4083,"Ø§ØªÛĮÚ©":4084,"Û³Û¶":4085,"Ø§ÛĮÙħ":4086,"ĠÙĤÙĩ":4087,"ak":4088,"ĠØ¢Ø´ÙĨØ§":4089,"Û²Û¶":4090,"ĠÙĨØ±Ø®":4091,"ĠØ§Ø·ÙĦØ§Ø¹Ø§ØªÛĮ":4092,"ĠØ²ÛĮØ¨Ø§ÛĮÛĮ":4093,"ĠÙģÙĦØ³Ø·":4094,"Ø§ÙĩØ±":4095,"ĠØŃÛĮØ§Øª":4096,"ĠØ¯Ø±Ø¯":4097,"ĠØ²ÙħØ³ØªØ§ÙĨ":4098,"Ø¹ÛĮØ¯":4099,"Û°Û³":4100,"ĠÙģØ±Ø²ÙĨØ¯Ø§ÙĨ":4101,"ĠØ§ÙĨÚ¯ÙĦÛĮØ³":4102,"ĠÙ¾Ø±Ø¯Ø§Ø®ØªÙĩ":4103,"ĠÙħØ¬Ø§Ø²":4104,"ĠØ¨ÙĦØº":4105,"ĠØ¢Ø³ÙģØ§ÙĦØª":4106,"Ø¨Ø³":4107,"Ø¯ÙĪÛĮÙĨ":4108,"Ø¬ÙĪÛĮ":4109,"ÙĨÚ¯Ø§Ø±ÛĮ":4110,"ĠØ¯ÙĪÛĮ":4111,"ĠÙ¾ØªØ±":4112,"ĠØ±Ø§Ø¨Ø±Øª":4113,"ĠÙ¾Ø¯":4114,"ĠÙĩÙħØ³Ø±Ø´":4115,"ĠÙĩÙħØ¯Ø§ÙĨ":4116,"ĠØ¬Ø²Ø§ÛĮØ±":4117,"Ø¶Ùĩ":4118,"ĠÛ³Û·":4119,"ĠØ¨ÙĪØ´":4120,"ĠØ¯Ø±Ø¨Ø§Ø±":4121,"ĠØ®ÙĦØ§Ùģ":4122,"ĠÚ©ÙħØ¯ÛĮ":4123,"ĠØªØ£Ú©ÛĮØ¯":4124,"ÙģØ±ÛĮ":4125,"Ø§ÙĦØªØŃ":4126,"ÙĤØ§Ø¨ÙĦ":4127,"ØµÙĪØ±Øª":4128,"ĠÚĨÛĮ":4129,"ĠÙħØ³Ø¦ÙĪÙĦÛĮØª":4130,"ĠØ±ÙĪÙħÛĮ":4131,"ĠÙħØ³Ø§ÙģØ±":4132,"Û³Û´":4133,"ĠØ§ØªÙĪÙħ":4134,"ĠØ¬ÙĪØ±Ø¬":4135,"ĠØ¨ÙħØ¨":4136,"ĠÙħÙħÙĨ":4137,"ĠØªØ¬ÙĩÛĮØ²Ø§Øª":4138,"Ø¬ÙĨ":4139,"ĠØ²Ø®":4140,"ĠÙħØ±Øº":4141,"ÙĤØ§Øª":4142,"ĠØ¢ÙĪØ§Ø²":4143,"ĠÙĥ":4144,"ĠØ±Ø§Ùħ":4145,"ĠÙħØ«Ø¨Øª":4146,"Ø¯Ø§ÙĨØ³Øª":4147,"ĠÙģÚ©Ø±":4148,"Ġa":4149,"ĠØªØ±Ú©ÛĮØ¨ÛĮ":4150,"ĠÙģÛĮÙĦÛĮÙ¾":4151,"ÙĪØ³ØªØ§ÙĨ":4152,"ĠØ§Ø´ØªØ¨Ø§Ùĩ":4153,"ĠØ¨Ø±ÙĨØ²":4154,"ĠØ¨ÛĮØ³ØªÙħ":4155,"ÙħØ¬ÙħÙĪ":4156,"ĠØªÙĦÙģÙĨ":4157,"ĠØ§ÙĦØŃ":4158,"ĠØ±Ø¨":4159,"ĠÙħØŃÙĪØ±":4160,"ĠÙħØ´ØªØ±ÛĮ":4161,"ĠØ³ÙģÙĦÛĮ":4162,"ĠØµØ¨":4163,"ĠÙ¾Ø±ÙĪÙĨØ¯Ùĩ":4164,"Û°Û¹":4165,"ĠÙ¾ÙĨØ¬Ø§Ùĩ":4166,"ĠÚ¯Ø±Ùĩ":4167,"Ø¨ÙĩØ´Øª":4168,"ĠØ³Ø§ÙĦÙĨ":4169,"Ø±Ø§Ø¨":4170,"ĠØ§ÙģØ³Ø§ÙĨÙĩ":4171,"ĠØŃØ§ÙĪÛĮ":4172,"Ø¬ÛĮØª":4173,"ĠÚĨÙĩØ§Ø±ÙħÛĮÙĨ":4174,"ÙĦØ§Ø³":4175,"ĠØ§Ú©Ø«":4176,"Ø®ÙĪØ§ÙĨØ¯Ùĩ":4177,"Ø¢ÛĮÙĨØ¯":4178,"ĠØ¨Ø±Ú¯Ø²ÛĮØ¯Ùĩ":4179,"Ø®ÙĪØ§ÙĩØ¯":4180,"ĠØ§ÙĨØªØ´Ø§Ø±Ø§Øª":4181,"ĠØ§Ø³ÙģÙĨØ¯":4182,"ÛĢ":4183,"Ø²Ø¨Ø§ÙĨ":4184,"Ú¯Ø°Ø§Ø±Ø¯":4185,"ĠØ§ØªØµØ§ÙĦ":4186,"ĠØ¹Ø¯Ùĩ":4187,"Û¸Ûµ":4188,"ĠØ§ÙĪØ¬":4189,"Û±Û±Û":4190,"ĠØ¯ÛĮÙĪØ§ÙĨ":4191,"ĠÙħÛĮØ±Ø§Ø«":4192,"ĠØ§Ø´ØºØ§ÙĦ":4193,"ĠÛ±Û³Û¹Û°":4194,"ĠÙģÛĮØ±":4195,"Ú¯Ø±Ø§":4196,"ÙĨÙģØ±":4197,"ĠÙħÙĤÛĮ":4198,"ĠØ±Ø¯ÛĮ":4199,"ĠØ¯ÙĩØ§ÙĨÙĩ":4200,"ĠÙģØ¹ÙĦÛĮ":4201,"ĠØ¬Ø§ÙĨØ´ÛĮÙĨ":4202,"ĠÙĪÛĮØ¯Ø¦":4203,"ĠØ¢ÙħØ¯ÙĨ":4204,"ie":4205,"ĠÙĪØ§ÛĮ":4206,"Ø¯Ø±Ø¶Ø§":4207,"ĠÛ²Û°Û±Û¹":4208,"ÙħØŃÙħØ¯":4209,"âĢį.":4210,"ĠØ³ÛĮØªÛĮ":4211,"ĠÚ©ØªØ§Ø¨ÛĮ":4212,"Ø³Ø§ÙĨØ³":4213,"Ø¢ÙħÛĮØ²":4214,"ÙĤÛĮØ¨":4215,"ĠÙĦØ´Ú©Ø±":4216,"Ø¬Ø§Ø±":4217,"ÛĮØ±ÙĪ":4218,"ÚĺØ§ÙĨØª":4219,"ĠÙħÛĮÙĪÙĩ":4220,"Ø§ØŃØ¨Ùĩ":4221,"ĠØ®ÙĪØ§ÙĩÙĨØ¯":4222,"ÙĪÛĮØ§":4223,"Ø§Ø·ÛĮØ³ÛĮ":4224,"ĠÙħØ«ÙĦØ§":4225,"ĠØ´ÙĩØ±ÛĮÙĪØ±":4226,"ØŃØ§Øª":4227,"ĠÛ±Û¹Û¹Û²":4228,"Ø±Ø§Ø¬":4229,"ĠØ³ÙĪØ§Ø±":4230,"ĠØ¨ØªÙĪØ§ÙĨØ¯":4231,"ĠØºØ°Ø§":4232,"ĠÙģØ¯Ø±Ø§Ø³ÛĮÙĪÙĨ":4233,"ĠØ¯ÙĪÙĨ":4234,"Ø§ÙĨØ¯ÙĨ":4235,"ĠÚ©ÙĪØ¯Ú©ÛĮ":4236,"ĠØ§Ø¨ØªØ¯Ø§ÛĮÛĮ":4237,"ĠÙĨØ¯Ø§Ø´ØªÙĩ":4238,"ĠÙĤÙĦØ¨":4239,"ÚĨØ´Ùħ":4240,"ĠÛ±Û¹Û·Û°":4241,"ĠØ§Ø±Ø²ÛĮ":4242,"ÙĩÙĪØ±":4243,"ĠØµØ¯Ø±":4244,"ØªÛĮÙĨ":4245,"ĠÙĩÙĪØ§Ù¾ÛĮÙħØ§ÛĮÛĮ":4246,"ĠØ±Ø§Ø¬":4247,"ĠØµÙģÙĪÛĮ":4248,"ĠØ¹Ùģ":4249,"ĠØ¯Ø³ØªØ±Ø³":4250,"ĠØ±Ú©ÙĪØ±Ø¯":4251,"ĠØ¨Ø±ÙĤØ±Ø§Ø±":4252,"ĠØ§ÙĦÙĤ":4253,"ĠÙĨÚĺØ§Ø¯":4254,"ĠØ¹ÙĨØµØ±":4255,"ĠÙħØ§ÛĮØ¹":4256,"ĠÙĤØ§Ø±Ùĩ":4257,"ĠØ§ÙĨØ¯ÛĮØ´Ùĩ":4258,"ĠØ³Ø§ÙĨØª":4259,"ĠÙ¾Ø±Ø³Øª":4260,"ĠÚ©ÙĦÙħØ¨":4261,"ĠÙħÙĨØ§Ø³":4262,"ĠØ§ÙħÙĨÛĮØªÛĮ":4263,"ĠÙħÙĤØ§ÙħØ§Øª":4264,"Ø§Ø¯Ø«Ùĩ":4265,"ĠØ§Ø³ØªØ±Ø§Øª":4266,"ĠÛ±Û¸Û¸Û":4267,"Ġ201":4268,"ĠØ¢ÛĮÛĮÙĨ":4269,"ĠÙĩÙĨØ±ÙħÙĨØ¯Ø§ÙĨ":4270,"ĠÛ±Û¹Û¹Û¶":4271,"ĠØ§ÙĨØªÙĤØ§Ø¯":4272,"ĠØªÚ©ÙĨÛĮÚ©":4273,"ĠÙĤØ²ÙĪÛĮÙĨ":4274,"ĠØ¯ÙĪØ±Ø¨ÛĮÙĨ":4275,"Ú©ÙĨÙĨØ¯Ú¯Ø§ÙĨ":4276,"ĠØ§ØŃØ¯":4277,"ict":4278,"ĠÙĤÙĦÙħØ±ÙĪ":4279,"Ø´ÙĨØ§Ø³Ø§ÙĨ":4280,"ĠØµÙĨØ¯":4281,"ĠÛ±Û¹Û¶Û°":4282,"ĠÙ¾ÛĮÙĪØ³ØªÙĩ":4283,"Ø²Ø§Ùħ":4284,"Û´Û°":4285,"ĠØ³Ø§ØŃÙĦ":4286,"ĠØ¯Ø±ÙħØ§ÙĨÛĮ":4287,"ÙģØ³":4288,"ĠØªÙĪØ§ÙģÙĤ":4289,"ĠÙħØ¹ÙħÙĪÙĦÛĮ":4290,"ĠÙĪØ§Ø´ÛĮÙĨÚ¯ØªÙĨ":4291,"ĠØ¯Ø§ÙĪ":4292,"ĠØ§Ø¨ØªØ¯Ø§ÛĮ":4293,"ĠÙħØµØ§ØŃØ¨Ùĩ":4294,"Ú©ÙĨÛĮÙħ":4295,"ĠÙĩØ§Ø´":4296,"ÙĪØ¦ÙĦ":4297,"ĠÙħÚ©Ø²ÛĮÚ©":4298,"ĠØ¬Ø±Ø§ØŃÛĮ":4299,"Ø¨ÛĮØª":4300,"ĠÙĦØ±Ø³ØªØ§ÙĨ":4301,"ĠØ¢Ú©Ø§Ø¯":4302,"Ø§ØŃÙħØ¯":4303,"ĠØªÙĪÙĦØ¯":4304,"Ġ=":4305,"ounty":4306,"Ø§ÙĨØ¯Ø§Ø²":4307,"ĠØ§ÙĦÚ©Ø³":4308,"ĠÙĦØ§ÛĮ":4309,"ĠØ¨Ø§Ø²ÛĮÚ©":4310,"ĠØ¨Ø²Ø±Ú¯ØªØ±":4311,"ĠØªÙĩØ¯ÛĮØ¯":4312,"Ú©Ø´Ø¯":4313,"Ø³ÙĨÚ¯":4314,"ĠÛ¸Û°":4315,"ĠÙħØªÙĩ":4316,"ĠÚ©ÙĨØ³Ø±":4317,"ĠÚ©Ø§Ø¨ÙĦ":4318,"ĠØ¨ÙĨØ§ÛĮ":4319,"ce":4320,"Ú©ÛĮÙĦ":4321,"ĠÛ¹Û°":4322,"ĠØªÙħØ§Ø³":4323,"Ú©ÛĮÙĨ":4324,"ĠÙĪØ§ÙĦÛĮØ¨Ø§ÙĦ":4325,"ÙħØ¬ÙħÙĪØ¹Ùĩ":4326,"ĠÚ©Ø§Ø³":4327,"ĠÚ¯Ø§Ùħ":4328,"ĠØ±Ø§ÙĩÛĮ":4329,"ĠÚ©Ø§Ø±Ø¨Ø±Ø§ÙĨ":4330,"Û¸Û°":4331,"ÙĨØ±Ø§ÙĨÛĮ":4332,"ĠÙĤØ³Ùħ":4333,"ĠØ¯Ø§ÙĨÙĩ":4334,"ĠØ¨Ø§ÙĦØº":4335,"ĠØ³ÛĮÙĨÙħØ§ÛĮ":4336,"ĠÚ¯Ø±Ø§ÛĮØ´":4337,"Û¹Ûµ":4338,"ÙĪÙĦÛĮÚ©":4339,"ĠÛ±Û¹Û¹Û·":4340,"ĠÙħØ³ÙĦØŃ":4341,"ĠÙĩÙħØ§Ùĩ":4342,"Ø¬ÙĨØ³":4343,"ĠØ«Ø§ÙĨÛĮÙĩ":4344,"Ø±ÙĤ":4345,"ĠÛ·Û°":4346,"ĠØ§Ø³ØªØ®Ø±":4347,"ĠØ¢ÙĪØ±Ø¯ÙĨ":4348,"ĠÛĮØ§ÙģØªÙĨ":4349,"ĠÙĨÙħØ§ÛĮØ´Ú¯Ø§Ùĩ":4350,"ĠØŃØ§Ø¯Ø«Ùĩ":4351,"ÛĮØ¯Ø§ÙĨ":4352,"ÛĮØ¨ÙĩØ´Øª":4353,"Ġ19":4354,"ĠØ²Ø¯ÙĨ":4355,"ĠÙħÙĤÛĮØ§Ø³":4356,"ĠÙħØºÙĪÙĦ":4357,"ĠØªÙĨØ¯":4358,"ĠØ¨ÙĦÚĺÛĮÚ©":4359,"ĠÚ©ÙĦÛĮØ³Ø§":4360,"ĠØªÙģØ³ÛĮØ±":4361,"ĠØ¢Ø±ÚĺØ§ÙĨØª":4362,"ĠÙħÙĪÙĦÛĮ":4363,"Ø¸Ùħ":4364,"ĠÙħØ°ÙĩØ¨":4365,"ĠØ·Ø±Ø§ØŃ":4366,"ĠÚ¯ÙĪÚ¯":4367,"ØºØ°":4368,"ĠØ¬Ø¯ÛĮ":4369,"ĠØ³Ø®ÙĨØ±Ø§ÙĨÛĮ":4370,"ĠÙĤÙĪÙħ":4371,"ĠÙĨØ³Ø¨ØªØ§":4372,"ĠÚ©ÛĮÙĦÙĪÚ¯Ø±":4373,"ĠØ§ØŃÙħØ¯ÛĮ":4374,"ĠÚ©ÙĨÚ¯Ø±Ùĩ":4375,"Ø§Ø±ÙĨ":4376,"ØµØ§Ø±":4377,"ĠÙĦÛĮØ³Øª":4378,"ĠÚ©Ø±Ø¨ÙĨ":4379,"ĠCounty":4380,"ÙĪÙĨÛĮÚ©":4381,"ĠØ§ÙĦØ¹":4382,"ĠØ¢Øª":4383,"ĠÙ¾Ø§Ø±Ø³ÛĮ":4384,"ØºØ§Ùħ":4385,"ĠØ³Ú©ÙĪÙĨØªÚ¯Ø§Ùĩ":4386,"ĠÙħØ±Ø¯Ø§Ø¯":4387,"ĠÚĨØ§ÙĦ":4388,"Ú¯Ø±ÙĪ":4389,"ĠØ³Ø±Ù¾Ø±":4390,"ĠÛ±Û¹Û¹Û±":4391,"ĠÚ©ÙĦÛĮÙĩ":4392,"ter":4393,"Ø§ÛĮÙģÙĩ":4394,"ĠØ®Ø±ÙĪØ¬ÛĮ":4395,"ĠØ³ÙĪØ³ÛĮØ§ÙĦÛĮ":4396,"ĠØªØ¶":4397,"Ø§ØµØ±Ùĩ":4398,"Ø§ÙĦØªÛĮ":4399,"ĠÙĪÙģ":4400,"ĠØ¯Ø±Ø³":4401,"istr":4402,"ĠØ±Ø¶ÙĪÛĮ":4403,"ĠØ¨Ø±Ø¹ÙĩØ¯Ùĩ":4404,"ĠØ¯ÛĮÙ¾ÙĦ":4405,"ĠÙĨÛĮØ§":4406,"ØªØ§Úĺ":4407,"Ø·Ø¹":4408,"ĠÛĮØ§Ø¨Ø¯":4409,"ĠÙĨØ§Ø²":4410,"ØºÙħ":4411,"ĠØ§ÙĦØ¯ÛĮÙĨ":4412,"ĠÙĨØ±ÙĪ":4413,"ĠØ¨ÚĨÙĩ":4414,"ĠØ¨ÛĮØ¯":4415,"ØªØ²":4416,"Ø®ÙĪØ§Ø±":4417,"ĠÚ©ÙĪØ¨":4418,"ĠØ®Ø³Ø±ÙĪ":4419,"ap":4420,"ĠÙĤØ¨ÙĪÙĦ":4421,"ĠØ±ÙĪØºÙĨ":4422,"ĠÚ©ÙĨØª":4423,"ĠÙ¾Ø±ØªØ§Ø¨":4424,"ĠÚ©Ø§ÙħÙ¾":4425,"ĠØ¨ÙĨÚ¯":4426,"ĠØ§Ø¹Ø¯Ø§Ø¯":4427,"Ø§ÙĦØ§":4428,"ĠØ§ØŃØ¯Ø§Ø«":4429,"ÛĮÚ©ÙĪ":4430,"ĠØ§Ø¯Ø¹Ø§":4431,"Ø²Ø§ÙĨ":4432,"ab":4433,"ĠÙħØ·Ø§Ø¨ÙĤ":4434,"ĠØ´ÛĮØ±ÛĮÙĨ":4435,"ÙĩØ§ÙĨ":4436,"Û¸Û¶":4437,"ÙĨØ§Ú©":4438,"ĠØ§Ø«Ø¨Ø§Øª":4439,"ĠÙħØ¬Ø¯Ø¯":4440,"ĠØ¯ÛĮØ¬ÛĮØª":4441,"Ø¨Ø±ÙĨØ¯":4442,"ĠÙģØ±ÛĮØ¯":4443,"ĠÙħØ®ÙģÛĮ":4444,"ity":4445,"ĠØ§Ø´Ø¹Ø§Ø±":4446,"ĠØºÛĮØ±Ùĩ":4447,"ĠÙ¾Ø±ÚĨÙħ":4448,"ĠÙĤØ±Ùĩ":4449,"Û¹Û²":4450,"Ø·ÙģÛĮ":4451,"Ø±ÙĪÙħ":4452,"ĠØªÙħØ±Ú©Ø²":4453,"ĠØªÙĤÙĪÛĮØª":4454,"Ø®ØµØµ":4455,"ÙĪØ±Ø¯ÛĮÙĨ":4456,"Ø®ØªÛĮ":4457,"ĠÙĩÙħØ³":4458,"ĠØŃÛĮÙĪØ§ÙĨØ§Øª":4459,"ĠÙģØ§Ø²":4460,"ĠØ³Ø§ÙĦØ§ÙĨÙĩ":4461,"ĠØ±ÛĮÚĨØ§Ø±Ø¯":4462,"ĠØŃØ³Ø§Ø³":4463,"ĠØ´Ø§ÙĩØ¯":4464,"ĠÙĢ":4465,"ĠØ§ÛĮÙĪØ§ÙĨ":4466,"ØªØ§ÛĮ":4467,"ĠÙħØ£ÙħÙĪØ±ÛĮØª":4468,"ĠØ§Ø±Ø¯ÛĮØ¨ÙĩØ´Øª":4469,"Ø§Ø´ÛĮÙĩ":4470,"ĠØ¹Ø§Ùħ":4471,"ĠØ²Ø§ÙĪÛĮÙĩ":4472,"ĠÙĨØ®ÙĪ":4473,"Ø§Ú©Ø«Ø±":4474,"Û¹Û¶":4475,"ĠÛ±Û¹Û¹Û´":4476,"ĠØ§Ø¨ÛĮ":4477,"ĠØ§Ø¸ÙĩØ§Ø±":4478,"ĠØ§Ø±ØªØ¨Ø§Ø·Ø§Øª":4479,"ĠØ¹Ø§Ø´ÙĤ":4480,"ĠØ¯ÙĪØ§Ø²Ø¯Ùĩ":4481,"ĠÙħØ³ØªÙĤØ±":4482,"ĠØªÙĪØ¬ÙĩÛĮ":4483,"Ø±ÙĨÚ¯":4484,"ĠØ¨ÙĤÛĮÙĩ":4485,"ĠÙħØ¶":4486,"ĠÙ¾ÙĨÙĩ":4487,"ĠØªÚ©Ø±Ø§Ø±":4488,"ĠÙĩØ±Ú¯Ø²":4489,"ĠÙĨØ´Ø±ÛĮÙĩ":4490,"ĠÙħØªÙģ":4491,"Ø®ÙĪØ±Ø¯":4492,"ĠØŃÙĪÙħÙĩ":4493,"ĠØ³Ø¹ÙĪØ¯ÛĮ":4494,"ĠØ¸Ø§ÙĩØ±ÛĮ":4495,"ĠØ´ÙĨØ§Ø³Ùĩ":4496,"ĠØªÙħØ§Ø´":4497,"ĠØ«ÙħØ±":4498,"ĠØ¨Ø±ÙĨ":4499,"ĠØ¨Ø·ÙĪØ±":4500,"ÙĪÙĨØ²":4501,"ĠØ´Ø§ÙĨ":4502,"Ø±ÛĮØŃ":4503,"ĠÙħØ±Ø§Ø¬":4504,"ĠØ¯ÙħØ§":4505,"ĠØ¨ØºØ¯Ø§Ø¯":4506,"ĠØ§ÙĨØ¯Ø±":4507,"ĠØ³Ø§Ø®ØªÙĨ":4508,"Ø§ÙĪØªÛĮ":4509,"ĠÙģØ¯Ø±Ø§ÙĦ":4510,"Ø³Ø§Ø®Øª":4511,"ĠØ§ÙĤØ§ÙħØª":4512,"Û´Ûµ":4513,"ĠÙ¾Ø§Øª":4514,"ĠØ§ÙģØªØª":4515,"ĠØªØµØ§ÙĪÛĮØ±":4516,"ĠØ´Ø§ÙĩØ²Ø§Ø¯Ùĩ":4517,"ĠØ·ÙĦØ§ÛĮÛĮ":4518,"ĠØªÚ©ÙĨÙĪÙĦÙĪÚĺÛĮ":4519,"Û¹Û·":4520,"Û¶Û°":4521,"Ø§ÙĦØªØŃØµÛĮÙĦ":4522,"ĠÚ©ÛĮÙĦÙĪÚ¯Ø±Ùħ":4523,"ĠÙĨÙĤØ§Ø´":4524,"ĠÙ¾ÛĮØªØ±":4525,"ĠÙĪÛĮÙĨØ¯":4526,"ĠØ§ÙĦØ¬Ø²Ø§ÛĮØ±":4527,"Ġin":4528,"ĠØªØ®Ùħ":4529,"Ġand":4530,"Ø¹ÙĤ":4531,"ĠÙ¾Ø§Ø±ÙĦ":4532,"ĠÙĩØ´ØªÙħ":4533,"ĠÙĨØ´Ø±":4534,"ĠØ§Ø¹ØªÙħ":4535,"ĠØ¢ÛĮØ¯":4536,"ĠØ´Ø§Ø®Øµ":4537,"ĠØªØ®ØµØµÛĮ":4538,"ĠØ§Ø³Ú©ÙĨØ¯":4539,"ĠÛ±Û¹Û¹Ûµ":4540,"Û¸Û·":4541,"ĠØ¯ÙĦØ§ÛĮÙĦ":4542,"Ù¾ÙĨ":4543,"ĠØ§Ø³ØªØ¹":4544,"ĠØ´Ùģ":4545,"ĠÙĦØ§Ú©":4546,"ĠÙħØŃØ§ØµØ±Ùĩ":4547,"ĠÙ¾Ø°ÛĮØ±ÙģØªÙĩ":4548,"ĠØŃØ±Ú©":4549,"ĠÙħØ±Ø§ØŃÙĦ":4550,"ĠÚ©Ø§":4551,"ĠÙĨÙĪØ¬ÙĪØ§ÙĨ":4552,"ĠØ³ÛĮÚ¯ÙĨ":4553,"ĠÙĩØ²Ø§Ø±Ùĩ":4554,"ĠØ´ÙħØ³ÛĮ":4555,"ØŃØ§ÙĦ":4556,"ĠØ¯Ø±Ø§Ø²":4557,"ĠØ¨Ø®ØªÛĮØ§Ø±ÛĮ":4558,"Ø§ÛĮÙģ":4559,"ĠØ¢Ø´Ú©Ø§Ø±":4560,"Ø§ÙĤØ§Øª":4561,"Ø§Ú©Ø§":4562,"ĠØ¨ÙĨØ¯ÛĮ":4563,"ĠØ³ÙĪØ¦ÛĮØ³":4564,"ĠÙħØ§ÙĦÛĮØ§Øª":4565,"ÙĪÙĪØ§":4566,"ĠÚ¯ÙĨØ¯":4567,"ĠÙħØªØ®ØµØµ":4568,"Ġ,":4569,"ĠØ¬ÙĦØ¨":4570,"ĠØ·Ø§ÛĮÙģÙĩ":4571,"ĠÙħÚ©ØªØ¨":4572,"ĠØ³ÛĮÙĨÙĩ":4573,"Û´Û·":4574,"ĠØ¢ÙĩÙĨÚ¯Ø³Ø§Ø²":4575,"ĠÙ¾Ø±Ø³":4576,"ĠØ¹ÙħÛĮ":4577,"Û¹Û´":4578,"ÙĦØ§ÛĮÙĨ":4579,"ĠØ±Ø§Ø¯":4580,"ĠØ§Ø³ØªÙĤ":4581,"ĠÙħØ¨ØªÙĨÛĮ":4582,"ĠØ¯Ø±Ú¯ÛĮØ±":4583,"ĠØ¯ÙĨØ¨Ø§ÙĦÙĩ":4584,"ĠØ¯Ø±Ø®Ø´":4585,"Ø¢ÙĩÙĨ":4586,"ĠØ³Ø¹ÛĮØ¯":4587,"ÙģØ±Ø§ÙĨØ³":4588,"ĠØ¯Ø§Ø¦":4589,"ĠØ²ÙĨÛĮ":4590,"ĠØ±Úĺ":4591,"ĠØ®Ø²":4592,"ĠØ¨ÙĩØ¯Ø§Ø´Øª":4593,"ÙĦØª":4594,"ĠÙĨÙĤØ¯":4595,"ĠØ®Ø§ÙĦÛĮ":4596,"ÙĨÚĺØ§Ø¯":4597,"ĠØ³Ø§Ø³Ø§ÙĨÛĮ":4598,"Ùĥ":4599,"ĠØ¢Ø³ÙħØ§ÙĨ":4600,"ĠØ®ÙĪØ§ÙĨØ¯":4601,"ÙĪÙĤÛĮ":4602,"ĠØ§Ø³ÙĨØ§Ø¯":4603,"ĠÙħÙĤØ¯Ùħ":4604,"ĠØ§ÙĨØªÙĩØ§ÛĮ":4605,"ĠØ®Ø§Ø±Ø¬Ùĩ":4606,"Ø¹ÙĩØ¯":4607,"Ø§ÙĪØª":4608,"ĠØ¹ØµØ¨ÛĮ":4609,"ĠØ¨ÙĦØºØ§Ø±Ø³ØªØ§ÙĨ":4610,"ĠÚ©ØªÛĮ":4611,"ĠØ§Ø¯Ø§Ø±ÛĮ":4612,"ĠØ§ØªÙĩ":4613,"ĠØªØ¯ÙĪÛĮÙĨ":4614,"ĠØ±ÙĪÛĮØ¯Ø§Ø¯":4615,"ÙĪÙ¾ÛĮ":4616,"ĠØ°Ø±Ø§Øª":4617,"Ø±ÛĮØ¬":4618,"Ø§ÛĮØ§ÛĮ":4619,"Ù¾Øª":4620,"av":4621,"ĠØ§Ø´ØªØ±":4622,"Â«":4623,"ÙĪØ²ÛĮØ±":4624,"ĠØ¹ÙĤÛĮ":4625,"ĠØ¯ÙĨØ¯Ø§ÙĨ":4626,"ĠØ¢Ø¨Ø§ÙĨ":4627,"Ø±ÛĮØ§":4628,"ĠÛµÛ°Û°":4629,"ĠÛ±Û¸Ûµ":4630,"ĠØ³ÙĨØ§ØªÙĪØ±":4631,"ĠØ¬Ø²Ø¡":4632,"ĠØ§Ø±Ø²ÛĮØ§Ø¨ÛĮ":4633,"ĠØ³Ú¯":4634,"ĠØ¹Ø§Ø¯ÛĮ":4635,"ĠÙħØªØ¹Ø¯Ø¯":4636,"Ġcon":4637,"ĠØ¯Ø§ÙĨØ´ÙħÙĨØ¯Ø§ÙĨ":4638,"ĠÛ±Û¹Û¹Û³":4639,"ĠÙĩØ§ÙĦ":4640,"ÙĨØ¯ÙĩØ§ÛĮ":4641,"ĠÙĪØ³Øª":4642,"ĠØ®Ø§ÙĨÙħ":4643,"wikipedia":4644,"ÙĪÚ©Ø§":4645,"ĠÙħØ±Ø¬":4646,"ĠÙħØºÙĨ":4647,"ĠØ³ÙĨÚ¯ÛĮ":4648,"ĠØŃØ§Ø´ÛĮÙĩ":4649,"ØºØ°ÛĮÙĩ":4650,"ĠØ¨Ø´":4651,"ĠÙ¾Ø§ÛĮØ§ÙĨÛĮ":4652,"ÙĪØ§ÛĮÛĮ":4653,"ree":4654,"ĠØ¨Ø±ÛĮØªØ§ÙĨÛĮØ§ÛĮÛĮ":4655,"ĠÚ¯ÙĪØ´Ùĩ":4656,"ÙĪÙģÛĮ":4657,"ĠÙĩÙĪØ§Ù¾ÛĮÙħØ§ÛĮ":4658,"ĠÙĦØ¨ÙĨØ§ÙĨ":4659,"ĠØ¨ÙĪÙĦ":4660,"ĠEn":4661,"ĠØŃÙĪØ§ÙĦÛĮ":4662,"istrict":4663,"Ù¾Ø§ÛĮ":4664,"Ú¯ÙĪØ±":4665,"ĠØ§Ø¯ÙĪØ§Ø±Ø¯":4666,"Û¸Û´":4667,"ĠØ¢Ø±ÚĺØ§ÙĨØªÛĮÙĨ":4668,"ĠÙģØ§ÛĮÙĦ":4669,"ĠØ¨Øª":4670,"ĠØ®Ø§ÙĨÚ¯ÛĮ":4671,"ĠÚ¯ÙĪØ´Øª":4672,"Ú©Ø³ØªØ±":4673,"ĠØ¢ÙħÙĪ":4674,"ĠØ¯Ø§ÙĦ":4675,"ĠÙģØ±Ø§ÙĨÚ©":4676,"ĠÚ©Ø§Ø±Øª":4677,"ĠÙĤÙĩÙĪÙĩ":4678,"cl":4679,"ĠØŃÙħÙĦØ§Øª":4680,"ĠÙĨÙĪÚ©":4681,"ĠØ³ÛĮØ²":4682,"ÛĮÙĨØª":4683,"ĠØ¢ÙĨØ¬":4684,"Ø§ÙĩÛĮØ±":4685,"ĠØ¨Ø±Ø§Ø¯Ø±Ø´":4686,"ĠÙĪÙĤÙĪØ¹":4687,"ĠØ¯Ø§ÙĨÙħØ§Ø±Ú©":4688,"ĠÙħØŃÙħØ¯Ø±Ø¶Ø§":4689,"Û¸Û²":4690,"ĠØ§ÙģØªØ®Ø§Ø±":4691,"ĠÙħØ¨ÙĦ":4692,"ian":4693,"ĠÚ¯ÛĮØ§ÙĩÛĮ":4694,"Ø§Ø²Ø¯ÙĩÙħ":4695,"ĠÙĨÚ©Ø±Ø¯":4696,"ĠÙħÛĮØ§ÙĨÚ¯ÛĮÙĨ":4697,"Ø±Ø§ÙĨÛĮ":4698,"ĠØªØ±ÙĪØ±ÛĮ":4699,"ĠØ¬ÙĪØ§ÛĮØ²":4700,"ĠÙĦØ³":4701,"ĠØ³Ø§Ø³Ø§ÙĨÛĮØ§ÙĨ":4702,"ĠØ¯Ú¯Ø±":4703,"Ø§Ú©ÙĪ":4704,"ĠØ®Ø§Ø·":4705,"ĠÙħÚ¯":4706,"ĠÙ¾ÙĨØ¬ÙħÛĮÙĨ":4707,"ĠÙ¾Ø°ÛĮØ±Ø´":4708,"ĠØ§ÙĨØªØ¸Ø§Ø±":4709,"Ø§Ø³ØªÛĮÚ©":4710,"ĠÚĨØ±Ø®":4711,"Ġ4":4712,"Ø§ÙĨØ²Ø¯Ùĩ":4713,"ĠØ¯Ø´ÙħÙĨ":4714,"ĠØ§ØŃØªØ±":4715,"ĠØ¸ÙĩÙĪØ±":4716,"Û¹Û°":4717,"eb":4718,"ĠØ¨Ø§Ø²ÛĮÚ©ÙĨØ§ÙĨ":4719,"ÙĪØ²Ùģ":4720,"ĠÚ©ÙĦÛĮØ¯":4721,"ĠÙ¾Ø§Ø¨":4722,"ĠØ¯Ø§Ø±Ø§ÛĮÛĮ":4723,"ÙĪÙĤÙģ":4724,"ĠØªØ±Ø¨ÛĮØª":4725,"ĠØ¨Ø¹Ø¯Ø§":4726,"ĠÙħØ¸":4727,"ĠÙĨÙĪØ³":4728,"ĠÙģØ±ÙĪØ±Ø¯ÛĮÙĨ":4729,"ØŃØ³ÙĨ":4730,"ĠØ³Ù¾Ø±Ø¯Ùĩ":4731,"ĠØ´ÙĨØ§Ø®Øª":4732,"ĠØªÙħØ¯ÙĨ":4733,"ĠØ±Ø³Øª":4734,"ÙĦØ¹":4735,"iki":4736,"ĠÙĨØ¸Ø±ÛĮ":4737,"ĠØ¯Ø§ÙĨØ´Ú¯Ø§ÙĩÛĮ":4738,"ĠØ§ÙĤØ¯Ø§ÙħØ§Øª":4739,"ĠØ§Ø¹ØªÙħØ§Ø¯":4740,"Ø·Ø¨ÛĮ":4741,"ĠØ³ÛĮÚ¯ÙĨØ§ÙĦ":4742,"ĠØ±ÛĮØ³":4743,"ĠÚ¯Ø±Ø¯Ø´Ú¯Ø±ÛĮ":4744,"ĠØ§Ø®ØªÙĦØ§ÙĦ":4745,"ĠØŃØ§Ø¬ÛĮ":4746,"ĠØ³Ø§Ø²Ùĩ":4747,"ĠØ¬ÙĨØ¨Ùĩ":4748,"ÙĪØ¯Ø±":4749,"ĠØ§Ú©Ø³ÛĮ":4750,"ÙĪØ²ÙĨ":4751,"ĠØ§ÙħÚ©Ø§ÙĨØ§Øª":4752,"ĠØ¨Ø§Ú©ØªØ±ÛĮ":4753,"ĠØ¨ÛĮÙħØ§Ø±Ø§ÙĨ":4754,"ÛĮØ±ÛĮ":4755,"ĠØ¹Ø´":4756,"ĠÙ¾Ø±Ø¯Ùĩ":4757,"ĠÛ¶Ûµ":4758,"ĠØ³Ú©Ùĩ":4759,"Ø³Ø§Ùħ":4760,"Ø¯ÙĩÙĨØ¯Ùĩ":4761,"ĠÙĨÚ¯Ø±":4762,"ĠØ¹Ø±ØµÙĩ":4763,"ĠØ¶Ø¹ÛĮÙģ":4764,"ĠØ§ÙĨØ¯Ú©ÛĮ":4765,"Ø·ÙĪØ±ÛĮ":4766,"ĠÙĩØ±ÙħØ²":4767,"ĠÙĨÙħÙĪØ¯ÙĨØ¯":4768,"all":4769,"ÙĪØ¯ÙĨ":4770,"ĠØ¢ÙĨØªÛĮ":4771,"ĠØ®ÙĪØ§ÙĨØ¯ÙĨ":4772,"ĠØ¨Ø±Ø³":4773,"ĠØ§Ø¦":4774,"Ø±Ø¯ÛĮ":4775,"ĠØ¯ÙĩÙħ":4776,"ĠÚ©ÙĦÙħØ¨ÛĮØ§":4777,"ÙĪÙĪØ¯":4778,"ĠØ´ØºÙĦ":4779,"ĠØ¨Ø§Ø²ÙħÛĮ":4780,"ĠØ³Ø®ØªÛĮ":4781,"ĠØ¢Ø±Ø§ÙħÚ¯Ø§Ùĩ":4782,"ĠØ§ØªÙĩØ§Ùħ":4783,"Ø¯ÙĪØ¯":4784,"ĠÙĩÙģØªØ§Ø¯":4785,"ĠÛ±Û¹Û¸Û¹":4786,"ĠØ¹ÙĩØ¯":4787,"ist":4788,"Ġw":4789,"ĠÙĨÙĩÙħ":4790,"ÙĨÙħØ§ÛĮÛĮ":4791,"ĠØ±ÚĺÛĮÙħ":4792,"Û·Ûµ":4793,"ÙĪØ§Ø±ÛĮ":4794,"Ø§Ø¨ÙĪØ±":4795,"ĠÙħØ®Ø§Ø·":4796,"ĠØ²ÙĨØ¯Ø§ÙĨÛĮ":4797,"ĠØºØ§Ø±":4798,"ĠÛ±Û³ÛµÛ·":4799,"ĠØªØºØ°ÛĮÙĩ":4800,"ĠÙĨØ§ÙĪ":4801,"ĠØŃØ±Ø§Ø±Øª":4802,"ĠØ¢Ø¨Ø§Ø¯ÛĮ":4803,"Ø§ÙĦØ¯ÙĪÙĦÙĩ":4804,"ĠÙĤØ³ÙħØªÛĮ":4805,"ĠÙħØŃØ¯ÙĪØ¯ÛĮØª":4806,"ĠØ®ÙĪØ§ÙĩØ±Ø®ÙĪØ§ÙĨØ¯Ùĩ":4807,"ĠØ¢ÛĮØª":4808,"ĠØ§Ø±ØªÙĤ":4809,"ĠØªÙĪØ¯Ùĩ":4810,"ĠØŃØ¯Ø§Ú©Ø«Ø±":4811,"ĠÚ©ÙĪÚ©":4812,"Ġde":4813,"ĠÙģØ±Ø³ØªØ§Ø¯Ùĩ":4814,"ĠØ§ÛĮÙĨØ¬Ø§":4815,"Ø®ÙĪØ±":4816,"ĠØ¨Ø§Ùħ":4817,"ĠØºÙĦØ§Ùħ":4818,"ĠØ¨Ø®Ø§Ø±":4819,"ĠÚ©Ø§Ø±ÙĪÙĦÛĮÙĨ":4820,"ĠY":4821,"]]":4822,"Ø¨Ø§Øº":4823,"ĠØºÛĮ":4824,"ĠÛµÛµ":4825,"ĠÙħØ°Ø§Ú©":4826,"ĠØ·ÙĪØ±ÛĮ":4827,"ĠÂłĠÂł":4828,"ĠØ´ÛĮØ¹ÛĮ":4829,"ĠÙħØªÙĪÙĤÙģ":4830,"ĠÙħÙĩÙħØªØ±ÛĮÙĨ":4831,"ÙħØªÙĪÙĦØ¯":4832,"ĠÙħÙĦØ§ÙĤØ§Øª":4833,"ĠØ¨Ø§Ø®":4834,"ĠÙħØ§ÛĮÙĦ":4835,"ĠÙħØŃØªÙĪ":4836,"ĠØ®ÙĪØ¯Ú©Ø´ÛĮ":4837,"Ø§ÛĮØ§Øª":4838,"ĠØ¨Ø§Ø²ÙĨØ´":4839,"ĠØ§ÙħØ§ÙħØ²Ø§Ø¯Ùĩ":4840,"ĠØ¨Ø§Ø¨ÙĦ":4841,"ĠØ®Ø´ÙĪÙĨØª":4842,"ĠÙħÙĤØ·Ø¹":4843,"old":4844,"Ø§Ø¨ÙĦÙĩ":4845,"ĠÙ¾ÛĮØ´Ø±ÙģØªÙĩ":4846,"Ø²Ø±Ú¯":4847,"ØªÙĤØ¯Ø§ÙĨ":4848,"ĠØ§ÙĪÙĤØ§Øª":4849,"ĠØ²ÙĪØ¯":4850,"Ø²ÙĨÛĮ":4851,"ÙĤÙģ":4852,"ĠØ¨Ø±Ø³Ø¯":4853,"ĠSt":4854,"ĠØ®Ø±ÙĪØ¬":4855,"ĠAl":4856,"ĠÙ¾ÛĮØ§ÙħØ¨Ø±":4857,"ors":4858,"Ġ13":4859,"ĠØ¨ÙĩÛĮÙĨÙĩ":4860,"ĠÙħØ¯Ø§Ø±Ø³":4861,"ĠØ§Ø¨Ø¹":4862,"ĠØ¬ÙĪØ§ÙĨÛĮ":4863,"ĠØŃØ§Ú©":4864,"ĠØµØ¨ØŃ":4865,"ĠØ§Ú©Ø¨Ø±":4866,"ĠØ¢Ø³ÛĮØ§ÛĮ":4867,"ĠØ®ÙĪØ§Øµ":4868,"ĠØ§ÙĨÙģ":4869,"ĠØµØŃÛĮØŃ":4870,"ĠÙĪØ§ÙĨ":4871,"ĠØ§ÛĮØ±ÙĦÙĨØ¯":4872,"ĠØ®ÙĦÛĮÙģÙĩ":4873,"ĠÙĤÙĦÙĩ":4874,"Ø§Ø¯ÛĮØ±":4875,"Ø³ÙĪÙģ":4876,"ØªØ±Ø§ÙĨÙĩ":4877,"ĠØ²ÙĦØ²":4878,"ĠÙ¾ÙĪØ±Øª":4879,"ob":4880,"ÙħÛĮØ§ÙĨ":4881,"ĠØ¯ÛĮØ¯ÙĨ":4882,"ĠÙĩÙĪÛĮØª":4883,"ĠØ¨Ø±Ø¯ÙĨ":4884,"ĠØ¨ÙĪØ±Ø³":4885,"ĠØ´ØµØª":4886,"ÛĮØªØ§":4887,"ĠØ³Ø±Ø¨Ø§Ø²Ø§ÙĨ":4888,"ĠØµÙĦÛĮØ¨ÛĮ":4889,"ĠÙĪØ§Ø³Ø·Ùĩ":4890,"ĠØ¢Ø²ÙħÙĪÙĨ":4891,"ĠÛ³Û°Û°":4892,"ĠÙħØ¨ØªÙĦØ§":4893,"Ø·ÛĮÙĦ":4894,"ÙĪÙĦÛĮØ³":4895,"ĠØªÚ©ÙħÛĮÙĦ":4896,"ĠÛ±Û¹Û¸Û¸":4897,"ĠÚ©Ø§ÙĦØ¬":4898,"ĠÙĪÛĮØ±ÙĪØ³":4899,"ĠØªØµÙĪØ±":4900,"Ø±Ø³ÛĮØ¯":4901,"ÙħÙĤ":4902,"ĠÚ¯Ø±ÛĮÙĨ":4903,"Ø·Ø±Ùģ":4904,"ĠÚ©Ø§Ø±Ø¢":4905,"ĠØ¨Ø±Ú¯Ø´Øª":4906,"ĠØ§Ø±Ø¯ÙĪ":4907,"Ø¹Ø§ÙħÙĦ":4908,"ĠØ³ÛĮØ§Ø±Ùĩ":4909,"ĠÙģÙĪØ±":4910,"ĠÙ¾Ø§ÛĮØ¯Ø§Ø±":4911,"ĠØ¬Ø¹ÙģØ±":4912,"ĠÚ©ÙĪÙĩØ³ØªØ§ÙĨÛĮ":4913,"ĠÚ©ÙĪÚĨÚ©ÛĮ":4914,"Ø³ÙħÙĩ":4915,"ĠØ±ÙĪØ²ÙĩØ§ÛĮ":4916,"ĠÙĨÙħØ§ÛĮØ´ÙĨØ§ÙħÙĩ":4917,"ĠØ²ÙĦØ²ÙĦÙĩ":4918,"Ø®ÙĪØ§ÙĨØ¯":4919,"ĠØ¹Ø±Ùģ":4920,"ÙģØ´":4921,"ÙĨÙĪØ´Øª":4922,"ĠÙĩØ®":4923,"Ø§Ø³ØªÙĩ":4924,"est":4925,"Û¶Ûµ":4926,"ĠÚ©Ø§Øº":4927,"ĠØ¯Ø±Ø®ØªØ§ÙĨ":4928,"ĠØ·ÛĮÙģ":4929,"ÛĮØ§Ø±":4930,"ĠÙĨÙĪØ§Ø²ÙĨØ¯Ùĩ":4931,"ÚĨØ´ÙħÙĩ":4932,"ĠÚ©ÙħÛĮØ³ÛĮÙĪÙĨ":4933,"ĠÙĨÛĮÙĪ":4934,"ĠØªØ£ÙĦÛĮÙģ":4935,"ĠØ¢Ú©Ø§Ø¯ÙħÛĮ":4936,"Ø±ÙĪÙĨ":4937,"ĠØ¯Ø²":4938,"ĠÚ¯Ø±ÚĨÙĩ":4939,"ĠØ¹ÙħÙĪÙħØ§":4940,"ĠØ¬ÙħØ¹ÛĮ":4941,"ĠØ¨Ø±ÙĦÛĮÙĨ":4942,"ĠÙĪØ³Ø§ÛĮÙĦ":4943,"ĠÚ©ÙĪØªØ§ÙĩÛĮ":4944,"ĠØ¨ÛĮÚ©":4945,"ĠÙ¾Ø³Ø±Ø´":4946,"Ø³ÙĪÙĦ":4947,"ĠØ§ÙĦÙĩØ§Ùħ":4948,"ĠØ®Ø§ÙĨÙĪØ§Ø¯Ú¯ÛĮ":4949,"ĠØªØ¦ÙĪØ±ÛĮ":4950,"ĠÙģØ±Ø§Ùħ":4951,"ĠX":4952,"ÙĤÛĮÙĤÛĮ":4953,"ĠÙħÙĤØ§ÙĦØ§Øª":4954,"ĠÚ©Ø§Ø±ÙĪØ§ÙĨ":4955,"ĠÙħØ§Ø±ØªÛĮÙĨ":4956,"Ú©ÙĪØ³":4957,"ĠÙħÙĨØªÙĤØ¯Ø§ÙĨ":4958,"ÙĨØ±Ø§ÙĦ":4959,"Ø§Ú¯ÙĪ":4960,"ĠÙ¾Ø°ÛĮØ±ÙģØª":4961,"cy":4962,"ĠÚ©ØªÛĮØ¨Ùĩ":4963,"ÙĪÙħÙĨ":4964,"ĠÙĪÛĮØ¯Ø¦ÙĪÛĮÛĮ":4965,"ĠÙħÙĪÙĦÚ©ÙĪÙĦ":4966,"ĠÙĨÙģØªÛĮ":4967,"ĠÙħØ¹ØªØ¨Ø±":4968,"Û·Û°":4969,"ĠØ¢ÛĮØ§":4970,"Ø§ÙħÛĮØ§ÙĨ":4971,"ĠÙģÙĪÙĦØ§Ø¯":4972,"Ġ+":4973,"Ø·ÙĪØ¨":4974,"ĠØ¶Ø±Ø¨Ùĩ":4975,"ĠÚ¯ÙĨØ¨Ø¯":4976,"ĠØ±ÙĩØ§":4977,"ang":4978,"ĠÛ³Û±Û":4979,"ĠÙħØ¬Ø¯Ø¯Ø§":4980,"ĠÚ©Ø³":4981,"ĠØŃÙħØ§Ùħ":4982,"ĠØ´Ø±ÛĮ":4983,"ĠÙħØªØ´Ú©ÙĦ":4984,"ĠØ§Ø·ÙĦØ§ÙĤ":4985,"ĠØ¨Ø§Ø²Ø¯ÛĮØ¯":4986,"Û²Û±":4987,"ĠÚ©ÙħÙĪÙĨÛĮØ³Øª":4988,"Ø§ÛĮØ§":4989,"Ø¨Ø±Ùĩ":4990,"Ø§ÙħÙĨØ´ÛĮ":4991,"ĠÚ©Ø§Ø²":4992,"ĠÙĤØ¨ÛĮÙĦÙĩ":4993,"ĠØ¨Ø§Ø²ÛĮÚ¯Ø±ÛĮ":4994,"ĠÙĤØ§Ø¶ÛĮ":4995,"ĠÙĪÙĦØ²":4996,"ĠØ¨ÛĮØ²":4997,"ĠØªØŃØ±ÛĮÚ©":4998,"ĠÙħÙĤØ§Ø¨ÙĦÙĩ":4999,"ĠØ¨ÙĪØ¯Ø¬Ùĩ":5000,"Ø§ÙĩÛĮÙħ":5001,"ÙĪÛĮÙĤ":5002,"ĠØ§Ø¨Ø¯":5003,"ĠØ¬ÙĦØ³Ùĩ":5004,"Ù¾ÙĪÙĦ":5005,"Ø´Ø§Ø¯":5006,"ÙĪØ±ÙĨ":5007,"ĠØµØ§Ø¯ÙĤ":5008,"ĠØ³Ø§ÙĦÙĩØ§ÛĮ":5009,"ÙĪÚ©ÙĪ":5010,"ĠØ§ÛĮÚ©Ø³":5011,"ĠØ³ÙĦÛĮÙħØ§ÙĨ":5012,"ÙģÛĮÙĦØ¯":5013,"ĠÙħØŃØ§Ø³Ø¨":5014,"ĠÙĨÛĮØ±ÙĪÚ¯Ø§Ùĩ":5015,"ĠØ¯Ø§ÛĮØ±Ùĩ":5016,"ĠØ¹ÙĤÛĮØ¯Ùĩ":5017,"ØµÛĮÙĩ":5018,"ĠÙĪØ¬Ùĩ":5019,"ÙĪØ¦ÛĮ":5020,"ĠØŃÛĮÙĨ":5021,"ĠÙĨØ§Ø²ÛĮ":5022,"ĠØ¢ÙģØª":5023,"ĠØ¯ÙĤØª":5024,"ĠØ®ÙĪØ¯Ø±ÙĪÙĩØ§ÛĮ":5025,"ÙĤØ¯Ø±":5026,"ĠÙĨØ§ÙħÚ¯Ø°Ø§Ø±ÛĮ":5027,"Ø§Ø·Ø¹":5028,"ĠÙĩØ®Ø§ÙħÙĨØ´ÛĮ":5029,"ĠÙħÙħØª":5030,"ÙĪØ¦Ùĩ":5031,"ĠØ§ÛĮÙħÙĨÛĮ":5032,"ĠÚ¯ÛĮØ±ÙĨØ¯Ùĩ":5033,"Ø¯Ø§Ø´":5034,"ĠÙĩØ§ÙĨ":5035,"ĠÙ¾Ø§Ø´":5036,"ĠÚ©Ø§Ø±Ú¯Ø±Ø§ÙĨ":5037,"ĠÙħØºÙĨØ§Ø·ÛĮØ³ÛĮ":5038,"ĠØ§ÛĮÙģØ§":5039,"ĠØ°ÙĩÙĨ":5040,"ĠØ¬ÙģØª":5041,"ĠÙģÙĦÚ©ÛĮ":5042,"ĠÙħØ¬Ø³ÙħÙĩ":5043,"ĠØ§ÙģØªØªØ§ØŃ":5044,"Ø´Ú¯Ø§Ùĩ":5045,"ĠÙĨØ§Ú©":5046,"ĠÙħØ¨ÙĨÛĮ":5047,"ĠÙĪÛĮÙĨØ¯ÙĪØ²":5048,"ĠØ¢Ø³ÛĮØ§ÛĮÛĮ":5049,"ĠÙħÙĦÚ©Ùĩ":5050,"Ø·ÙĨ":5051,"ĠÙ¾ÚĺÙĪÙĩØ´ÛĮ":5052,"ÙĨÛĮØ³":5053,"ĠØ´Ø¬":5054,"ÙĨÛĮÙĩ":5055,"ĠØªÙĤØ§Ø¶":5056,"ĠØŃÛĮØ¯":5057,"Ø§ÙĩØª":5058,"ĠÙħØµÙĨÙĪØ¹ÛĮ":5059,"ĠÚ©Ø§Ø±Ø¨Ø±Ø¯ÛĮ":5060,"ĠØªÙħØ§ÛĮÙĦ":5061,"Ø¯Ø§Ø¯ÙĨØ¯":5062,"ĠØ³Ø¤":5063,"ĠØ§ØªÙħØ§Ùħ":5064,"ĠØ³Ø§ÙĦÛĮ":5065,"ĠØ¨ÛĮÚ¯":5066,"ÙĪØ±ÛĮØ§ÙĨ":5067,"ĠÙħØ¬ÙħØ¹":5068,"ĠÙĩØªÙĦ":5069,"ĠØªÙĪØµÛĮÙĩ":5070,"ĠÙ¾ÛĮØ¯":5071,"ĠÙģØ§Ø·":5072,"ĠÙĪØ§Ú©":5073,"ĠØ³Ø§Ú©ÙĨØ§ÙĨ":5074,"ĠÙ¾Ø§Ø¦":5075,"ĠÛ·Ûµ":5076,"Ø¯Ø§ÙĨÛĮ":5077,"ĠØ±ÙĪØ¨Ø±ÙĪ":5078,"ĠØ¨Ø±Ø®ÙĦØ§Ùģ":5079,"ĠØ§ÙĦÙĩÛĮ":5080,"ĠØ§Ø¨Ø¹Ø§Ø¯":5081,"ĠÛ±Û¸Û´":5082,"ĠÛĮÚ©Ø³Ø§ÙĨ":5083,"Ø§ØªÙĦ":5084,"ort":5085,"ĠÙĨØŃÙĪÙĩ":5086,"ĠÙĪØ±Ø²Ø´Ú©Ø§Ø±":5087,"Ù¾Ø°ÛĮØ±ÛĮ":5088,"ĠÙĨÚ©ØªÙĩ":5089,"ÙĩØ²":5090,"ÙĪÙĨØ²ÛĮ":5091,"ĠÙĨÙĪØ²Ø¯ÙĩÙħ":5092,"ÚĺØ§ÙĨØ³":5093,"Ġ5":5094,"Ù¾Ø§ÛĮÙĩ":5095,"Ø³Ø±Ø§ÛĮ":5096,"ĠØ¯Ø±Ø¢ÙĪØ±Ø¯":5097,"ĠØ²ÛĮÙĨ":5098,"ĠÙħØ³Ú©ÙĪ":5099,"ĠÚ©ÙĨÙĪÙĨ":5100,"ĠÙ¾Ø±Ø¯Ø§Ø²Ø´":5101,"ĠØ±Ø´Øª":5102,"ĠÙħÙĪÙĨØª":5103,"Û´Û´":5104,"ĠÙħØµØ¯":5105,"ĠÚ©Ø§Ø±ÙĨØ§ÙħÙĩ":5106,"ĠÙħØ§ÙĨØ¹":5107,"ĠÙĩØ±ÛĮ":5108,"ĠØªØ®ÙħÛĮÙĨ":5109,"ĠØ¯Ø§ÙĪØ±":5110,"Ø±Ø§Ø±":5111,"ĠØ±ÙĩØ¨Ø±Ø§ÙĨ":5112,"ĠÙħØªÙĩÙħ":5113,"ĠØ§ÙĦÚ©ØªØ±ÙĪÙĨÛĮÚ©ÛĮ":5114,"ĠØ®Ø¯Ø§ÙĪÙĨØ¯":5115,"ĠØ³Ø·ÙĪØŃ":5116,"ĠÙĨÙĪØ¯":5117,"ĠÙħÙĤØ§Ø¯ÛĮØ±":5118,"ĠØ±ÙĨØ¬":5119,"ĠÙħØ±Ø¯ÛĮ":5120,"ÙħÛĮØ§ÙĨÙĩ":5121,"ĠÙħØ±Ø¯ÙħØ§ÙĨ":5122,"ĠØ¨Ø±ÙĪÙĨ":5123,"Ø³Ø±Ø§":5124,"Ġ200":5125,"ĠÙĦÛĮÚ©":5126,"ĠØ¨ØŃØ±Ø§ÙĨ":5127,"ÚĨÙĪØ¨":5128,"Ø¯Øª":5129,"ĠÙħØ±ÙĪØ±":5130,"ĠØ¢Ø¯Ùħ":5131,"ĠÙĪØ§ÙĤØ¹ÛĮØª":5132,"ĠÙĨÙģÙĪØ³":5133,"Ø§Ø±ÙĪ":5134,"ĠØ³Ø§ÙĦÙħ":5135,"ĠØ¹ÙħÛĮÙĤ":5136,"ĠÙħØ§Ùħ":5137,"Ø§ÙĦÛĮØ²":5138,"Ø¬Ø³ØªØ§ÙĨ":5139,"ĠØ¬ÙĪØ´":5140,"ĠØ³ÙĦØ§ÙħØª":5141,"Ú¯Ø±Ø§Ø¯":5142,"ĠÙģØ±ØµØª":5143,"ĠØ±ÛĮØ§Ø¶ÛĮØ§Øª":5144,"ĠØ§Ø¹ØªØ¨Ø§Ø±":5145,"ÛĮÙħØ§":5146,"ĠØªØ±Ø§ÙĨ":5147,"ĠØ®ÙĪØ§Ø±":5148,"ĠØ®Ø¨Ø±ÛĮ":5149,"ĠÙħØ±Ø§ÙĤ":5150,"Ú©Ø³ÙĪÙĨ":5151,"Ø®ÙĦ":5152,"ĠØ¬Ø§Ø¨":5153,"ĠØ²Ø§Ø¯":5154,"ĠÙĨÚ¯Ø§Ø±Ø´":5155,"ĠÙģÛĮÙĨØ§ÙĦ":5156,"sh":5157,"ĠØ¹Ø¨Ø§Ø³ÛĮ":5158,"ĠØ¯Ø§ÙĨØ´ÙħÙĨØ¯":5159,"ard":5160,"ĠØŃÙĤÙĪÙĤÛĮ":5161,"ĠÙĨÙĪÛĮÙĨ":5162,"ĠCh":5163,"ÙĪØ³ÛĮÙĦÙĩ":5164,"ĠØ¢ÙģØ±ÛĮÙĤØ§ÛĮ":5165,"ĠÚ©ÙĦØ§Ùĩ":5166,"ĠØ¢Ú¯Ø§ÙĩÛĮ":5167,"ĠØ¯ÙĪØ¯ÙħØ§ÙĨ":5168,"ĠÙħÙģÛĮØ¯":5169,"ĠÙĨÛĮÙĦ":5170,"ĠÙħØ±Ø¯ÙħÛĮ":5171,"ĠÙħØ§ÙĩÙĪØ§Ø±Ùĩ":5172,"ĠÚ©ÙĨÙģØ±Ø§ÙĨØ³":5173,"ĠÙ¾ÛĮØ±ÙĪØ²":5174,"ĠØ§ÙĨÙĤÙĦØ§Ø¨ÛĮ":5175,"ĠÙħØ¹Ø±Ø¶":5176,"ĠØ¯Ø§Ø±Ø§":5177,"ĠØ§Ø¯ØºØ§Ùħ":5178,"ĠÙĪØ§Ú¯Ø°Ø§Ø±":5179,"ĠÙĤØµ":5180,"ÙĨÛĮÚ©":5181,"ĠØ§Ø±ØªØ¨Ø§Ø·ÛĮ":5182,"ĠÙĪÛĮÚ©ØªÙĪØ±":5183,"ĠØ·Ø§ÙĦ":5184,"Ø³ØªØ§":5185,"Ú©ÛĮÙĪ":5186,"ĠÚ©ÙĨØ³Ø±Øª":5187,"ew":5188,"ĠØ¨ÙĪÚ©":5189,"ĠØ¨Ø§Ø³":5190,"ÙĪØ¯Ø§":5191,"ĠÛ±Û¹Û¸Û¶":5192,"ĠØ¬ÙħØ¹Ùĩ":5193,"Û²Û³":5194,"ĠØ¨Ø§Ø±ÙĩØ§":5195,"ĠØ§Ø±Ú©Ø³ØªØ±":5196,"ĠÙģØ³":5197,"ÛĮÙĦÛĮ":5198,"ĠØªØµØ§Ø¯ÙģÛĮ":5199,"ĠØ¢ÙĪ":5200,"ĠØ§ÙħØª":5201,"ĠØ¨Ø±ÙĪØ¯":5202,"ĠØ¬Ø±Ø¬":5203,".\"":5204,"ĠÚ©ÙĪØ§ÙĨ":5205,"ĠÚ©ÙĪÚĨÚ©ØªØ±":5206,"ĠØ®Ø±ÛĮØ¯Ø§Ø±ÛĮ":5207,"ĠØ¹ÙħÙĤ":5208,"ĠØ³ÙĤÙģ":5209,"ĠØ§Ø³ØªØ®":5210,"Ø§ØªÙĩ":5211,"Ø§ÛĮØ²ÛĮ":5212,"ĠÛĮÙĪØ³Ùģ":5213,"ĠØ¯ÛĮÙĦ":5214,"Ø§Ø³Ú©Ø§":5215,"Ø§ÙĨØ²Ø¯ÙĩÙħ":5216,"Ø²ÛĮÙħ":5217,"Ø³ÛĮØ§":5218,"ĠØ§ÙģØ²ÙĪØ¯Ùĩ":5219,"Ã©":5220,"ÙĤÙĦÛĮ":5221,"ĠÚ©ÙĨÙĨØ¯Ú¯Ø§ÙĨ":5222,"ĠÙĨØ¨Ø§ÛĮØ¯":5223,"ĠØ³Ø±Ú©ÙĪØ¨":5224,"ĠÚ©Ø±ÙĪÙħ":5225,"ĠÙħØªÙĪÙĨ":5226,"ĠØ§Ø³ØªÙĤØ¨Ø§ÙĦ":5227,"ĠØ¨Ø§Ø±Ø§ÙĨ":5228,"ĠØ³Ø§ØŃ":5229,"ĠØ§ÙĪÚ©Ø±":5230,"ĠÙĨØ±ÙĪÚĺ":5231,"Ø§Ú©ØªÙĪØ±":5232,"ĠÙĨÙħØ§ÛĮÙĨØ¯Ú¯ÛĮ":5233,"Û³Û±":5234,"Ø¹Ùģ":5235,"ÛĮÙĨÛĮØ§":5236,"ĠÚ©Øª":5237,"Û·Û¶":5238,"ĠØªØ¸":5239,"ĠÙĩØ´ØªØ§Ø¯":5240,"Û´Û¶":5241,"ĠÚĺÙĨØª":5242,"ĠÙĤÙĨØ§Øª":5243,"ĠÛ±Û¹Û¸Û´":5244,"Ø§ÙģØªØ¯":5245,"ĠÙħØ¹Ø¨Ø¯":5246,"ĠØ§Ú©Ø«Ø±ÛĮØª":5247,"ÙħÙĨØª":5248,"ĠÚĺÙĨØ±Ø§ÙĦ":5249,"ĠØ¯ÛĮØ¬ÛĮØªØ§ÙĦ":5250,"nd":5251,"ĠØ¢Ø³Øª":5252,"Ø®ÙĪØ§ÙĨÛĮ":5253,"ĠÙĩÙħØ¬ÙĨØ³":5254,"ØºÙĩ":5255,"ĠÙħØªÙģØ§ÙĪØªÛĮ":5256,"ĠØ§Ø³ØªØ¯ÙĦ":5257,"Ø¬Ø§Øª":5258,"ĠØ®ÛĮØ±":5259,"ĠØ±Ø§Ø³ØªÙĩ":5260,"Û²Û¸":5261,"ĠØ±ÙĪÛĮØ¯":5262,"ÙħØ«":5263,"ĠÙĨØµØ±":5264,"ÙĨØ¸Ø±":5265,"ĠÙĩÙħØ±":5266,"ÙĩØ§Ø³Øª":5267,"ĠØ´Ø´ÙħÛĮÙĨ":5268,"ĠÛ±Û³Û¸Û¸":5269,"Ø³Ú©Øª":5270,"ĠØ¬ÛĮÙĨ":5271,"ĠØ§ÙħØ¶Ø§":5272,"ĠÙħØ®ØªØµ":5273,"ĠÙĪØ¶Ø¹":5274,"ĠÙĩÙħÚ©Ø§Ø±":5275,"Ø§ÙĪØ²":5276,"Ø³ÛĮÙĦÙĪ":5277,"Û³Û¸":5278,"ĠØ¬Ø§Ø³":5279,"Ø¬ÛĮØ¨":5280,"ok":5281,"Ø¯ÛĮÙĩ":5282,"ĠØªÙĤØ¯":5283,"ĠØ§Ø´Ú©Ø§ÙĦ":5284,"ĠØ§Ø¹Ø·":5285,"ub":5286,"Û¹Û¹":5287,"ĠÙĨØ§Ø¨ÙĪØ¯":5288,"ĠÚ©Ø§Ø±ÙĪÙĦÛĮÙĨØ§ÛĮ":5289,"ĠØ¢Ø±Ú©":5290,"ĠÙĤÙĩØ±ÙħØ§ÙĨØ§ÙĨ":5291,"ĠÙĩÙħÚ¯ÛĮ":5292,"Ø§ÛĮØ¹":5293,"Ø³Ø§Ø±":5294,"ĠØ§ÛĮØ¯":5295,"ĠÚ©ÙĪØ¦":5296,"ĠÙ¾ÛĮÙĨ":5297,"ĠÙģÙĪ":5298,"ĠØ±ÙĪÛĮÚ©":5299,"ĠÙħÛĮØ§ÙĨÛĮ":5300,"ĠÙħØ³Ø¹ÙĪØ¯":5301,"ĠØ±ÙĤÙħ":5302,"ĠØ³ÛĮØ¨":5303,"ĠÙ¾ÙĨÙĩØ§ÙĨ":5304,"ĠØ§ÙħÛĮÙĨ":5305,"ØµÛĮÙĦÛĮ":5306,"ÚĨÛĮÙĨ":5307,"ĠÙĨØ¨ÙĪØ¯Ùĩ":5308,"ĠÚ©ÙħØ§ÙĦ":5309,"ĠÚ¯ÙĦÛĮ":5310,"ĠØ§ÙĤÙĪØ§Ùħ":5311,"ill":5312,"NA":5313,"Ú©Ø³ÛĮ":5314,"ĠØ§ÛĮÙĦÛĮÙĨ":5315,"ĠØ§Ø³ØªØŃ":5316,"ĠØªØ¨Ø¹ÛĮØ¯":5317,"Ø§ÙħØ¯":5318,"ĠÙĨÙħØ§Ø²":5319,"ĠÛ±Û¹Û¸Û²":5320,"ine":5321,"ĠØªØ§Ø¬ÛĮÚ©":5322,"ĠÙħØŃØ§ÙģØ¸Øª":5323,"Ù¾Ø¯ÛĮ":5324,"ÙģØ±Ùĩ":5325,"ĠØ¹Ú©Ø§Ø³ÛĮ":5326,"ĠØ¢Ø³Ø§ÙĨ":5327,"ĠÛ¸Ûµ":5328,"Ø§Ø³Ù¾":5329,"ÙģÙĨ":5330,"ĠÚ©Ø§ØªÙĪÙĦÛĮÚ©":5331,"ĠÚ©Ø´ÛĮØ¯":5332,"ĠÙĨØ§ÙħÛĮ":5333,"Û¹Û¸":5334,"ĠØ´ÙĪØ´":5335,"ĠÚĨØ§ÛĮ":5336,"ÙĪØ±ÙĩØ§ÛĮ":5337,"ĠÙħÙĩØ§Ø±Øª":5338,"Ø±Ø³Ø§ÙĨØ¯":5339,"ĠÙĩÙĪÙĦ":5340,"ĠØªÙĪÙħØ§Ø³":5341,"ÙħØ§Ø±ÛĮ":5342,"ĠÙĨÙĪØ§Ø±":5343,"ĠÙĤØ¨ÙĦØ§":5344,"ĠØ§Ø®ÙĦØ§ÙĤÛĮ":5345,"ĠÙĨÙħØ§ÛĮÙĨØ¯":5346,"ÙĩÙħÚĨÙĨÛĮÙĨ":5347,"ĠØ§Ø´ÛĮ":5348,"ĠØ¬Ø³ØªØ¬ÙĪ":5349,"ĠØ³Ù¾Ø§ÙĩÛĮ":5350,"ĠÙħÙĨØ²ÙĦ":5351,"Ġ...":5352,"ĠØ¨Ø±Ø§Ø¯Ø±Ø§ÙĨ":5353,"ÙĪÙħÛĮÙĩ":5354,"Ø®Ø±Ùĩ":5355,"ĠØ¨Ø²":5356,"ĠØ¹ÙĦØ§ÙħØª":5357,"Ø¬ÙħÙĩÙĪØ±ÛĮ":5358,"ĠØ±ÙĪØ²Ø§ÙĨÙĩ":5359,"ĠÙĨÚ©Ø±Ø¯Ùĩ":5360,"Ø§Ø¨ÙĨØ¯":5361,"ĠØ¯Ø§Ø±ÛĮÙĪØ´":5362,"ĠØ§ÙĦÚ©ØªØ±ÙĪÙĨÛĮÚ©":5363,"ĠØ§Ø®ØªØ±Ø§Ø¹":5364,"Ġ(\"":5365,"ĠØ¨ÛĮØ§":5366,"Ø¦ÙĪØ³":5367,"ĠØ¨ÙĩØ±Ø§Ùħ":5368,"ĠØ±ÙĪØ§Ø¬":5369,"ĠØ§Ø³ØªØ§ÙĨØ¯Ø§Ø±":5370,"ĠÚ©ÙĪÛĮ":5371,"ĠÙħÙĨØªÙĤØ¯":5372,"ĠÚ©Ø±ÛĮÙħ":5373,"ĠØ®Ø§ÙĪØ±ÙħÛĮØ§ÙĨÙĩ":5374,"ĠÙħÙħÙĨÙĪØ¹":5375,"ĠÛ±Û¹ÛµÛ°":5376,"ĠÙħÛĮÙĨÙĩ":5377,"ĠÙħØ¬ÙĪØ²":5378,"ĠÛ±Û³Û¹Û²":5379,"ĠØ¬Ø³Ùħ":5380,"ĠÙģÙĦÙĪØ±ÛĮØ¯Ø§":5381,"ĠØ§Ø³Ú©Ø§ØªÙĦÙĨØ¯":5382,"ÙģØªÛĮ":5383,"ĠØ¨Ùħ":5384,"ĠØ®ÙĪØ§Ø¬Ùĩ":5385,"ĠØ¨Ø§Ø±Ø¯":5386,"Ú¯Ø±Ø¯ÙĨØ¯":5387,"ĠÚĨÚ¯ÙĪÙĨÙĩ":5388,"ĠÙħØŃÙĤÙĤ":5389,"ĠÙĤØ¯ÙħØª":5390,"ĠÚĨØ§Ø±ÙĦØ²":5391,"ĠÙģÙĦØ³Ø·ÛĮÙĨ":5392,"ĠØªØŃÙĪÙĦ":5393,"Ú¯Ø²Ø§Ø±ÛĮ":5394,"ĠØ¨Ø®Ø§Ø·Ø±":5395,"ĠØ´Ø¨Ø§ÙĩØª":5396,"ÙĬÙĨ":5397,"Û¸Û¸":5398,"ĠØ¯Ø§Øº":5399,"ĠØ´Ø§Ùħ":5400,"ĠÚ¯ÙĪÙĨØ§Ú¯ÙĪÙĨÛĮ":5401,"Ø§Ø¹Ø¯Ùĩ":5402,"ĠØ¨Ø¯Ø§ÙĨ":5403,"ĠØ§ÙĨØ¨":5404,"ĠÚ¯ÙĪØ±Ø³ØªØ§ÙĨ":5405,"ĠÙģØ±Ú©":5406,"ĠØ±Ø¯ÛĮÙģ":5407,"ĠØªØ±Ø³":5408,"ĠØ·Ø±ÙģØ¯Ø§Ø±Ø§ÙĨ":5409,"ĠØ¬Ø³ØªØ¬ÙĪÛĮ":5410,"ĠØ¨Ø³ØªÚ¯ÛĮ":5411,"ĠØ¬ÙĪØ§ÛĮØ²ÛĮ":5412,"ĠÙħØªÙħØ±Ú©Ø²":5413,"ct":5414,"Ø´Ø¨":5415,"Ø´Ø§Ø±ÛĮ":5416,"ĠÙĩÚ©Øª":5417,"Ú¯Ø±Ùħ":5418,"ĠØªÙħØ±ÛĮÙĨ":5419,"Ù¾ÛĮØ±":5420,"ĠØ¢ÙĨØªÙĪÙĨÛĮ":5421,"ĠÚ©ÙĦØ±":5422,"Ø·ÙĦØ¨":5423,"inde":5424,"ĠPr":5425,"ĠÙħØ§Ø¬Ø±Ø§":5426,"ĠÙħÙĪØ²ÛĮÚ©":5427,"ĠÚ©ÙĨØ§Ø±Ùĩ":5428,"ĠØªØ§ÙĦØ§Ø±":5429,"ĠØ¬Ø³":5430,"ĠØ±ÙĪØ§ÙĨÛĮ":5431,"ĠØµØ¹ÙĪØ¯":5432,"Ø°Ø±":5433,"ĠÙģÛĮÙĦØ³ÙĪÙģ":5434,"ĠØ²ÙĨØ¬ÛĮØ±Ùĩ":5435,"ĠÙħØ¹Øª":5436,"ĠÚ©ÙħØ±Ø¨":5437,"ĠÙĪØ³Ø·":5438,"ĠØ¨Ø±ÙĨØ¯":5439,"ĠØ¨ÙĪÛĮ":5440,"ĠØ´Ø§Ú¯Ø±Ø¯Ø§ÙĨ":5441,"ĠØ¨Ø±Ø¢ÙĪØ±Ø¯":5442,"ĠÚ©ÛĮÙĨ":5443,"ĠØ§ÙħÙĪ":5444,"ĠÚ¯Ø§ÙĪ":5445,"Ú©ÙĨØ§ÙĨ":5446,"Ø¨Ø§Ø¯":5447,"cycl":5448,"ĠÙħØ¯Ø§ÙģØ¹":5449,"ÙĪØ±ÛĮØ³":5450,"com":5451,"ĠÙĪØ³ÛĮØ¹":5452,"ĠØ§ÙģØªØ§Ø¯Ùĩ":5453,"ĠÙ¾Ø§Ø±ÙĦÙħØ§ÙĨ":5454,"Ø§ÙĩØ±Ø§Øª":5455,"Ú¯ÙĪØ´":5456,"ĠØ¨ÙĪØ³":5457,"ĠÛ±Û¹Û¸Û·":5458,"ĠØ®Ùħ":5459,"ĠÙĨÛĮÙĪØ²":5460,"ĠÙĨØ§ÛĮØ¨":5461,"ĠÙħØ§ÙĦÚ©ÛĮØª":5462,"ÙħÛĮÙĨØ§ÙĨ":5463,"ĠØ¨Ø§ÙĦØ§ØªØ±ÛĮÙĨ":5464,"cyclop":5465,"Ú¯Ø±ÙģØªÚ¯ÛĮ":5466,"ÚĨØ³ØªØ±":5467,"Ú©Ø§ÙĦ":5468,"ĠØ³Ø§Ø²ÙĨØ¯Ùĩ":5469,"ĠØ§ÛĮÙĦÛĮÙĨÙĪÛĮ":5470,"ĠÙĩÙģ":5471,"art":5472,"ĠØ¹Ø¸ÛĮÙħ":5473,"ĠØ§ÙĨØªØ®Ø§Ø¨ÛĮÙĩ":5474,"ĠØ±Ø§ØŃØªÛĮ":5475,"ĠÙĨØ®ÙĪØ§ÙĩØ¯":5476,"ĠÚĨÙĨÚ¯":5477,"ĠØ§ØªÙħÛĮ":5478,"ĠØ¢Ø¨Ø´Ø§Ø±":5479,"ĠØªØ¬Ø¯ÛĮØ¯":5480,"ĠØ´Ø±Ø·":5481,"ĠÚ©ÙĦØ§ÙĨ":5482,"ĠÙ¾Ø§Ø±Ø§Ùħ":5483,"ĠÙģÙĤÙĩ":5484,"ĠÛ´Û¶":5485,"ĠØ§Ú©Ø±Ø§ÙĨ":5486,"ĠØ§ÙĪØ§Ø³":5487,"ĠØ¯Ø±Ø¢Ùħ":5488,"ĠFree":5489,"ĠÙħØ¨ÙĨØ§ÛĮ":5490,"ĠÚ©ÙĪÙĨ":5491,"ĠÙħØ®ÙĦ":5492,"ĠÙģØ±ÙĪÙĨØ¯":5493,"ĠØ¹ÛĮØ³ÛĮ":5494,"ĠÙĨÙħÚ©":5495,"ĠÙħØŃÙĦÙĪÙĦ":5496,"ĠÙĤÙĦØ¨ÛĮ":5497,"ell":5498,"ĠÙħØªØ£":5499,"Ø§ÙħØ¹":5500,"ĠØ§Ú©Ø³ÛĮØ¯":5501,"ĠØ¬ÙĪØ§Ø¨":5502,"Ø§Ø¸Ø±":5503,"ĠØ¨Ø±Ú¯Ø±ÙģØªÙĩ":5504,"ĠÚ¯Ø±Ú¯":5505,"ĠØ¯Ø§Ø³ØªØ§ÙĨÛĮ":5506,"ĠÙħØŃØ³ÙĨ":5507,"ĠÙĪØ§ØŃØ¯ÙĩØ§ÛĮ":5508,"ĠØªØ³Øª":5509,"ĠØ§Ø±Ø¯Ø¨ÛĮÙĦ":5510,"ĠØ¨Ø²Ø±Ú¯Ø§ÙĨ":5511,"ĠØ³ÙĩÙħ":5512,"ĠÙ¾Ø±Ø§Ú©ÙĨØ¯Ùĩ":5513,"Ú¯Ø§Ùħ":5514,"Û³Û³":5515,"ĠÙĩÙħØ±Ø§ÙĩÛĮ":5516,"ĠÙĤØ±ÙĪÙĨ":5517,"ĠÙĩÙģØªÙħÛĮÙĨ":5518,"ĠØ¹ÙĪØ¶":5519,"ĠØ§Ø³ØªØ®Ø±Ø§Ø¬":5520,"ĠÛ¹Ûµ":5521,"ĠÙĤØ§Ø±":5522,"ĠÙħØªÙĤ":5523,"ĠØªØ¬Ø±Ø¨ÛĮ":5524,"ĠØ§Ú©Ø³":5525,"ĠØ¬ÙĦØ§ÙĦ":5526,"ĠØ¯ÛĮÚ©":5527,"Ú¯ÙĪÛĮÛĮ":5528,"ĠØ³ÙģÛĮØ±":5529,"ĠÙĩÛĮØª":5530,"ÙĦÛĮØ§ÙĨ":5531,"ĠØªØŃÙĪÛĮÙĦ":5532,"ÙģÙĪÙĨ":5533,"ĠÚ©Ø§Ø±Ø¨Ø±Ø¯ÙĩØ§ÛĮ":5534,"ĠØ§ÙĪÙĨ":5535,"Ø§ØªÙĪ":5536,"Ø³ØªØ§ÙĨÙĩ":5537,"ibut":5538,"ĠÛµÛ·":5539,"php":5540,"Ø§ÛĮØªØ¯":5541,"Ø§ØªØ±ÛĮÙĨ":5542,"ĠÙĨÛĮØ´Ø§Ø¨ÙĪØ±":5543,"ĠÙĨØ¹":5544,"ĠØ°Ùĩ":5545,"Ø¬ÙħÙĦÙĩ":5546,"Ø¨ÛĮÙĨØ¯":5547,"Û²Û¹":5548,"ĠØ¬Ú©Ø³ÙĪÙĨ":5549,"Ø´Ø¯ÙĨ":5550,"ĠÙħØ¯Ø¹ÛĮ":5551,"Ù¾Ø¯ÛĮØ§ÛĮ":5552,"Ġl":5553,"ĠÚ¯ÙĪØ¯":5554,"ĠØ¢ÙĤØ§":5555,"Ø³ÛĮÙĦÙĪØ§ÙĨÛĮØ§":5556,"ÙĦÛĮØ¯ÛĮ":5557,"ĠÚ©Ø§ÙĨØ¯":5558,"ĠÙĨØ¨Ø±":5559,"ĠEncyclop":5560,"ĠÙħØ°Ú©ÙĪØ±":5561,"ÙĪÙĨÛĮØ§":5562,"ĠØµÙĦØ§ØŃ":5563,"ĠØ±Ø³Ø§ÙĦÙĩ":5564,"ĠÙħÙĩÙĨØ¯Ø³":5565,"ĠÙħØŃÙħØ¯Ø¹ÙĦÛĮ":5566,"ĠÙħØ¹Ø§Ø¯ÙĦÙĩ":5567,"ĠØ¯ÛĮØ²":5568,"mol":5569,"ĠØ³ØªØ§Ø±":5570,"ĠØ¨ÛĮØ±ÙĪÙĨÛĮ":5571,"ĠØ§ÛĮÙĨØ¯ÛĮ":5572,"ĠØ±Ø³ØªÙħ":5573,"ĠØ§Ø®Ø°":5574,"qu":5575,"Ø§ÛĮØªÛĮ":5576,"Ø§ÙĪÙĦ":5577,"ĠÚ©ÙħØªØ±ÛĮ":5578,"tit":5579,"ĠØ²ÙĪØ¬":5580,"www":5581,"ĠÙĦØ°Ø§":5582,"ÛĮØ¯Ú¯ÛĮ":5583,"ĠÙĪØ§Øª":5584,"ĠÙĦÙĨÚ¯":5585,"ĠØ¬Ø§ÙħØ¯":5586,"Ø§Ø¢":5587,"ĠØ§ÙĨÛĮÙħ":5588,"ĠÙĨØ§Ø³":5589,"ĠÛ±Û¹Û¸Ûµ":5590,"ĠØ§Ø³ØªØ¯ÙĦØ§ÙĦ":5591,"ĠÙħØ¹ÛĮÙĨ":5592,"ĠØ¯Ø§Ø±ÙĪÛĮÛĮ":5593,"Ø³ÙĪØªØ§":5594,"ĠÛ±Û¹Û·Û¹":5595,"ĠØ¢ÙĦØ§Ø¨":5596,"ĠØ±Ø³ÙħØ§":5597,"Ø³ÙĪÙħ":5598,"ÙĪÛĮØªØ³Ùĩ":5599,"ĠÙħØ£ÙħÙĪØ±":5600,"ĠÛ´Û´":5601,"ĠÙĦØ§Ø±":5602,"eg":5603,"ĠØ®ÙĪØ¯Ú©Ø§Ø±":5604,"ĠØ§Ø³ØªÙĪØ§Ø±":5605,"Ù¾Ø±Ø¯Ø§Ø®Øª":5606,"ĠØ¹Ø·":5607,"ĠÂ«\"":5608,"Ġcontr":5609,"ĠØ±Ø¬":5610,"ĠØ§ØŃØªØ±Ø§Ùħ":5611,"ÙĪÙĨØ¯ÛĮ":5612,"ĠÛ´Û·":5613,"ĠØ¯Úĺ":5614,"ĠÛ±Û¹Û¸Û±":5615,"ĠØ®ÙĪØ§Ø³ØªÙĩ":5616,"ĠÙħØ´Øª":5617,"ĠØ¯Ø§Ø±ÛĮÙħ":5618,"Ø¯Ø§Ø±Ø¯":5619,"ĠÚ©Ø±Ø¯ÛĮ":5620,"ĠØ¬Ø¯Ø§Ú¯Ø§ÙĨÙĩ":5621,"ĠØŃØ´":5622,"ÙĪÙħØªÛĮ":5623,"ĠØ¨ØªÙĨ":5624,"ĠØ§ÙĩÙĪØ§Ø²":5625,"index":5626,"ÙĨÙĤ":5627,"ĠÚ©Ø§ÙĨÛĮ":5628,"ÙĨØ¬Ø§ÙĨ":5629,"ĠÙħØ®ÙĦÙĪØ·":5630,"Ġ<":5631,"ĠØªÙĨØ´":5632,"ĠÛ±Û³Û¹Û¶":5633,"ĠEncyclopedia":5634,"ĠØ³Ø§ÛĮÙĩ":5635,"ĠÙħÙĪØ³ÙĪÙħ":5636,"ĠÙ¾Ø±ÙĨØ¯Ú¯Ø§ÙĨ":5637,"ĠÙĤÙģÙĤ":5638,"ĠØ§Ø·ÙħÛĮÙĨØ§ÙĨ":5639,"ĠÙĪØ§Ùħ":5640,"Ø§ÙĤØ¯":5641,"Ø®ØªÙĨ":5642,"ĠÚ©ÙĪÚĨÙĩ":5643,"ÙĦØ§Ú©":5644,"ĠØªÚ©Ø§ÙħÙĦ":5645,"ĠÛĮØ§Ø¯Ú¯ÛĮØ±ÛĮ":5646,"Û¸Û¹":5647,"Ø´Ø¹":5648,"ĠÚ©Ø§ÙĨÙĪÙĨ":5649,"ĠÛ±Û¹Û´Ûµ":5650,"ĠÙĩÚ©ØªØ§Ø±":5651,"ÛĮÙĦØ§":5652,"Ø³Ú©ØªØ¨Ø§ÙĦ":5653,"ĠØ¬ÙħØ§ÙĩÛĮØ±":5654,"ĠÙĨØªÙĪØ§ÙĨØ³Øª":5655,"ĠÚ¯Ø±Ø¯ÙĨ":5656,"Ø¹Ø¨Ø§Ø³":5657,"ĠÙ¾Ø±Ùģ":5658,"Ø§Ø¨ÛĮÙĨ":5659,"ÙĪÙħØ±":5660,"ĠØ³ÛĮÙĨØ§":5661,"ĠØ³ÙģØ§Ø±Øª":5662,"ÙħÙĪØ¯":5663,"ĠØ§Ø¨ÙĪ":5664,"ĠØ§ÙĪÙĦÛĮ":5665,"ĠØ¨ÛĮØ§ÙĨÛĮÙĩ":5666,"ĠØªØ±Ú©ÛĮØ¨Ø§Øª":5667,"ĠØ®ÙĪØ§Ø³ØªØ§Ø±":5668,"ĠÚ¯Ø°Ø±Ø§ÙĨØ¯":5669,"ĠÙħÛĮØ´":5670,"ĠØ´Ø±ÛĮÙģ":5671,"ice":5672,"ĠÚ¯Ø±Ø¬Ø³ØªØ§ÙĨ":5673,"ĠÙģØ±Ø¯ÙĪØ³ÛĮ":5674,"ĠÙĤÛĮØ§Ùħ":5675,"ĠØ³ÙĪÙ¾Ø±":5676,"ĠÚ¯ÙĦØ³ØªØ§ÙĨ":5677,"ĠÙĩÙĦÙĨØ¯ÛĮ":5678,"ĠÙĨÙĩØ§ÛĮØªØ§":5679,"ĠÙħØ¹Ø¯ÙĨ":5680,"ĠØ²Ø¨Ø§ÙĨÛĮ":5681,"ĠØ¨Ø§ÛĮØ±":5682,"ĠÙħØ±ÙĪ":5683,"ĠÙĪØŃØ´ÛĮ":5684,"ĠÛĮÙĪÙĨØ§ÛĮØªØ¯":5685,"ĠØ¨Ø¯ÙĨÙĩ":5686,"ĠØ¬Ø§ÙĨØ¨":5687,"ÙĦØ§ÙĦ":5688,"ĠÛĮÙĪØ±ÙĪ":5689,"ĠØ³Ø·ØŃÛĮ":5690,"ĠÙħÙĪÙĤØª":5691,"ĠØ§Ø±Ø³":5692,"ĠØ¨Ø§Ø²Ø±Ú¯Ø§ÙĨÛĮ":5693,"ĠÙĦØ²":5694,"ĠØ²ÛĮØ³ØªÛĮ":5695,"ĠØŃØ±Ø§Ø±ØªÛĮ":5696,"ÙħÙĨØ¯Ø§ÙĨ":5697,"ĠØ¨Øµ":5698,"ĠÙĪÛĮØ³":5699,"ĠÚĨØ±Ø®Ùĩ":5700,"ĠÚĨÙĨØ¯Ø§ÙĨ":5701,"ĠÙĦØŃØ¸Ùĩ":5702,"____":5703,"Ġv":5704,"ÙģØ±ÙĪ":5705,"ĠØ³ÙĦØ¬ÙĪ":5706,"ĠØ±Ø¹":5707,"Ú¯Ø±ÙĪÙĩ":5708,"ÛµÛµ":5709,"ĠÙģØ±Ø§Ø®":5710,"ĠØ´Ø¹Ø¨Ùĩ":5711,"ĠØŃØ°ÙģÛĮ":5712,"ÙĩØ§ÛĮÙħ":5713,"Ú¯Ø°Ø±Ø¯":5714,"Ø³Ø§ÙģØª":5715,"ĠÙĦÛĮØ³Ø§ÙĨØ³":5716,"ĠØ¯Ø§Ú©":5717,"ĠÛĮØ§Ø±ÛĮ":5718,"Û¶Û¶":5719,"Û³Û¹":5720,"Ø¦Ùĩ":5721,"ĠÙħØ¯ÛĮØ±Ùĩ":5722,"ĠÛ´Û°Û°":5723,"ÙĪØ¯Ú¯ÛĮ":5724,"ĠØ¨Ø³Ú©ØªØ¨Ø§ÙĦ":5725,"ÙĨÙĪØ¹":5726,"ĠÙ¾ÙĨØ³ÛĮÙĦÙĪØ§ÙĨÛĮØ§":5727,"acc":5728,"Ø¶Ø§ÙĨ":5729,"ĠÛ±Û¹Û·Û¶":5730,"ĠÙĩÛĮØ±":5731,"Ø´Ø±Ø¯Ùĩ":5732,"Ú¯ÛĮÙĦÙĪÛĮÙĩ":5733,"ĠØ¬Ø§Ø°":5734,"ĠØ¨ÙĦÙĪ":5735,"ĠÙĪÙĦØªØ§Úĺ":5736,"ibutors":5737,"ĠØ¨ÙĪØ¦":5738,"ĠØ¶Ø®":5739,"ĠÙĩØ§Ø´ÙħÛĮ":5740,"ĠØ´ÛĮØ¹ÛĮØ§ÙĨ":5741,"Ø²ÛĮÙĨ":5742,"ĠÙģÛĮØ±ÙĪØ²":5743,"Ġcontributors":5744,"ĠÙĨØµÙģ":5745,"Ø§Ø¹Ø¯":5746,"ĠÙħÙĪØ§Ø±Ø¯ÛĮ":5747,"ĠÙħØ¹ØªÙĤØ¯ÙĨØ¯":5748,"ĠØŃÙĤÛĮÙĤÛĮ":5749,"ĠÙ¾Ø±ØªØºØ§ÙĦ":5750,"ÙģØ§ÙĨ":5751,"ĠØ®Ø´Ùħ":5752,"now":5753,"ĠØŃÙĪØ§Ø¯Ø«":5754,"ĠÚ©Ø§Ø±Ø¯":5755,"ĠÙ¾Ø±ÙĪØ§ÙĨÙĩ":5756,"ĠØ§ÛĮÙĨØªØ±ÙĨØªÛĮ":5757,"ĠØ³Ø§ØŃÙĦÛĮ":5758,"ĠØ¨ÙĪØ´ÙĩØ±":5759,"ĠÙħØµØ·ÙģÛĮ":5760,"ĠÛ±Û¹Û´Û´":5761,"ĠØ±Ø§Ø¯ÛĮÙĪÛĮÛĮ":5762,"ĠØ¬Ø¹Ø¨Ùĩ":5763,"ĠØªØ¹ÙĦÙĤ":5764,"ĠØ³ØªØ§Ø¯":5765,"ØµØ§Ø±ÛĮ":5766,"ĠÙħØ§ÛĮÚ©Ø±ÙĪ":5767,"Ú¯Ø±Ø§Ùĩ":5768,"ĠØ³Ø¤Ø§ÙĦ":5769,"ĠØªØµÙĪÛĮØ±ÛĮ":5770,"ÙĪØ§ÙĦÛĮ":5771,"Ø®Ø¯":5772,"ĠØ¯Ø®ØªØ±Ø§ÙĨ":5773,"ĠØªØ³ÙĦÛĮÙħ":5774,"ĠØ¢ÙĦØ§Ø¨Ø§ÙħØ§":5775,"Ø¬ÙĨÚ¯":5776,"ĠÙĤØ¯Ø±ØªÙħÙĨØ¯":5777,"ĠÙĪÙĤØ§ÛĮØ¹":5778,"ĠØ§ÙħØ§Ø±Ø§Øª":5779,"ĠÚ©ÛĮÙħ":5780,"ĠØ¢Ú¯ÙĪØ³Øª":5781,"ĠÙħØ´ØªÙĤ":5782,"Ú©Ø´Ø§ÙĨ":5783,"ĠÙĤÙĪÙĦ":5784,"ĠØ¬ÙĦÙĪÛĮ":5785,"ĠÙĤØ¶ÛĮÙĩ":5786,"ĠØ³Ø±ÙħØ±Ø¨ÛĮ":5787,"ĠØ§ÙħØªØ¯Ø§Ø¯":5788,"ÙħØ§ÙĨÙĩ":5789,"ĠØ¨Ø±ÙĪØ¬":5790,"ĠØ¢ÙĦÙĪÙħ":5791,"ĠÙ¾Ø±ØªÙĪ":5792,"ev":5793,"ĠÛ±Û¹Û·Û¸":5794,"ĠØ³ÙĪØ³":5795,"ĠÚ©ÙĨØ³ÙĪÙĦ":5796,"ĠØ§ÙĨØ¬Ø§ÙħÛĮØ¯":5797,"ĠÚ©Ø§Ø¸":5798,"Ù¾Ø±ÙĪ":5799,"ĠÚĨØ±Ø®Ø´":5800,"ĠÚĨÙĨØ¯ÛĮ":5801,"ĠÚ©Ø§ØºØ°":5802,"Ø§ÙĦØ¨Ø§":5803,"ĠØ³Ø±Ø¯Ø§Ø±":5804,"ĠÙĤØ´":5805,"ĠØ§ÙĨØ¯Ø§Ùħ":5806,"Û¹Û³":5807,"Ø¹Ø¯Ø§Ø¯":5808,"ĠAr":5809,"ĠØ¬Ø¯Ø§ÛĮÛĮ":5810,"Ø¬ÙħØ¹ÛĮØª":5811,"ĠÛ±Û¸Û²":5812,"ĠØ²ÙĨØ¬Ø§ÙĨ":5813,"ĠØ®Ø¯Ø§ÛĮ":5814,"Ġâ":5815,"ĠÛ±Û¹Û·Û³":5816,"Ú©ØªØ§Ø¨":5817,"ĠØ§Ø±ÙĪÙħÛĮÙĩ":5818,"Ú¯ÙĪÙĨÚ¯ÛĮ":5819,"ÛĮÙĪ":5820,"ĠÚ¯ÙĨØ¯Ùħ":5821,"ĠØ§Ú©Ø³ÛĮÚĺÙĨ":5822,"title":5823,"Ø±ØºÙħ":5824,"ĠØ¢Ú¯Ø§Ùĩ":5825,"ĠØ¬Ø§ÙĨÙĪØ±Ø§ÙĨ":5826,"ĠÚ©ÙĪÙĩØ³ØªØ§ÙĨ":5827,"Ø®Ø§Øµ":5828,"ĠÙ¾ÛĮØ±ÙĪØ§ÙĨ":5829,"ĠÙģØ´Ø±Ø¯Ùĩ":5830,"Û¹Û±":5831,"ĠÛ±Û¹Û¸Û³":5832,"Ø§ÙĦÙĪ":5833,"ÙĤÙħØ±ÛĮ":5834,"ĠØ§Ø³ØªÙĨ":5835,"ĠØ¯ÙĪÛĮØ³Øª":5836,"ĠÚ©Ø¨Ú©":5837,"ĠØ¶Ø±ÙĪØ±ÛĮ":5838,"ĠÚ©ÙħØ¨ÙĪØ¯":5839,"ĠØªØ±ÙĪØ±":5840,"ĠÙħÙĨØ·ÙĤ":5841,"ĠÚ¯ÙģØªÚ¯ÙĪ":5842,"ĠØŃØ±ÙĪÙģ":5843,"ĠØ¯ÛĮØ³Ú©":5844,"Ø§ÙĪØ±ÛĮ":5845,"ÛĮØ§ÙģØª":5846,"ĠØ®ÙĪØ±Ø´ÛĮØ¯Ú¯Ø±ÙģØªÚ¯ÛĮ":5847,"ĠØ´ÙĩØ±ÙĪÙĨØ¯Ø§ÙĨ":5848,"ÙģÙĩØ±Ø³Øª":5849,"ĠØªØ´ÙĪÛĮÙĤ":5850,"ĠØ§Ø³ØªØ®Ø¯Ø§Ùħ":5851,"ĠÙħØ¹ÙĦÙħ":5852,"ĠØ¬ÙĪÛĮ":5853,"ĠÙĤØ¯Ùħ":5854,"Ø§ÙĦÛĮØ³Ùħ":5855,"ØªØ´ØªÛĮ":5856,"ĠØŃÙħÛĮØ¯":5857,"Ø§ÙħÙĦÙĩ":5858,"Ø§Ú¯Ø§":5859,"Ø³ÙĪØ§Ø±ÛĮ":5860,"ĠÙĤØ¶Ø§ÛĮÛĮ":5861,"ĠÙħØ¬Ø§Ø²ÛĮ":5862,"ĠØªØ¹Ø§Ø¯ÙĦ":5863,"ĠZ":5864,"ĠÛ±Û¹Û¶Û¸":5865,"ĠÙħÚ©Ø§ÙĨÛĮÚ©ÛĮ":5866,"ex":5867,"ĠØ±ÙĪØ²Ú¯Ø§Ø±":5868,"ĠØ§ÛĮØ²Ø¯":5869,"ĠÚ¯Ø§Ø±":5870,"ĠØ¯ÙģÙĨ":5871,"ĠØ³ÛĮÚ©":5872,"ĠØ§ÙĦÙĩ":5873,"ĠÚ©ÙħÙĪÙĨ":5874,"ĠØªØ¯Ø±ÛĮØ¬":5875,"Ġ6":5876,"Ø§ÙħÛĮÚ©":5877,"ĠØ®ÙĪØ¯Ø´Ø§ÙĨ":5878,"Ø§ÙĨÚ¯ÛĮØ²":5879,"ĠÛ±Û³Û¹Û´":5880,"ĠØ¯Ø±Ø¨Ø±":5881,"ĠØ¢Ø²ÙħØ§ÛĮØ´Ú¯Ø§Ùĩ":5882,"ĠÙħÙĤØµØ¯":5883,"ØªÛĮÙħ":5884,"Ú¯Ø´":5885,"ÛĮÙĨÚ¯ÙĨ":5886,"ĠØ¯ÙģØ§Ø¹ÛĮ":5887,"ĠÙĤØ±Ø¨Ø§ÙĨÛĮ":5888,"ĠØ±ÙĪÙĦ":5889,"ĠÛ±Û¹Û´Û³":5890,"ĠÙħÙĨØ¹":5891,"ĠØ´ÛĮØ¨":5892,"Ø¨Ø±Ø²":5893,"ĠØ®ÙĪØ±Ø¯ÙĨ":5894,"ĠØ®Ø§Ø·Ø±Ø§Øª":5895,"ĠÙģÙĪÙĨ":5896,"oldid":5897,"Ø§Ø®ØªÙĨ":5898,"ĠÛ±Û¹Û·Û²":5899,"ĠØ¯Ø§Ø±ÙĪÙĩØ§ÛĮ":5900,"ĠØªØŃÙĤÛĮÙĤØ§ØªÛĮ":5901,"ĠØ¨ÛĮÙĩ":5902,"ĠÙĩØ±Ú©":5903,"ĠÛ¶Û´":5904,"ĠØ§ÙĨØ¯ÙĪÙĨØ²ÛĮ":5905,"ĠÙĪØ³Ø¹Øª":5906,"ĠÙĨØ§ÙħØ´":5907,"ĠØ¬Ø§ÙĨØ¨ÛĮ":5908,"ĠØºÛĮØ±ÙĤØ§Ø¨ÙĦ":5909,"ĠØªØ±ÙĪ":5910,"ĠÙģØ±Ùĩ":5911,"ĠCH":5912,"ĠØªÛĮÙĦ":5913,"ĠØ±ÛĮØ´":5914,"Ú¯Ø±Ø§ÛĮ":5915,"ĠÙħØ±Ø²ÙĩØ§ÛĮ":5916,"ĠØ³ÙĪØ¡":5917,"11":5918,"ĠÙģØ§ÙĤØ¯":5919,"ĠØ§ÙħÙĪØ§Ø¬":5920,"ĠÚ¯ÚĨ":5921,"ĠÛ³Û³":5922,"ĠÙĨØ¨Ø§Ø´Ø¯":5923,"ĠÛ±Û³Û¹Û³":5924,"ÙĨÙħÙĪØ¯":5925,"ĠØºØ§ÙĦØ¨Ø§":5926,"ĠØ¨Ø§Ø±Ùĩ":5927,"ØµØ§Ø¨":5928,"Ù¾Ø±Ø¯Ø§Ø²ÙĨØ¯":5929,"ĠØ§ÙĪÚ©Ø±Ø§ÛĮÙĨ":5930,"ĠØ¹ÙģÙĪÙĨØª":5931,"ĠØ§Ø¹Ø±Ø§Ø¨":5932,"ĠØ¨ÙĦÙĪÚ©":5933,"ĠØ¨ÛĮÙħÙĩ":5934,"ĠØ¯Ú©ØªØ±Ø§ÛĮ":5935,"ĠÙĨÙĪØ¨ÙĦ":5936,"ĠÙħØ±ØªØ¨Ùĩ":5937,"ĠÙħÙĪØ§ÙģÙĤØª":5938,"ĠÛĮÙħÙĨ":5939,"ĠØ´Ú©ÙĨ":5940,"ĠÛ±Û¹Û·Û´":5941,"ĠØºÙĨÛĮ":5942,"ĠØ³ÙĪØ±Ùĩ":5943,"ĠÙħÛĮØ´ÙĪØ¯":5944,"Ø·Ø¨":5945,"ĠÙĪÛĮØ±Ø¬ÛĮÙĨÛĮØ§":5946,"ĠÙħÙĪØ¶ÙĪØ¹Ø§Øª":5947,"ĠØ§ØªÙĪÙħØ¨ÛĮÙĦ":5948,"ĠØ¯Ø±ÙĪÙĨÛĮ":5949,"io":5950,"ÙĨØ§ÙħÙĨØ¯":5951,"ĠØ¢Ø±Ø§":5952,"ĠØ§ÙĪØ§Ø³Ø·":5953,"ĠÙģØ§ÙĦ":5954,"ĠÙĩØ´ØªÙħÛĮÙĨ":5955,"Ø¯Ø§Ø´ØªÛĮ":5956,"ĠØ®ÙĪØ¯Ùħ":5957,"ĠÙ¾Ø§Ø±Ø³":5958,"ĠØ®ÙĦØ§Øµ":5959,"ĠØ§ÙĨÚ¯Ø´Øª":5960,"ĠÚ¯Ø°Ø§Ø±ÛĮ":5961,"ÙĨØ´ÛĮÙĨÛĮ":5962,"ber":5963,"ĠÎ":5964,"Û¸Û³":5965,"ĠÙĨØ§Ø¯":5966,"ĠØ¢Ø¯Ø±":5967,"ĠØªÙĪÚ©ÛĮÙĪ":5968,"ÙħÛĮÙĩ":5969,"ĠÙħØ±Ø§ÙĤØ¨Øª":5970,"Ø§Ú©Øª":5971,"ĠÚĨÚ¯ÙĪÙĨÚ¯ÛĮ":5972,"ĠØ§Ø¹Ø¸Ùħ":5973,"ĠÙ¾Ø³ØªØ§ÙĨ":5974,"ÙħÛĮÙĦÛĮ":5975,"ĠØ®ÙĪØ¯Ø±ÙĪÛĮ":5976,"ĠÚ©Ø±Ùħ":5977,"ĠÙ¾ÙĨØ¬Ø±Ùĩ":5978,"ĠØµØ±Ø¨":5979,"ĠØ§ÙĩØ¯Ø§":5980,"ĠÛ±Û³Û¸Û¹":5981,"ĠÚ©Ø´ØªØ§Ø±":5982,"ĠØ§ØµÙĦØ§ØŃØ§Øª":5983,"ĠÙħØ²Ø§Ø±":5984,"ĠÙħØŃÛĮØ·ÛĮ":5985,"ĠÙħØ·ÙĦÙĪØ¨":5986,"Ø¯Ø§ÙĪÙĦ":5987,"ĠØ²Ø±ØªØ´ØªÛĮ":5988,"ĠØ¨Ø¯ÛĮ":5989,"Ø³Ø§Øª":5990,"ĠÛ±Û¹Û²Û°":5991,"ĠÙħØ±Ø²ÛĮ":5992,"ĠÛĮÚ©Ù¾Ø§Ø±":5993,"ĠØªØ¹Ø·ÛĮÙĦ":5994,"ĠÚ©Ø±Ø³ÛĮ":5995,"ĠØ§Ø±Ø¯Ø´ÛĮØ±":5996,"ĠØ¨ÛĮÙĨÛĮ":5997,"Û±Û¹Û¹Û":5998,"ĠØ±Ø³ÙħÛĮØª":5999,"ĠÙħØ³ÛĮØŃÛĮØª":6000,"ĠØ³ÙĪÙĨ":6001,"ĠÙĪØ§Úĺ":6002,"ĠÙĨØ§ÙħØ²":6003,"if":6004,"ĠØ§ÙĦÚ©Ø³Ø§ÙĨØ¯Ø±":6005,"ĠØªØ±Ø¯":6006,"Ġr":6007,"ĠØµÙĨØ¯ÙĪÙĤ":6008,"ĠØªØ§ÛĮÙĦ":6009,"ĠÛ±Û¹Û·Ûµ":6010,"ĠÙħÙĪØ±Ø®":6011,"Ø³ÙĦØ·ÙĨÙĩ":6012,"ĠÛ±Û¹Û·Û·":6013,"ĠÙĪÚ©ÛĮÙĦ":6014,"ĠØ±ÙĨÚ¯ÛĮ":6015,"Ġk":6016,"ÙĪØ±Ø²":6017,"ĠØ¨Ø±ØªØ±ÛĮ":6018,"ĠØ§Ø³Ú©ÙĨØ¯Ø±":6019,"Ø§ÙĪÙħ":6020,"ÙħÙĨØ¯ÛĮ":6021,"ĠØ§ÙĦÙĨ":6022,"Ø§ÙĦÙħÙĦÙĦ":6023,"ĠØ³ÙĨÛĮ":6024,"ĠÛĮØ§Ø±":6025,"ĠÛĮÙĪÙĨÛĮ":6026,"ĠDistrict":6027,"Ø§Ø²ÙĨ":6028,"ĠÚĨÚ¯":6029,"Û·Û·":6030,"ĠØ¨ÙĪÛĮØ±":6031,"ĠÙģÙĨÙĦØ§ÙĨØ¯":6032,"ĠÙħÙĪØ³ÙĪÛĮ":6033,"ĠØ®Ø§ÙĦØµ":6034,"ĠØ¨Ø¯ÙĩØ¯":6035,"ĠØºÛĮØ±Ùħ":6036,"ĠØ¢Ø°Ø±Ø¨Ø§ÛĮØ¬Ø§ÙĨÛĮ":6037,"ĠØ³Ø§Ø®ØªÙħØ§ÙĨÛĮ":6038,"ĠÚ¯ÛĮØªØ§Ø±":6039,"ĠØ±Ø³ÛĮØ¯ÙĨØ¯":6040,"ĠØ¹ÙĪØ§Ø±":6041,"Ú©ÙĨÙĩ":6042,"ÙĦÛĮÙĦÛĮ":6043,"ĠÙĤØµØ±":6044,"ĠÙĪØ³ÛĮØ¹ÛĮ":6045,"ĠØ§Ø®Ø±Ø§Ø¬":6046,"ĠÚĨÙĪØ¨ÛĮ":6047,"ĠÙĪØ¸Ø§ÛĮÙģ":6048,"ĠØ¬Ú©":6049,"ĠØ§Ø«Ø±Ø§Øª":6050,"ÙģÙĪØ±":6051,"ĠÛ¹Û¶":6052,"ĠØ®ÙĪØ±Ø¯Ùĩ":6053,"ĠØ¢ÙĦÙĨ":6054,",\"":6055,"ĠÛĮØ§ÙģØªÙĨØ¯":6056,"ĠØ´Ø§Ø¹Ø±Ø§ÙĨ":6057,"Ø§Ø¨ÙĨ":6058,"ive":6059,"ĠÛĮØ§Ø²Ø¯Ùĩ":6060,"ĠÙħØ´Ø±ÙĪØ·Ùĩ":6061,"ĠÙħØ·Ø§ÙĦØ¨":6062,"ĠØ§Ø³ÙĦÙĪ":6063,"ĠÙħØ¨ÙĦØº":6064,"ĠÚ©ÙĩÚ¯ÛĮÙĦÙĪÛĮÙĩ":6065,"ĠÛ±Û³Û¹Û·":6066,"ĠØ¨Ø§Ø²ÛĮÚ¯Ø±Ø§ÙĨÛĮ":6067,"ĠÚ©ÙĪØ§ÙĨØª":6068,"ĠØ´Ø§Ù¾ÙĪØ±":6069,"ĠÛ±Û³Û¹Û±":6070,"ĠØªØ±Ø´":6071,"ĠÙĨØ§ÚĨ":6072,"Ú©ÙĨÙĨØ¯Ú¯ÛĮ":6073,"ĠØ¢Ø´ÙĨØ§ÛĮÛĮ":6074,"Ø³ÛĮØ±ÛĮ":6075,"Ø§ÙĦÛĮØ³Øª":6076,"ĠØ¹ÙĦØ§Ø¦Ùħ":6077,"ÛĮØ±Ø§":6078,"ĠÙ¾Ø±ÙĪØªÚ©ÙĦ":6079,"ĠÙħØºØ²ÛĮ":6080,"ĠØ¯Ø´":6081,"ĠØ¨Ø±Ø¯Ø§Ø±ÛĮ":6082,"19":6083,"ĠÙĨÙĩÙħÛĮÙĨ":6084,"ĠÙĩØ±Ø§Øª":6085,"ĠÚ©ÛĮÙĨÚ¯":6086,"ĠÙ¾ÙĪ":6087,"ĠØ¯ÙĪÚ©":6088,"access":6089,"ĠÙĨØ§Ø´ÙĨ":6090,"ĠÚ¯ÙĦÙĪÙĦÙĩ":6091,"ĠØ³Ø±ÙĪØ¯Ùĩ":6092,"ĠÙģØ±ÙĤÙĩ":6093,"ĠÙ¾ÙĪØ´ÛĮØ¯Ùĩ":6094,"Ø§ØºÙĩ":6095,"ĠÛ±Û¹Û·Û±":6096,"ĠØ´ÙĦÛĮÚ©":6097,"ĠÛ±Û¹Û³Û°":6098,"ØªØ§Ø±ÛĮØ®":6099,"ĠØ´ÛĮÙĦÛĮ":6100,"ĠÚ©Ø§ÙĪØ´":6101,"ĠÛ¹Û²":6102,"ĠÙĩØ§Ùģ":6103,"ĠÙ¾Ø±Ø³Ù¾":6104,"ĠÙħØ¹ÙĦÙĪÙħ":6105,"ĠÚ©ÛĮØª":6106,"ÙĪØªÙĨ":6107,"ÙĪØªØ±ÛĮ":6108,"ĠØ³ÙĦÙĪÙĦÛĮ":6109,"ĠÛ³Û³Û":6110,"ĠØ®ÙĦØ§":6111,"ĠÙħØ§ÙĨÛĮ":6112,"ĠØ§ÙĨØ¹":6113,"Ø±Ø¯Ú¯ÛĮ":6114,"ĠÙĨØ¬Ùģ":6115,"ĠÙĤÙĪÙħÛĮ":6116,"ĠÙģÙĦØ³ÙģÛĮ":6117,"ØªÚ©":6118,"ĠÙĦÙĨ":6119,"ĠØ¨Ø§Ø±ÛĮ":6120,"ĠØ´ÙĪÙĩØ±":6121,"Ġh":6122,"ĠØªØ±Ø¬ÛĮ":6123,"ĠØ§Ø³ØªØ±Ø§ØªÚĺÛĮ":6124,"ĠØªÚ©ÛĮÙĩ":6125,"ĠØ´ÛĮØ±Ø§Ø²ÛĮ":6126,"ĠØ³Ø±ÚĨØ´ÙħÙĩ":6127,"ĠØªÙĪÙĦÛĮØ¯ÛĮ":6128,"ĠÙĨØ¸Ùħ":6129,"ÚĺÛĮÚ©ÛĮ":6130,"ĠÙħØªØ§ÙĦ":6131,"ĠÛµÛ¶":6132,"ĠÙĩØ±ÙħØ²Ú¯Ø§ÙĨ":6133,"ÙĪÙĩØ§":6134,"ĠØ±ÙĪØ²ÛĮ":6135,"ĠÙħÚ©Ø§ÙĨÛĮÚ©":6136,"Ú¯Ø°Ø§Ø±Ø§ÙĨ":6137,"ĠØ³ÙĪÙĦ":6138,"Ø§ÙħÙĦÛĮ":6139,"ĠØªÙĨÙĩØ§ÛĮÛĮ":6140,"ĠÛ±Û¹Û´Û°":6141,"ĠØ´ÙģØ§Ùģ":6142,"Ù¾Ø§ÙĦ":6143,"Ø²Ø§ÛĮÛĮ":6144,"ĠØ±Ø¤":6145,"ĠÚ¯Ø³Øª":6146,"ĠØ¯ÙĩÛĮ":6147,"ĠØªÙģÚ©":6148,"ĠÙ¾Ø§Ø±ÚĨÙĩ":6149,"ĠÙħÙĪØ¶":6150,"ĠØªØ¬Ø§ÙĪØ²":6151,"ĠÚ©Ø§ÙĦØ§":6152,"ĠØ§Ø´Ú©Ø§ÙĨÛĮØ§ÙĨ":6153,"\".":6154,"ĠÚ©Ø§Ø±Ú©ÙĨØ§ÙĨ":6155,"ĠØ²ÙĨÚ¯":6156,"ĠÚĨÙħ":6157,"ĠÙħØ¬Ø±ÛĮ":6158,"ĠØ¹ÙħÙĪÙħ":6159,"Ø·ÙĦ":6160,"ĠÚ©Ø§Ø±Ú¯Ø±":6161,"ĠÙħÙĪØ´":6162,"ÙĪÙĩØ§ÙĨ":6163,"ĠÙĪØ§ÙĤØ¹Ùĩ":6164,"Ø¨ÙĪØ¯Ùĩ":6165,"Û¸Û±":6166,"ĠÙĩÙĨØ¯ÙĪØ³ØªØ§ÙĨ":6167,"Ø§Ø³Ø±ÛĮ":6168,"ĠÙħØ¬Ø§Ø²Ø§Øª":6169,"Ø§ÙģØ²Ø§Ø±ÛĮ":6170,"Ø²Ø§Ø³":6171,"ØŃÙĤ":6172,"Ø²ÛĮØ³Øª":6173,"ĠØ²ÛĮØ¨Ø§ÛĮ":6174,"ĠØ³Ø§ÙĪØª":6175,"ĠÙħÛĮÙĦØ§ÙĨ":6176,"ĠÛ±ÛµÛ°":6177,"ĠØ´ÙĪØ§ÙĩØ¯":6178,"ĠØ§Ø¨Ø²Ø§Ø±ÙĩØ§ÛĮ":6179,"ĠÚ©ÙħØ±Ø¨ÙĨØ¯":6180,"ĠØ¬Ø§Ø±ÛĮ":6181,"ĠÙĤÙģÙĤØ§Ø²":6182,"ĠØ·Ø§ÙĤ":6183,"ĠÙĨØ³Ø¨ÛĮ":6184,"ĠØªÙĩØ§Ø¬":6185,"Ø§ÚĨÛĮ":6186,"ĠÛ±Û¹Û¶Û¹":6187,"ĠØ¨Ø§Ø²Ø±Ú¯Ø§ÙĨ":6188,"ĠÛ±Û¹Û¶Û´":6189,"ĠÙģØ±Ú©Ø§ÙĨØ³":6190,"ĠÚ©ÛĮÙĩ":6191,"Ø¨Ø§Ø±Ø§ÙĨ":6192,"Ø§Ø¯ÙĩØ§":6193,"ĠØ¯Ø§ÙĨØ´Ø¬ÙĪ":6194,"ĠØ¬Ø§Ø°Ø¨Ùĩ":6195,"Ø²Ø§Ø¨":6196,"ĠÙħÙĩØ§Ø¬Ùħ":6197,"):":6198,"ĠØªØŃÙħÙĦ":6199,"ĠÙĪÛĮØ±Ø§ÛĮØ´":6200,"Ø³ÙĪØ³":6201,"ĠØ¢ÙĨØ²ÛĮÙħ":6202,"Ø§Ø¯Ø§Øª":6203,"ĠØ´ÛĮÚ©":6204,"ain":6205,"Ø§Ø·ÛĮ":6206,"Ø¢ÙħÙĪØ²":6207,"10":6208,"ĠØªÙĪØ§ÙĨØ³ØªÙĩ":6209,"Ù¾Ø²Ø´Ú©":6210,"ĠÙħØ®Ø§ÙĦÙģØ§ÙĨ":6211,"Ø§Ø¨Ø§Ø¯":6212,"ĠÙĦÛĮØ¨Ø±":6213,"ĠØŃØ¨ÛĮ":6214,"ĠØ¢Ø¨Ø±":6215,"Ø´ÙĩØ±Ø³ØªØ§ÙĨ":6216,"ĠÙĩØ§ÙĦÛĮ":6217,"our":6218,"ĠØ¨Ø±Ùĩ":6219,"ÛĮÙĦÙĨØ¯":6220,"accessed":6221,"ĠØªØ³ÙĦØ·":6222,"ĠÙħØ¹Ø§ÙĨÛĮ":6223,"Ø·ÙĪØ±Ùĩ":6224,"ĠØªÙģÙĨÚ¯":6225,"ĠÙħØ±ØªØ¶ÛĮ":6226,"ĠØ¨ÙĩØ´Øª":6227,"ĠÙħØ±Ø§Øª":6228,"ÙĪÙģØ±":6229,"ĠØ¢ÚĺØ§ÙĨØ³":6230,"ĠØ¨ÙĦØ§Ùģ":6231,"ĠÙħØ®Ø§Ø¨Ø±":6232,"ĠÙħØ¨Ø§Ø±Ø²":6233,"ĠÚ¯Ø§Ø±Ø¯":6234,"ĠÙħÙĩØ§Ø±":6235,"ĠÙĩØ§Ùħ":6236,"ĠØ§ØªÙĪØ¨":6237,"ĠÛ±Û±Û°":6238,"ĠØ¢ÙģØªØ§Ø¨":6239,"ĠØ§ÛĮÙĦØ§Ùħ":6240,"ÙĩØ±Ø§":6241,"ÙĪÛĮÚ©":6242,"ĠØ¹Ø§ÙĦÙħ":6243,"Ø§Ø±ÙĩØ§":6244,"ÚĨØ§ÙĦ":6245,"ØµÙĦÛĮ":6246,"ĠÙĨÙĩØ§Ø¯Ùĩ":6247,"ĠØ¨ÙĪØª":6248,"Ø§ÙĩÙĪ":6249,"ĠØ¨Ø²Ø±Ú¯Ø±Ø§Ùĩ":6250,"ÙĪÛĮØ¬":6251,"ĠØ³Ø±ÙĪØ±":6252,"ÙĩØ§ÛĮØ´Ø§ÙĨ":6253,"ĠØ¦":6254,"Ø§ÛĮÙĦÛĮ":6255,"ton":6256,"ĠÙĪÛĮØ±Ø¬ÛĮÙĨÛĮ":6257,"ÙħÙĪØ±":6258,"ĠÙĦÙĩØ¬Ùĩ":6259,"ĠØ¯Ú©ØªØ±ÛĮ":6260,"ĠØªØ¨ÙĦÛĮØºØ§Øª":6261,"ĠÙħØŃØ±Ùħ":6262,"ĠØ¶ÙĦØ¹":6263,"ĠØ¯Ø®Ø§ÙĦØª":6264,"Ø§Ø³Ùĩ":6265,"ĠÛ±Û¹Û¶Û·":6266,"ĠÙģÚ©Ø±ÛĮ":6267,"ĠÙħØŃØª":6268,"ĠÙħÙĨØŃØµØ±":6269,"ĠÙĦØ¦ÙĪÙĨ":6270,"ĠÙĩÙĪØ´ÙħÙĨØ¯":6271,"ĠÚ¯ÙĪÚ¯ÙĦ":6272,"ĠØµØ®Ø±Ùĩ":6273,"ĠØ®ÙĦØ§ÙģØª":6274,"ĠØ¯Ø¨ÙĦÛĮ":6275,"Ø²ÙĪÙĨ":6276,"ĠØ¨Ø±Ø§ÙĨ":6277,"ĠØ§Ø³ÙħÛĮØª":6278,"ĠÙħØ¹Ø§ÙħÙĦÙĩ":6279,"ĠÚ©Ø¨ÛĮØ±":6280,"Ø§Ø³ØªØ±":6281,"ĠÛ±Û¸Û±Û":6282,"ĠØ³ÙĨØ¯ÛĮ":6283,"ĠØ±ÙĨ":6284,"ĠÙħÙĨØ¸Ùħ":6285,"ĠÙħÙĤØ¨Ø±Ùĩ":6286,"ÙħÙĪÙĦ":6287,"ĠÙĦØºØª":6288,"ĠÙĨÙĪÛĮ":6289,"ĠØªÙĨÙĪØ¹":6290,"ĠØ¢ÙĪØ±Ø¯ÙĨØ¯":6291,"ÛĮØªØ§ÙĨ":6292,"ĠØ´ÙħØ´ÛĮØ±":6293,"ĠØ¬ÙĨÚ¯ÙĨØ¯Ùĩ":6294,"ĠØ§ÙĨÛĮÙħÛĮØ´ÙĨ":6295,"ĠØ§Ø³ØªØŃÚ©Ø§Ùħ":6296,"ĠØ³ÛĮØ§Ø³ØªÙħØ¯Ø§Ø±":6297,"ĠØªØ±Ø§Ú©Ùħ":6298,"ĠÙħØ§ÙĩÛĮÚĨÙĩ":6299,"Ø¢ÙħÙĪ":6300,"Ø§Ø´ÙĨ":6301,"ĠØ²ÛĮØ§Ø±Øª":6302,"ĠÙħÙĨØµÙĪØ±":6303,"ĠÙħØ§ÛĮÚ©Ø±ÙĪØ³Ø§ÙģØª":6304,"ĠÚ©Ø´ØªÙĨ":6305,"ÙĦØ¯":6306,"ĠÙħÙĤØ¯ÙħØ§ØªÛĮ":6307,"ĠØ¯ÙĪØ³ØªÛĮ":6308,"ĠØ´Ø·Ø±":6309,"ĠØ¹ÙĤÙĦ":6310,"ĠÙħØ¬ÙĩØ²":6311,"ĠØ¨Ø§Ø²ØªØ§Ø¨":6312,"ÛĮÙĨÚ¯ØªÙĪÙĨ":6313,"ĠØĽ":6314,"ĠØŃØ§ÙĦÛĮÚ©Ùĩ":6315,"ĠØªØ§Ø¬ÛĮÚ©Ø³ØªØ§ÙĨ":6316,"ÙĪÛĮÙĪ":6317,"</":6318,")\"":6319,"ĠØ¹ÙĪØ§Ø±Ø¶":6320,"Ú¯Ø±Ø§ÛĮØ§ÙĨ":6321,"ĠÙħØ±Ø¯Ùĩ":6322,"ran":6323,"ĠØ³Ø±Ù¾Ø±Ø³ØªÛĮ":6324,"ah":6325,"Ø¯Ø±Ùĩ":6326,"ĠØ¨Ø±Ø³Ø§ÙĨØ¯":6327,"ĠØ¹ÙħÙĦÛĮØ§ØªÛĮ":6328,"ÙĪØ§Ø¯":6329,"ĠÙ¾ÙĪÙĦÛĮ":6330,"ĠØŃÚ©ÙĪÙħØªÛĮ":6331,"Ø§Ø±ÛĮØ§ÙĨ":6332,"ĠÙħØªØ¯Ø§ÙĪÙĦ":6333,"ĠÚ©ÙĦÙħØ§Øª":6334,"ĠØ¨Ø³ØªØ±":6335,"ĠÚ©ÙĪÙ¾":6336,"Ø¨Ø§ÛĮÛĮ":6337,"ĠÚ¯Ø±Ø¨Ùĩ":6338,"Ú©Ø±Ùĩ":6339,"ĠÛ¸Û²":6340,"ĠØ§Ø³ØªØ§ÙĨØ¨ÙĪÙĦ":6341,"ong":6342,"ĠØ§Ø¨Ø¯Ø§Ø¹":6343,"ØªÙĩÛĮ":6344,"ĠÙħÙģØ§ÙĩÛĮÙħ":6345,"Ù¾Ø°ÛĮØ±Ø¯":6346,"ĠÙĩÙħØ³Ø§ÛĮÙĩ":6347,"ĠØ¹ØµØ¨":6348,"ĠØ¨ØªÙĪØ§ÙĨÙĨØ¯":6349,"Ù¾ÛĮÙħ":6350,"ĠÙħÙĨØ·ÙĤÛĮ":6351,"nowiki":6352,"ÙĪÚ©Ø§Ø±":6353,"ĠØµÙĪØªÛĮ":6354,"ÙĪØªØ§ÛĮ":6355,"ĠØ¢ÛĮÙĪÙĪØ§":6356,"Ø±Ø¯ÙĨ":6357,"ĠØ§Ø®Ø¨Ø§Ø±":6358,"ĠØªÙĪÙĦÛĮØ¯Ú©ÙĨÙĨØ¯Ùĩ":6359,"ĠÙĪÛĮØ±Ø¬ÛĮÙĨÛĮØ§ÛĮ":6360,"ĠÚĨÙĦ":6361,"ĠØ¬ÙĪØ§ÙħØ¹":6362,"ĠØ±ÙĪÙħØ§ÙĨÛĮ":6363,"ĠÚ©ØªØ¨":6364,"ĠÙ¾Ø³Ø±Ø§ÙĨ":6365,"ĠÚ©ÙĩÚ©Ø´Ø§ÙĨ":6366,"Ø³Ø§ÙĨØ§ÙĨ":6367,"ro":6368,"Ùī":6369,"ĠØŃØ³ÛĮÙĨÛĮ":6370,"ĠÙħØ³ÛĮØŃÛĮØ§ÙĨ":6371,"te":6372,"Ġ\"\"":6373,"Ø¶ÙĦ":6374,"ĠØ³ÙĦØ§Ùħ":6375,"ĠØ´Ú©ÙĦÛĮ":6376,"ĠØ¨Ø±ÙĨØ¬":6377,"ĠØ¬ÙħÙĩÙĪØ±":6378,"ĠÙĨÚ¯Ø§Ø±":6379,"ĠÙĨÛĮØ§Ø²ÙħÙĨØ¯":6380,"ĠÚ¯ÙĪÛĮÙĨØ¯":6381,"ĠØ´Ú©ÙĨØ¬Ùĩ":6382,"ĠÙĩØ§ÙĪ":6383,"Ø±ÙĪØ³":6384,"ĠÛµÛ´":6385,"ĠØ¬ÙħØ´ÛĮØ¯":6386,"ØªÙħØ¹":6387,"ĠØ±ÙģØ¹":6388,"ĠØ§Ø²Ø§ÛĮ":6389,"ĠØ¢ÙĨÚ¯Ø§Ùĩ":6390,"ĠØ§Ø¬Ø¨Ø§Ø±ÛĮ":6391,"ÙĨØ§ÛĮÛĮ":6392,"\"Â»":6393,"ud":6394,"ĠÙĩÙĪØ§Ø¯":6395,"ĠÙģØ±Ø´":6396,"ĠØ²Ø®ÙħÛĮ":6397,"Ø§ÙĦÛĮÙĨ":6398,"ne":6399,"ĠØ³Ø§Ø¹":6400,"ĠÙģØ±ÙħØ§ÙĨØ±ÙĪØ§ÛĮÛĮ":6401,"Ø±ÙĪÛĮÛĮ":6402,"ĠØ§Ø´ØªØ±Ø§Ú©":6403,"ĠÙĦÙĪØ±":6404,"ĠØ¯Ø³ØªÚ¯ÛĮØ±ÛĮ":6405,"ĠÙģØ±ÙĪØ´Ú¯Ø§Ùĩ":6406,"Ø®ØªØ±ÛĮ":6407,"ĠØªÙĪÙĦ":6408,"ĠØ¯Ø±Ø¢ÙħØ¯Ùĩ":6409,"ÙĦØ§ÛĮ":6410,"ĠØ§Ø³ÙĦØŃÙĩ":6411,"ĠÚ©Ø§ÙħÛĮ":6412,"ĠØ¯ÙĩØ§ÙĨ":6413,"Û¶Û·":6414,"ÙĩØ§ÛĮÙĪ":6415,"ĠÛ¹Û·":6416,"ĠÚĨÙĨ":6417,"ĠØªØŃØµÛĮÙĦÛĮ":6418,"ÙħÚ©":6419,"ĠØ®ÙĦØ¨Ø§ÙĨ":6420,"ĠÙĨÚĺ":6421,"ĠÙħØŃØªÙĪØ§ÛĮ":6422,"Ø§ÙĨØ²Ø§Ø³":6423,"ĠÙħÙĩÙħØ§ÙĨ":6424,"ĠÙħØŃØ¨ÙĪØ¨ÛĮØª":6425,"ĠØ§Ø°":6426,"Ø§ÙģÙĦ":6427,"ĠØ¯Ø´ÙĪØ§Ø±":6428,"Ø§Ø³ÙĪ":6429,"ĠÙ¾Ø§Ø¯Ø´Ø§ÙĩØ§ÙĨ":6430,"ĠØ§Ø³ØªØ«":6431,"ĠÙĤØ§ÙĦÛĮ":6432,"ĠØ³ÙĪØ³ÛĮØ§ÙĦÛĮØ³ØªÛĮ":6433,"ĠØ±Ø§Ø²":6434,"ĠØ§ÙĨÙģØ¬Ø§Ø±":6435,"ĠÛ±Û¹Û´Û²":6436,"ĠØ¢ÙĨØ¬ÙĦØ³":6437,"ĠØ³ÛĮØ§":6438,"ĠÙ¾Ø±ÙĪÛĮØ²":6439,"ĠØ³Ø§Ø²ÙħØ§ÙĨÛĮ":6440,"ØŃÙħ":6441,"ĠØ§ØŃØ²Ø§Ø¨":6442,"ĠÙ¾Ø§Ø±Ø§ÙħØªØ±":6443,"ĠØ¨Ø§ÙĦØ§Ø®":6444,"ĠØ¸Ø§ÙĩØ±Ø§":6445,"ĠÚ©ÙħØ§ÙĨ":6446,"ĠÙħÙĬ":6447,"ĠÛĮÙĪØªÛĮ":6448,"ĠØ°ÙĪØ¨":6449,"ĠÙħØ±Ø¬Ø¹":6450,"ĠØªØŃØ±ÛĮÙħ":6451,"ĠÙĩÛĮÙ¾":6452,"ĠØ³ÙĪØ±Ø§Ø®":6453,"ĠÙĨØ´ÙĪØ¯":6454,"ĠÛ´Û²":6455,"ĠÛ±Û¹Û´Û±":6456,"ĠØ¹Ø¯Ø§ÙĦØª":6457,"ĠÙĦÙĪØ¦ÛĮØ³":6458,"ØªØ±ÙĪ":6459,"ĠÙħØŃØ±ÙĪÙħ":6460,"ĠØ¶Ø¹Ùģ":6461,"ĠÛ±Û°Û°Û°":6462,"ĠÙħØ¯ÛĮØ±Ø§ÙĨ":6463,"ĠÙĦØºÙĪ":6464,"ect":6465,"ĠÙ¾Ø±Ø³Ù¾ÙĪÙĦÛĮØ³":6466,"ĠÙħÙĩØ±Ùĩ":6467,"ĠØ§Ø³ØªØ§Ø¯Ø§ÙĨ":6468,"13":6469,"ÙģØ§Ø±":6470,"ĠØ¨Ø±ÙĪÚ©":6471,"ÛĮÙĦÙĩ":6472,"ĠØ¯Ø±ØŃ":6473,"ĠÙĨØ§ÙĨÙĪ":6474,"ĠÚĨØ§ÙĦØ´":6475,"ĠØªØ¹ÙĤÛĮØ¨":6476,"ĠØ§Ø³Ø·ÙĪØ±Ùĩ":6477,"ĠØªØ²Ø±ÛĮÙĤ":6478,"ĠØ³Ø§Ø±ÛĮ":6479,"Ø¯ÙĩÙħÛĮÙĨ":6480,"ĠÙ¾ÛĮØ¯Ø§ÛĮØ´":6481,"Ø§Ø¶ÙĦ":6482,"ĠØ²ÛĮØ±Ø²ÙħÛĮÙĨ":6483,"ĠÙĪÙĦØ³":6484,"ĠÙħØ±Ø§Ú©Ø´":6485,"ĠÙĩÛĮØ¯Ø±ÙĪÚĺÙĨ":6486,"ĠØ¯ÛĮÙ¾ÙĦÙħØ§Øª":6487,"ĠØªÙĪÛĮ":6488,"ĠØªØ±ÛĮÙĨ":6489,"ĠØªØ³Ø®ÛĮØ±":6490,"ĠØ¢Ø«Ø§Ø±ÛĮ":6491,"ÛĮØªØ³Ùĩ":6492,"Ø§ÙĦÛĮÙĩ":6493,"Û±Û¹Û·":6494,"ĠØ§Ø±Ø¯ÙĪÚ¯Ø§Ùĩ":6495,"ĠØ¨Ú¯ÛĮØ±ÙĨØ¯":6496,"ĠÙ¾ÛĮØ±ÙĪÛĮ":6497,"ĠØ®Ø¨Ø±Ú¯Ø²Ø§Ø±ÛĮ":6498,"ĠØ±Ùģ":6499,"ĠØªØ¸Ø§ÙĩØ±Ø§Øª":6500,"ĠØªØ±Ø§Ø´":6501,"ĠØ¢ÙĦÙĪØ¯Ú¯ÛĮ":6502,"ĠØ®ÙĦØ§ØµÙĩ":6503,"ĠØ´ØªØ§Ø¨":6504,"ĠÙĤØ²Ø§ÙĤ":6505,"ĠØ§ÙħØ§ÙĨ":6506,"ØªÛĮÙĪ":6507,"ĠØ±ÙĪÙĨÙĤ":6508,"ÙĪØ¢":6509,"ĠÛ¸Û¶":6510,"ÛĮÙħÙĩ":6511,"ĠÙħÙĪØ¬ÙĪØ¯Ø§Øª":6512,"ĠØ¨ÙĪÛĮØ±Ø§ØŃÙħØ¯":6513,"ĠØ¨ÙĦØ§ÙģØ§ØµÙĦÙĩ":6514,"Ø¨Ø±Ø¯Ø§Ø±":6515,"ĠÛ±Û³Û¸Û·":6516,"Ø²ÙĦÛĮ":6517,"ĠØ§ÙĨØ¨Ø§Ø±":6518,"Ø³Ú©ÙĪÙ¾":6519,"ĠÙħØ§ØªØ±ÛĮØ³":6520,"12":6521,"ĠÚ©Ø§Ø±Ø§ÛĮÛĮ":6522,"ĠØ¢Ø¯Ø§Ùħ":6523,"ĠØ¶Ø±ÛĮØ¨":6524,"ĠØ¯Ø³ØªÛĮØ§Ø¨ÛĮ":6525,"ĠÙħÙĨØ¯":6526,"ĠØ¨Ø±Ú©ÙĨ":6527,"ĠÙĨÚ¯ÙĩØ¨Ø§ÙĨ":6528,"ĠØ§Ø±ÙħÙĨÛĮØ§ÙĨ":6529,"Ú©ÙĪÙĦÛĮ":6530,"Ø§ÛĮÙĨØ¯":6531,"Û¶Û´":6532,"ĠÙ¾Ø±ÙģØ±ÙĪØ´":6533,"ĠÙĪØ§ÛĮØª":6534,"ĠØ§ÛĮØ§ÙĦØªÛĮ":6535,"ĠØªÚ©Ùĩ":6536,"ĠÙ¾Ø§ÙĨØµØ¯":6537,"ĠØ³Ø±Ø§Ø³Ø±ÛĮ":6538,"ĠØ§Ø¨Ø±ÛĮ":6539,"ĠÙģØ§Ø·ÙħÙĩ":6540,"ĠØ´Ø·Ø±ÙĨØ¬":6541,"ĠÚĨÙħÙĨ":6542,"ĠÛ±Û¹Û´Û¸":6543,"ĠØ®Ø§Ú©Ø³ØªØ±ÛĮ":6544,"ĠØ²ÛĮØ±ÙħØ¬ÙħÙĪØ¹Ùĩ":6545,"ÙĪÛĮÚĺÙĩ":6546,"ĠÙĨÙģØ±Ùĩ":6547,"ĠÙħØªØ±Ø¬Ùħ":6548,"ĠÙħÙĨØ§Ø³Ø¨ÛĮ":6549,"Ø±Ø³Ø§ÙĨÛĮ":6550,"ĠØ´Ú©Ø³ØªÙĩ":6551,"ĠØ±ÙģØªÙĨØ¯":6552,"Ú¯Ø°Ø§Ø±ÙĨØ¯":6553,"ĠÙģÙĩÙħ":6554,"ĠØ¨Ø±Ø´":6555,"Ø§Ø³Ø§Ø²ÛĮ":6556,"ĠÙĩØ²Ø§Ø±Ø§ÙĨ":6557,"anton":6558,"ÙĪØ³Ùĩ":6559,"ĠÚ©Ø±Ú©":6560,"Ø§ÙĦÙĨ":6561,"ĠÛ¸Û´":6562,"Ø§ÙĦØ¹ÙħÙĦ":6563,"ĠØ·ÙĦØ¨":6564,"ĠØ³ÛĮØµØ¯":6565,"Ø²Ø±Ø¹Ùĩ":6566,"ĠØ§Ø´ØªØºØ§ÙĦ":6567,"ĠØ¢Ø±Ùħ":6568,"ĠØ®Ø²Ø±":6569,"ÙģØ±Ø³Øª":6570,"ĠÙģÛĮÙĦØªØ±":6571,"Ú©ÙĦØ§Ùĩ":6572,"ĠÚĨØ§Ø±ÚĨÙĪØ¨":6573,"ĠÙ¾Ø§ÛĮÛĮ":6574,"ÛĮØ±Ø§ÙĨ":6575,"ĠØ±ÙĪÛĮÚ©Ø±Ø¯":6576,"ĠØ´Ø§Ø¯":6577,"ÛĮØªÙĪ":6578,"ĠÙĤØ·Ø§Ø±":6579,"ĠÙ¾Øª":6580,"ĠØ¬Ø§Ø¯":6581,"ĠØ²Ø±Ùĩ":6582,"ĠÙģØ±Ø§Ø²":6583,"ĠØ¯ÛĮÙĪØ§Ø±Ùĩ":6584,"ĠØªÙĦÙģØ¸":6585,"ĠØ¬Ø±ÛĮ":6586,"ĠÙĨØ§ØµØ±Ø§ÙĦØ¯ÛĮÙĨ":6587,"Ġx":6588,"ĠØªØ¹ÙħÛĮØ±":6589,"ĠÙħÚ©ÙħÙĦ":6590,"ĠØ§ÙĪÙĩØ§ÛĮÙĪ":6591,"ÙĤØ±Ø§Ø±ÛĮ":6592,"ĠØ¬ÙĨÚ¯ÙĦÛĮ":6593,"ĠØ´Ø¨Ø§ÙĨÙĩ":6594,"Ø´ÙĪØ±":6595,"Ø®Ø§ÙĨÛĮ":6596,"ĠÙħØ´ÙĩÙĪØ±ØªØ±ÛĮÙĨ":6597,"se":6598,"ĠÙ¾ÛĮÚ©Ø±":6599,"ate":6600,"ÙĨÙħØ§":6601,"Ø¯Ø´Øª":6602,"ĠÙħØŃÙĤÙĤØ§ÙĨ":6603,"Ø¯ÙĩØ³ØªØ§ÙĨ":6604,"ĠÛ±Û¸Û³Û":6605,"ĠØ§ÙĨØªÙĤØ§Ùħ":6606,"ĠØ³ØŃ":6607,"ĠÙħØ¬ØªÙħØ¹":6608,"ĠÙĦØ¨Ùĩ":6609,"ĠØ¯Ø¨ÛĮ":6610,"Ø§ÙĨÚ©Ø§":6611,"ĠÙħØªÙħØ§ÛĮ":6612,"ĠØ§ÛĮÙĨØ¯ÛĮØ§ÙĨØ§":6613,"ÙĪØ³Ø§":6614,"ĠØ´Ø§ÛĮØ¹":6615,"Ø¯ÙĪÙĨ":6616,"ĠØ±ÙĪØ´ÛĮ":6617,"ĠØ¯ÙĩØ³ØªØ§ÙĨÛĮ":6618,"Ø®Ø¯Ø§":6619,"ĠØ¨Ú©":6620,"ĠØ§ÙĪØ±Ø´":6621,"ĠÙĤØ§Ø³Ùħ":6622,"ÙĪÙħØªØ±":6623,"ĠÚ¯ÛĮØ±ÛĮ":6624,"ĠÙĪØŃØ¯Øª":6625,"ĠÙģØ±Ø§ÛĮÙĨØ¯ÙĩØ§ÛĮ":6626,"ĠØ§Ø²Ø¨Ú©":6627,"ÙĪØ¬Ø±Ø³ÛĮ":6628,"ĠØ§Ø³ØªØ§Ø¯ÛĮ":6629,"ĠØ³Ø§ÙĪ":6630,"ĠØ¢Ø±ÛĮØ²":6631,"ÙħØ´":6632,"ĠÙħÛĮØ´ÛĮ":6633,"Ø¢Ø¨Ø§Ø¯ÛĮ":6634,"ĠØ¨Ø±Ú¯Ø²":6635,"ĠÙħØµØ§ÙĦØŃ":6636,"ĠØ¢ÙģØ±ÛĮÙĤØ§ÛĮÛĮ":6637,"ĠØ§ÙĪØ±Ø§ÙĤ":6638,"ĠÙħÙĨØ´Ø£":6639,"ĠÙħØ±ÛĮÙħ":6640,"ĠÚ©Ø§Ø±Ø¨Ø±ÛĮ":6641,"Ø§ÙĦÙħÙĦÚ©":6642,"ĠØµÙģØŃØ§Øª":6643,"ĠØ®Ø¯Ø§ÛĮØ§ÙĨ":6644,"ĠØ§Ø¦ØªÙĦ":6645,"ĠQ":6646,"ĠØ´ÙħØ³":6647,"ĠØ±Ø§Ø³ØªØ§ÛĮ":6648,"ĠÙħÙĨØªÙĩÛĮ":6649,"ĠØ§ÙĨØ¯Ø§Ø²ÛĮ":6650,"ĠØ¢Ø²Ø§Ø±":6651,"ÙĤÙĦØ¹Ùĩ":6652,"ĠØ®ÙĨÚ©":6653,"ĠØ¨Ø§Ø²Ø§Ø±ÛĮ":6654,"ĠÙĨØ§Ø¨ÙĪØ¯ÛĮ":6655,"ĠÛ¸Û·":6656,"ĠÙģØ±Ø³":6657,"ĠØ§ÙĤØªØ¨":6658,"ĠØ§Ø¯Ø¹Ø§ÛĮ":6659,"ĠØ§Ø¹ØªØ±Ø§Ø¶Ø§Øª":6660,"Ø³ÙĨØ¬ÛĮ":6661,"ĠØ¨Ø¹ÙĨÙĪØ§ÙĨ":6662,"ĠØ±Ø³Ùħ":6663,"ĠÙ¾Ø§Ø±Ùĩ":6664,"ÙĨØ¹":6665,"Ø³Ø§ÙĦÙĩ":6666,"ĠØªØ§ÙĨÚ©":6667,"ĠØ¨ÙĦÚ©":6668,"ĠÛĮÙĩÙĪØ¯":6669,"ĠÙĩØ§Ø¯ÛĮ":6670,"ĠØ±ÙĪØ²Ùĩ":6671,"ĠØ¬ÙĪØ±Ø¬ÛĮØ§":6672,"ĠÙħØ¹ÙħØ§Ø±":6673,"ĠØ¹Ø±Ø§ÙĤÛĮ":6674,"ĠÙħØ¯Ø§Ø±Ú©":6675,"ĠÙģØ±Ø§ÙĨØ³":6676,"ina":6677,"pr":6678,"ĠÚ©ÙĪÙĩÛĮ":6679,"ĠÛ±Û¹Û¶Û³":6680,"ĠØ±ÛĮÚ©":6681,"ĠØ§Ø´Ø®Ø§Øµ":6682,"ĠØ³ÙĪØ§ØŃÙĦ":6683,"ast":6684,"ĠØ±Ø¹Ø§ÛĮØª":6685,"ĠÚ©ÛĮØ´":6686,"ĠÙģÛĮÙĦÙħØ¨Ø±Ø¯Ø§Ø±ÛĮ":6687,"ĠÛ¹Û´":6688,"ÙĪØ±Ø¯Ùĩ":6689,"ÛĮØ³Ùħ":6690,"ĠÙĨØ¯Ø§Ø´ØªÙĨØ¯":6691,"Ø§ÙĪÙĨØª":6692,"ĠÙ¾Ø§ÙĨØ²Ø¯Ùĩ":6693,"ĠÙħØ¨Ø§ØŃ":6694,"ĠÙ¾Ø±ÙĪÙģ":6695,"ĠÙĩÙħØ§ÙĩÙĨÚ¯":6696,"ĠÙĤØ§ÛĮÙĤ":6697,"ĠØŃØ¨Ø³":6698,"Ø§ÚĨÙĪØ³Øª":6699,"Ù¾Ø´Øª":6700,"ĠÙ¾ØªØ§ÙĨ":6701,"ĠÙħØŃØ¶":6702,"ĠØ¯ÙĤÛĮÙĤØ§":6703,"ĠÙĨÛĮÙĪØ¬Ø±Ø³ÛĮ":6704,"ĠÙĨÙĪØ²Ø§Ø¯":6705,"ĠÙ¾ÙħÙ¾":6706,"Ø§ÛĮØ´Ú¯Ø§Ùĩ":6707,"ĠÙĪÛĮØ±Ø§ÙĨ":6708,"ĠÙħØ§Ø¯Ø±ÛĮØ¯":6709,"ĠØŃØ§Ú©ÙħÛĮØª":6710,"ĠØªØŃÙĤ":6711,"ĠØ²Ø§ÛĮ":6712,"ĠØ«Ø±ÙĪØª":6713,"ĠØ¨Ø±Ø§ÙĪÙĨ":6714,"ĠØ¨ÙĨØ§ÙĩØ§ÛĮ":6715,"ĠØ¯Ø®ØªØ±ÛĮ":6716,"ĠÚ©Ø§ÙĪ":6717,"ĠÙĨÙħØ§ÛĮØ´ÛĮ":6718,"ĠÙĪÙĪØ¯":6719,"ĠØ´Ø§ÙĩÙĨØ§ÙħÙĩ":6720,"ÙĤØ§ÙĨÙĪÙĨÛĮ":6721,"ĠÛ±Û³Û¸Û¶":6722,"ĠÙĤØ§Ø¹Ø¯Ùĩ":6723,"ĠÙħØ¯Ø±Ø³":6724,"ĠÙ¾ÛĮØ§ÙĨÙĪ":6725,"ĠØªØ§Ø¨Ø´":6726,"Ú¯Ø±Ø§ÙģÛĮ":6727,"ĠØªØ§Øª":6728,"ĠÙ¾ÙĩÙĨ":6729,"ĠÚ©Ø´ÛĮØ¯ÙĨ":6730,"ĠØªÙĪÙħØ§ÙĨ":6731,"ĠØµØ§ÙĦØŃ":6732,"ĠÙħÙĦØ§ØŃ":6733,"Ġ[[":6734,"ĠØªÙĪØ±ÛĮ":6735,"ĠØ¬Ø§ÙĦØ¨":6736,"ĠØµØ¯ÙĪØ±":6737,"ern":6738,"ĠØ¢ÙħÛĮ":6739,"ĠØ¢ÙħØ¯ÙĨØ¯":6740,"ĠÚ©ÙĦÛĮØ¯ÛĮ":6741,"Ġ7":6742,"Ø§ÙģØ²Ø§Ø±ÙĩØ§ÛĮ":6743,"ĠØ¢ÙĦÛĮØ§Úĺ":6744,"ĠØ¹ÙĦÙħÛĮÙĩ":6745,"ĠÚ©ÙĪØ±ÙĪØ´":6746,"ĠÙħÙĦØ§":6747,"ĠØªÙĦÙĤÛĮ":6748,"ĠÛ±Û¹Û¶Û¶":6749,"ĠØ®Ø·Ø±ÙĨØ§Ú©":6750,"ĠÙħÛĮØ´ÛĮÚ¯Ø§ÙĨ":6751,"ÙģØ±ÛĮÙĨÛĮ":6752,"ĠÛĮØ§ÙĨ":6753,"ĠÛ±Û¹Û¶Û²":6754,"ĠØ³ØªØ§Ø±Ú¯Ø§ÙĨ":6755,"ØºØ§ÙĦÛĮ":6756,"ĠØ³ÙĨØ§ÛĮ":6757,"ĠØºØ§ÙĦØ¨":6758,"ĠÙĪÛĮØªÙĨØ§Ùħ":6759,"ĠØ¢Ø³ØªØ§ÙĨÙĩ":6760,"ĠÙħÙĤØ¯ÙħÙĩ":6761,"ĠØŃØ±Ú©Ø§Øª":6762,"ĠØ§ØµÙģÙĩØ§ÙĨÛĮ":6763,"ĠØ§ÙĪØ¯":6764,"ĠØªØ§Ø¨ÙĦ":6765,"ĠÙħØ§Ø³Ø§ÚĨÙĪØ³Øª":6766,"ĠØ§Ø®ØªØµØ§ØµÛĮ":6767,"ĠÙĦÙĪØ¨":6768,"ĠÙħÙĨÚĨØ³ØªØ±":6769,"ĠØ·ÙĨØ²":6770,"ĠÙħÛĮÚ©":6771,"ĠÛ³Û¸":6772,"ÙĦÙĨØ¯ÛĮ":6773,"ĠÙĨØ§Ùĩ":6774,"ĠØ³Ø±ÙĪØ¯":6775,"ĠØ¬ÙħØ¹ÛĮØªÛĮ":6776,"ĠÙ¾Ø±Ø¯Ø§Ø²ÙĨØ¯Ùĩ":6777,"ĠØ®Ø§ØµÛĮØª":6778,"ĠØªÛĮÙ¾":6779,"ĠÙĩÙħØ§ÙĩÙĨÚ¯ÛĮ":6780,"ĠØ¯Ø¨":6781,"ĠØ§Ø³ØªÙĪÙĨ":6782,"ĠØ§Ø¹Ø²Ø§Ùħ":6783,"ÙĤØ¯":6784,"ĠØ³Ø±Øª":6785,"ĠÙĪØ§Ø¬":6786,"Ġ9":6787,"ĠÙħØŃØ±Ú©":6788,"ĠÙĩØ±Ú¯ÙĪÙĨÙĩ":6789,"ĠÙħØ¬Ø§ÙĪØ±":6790,"ĠØ§ÙĪØ±Ø´ÙĦÛĮÙħ":6791,"ĠØ¢Ø±ÛĮ":6792,"ĠÙħÙĤØ¯Ø§Ø±ÛĮ":6793,"Ø¢ÙĪØ±ÙĨØ¯":6794,"Ø§ÙĦØ³":6795,"ĠØ§Ø¬Ø²Ø§ÛĮ":6796,"ĠÙģØª":6797,"ÙĪÚ¯Ø±Ø§ÙģÛĮ":6798,"Ø¶Ø§Ø¹":6799,"ÙĪÚ©Ø±":6800,"ĠÙħÙĪØ§Ø²ÛĮ":6801,"end":6802,"ĠØ¨Ø§Ø±ÛĮÚ©":6803,"ĠØ³ÛĮÙħØ§":6804,"ÙħÛĮÚ©":6805,"ĠØ´ÙĨØ§Ú¯Ø±":6806,"ĠĠĠĠ":6807,"ĠÙĩÙĪØ§Ø¯Ø§Ø±Ø§ÙĨ":6808,"ĠÙħØ§Ø±ÛĮØ§":6809,"Ø¨Ø§Ø®":6810,"ĠÚ©Ø§Ø±Ú¯Ø§Ùĩ":6811,"own":6812,"ĠÚ¯Ø±ÙħØ§":6813,"ÛµÛ·":6814,"ÙĦÛĮØ§":6815,"Ø§Ø¨Ø§ÙĨÛĮ":6816,"ĠØ¢Ø¦":6817,"ĠØ¨Ø§Ø²ÙĨØ´Ø³ØªÙĩ":6818,"Ú©ØªÙĪØ±":6819,"ĠÚĺØ±Ùģ":6820,"ĠØªØ¬ÙħØ¹":6821,"ĠØ¬ÙĨÛĮÙĨ":6822,"ĠØ±ÛĮØ®ØªÙĩ":6823,"ĠØ´ÙĪØ±Ø´ÛĮ":6824,"ĠØ³ÙħÛĮ":6825,"ĠØ§Ø¬ØªÙħØ§Ø¹":6826,"Û±Û¹Û¶":6827,"Ø§ÙĦØ¹Ø§Ø¯Ùĩ":6828,"Ú©Ø±Ø¯ÙĨ":6829,"Ø±Ø®":6830,"Ø¹Ø¯Ùĩ":6831,"Ø³ØªÙĨ":6832,"ĠØªØ¨Ø§Ø±":6833,"ĠÙĨÙģØ³":6834,"ĠØ¨Ø±Ùģ":6835,"ĠÛ±Û²Û°":6836,"ĠÚĺÙĨØªÛĮÚ©ÛĮ":6837,"ĠØ¨ÙĩØ¯Ø§Ø´ØªÛĮ":6838,"ĠÙĪØ¨Ú¯Ø§Ùĩ":6839,"ĠØ¢Ø±ÛĮØ²ÙĪÙĨØ§":6840,"ĠØªÛĮÙħÛĮ":6841,"ĠØ¬ÙĦÙĪÙĩ":6842,"ĠÙ¾Ø±Ø¯Ø§Ø®ØªÙĨØ¯":6843,"Ù¾ÙĪØ³Øª":6844,"ĠØ¹ÙĦÛĮØ±Ø¶Ø§":6845,"ÙĪØ¦ÛĮØ¯":6846,"ĠÙĩØ§ÛĮØ¯":6847,"ĠÙģÛĮÙĦÙħÙĨØ§ÙħÙĩ":6848,"ĠØ§ÙĨÚ¯ÛĮØ²Ùĩ":6849,"ĠØ¬Ø²Ø¦ÛĮØ§Øª":6850,"ĠØ¯Ø§Ø¦ÙħÛĮ":6851,"Ø±Ø¨Ø²Ø±Ú¯":6852,"ĠÛ±Û¹Û¶Ûµ":6853,"ĠÙĨÙĪØ¬ÙĪØ§ÙĨØ§ÙĨ":6854,"Ø¢ÙĪØ±Ø¯Ùĩ":6855,"ĠâĢĶ":6856,"ĠÙħØŃØ§Ø³Ø¨Ø§Øª":6857,"ĠÙĨØ²":6858,"Ø±ÙĪØŃ":6859,"ire":6860,"ÛµÛ¶":6861,"ĠØ¬Ø§ÙĨÙĪØ±":6862,"ĠØªØ¹Ø§ÙħÙĦ":6863,"Ø¨ÙĪØª":6864,"ĠÙĤØ¨Ø§ÛĮÙĦ":6865,"Ø§ÙħÛĮØ¯":6866,"ĠÛ¶Û·":6867,"ĠØ§Ø±Ø§Ø¶ÛĮ":6868,"ĠÛ²Û°Û²":6869,"ĠÙħÙĨØªØ¸":6870,"ĠØ´Ø§Ø±ÙĦ":6871,"ĠØªØ±Ø¬ÛĮØŃ":6872,"ÙĩØ±ÛĮ":6873,"ĠØ§ÙĦØ¯":6874,"ĠØ§Úĺ":6875,"ĠÚ¯Ø±ÙħÛĮ":6876,"ĠÙħØ±Ø§Ø¬Ø¹Ùĩ":6877,"ÛĮØ´ÛĮ":6878,"ĠØ§ÛĮÙħØ§ÙĨ":6879,"ĠØ§ÙĦÚ¯ÙĪÛĮ":6880,"ĠÙħØªÙħØ§ÛĮØ²":6881,"ich":6882,"ĠÙģØ§ÛĮ":6883,"ĠÙ¾Ø´ØªÛĮ":6884,"ĠÙĪÛĮØ¯Ø¦ÙĪ":6885,"ĠØ§Ø³ØªÙĤØ±Ø§Ø±":6886,"Ø¬ÙĪÛĮÛĮ":6887,"ĠÙħØ¹ÙĨØ§":6888,"ĠØ§Ø«Ø±ÛĮ":6889,"ĠÙħÙĪØªÙĪØ±ÙĩØ§ÛĮ":6890,"ĠØ¯Ø§ÙĨÛĮ":6891,"ight":6892,"ĠØ§Ø¹Ùħ":6893,"ĠÚ©Ø§ÙĨØ²Ø§Ø³":6894,"ĠØ§ÙģØ³Ø±":6895,"ÙĪØ¬ÙĪØ¯":6896,"ĠÙĪØ§Ù¾":6897,"ĠØ¢Ø¬Ø±":6898,"ĠÛĮÚ©Ù¾Ø§Ø±ÚĨÙĩ":6899,"ĠÙĪÙĦØ³ÙĪØ§ÙĦÛĮ":6900,"ĠØŃØ§ÙħÙĦ":6901,"Ø¨Ø±ÛĮØ¬":6902,"ĠÛ´Û¸":6903,"ĠØ¹Ø¸":6904,"ĠØ¢ÙĨØ¬Ø§ÛĮÛĮ":6905,"ĠØ¬ÙĪØ§Ø¯":6906,"ĠØ±Ø³ÛĮØ¯Ú¯ÛĮ":6907,"ĠÙ¾ØªØ§ÙĨØ³ÛĮÙĦ":6908,"Ø¯ÙĩØ§ÙĨÙĩ":6909,"Ø§ØªØ³":6910,"ĠÚ©Ø§Ø¨ÛĮÙĨÙĩ":6911,"ĠØ´Ø§ÙĩÛĮÙĨ":6912,"ĠØ¢Ø±Ø²":6913,"ĠØ§ÙĪØ¶Ø§Ø¹":6914,"ÙĦÛĮÚ©":6915,"ĠÚ©ÙĨØ¯ÛĮ":6916,"ĠØ®Ø§ÙħÙĨÙĩ":6917,"ĠØ¢Ø¯Ø±Ø³":6918,"ĠÛ±Û¹ÛµÛ¶":6919,"Ø±Ø§ÙĨØ¯":6920,"ĠØªÙĪØ§ÙĨØ³ØªÙĨØ¯":6921,"ĠÙĤØ±Ø§Ø±Ø¯Ø§Ø¯ÛĮ":6922,"ĠØ§Ù¾ÙĦ":6923,"ÙĪÙĦÙĨ":6924,"ĠØ±Ø§ÙĩÙĨÙħØ§ÛĮÛĮ":6925,"ĠØºÛĮØ±ÙĤØ§ÙĨÙĪÙĨÛĮ":6926,"ont":6927,"ĠØ®ÙĪØ¯Ø±ÙĪÛĮÛĮ":6928,"ĠØ¨Ø¯ÙĦ":6929,"Ø®ÙĪØ¯":6930,"ĠØ´ÙĨÛĮ":6931,"ÙģÛĮÙĤ":6932,"ĠØµØ±ÙģØ§":6933,"ĠÙĪÛĮÚ©ØªÙĪØ±ÛĮØ§":6934,"ØªØ±Ùĩ":6935,"ĠÙħØ¹Ø§ÙĪÙĨØª":6936,"ĠØ§ÙĦÛĮØ²":6937,"ĠØ²Ø±ÛĮÙĨ":6938,"Ø³ØªÛĮÙĨ":6939,"Ø¶Øª":6940,"ÙĪÙħÛĮØª":6941,"ĠØ°ÙĩÙĨÛĮ":6942,"Ø³ÛĮØ§ÙĨ":6943,"ĠÛ±Û³Û¸Û´":6944,"ĠÙĨØ§Ù¾ÙĦ":6945,"Ø¨Ø¯ÛĮ":6946,"ĠØªÙĪØ§ÙĦÛĮ":6947,"ĠÛ±Û¹ÛµÛ¸":6948,"ÚĺØ§ÙĨ":6949,"Ø§Ø±Ø¯ÛĮ":6950,"ĠÙħØ¬Ø§ÙĩØ¯":6951,"ĠØ£":6952,"ary":6953,"20":6954,"ĠÙģÙĦØ²Ø§Øª":6955,"ĠØªÙĨÛĮØ³":6956,"ĠØ±Ø²ÙħÛĮ":6957,"))":6958,"ĠØŃØ±Ùħ":6959,"ĠÙĨÙĪØ±ÙĪØ²":6960,"ÙħØ±Ùĩ":6961,"ĠØ¨Ø±ÙĤØ±Ø§Ø±ÛĮ":6962,"ĠÛĮÙĪÙĨØ³Ú©ÙĪ":6963,"ĠÙĪØµÙĦ":6964,"ĠÚ©ÙĪÛĮØª":6965,"ĠØ³Ù¾Ø±ÛĮ":6966,"ĠØ§Ø¶Ø§ÙģÛĮ":6967,"Ø¨Ø§ÛĮØ³Øª":6968,"ĠØ§Ø³ØªÙĪÙĨÛĮ":6969,"ĠÙ¾ÙĪØ³ØªÙĩ":6970,"ÙħÙĦÚ©":6971,"ĠÙħØ·Ø¨ÙĪ":6972,"ĠÙĩÛĮØªÙĦØ±":6973,"ĠØ¯ÙĪØ´":6974,"ÙĪØªÛĮÚ©":6975,"Ø§Ù¾ÛĮ":6976,"ĠÙħØ§ÙĦØ²ÛĮ":6977,"ĠØ§Ø±ÛĮÚ©":6978,"ĠÛ±Û¹Û±Û¸":6979,"ĠÙħÙĨØ§ÙģØ¹":6980,"ĠØ¯ÛĮÙħ":6981,"ep":6982,"Ú¯Ø²Ø§Ø±":6983,"Ø®ÙĪØ§ÙĩÛĮ":6984,"ĠØ²Ø§Ø¯Ú¯Ø§Ùĩ":6985,"ĠØ³ÙĪØ¦Ø¯ÛĮ":6986,"ĠØ§ÙģÚ©Ø§Ø±":6987,"ĠÛ¶Û¶":6988,"Ġ8":6989,"ĠØ¨ØªÙĪØ§ÙĨ":6990,"ĠØ³ÙĪÙ¾":6991,"ĠØ¨ÙĦÙĪØ±":6992,"ĠØ§Ø±Ø¯ÙĨ":6993,"ÚĨØ³Ø¨":6994,"ĠÙħÛĮØ²ÙĪØ±ÛĮ":6995,"ĠÙĩÙħØª":6996,"ĠØ§ÙĨØªØ®Ø§Ø¨Ø§ØªÛĮ":6997,"ÛµÛ´":6998,"ĠÙħÙĩØ§Ø¬Ø±":6999,"ĠØ¯Ø±ÙĪØº":7000,"ĠØ¹ÙħØ§Ø±Øª":7001,"ĠØ§ÙģØ´Ø§Ø±":7002,"II":7003,"ĠÚ¯ÙħØ§ÙĨ":7004,"ÙĨØªÙĪ":7005,"ĠÙħÛĮØ¨Ø§Ø´Ø¯":7006,"ĠÙħÙĪÙĨÛĮ":7007,"ĠÙĩÙĪÛĮ":7008,"ĠÚ¯Ø´":7009,"ĠØ¯ÙħÙĪÚ©Ø±Ø§ØªÛĮÚ©":7010,"Ø§ÛĮØ³":7011,"ĠØ¨Ø§ÙĦÙĩ":7012,"ĠÚ©ÙĨØªØ§Ú©ÛĮ":7013,"ĠØ´Ø±Ú©":7014,"ĠØ³Ø§Ø®ØªØ§Ø±ÛĮ":7015,"ĠØªØ¹ÙĦÛĮÙħ":7016,"ĠÙħØ²Ø±Ø¹Ùĩ":7017,"ĠØ§Ø³Ø§Ø·":7018,"Ú©ÙĪØ¨":7019,"Ú¯Ø°Ø´Øª":7020,"ĠØ§Ø¨Ø±Ø§Ø²":7021,"ÙģÙĪÙĦ":7022,"ĠÚĨØ±Ø¨ÛĮ":7023,"ĠØ®ØµÙĪØµÛĮØ§Øª":7024,"ĠÙĪØ§ÙĦØ¯ÛĮÙĨ":7025,"ĠØªÙģÚ©Ø±":7026,"ĠØªØ§Ø²":7027,"ĠÚ©Ø§Ø±Ø¢ÙģØ±ÛĮÙĨ":7028,"ĠØ¢ÙħÙĪØ®Øª":7029,"ĠÙĨÚ¯Ø±Ø§ÙĨÛĮ":7030,"ØªØ±Ø§":7031,"ĠÙģØ±ÙħØ§ÙĨØ¯Ø§Ø±":7032,"ĠØ§Ø´ÛĮØ§Ø¡":7033,"ĠÙĨÛĮØ§Ø²ÙĩØ§ÛĮ":7034,"à¤":7035,"Ø³Ú©Ø§":7036,"ĠÙĪØ³Ø·ÛĮ":7037,"ĠØ¹ÙĤØ§ÛĮØ¯":7038,"ïº":7039,"ĠØ§Ø±Ø¬":7040,"ÙħÙĨØ§ÙĨ":7041,"iz":7042,"ĠØ§ÙĨÛĮ":7043,"ĠÙħØ³Ø§Ùģ":7044,"ĠÛĮØ§Ø²Ø¯ÙĩÙħ":7045,"ĠÙĪÛĮØ³Ú©Ø§ÙĨ":7046,"up":7047,"ĠÙħÙĪÙĤØ¹":7048,"ĠÙħØ¹ÙĨÙĪÛĮ":7049,"Ú©Ø¯Ùĩ":7050,"ĠØ¨Ø²Ø±Ú¯Ø³Ø§ÙĦ":7051,"ĠÙĦØ§Ùħ":7052,"ĠØ·Ø¨Ø§Ø·":7053,"Û±Û³Û¹Û":7054,"ĠØ¬Ø°Ø§Ø¨":7055,"ÙĨÙĪØ±":7056,"ĠØ¢ÛĮÙĩ":7057,"ĠØ¨ÙĩØ§Ø¦ÛĮ":7058,"ĠÚ©ÙĦÛĮÙĨ":7059,"ÙĨØ´Ø§ÙĩÛĮ":7060,"Ø§Ø³ØªÙģØ§Ø¯Ùĩ":7061,"ĠCanton":7062,"ĠÚĨØ±Ø§Øº":7063,"ÛĮÙĪÙĨ":7064,"ĠØ±ÙĪØ¨":7065,"Ù¾Ø§ÙĨ":7066,"ĠØ³Ø±ÙĨÙĪØ´Øª":7067,"ĠØ§ÙĨØ¯Ú©":7068,"ĠØªÙģÚ©ÛĮÚ©":7069,"ĠÙħØ§Ø¯ÛĮ":7070,"ĠØ¢Ø±ØªÙĪØ±":7071,"Ø§ØªØŃ":7072,"ĠØ¢ÙĨØ§Øª":7073,"ĠØ§Ø±ØªÙģØ§Ø¹Ø§Øª":7074,"ĠØ§ØŃØªÙħØ§ÙĦÛĮ":7075,"ĠØ®ÙĪØ§ÙĩØ§ÙĨ":7076,"ĠØ¹Ø²ÛĮØ²":7077,"ĠØ¢ØªÙĨ":7078,"Ø¨ÙĪØ±Ø¯":7079,"ĠÛ±Û¹Û¶Û±":7080,"ĠÚ©ÙĪØ§ÙĨØªÙĪÙħÛĮ":7081,"ge":7082,"ĠÚ©Ø§Ø´ÛĮ":7083,"ĠØ§Ú©Ø´ÙĨ":7084,"ĠØªÙĤÙĦÛĮØ¯":7085,"ĠÙģÙĤÛĮÙĩ":7086,"ĠØ§ÙģØ²ÙĪØ¯":7087,"ØŃÛĮÛĮ":7088,"ĠÚ©Ø±Ø§ÙĨÙĩ":7089,"ĠØªØ£Ø«ÛĮØ±Ú¯Ø°Ø§Ø±":7090,"ÙĦÙĨ":7091,"ĠØ¨Ø®ØµÙĪØµ":7092,"ĠÙĤÙĦÛĮ":7093,"ĠØ¯ÙĪØ¨":7094,"ĠÙĪÛĮØ³Ú©Ø§ÙĨØ³ÛĮÙĨ":7095,"Ø³Ø§Ø²ÙĨØ¯":7096,"ĠØªÙĪÙĤÙģ":7097,"Ø§Ú©Ùĩ":7098,"ĠØ®Ø·Ø§Ø¨":7099,"ĠÚ¯ÙĪØ´ÛĮ":7100,"ĠØºØ´":7101,"ĠØ¢ÙĦÙĪÙħÛĮÙĨÛĮ":7102,"Ø¯Ø®":7103,"ĠÙ¾Ø±Ú©":7104,"ĠÙħØ·Ø¨ÙĪØ¹Ø§Øª":7105,"Ø§ÙĦÙģ":7106,"ĠØ±ÙĪØ§ÛĮØ§Øª":7107,"ÙĨØ§ØŃÛĮÙĩ":7108,"Ø§Ø±Ø¯ÙĪ":7109,"ĠØ³Ø§ÙħØ§ÙĨ":7110,"ĠØªØ«":7111,"Ø³ÙĦÛĮ":7112,"ĠØ´ÛĮÙĨ":7113,"ĠÙĦÛĮÙĪØ±":7114,"ĠØ§ÙħØ±ÛĮÚ©":7115,"ĠØ§Ø³ØªÛĮÙĪÙĨ":7116,"Ø§ÙĩØ±Ùĩ":7117,"ĠÙĦÙĪØ¯":7118,"ĠØ·ÙĦØ§ÛĮ":7119,"ĠÙĨÙħØ§ÛĮØ§ÙĨ":7120,"Ø¬ÙĪØ§ÙĨÛĮ":7121,"ĠØ¢Ø®":7122,"ĠØ§ÛĮØ±ÙĪØ§ÙĨ":7123,"ĠÙĨÛĮÙħÛĮ":7124,"ĠÙĤÙĨØ¯":7125,"ĠØ§Ø±Ø§Ú©":7126,"ĠØ§Ú©ØªØ´":7127,"ĠÙĨØ®ÙĦ":7128,"ĠØ±ÛĮÙĪ":7129,"Ø§Ø¯Ø´":7130,"ĠÙģØ¬Ø±":7131,"ĠÙ¾Ø±Ùĩ":7132,"ĠÚ¯Ø±Ø¯Ø¢ÙĪØ±ÛĮ":7133,"ĠØ´Ø§ÙĩÙĨØ´Ø§ÙĩÛĮ":7134,"ĠÛĮÙĪÚ¯":7135,"ØªÙĪØ§ÙĨÛĮÙħ":7136,"Ú¯ÙĪÙĨÛĮ":7137,"ĠØ´Ú©Ø±":7138,"ĠØ®ÙĪØ§ÙĨÙĨØ¯Ú¯Ø§ÙĨ":7139,"ĠØ¨Ø±Ø¯ÙĨØ¯":7140,"ĠØ´ÛĮÙħ":7141,"ĠØ·Ø¨Ø±":7142,"ĠØ¨Ø§Ø±Ø³ÙĦ":7143,"ĠØªÙĦÙģØ§Øª":7144,"ĠØ¨Ø§ÛĮØ±ÙĨ":7145,"ĠØ§ÙħÙĪØ§ÙĦ":7146,"ĠØ´Ø§ÙĩØ§ÙĨ":7147,"Ø²ÙĨÙĨØ¯":7148,"ĠØµØ±Ø¨Ø³ØªØ§ÙĨ":7149,"Ú©ÙĪÙĨ":7150,"ĠÙĩØ´Ø¯":7151,"Ù¾ÛĮÙĨ":7152,"ĠÙĨÙĩØ¶Øª":7153,"ĠÙ¾ÛĮÙĪØ³ØªÙĨ":7154,"ĠØ®Ø±Ø³":7155,"ĠÚ¯ÙĨØ§Ùĩ":7156,"ĠÙĤØ§Ø¦Ùħ":7157,"ĠÛĮØ§Ø³":7158,"ĠØ´Ø§Ú¯Ø±Ø¯":7159,"ĠØ¢ÙĨÙĦØ§ÛĮÙĨ":7160,"ĠÙħØ¹Ú©ÙĪØ³":7161,"ĠÙĪÙĩ":7162,"ĠØ®Ø³":7163,"ĠÙ¾ÚĺÙĪÙĩØ´Ú¯Ø±Ø§ÙĨ":7164,"ĠØ¨ÙħØ§ÙĨØ¯":7165,"ĠÛµÛ²":7166,"ĠØ´ÙĨØ¨Ùĩ":7167,"ÙĦØ§ÙĪÛĮ":7168,"ĠÛ±Û¹Û³Û¹":7169,"ĠØ§ØªÙĪØ¨ÙĪØ³":7170,"uc":7171,"ĠØŃÙģØ±Ùĩ":7172,"ĠØ¨ÙĪÙĨ":7173,"ÙģÚ©":7174,"ĠØªØ³Ùĩ":7175,"ĠØ±ÙĪØ¯Ùĩ":7176,"ĠÙĨØ§ÙħÛĮØ¯":7177,"Ø§Ú©ÙħÙĩ":7178,"ĠØ¯Ø§Ú¯":7179,"ĠÙħØ§Ø¯Ø±ÛĮ":7180,"Ø±Ø³Ø§ÙĨ":7181,"ĠØ®ÙĪØ¯ÙħØ®Øª":7182,"ĠØªØ§Ø±ÛĮÚ©":7183,"ĠØ³Ú©ÙĨÙĩ":7184,"ĠÙĨÙĪÙĩ":7185,"Ù¾Ø¯":7186,"ĠØ¨Ø±Ù¾Ø§":7187,"ĠÙģÛĮØ¨Ø±":7188,"Ø§ÙģÛĮÚ©":7189,"ĠØ§ÙĨØ¨ÙĪÙĩ":7190,"ĠÙģØ±Ø¹ÛĮ":7191,"ĠØ±ÛĮØª":7192,"ĠØªØ®ÙĦÛĮÙĩ":7193,"ĠÙĪØŃØ´Øª":7194,"ÚĨÙĪÙĨ":7195,"ÙħÙĪØª":7196,"ĠØ¯Ø±Ø¨":7197,"ĠÚĨÙĩØ§Ø±ØµØ¯":7198,"ĠÚ¯Ø§Ø²ÛĮ":7199,"ĠÛĮÚ©ÙħÛĮÙĨ":7200,"ĠØ¬Øº":7201,"ÙĤØ§Ø³Ùħ":7202,"Ø§Ø¨ØªÛĮ":7203,"Ġ'":7204,"ĠØ±Ø§ÛĮÚ¯Ø§ÙĨ":7205,"ĠØ¯Ø±Ø³ØªÛĮ":7206,"ĠØªØ§ÙĨ":7207,"ĠÙħØ¬ÛĮØ¯":7208,"ĠÛ²ÛµÛ°":7209,"ĠØ§Ø³ØªÙĪØ¯ÛĮÙĪ":7210,"ĠÙħØ§ÙĩÛĮØª":7211,"ĠÙħØ´ØªØ±ÛĮØ§ÙĨ":7212,"Ù¾ÛĮÙĪÙĨØ¯":7213,"ÂŃ":7214,"ĠØ¨ÙĪÙħ":7215,"ĠØ¨Ø§Ø¯ÛĮ":7216,"ĠÙħÙĪØ§ÙĤØ¹":7217,"ĠÚ©Ø§Ø±Ø´ÙĨØ§Ø³Ø§ÙĨ":7218,"ĠØ´ÙĨØ§Ø®ØªÛĮ":7219,"ĠØ®ÙĪØ´Ùĩ":7220,"ĠÙħØ¹ØªØ±":7221,"ĠØ§Ø±ÙĪÙ¾Ø§ÛĮ":7222,"Ø¯ÙĪØ±":7223,"ĠØ´Ú¯ÙģØª":7224,"ĠÚ¯Ø´ØªÙĩ":7225,"ÙĪØ´ÛĮÙħÛĮ":7226,"ĠÙ¾Ø§ÛĮØ¯Ø§Ø±ÛĮ":7227,"ĠØ«Ø±ÙĪØªÙħÙĨØ¯":7228,"ÙĩØ²Ø§Ø±":7229,"ĠØ¢ÙħØ§Ø±ÛĮ":7230,"ĠØ§ÙĦØ¨Ø±Ø²":7231,"ĠØ´ÛĮÙĦ":7232,"ĠØ®Ø´Ú©ÛĮ":7233,"ĠØ§Ø¹Ø·Ø§":7234,"16":7235,"ĠØ¨Ø¯Ø±":7236,"ĠÙħØµØ±ÛĮ":7237,"ĠØ¢Ø±Ø§ÛĮÙĩ":7238,"ĠÚ¯Ø²ÛĮÙĨÙĩ":7239,"Ø³Ø§ÛĮØª":7240,"ÙĪØ¯ÙĪØ±":7241,"ĠÙĨØ´Ø±ÛĮ":7242,"ĠØ´Ø±Ø§ÛĮØ·ÛĮ":7243,"ĠØ³ÙħÙģ":7244,"ĠØŃØ±ÛĮÙģ":7245,"ĠÙ¾ÛĮØ´Ú¯ÛĮØ±ÛĮ":7246,"ĠØ´ÛĮÚ©Ø§Ú¯ÙĪ":7247,"ĠØ§ÙĪÛĮ":7248,"ĠØ¯Ø±ÙħÛĮ":7249,"ĠØ§Ø³Ø¯":7250,"ĠÙħØ±Ú©Ø¨":7251,"ĠØµØ¯ÙĩØ§":7252,"ĠÙħØªØŃØ±Ú©":7253,"ĠÙħØ¨Ø§ØŃØ«":7254,"ĠØ±ÛĮÙħ":7255,"ĠØ¹Ø§Ø±Ùģ":7256,"ĠÚĨØ´":7257,"ÙĦÛĮÙĪ":7258,"Ø±Ø¯Ø§Ø¯":7259,"ĠÙĤÙĪÙĩ":7260,"ĠÙħØªØ±ÙĪÛĮ":7261,"Ø³Ø±ÛĮ":7262,"ĠÚ©Ø±ÛĮØ³":7263,"ĠÚ©ÙĪØ´Ø´":7264,"ĠØ¯ÙģØ¹":7265,"ĠØ±ÙĪÛĮØ¯Ø§Ø¯ÙĩØ§ÛĮ":7266,"ĠÚ©Ø§Ú©":7267,"ĠÙ¾ÛĮØª":7268,"ĠØ´Ø§ÙĩÛĮ":7269,"ĠÙģØ±ÙĨÚ¯ÛĮ":7270,"ĠÛ±Û¹Û´Û·":7271,"ĠÙħÚ©Ø±":7272,"Û³Û±Û":7273,"ĠÛ±Û¹ÛµÛ´":7274,"ĠØ²ÛĮØ³ØªÚ¯Ø§Ùĩ":7275,"ĠØ±Ø£Ø³":7276,"ÙĪØ¦ÙĨ":7277,"ÙĦÛĮÙĨÚ¯":7278,"Û·Û´":7279,"ĠØ³Ø§Ø²ÙħØ§ÙĨØ¯ÙĩÛĮ":7280,"ĠØªÙĪØ±Ùħ":7281,"ÚĨÙĨ":7282,"ĠØ¦ÛĮ":7283,"ĠØ¯Ø§ÙĨØ´ÙĨØ§ÙħÙĩ":7284,"ĠÙħØ®Ø¯Ø±":7285,"ĠØ³ÙĪÙĦÙģ":7286,"ĠÙ¾Ø±Ø³Ø´":7287,"Ġto":7288,"ĠÙħÙĨØ§Ø³Ø¨Øª":7289,"ÙĨÛĮÙģ":7290,"Ø¶Ø§Ø¡":7291,"ĠØ³ÙĦØ·Ùĩ":7292,"ĠÚ¯Ø±Ø¯Ø§ÙĨ":7293,"ĠØ±Ø·ÙĪØ¨":7294,"ĠÙģØ§Ú©ØªÙĪØ±":7295,"ĠØ³Ø±Ø´ÙĨØ§Ø³":7296,"Ø§ÛĮØ´ÛĮ":7297,"ÙĨØ¸Ø§ÙħÛĮ":7298,"ĠØ¯Ø´ÙħÙĨØ§ÙĨ":7299,"ĠÙħØ¯Ø§ÙĪÙħ":7300,"ĠØ¨ÙĦÙĨØ¯ÛĮ":7301,"ĠØ´Ú©Ø§ÛĮØª":7302,"ĠØ³ÙģØ§Ø±Ø´":7303,"ĠÙģØ³Ø§Ø¯":7304,"ĠØ¯ÙĦÙģ":7305,"Ø¬ÛĮÙĨ":7306,"ĠØ±ÙĪØ¨Ùĩ":7307,"ĠÛ¶Û°Û°":7308,"ĠÛ±Û¹Û³Û¶":7309,"ĠØ¨Ø±Ø¯Ø§Ø±":7310,"ĠÙħØ®Ø²ÙĨ":7311,"ĠÙģØ±ÛĮØ¯ÙĪÙĨ":7312,"ÙģØ±Ùħ":7313,"ĠØ¨Ø§Ø²Ùĩ":7314,"Ø§ÙĨØ¯ÙĪ":7315,"ĠÙĨÙĩØ§Ø¯ÙĩØ§ÛĮ":7316,"ÙĪÙĦØ§ÙĨ":7317,"ĠØ±ÛĮØ³Ú©":7318,"ĠØ§Ø³ØªØ¹Ùħ":7319,"Ø²Ø¨Ø§ÙĨÛĮ":7320,"ĠØ¢Ø´Ù¾":7321,"ĠÚĨÚ¯Ø§ÙĦÛĮ":7322,"Ø§ÙĪØ±Øª":7323,"Ú¯Ø³":7324,"ÙĪÙħÙĨØ¯":7325,"ÙĪØ²ÙĪÙħ":7326,"ĠØŃØ¨ÛĮØ¨":7327,"ĠØ±Ø³Ø§ÙĨØ¯Ùĩ":7328,"ĠØµØ§Ø¯Ø±Ø§Øª":7329,"ÙĪÙħØ§ÙĨ":7330,"ĠØŃØ¯ÛĮØ«":7331,"ĠÙħØ®ØªØµØ§Øª":7332,"Ø¯Ø§ÙĨØ§ÙĨ":7333,"ĠØ¯Ø§Ú©ÙĪØªØ§ÛĮ":7334,"ĠØ±ÙĤÛĮØ¨":7335,"ĠØ®ÙĪØ¯Ø¯Ø§Ø±ÛĮ":7336,"ĠØ§ÙĦÚ©ÙĦ":7337,"ÛĮØ§Ùģ":7338,"ĠÛ³Û¹Û":7339,"ĠØ¬Ø§ÙĨØ´":7340,"ĠØ¹Ø¨Ø¯":7341,"ĠØ¯ÙĨØ¯Ùĩ":7342,"ĠÛ±Û¹ÛµÛ²":7343,"ĠØ§Ø³Ú©ÙĨ":7344,"ĠØ¹Ø¬ÛĮØ¨":7345,"Û±Û³Û¸Û":7346,"ĠØ¹Ø«ÙħØ§ÙĨ":7347,"ĠØ±Ø§ÙĨÙĨØ¯Ùĩ":7348,"ĠÙ¾ÙĦÙĩ":7349,"ĠÙ¾Ø²Ø´Ú©Ø§ÙĨ":7350,"ĠÙħÙĪÙĦÚ©ÙĪÙĦÛĮ":7351,"ĠÚ©Ø§ÙħÙ¾ÛĮÙĪØªØ±ÛĮ":7352,"ĠØ¬Ø§Ø¨Ø¬Ø§ÛĮÛĮ":7353,"ĠØ²ÙĨØ¯Ø§ÙĨÛĮØ§ÙĨ":7354,"Ø¦ÛĮÙĨÛĮ":7355,"ri":7356,"ĠÙģØ§ÙĨ":7357,"ĠØ§Ø¶Ø·Ø±":7358,"ĠØ¨Ø§Ú©ÙĪ":7359,"ĠØ¢ÙĨØ±Ø§":7360,"ĠÙ¾ÛĮÚ¯ÛĮØ±ÛĮ":7361,"ĠÙħØµØ¯ÙĤ":7362,"Ø§Ø±Ùħ":7363,"ÙĨÙĩØ§Ø±":7364,"ĠØ±Ø´":7365,"ĠÙĤØ§Ø±ÚĨ":7366,"ĠÙħØ±Ø§":7367,"ĠØªØŃØ±ÛĮ":7368,"ĠÛ±Û¹ÛµÛ¹":7369,"ĠØ®ÙĪÛĮ":7370,"ÙĦÚ©":7371,"ĠÚ©ÙĨÛĮ":7372,"ĠØ³Ø§Ø¯Ú¯ÛĮ":7373,"ĠÙħØ«ÙĦØ«":7374,"Ø¬ÙĪÛĮØ§ÙĨ":7375,"ĠØ´Ú©Ùħ":7376,"ĠÛ±Û¹Û´Û¶":7377,"ĠÚ¯Ø±Ø¬ÛĮ":7378,"ĠÙħØ¹Ø§Ø¯ÙĨ":7379,"ÙĪÙĪÙĨ":7380,"ĠÙĦØ§ÙĨÚ¯":7381,"ĠÚĺØ±":7382,"ĠØ¨ÛĮØ³":7383,"ĠØªÛĮÙħÙĪØ±":7384,"ĠÛ·Û¶":7385,"ÙĩØ§ÙĨÛĮ":7386,"ĠØ§ÙĪØ±Øª":7387,"Ø¯Ø§ÙĦÙĦÙĩ":7388,"ĠÙħØ³ØªÙĤÛĮÙħØ§":7389,"ĠØ¯Ú©":7390,"ĠØ¨ÙĨÛĮØ§Ø¯ÛĮ":7391,"ĠØ¢Ø±Ú©Ø§ÙĨØ²Ø§Ø³":7392,"ĠØ´Ø§ÙĨØ²Ø¯ÙĩÙħ":7393,"ĠÚ©Ø§Ø±Ø§Ú©":7394,"ĠÙĨÙĤØ´ÛĮ":7395,"ĠÙħØ´Ø®ØµØ§Øª":7396,"ĠØ¨ÛĮØ²Ø§ÙĨØ³":7397,"ĠÙħØŃØ§Ú©ÙħÙĩ":7398,"ĠÛĮÛĮÙĦ":7399,"ĠØ³Ù¾Ø§ÙĩÛĮØ§ÙĨ":7400,"ĠØ±Ú¯":7401,"ĠÙĦÙĩØ³ØªØ§ÙĨÛĮ":7402,"Ø°Ùĩ":7403,"ĠÚĨØ³Ø¨":7404,"ĠIn":7405,"ĠØºØ°Ø§ÛĮ":7406,"Ú©ÙĦØ§ÙĩÙħØ§":7407,"ĠÚ©Ù¾ÛĮ":7408,"ĠÙħØ¨Ø¯ÙĦ":7409,"ĠØ¬Ø³Ø¯":7410,"ĠØ¢ÙħÛĮØ²":7411,"ĠØ¯Ø§Ø¦Ùħ":7412,"ĠØªØ±Ø³ÙĨ":7413,"Ø§ÛĮØ³Øª":7414,"Ø§Ø¯ÙĨ":7415,"ĠÙħÙĨÙģ":7416,"ĠÙģØ±Ø§ØªØ±":7417,"Ù¾ÛĮÚĨ":7418,"Ø®Ø·":7419,"ĠÙ¾ÛĮØ±ÙĪ":7420,"Ø§ØªÙĪØ±ÛĮ":7421,"ĠØªØŃØ³ÛĮÙĨ":7422,"ĠÙħØªÙĨÙĪØ¹":7423,"ĠÛ±Û¹ÛµÛ·":7424,"ÙĨÙħØ§ÛĮÙĨØ¯":7425,"Ø§Ø±ÛĮÙĪ":7426,"ÙĪÙģØ§ÙĨ":7427,"ÙĪØ³ÙĨ":7428,"Ø§Ø¯Ø§ÛĮÛĮ":7429,"ĠØ´ÙĪØ±Ø§":7430,"ĠØªØ´ÛĮ":7431,"ĠÙģÛĮÙĦÛĮÙ¾ÛĮÙĨ":7432,"ĠØ¬ÙĪÙĨØ²":7433,"ĠÛĮØ§ÙĦ":7434,"ĠØªÙĪÙĨØ³":7435,"ĠÙĤÙĨ":7436,"ĠÙħØ¯ÛĮØªØ±Ø§ÙĨÙĩ":7437,"ĠØ°Ø±Ùĩ":7438,"ÙĪØ³ØªÙĪÙĨ":7439,"ĠØ®ÙĦØ§ÙĦ":7440,"ĠÙħØŃÙħØ¯ÛĮ":7441,"ĠÙĨÙĪØ¬ÙĪØ§ÙĨÛĮ":7442,"ĠÙ¾Ø§ÛĮÛĮØ²":7443,"ey":7444,"ĠØ¨Ø§Ø®Øª":7445,"ĠÙħØ¤Ø³Ø³":7446,"ĠÙ¾ÙĪØ±ÙĨÙĪ":7447,"ĠØ§ÙĨØ¯Ø§Ø®Øª":7448,"ĠØ¯Ø²Ø¯":7449,"ĠØ¢ÙĦÙĪØ¯Ùĩ":7450,"Ø§Ø®Ø§ÙĨ":7451,"ĠÛ·Û´":7452,"ĠØ¨ØŃØ±ÛĮÙĨ":7453,"ĠØ³Ø§ÙĨØªÛĮÙħ":7454,"ĠØªÙĪØ¬":7455,"ĠØ´ÙħØ§Ø±ÛĮ":7456,"ĠÙĩØ§Ø³Øª":7457,"ĠØªÙĤØ§Ø¶Ø§ÛĮ":7458,"ĠÙĨÙĤØ¶":7459,"ĠØ¨Ø¯ÙĨÛĮ":7460,"ĠÚ©ÛĮØ³Ùĩ":7461,"Ø¯Ø®ØªØ±":7462,"ĠØªØ·Ø¨ÛĮ":7463,"ĠÙĤÙĪØ§ÛĮ":7464,"ĠÚ¯Ø±Ú¯Ø§ÙĨ":7465,"Ø±Ø³ÙĨØ¯":7466,"ĠØ§Ø¦ØªÙĦØ§Ùģ":7467,"ĠØ¨ÛĮÙĦÛĮ":7468,"ĠÙĪØµ":7469,"ĠØ¢ÛĮØ±":7470,"ĠÚ©ÙħØªØ±ÛĮÙĨ":7471,"Ø´ÙĨØ§Ø®ØªÛĮ":7472,"ĠSh":7473,"ØŃØ¯ÙĪØ¯":7474,"ĠÙħØ³Ø§ÙĪÛĮ":7475,"ĠÙĤØ·Ø¹ÛĮ":7476,"Ø¯Ø§ÙĨØ³ØªÙĨØ¯":7477,"ĠÙ¾Ø±ÙĪÙģØ³ÙĪØ±":7478,"ĠØ¢ÙģØ±ÛĮÙĨ":7479,"ĠØ¬ÙĪÙĨ":7480,"ĠÙ¾ÙĦØ§Ø³":7481,"ĠÙħØ§Ø¨ÛĮÙĨ":7482,"ĠÙħÙħØªÙĨØ¹":7483,"ĠÙģØ¯":7484,"ĠÚ©ÙĪØ±Ùĩ":7485,"ĠØ¨Ú¯ÛĮØ±ÛĮ":7486,"ĠØ·Ø±Ø²":7487,"ĠÙħÚ©Ùĩ":7488,"ÙĩØ§ÛĮØª":7489,"ĠØ§ÙĨØ³":7490,"ĠØ±Ø·ÙĪØ¨Øª":7491,"ĠØ±Ø§Ø¨Ø·":7492,"ĠØ§Ø±Ø²Ø´Ùħ":7493,"ĠÙĨØ§Ø²Ú©":7494,"ÙħØ§Ø³":7495,"ĠØ§Ø±Ø´Ø§Ø¯":7496,"ĠØªØ¨Ø§Ø¯ÙĦ":7497,"ĠØ´Ú©Ø§Ùģ":7498,"ÙģÙĪ":7499,"ĠÙĦÛĮØ²Ø±":7500,"ĠÚ©Ø±Ø¬":7501,"ĠÙħØ§Ø±Ø´":7502,"ĠÙħØ¬Ø²Ø§":7503,"ĠÙģØªÙĪ":7504,"ĠÛ±Û¹ÛµÛ³":7505,"Ù¾Ø§Ø´ÛĮ":7506,"ĠÙħØªØ±ÙĪ":7507,"ĠØ®Ø±Ø§Ø¨":7508,"ĠØ¯Ø±Ø®Ø´Ø§ÙĨ":7509,"ÙħØ¯Øª":7510,"ĠØ§ÙĤÙĦÛĮØª":7511,"ĠØ®ÙĦØ§ÙĤ":7512,"ĠØ§Ø³ÙħØ§Ø¹ÛĮ":7513,"Ø§ÙĨØ¨Ø§Ø±":7514,"Ø®ÛĮØ²":7515,"ĠÛĮØ§ÙĨÚ¯":7516,"ØªÙ¾Ùĩ":7517,"ĠØ¢ÛĮÙĨÙĩ":7518,"ĠÛ±Û³Û¹Û¸":7519,"ĠØªÛĮØ±Ø§ÙĨØ¯Ø§Ø²ÛĮ":7520,"ÙĨØ§Ø¨":7521,"ĠÚĺÛĮÙħÙĨ":7522,"ĠÙħÙĤØ±Ø±Ø§Øª":7523,"ÙģÛĮÙĩ":7524,"Ø§ÙĨØ¯Ø§":7525,"ĠÂ°":7526,"Û±Û¹Ûµ":7527,"Ø¨Ø³Øª":7528,"Ú©Ø§Ø±Ø§ÙĨ":7529,"ÚĨÙĪ":7530,"ĠØ²ÛĮØ±Ø²ÙħÛĮÙĨÛĮ":7531,"Ø¨ÛĮØ´":7532,"ĠØªÙĤÛĮ":7533,"ĠÛ³Û¹":7534,"ĠØªØ±Ø³ÙĨØ§Ú©":7535,"ĠØ³Ø§Ø²Ø¯":7536,"ĠÚ©ÙĪØ§Ø±":7537,"ĠØ¯Ø³ØªÙĪØ±Ø§ÙĦØ¹ÙħÙĦ":7538,"ĠÙĦØ·":7539,"ĠØ§ÙħØ¶Ø§ÛĮ":7540,"ĠÛĮØŃÛĮÛĮ":7541,"ĠÙģØ±ÙħØ§ÙĨØ¯ÙĩØ§ÙĨ":7542,"ĠÙħØ§Ø¬Ø±Ø§ÛĮ":7543,"ĠÚ©Ø§Ø´Ø§ÙĨ":7544,"Ú¯Ø±Ø¯Ø§ÙĨØ¯":7545,"ĠÙħÙĦÙĤØ¨":7546,"ĠÛ±Û¹ÛµÛµ":7547,"ĠØ§Ø·ÙĦØ³":7548,"ÛĮÙĨÚ¯Ø²":7549,"ĠØ³ÙģØ§ÙĦ":7550,"ae":7551,"ĠØ¹ÙħÙĪØ¯ÛĮ":7552,"ĠÙĤØ¨Ø±Ø³ØªØ§ÙĨ":7553,"Ø²ÛĮØ±":7554,"ĠÙħÛĮØ®":7555,"Ú¯Ø±ÙĩØ§ÛĮ":7556,"Ø§Ø¯Ø§Ø±ÛĮ":7557,"ĠØ§Ø³Ø§ÙħÛĮ":7558,"ĠÙĪÛĮØªØ§ÙħÛĮÙĨ":7559,"Û±Û¹Û´":7560,"ĠÙĤØ·Ø¨ÛĮ":7561,"ĠØ±Ø¶Ø§ÛĮØª":7562,"ĠÙ¾ÛĮÚĨÛĮØ¯Ú¯ÛĮ":7563,"ĠØªØ§ÙĪÙĨ":7564,"ĠBr":7565,"ĠÙ¾ÙĪØ¯Ø±":7566,"ĠÛ³Û¸Û":7567,"ĠØ§Ø®ØªØµØ§Ø±":7568,"ØŃØ¯":7569,"Ø±ÙĩØ§ÛĮ":7570,"ĠØ¬ÛĮØ±":7571,"ĠÙħÚ©Ø¹Ø¨":7572,"ug":7573,"Ø§ÙĪÛĮÙĨ":7574,"az":7575,"ĠØ§Ø±Ùħ":7576,"ĠÙħØ±Ú¯Ø´":7577,"ĠØ¹Ø§Ø´ÙĤØ§ÙĨÙĩ":7578,"ĠØ¹ÙħØ§ÙĨ":7579,"ÛĮØ§ÙģØªÙĩ":7580,"ĠÙħØ±Ø§Ø¯":7581,"ĠÙħØ·Ø¨":7582,"ĠØ¢Ø´ÙĪØ±":7583,"ĠØªØ¶ÙħÛĮÙĨ":7584,"ĠØ¯ÛĮÙ¾ÙĦÙħ":7585,"ĠØŃÛĮØ¯Ø±":7586,"ĠÚ©ÙĨÙģ":7587,"ĠÙħØ°Ø§Ú©Ø±Ùĩ":7588,"ĠÙģØ±ÙĩØ§Ø¯":7589,"ĠØ¨ÙĪÙĦÛĮ":7590,"ØªØ±Ú©ÛĮ":7591,"Ø¬Ø§ÙĨÛĮ":7592,"ĠØªØ±ÙĪÛĮØ¬":7593,"ĠØ¹ÙħÙĦØ§":7594,"ĠÙĦÛĮØ¨ÛĮ":7595,"Ø§ÚĨØ§ÙĤ":7596,"Ø·ØŃ":7597,"ĠAm":7598,"ĠÙħÙģØµÙĦ":7599,"ĠØ§ØŃØ³Ø§Ø³Ø§Øª":7600,"'s":7601,"ÙĨÙĪÙĨ":7602,"ĠØªÙģØ±ÛĮ":7603,"ĠÙĦØ°Øª":7604,"ÛĮØ§ÛĮ":7605,"ĠMar":7606,"ĠØ¬ÙĩØ´":7607,"ĠØ³Ø±Ù¾Ø±Ø³Øª":7608,"ĠÙĦÛĮÙĪØ±Ù¾ÙĪÙĦ":7609,"ÙģØ§ÙĦ":7610,"ĠØ¬ÙĨØ§ØŃ":7611,"Ø§Ú¯Ø±Ø§ÙĨ":7612,"ĠÙ¾Ø§Ø³Ø¯Ø§Ø±Ø§ÙĨ":7613,"Ø®Ø§ÙĨÙĪ":7614,"ĠÙ¾ÚĺÙĪÙĩØ´Ú¯Ø±":7615,"ÙĨÚ¯Ø§Ø±Ø§ÙĨ":7616,"ĠØ¯ÙĪØ§Ø²Ø¯ÙĩÙħ":7617,"ĠÛ±Û¹Û´Û¹":7618,"ĠØ¯Ø±ÙĩÙħ":7619,"ĠØ¬ÙħØ§ÙĦ":7620,"ĠØ±Ø¦Ø§ÙĦ":7621,"ĠÛ±Û¹Û±Û·":7622,"Ú©ÙĨÙħ":7623,"ĠØ´ÛĮØ·Ø§ÙĨ":7624,"ĠØªÙĨÚ¯Ùĩ":7625,"ĠÙģØ§ÙĨØª":7626,"ert":7627,"ĠØ°ÛĮÙĦ":7628,"Û±Û°Û°":7629,"ĠØ²Ø§Ùĩ":7630,"ĠØ²Ø®Ùħ":7631,"ÙĪÚ¯ÙĪ":7632,"ĠÙģØ±ÙĨ":7633,"ĠØªØ±Ú©Ø§ÙĨ":7634,"ĠØ¢Ø³ÛĮØ§Ø¨":7635,"ĠÛ·Û·":7636,"ĠØ®ÙĪØ±Ø§Ú©ÛĮ":7637,"ĠØ§ÙģØªØ®Ø§Ø±Ø§Øª":7638,"ly":7639,"ĠÚ¯ÙĪØ§Ø±":7640,"ĠÙĦØ§Øª":7641,"ĠØ¨Ø§Ø²Ú¯":7642,"ĠØ§ÙĦØªÙĩ":7643,"Ø³Ø¨ÙĪØ±Ú¯":7644,"Ø§ÙĨØ¯ÛĮ":7645,"ĠØŃÛĮØ§Ø·":7646,"ĠÙħØ¹ÛĮØ§Ø±":7647,"ĠÙħØ¤ÙĦÙģ":7648,"ĠÙĩÙĪØ§Ù¾ÛĮÙħØ§ÙĩØ§ÛĮ":7649,"Ø®Ø§Ø±":7650,"ĠÚ¯ÛĮÙħ":7651,"ĠØ¬ÙĩØ§Ø¯":7652,"Ø§ÙĨÛĮÙĪÙħ":7653,"ĠØ§Ø³ÙĨ":7654,"ĠÙħÙĪÙĨÛĮØ®":7655,"ies":7656,"Õ¡":7657,"Ø³Ø§ÙĦÛĮ":7658,"ĠÚ©Ø§Ø±Ú©Ø±Ø¯":7659,"ĠØ³ØªØ§ÛĮØ´":7660,"ĠÛ±Û¹Û±Û¹":7661,"ach":7662,"ĠØ²ÙĪØ±":7663,"ĠØ¨Ø¨ÛĮÙĨ":7664,"ĠØ¢Ú©Ø³":7665,"ĠØ¬ÙĪØ²Ùģ":7666,"ÙĪØ§ÙĨØ§":7667,"ĠØ¯ÙħØ´ÙĤ":7668,"ĠÙħØ¯ÛĮÙĨÙĩ":7669,"ĠØ´Ø¹Ø§Ø±":7670,"Û±Û¹Û±Û":7671,"ĠÙĪØ§Ø¨Ø³ØªÚ¯ÛĮ":7672,"ĠÙĩØ´Ø¯Ø§Ø±":7673,"Ø¨ØªÛĮ":7674,"ÙĦØ§ÙĨÛĮ":7675,"ĠØ®ÙĨ":7676,"Ø°ÛĮØ±ÛĮ":7677,"ĠÙĨØŃÙĪÛĮ":7678,"ĠÙģØ§Ø¶ÙĦ":7679,"ĠÙĨØ§Ú¯ÙĩØ§ÙĨÛĮ":7680,"ÙħÙĨØ·":7681,"ĠÙħØ°Ø§Ú©Ø±Ø§Øª":7682,"Ø§ÙĨÙĪØ±Ø¯":7683,"ĠÙ¾ÛĮØ´ØªØ±":7684,"ĠÙħØ®ØµÙĪØµØ§":7685,"ĠÚ©ÛĮÚ©":7686,"ĠØ§Ú©ÙĦØ§ÙĩÙħØ§":7687,"ĠØ³Ù¾Ùĩ":7688,"Ø¯Ø§ÙĨØ´Ú¯Ø§Ùĩ":7689,"ĠØªÙĤØ³ÛĮÙħØ§Øª":7690,"ĠØŃØ³Ø§Ø³ÛĮØª":7691,"ĠØ±ÙģØ³":7692,"ĠÙģÙĪØ±Ø¯":7693,"ÙĪØ§ÙĨÚ¯":7694,"ĠØ¨ÛĮØ§Ø¨Ø§ÙĨ":7695,"ĠÙĩÙģØªØµØ¯":7696,"ÙĪÚĨÙĩØ±":7697,"ĠÚ©Ø§Ø¸Ùħ":7698,"ĠØªØ§ÛĮÙĦÙĨØ¯":7699,"ĠØ®ÙĪÙĨÛĮ":7700,"ĠÙħØ¬Ø§ÙĩØ¯ÛĮÙĨ":7701,"Ø±Ø§Ø³ÛĮ":7702,"ĠØ¨Ø§ÙĦØ§Ø®Ø±Ùĩ":7703,"Ø§ØºÛĮ":7704,"ĠÙĨÙģØ¹":7705,"ĠØ§Ø±ÛĮ":7706,"ĠÛ±Û³Û¸Û°":7707,"ĠØ§ÙģØ´":7708,"ĠÛ´Û³":7709,"ĠØ§Ø³ØªØ§ÙĨØ¯Ø§Ø±Ø¯ÙĩØ§ÛĮ":7710,"Ø§Ø³ÙĦØ§Ùħ":7711,"ĠÙĩÙĨØ¯Ø³Ùĩ":7712,"Ø§ÙĦØ³ÙĦØ·ÙĨÙĩ":7713,"ĠØ§Ø³ÛĮØ±":7714,"ĠØªØ¹ÙĩØ¯":7715,"ĠØ§ÛĮØ§Ùħ":7716,"ÙĪÙĨÛĮÙĩ":7717,"ĠØ§Ø´Ø±Ø§Ùģ":7718,"ĠÙħÙĤØ§ÙĪÙħ":7719,"ĠØ¹ÙĨÚ©":7720,"ÙĨØ´Ø§ÙĨ":7721,"ĠØŃÙģØ§Ø±ÛĮ":7722,"Ø§ÛĮØ±ÛĮ":7723,"Ø·Ø¦Ùĩ":7724,"ĠØ¨Ø§Ø²Ø§Ø±ÙĩØ§ÛĮ":7725,"Ø§Ø«ÛĮØ±":7726,"ĠØ§Ø¯ÛĮØ§ÙĨ":7727,"Ø²ÙĪ":7728,"ĠØ¯Ø§ÙĪØ±ÛĮ":7729,"ĠØ³Ø§Ø²Ú¯Ø§Ø±":7730,"Ø§Ø±ØªÙħØ§ÙĨ":7731,"ĠØ±ÛĮØ§Ø¶":7732,"ans":7733,"Ø§Ø³Ú©":7734,"ÙģÙĦØ¯":7735,"ĠØ§ÛĮØ¯Ø¦":7736,"ĠÚ©ÙĪØ±Øª":7737,"ĠÙħÛĮÙĩ":7738,"ÙĦÛĮØ³ÛĮ":7739,"ĠØ§ÙĦÛĮØ²Ø§Ø¨Øª":7740,"Ø§ÙĪØ³":7741,"Û±Û¹Û¸Û":7742,"ĠØ±ÙħØ§ÙĨØªÛĮÚ©":7743,"ĠÙ¾ÛĮØ´ÛĮÙĨÙĩ":7744,"ĠØ±Ø§ÙĨØ¯":7745,"ĠÛ±Û¹Û³Û¸":7746,"ala":7747,"ÃĹ":7748,"Ø¦ÙĨ":7749,"ĠÛĮØ¯":7750,"ÙĪØ§ØŃ":7751,"ĠØ·Ø±ÙģØ¯Ø§Ø±":7752,"ĠÙħÛĮÙĨÛĮ":7753,"ĠÙħØ·ÙĦØ¨":7754,"ÙģØ±Ø§Ø¯ÛĮ":7755,"ĠØµÙģÙĪÛĮÙĩ":7756,"ĠØ·Ø¨Ø§Ø·Ø¨Ø§ÛĮÛĮ":7757,"ĠØ¨ÙĪØ³ÛĮÙĦÙĩ":7758,"Ø´Ø§Ø®":7759,"ĠÚ©Ø§Ø±Ø´":7760,"ĠÙģØ¹Ø§ÙĦØ§ÙĨ":7761,"ĠÛ¸Û°Û°":7762,"Ø±Ø§ÙģÛĮ":7763,"ÙħØµ":7764,"ĠÙģØ¹ÙĦ":7765,"ĠÙħØ³ØªØ¹":7766,"ĠØ¯Ø±ØŃØ§ÙĦÛĮ":7767,"ĠØ¯Ø®ØªØ±Ø´":7768,"ĠÙĦØ§ÙĦÙĩ":7769,"ĠØ§Ø³Ù¾Ø±":7770,"ĠÙģØ±Ø¶ÛĮÙĩ":7771,"ĠÚ©ÙĪØ¨Ø§":7772,"ĠØ§ÛĮÙĨÚ¯ÙĪÙĨÙĩ":7773,"Ø¸Øª":7774,"Ø´ÙĩØ±ÛĮ":7775,"ĠØ¯ÛĮÙĪØ§Ø±ÙĩØ§ÛĮ":7776,"Ø¯Ø§Ø¯ÛĮ":7777,"ĠÙ¾Ø±ØªØºØ§ÙĦÛĮ":7778,"ĠÚ©Ø§ÙĨØ¯ÛĮØ¯":7779,"ĠØ¶Ø®Ø§ÙħØª":7780,"Ø§Ø³ÙħÛĮ":7781,"ÙĨØ§Ù¾":7782,"ĠÚ©ÙĨØ´":7783,"Ã³":7784,"ĠÛĮØ¹ÙĤ":7785,"ĠÙħØ´Ø®ØµÛĮ":7786,"ĠØ®Ø§ØªÙħÙĩ":7787,"ĠØªÙĪØ·Ø¦Ùĩ":7788,"ĠØ§Ø¯Ø¨":7789,"ĠØ§Ø®ØªÙĦØ§ÙĦØ§Øª":7790,"Ø³ÙĨÛĮ":7791,"Ø´Ø§Ùħ":7792,"ĠØ³Ø§ÙĨØªÛĮÙħØªØ±":7793,"Ø§ÙĦÙĨÙĩØ§Ø±":7794,"ĠØ¬ÙĦØ³":7795,"Ø±Ú¯":7796,"ĠÙģØ±ÙĩÙĨÚ¯Ø³ØªØ§ÙĨ":7797,"ĠØ¨Ø±Ø§ÙĨÚ¯ÛĮ":7798,"ĠØ¬ÙĪÙĦÛĮ":7799,"ĠÙĩØ±ÚĨÙĩ":7800,"ĠÙĩØ³ØªÛĮ":7801,"Ø³ÙĨÚ¯ÛĮ":7802,"Ø§ÙĦØ§ÙĨ":7803,"ĠÚ©ÙĦØ§Ùħ":7804,"ĠØ³Ø§Ø²ÙĩØ§ÛĮ":7805,"Ù¾Ø§Ø¯":7806,"ĠØ¹ÙĦÙħØ§ÛĮ":7807,"ĠÙħØªÙĪØ§ÙĦÛĮ":7808,"ĠØŃØ³Ø¨":7809,"ĠØ¨ÙĦÙĨØ¯ØªØ±ÛĮÙĨ":7810,"ĠØ³Ø¹Ø¯":7811,"Ø§Ø¯ÙĦÙĩ":7812,"ĠØŃØ§ÙħÛĮ":7813,"ĠÛ±Û³ÛµÛ¸":7814,"ĠÙĦØ§Ø³":7815,"ĠÚ¯ÙĪØ§ÙĩÛĮ":7816,"ĠØ¬Ø§ÛĮÚ¯Ø²ÛĮÙĨÛĮ":7817,"ĠÐ":7818,"ĠØ¹Ø³ÙĦ":7819,"ĠÚ¯Ø±Ø§ÙģÛĮÚ©":7820,"ÛĮÙĨÚ¯ÛĮ":7821,"Ø§Ø²Ø§ÙĨ":7822,"ĠØ§ÙħÙĦØ§Ú©":7823,"ĠØ¯ÙĩÚ©Ø¯Ùĩ":7824,"ĠÙħØªÙĪØ³Ø·Ùĩ":7825,"land":7826,"ĠØ¨Ø§Ø¨Ø§":7827,"Ø¯ÙĩØ§ÛĮÛĮ":7828,"ĠØªØ§ÛĮÙħØ²":7829,"ĠÙĤØ§ÚĨØ§ÙĤ":7830,"ĠØªÛĮØª":7831,"ĠØªÙĤØ±ÛĮØ¨ÛĮ":7832,"ĠØªØ³ÙĩÛĮÙĦ":7833,"ØµÙĪØ±":7834,"ĠÙĨÚ¯Ø§Ø´ØªÙĩ":7835,"ÙĪÚ©ÙĦ":7836,"ĠØŃØ§ÙĦØ§":7837,"ĠØ±Ø³ÙĪØ¨":7838,"ÚĨÛĮØ§ÙĨ":7839,"ĠÚ©ÙĩÙĨÙĩ":7840,"ĠØ§ÙĨÙģØ±Ø§Ø¯ÛĮ":7841,"ĠÙħÙĩØ§Ø¬Ø±Ø§ÙĨ":7842,"aw":7843,"ĠÙĪØ¬":7844,"ĠÙ¾ÛĮØ³Øª":7845,"ens":7846,"ĠØ¨Ø±Ø¯Ø§Ø´ØªÙĩ":7847,"ĠÙĩØ±Ø¯":7848,"ĠØ§ÙĤÙĦÛĮÙħ":7849,"ÙİÙĳ":7850,"ĠÙĨÙħÙĪØ¯Ø§Ø±":7851,"ĠÙĩØ¬ÙĪÙħ":7852,"Ø¨ÙĪØ±ÙĨ":7853,"ÙĪÙĦÙĪÚĺÛĮÚ©ÛĮ":7854,"ĠÙĪÙĨØ²":7855,"ĠØ±Ø³ÙĪÙĦ":7856,"ĠÛ±Û³Û¸Û³":7857,"Ø§Ø³ÙĦ":7858,"ĠÙĨØ´Ø±ÛĮØ§Øª":7859,"Ú©Ø§Ú©":7860,"ĠØ§Ø¯Ø±":7861,"ĠØ¬Ø§ÙĨØ³ÙĪÙĨ":7862,"ĠØ§Ø±Ø²Ø§ÙĨ":7863,"Ø¨Ø§ÙĦÙĩ":7864,"Ø¹Ú©Ø³":7865,"Ø³ÛĮØ³Ú©ÙĪ":7866,"ĠÙĦÙĪØª":7867,"man":7868,"ĠØ±Ø§ÛĮÙĨ":7869,"ĠÚĨÙĨØ¯Ø§ÙĨÛĮ":7870,"ĠÙĤØµÙĩ":7871,"ĠØ¯Ø§ÙĨØ´Ø¬ÙĪÛĮ":7872,"ĠÙĤØ±ÙĤ":7873,"ĠØ§Ø³ØªØ¹ÙģØ§":7874,"ĠØ¨Ø±Ø§ÛĮØ´":7875,"ĠÙħÙĨØŃÙĨÛĮ":7876,"ĠÙĩÙħØ§ÛĮ":7877,"ĠÙħØ±ÛĮÙĦÙĨØ¯":7878,"ĠØºÙĦØ¸Øª":7879,"ĠÙĨØ§Ø¦":7880,"ĠØ«Ø¨Ø§Øª":7881,"ĠÛ±Û³ÛµÛ°":7882,"ĠØ§ÙĦÙģØ¨Ø§ÛĮ":7883,"ĠÙģÙĦØ³Ø·ÛĮÙĨÛĮ":7884,"ØµÛĮØ±":7885,"ĠÚ©Ø±ÛĮÚ©":7886,"ĠØ´Ø´ØµØ¯":7887,"ĠÚ©ÙĦØ±Ø§Ø¯ÙĪ":7888,"ĠØ§ÙĨØªØ®Ø§Ø¨ÛĮ":7889,"ĠÙħØ´Ø®ØµÙĩ":7890,"ĠØ¹Ø¨Ø¯Ø§ÙĦØ±ØŃ":7891,"ĠØ±Ú©Ø§Ø¨":7892,"ÙħÚ©ÙĨ":7893,"ĠÚ©Ø§ÙĨØ§Ø¯Ø§ÛĮÛĮ":7894,"ØªÛĮØ³":7895,"ĠÙħØ³ØªØ¹Ùħ":7896,"ĠØŃØ±Ú©ØªÛĮ":7897,"Ø¯Ø±ÛĮ":7898,"Û±Û¸Û¶":7899,"ĠØ¨Ø§Ø²Ø§Ø±ÛĮØ§Ø¨ÛĮ":7900,"ond":7901,"ĠØªÙĨØ¯ÛĮØ³":7902,"Ø®Ø§ÙĨÙĪØ§Ø¯Ùĩ":7903,"Ø¨Ø§Ø¹":7904,"ĠÚĨØ§Ø±Øª":7905,"Ø±Ú©Ø´ÛĮ":7906,"ĠØ¹Ø¯Ø¯ÛĮ":7907,"=\"":7908,"ĠØ¨Ø§Ø±Øª":7909,"ĠØ¯Ø§Ø¯Ú¯":7910,"ĠØªØ±ÙĪØ±ÛĮØ³ØªÛĮ":7911,"ÙħØ²Ø¯":7912,"Ø³ÙĨØª":7913,"ĠØ¨ÙĩØ´ØªÛĮ":7914,"ÙĦÛĮØ²":7915,"ÙĪØ¦ÙĦØ§":7916,"ĠÙģÙĤØ±":7917,"ĠØ·Ø§ÙĩØ±":7918,"ĠØºØ§Ø±Øª":7919,"Ù¾Ø²Ø´Ú©ÛĮ":7920,"ĠØ¬ÙĨØ¨":7921,"Ø§Ø³ØªÛĮÙĨ":7922,"ĠØ§ØµØ§ÙĦØª":7923,"ĠØ®Ø§ÙħÙĪØ´":7924,"ĠÙĨÙĤØµ":7925,"ĠÙħØ¨Ø¯":7926,"ĠÙĩØ´ØªØµØ¯":7927,"ĠÚ©Ø§ÙħÙ¾Ø§ÛĮÙĦ":7928,"ĠÙħØ§Ø³Ùĩ":7929,"ish":7930,"ĠØ¢Ø¨Ø§Ø¯Ø§ÙĨ":7931,"ĠØ¨ÙĤØ§ÛĮØ§ÛĮ":7932,"ĠØ¨Ø´Ú©":7933,"ĠØ¯ÙĪØ²":7934,"ĠØ¢Ø±Ø§ÙħØ´":7935,"ĠØ§Ø±ÙĨ":7936,"ĠØ§Ø¹ØªØµ":7937,"ĠÙĦÙģ":7938,"ĠÛ±Û¹Û³Û·":7939,"ĠÙĦÙĪØ§Ø²Ùħ":7940,"15":7941,"âĢĮâĢĮ":7942,"ĠØªÙĨØ³ÛĮ":7943,"ĠØªØ«Ø¨ÛĮØª":7944,"ĠÚ©Ø§Ù¾ÛĮØªØ§ÙĨ":7945,"ĠØ§Ø²Ø¨Ú©Ø³ØªØ§ÙĨ":7946,"Ø¨ÙĪÙĨ":7947,"ÙĦØ§ÙĪÙĩ":7948,"ĠØ³Ø±ØªØ§Ø³Ø±":7949,"ĠØ¯Ø§ÙĨØ´Ø¬ÙĪÛĮÛĮ":7950,"ĠÙħØ¹ØªØ¯ÙĦ":7951,"ĠØ¬ÙĨØ§ÛĮØª":7952,"ĠØ¯ÙħÙĪÚ©Ø±Ø§Ø³ÛĮ":7953,"Ø·Ø§Ùģ":7954,"ĠØ¨ÙĨØª":7955,"ĠÙĤØ¶Ø§":7956,"ÙĪØ³Ú©":7957,"ĠÙ¾ÛĮØ´Ú¯Ø§Ùħ":7958,"Ø±ØªØ´Øª":7959,"ĠÙĩØ§ÙģØ¨Ú©":7960,"ĠÛ±Û¹Û³Û³":7961,"ĠÙģØ±Ø²ÙĨØ¯Ø´":7962,"ĠØ§Ø±Ú¯":7963,"Û´Û²":7964,"Ú©ÙĦÛĮÙĨ":7965,"ĠØªÙĪÙĦÛĮØ¯Ø§Øª":7966,"Ø¯Ø§ÛĮ":7967,"ĠØ§ÙĦØ²":7968,"ĠØ¯Ø§ÙħØ¯Ø§Ø±ÛĮ":7969,"ĠÙĨÛĮÚ©ÙĪÙĦ":7970,"Û±Û³Û·":7971,"Ø§ØªØ§ÙĨ":7972,"ĠØµÛĮ":7973,"ĠØ§ÙĦÚ©":7974,"18":7975,"ĠØ¨Ù¾Ø±Ø¯Ø§Ø²Ø¯":7976,"ĠØ§Ø³ØªÙĨØ§Ø¯":7977,"Ø¦ÙĪÙ¾":7978,"ĠÙħØ±Ú©Ø²ÛĮØª":7979,"ĠØ³Ø±ÙĨÚ¯":7980,"Ø§Ú¯ÙĨ":7981,"ĠÙħØ¬Ø§ÙĪØ±Øª":7982,"ĠØ¯Ø§Ø±ÙĪÛĮ":7983,"ĠÚ©ÙĨØ³ØªØ§ÙĨ":7984,"ĠÚ©Ø§ÛĮ":7985,"ĠÛĮÙĪÚ©":7986,"ĠØ¯ÛĮØ¯ÙĨÛĮ":7987,"ĠØ¯Ø§Ø¯Ú¯Ø³ØªØ±ÛĮ":7988,"ĠØ±ÙĪØ§ÙĨÙĩ":7989,"ĠÙĩØ³ØªÛĮÙħ":7990,"ĠÚ©ÙĪÙĩÙĨ":7991,"ĠÚ©Ø±ÛĮØ³ØªØ§ÙĦ":7992,"The":7993,"ĠÛ·Û²":7994,"Ø§Ø¯Ùģ":7995,"ĠØ¨Ø±ÙĪØ¬Ø±Ø¯":7996,"ÛĮØªØ³":7997,"ĠÙ¾ÛĮØ´Ø±ÙĪÛĮ":7998,"ĠÛ´Û±":7999,"ĠÙħØ§Úĺ":8000,"ĠÚ©ÛĮÙĩØ§ÙĨ":8001,"ĠØ§Ø³ØªØ¹Ø¯Ø§Ø¯":8002,"Ø¬Ø±ÛĮ":8003,"ĠØ¢ÙĦØ¨Ø±Øª":8004,"ĠØŃØ¶Ø±Øª":8005,"ÙħÙĩØ±":8006,"ĠØ³ÙħÙĨØ§ÙĨ":8007,"Ø§ØµØ±ÛĮ":8008,"ĠØ®Ø§Ú©ÛĮ":8009,"ĠÙħØ´Ú©":8010,"ĠÙģØªØŃØ¹ÙĦÛĮ":8011,"ÙĪÙĪÙĪ":8012,"ĠÙ¾ÙĪØ¯":8013,"ĠÙħØ¹ÛĮ":8014,"ĠØ³ÛĮØ§ÙĦ":8015,"ĠÛ±Û¹ÛµÛ±":8016,"br":8017,"Ġre":8018,"ĠÙħÙĪØ¯":8019,"ĠÙħØŃØ§ÙģØ¸Ùĩ":8020,"ĠØ§Ø¹Ø¶Ø§":8021,"ĠØµÙĦØ§ØŃÛĮØª":8022,"ĠØ±Ø³ØªÙĪØ±Ø§ÙĨ":8023,"ĠÚ¯Ø°Ø§Ø±":8024,"ĠÚ¯ÙĦÙĪØ¨":8025,"ĠÙħØ®Ø±ÙĪ":8026,"ĠØ¢ÙĦÙĪÙħÛĮÙĨÛĮÙĪÙħ":8027,"ÙĤÙĩØ±":8028,"ĠØ²Ø±ØªØ´Øª":8029,"ĠØŃØ§ÙĦØªÛĮ":8030,"ĠÙģØ±ÙĪÙ¾Ø§Ø´ÛĮ":8031,"ĠÙħØ£ÙħÙĪØ±Ø§ÙĨ":8032,"ĠØ®Ø§ØªÙħÛĮ":8033,"Ð°":8034,"ĠØ±ÙĪØ¨Ø±":8035,"ĠÙĨÛĮØ§Ø²ÛĮ":8036,"ĠÙĩØ§ÛĮÛĮ":8037,"ĠÛ±Û¹Û³Ûµ":8038,"ÉĻ":8039,"ĠØ§ØŃØªÛĮ":8040,"ĠØ¨Ø§ÙĦÛĮÙĨÛĮ":8041,"ĠÛ±Û³Û¶Û°":8042,"Ú¯Ø±ÙħÛĮ":8043,"ĠÛ±Û³Û¸Û²":8044,"ille":8045,"Ø§ÙĨØ¬":8046,"ĠØ§Ø®ÛĮØ±Ø§":8047,"ĠØ¹Ø¨Ø±ÛĮ":8048,"ÙĪÙģØ³Ú©ÛĮ":8049,"ØªÙĪØ§ÙĨÛĮØ¯":8050,"ĠØ¨ÙĪØ³ÙĨÛĮ":8051,"ØŃÙĦ":8052,"ĠÙħÙĨÙĤ":8053,"Ø²Ø´":8054,"ĠØªØ§Ø±ÛĮØ®ÚĨÙĩ":8055,"Ø§ÙħØ§ÙĨ":8056,"Ø§Ø¯Ú¯Ø§ÙĨ":8057,"Ø²Ø¨ÙĪØ±":8058,"ĠØªÙĪÙĨÙĦ":8059,"ĠØŃÚ©ÛĮÙħ":8060,"ĠØ·Ø±ÙģÛĮ":8061,"ĠÙģØ¶Ø§ÙĩØ§ÛĮ":8062,"ĠØ¯ÙĪØ±ÛĮ":8063,"ĠØµÙĪÙħ":8064,"ĠØ¯ÛĮÙĪ":8065,"ĠØŃÙĪØ¶Ùĩ":8066,"OS":8067,"ĠØ¢ÙĨØ§":8068,"ĠÙħØ¹Øµ":8069,"Ø³Ø§ÙĪÛĮ":8070,"ĠÙĨØ§Ø®Ø§ÙĦ":8071,"ĠØ¨Ø±ÙĩÙħ":8072,"ĠØ·Ø±ÙģÛĮÙĨ":8073,"ĠØ§Ø¹ØªØ±Ø§Ùģ":8074,"Ø®ÙĪØ±Ø´":8075,"ĠØ¹Ø§Ø²Ùħ":8076,"ĠØ§Ø®ØªÙĦØ§ÙģØ§Øª":8077,"ĠØ·Ø¨Ø±Ø³ØªØ§ÙĨ":8078,"ĠØªØ²Ø¦ÛĮÙĨ":8079,"ĠØ¯Ø³ØªÛĮØ§Ø±":8080,"ĠÚĨÙĨØ§ÙĨÚĨÙĩ":8081,"ĠØµØ§Ùģ":8082,"ĠØ³Ø¨Ø²ÛĮ":8083,"ĠÙħÚ¯Ø±":8084,"ĠØ¯Ø±Ø¬":8085,"ĠÙħØ±Ø§ØªØ¨":8086,"ĠØ´Ø§ÙĨØ²Ø¯Ùĩ":8087,"ĠÙĦÙĪÛĮ":8088,"ĠØ³Ø§Ø®ØªØ§Ø±ÙĩØ§ÛĮ":8089,"ĠØ³Ø¹Ø¯ÛĮ":8090,"ĠØ¬Ø§ÙĨØ´ÛĮÙĨÛĮ":8091,"ĠÙħÛĮØ¯":8092,"ord":8093,"ĠØ§ÙģØ³Ø±Ø§ÙĨ":8094,"ĠØ§Ø¨Ø±ÛĮØ´Ùħ":8095,"ĠØ¨Ø²Ø±Ú¯Ø³Ø§ÙĦØ§ÙĨ":8096,"ure":8097,"ĠØ¨Ø§Ø±Ø´":8098,"Ø¢ÙħØ±ÛĮÚ©":8099,"ĠÙħØ§ÙĨØ¯ÙĨ":8100,"ĠØ§ÙģÙĤÛĮ":8101,"Ø³Ø¨Ø²":8102,"Ø´ØªØ±":8103,"ĠÛĮØ§Ø±Ø§ÙĨ":8104,"ĠÙĤØ²Ø§ÙĤØ³ØªØ§ÙĨ":8105,"ĠÛ´Û¹":8106,"Û³Û³Û":8107,"Ú©ÛĮÙħ":8108,"ĠØ¨Ø¨Ø±Ø¯":8109,"ĠÙĨØ§ÙĤ":8110,"ĠØµÙĨØ¯ÙĦÛĮ":8111,"ĠØ¢Ø«Ø§Ø±Ø´":8112,"Ø§ÛĮØ±Ø§ÙĨ":8113,"Ø±ÙĪØ¨":8114,"ĠÙħØªÙĤØ§Ø¨ÙĦ":8115,"ĠØ´ÙĨØ§ÙĪØ±":8116,"Ø³Ø§ÛĮÛĮ":8117,"Ø±Ø§ØªÙĪØ±":8118,"ĠØªÙĪØª":8119,"ĠØ·ÙĪØ§ÛĮ":8120,"ĠØªÙĪÙĨÛĮ":8121,"ĠØ³Ø§ÙĤÙĩ":8122,"ĠØ¬Ø¨Ø±":8123,"ĠÙĤØ´ÙĦØ§ÙĤ":8124,"ĠÙĪÛĮÙĦÛĮØ§ÙħØ²":8125,"ĠØ²Ø§Ú¯Ø±":8126,"ĠØ¬ÙħØ§Ø¹Øª":8127,"ĠÙħØŃÚ©Ùħ":8128,"ĠÚ©Ø±ÙĪØ§Ø³ÛĮ":8129,"ĠØ±ÛĮÙĩ":8130,"ÛĮØªÙĪÙĨ":8131,"ÛĮØ¹ÙĨÛĮ":8132,"ĠÙĪØ¹Ø¯Ùĩ":8133,"ĠØ¬Øª":8134,"ĠÙģØ³Ùģ":8135,"ĠØ§ÙĨÚ¯ÙĪØ±":8136,"ĠØ¨Ø§Ø±Ø²":8137,"ĠÛĮØ§Ø¯Ø¨ÙĪØ¯":8138,"ĠÛ±Û¹Û³Û´":8139,"Ø´ØªØ§ÛĮÙĨ":8140,"ĠØ³ÛĮØ²Ø¯ÙĩÙħ":8141,"ĠØªØ²ÛĮ":8142,"ĠÚ©Ø´ÛĮØ´":8143,"ĠÙĨØ¸Ø±Ø§Øª":8144,"ÙĦØ§Ú¯":8145,"ĠÙħÙĨØªØ®":8146,"ĠØ±ÙħØ¶Ø§ÙĨ":8147,"ĠÚ¯ÙĪØ³Ùģ":8148,"ĠØ¢ÙĦÙģØ§":8149,"ĠØ¨Ø§ØªØ±ÛĮ":8150,"ĠØ¢ØºØ§Ø²ÛĮÙĨ":8151,"ĠØ§ÙĦÛĮØ§Ùģ":8152,"ĠØ®ÛĮØ§ÙĦÛĮ":8153,"ĠÙĩÙĨØ¯Ø³ÛĮ":8154,"ĠØ´Ø¹Ø±ÛĮ":8155,"Ø¬Ø²ÛĮØ±Ùĩ":8156,"ĠØ¬ÙĦØ³Ø§Øª":8157,"ĠØªØ§Ø±ÛĮÚ©ÛĮ":8158,"ÛĮÚ©Ø§ÙĦ":8159,"ĠØ³Ø§ÙĨØ¯":8160,"ĠÙĨÙĩÙĨÚ¯":8161,"Ø³Ø±Ø®":8162,"ĠØµÙĪÙģÛĮ":8163,"Ø§ÙĪØ±Ø¯Ùĩ":8164,"ĠÙħÙĪØ±ÛĮ":8165,"ÙģÛĮÙĨ":8166,"ĠØ³Ø§Ø¯Ø§Øª":8167,"ĠØ§ÙĪÙħ":8168,"iss":8169,"ĠÚ©Ø³Ø±":8170,"ĠØ¹ÛĮ":8171,"ĠÚ©Ø§ÙĦØ§ÙĩØ§ÛĮ":8172,"ĠØ¯Ø§Ø¹":8173,"Ø¨ÙĤ":8174,"Ø§Ø´Ø§Ùĩ":8175,"ĠÙĩØ±Ø²":8176,"lar":8177,"ÛĮØ¯ÙĩØ§ÛĮ":8178,"ĠØ§ÙģØ²ÙĪÙĨ":8179,"ĠÙħØªÙģÙĤ":8180,"ĠØ§Ù¾Ø±Ø§":8181,"ĠØ³ÛĮØ²Ø¯Ùĩ":8182,"ĠÙģØ±ÙĪØ®ØªÙĩ":8183,"ĠØ¢ÙħÙĦ":8184,"ĠØ³Ø±Ø§":8185,"ĠØ§ÙģØªØ®Ø§Ø±ÛĮ":8186,"ĠØ¨Ø±Ú¯Ø²ÛĮØ¯":8187,"ĠÙħÙħÙĦ":8188,"Ø§ÙħØ±":8189,"ĠÙħÙĪØ¨":8190,"ĠØªØ±Ø§ÙħÙ¾":8191,"ĠÛ±Û¹Û²Û¹":8192,"ĠØªÙĤØ¯ÛĮØ±":8193,"ĠØ§ÙĩØ±":8194,"Û´Û±":8195,"ÙĪØ®":8196,"Ø¶Ø§ÛĮÛĮ":8197,"Ø§ØºÙĦ":8198,"ĠØ¯Ø§ÙĪØ·ÙĦØ¨":8199,"ÙĪØ·ÛĮ":8200,"ĠÙĨÙĪØ³Ø§ÙĨ":8201,"ĠØŃØµØ§Ø±":8202,"Ø³ÛĮÙĩ":8203,"ĠØ¢ÙĦØ¨Ø±":8204,"ĠÙĨÙĪØ¢ÙĪØ±ÛĮ":8205,"ĠÚ©ÙĪØ¯ØªØ§ÛĮ":8206,"ĠÙħÙĨØ§Ø·ÙĤÛĮ":8207,"ĠÙģÙĤÛĮØ±":8208,"ĠØ²Ø¯ÙĨØ¯":8209,"14":8210,"Ù¾Ø§ÛĮØ§ÙĨ":8211,"Ú¯Ø±Ø§Ùģ":8212,"ĠØ±ÙĪÛĮÙĩ":8213,"ĠÙħØ±Ø·ÙĪØ¨":8214,"Ø§Ø³ØªÛĮØ´ÙĨ":8215,"ĠØ¯Ø¨ÙĦÛĮÙĪ":8216,"ĠÙ¾ÙĪØ±ÙĨÙĪÚ¯Ø±Ø§ÙģÛĮ":8217,"ĠÚ©ÙĪØ²":8218,"ĠØªØ§Ø«ÛĮØ±":8219,"ĠÙħÛĮØ¯Ø§ÙĨÛĮ":8220,"ĠÙħÙĪØ³Ø³Ùĩ":8221,"ĠÙĨØµÛĮ":8222,"ĠÙĩØ¯ÛĮÙĩ":8223,"ass":8224,"ÙĪØ§Ø¯ÙĪØ±":8225,"Ø³ÙģØ±":8226,"ĠØªØ±Ø³ÛĮÙħ":8227,"ĠØŃÚ©ÙħØª":8228,"ĠØ·ÙĦØ§ÙĤ":8229,"ĠÚ©ÛĮÙĦÙĪ":8230,"ÛĮÚ©Ø±":8231,"ĠÙĤØ§ÙĩØ±Ùĩ":8232,"ĠÚ¯Ø³ØªØ±Ùĩ":8233,"ĠØ¹Ø§ÙħÙĩ":8234,"Ø¢ÙĤ":8235,"ack":8236,"ĠÙħØ³Ø¦ÙĪÙĦØ§ÙĨ":8237,"Ù¾Ø§Øª":8238,"ĠÙĨØ¨ÙĪØ¯ÙĨØ¯":8239,"ĠÙĦÙĪÙ¾":8240,"ĠÙĨÙĪØ±Ø«":8241,"Ġhttps":8242,"ĠÙĨØ§ÙĪÚ¯Ø§ÙĨ":8243,"ĠÙħØ²Ø¨ÙĪØ±":8244,"ĠÙģÙĩØ±":8245,"ÚĺÙĪ":8246,"ĠØ¯ÙĪØ³ØªØ§ÙĨÙĩ":8247,"ĠØªÙħØ§ÛĮØ²":8248,"ĠÙħÙĦØ§ØŃØ¸Ùĩ":8249,"ĠØªÛĮØ²":8250,"ÙĪØ¯ÙĪ":8251,"ĠÙĦÛĮÙĨØ¯":8252,"ĠØªÙĪØ¬ÛĮÙĩ":8253,"ĠÚ¯Ø´ÙĪØ¯":8254,"ĠØ¢Ø±Øª":8255,"ĠØ¬ÙĦÚ¯Ùĩ":8256,"ĠØ§ÙĪØ±Ú¯ÙĨ":8257,"ĠÙħÛĮØ²Ø¨Ø§ÙĨÛĮ":8258,"ĠØ®ØªÙħ":8259,"ĠØ²Ùĩ":8260,"ĠÙħÙĨØ¸ÙĪÙħÙĩ":8261,"ĠØªØ®ØµØµ":8262,"ĠØ§Ø³ØªÛĮÙĦ":8263,"ĠÙħÙĨØ³ÙĪØ¨":8264,"ĠØ¢Ø±Ø³ÙĨ":8265,"ith":8266,"ÙĪÙĦÙĪÚĺÛĮÚ©":8267,"ĠØ¨Ø§Ùĩ":8268,"ĠÚ©Ø§Ø±ÙħÙĨØ¯":8269,"ĠÙĪØ±ÙĤ":8270,"ĠØªÚ©Ø«ÛĮØ±":8271,"ĠÙĪÙĨÛĮØ²":8272,"ĠÙĩØ§ÙĦÛĮÙĪÙĪØ¯":8273,"ĠØªÙĦÙĩ":8274,"ĠØ¬Ø§Ø¨Ùĩ":8275,"ĠÛĮØ§Ø®ØªÙĩ":8276,"Û´Û¸":8277,"ĠØ§ÙĦÚ©ØªØ±ÙĪÙħ":8278,"ĠÙħØ¹Ø§Ø¯ÙĦØ§Øª":8279,"ĠØ§Ø³Ø§Ø·ÛĮØ±":8280,"ĠØ¬Ø§ÙĨÛĮ":8281,"ĠÛµÛ±":8282,"ĠØ³Ù¾Ø±Ø¯":8283,"ĠØ§ÙĨØ¹Ø·Ø§Ùģ":8284,"ĠÙ¾Ø®Øª":8285,"Ø§Ø±ÛĮÙĩ":8286,"Ø¢ÙĦØ¨":8287,"ĠÛ±Û¹Û³Û²":8288,"ĠÙħØªÙĨØ§Ø³Ø¨":8289,"lin":8290,"ÙģØ´Ø§ÙĨ":8291,"ĠØŃÙĪØ¶":8292,"ĠÚ©ÛĮØ±":8293,"Ø¨ÙĪÚ©":8294,"ĠÙħÙĨÙĪÚĨÙĩØ±":8295,"ĠÙĨÙĩØµØ¯":8296,"ĠÛ±Û³Û·Û°":8297,"Ø¨Ø¹Ø¯":8298,"ĠÙģÛĮØ²ÛĮ":8299,"ĠØ³ÙĪØ®ØªÙĩ":8300,"Ø§Ø¦ÛĮÙĦÛĮ":8301,"Ø§ÙħÛĮØ±":8302,"ĠØ¢Ø±Ø§ÙħÛĮ":8303,"ĠÚ¯ÛĮØ±ÙĨØ¯":8304,"50":8305,"ÙĦÙĪÚ©":8306,"ĠØ´ÙĩØ±Ø¯Ø§Ø±":8307,"ĠÙħØ±Ø³ÙĪÙħ":8308,"ĠÙģØ¶ÙĦ":8309,"Ú¯ÙģØªÙĨØ¯":8310,"Ø§Ø´ÙĨØ§Ø³ÛĮ":8311,"ÙħÙĪÙĨØ¯":8312,"ĠÙĤÙĪØ§Ø¹":8313,"ÙĨØ§ÙĪ":8314,"ĠØ¨ÙĩÙħ":8315,"ĠØ²ÙĩØ±Ø§":8316,"Ú©ÙĦØ§":8317,"ĠØ§Ø¨ÙĪØ§ÙĦØŃØ³ÙĨ":8318,"ĠÙĨØ§Ø´ÙĨØ§Ø®ØªÙĩ":8319,"Ú©Ø§ÙĨÛĮ":8320,"ĠØ§Ø±Ú¯Ø§ÙĨ":8321,"ĠÚ©Ø±Ø§Ø³":8322,"ĠØ«Ø§ÙĨ":8323,"are":8324,"ĠÙĩÙħØ§ÛĮØ´":8325,"ĠØªØ±Ø§ÙģÛĮÚ©":8326,"ĠØ¯Ø§ÙĪÙĪØ¯":8327,"ĠØ®ÙĪØ¯ÙħØ®ØªØ§Ø±":8328,"ĠØ¬Ø¨Ø±Ø§ÙĨ":8329,"ĠØ±ØµØ¯":8330,"ĠØ¨Ø§Ø²ÙħØ§ÙĨØ¯":8331,"ĠØ¬ÙĨØ§ÛĮÛĮ":8332,"ĠØ¯Ø§ÙĪØ±Ø§ÙĨ":8333,"ĠÙģØ±Ø§Ø®ÙĪØ§ÙĨ":8334,"ĠØªØ§Ø³":8335,"ĠØ¢Ø±Ø¯":8336,"ĠÙĦÙĪØ³":8337,"ĠØ§Ø¹ØªØ¨":8338,"Ø³Ø§Ø¨":8339,"ĠØ§Ú¯":8340,"ĠÛ·Û°Û°":8341,"ĠÙħØ±ØŃ":8342,"ĠØ³Ø±Ø¯Ø¨ÛĮØ±":8343,"ĠØ§ÙĨØªØ¸Ø§ÙħÛĮ":8344,"ĠÚ©Ø±Øª":8345,"ĠÛ±Û³Û¸Û±":8346,"age":8347,"ĠØ¨Ø±Ø§Ø¨Ø±ÛĮ":8348,"Ú©ÙĦÙħ":8349,"ĠÙ¾ÙĦÛĮÙħØ±":8350,"ĠÚ¯Ø±ÙħØ³ÛĮØ±ÛĮ":8351,"Ø§Ø¯ÛĮÙħ":8352,"Ø¢ÙĨØ¬":8353,"ĠØ¯Ø§Ø±Ùħ":8354,"ØªØ§ÙĪÙĨ":8355,"ĠØ³Ø¯ÛĮÙħ":8356,"ĠÚ¯Ø±ÛĮØ®Øª":8357,"17":8358,"ĠÙ¾ÙĪÙĨØ¯":8359,"ath":8360,"ĠØ®ØµÙĪØµØ§":8361,"ĠØ¨ÙĤØ¹Ùĩ":8362,"Ø§ÙĦÙĪÚ¯":8363,"Ø¯Ø±Ø§Ø³ÛĮÙĪÙĨ":8364,"ĠÚĺØ§Ú©":8365,"ĠØ±Ø³Ø§ÙĨØ¯ÙĨ":8366,"ry":8367,"ÙĦÙĪØ§ÙĨ":8368,"Ø±ÛĮØ²Ø¯":8369,"ØªÛĮØ§ÙĨ":8370,"ĠØ§Ø³Ú©ÛĮ":8371,"ÙĨÙĪØ§Ø®Øª":8372,"ÙĪØ§Øª":8373,"ĠØ§Ø´Ø±Ùģ":8374,"erv":8375,"ĠØ¨Ø±ÙĤÛĮ":8376,"ĠÛĮÙĪØ±":8377,"ĠÙĩÙĪØ±ÙħÙĪÙĨ":8378,"Ġ10":8379,"ĠÙħÙģÙĩÙĪÙħÛĮ":8380,"ÙĨÙĪØ³":8381,"Ø±ÙĪØ³Øª":8382,"ØªÙĪÙħ":8383,"ĠØ¨Ø§ÙĤØ±":8384,"ĠÚ©Ø´ÙĪØ±ÙĩØ§ÛĮÛĮ":8385,"ĠØªØºÛĮÛĮØ±Ø§ØªÛĮ":8386,"ÙĪÛĮÚĺÙĨ":8387,"ĠÛµÛ³":8388,"ÙĨÙĩØ§":8389,"ĠØ¹Ø§Ø¯ÙĦ":8390,"ĠÛ¶Û²":8391,"ĠØ§Ø³ØªØ§ÙĨÛĮ":8392,"ĠØ¢ÙĦÙģØ±Ø¯":8393,"ĠÙĥÙĩ":8394,"ĠÙĨÙħÙĪØ¯ÙĨ":8395,"oh":8396,"ĠØ±ÙĪØ´ÙĨØ§ÛĮÛĮ":8397,"ss":8398,"ĠØ®Ø´ÙĨ":8399,"ĠÙħØ±Ø§Ø¬Ø¹":8400,"ĠØªÛĮÙĦÙĪØ±":8401,"Ø¢ÙħÙĪØ®ØªÙĩ":8402,"ĠØ²ÙĪØ¯ÛĮ":8403,"ĠØªÙģØ±ÛĮØŃÛĮ":8404,"ĠØ·ÙĪØ§ÛĮÙģ":8405,"ĠØ§Ø¨ØªÙĦØ§":8406,"ĠÙĨØ§ÚĨØ§Ø±":8407,"ÙĨØ¨Ø±Ú¯":8408,"ĠÙ¾ÙĨØ¯":8409,"Ø±Ø¯Ø§Ùħ":8410,"ĠØ§ÙĪÚ©":8411,"ĠØ¢ÙĩÙĨÚ¯Ø³Ø§Ø²ÛĮ":8412,"ĠØ¨Ø§ÛĮØ³ØªÛĮ":8413,"ĠØ¨Ø³Ø·":8414,"Ø§ÙħÙĪ":8415,"Ø±ÛĮØ´ÛĮ":8416,"ÙĪÛĮÙĦÛĮ":8417,"Ø®ÙĪÙĨ":8418,"ĠØ²ØºØ§ÙĦ":8419,"ÙĪÛĮÚ¯":8420,"ĠØªØ£Ø®ÛĮØ±":8421,"Ø§Ú¯ÛĮØ±":8422,"ue":8423,"ĠØµÙģÛĮ":8424,"ĠØ¨Ø§Ø´ÛĮÙħ":8425,"ĠØ§ÙħÛĮ":8426,"Ø®ÙĪØ§ÙĩÙĨØ¯":8427,"ĠØ´Ø¹Ø§Ø¹":8428,"ĠØºÙĪÙĦ":8429,"Ø§Ø·Ùĩ":8430,"ĠÙħØ´Ø§ÙĪØ±Ùĩ":8431,"ĠÙħØ´Ø±ÙĤ":8432,"ial":8433,"ØŃØ§ÙĤ":8434,"ĠÚ©ÙĪÛĮÙĨ":8435,"ĠÙĤØ§ØªÙĦ":8436,"ĠØ¯Ø´ØªÛĮ":8437,"ĠØ±ÙĪØŃÛĮ":8438,"ĠØ´ÙĪÚ©":8439,"ĠØ®Ø·Ø§":8440,"ĠÛ±Û±Ûµ":8441,"ĠØ¢Ø¨ÛĮØ§Ø±ÛĮ":8442,"Ø®Ø§ÙĦ":8443,"ÙĪÛĮØ¶":8444,"Ø³ÙĦØ·Ø§ÙĨ":8445,"ĠØ±Ø²Ùħ":8446,"ĠØºÙĦØ¨Ùĩ":8447,"ĠØ³ÙĦØ¬ÙĪÙĤÛĮØ§ÙĨ":8448,"ĠÙĨØ§ÙħØ²Ø¯ÛĮ":8449,"ĠÙħØ²Ø¯":8450,"ĠÙĨØ¯Ø±":8451,"ĠÙħÛĮÚ©ÙĨØ¯":8452,"Ø³ÙĪØ²ÛĮ":8453,"ĠÙĩØ§Ø±Øª":8454,"ĠØ´ÙĩØ±Ú©ÛĮ":8455,"ĠÛĮÙĪØ±Ø´":8456,"ĠØ§ØµÛĮÙĦ":8457,"ĠÛ±Û²Ûµ":8458,"ĠÛµÛ¸":8459,"ĠØ§Ø³ØªØ±Ø§ØŃØª":8460,"ĠØºØ°Ø§ÙĩØ§ÛĮ":8461,"ĠÙħØ²Ø§ÛĮØ§ÛĮ":8462,"Û´Û³":8463,"ĠÙħÙĪØ³ÛĮÙĤ":8464,"ØªÙĪØ³":8465,"ÚĨÚ©":8466,"Ø·Ø§ÙĨÛĮ":8467,"ĠØ¢ÙĦØ§Ø³Ú©Ø§":8468,"ĠØ®ÛĮØ§ÙĨØª":8469,"ÙĨÚ¯Ø±ÛĮ":8470,"ĠØ´Ø®ØµÛĮØªÛĮ":8471,"ÙħØ±Øº":8472,"ĠØ³Ø§Ú©ÙĨÛĮÙĨ":8473,"ka":8474,"ĠØªØ¨Ø±ÛĮØ²ÛĮ":8475,"ĠØµØ±ÙģÙĩ":8476,"ĠØªØ¨Ø±":8477,"Ø¹Ø²":8478,"ĠØ¹ÛĮØ¯":8479,"ĠØ§ØŃÚ©Ø§Ùħ":8480,"ĠØ³Ø®ÙĨÚ¯":8481,"ĠØªØ£Ø«ÛĮØ±Ø§Øª":8482,"ĠØ³ÙĩØ±":8483,"ĠÚ¯Ø³":8484,"ĠÙģØ±Ø´ØªÙĩ":8485,"ĠØ§ØªÙģØ§ÙĤØ§Øª":8486,"Ø±Ø¦":8487,"ĠØ±Ø¨ÛĮ":8488,"ĠÙĩØ§Øª":8489,"ĠÙĩØ§ÛĮÙĨ":8490,"ĠÙĤØ¯Ø³":8491,"ĠÛ¸Û¸":8492,"ĠÛ±Û¹Û²Û±":8493,"ÙħØŃÙĪØ±":8494,"ĠÙĪØ§ÙĦØªØ±":8495,"ĠØªØ¨ÙĦÛĮØºØ§ØªÛĮ":8496,"ĠØ¨Ø§Ø·":8497,"ĠØ³Ø®ÙĨØ§ÙĨ":8498,"ĠØ¹ÙħØ±Ø§ÙĨ":8499,"Ú¯Ø±ÙģØªÙĨØ¯":8500,"ĠØ¯Ø±Ø³ÛĮ":8501,"ÙĤÙĪÙĩ":8502,"SO":8503,"Ø§ÙĩÙĨ":8504,"ĠÙĦÙĨØ²":8505,"ĠØ¹ÙĤØ§Ø¨":8506,"ĠØ³ÙĨØ¬Ø´":8507,"web":8508,"ĠØ§ÛĮÙĦÛĮ":8509,"ĠÙħÛĮØªÙĪØ§ÙĨ":8510,"Ø®ÙĪØ´":8511,"ĠÚ¯ÙĦØ¯ÙĨ":8512,"Ø¯ÙĦÛĮÙĦ":8513,"ta":8514,"Ø§Ø²Ø¯":8515,"Ø§ÙĪØ§Øª":8516,"ĠÙĨÙģØ±ÛĮ":8517,"Ġe":8518,"ÙģØ³ÛĮ":8519,"Ú¯Ø°Ø´ØªÙĩ":8520,"ĠØ±ØŃÛĮÙħ":8521,"ÙģÙĪØ±Øª":8522,"ĠØ±ÙħØ§ÙĨÛĮ":8523,"ĠØ§ÛĮÙħ":8524,"ĠÛ±Û³Û·Û¶":8525,"ĠØ²ÙħØ³ØªØ§ÙĨÛĮ":8526,"ĠØ¢Ø¯Ø§Ø¨":8527,"ĠÙĨÙģÛĮ":8528,"ĠÛĮØ§Ùħ":8529,"ĠÙ¾ÙĩÙĨØ§ÛĮ":8530,"),":8531,"ĠØªÙĪØ±Ø¨ÛĮÙĨ":8532,"ĠØ³ÛĮØª":8533,"ĠØ±ÛĮØ¯":8534,"ĠÚ¯Ø§ÙĩØ´ÙħØ§Ø±ÛĮ":8535,"Ø±Ø²Ø§Ø¯Ùĩ":8536,"ÙħØ±Ú©Ø²":8537,"ĠØ±ÙĪØ¯Ø¨Ø§Ø±":8538,"ĠØ¹Ø±ÙĪØ³":8539,"Ú¯Ø´Ø§ÛĮÛĮ":8540,"Ú¯ÙĦÛĮ":8541,"ĠØ¬Ø§Ø¯ÙĪ":8542,"ĠÙĦØ§ÙħÙ¾":8543,"ĠÙĦÙħ":8544,"ĠØ±Ø§Ø¨ÛĮÙĨ":8545,"Û±Û³Ûµ":8546,"ĠØ§Ø³ØªÛĮÙĪ":8547,"ĠÙħÙħÙĨÙĪ":8548,"Ø¯ÙĨØ¯Ùĩ":8549,"ĠÙģÙĪÚ©":8550,"ĠØ§Ø³Ú©ÙĦ":8551,"ĠØ§Ø±Ø¨Ø§Ø¨":8552,"ĠÚ¯Ø±ÙħØ§ÛĮÛĮ":8553,"ĠØ±Ø§Ø¬Ø¹":8554,"ĠÙħØ§Ø³Øª":8555,"Ú¯Ø§Ø³":8556,"Ø«Ùĩ":8557,"Ġ12":8558,"ĠØ§Ø±ØªÙĤØ§Ø¡":8559,"ĠÙĪÙĨØ¯":8560,"ĠÙģØ±Ø§ÙĪØ±Ø¯Ùĩ":8561,"ĠÙħØ¬ÙĦ":8562,"ĠØ±ÙĪØŃØ§ÙĨÛĮÙĪÙĨ":8563,"Ø§Ø±Ø¨":8564,"ĠØ§Ø³Ù¾Ø±Ø§ÙĨ":8565,"ĠØªØ£Ø³ÛĮØ³Ø§Øª":8566,"ĠÛ±Û³Û·Ûµ":8567,"ĠÙħÙĪØ±ÛĮØ³":8568,"ĠØ¯Ø±Ø®ØªÛĮ":8569,"ĠØºÛĮØ±ÙĨØ¸Ø§ÙħÛĮ":8570,"ĠØ®ÙĪØ±Ø§Ú©":8571,"ĠØ³ÛĮÙħØ§ÛĮ":8572,"ĠØ·Ø¨ÙĤØ§Øª":8573,"ĠÙĩÙĪØ§ÙĨ":8574,"ØºØ¯":8575,"ĠØ§Ø¹ØµØ§Ø¨":8576,"ĠÚ©ÙĪÛĮØ±":8577,"ĠÙħØ·Ø¨ÙĪØ¹":8578,"ĠÛ±Û¹Û±Û´":8579,"ĠØªØ§ÙĦØ§Ø¨":8580,"ĠØ¹Ø´Ø§ÛĮØ±":8581,"Ø¯ÙĩÛĮÙħ":8582,"ĠÙħÛĮØ³ÛĮ":8583,"ĠÙĩØ§Ù¾":8584,"ĠØ¨Ø±Ú¯Ø±Ø¯Ø§ÙĨ":8585,"[[":8586,"Ø¬ÙĪØ±":8587,"ĠÙħØ±ØªÙģØ¹":8588,"ĠØ¢ÙĨØ§ÙĦÛĮØ²":8589,"ĠØ¯ÙĪÚ¯Ø§ÙĨÙĩ":8590,"ĠØ³ÙĨØ§":8591,"ĠÙĩÙħØ¨":8592,"ØºØ±Ø¨":8593,"ĠÙħÙĩØ¯":8594,"ĠÙħÙĪØ³Ø³Ø§Øª":8595,"ĠÙħØ¹Ø§ÙĩØ¯Ùĩ":8596,"ĠÙĨØ¨Ø±Ø§Ø³Ú©Ø§":8597,"ĠÙ¾ÛĮÙĦ":8598,"ĠÙĦØ±ÛĮ":8599,"ĠÚ©ÙĦØ³ÛĮÙħ":8600,"ÙħÙĨØ¸":8601,"ÙħØŃØ§ÙĦ":8602,"ÙħÙĨØ·ÙĤÙĩ":8603,"ĠÙĨÙĪØ±Ø¯":8604,"ĠØ¬Ø¹ÙģØ±ÛĮ":8605,"port":8606,"ĠØªØµØŃÛĮØŃ":8607,"ĠØ±Ø³Ø§ÙĨÛĮ":8608,"Ø¨Ø§Ø²ÛĮÚ©ÙĨ":8609,"ĠØ®Ø§ÙĪØ±ÛĮ":8610,"Û¶Û²":8611,"ĠØªØµÙĨÛĮÙģ":8612,"ĠÛ±Û¹Û±Ûµ":8613,"ĠØ¢Ú©Ø³ÙģÙĪØ±Ø¯":8614,"ĠÙħÛĮØª":8615,"ĠØ¨ÛĮØ§ÙĨÚ¯Ø±":8616,"ĠÙħØ¸ÙģØ±":8617,"ĠØ¹ÙĦØ§ÙħÙĩ":8618,"ĠØ§Ø¨ÙĪØ§ÙĦÙĤØ§Ø³Ùħ":8619,"ÙĦØ³ÙĪÙĨ":8620,"ĠÙħÙĨØŃØµ":8621,"Û´Û¹":8622,"ĠØ´ÙĨØ§":8623,"ĠÙĪÛĮÙĦØ³ÙĪÙĨ":8624,"ĠØ§Ú©ØªØ´Ø§Ùģ":8625,"ĠØ®ÙĨØ«ÛĮ":8626,"201":8627,"ÙĪØ±Ùħ":8628,"Ø²ÛĮØ±ÛĮ":8629,"ÙĤØ±Ø§Ø¶":8630,"Ø¨ÙĪØªØ±":8631,"ĠÚ¯Ø°Ø§Ø´ØªÙĨ":8632,"ĠØ¹Ú©Ø§Ø³":8633,"ĠÙħÙĪØ¶Ø¹":8634,"ĠÙ¾ÙĪØª":8635,"ĠÙ¾ÙĦØª":8636,"ĠTh":8637,"ÛĮØ¹":8638,"ĠÚ©Ø´ÛĮ":8639,"Ú©ÙĦÙĨ":8640,"ĠÙģÛĮØ´":8641,"ĠÛ±Û¹Û³Û±":8642,"ÙģØ¹Ø§ÙĦ":8643,"ÙħÙĩØ¯ÛĮ":8644,"ĠÙģØ±Ø§ÙĨØ³ÛĮØ³":8645,"ĠÚ¯ÙĪÛĮØ§":8646,"ment":8647,"ĠØ³Ø§Ø¨":8648,"ĠØªØµØ§Ø¯Ùģ":8649,"ĠØ¯Ø±ÙĪØ³":8650,"ØªØ¹":8651,"Ø³ØªÙħÛĮ":8652,"ĠÚ¯Ø±Ø§ÛĮÛĮ":8653,"ĠØ³ÙĪØ§Ø¯":8654,"ĠØ®Ø±Ø¯Ùĩ":8655,"ĠØ§ØªÙģØ§ÙĤÛĮ":8656,"ÙĨØ¸Ø§Ùħ":8657,"ĠÙħØ´Ø§Ø¨ÙĩÛĮ":8658,"Ø³ÙģØ§ÙĨÙĩ":8659,"ĠØ¢ÙĨÚ¯":8660,"ĠØµØ±":8661,"Ø´Ø±Ú©Øª":8662,"ĠØµÙĦÛĮØ¨":8663,"ĠØ¯Ú¯Ø±Ú¯ÙĪÙĨÛĮ":8664,"Ø±Ø§ÙĦ":8665,"Ù¾Ø§ÛĮÛĮ":8666,"ĠÙĦÙĪØ³ÛĮ":8667,"ĠØµÙĪÙħØ¹Ùĩ":8668,"one":8669,"ĠÛĮØ§Ø¯Ø¯Ø§Ø´Øª":8670,"ĠÚ©Ø±ÛĮØ³ØªÛĮÙĨ":8671,"ÙĨØ®":8672,"ĠØ§ÙĦØ³":8673,"ĠØ±ÙģØªØ§Ø±ÛĮ":8674,"ĠÙ¾Ø±Ø¯ÛĮØ³":8675,"ĠÙģØ±Ø§ÙħÙĪØ´":8676,"ĠÚ©ÙĨÙĪØ§ÙĨ":8677,"ØªØ±ÙĨ":8678,"ÙĨØ¯ÙĩØ§":8679,"ĠØªØ±Ú©ÙħÙĨ":8680,"ĠØªÙĩØ§Ø¬Ùħ":8681,"ĠÙĪÙĨØ²ÙĪØ¦ÙĦØ§":8682,"ĠÙģØ®Ø±":8683,"ĠØ®ÛĮØ±ÛĮÙĩ":8684,"Ã¼":8685,"ÙħØ§Ùħ":8686,"Ú©ÙĪØ´":8687,"ĠØ§ÙĤØªØ¨Ø§Ø³":8688,"ĠÙħÙĨÙĩ":8689,"ĠÙģØ±Ø§Ø±ÛĮ":8690,"ĠÚ¯ÙģØªØ§Ø±":8691,"ĠÛ¹Û³":8692,"ĠØ¬ØºØ±Ø§ÙģÛĮØ§ÛĮ":8693,"ĠØ´Ø§ÙĨÙĩ":8694,"ĠÙħÙĨØ§Ø²":8695,"ĠØ§Ø³Ø§Ø±Øª":8696,"ÛĮØ²ÛĮØ§ÙĨØ§":8697,"ĠÙħØ²ÛĮØª":8698,"ĠÙħØ³Ø§ÙģØ±Ø§ÙĨ":8699,"ĠÙģØ¶Ø§Ù¾ÛĮÙħ":8700,"ĠÙĦØ´Ú©Ø±Ú©Ø´ÛĮ":8701,"ĠÙħØ¯Ø§Ø®":8702,"ĠÙĨÙĤÙĦÛĮÙĩ":8703,"ĠØ¹ÙĦÙģ":8704,"ore":8705,"ĠØ±ÙģØªØ§Ø±ÙĩØ§ÛĮ":8706,"ĠÛ±Û¹Û²Û¸":8707,"ĠÙĪØ§ÚĺÚ¯Ø§ÙĨ":8708,"ĠØ¯Ø§Ø¹Ø´":8709,"ĠØ±Ø¨Ø§Øª":8710,"ĠØ¢ÛĮØ§Øª":8711,"Ø¹Ø§Ùħ":8712,"ĠÙ¾ÙĪÛĮØ§":8713,"ĠÚ©ÙĨÙħ":8714,"Û·Û²":8715,"ÙĪØ¦ÛĮÙĩ":8716,"ĠÙ¾ÙĦØ§Ø³ØªÛĮÚ©":8717,"ÙĨÙĩØ§ÛĮØª":8718,"ĠØ§ÙĪØ³":8719,"ĠÙĨØ³Ø¨":8720,"ĠÙħØ§ÙĪØ±":8721,"ÙħÛĮÙĨÙĩ":8722,"ĠÙħÙĤÛĮÙħ":8723,"ĠØ¹Ø±ÙĪØ³ÛĮ":8724,"ĠÙĪØ§Ù¾Ø³ÛĮÙĨ":8725,"ĠØ´Ø§Ø¯ÛĮ":8726,"ĠÛĮÚ©Ø¨Ø§Ø±":8727,"ØµØ¯ÛĮ":8728,"ØªÙĪØ§ÙĨØ³ØªÙĨØ¯":8729,"Ø¨ÛĮØ§":8730,"ĠØ¨Ø§Ú©":8731,"na":8732,"Ø§Ú©Ø¨Ø±":8733,"ĠØ®Ø¨Ø±ÙĨÚ¯Ø§Ø±":8734,"Ø¢ÙħØ¯Ùĩ":8735,"ĠÛ±Û³Û·Û¹":8736,"ier":8737,"ÛµÛ°Û°":8738,"ĠØ°ÛĮ":8739,"ĠÛ¹Û¸":8740,"ĠØ¬Ø³ÙħÛĮ":8741,"ind":8742,"Û³Û¹Û":8743,"ĠÙĨØ§Ø¯Ø±Ø³Øª":8744,"ĠØ§ÙĪÙĦÙĪÛĮØª":8745,"ĠÙĨØ¯Ø§Ø¯":8746,"ĠØ³ÙĨØ¯Ø±Ùħ":8747,"ĠÚ©ÙĨÙĪØ§ÙĨØ³ÛĮÙĪÙĨ":8748,"ĠØ±Ø§ÛĮØª":8749,"ĠØºÙħ":8750,"ĠØºØ²":8751,"Ø´ÙĨØ§Ø³ÙĨØ¯":8752,"ĠØ´Ø¯ÛĮØ¯ÛĮ":8753,"ĠØŃÛĮØ§ØªÛĮ":8754,"ĠÙħÙĪÙĨØªÙĩ":8755,"ĠÙĪØ§Ø¶":8756,"ĠØ±ÛĮÙĨ":8757,"ĠÚ©ÙĦØ§Ø±Ú©":8758,"ĠÚ¯ÙĪØ§Ùĩ":8759,"ĠØ±Ø§ÙĨÙĨØ¯Ú¯ÛĮ":8760,"ĠØ§Ø¹ØªØµØ§Ø¨":8761,"ĠÙĪØ±Ø¯":8762,"ĠØ´Ø§ÙĦ":8763,"ÙĪØ´ÙĨ":8764,"ĠØ¨Ø§ÙĨÙĪØ§ÙĨ":8765,"ĠØ·Ø§ÙĦØ¨Ø§ÙĨ":8766,"ĠÙĤÙĪÚĨ":8767,"ĠÙĩØ§Ø±ÙĪØ§Ø±Ø¯":8768,"ĠTr":8769,"Û·Û¸":8770,"ĠÙģÙĦØ§Øª":8771,"ĠØ³Ø§ÙĦÛĮØ§ÙĨÙĩ":8772,"ĠØ¬ÙĪÙĨÛĮ":8773,"ĠØ´ÙħØ±Ø¯Ùĩ":8774,"ĠØ¢Ø²ÙħØ§ÛĮØ´ÛĮ":8775,"ĠÙĤØ±Ø¨Ø§ÙĨÛĮØ§ÙĨ":8776,"ĠØ¹Ø±ÙģØ§ÙĨ":8777,"ĠÙĩÙĪÙĨ":8778,"ĠÚ¯ÙģØªÙĨØ¯":8779,"ĠØ¨ØŃØ±Ø§ÙĨÛĮ":8780,"ĠØ§Ø±Ø²Ø´ÙħÙĨØ¯":8781,"ĠÚĨÙĩØ§Ø±ÙħØŃØ§ÙĦ":8782,"ĠÙĨØ§Ú¯ÙĩØ§ÙĨ":8783,"Äģ":8784,"ĠØ¨Ø§Ø±Ø¯Ø§Ø±ÛĮ":8785,"ĠØ¢ÙĨØªÙĪÙĨÛĮÙĪ":8786,"ĠÙĩÙģØ¯ÙĩÙħ":8787,"ĠÙĤØ±ÛĮØ¨":8788,"ĠØŃÚ©Ø§ÛĮØª":8789,"ĠÙģØ±Ø¯Ø±ÛĮÚ©":8790,"ĠØ®ÙĪØ§Ø±Ø²Ùħ":8791,"ĠØ³Ø§ÙĨØªØ§":8792,"ĠØ±ÙĪØ§ÙĨØ´ÙĨØ§Ø³ÛĮ":8793,"ĠÙ¾ÛĮØ´Ùĩ":8794,"Û±Û¹Û²":8795,"ĠØªÙĤØ§Ø¶Ø§":8796,"ĠÙĨÚĺØ§Ø¯ÛĮ":8797,"Ġi":8798,"ĠÙħÙĨØªØ®Ø¨":8799,"ÙģÛĮØ±":8800,"ĠØ´Ø±ÛĮÚ©":8801,"ØªÙĪØ§ÙĨÛĮ":8802,"ĠØªÙĪÙĤÛĮ":8803,"ĠÙħØ¬Ø±ÙĪØŃ":8804,"ĠØ¨Ø·":8805,"Ú¯Ø§Ø±Øª":8806,"ÙĤØ§ÙĨÛĮ":8807,"ĠØ§Ø²Ø¬ÙħÙĦÙĩ":8808,"ĠØ¨Ø±ØªØ±ÛĮÙĨ":8809,"ĠØ§ÙĨØ¯ÛĮØ´":8810,"ĠØ·ÙĪÙģØ§ÙĨ":8811,"ĠÚ©ÙħØ¨Ø±ÛĮØ¬":8812,"ĠØ§ÙĦÙħØ§Ø³":8813,"ĠØ³ÙĦØ§ÙħØªÛĮ":8814,"ld":8815,"ĠÚ¯ÙĪØª":8816,"ĠÙ¾Ø§Ø´Ø§":8817,"ÚĨÙĨØ§ÙĨ":8818,"Û¶Û±":8819,"ional":8820,"ĠØ§Ø³Ø±Ø§Ø¦ÛĮÙĦÛĮ":8821,"ÙĦÛĮÙĤ":8822,"Ø²Ø§Ø¯Ú¯Ø§ÙĨ":8823,"ĠÙħØªÙģÙĤÛĮÙĨ":8824,"ĠÙĪÙĪ":8825,"ĠØ¹Ø§ÛĮÙĤ":8826,"Ø©Ø§ÙĦ":8827,"ĠØŃØ§ÙħÛĮØ§ÙĨ":8828,"ÛĮØ³ÙĪÙĨ":8829,"ĠØªØ¹Ø¨ÛĮØ±":8830,"ĠÚ©ÙģØ´":8831,"ĠØªØ±ÙĪØ±ÛĮØ³Ùħ":8832,"ĠÙħØ¨Ø¯Ø£":8833,"ÚĨÙĨÚ¯":8834,"ĠÚ©Ø±Ø¯Ùħ":8835,"ĠØ¯Ø§Ø±Ø§ÙĦ":8836,"ĠÙĩÙħØ§ÛĮÙĪÙĨ":8837,"ĠØ¨ÙĦÙĪØ§Ø±":8838,"ĠÛ±Û¹Û²Û´":8839,"ĠØ¨Ø§Ø¯Ø§Ùħ":8840,"ĠÚ©Ø±ÙĪØ²":8841,"ĠØ³Ø§Ø±Ø§":8842,"ĠÙģØ§Ú©Ø³":8843,"ĠÙ¾Ø±Ø´":8844,"Û¸Û±Û":8845,"ĠÙħØ³ÛĮØ±ÙĩØ§ÛĮ":8846,"ĠØ¨Ø§Ø±Ø³ÙĦÙĪÙĨØ§":8847,"Ù¾ÙĪ":8848,"ĠØ¨Ø±ÙĪØ³":8849,"ĠØ²Ø§Ø±":8850,"ĠÙĦÙĨÛĮÙĨ":8851,"ĠØ´Ø§ÙĨØ³":8852,"ĠØ¢ØªÙĦ":8853,"Ø§Ø±ÛĮØ§":8854,"ĠØ³Ø±ÙĩÙĨÚ¯":8855,"amp":8856,"ĠÙħØ´Ø±ÙĪØ·":8857,"ĠØ¨ÙħØ¨Ø§Ø±Ø§ÙĨ":8858,"Ú©Ø¯Ø§Ùħ":8859,"ĠÙĤÙĪØ±":8860,"ÙĪÙĨØ¯Ø§":8861,"Ú©ÙĪØª":8862,"ĠØŃØ§Ú©ÛĮ":8863,"Ø§ÙĦÛĮØ§ÛĮ":8864,"},":8865,"ĠØºØ²ÙĦ":8866,"ĠÙħØ³ÛĮØ±ÛĮ":8867,"ÚĨÙĩØ§Ø±":8868,"ĠÙĦÙĪØ¦ÛĮØ²ÛĮØ§ÙĨØ§":8869,"ï»":8870,"ĠÙĦØ§ÛĮØŃÙĩ":8871,"ĠØ§Ø¹ÙĦØ§ÙħÛĮÙĩ":8872,"________":8873,"ĠÙĨÙĪØ§Ø®ØªÙĨ":8874,"ĠÙħØ±ÙħØª":8875,"ĠÚ©ÙĦÙħ":8876,"ĠØ§Ø³ØªÙĪØ¯ÛĮÙĪÛĮÛĮ":8877,"ĠÚ©Ø§Ø±Ø§Ú©ØªØ±":8878,"ĠÙĤÙĪØ§Ø¹Ø¯":8879,"ĠÙĪØ·ÙĨ":8880,"ĠÙħÛĮÚ©Ø±":8881,"ÛĮÙĨØ³":8882,"ĠÙ¾Ø§ÙĨØ²Ø¯ÙĩÙħ":8883,"Õ¡Õ":8884,"ĠÙ¾Ø´ØªÙĩ":8885,"ĠØŃØ§Ø¦":8886,"ĠÚ©Ø§Ø±Ú¯Ø±ÛĮ":8887,"ĠÛ±Û³Û·Û¸":8888,"ĠØ¢Ø¦ÛĮÙĨ":8889,"ĠÙħÛĮÙĦÙĩ":8890,"ĠÙĨØ´Ø§ÙĨÚ¯Ø±":8891,"ĠÙĦÛĮÙĨÙĪÚ©Ø³":8892,"ĠØ¨Ø±Ø¢ÙĪØ±Ø¯Ùĩ":8893,"Ø§ÙĨÛĮØª":8894,"ÛĮØ¯ÙĨÛĮ":8895,"Û°Û³Û":8896,"ĠØ±ÛĮØ®Øª":8897,"Ġfor":8898,"ĠØ§ÛĮÙĨØ¯":8899,"Ø§Ø±ÛĮØ¯":8900,"ĠÙħØ¬ÙĦØ§Øª":8901,"ÙħØ±Ø§ÙĨÛĮ":8902,"ĠÙĨÛĮÙĪØ²ÛĮÙĦÙĨØ¯":8903,"ĠØ³Ø²Ø§Ø±":8904,"ĠÙħØ³Ø§ÙģØ±Ø¨Ø±ÛĮ":8905,"ĠÙħÛĮØ´ÙĦ":8906,"ĠØªØ§Ø²Ú¯ÛĮ":8907,"ĠÙĩØ±Ùħ":8908,"ĠØ¯ÙĦÛĮ":8909,"ĠØ³Ø±Ø§Ø¨":8910,"ĠØ§ÛĮØ±Ø¬":8911,"ĠØ´Ø¬Ø§Ø¹":8912,"ĠØ§ØµØ±Ø§Ø±":8913,"ÛµÛ±":8914,"ÛĮØ§Ø¨ÙĨØ¯":8915,"ÙĪØ¨Ùĩ":8916,"ĠÚ©Ø¨Ø¯":8917,"Û·Û±":8918,"Û¶Û¸":8919,"ĠÚ¯Ø±Ø§ÙģÛĮÚ©ÛĮ":8920,"ock":8921,"ĠØ¬ÙĪØ²":8922,"Û·Û¹":8923,"ĠØ´ÙĩØ§Ø¨":8924,"ĠÛĮØ¹ÙĤÙĪØ¨":8925,"Ù¾Ø±Ø³Øª":8926,"ĠØ¨ÙĨÛĮØ§ÙĨÚ¯Ø°Ø§Ø±":8927,"Ø³ÛĮØ§Ùĩ":8928,"ĠØ¨Ø§Ø¨Ú©":8929,"Ø³ÙģÛĮØ¯":8930,"Ø§ÙĨØ³ÛĮ":8931,"ĠØºØ±ÙĤ":8932,"ĠØŃÙĦØ§ÙĦ":8933,"ĠØ¨Ø§Ø¨ÛĮ":8934,"ĠØ¨ÙĪØ¯Ø§ÛĮÛĮ":8935,"ĠØ®ÙĪØ±Ø¯Ú¯ÛĮ":8936,"Ø§ÙĬ":8937,"ÙĪÙĨÙĪ":8938,"ĠÙĤØ§Ø¦ÙĦ":8939,"ĠØ§ØŃØ§Ø·Ùĩ":8940,"ĠUn":8941,"ÙĦÛĮÙħÛĮ":8942,"ĠDNA":8943,"Ø¢ÙĩÙĨÚ¯ÛĮ":8944,"ÙħØªØ±ÛĮ":8945,"ÙĪÚ¯ÙĪØ¦Ùĩ":8946,"ĠÙħØ¯ÛĮØ±ÛĮ":8947,"Ġy":8948,"ĠÚ©Ø§Ø´Øª":8949,"Ø¢ÙĦØ¨ÙĪÙħ":8950,"ĠÚ¯ÙĦÙĩ":8951,"ĠØ§Ø¬Ø§Ø±Ùĩ":8952,"Ø²Ø¨ÙĪØ±Ú¯":8953,"ĠÙĦÙĪØŃ":8954,"ĠÙĤØ¨Ø±Ø³":8955,"ĠÙĦÙĪÛĮÛĮ":8956,"ĠØ¨Ø§Ø²ÙħØ§ÙĨØ¯Ùĩ":8957,"ĠØ³Ø±Ø³":8958,"ĠØºØ±":8959,"ÛµÛ³":8960,"ĠØ³ÙĪÚ¯":8961,"ĠÛĮÚ¯Ø§ÙĨ":8962,"ĠØªÙĨÙģØ³ÛĮ":8963,"ØªÙĪÙĦÛĮØ¯":8964,"Ø®ÛĮÙĦÛĮ":8965,"Ġ139":8966,"ĠØ¨Ú¯Ø°Ø§Ø±Ø¯":8967,"ĠØ±ÛĮÙĪØ±":8968,"ĠØ¨Ø±Ø¢ÙħØ¯":8969,"ĠÛ±Û³ÛµÛ¹":8970,"ĠØ±Ø§ØŃØª":8971,"ĠØ²ÙĨØ¨ÙĪØ±":8972,"ĠÙĤØ¶Ø§ÙĪØª":8973,"Û·Û³":8974,"ĠÚĨÙĩØ§Ø±Ø¯ÙĩÙħ":8975,"Ø±ÛĮÙĦ":8976,"ÙģØªÚ¯ÛĮ":8977,"ĠÙĪØ²ÙĨÙĩ":8978,"ĠØ³ÙĦØ¬ÙĪÙĤÛĮ":8979,"ĠØ¢ÙĨØ¯Ø±":8980,"ĠÙĨØ§ÙħØ¯Ø§Ø±":8981,"Ã¡":8982,"ĠÙĨÚ©ÙĨØ¯":8983,"ĠÚ¯ÛĮÙĨÙĩ":8984,"ÙĪÙħÚ©":8985,"ĠÚ©ÙħÚ©ÛĮ":8986,"ÙĪÙģØ§":8987,"ĠÙħØ·Ùħ":8988,"ĠØ´Ú©ÙĪÙĩ":8989,"ĠAn":8990,"ĠÙ¾ÙĨØ¨Ùĩ":8991,"ĠØ§Ø³ØªØ±Ø§ØªÚĺÛĮÚ©":8992,"ÙģØ±ÙĪØ´":8993,"Ø§ÙĤØ¨":8994,"Ø²Ø¨ÛĮ":8995,"ĠÙĩØ§Ø¯":8996,"ĠØ³ÛĮÙģ":8997,"ĠØ¨ÛĮØ´ÛĮÙĨÙĩ":8998,"âĢİ":8999,"ÛĮØ¯ÙĩØ§":9000,"ĠGr":9001,"ĠØ§ÙģØ³Ø±Ø¯Ú¯ÛĮ":9002,"ĠØ§ÙĤØª":9003,"ĠØ¨ÙĩØ§ÙĨÙĩ":9004,"ĠÙģÙĩ":9005,"ÚĨÙĦ":9006,"ĠØ´ÙĨØ§Ø³ÛĮ":9007,"ÙħÙĪÙĨÛĮ":9008,"ĠØ±Ø§Ø²ÛĮ":9009,"Ø§Ú©Ø³ÛĮØ¯":9010,"ĠØ±ÙĪØ³ØªØ§ÙĩØ§":9011,"ĠØªØ¨Ø¹ÛĮ":9012,"ĠÚĨÙĩØ§Ø±Ø¯Ùĩ":9013,"Ú¯ÛĮØ±ÙĨØ¯Ùĩ":9014,"ĠÙĦØ§ÙĩÛĮ":9015,"ĠØ¢Ø±Ø§ÛĮØ´":9016,"act":9017,"ĠÙħØ§Ø±Ø´Ø§ÙĦ":9018,"ĠØ§Ø±ÙĨØ³Øª":9019,"AC":9020,"ÙĨØ¯Ø¬":9021,"ĠØ¢ÙĦØ¨ÙĪÙħÛĮ":9022,"ÙĨÙĪÛĮØ³Ø§ÙĨ":9023,"ĠÛ±Û¹Û±Û²":9024,"ĠØ¨Ø±Ú©ÙĨØ§Ø±":9025,"ĠØªØ®ØªÙĩ":9026,"af":9027,"ĠØ¯ÛĮÙĪÛĮØ³":9028,"ĠÛĮÛĮ":9029,"Ø¢Ø¨ÛĮ":9030,"ĠØ®ÙĪØ§ÙĩÛĮÙħ":9031,"ĠØ§Ø±ØªÙĤØ§":9032,".)":9033,"AS":9034,"ĠØ¯ÙĪØ´ÙĨØ¨Ùĩ":9035,"ÛµÛ²":9036,"Ø¹Ø§ÙĨ":9037,"ĠØ®ÙħÛĮØ±":9038,"ĠÙĦØ§Ø±ÛĮ":9039,"Ø§ÛĮØ´Ø§ÙĨ":9040,"ĠØ³Ø¬":9041,"Ø³ÛĮÙĪ":9042,"ĠÙħÙĨØ¬":9043,"ĠÙħØºØ±Ø¨":9044,"Ù¾Ø¯ÛĮØ§":9045,"ÙĩÛĮØ¯":9046,"ĠØ¨Ø±Øª":9047,"ĠÚĨØº":9048,"Ù¾ÙĨØ¯":9049,"ÙĪØªÙĪÙ¾":9050,"ĠÚ¯Ø±ÙħØ§ÛĮ":9051,"ĠØŃØ¯ÙĪØ¯ÛĮ":9052,"ÙĦØ§Ø·":9053,"ĠØ§ÙĨØ¬ÛĮÙĦ":9054,"ĠØ¨Ø§Ø´ÛĮØ¯":9055,"Ø¯Ø§Ø¯Ùĩ":9056,"ĠØ·Ø¨Ø±ÛĮ":9057,"ĠØ´Ø±Ø§Ø¨":9058,"ĠØ±ÙģØ§Ùĩ":9059,"Ø¦ÙĪÙĦ":9060,"ĠØªÙĤØ¯ÛĮÙħ":9061,"ĠØ³Ø±Ú¯Ø±ÙħÛĮ":9062,"ĠÂ·":9063,"ĠØ¢ÙĦØª":9064,"Ø¨Ø§Ø´Ú¯Ø§Ùĩ":9065,"ĠPar":9066,"ÙħØ«ÙĦ":9067,"ĠÙĨØ¹ÙħØª":9068,"ĠÙ¾ÙĦØ§Ú©":9069,"Ø±ÙģÙĩ":9070,"ĠØªÙħÛĮØ²":9071,"ĠØ¢Ø±ÙħØ§ÙĨ":9072,"ĠØ³ÛĮÙĦÛĮÚ©":9073,"ĠØ´ÙĨÛĮØ¯Ùĩ":9074,"au":9075,"ood":9076,"ĠØ¨ÙĩØªØ±ÛĮ":9077,"ĠØ¨Ø±Ø®ÙĪØ±Ø¯ÛĮ":9078,"ĠØ±Ø¶Ø§Ø´Ø§Ùĩ":9079,"ĠÙħØ®Ø§Ø¨Ø±Ø§Øª":9080,"ĠØ¢ÙĨØ§ØªÙĪÙĦÛĮ":9081,"Ø³ÛĮÙ¾ÛĮ":9082,"Ø§Ú©Ø±":9083,"ĠØ±ÙħØ²ÙĨÚ¯Ø§Ø±ÛĮ":9084,"Ø§ÙħÛĮÚ©ÛĮ":9085,"Û°Û¹Û":9086,"Û¶Û³":9087,"ĠÙĨØ´Ø³ØªÙĩ":9088,"ĠØ¸Ø±ÛĮÙģ":9089,"ĠØ¬Ø§Ø³ÙĪØ³ÛĮ":9090,"ĠØ³ÙħÙģÙĪÙĨÛĮ":9091,"ĠØ¨Ø§Ø¨Øª":9092,"ĠÙĦØ±Ø¯":9093,"ĠØ¨ÛĮÚ¯Ø§ÙĨÙĩ":9094,"ĠÛ±Û±Û²":9095,"ĠØ¨Ú©Ø±":9096,"Ø¬ÙĨØ¯":9097,"Ø¢Øº":9098,"ĠØ¢ØªØ´ÙģØ´Ø§ÙĨ":9099,"ĠØ±Ø¨Ø§Ø·":9100,"ĠÙĨØ§Ø¯ÛĮ":9101,"ĠÙĪØ¶ÙĪ":9102,"ĠØ¢ÙĨØ¯Ø±Ùĩ":9103,"ĠÙĩÙħØ³Ø§ÛĮ":9104,"Ø±ÙĪØª":9105,"Ø«Ø±ÛĮ":9106,"ĠØ§ÙĦÚ¯ÙĪ":9107,"Ø§Ø¬Ø¹Ùĩ":9108,"Ú¯Ø°Ø§Ø´Øª":9109,"lat":9110,"ÛµÛ¸":9111,"ĠØ¬ÙĨØ¬":9112,"ĠØ¬Ø¯Ø§Ø³Ø§Ø²ÛĮ":9113,"Ø®Ø§Ø·Ø±":9114,"ĠØ²Ø§Ø¦":9115,"ĠØ¢ÙĨØªÙĨ":9116,"ĠÙħÙĦØŃÙĤ":9117,"ĠÛ¹Û±Û":9118,"ĠØ§Ø³ØªØ¹ÙħØ§Ø±":9119,"ĠØ¨ÙĩØ§Ø¯Ø§Ø±":9120,"ĠØ²Ø§Ùħ":9121,"ĠÙ¾Ø³Ø±ÛĮ":9122,"ĠÚĨØ´ÙħÚ¯ÛĮØ±ÛĮ":9123,"ĠÙħØºÙĦÙĪØ¨":9124,"ĠÛ±Û³ÛµÛ¶":9125,"Ø¨Ø²Ø±Ú¯":9126,"Ù¾ÙĪØ±Øª":9127,"ĠÙħØ§ÙĨØ¯Ú¯Ø§Ø±":9128,"ĠØ¯Ø§Ú¯ÙĦØ§Ø³":9129,"Ø¬Ú©":9130,"omp":9131,"ys":9132,"Ø³ÙĪØ²":9133,"ĠØªÙĪÙĩ":9134,"ĠÙ¾ÛĮØ±Ø§ÙĩÙĨ":9135,"ĠÛ±Û¹Û²Ûµ":9136,"ĠØ§ÙĦÚ©ØªØ±ÙĪÙħØºÙĨ":9137,"ĠØªÙĨÚ©":9138,"ĠØ¢Ø°Ø±ÛĮ":9139,"ĠÙħØªØ£Ø³ÙģØ§ÙĨÙĩ":9140,"Ø¨Ø±Ø§":9141,"ĠÙĤÙĪØ³":9142,"ĠØªØµÙģÛĮÙĩ":9143,"ĠÙħØ±Ø¨ÙĪØ·Ùĩ":9144,"ĠØ¨ÛĮØªÛĮ":9145,"ĠØ¨Ø²ÙĨØ¯":9146,"ĠÚĺØ±ÙģØ§ÛĮ":9147,"ĠÚ©ÙĦÙĩ":9148,"ĠÙĩØ³ØªÙħ":9149,"Ø´Ø¯ÛĮØ¯":9150,"ĠÙ¾Ø¯Ø±ÛĮ":9151,"ĠØ§ÙĦØªÙĩØ§Ø¨":9152,"ĠÙĪØŃØ´":9153,"Ø¨ÙĪØ¯ÙĨØ¯":9154,"ĠÛ±Û±Û´":9155,"ĠÙĦÙģØ¸":9156,"ĠØªÙģØ±":9157,"ĠØ¢ÙĨØª":9158,"Ø¨Ø¹Ø¯ÛĮ":9159,"Ø¯Ø§Ø³ØªØ§ÙĨ":9160,"ÛĮÙĦÙĪ":9161,"ĠÙħØ³Ùħ":9162,"ĠÙħØ³Ø§ÙģØª":9163,"ĠÙħØŃØ§Ø³Ø¨Ø§ØªÛĮ":9164,"ĠÛĮØ²Ø¯ÛĮ":9165,"ĠØ¨Ø´Ø±ÛĮ":9166,"ĠÚ¯Ø±ÛĮØ²":9167,"ĠØªØ´Ú©ÛĮÙĦØ§Øª":9168,"ĠÚ¯Ø´ØªØ§ÙĪØ±":9169,"ĠÙĨØŃÙĪ":9170,"ĠØ³ÙĨÚ¯Ø§Ù¾ÙĪØ±":9171,"ĠÙħØ±ØŃÙĪÙħ":9172,"200":9173,"IS":9174,"ĠÙģØ¶Ø§ÙĨÙĪØ±Ø¯":9175,"che":9176,"Ú¯ÙĪØ¯":9177,"Ø§ÙĩÙĩ":9178,"ĠÙ¾Ø§ÙĪÙĦ":9179,"ĠÙħØ´ØªÙħÙĦ":9180,"ĠØ§ÙĨÙĤØ±Ø§Ø¶":9181,"ĠØ§Ø±ÙĪÚ¯ÙĪØ¦Ùĩ":9182,"Ø¨ÛĮØ±ÛĮ":9183,"ÙģÙģ":9184,"ĠØ§Ø³Ø§Øª":9185,"ĠØŃÚ©ÙħØ±Ø§ÙĨÛĮ":9186,"ĠÛ±Û¹Û²Û·":9187,"Û±Û¹Û³Û":9188,"Ø§Ø¦ÛĮØ§ÙĨ":9189,"ĠÚ¯Ø±Ø¯Ø´Ú¯Ø±Ø§ÙĨ":9190,"ĠÙĦÙĪØ¦ÛĮ":9191,"ÙħØŃÛĮ":9192,"Û°Û¸Û":9193,"ĠÙħØ¹Ø¯Ùĩ":9194,"ĠÙĨÛĮØ¬":9195,"Ø®ÙĪØ§ÙĨÙĨØ¯":9196,"ĠÚ¯Ø²Ø§Ø±Ø´ÛĮ":9197,"ĠØªØŃÙĪÙĦØ§Øª":9198,"Ø¯ÙĪØ³Øª":9199,"ĠÙĨÛĮØª":9200,"ÙĨØ¬Ø§ÙĨÛĮ":9201,"ĠÚ¯Ø±Ø¯ÙĪ":9202,"ley":9203,"ĠÙħÙĨØŃÙĦ":9204,"Ø³ÙĦØ§ÙĪÛĮ":9205,"ĠØ¨Ø±Ù¾Ø§ÛĮÙĩ":9206,"Ø§ÙĩØ§Ùħ":9207,"ĠÛ±Û¹Û²Û²":9208,"Ø±ÙĩØ§":9209,"ÙĪØ±ÙĩØ§":9210,"ĠØ³Ø±ÙĤØª":9211,"ĠØ¢Ø±Ø§ÛĮ":9212,"ĠØ´ÛĮØ±ÛĮÙĨÛĮ":9213,"ĠØ¢ÙĦØ¨Ø§ÙĨÛĮ":9214,"ĠÙĪÛĮØ²":9215,"ĠØ®ÙĦÛĮÙĦ":9216,"ĠÛ±Û±Û·":9217,"ÙħÛĮÙħÛĮ":9218,"ĠØ¬ÛĮÙħÛĮ":9219,"ĠØ§Ø¬Ø³Ø§Ùħ":9220,"ĠÛ¶Û¸":9221,"ĠÙĦÙĪÙħ":9222,"ÙģØ±ÙĩÙĨÚ¯":9223,"ĠØ¨Ø§ÙĨÚ©ÛĮ":9224,"ĠØ±ÙĪÙħÛĮØ§ÙĨ":9225,"Ø®Ùħ":9226,"ĠÙ¾Ø§Ø¦ÛĮÙĨ":9227,"ĠØ¨ØµØ±ÛĮ":9228,"ĠØªØŃÙĤÙĤ":9229,"ĠÙĨØ§Ù¾Ø¯ÛĮØ¯":9230,"Ú©Ø§Øª":9231,"Ø§Ú©Ø§ÙĨ":9232,"ĠÙħÙĤØª":9233,"Ġ18":9234,"ÙģØ±ÙĪØ´ÛĮ":9235,"ÙĩÙħÙĩ":9236,"ĠØ¨ÛĮØ§ÛĮØ¯":9237,"ĠÙħØ¯ÛĮØ±Ø¹Ø§ÙħÙĦ":9238,"ĠÙ¾ÛĮØ´ÙĨÙĩØ§Ø¯ÛĮ":9239,"ĠØ³ÙĪØ³ÛĮØ§ÙĦÛĮØ³Øª":9240,"ĠÙģÙĩØ±Ø³ØªÛĮ":9241,"ĠÛ±Û³Û·Û·":9242,"ÙħØ§ÛĮÙĩ":9243,"ĠÚ¯ÙĦØ¯":9244,"ĠÛ±Û³Û°":9245,"ĠÙĤÛĮØ¯":9246,"ĠØ¯Ú©ØªØ±Ø§":9247,"ĠÙ¾ÙĩÙĦÙĪØ§ÙĨ":9248,"Ø³Ø§Ø±ÛĮ":9249,"ĠÙĪØ§Ø¯Ø§Ø±":9250,"Ø´ØªÛĮÙĨ":9251,"ĠØ³ÛĮÚ¯Ø§Ø±":9252,"ÛµÛ¹":9253,"ĠØ¢Ø´ÙĪØ±ÛĮ":9254,"ĠÛĮÙĪØ±Ú©":9255,"Ø§Ø¬Ø¯":9256,"ÙģØ´Ø§ÙĨÛĮ":9257,"ĠÛĮØ±":9258,"Ø§ÙĪÙĦÛĮÙĨ":9259,"ĠØªØ´Ø¯ÛĮØ¯":9260,"ĠÙ¾ÙĪÛĮØ§ÙĨ":9261,"Ø¨Ø±ÙĨ":9262,"ĠØ¢ÙħÙĪØ²Ø§ÙĨ":9263,"ĠÚ¯Ø°Ø±Ø§ÙĨØ¯ÙĨ":9264,"ĠØªÙĪÙĤÛĮÙģ":9265,"Ø¨ÙĪØ¬":9266,"Ú¯Ø±Ø¯ÛĮØ¯":9267,"ĠØ±Ø³ÙĪÙħ":9268,"ĠÛ±Û¹Û²Û³":9269,"ĠÚ©ÙħÙ¾ÛĮÙĨ":9270,"ĠØ¨ÛĮØ§ÙĪØ±Ø¯":9271,"ĠÙĨØ¯Ø±Øª":9272,"ĠÙĬ":9273,"ĠØ¨Ø±ÚĨØ³Ø¨":9274,"ĠÛ±Û¹Û°Û°":9275,"ĠØ´Ø§ÛĮØ³ØªÙĩ":9276,"Û³Û¸Û":9277,"ĠÙ¾Ø§Ø±ØªÛĮ":9278,"ĠÛ±Û³Û´Û°":9279,")ØĽ":9280,"Ú©Ø±ÛĮÙħ":9281,"ĠÙĨØ§ÙĩÙħ":9282,"ĠÙĩÙĪÙħ":9283,"Ø§Ø³ÛĮÙħ":9284,"ĠØ³Ø§Ø®ØªÙĨØ¯":9285,"ÙģÛĮÙģ":9286,"ref":9287,"ĠØ±ØŃÙħ":9288,"ÙĩØ±Ø§ÙĨÛĮ":9289,"ĠÙĦÚ©":9290,"Ø¨ÙĪØªÛĮ":9291,"ĠØ³ÙĪØ±ÛĮ":9292,"ĠØ§ÙĪØ¨":9293,"ĠØ¨Ø§Ø²ÛĮØ§Ø¨ÛĮ":9294,"ĠÛĮØ®ÚĨØ§ÙĦ":9295,"ĠØ¨Ø¯ÙĩÛĮ":9296,"ĠØ§ÛĮØ±ÙĦØ§ÛĮÙĨ":9297,"ĠÙĨØ¸Ø§ÙħÛĮØ§ÙĨ":9298,"ĠØ®ÙĦØ¹":9299,"ĠÙģÛĮÙĦÛĮ":9300,"ĠØ´ØªØ±":9301,"ĠÙħØŃØ±":9302,"ĠØªØµØ¯ÛĮ":9303,"ĠÙ¾Ø±Ø³ØªØ§Ø±ÛĮ":9304,"ĠÚ©Ø§Ø¯":9305,"arch":9306,"ĠØ¹Ø¨Ø§Ø±ØªÛĮ":9307,"ĠØ®ÛĮØ§Ø¨Ø§ÙĨÛĮ":9308,"ĠÙ¾Ø¯ÛĮØ¯Ø§Ø±":9309,"ĠØ²Ø§Ú¯Ø±Ø³":9310,"ĠÚ¯Ø§Ø²ÙĩØ§ÛĮ":9311,"Â°":9312,"ĠØ¹Ø¸ÛĮÙħÛĮ":9313,"ĠÙħÛĮØ³ÛĮØ³ÛĮÙ¾ÛĮ":9314,"ĠÙĤØ±Øµ":9315,"ĠÙ¾Ø¯Ø±Ø¨Ø²Ø±Ú¯":9316,"ĠÙħÙħØªØ§Ø²":9317,"ĠÛĮÙĪÚ¯Ø³ÙĦØ§ÙĪÛĮ":9318,"ĠØ§Ø³ÙĤÙģ":9319,"ĠØ´Ú©Ø³ØªÙĨ":9320,"ĠÚ©Ø§Ø±ÙĦÙĪØ³":9321,"ÙĨØ¸ÛĮØ±":9322,"ĠÙĨØ§Ø´Ø±":9323,"ÛĮØ§Ø¨ÛĮ":9324,"ĠØ¨ÙĦÛĮ":9325,"ĠØ®ÙĦÙģ":9326,"ĠÙħÙĨÛĮØ²":9327,"ĠØªÙĨØ§Ø³":9328,"ĠÚ©ÙĪØ¯ØªØ§":9329,"ĠØŃØ´Ø±Ùĩ":9330,"ĠØŃØ´Ø±Ø§Øª":9331,"ĠÚ©ÙĨÙģØ¯Ø±Ø§Ø³ÛĮÙĪÙĨ":9332,"iel":9333,"Ã¶":9334,"ĠÙ¾Ø§ØªØ±":9335,"ĠÙĨÙĪØ§Ø¯Ú¯Ø§ÙĨ":9336,"ĠÛ±Û³Û¶Û¸":9337,"ĠÙģØ±ÙħØ§ÙĨØ±ÙĪØ§ÛĮ":9338,"Ú¯Ø±Ø¯ÛĮ":9339,"Ú¯Ø°Ø±":9340,"ĠØªØ¯Ø§Ø±Ú©":9341,"ĠÙħÚ©Ø±Ø±":9342,"ĠÙĨÛĮØ¬Ø±ÛĮÙĩ":9343,"ee":9344,"ĠÙħØ§ÛĮÙĩ":9345,"ØªÛĮÙ¾":9346,"ĠØ¨Ø§Ø®ØªØ±ÛĮ":9347,"ĠØ§Ø±Ø«":9348,"ĠÙħÙĩØ±Ø§ÙĨ":9349,"Ø±Ø³ÙħÛĮ":9350,"ĠØ¹ÙĤØ¯":9351,"ĠØ²ÛĮØ¯":9352,"ĠÂłĠÂłĠÂłĠÂł":9353,"ØªØ¨ÛĮ":9354,"Ø§ÙĨØ¯Ø§Ø±":9355,"ÙĪØ³ÛĮØª":9356,"ĠØ¨Ú©Ø´Ø¯":9357,"ÙĪØ±ÙĨØ¯":9358,"ĠÙģØµÙĦÛĮ":9359,"ĠØ§Ø¨Ø²Ø§Ø±ÛĮ":9360,"ĠÙĪÙģØ§Øª":9361,"Ù¾ÙĪØ³ØªØ§ÙĨ":9362,"ĠØ¨ÙĨØ²":9363,"ĠØ³Ø§Ø²ÙĨØ¯":9364,"ĠØ³Ø§Ø²Ú¯Ø§Ø±ÛĮ":9365,"ĠØ¢Ø³ÙħØ§ÙĨÛĮ":9366,"ĠØ´ÙĩØ±ÛĮØ§Ø±":9367,"ĠÙĩØ®Ø§ÙħÙĨØ´ÛĮØ§ÙĨ":9368,"Ú©Ø§Ø³":9369,"ĠÙģØ´":9370,"ĠØµØŃØª":9371,"ĠØ®ÙĪØ§ÙĩØ±Ø´":9372,"ĠØ§Ø³ØªØ§Ø±":9373,"ĠØ¨ÙĨÚ¯ÙĦ":9374,"22":9375,"Ð¾":9376,"ĠØªÙĪØ±ÙĨ":9377,"ĠØ§ÙĨØµØ§Ø±ÛĮ":9378,"ĠØ§Ø´Ø¹Ùĩ":9379,"ĠØ¨ÛĮÙĦØ¨ÙĪØ±Ø¯":9380,"ĠÚĨØ§ÙĤ":9381,"ĠÙĩØ¬Ø¯ÙĩÙħ":9382,"ĠØ§Ø´Ú©Ø§ÙĨÛĮ":9383,"ĠÙħØ²Ø§Ø±Ø¹":9384,"ĠØ®ÙĪØ§ÙĨÙĨØ¯Ú¯ÛĮ":9385,"ĠØ¯ÙĦØ®ÙĪØ§Ùĩ":9386,"ĠÛ±Û¹Û²Û¶":9387,"ĠØ§Ú©Ø«Ø±Ø§":9388,"ĠÚ©Ø§ØªØ±ÛĮÙĨ":9389,"ÛĮÙĨÚ©":9390,"ĠÛ¹Û±":9391,"ĠØ¯ÙĪÙĨØ§ÙĦØ¯":9392,"ĠØ¯Ø¨Ø³ØªØ§ÙĨ":9393,"ĠÙħÙĪØª":9394,"ĠÚ©ÙĪØ±ÛĮ":9395,"ĠØ®ÙĪØ²Ùĩ":9396,"ĠØ³Ú©ÙĪØª":9397,"ĠØŃØ³Ø§Ø¨Ø¯Ø§Ø±ÛĮ":9398,"ÙĪØ¯Ø§ÙĨ":9399,"ĠØ¨Ø±Ø§ÛĮØ§ÙĨ":9400,"ĠØ¯ÙĩÛĮÙħ":9401,"ĠÛ±ÛµÛ°Û°":9402,"ĠØ®Ø²Ø§ÙĨÙĩ":9403,"ĠØ®Ø§Ø³Øª":9404,"ØªØ±ÙĪÙĨ":9405,"ĠÙħØŃÙģ":9406,"ÙĪØ¨Ø§":9407,"ĠØ²ÛĮØ±Ø³Ø§Ø®Øª":9408,"ØªÙĨØ§Ø¨":9409,"ĠÙģØ±ÛĮØ¨":9410,"Ú©Ø´ÙĨØ¯":9411,"Û±Û³Û¶":9412,"ĠØ´ÙĪØ§ÙĦÛĮÙĩ":9413,"Ø¹Ø²ÛĮØ²":9414,"ĠØ®ÛĮØ§ÙĦ":9415,"Ú©Ø±Ø§Øª":9416,"ĠÚ©Ø§Ùģ":9417,"ÙĪÙĨØ¯ÙĩØ§ÛĮ":9418,"ĠÚ©ÙĦØ§":9419,"ĠØ¶Ø±ÙĪØ±Øª":9420,"ĠØ³ÛĮØ¯ÙĨÛĮ":9421,"Ġpr":9422,"Ø¯Ø§ÙĨÙĩ":9423,"Ø³ÙĨØ¬":9424,"Ø±ÙĪÚ©":9425,"ĠÙĦÚ©Ùĩ":9426,"ĠÚĨØ±Ø§Ú©Ùĩ":9427,"ĠÙ¾Ø³ØªØ§ÙĨØ¯Ø§Ø±Ø§ÙĨ":9428,"Ù¾Ø¯Ø±":9429,"ĠØºÙĪ":9430,"ÙĪØ¨Ú©Ø±":9431,"ica":9432,"ÙģØ±Ø³ØªØ¯":9433,"ĠØ¯ÙĩÙħÛĮÙĨ":9434,"ĠØ±Ø§ÙĩØ¨Ø±Ø¯":9435,"Ù¾Ø±Ø¯Ø§Ø²ÛĮ":9436,"ĠØ²ÙħØ±Ùĩ":9437,"ĠÙ¾ÙĪØ³ØªÛĮ":9438,"ĠÙħØ³ØªØ¹Ø§Ø±":9439,"ĠÛ±Û³ÛµÛ´":9440,"ĠÚ©Ø§Ø´Ø§ÙĨÛĮ":9441,"ĠÙĨØ§Ù¾ÙĦØ¦ÙĪÙĨ":9442,"ĠÙĤÙģÙĦ":9443,"ĠØŃÙĦÙĤ":9444,"ĠÚĺÙĨÙĪ":9445,"ork":9446,"ĠØªØ±Ø´ØŃ":9447,"ĠØªØ¨Ø¹ÛĮØ¶":9448,"ĠÚ©ÙĨØ¯Ùĩ":9449,"ĠÚ©Ø´Ø´":9450,"ĠØµØŃØ±Ø§ÛĮÛĮ":9451,"ĠØªÛĮØºÙĩ":9452,"ĠÙĩÙħØ¨Ø³ØªÚ¯ÛĮ":9453,"ĠØ§ÛĮÙĨÙĩØ§":9454,"ĠØ´Ø¹ÙĦÙĩ":9455,"ĠØ¨Ø³ØªØ±ÛĮ":9456,"ĠØ¯Ù¾":9457,"ĠÛĮÚ©Ø´ÙĨØ¨Ùĩ":9458,"Û¶Û¹":9459,"ĠÚĨÙĩØ§Ø±Ø´ÙĨØ¨Ùĩ":9460,"ĠÙħØ´Ú©ÙĦØ§ØªÛĮ":9461,"ĠÙĨØ¬ÙģÛĮ":9462,"ĠÙĩØ§Ø´Ùħ":9463,"\"(":9464,"ĠØ§ÙħØ§Ú©ÙĨ":9465,"ĠØµÙĦÛĮØ¨ÛĮÙĪÙĨ":9466,"Ø§ÙĪÙĨØ¯":9467,"Ø¶Ø±":9468,"ĠÚ©ÙħØ±":9469,"Ø³ÙĦØ§ÙĨ":9470,"ĠØ¯ÙĪØ§Ùħ":9471,"ÙħÙĪØ³ÛĮ":9472,"ĠØŃØ¯ÙĪØ¯Ø§":9473,"¡Ù":9474,"ĠÚ©Ø§Ø±ÙĩØ§":9475,"ĠØ¯ÙĦØ§Ø±ÛĮ":9476,"ĠØ®Ø¯Ùħ":9477,"ĠÚ©Ø§Ø±ÙħÙĨØ¯Ø§ÙĨ":9478,"ign":9479,"Ä±":9480,"Ú©ÙħÛĮ":9481,"ĠØŃÙĪÙĦ":9482,"ĠÙĪØ§ÙĤØ¹Ø§":9483,"ĠØ¯Ø§Ø¯Ø³ØªØ§ÙĨ":9484,"ĠØ¹Ø¶ÙĦØ§Øª":9485,"ĠØ§Ø¯ÛĮØ¨":9486,"per":9487,"ĠÙĪØ¯":9488,"Ø®Ø³Ø±ÙĪ":9489,"ĠØªØ¯Ø±ÛĮ":9490,"Ø²ÛĮÚ©ÙĪ":9491,"ÙĪÙĦØ§ÛĮ":9492,"orth":9493,"ĠØ´ÙĨØ§Ø³Ø§ÙĨ":9494,"ĠØŃØ¯Ø³":9495,"ĠÙĩØ±ÛĮÚ©":9496,"Ø±ÙĪÙģÛĮ":9497,"ĠÙĦÛĮØ¨Ø±Ø§ÙĦ":9498,"ÙĪÛĮÙĨÛĮ":9499,"ÚĨÛĮÙĨÛĮ":9500,"ĠÙĩÙĨØ±Ø³ØªØ§ÙĨ":9501,"ĠÙĨÚ¯Ø§Ø±Ùĩ":9502,"ĠÙĩÙĪØ´ÙĨÚ¯":9503,"ĠØ¨Ø´Ú©Ùĩ":9504,"ĠØ§Ø¬ØªÙĨØ§Ø¨":9505,"Ø¨ÛĮÚ¯":9506,"ĠØªØ±Ú©ÙħÙĨØ³ØªØ§ÙĨ":9507,"Ø§ÙĩØ¯Ø§Øª":9508,"ĠÙ¾ÛĮØ§Ù¾ÛĮ":9509,"wiki":9510,"ĠØªØ°":9511,"ĠÚ¯Ø³ÙĦ":9512,"ĠÙħØºØ§Ø²Ùĩ":9513,"ĠÚ©Ø±Ø¨ÙĦØ§":9514,"ĠØ¯ÛĮØª":9515,"ĠØ¯Ø§ÛĮØ±":9516,"ĠØ¨Ø§ÙĦÙĤÙĪÙĩ":9517,"ĠÛ¶Û±":9518,"Ù¾Ø°ÛĮØ±ÙģØª":9519,"ĠØ¨ÙĪØ¦ÛĮÙĨÚ¯":9520,"ĠØ¬Ø§ÙĪØ§":9521,"ĠØªØ¹ÙĪÛĮØ¶":9522,"Ø¨Ø®Ø´ÛĮ":9523,"Ú©Ø±Ø¨":9524,"Ø²Ø¯Ùĩ":9525,"ĠÙĩÙĪØ³":9526,"ĠÙĤÙĪØ§Ùħ":9527,"NO":9528,"ĠÛ¶Û³":9529,"ĠÛ±Û¹Û±Û¶":9530,"ĠÙĨÙĪØ¨Øª":9531,"ĠÙħØ¨Ø§Ø±Ø²Ø§Øª":9532,"ĠØ³Ø§Ø¦":9533,"ĠÙģÛĮØ³":9534,"Ø§Ø³ØªÛĮÚ©ÛĮ":9535,"ĠØ³ÙĨÙĨØ¯Ø¬":9536,"ĠØ²ÙĨØ§ÙĨÙĩ":9537,"Ø«ÛĮØ±ÛĮ":9538,"ook":9539,"Ø§ÛĮÚ©Ø³":9540,"Ø§Ø³Ø§ÙĨÛĮ":9541,"ĠØ³Ø§ÙĦÚ¯Ø±Ø¯":9542,"ĠÛµÛ¹":9543,"ĠØ«Ø§ÙĨÙĪÛĮÙĩ":9544,"ĠØ¨ÙĨÚ¯Ø§Ùĩ":9545,"ÙĪØ±ÛĮÙĪ":9546,"ĠØ§ØªÙĦ":9547,"ĠØ§ÙģØ²ÙĪØ¯ÙĨ":9548,"ĠØ±Ù¾":9549,"ĠØ¯Ø§Ø±Ø§Ø³Øª":9550,"ĠÚ¯Ø±ÙĪÚ¯Ø§ÙĨ":9551,"ĠØ³ÙĨØªØ±":9552,"ĠÙħØ§Ø±ÙĪÙĦ":9553,"ĠØªØ´Ø±ÛĮØŃ":9554,"ĠÙħÙĪØ±Ø®Ø§ÙĨ":9555,"ÙħÙĪØ³":9556,"ĠØ·Ø¹Ùħ":9557,"ĠØªÙĨÙģØ³":9558,"ĠØ¯Ø§ÙħØ§Ø¯":9559,"ĠØªÙĪÚ©":9560,"ĠÙģØ±Ø®":9561,"ĠØ¯Ø§Ø¦Ø±":9562,"ĠÙħÙĪØ²ÛĮÚ©Ø§ÙĦ":9563,"ĠÙĩØ±Ú©Ø¯Ø§Ùħ":9564,"ĠÙĨØ§Ø¸Ø±":9565,"ĠØ¢ÙĪÛĮ":9566,"ĠØ¹Ø§Ø·":9567,"Ø·ÙĪ":9568,"ĠÙĤØ´Ø±":9569,"ĠØ§ÙĨØ³Øª":9570,"ĠInt":9571,"ĠÛ±Û³ÛµÛ³":9572,"ÙħØ«ÙĦØ§":9573,"Ø±Ø§Ø²":9574,"ĠØ¨Ø®Ø´ÛĮØ¯":9575,"Û¹Û¹Û":9576,"ĠÙħØ®Ø§Ø·Ø¨Ø§ÙĨ":9577,"ĠÙģÙĪØ±Øª":9578,"ĠÙ¾Ø±Ø§Ú¯":9579,"ĠÙĩÛĮØ¬Ø§ÙĨ":9580,"ational":9581,"--":9582,"ÙħØ§Ø¯":9583,"ĠÙħØ¨Ø§Ø¯ÙĦÙĩ":9584,"ĠÙħØ§ÛĮÚ©":9585,"ĠØ¹ÙĨØ§ÙĪÛĮÙĨ":9586,"Ø±ÛĮÙĪ":9587,"ĠØªØ±Ø§Ø²":9588,"ĠÙģÙĪÙĤØ§ÙĨÛĮ":9589,"ĠØ¯Ø²ÙģÙĪÙĦ":9590,"ĠÙĩÙħÚ©Ø§Ø±Ø§ÙĨ":9591,"ĠØ±ÙĩØ§ÛĮÛĮ":9592,"ĠØªÙĦØ³Ú©ÙĪÙ¾":9593,"ĠØ¢ÙĩÚ©":9594,"Ù¾ÛĮÙĪÙĨØ¯Ø¯":9595,"ÙĪØ¬Ùĩ":9596,"ĠÙĪØ§Ø±ÛĮ":9597,"ÙĨØ¯ÙĪ":9598,"ĠÚ¯ÙĪØ±Ø¯":9599,"ĠØªØ±Ø¯ÛĮØ¯":9600,"ĠØ±Ø§Ø¯Ø§Ø±":9601,"Ø§Ø®ÙĦ":9602,"ÙħÛĮØ¯Ùĩ":9603,"ĠØ¨Ø¯ÙĪ":9604,"co":9605,"ĠÙĦØ§ÙĨ":9606,"ĠØµØ§ØŃ":9607,"ĠØ§ØµØºØ±":9608,"ide":9609,"ÛĮØ´Øª":9610,"ÙħØ¯Ø§ÙĨ":9611,"ĠØ³ÙĪÙĨÛĮ":9612,"Ø§ÙĦØ«":9613,"ĠØ§ÙħØ±ÛĮ":9614,"ann":9615,"ÙĪÙĤØª":9616,"ÙħÙĦÛĮ":9617,"Ø¯Ø¯":9618,"ĠØ¨ÛĮÚĨ":9619,"Ø³ØªØ±ÙĨ":9620,"ĠØ§ÙĨØŃØ±Ø§Ùģ":9621,"ĠØ§ÙħØªØŃ":9622,"Ú¯Ø±Ø§ÛĮØ§ÙĨÙĩ":9623,"Ø¯Ø²":9624,"ĠÙģØ§Ø´":9625,"ĠØ³Ø§ÙħÙĪØ¦ÙĦ":9626,"ĠÛ±Û¸Û°":9627,"ĠÙħØ³ØªÙħ":9628,"ĠÙĨÛĮØªØ±ÙĪ":9629,"Û¹Û±Û":9630,"ĠØ¢ØªØ´Ú©Ø¯Ùĩ":9631,"ĠÙĦØ·Ùģ":9632,"ĠØ´ÙĨÛĮØ¯ÙĨ":9633,"ĠØ§ÛĮÙĨÚĨ":9634,"ĠØ§ÙĬÙĨ":9635,"ĠØ²Ø¹":9636,"ĠØ§ÙĨØ²ÙĦÛĮ":9637,"ĠØ¸ÙĩØ±":9638,"ĠØ§ÛĮØ³ØªØ§Ø¯Ùĩ":9639,"ÙĪØ²ÛĮØª":9640,"ĠØ§Ø¯Ø±Ø§Ø±":9641,"ĠØ±Ø§ÙĩÙĨÙħØ§ÛĮ":9642,"ĠØ´ÛĮØ¡":9643,"ĠÙģØ§ÙĨØªØ²ÛĮ":9644,"ĠØ¨Ø§ÙĨÛĮ":9645,"ĠÙĦÛĮØªØ±":9646,"ĠØ´ØºÙĦÛĮ":9647,"27":9648,"ĠÚ¯ÙĦÙĪÚ©":9649,"ĠÚ©Ø¨ÙĪØªØ±":9650,"ÙĪØ±Ø§ÛĮÛĮ":9651,"Ø§ÙģØ¹ÛĮ":9652,"ĠÛ±Û³Û·Û²":9653,"Ù¾ÙĦÛĮ":9654,"ĠÙ¾Ø±Ø¬ÙħØ¹ÛĮØª":9655,"int":9656,"ĠØ§Ø³Ø§Ø³Ø§":9657,"ĠØ§ÙħØ§ÙħÛĮ":9658,"Ø¯ÙĩÙĨØ¯Ú¯Ø§ÙĨ":9659,"ĠØªØ³Ø§ÙĪÛĮ":9660,"ĠØ±ÛĮÙĨÚ¯":9661,"ÙĪØªØ³":9662,"Ø§ÙĪØ±Ø¯":9663,"ĠØ¨Ø³ÛĮØ¬":9664,"ĠÙħÙĪØ¶ÙĪØ¹ÛĮ":9665,"ĠØ¨Ø§ÙĨÚ©Ø¯Ø§Ø±ÛĮ":9666,"ĠØ§Ø¹ØªØ¨Ø§Ø±ÛĮ":9667,"ÙĪÙĦØ§Ø±":9668,"ĠÚ¯Ø±ÙģØªØ§Ø±":9669,"ĠÙ¾ÙĩÙĦÙĪ":9670,"ĠØ¹Ø§ÙħÙĦÛĮ":9671,"ĠÙģØ§Ø¬Ø¹Ùĩ":9672,"ĠØ¨Ø±Ø®Ø§Ø³Øª":9673,"ĠÙ¾ÙĨØ¬Ø§Ø¨":9674,"ÙĩÙħØ±Ø§Ùĩ":9675,"ĠØ³Ø¨Ø²ÙĪØ§Ø±":9676,"Ø±Ø§Ø¯":9677,"ĠØ¢Ø±ÛĮØ§ÛĮÛĮ":9678,"ĠØ¨ÛĮÙĨØ§ÛĮÛĮ":9679,"ÙĦÙĪØ¯":9680,"ĠÙĩØ§Ø¨":9681,"ĠØ§ÙĨÚ©Ø§Ø±":9682,"ĠØ§Ø¬Ø±":9683,"ĠÙħØ¹Ø§ÙĪÛĮÙĩ":9684,"Ú©ÙĨÛĮØ¯":9685,"ĠØ¨ØªØ§":9686,"ĠÙĨØ´Ø§ÙĨÛĮ":9687,"ĠØºÛĮØ±Ø±Ø³ÙħÛĮ":9688,"ĠÙģØ±Ø§Ú¯ÛĮØ±ÛĮ":9689,"ÙĨÙĪØ´ØªÙĩ":9690,"ĠØ³Ø§ÙĨØªÛĮÚ¯Ø±Ø§Ø¯":9691,"ĠØ§ÛĮØ±ÙĦØ§ÛĮÙĨØ²":9692,"ĠØ¨Ø¯ÙĩÙĨØ¯":9693,"ĠÙħÙĪØ²":9694,"ory":9695,"ĠAd":9696,"ĠÙĨØ§Ø³Ø§":9697,"Ø®ÙĪØ±Ø´ÛĮØ¯ÛĮ":9698,"oy":9699,"ĠÙħØ¯Ø§Ø®ÙĦÙĩ":9700,"ÙĪÙħÚ©Ø²ÛĮÚ©ÙĪ":9701,"ĠØ³ÙĪØ¯Ø§ÙĨ":9702,"23":9703,"ĠØ¨ÙĪØ¯Ùħ":9704,"ĠØ¯ÙĪÙħÛĮ":9705,"ĠÙħÙĨØªØ¸Ø±":9706,"ĠÙĨØ§Ø¯ÛĮØ¯Ùĩ":9707,"ĠØ®ÛĮØ²":9708,"ĠÚ¯Ùĩ":9709,"Ø§ÙģØ²":9710,"ĠÚ©Ø±ÙĪÙĨ":9711,"ĠØ¹ÙĦÙĦ":9712,"ĠØºÙĦØ·":9713,"ĠØ¨Ø§Ø²ÙĨØ´Ø³ØªÚ¯ÛĮ":9714,"ĠØ²Ø§ÙĩØ¯Ø§ÙĨ":9715,"ØªÙĪØ¬Ùĩ":9716,"ĠØ¬ÙĨØ³ÛĮØª":9717,"ĠAir":9718,"ĠÙħØªØºÛĮØ±ÙĩØ§ÛĮ":9719,"CA":9720,"Ú©ÛĮÙĩ":9721,"ĠÙĪÛĮØ¯ÛĮ":9722,"ĠÙħØªÙĨØ§":9723,"ĠÛ±Û³Û¶Û·":9724,"Ú¯ÛĮØ²":9725,"ĠØ¨Ø§Ø±ÙĨØ¯Ú¯ÛĮ":9726,"ĠØªÚ©ÙĦÙħ":9727,"ĠØ±ÙĪØ²ÙħØ±Ùĩ":9728,"ĠÙĩÙĨØ¯ÙĪ":9729,"ical":9730,"ĠÛ¸Û±Û":9731,"Ø¨ÙĨÛĮ":9732,"ĠÙĨÛĮÚ©ÛĮ":9733,"ĠÙĤØ±ÛĮÙĩ":9734,"ĠØªØ¬ÙĪÛĮØ²":9735,"ĠØ§Ø³ØªØ±Ø§ÙĦÛĮØ§ÛĮÛĮ":9736,"ĠØ±ÙĪØª":9737,"ĠÛĮÙĪØªØ§":9738,"ĠÙĨÙĪØ§Ø²ÙĨØ¯Ú¯ÛĮ":9739,"Ø§Ú©Ø³ÛĮ":9740,"rom":9741,"ĠÚ©Ø±ÛĮØ³ØªÛĮ":9742,"ÛĮÙĦÙĨ":9743,"ÛĮØ´Ø§ÙĨ":9744,"ĠØ®ÙĪØ¯Ø±ÙĪØ³Ø§Ø²ÛĮ":9745,"ĠÙĪÙĦÙģ":9746,"ĠØ§ÙĪØ¨Ø±":9747,"ĠÛ±Û³Û²Û°":9748,"ĠÙĪØ§Ø¶ØŃ":9749,"Ø¨ÛĮØ¯":9750,"inn":9751,"ĠØ¢Ø²ÙħØ§ÛĮØ´Ú¯Ø§ÙĩÛĮ":9752,"ĠØ¯Ø§Ø±ÙĪÙĩØ§":9753,"ĠØ¢ÙģØ±ÛĮÙĨØ´":9754,"ĠØªØ¹Ø¨ÛĮÙĩ":9755,"ĠÛ±Û±Û¶":9756,"Ġst":9757,"ĠÙĨØ¬ÛĮØ¨":9758,"ĠØ®Ùģ":9759,"ĠØ§ÙħÙ¾Ø±":9760,"ĠØ³Ø±Ø§ÛĮ":9761,"ĠØªÙĦØ®":9762,"ĠÙħØ®Ø§Ø·Ø¨":9763,"Ø§Ø¯ÛĮÙħÛĮØ±":9764,"ĠÙĨØ§Ø¸":9765,"ĠÙĨÛĮÙĪÙħÚ©Ø²ÛĮÚ©ÙĪ":9766,"ĠÙ¾ÙĨØ§ÙĩÚ¯Ø§Ùĩ":9767,"ĠÛ·Û¸":9768,"Ø¯ÙĪÙħ":9769,"ĠØ§ÛĮØ³ÙĦ":9770,"Ø§ÙĦØ¨ØªÙĩ":9771,"ĠØ¨Ø§ÙĪØ±ÙĨØ¯":9772,"ĠØ§Ø³ÙģÙĨØ¯ÛĮ":9773,"ick":9774,"Ø³ÙĪÙĨÚ¯":9775,"Ø¨Ø§Ø·":9776,"ĠÙħØ³Ø§Ø¬Ø¯":9777,"ĠÛ±Û³Û³Û²":9778,"ĠÙĩÙħØ¯ÛĮÚ¯Ø±":9779,"ĠÙħØªØ§Ø¨":9780,"ĠÛ±Û³ÛµÛµ":9781,"ĠØ¢ØªØ´ÙģØ´Ø§ÙĨÛĮ":9782,"ĠØ²Ø§Ø¨ÙĦ":9783,"ĠØªØ§Ø¨Ø¹ÛĮ":9784,"ĠØ§ÙĪØ³ØªØ§":9785,"ĠÙĨØ±Ø³ÛĮ":9786,"ĠØ§Ø³ØªØ§ÙĦÛĮÙĨ":9787,"ĠØ¹ÙĦÙĪÛĮ":9788,"ĠÙĪØ²ÛĮØ±Ø§ÙĨ":9789,"ĠÚ¯Ø¯":9790,"ÙĤÛĮÙĨ":9791,"ĠØ±Ø³Ø§ÙĨÛĮØ¯":9792,"ĠØ¯Ø±ÛĮÚĨÙĩ":9793,"ota":9794,"ØªÙģ":9795,"ĠØ¯Ø±Ú¯Ø§Ùĩ":9796,"ĠØ´Ø³Øª":9797,"Ø§ÙĩØ±ÛĮ":9798,"ÙħØ¯ÛĮÙĨ":9799,"ĠØ§Ø¨ÙĪÙħ":9800,"ĠNew":9801,"ØŃÛĮØ¯":9802,"ĠØ·Ø§ÙĦØ¨":9803,"ĠÛ¹Û¹":9804,"ĠØªØ®ÛĮÙĦÛĮ":9805,"ĠÙĨÙĤØ¯ÛĮ":9806,"ĠÙ¾ÙĦÙĨÚ¯":9807,"ĠÚ©Ø´Ø§ÙĪØ±Ø²Ø§ÙĨ":9808,"ĠØ§ÙĦÚ¯ÙĪÙĩØ§ÛĮ":9809,"Ø±Øº":9810,"ĠØ§ØªÛĮ":9811,"ÙĪÛĮØ³ÛĮ":9812,"ĠÛ±Û¹Û±Û³":9813,"ĠØ²ÛĮÙħ":9814,"ĠÛĮÙĪØ´":9815,"ĠÙģÛĮÙģØ§":9816,"ĠÙħØ§Ú¯":9817,"ĠØ¯Ø§Ø¨":9818,"Ø®Ø§Ø°":9819,"ÚĨØ§ÛĮ":9820,"ence":9821,"ĠØ¢Ø´ØªÛĮ":9822,"ĠÙĤØ§Ø¬Ø§Ø±ÛĮÙĩ":9823,"ĠØ´Ø±Ùģ":9824,"ĠØ´ÙĩØ±Ø³ØªØ§ÙĨÛĮ":9825,"ĠÙĩØ±ÙĪØ¯":9826,"ĠÙ¾Ø§ÛĮÛĮÙĨÛĮ":9827,"ĠÙħØ±Ø¯Ú¯Ø§ÙĨ":9828,"ĠÙħØ¤ÙĦ":9829,"ĠØ³Ø®ÙĨÚ¯ÙĪÛĮ":9830,"Ø±ÙħØ§ÙĨ":9831,"ĠØ¬ÙĨÛĮ":9832,"ĠØ²Ø§Ú©":9833,"ĠÚ©ÙĨØ³ØªØ§ÙĨØªÛĮÙĨ":9834,"ĠØ§Ø¨ÙĪØ¨Ú©Ø±":9835,"ĠØ¯ÙĨÛĮÙĦ":9836,"ĠÙħØŃÙģØ¸Ùĩ":9837,"ĠØ§Ø³ØªÙĪØ§ÙĨÙĩ":9838,"ĠØªØŃØ±ÛĮØ±":9839,"ĠØªØŃÙĦÛĮÙĦÛĮ":9840,"ÙĨØ§Ù¾Ø°ÛĮØ±":9841,"ĠÙħØ³Ø¯ÙĪØ¯":9842,"ĠÙħÙĤØµ":9843,"ĠØ³Ù¾ÛĮØ¯":9844,"ĠÛ±Û³Û¶Û¹":9845,"ĠØ¬ÙĪÙĨÛĮÙĪØ±":9846,"âĢĿ":9847,"ĠØ³ÙĨÛĮÙĨ":9848,"ĠÙĨÛĮÙĨ":9849,"ĠÙ¾ÛĮØ´Ø±ÙĪ":9850,"Ø³ØªÛĮÙĪØ§ÙĦ":9851,"ÙħØ±Ú¯":9852,"ĠÙħØ³Ø§ÙģØ±Øª":9853,"ĠÙĩØ±Ø¯ÙĪ":9854,"ĠØŃØ§ÙĦØ§Øª":9855,"ale":9856,"ĠÛ³Û°Û°Û°":9857,"ĠÙĩØ§Ø±Ø¯":9858,"ÙĪØ³Ú©ÛĮ":9859,"ĠÙħØ®Ø§Ø¨Ø±Ø§ØªÛĮ":9860,"Ø¨ÙĪØ¯ÛĮ":9861,"ĠÙģØ±ØŃ":9862,"ØªÙĤÛĮ":9863,"ĠØ¨Ø§ÙĦØª":9864,"ĠØ§Ø±Ø§Ø¯Ùĩ":9865,"Ø¨ÛĮÙĦÛĮ":9866,"ĠÙģØ±ÙħØ§ÙĨØ¯Ø§Ø±ÛĮ":9867,"ĠØ¹Ø¶ÙĦØ§ÙĨÛĮ":9868,"ĠÚ©Ø±ÙĪÙħÙĪØ²ÙĪÙħ":9869,"Ġ0":9870,"ĠÙħØ§ÙĦÛĮØ§ØªÛĮ":9871,"ĠÚ¯ÙĪØ³ÙģÙĨØ¯":9872,"ĠØ´Ø±ÛĮØ¹Øª":9873,"ai":9874,"ĠÛĮÙĪÙĩØ§ÙĨ":9875,"ĠØ®Ø¯ÙħÙĩ":9876,"ĠØªØ²ÛĮÛĮÙĨ":9877,"ĠÙħÙĪÛĮ":9878,"ĠÚ©Ø¯ÙĩØ§ÛĮ":9879,"ĠØ´ÙĪÚ¯":9880,"ĠÙģØ±Ø§Ú¯ÛĮØ±":9881,"ĠÛ±Û³Û·Û³":9882,"Ø¨ÛĮØ§ÙĨ":9883,"ĠÙĨÚ¯Ø±Ø§ÙĨ":9884,"Ø§Ø¶Ø¹":9885,"ĠØ¯ÙĪØ³ØªØ§ÙĨØ´":9886,"ĠØ³Ø§Øª":9887,"ĠÚ¯Ø§":9888,"ĠÙħØ¹ÙĨ":9889,"ĠÛ±Û³ÛµÛ²":9890,"ĠÙĪØ¶ÙĪØŃ":9891,"ĠØ®Ø§Ø³ØªÚ¯Ø§Ùĩ":9892,"ØªÙĪØ¨":9893,"ĠÙħÙĨØ´ÛĮ":9894,"ĠÛĮØ§Ø¯Ú¯Ø§Ø±":9895,"ĠØ§ÙħØªØŃØ§ÙĨ":9896,"Ø¬Ø¨":9897,"ĠØ´ÙĪØ±Ø´ÛĮØ§ÙĨ":9898,"ÙĩØ§ÙĦ":9899,"ĠØ¨Ø´ÙĪØ¯":9900,"ĠØ¯ÙĪÙ¾":9901,"ĠÙĪÛĮÙĪÙĦÙĨ":9902,"ĠØ¯ÙĩÙĦÛĮ":9903,"ĠØ§ÙĤØ¨Ø§ÙĦ":9904,"ĠÙħØ·ÙĦØ¹":9905,"ÙĨØ¯Ø±Ø§ÙĨÛĮ":9906,"ØªØ§Ø±":9907,"ĠØµÙģØª":9908,"Ø¨ÛĮØ¯Ùĩ":9909,"ĠØ§ØªØ®Ø§Ø°":9910,"ĠÛ±Û¹Û°Ûµ":9911,"ØªØ®ÛĮÙĦÛĮ":9912,"ĠØªØ§Ø¨Ø¹Ùĩ":9913,"ĠÚ¯Ø§ÙĦØ±ÛĮ":9914,"ĠÙĨÚ¯Ø±Ø´":9915,"Ù¾ÛĮÙħØ§ÛĮÛĮ":9916,"ÛĮØ²ÛĮÚ©":9917,"ĠØ§Ø³ØŃØ§ÙĤ":9918,"ĠØ²ÛĮØ±ÛĮÙĨ":9919,"ÙĪÙ¾ÙĦ":9920,"Û¸Û³Û":9921,"ost":9922,"ĠØ±Ø§Ø³ÙĦ":9923,"Ø±ÙĨ":9924,"ĠØ®Ø±Ø§Ø³Ø§ÙĨÛĮ":9925,"ĠØ³ÛĮÙħØ§ÙĨ":9926,"ame":9927,"ĠÙ¾ÛĮÙĪØ³ØªÙĨØ¯":9928,"ÙĤÙĩØ±ÙħØ§ÙĨ":9929,"Ø¨ÙĨØ¯Ø§ÙĨ":9930,"Ù¾ÙĨØ¬":9931,"Ø¯Ø±Ú¯Ø°Ø´ØªÙĩ":9932,"ØºÛĮØ¨":9933,"ĠÙħØ³Ø¦ÙĪÙĦÛĮÙĨ":9934,"ĠØ°Ø®Ø§ÛĮØ±":9935,"ĠØ¯Ø´ÙħÙĨÛĮ":9936,"ĠØ¨Ø±Ø¹Ú©Ø³":9937,"ĠØ¨ÙĦØ®":9938,"ĠØªÙĪØ±ÙĨØªÙĪ":9939,"ĠØŃØ§Ú©ÙħØ§ÙĨ":9940,"Ø§Ø±ÙĪØ³":9941,"Ø§Ø±Ø´ÛĮ":9942,"ÙģØµÙĦ":9943,"ĠØ³ÙĪÚ©":9944,"ĠØ¹Ø§ÙĦ":9945,"ÙħÛĮØ¯":9946,"ĠØ±Ø§Øª":9947,"ĠÚ©Ø§Ø±Ø´ÙĨØ§Ø³":9948,"ĠØ§Ú©Ø³Ù¾":9949,"ĠÛĮÙĦ":9950,"ÙĨÛĮØ±":9951,"Ù¾Ø±Ø³ÛĮ":9952,"ĠØ¨Ø±ÙĪÙĨØ¯":9953,"ĠÙħØ²ÙħÙĨ":9954,"ĠØ§ØµØ·ÙĦØ§ØŃØ§Øª":9955,"ĠØ³ÙĦÛĮÙħØ§ÙĨÛĮ":9956,"ĠÛ¸Û³":9957,"ĠÛ¸Û¹":9958,"odice":9959,"Ø´Ø§":9960,"ÙĪØ±Ø«":9961,"ĠÙħØŃÙħØ¯ØŃØ³ÛĮÙĨ":9962,"Ø§Ø¡Ø§ÙĦØ¯ÛĮÙĨ":9963,"ĠÙħØ³ÙĦØ·":9964,"Ġ|":9965,"Û±Û³Û´":9966,"ĠÛ±Û³Û´Û²":9967,"ĠÛ±Û¹Û°Û¸":9968,"ĠÙħÙĪÙĨØªØ§ÙĨØ§":9969,"ĠÙħÛĮÙħÙĪÙĨ":9970,"ĠÙħÙĨØ²":9971,"ĠÙħØµÙĪØ¨":9972,"ĠÙĨÙĪØ´ÛĮØ¯ÙĨÛĮ":9973,"ĠÙĨØ¸Ø±ÛĮØ§Øª":9974,"ĠÙħÙĨØªÙĤØ¯ÛĮÙĨ":9975,"ÙĦÙĪØ±":9976,"ĠÙħÙĪÙħ":9977,"ĠÙ¾Ø§Ø±Øª":9978,"ĠØ§ÙĨØªÚ¯Ø±":9979,"ĠÛ±Û³Û¶Û²":9980,"ĠØ±ÙĪÙĨÙħØ§ÛĮÛĮ":9981,"Ú¯Ø§ÙĦ":9982,"ĠÚĨÙĪ":9983,"ĠØ´ÙħØ§Ø±Ø´":9984,"ĠÙĪØ§ÙĦØª":9985,"Ø¨Ø§Ùģ":9986,"ĠÙħØ³ÙĦÙħ":9987,"ĠÛ±Û³Û·Û´":9988,"Ø¦ÙĪØ¯":9989,"ĠÛ±Û³Û·Û±":9990,"ĠØ¯ÛĮØ§":9991,"ĠØªÙĨÛĮ":9992,"Ø§ÙĩØ§ÙĨ":9993,"ĠØ®Ø³Ø§Ø±Øª":9994,"ĠÙħÙĨÛĮØ²ÛĮÙħ":9995,"ĠØ§ÙħÙ¾Ø±Ø§Ø·":9996,"ĠÚ©ÛĮØ§":9997,"ĠÚĨØ§Ø¯Ø±":9998,"ĠÙħØ±Ø§ØºÙĩ":9999,"ĠØ³ÙĦÙħØ§ÙĨ":10000,"ĠØªØµÙĪÛĮØ±Ø¨Ø±Ø¯Ø§Ø±ÛĮ":10001,"ĠØ¨ÙĪØªÙĩ":10002,"ĠØ¨Ø³ØªÙĨ":10003,"ÙħÙĪÙĦØ§":10004,"ĠØ¯ÙĦØ§":10005,"ĠÙĨØ§Ø¢":10006,"ĠØ¶Ø§ÛĮ":10007,"Ø§Ú¯ÙĪØ¦Ùĩ":10008,"ĠÙħØ§Ø¬Ø±Ø§Ø¬":10009,"Ø¬Ø§ÛĮØ²Ùĩ":10010,"ĠØ§ÛĮÙĨÚ©":10011,"Ø¨ÙĩØªØ±ÛĮÙĨ":10012,"ship":10013,"sp":10014,"ØªØ¬":10015,"ĠØ´ÙĪÙĨØ¯Ùĩ":10016,"Ø¢Ø²":10017,"ĠÙ¾ÚĺÙĪ":10018,"sk":10019,"ĠØ¨ÙĪÙĩ":10020,"Ø³ÙĦØ§ÙĪ":10021,"ĠØªØ³ÙĦÛĮ":10022,"ĠØ¯Ø¨ÛĮØ±Ú©ÙĦ":10023,"ĠØ¹Ø±ÙģØ§ÙĨÛĮ":10024,"ĠÙģÙĪØ§ØµÙĦ":10025,"ET":10026,"SA":10027,"ÙĤÙĨØ¯":10028,"Ø§Ø³Ú©Ø§Ø±":10029,"ĠÙĩÛĮÚĨÚ¯Ø§Ùĩ":10030,"Ø§ÙĨÚ¯ÙĦÛĮØ³ÛĮ":10031,"ĠØ§Ø±Ø¬Ø§Ø¹":10032,"ff":10033,"ÙĦØ§ÙĨÚ©Ø§":10034,"Ø§ÛĮÙĪ":10035,"ĠØ±Ø§ÙĪÛĮ":10036,"ĠÚ©Ø±ÙĨ":10037,"ĠÚĨØ§Ø±ÙĦÛĮ":10038,"ĠØ³Ø±ÙĨØ´ÛĮÙĨ":10039,"ĠÚ©ÙĪØªÙĪÙĦÙĩ":10040,"ĠØ¨ÙĨØ¯Ø±Ø¹Ø¨Ø§Ø³":10041,"ÛĮÙħØª":10042,"ĠØ¬Ø±Ø§ØŃ":10043,"Ø²ÙĨØ¯Ú¯ÛĮ":10044,"ĠØ§Ø³Ú©Ø§ÙĨ":10045,"ĠÛ±Û¹Û±Û±":10046,"ĠÛ±Û³Û´Û·":10047,"ĠØªØ§ÛĮÙĪØ§ÙĨ":10048,"ĠÙ¾Ø§ÙĦØ§ÛĮØ´Ú¯Ø§Ùĩ":10049,"ĠØ³Ø§ÙĨØ³":10050,"ĠÙħØŃØªÙĪÛĮ":10051,"ĠØ±ÙĨØ³Ø§ÙĨØ³":10052,"uk":10053,"Ø§ÙĤØ¶":10054,"ĠØ·ÙĨØ§Ø¨":10055,"ĠÙĨÙħØ±Ùĩ":10056,"ĠØ¨ÛĮØ±ÙĪØª":10057,"ĠÛ±Û¹Û±Û°":10058,"Ġ;":10059,"ĠÚ¯ÙĪØ³Øª":10060,"ĠÙħÚ©Ø§Øª":10061,"ĠØ¯ÙĤÛĮÙĤÛĮ":10062,"26":10063,"30":10064,"ĠØ±ÙĪØ§ÛĮØªÛĮ":10065,"ĠÙĨØ§ÙħÙĨ":10066,"ite":10067,"olog":10068,"ĠØ¨ØµØ±Ùĩ":10069,"ĠÚ¯Ø°Ø§Ø´ØªÙĨØ¯":10070,"ĠØ±ÙģØ³ÙĨØ¬Ø§ÙĨÛĮ":10071,"ĠÙħÙĪØ¨Ø§ÛĮÙĦ":10072,"ĠØªÛĮØ³":10073,"ĠØ¢Ø³Ø§ÙĨÛĮ":10074,"ĠÙ¾Ø°ÛĮØ±ÛĮ":10075,"ĠØ¨ÛĮÙĨÙĨØ¯Ùĩ":10076,"ĠØªÙĪØ§ÙĨØ¯":10077,"ÙĪÛĮØªØ³":10078,"Ú¯ÛĮØª":10079,"ĠØ±ÙĪÛĮØ§ÙĦ":10080,"ĠØ®Ø·Ø§ÛĮ":10081,"ÚĺÛĮÙĪÙĨ":10082,"ĠØ³Ù¾Ø§ÙĩØ§ÙĨ":10083,"ĠØ¨ÙĪÙĦÛĮÙĪÛĮ":10084,"Ø§Ø¯ÛĮÙĨ":10085,"ĠØ§ÙģÙĦØ§Ø·":10086,"Ø´Ø¯Øª":10087,"Ø§Ø«Ø±":10088,"ĠØ§ÙĦÙĩÙĩ":10089,"ĠØ³ØªÛĮ":10090,"ĠØ±Ø´ÛĮØ¯":10091,"Ø§Ø³Ø§":10092,"Ø¬Ø§ÙħØ¯":10093,"ĠÙħØ±ÛĮØ®":10094,"Ð¸":10095,"ĠÙ¾ÛĮØ§Ø²":10096,"ĠÙģØ±Ø§ÙĨÚ©ÙĦÛĮÙĨ":10097,"ĠÚ©ÙĪÙĦÛĮ":10098,"Ø¨Ø®Ø´Ø¯":10099,"ĠÚ¯Ø²Ø§Ø±Ùĩ":10100,"ĠÛ³Û¶Û°":10101,"86":10102,"ĠØ¯Ø§ÛĮÙĨ":10103,"Ø§ÙĦØ¨ÛĮ":10104,"ĠÙģØ³ØªÛĮÙĪØ§ÙĦ":10105,"ÛĮØ´Ú¯ÛĮ":10106,"ĠØ³ÙĨØªØ²":10107,"ĠÙħÙĤØ±Ø±":10108,"ĠØ¹Ø§ÙħÛĮ":10109,"ĠÙ¾Ø´Ùħ":10110,"ĠØ®Ø§ØªÙĪÙĨ":10111,"ĠÛĮÚ©ÙĨÙĪØ§Ø®Øª":10112,"ĠÚ©ÙħÛĮÚ©":10113,"ĠØ³ÙĪØ¦ÛĮ":10114,"ÙħØ±Ø¯Ùħ":10115,"ĠØºÛĮØ±Ø¯":10116,"Ø¯ÙĪØ±Ùĩ":10117,"ØŃÙħØ¯":10118,"ĠØ¯ÙĩÛĮØ¯":10119,"ĠØ§ÙĨØŃÙĦØ§ÙĦ":10120,"ĠØ®Ø³ØªÚ¯ÛĮ":10121,"ÙĩØ±Ùħ":10122,"ĠØ¯ÙħÚ©Ø±Ø§Øª":10123,"ĠÙĨØ§Ø³ÛĮÙĪÙĨ":10124,"ĠÙħØ¹Ø§Ø±Ùģ":10125,"ĠØ§ÛĮØ±ÙĦÙĨØ¯ÛĮ":10126,"ÙħÛĮÙħÙĩ":10127,"ĠRe":10128,"ĠÙĪÛĮÙĦÙĩ":10129,"ĠØ³ØŃØ±":10130,"ĠÚ©Ù¾":10131,"ĠØªÙĩØ±Ø§ÙĨÛĮ":10132,"Ú¯Ø±Ø§Ùħ":10133,"ĠÙĦÛĮØ²":10134,"ÙĩÙĨØ±":10135,"ĠÙĨØ±ÙħØ§ÙĦ":10136,"ĠÙħØ¹Ø¯ÙĪØ¯":10137,"ĠØªØ¶Ø¹ÛĮÙģ":10138,"24":10139,"ĠØªÙĩÙĪÛĮÙĩ":10140,"ĠÙħØµØ±ÙģÛĮ":10141,"ĠÛ³ÛµÛ°":10142,"ĠØ¯ÙĩÙĨØ¯Ú¯Ø§ÙĨ":10143,"ĠÙħÚ©Ø§ÙĨÛĮØ²Ùħ":10144,"ĠÙħØ¶ÙħÙĪÙĨ":10145,"ÙħØŃÛĮØ·ÛĮ":10146,"ĠØ¨ÙĪØ³ØªÙĪÙĨ":10147,"ĠØ¯ÙĨØ¯":10148,"ĠÚ¯ÙĪÙĦ":10149,"Ø¨Ø§ØºÙĩ":10150,"yn":10151,"ĠØ¨ÙĪØ±Ú©":10152,"ĠÙħØ§Ú©Ø³":10153,"ÙĪØ¯ÙĩØ§ÛĮ":10154,"ons":10155,"ĠØ¢ÙħØ§Ø¯Ú¯ÛĮ":10156,"ĠØ¢Ø±Ø´":10157,"ĠÚ©ÙĪÙģÙĩ":10158,"ĠÛ·Û³":10159,"ĠÙħÙĩÙĨØ¯Ø³Ø§ÙĨ":10160,"ÙħØ§ÙĦÚ©":10161,"ĠØ¬Ø§Ø²":10162,"ĠØ®Ø§ÙĦØ¯":10163,"Ø§Ø¯ÛĮØ§ÙĨ":10164,"ĠÚĺÙĨØªÛĮÚ©":10165,"ĠÙ¾ÙĪÙĨ":10166,"ĠØ§ÙĨØªÙĤØ§Ø¯ÛĮ":10167,"ĠÙĩØ§ÙĨØ³":10168,"Ø§Ø²ÙĪÙĨ":10169,"Ø¨Ø±Ø®ÛĮ":10170,"ĠØ¨Ø±ÙĩØ§ÙĨ":10171,"Ø²ÛĮØ±Ø¯Ø±ÛĮØ§ÛĮÛĮ":10172,"ĠÙħØ³ØªØŃ":10173,"MA":10174,"ĠÙĨØ§Ù¾Ø°ÛĮØ±":10175,"EC":10176,"Ø¹ÙĪÙĨ":10177,"ĠÙħÛĮÙĩÙĨ":10178,"ĠÛ¶Û¹":10179,"ĠÙĪÛĮØ±Ø§Ø³Øª":10180,"ĠÛ±Û³Û¶Ûµ":10181,"ĠÙħØ³ØªØ¹ÙħØ±Ùĩ":10182,"her":10183,"ĠÙħØ·ÙħØ¦ÙĨ":10184,"ĠÙĨÙĩØ±":10185,"ÛĮÙĨØ§Ùģ":10186,"ĠØŃÙĦØ¨":10187,"Ø³ÛĮÙĦÛĮ":10188,"ĠÛ¸Û±":10189,"ĠØµØ¯Ø§Ùħ":10190,"ĠØ¬ÙĨØ±Ø§ÙĦ":10191,"ĠÛ·Û¹":10192,"ĠØ¸Ø±ÙĪÙģ":10193,"ĠÙĨÚ¯Ø§Ø´Øª":10194,"ĠÚ©Ø±ÛĮÙħÛĮ":10195,"Ġon":10196,"ĠØ´ÙĪÙħ":10197,"ĠØ§ÙĪÚ¯":10198,"ĠØ´ÙĩØ§Ø¯Øª":10199,"Ú¯Ø§ÙĨÛĮØ³Ùħ":10200,"ĠØ§Ø³ÙĦÙĪØ§Ú©ÛĮ":10201,"ĠÙħØ¤ÙĦÙģÙĩ":10202,"ĠØ´Ø±Ø¨":10203,"ĠØ¹Ø§Ø±":10204,"ĠØ³Ø§ÙĦÛĮØ§ÙĨ":10205,"ĠÙ¾Ø±ÙĪØ³":10206,"ĠØ´ÙĪØ´ØªØ±":10207,"ĠØªØ·Ø¨ÛĮÙĤ":10208,"ĠÙħÙģØª":10209,"Ø§ÙĦÚ©":10210,"ĠÚ©Ø§Ø±Ø¢ÙħØ¯":10211,"Ø§Ú¯ÙĪÙĨ":10212,"ĠÙ¾ÙĨØ¬Ùĩ":10213,"ĠÚ¯Ø²ÛĮÙĨ":10214,"ĠØ¢Ø´Ù¾Ø²ÛĮ":10215,"ĠÚ©Ø¨ÙĪØ¯":10216,"Ø¬Øª":10217,"ÙĪÙĦØªÛĮ":10218,"ÙĪØ§Ø³Ø·Ùĩ":10219,"ĠâĢľ":10220,"ĠØ§ÙĨØ§Ø±":10221,"Ø§ØªÛĮÙĪ":10222,"ĠÙ¾ÙĪØ´Ø§Ú©":10223,"ĠÙ¾Ø±Ø§Ú©ÙĨØ¯Ú¯ÛĮ":10224,"ĠÛĮÙħ":10225,"ÛĮØµ":10226,"ĠØ±Ø§Ùģ":10227,"ĠØ±Ø³Ø§ÙĨ":10228,"ĠØ¹Ø¶ÙĪÛĮ":10229,"ĠÙħØ§Ø¬Ø±Ø§ÙĩØ§ÛĮ":10230,"ĠÙħØªÙĨØ§ÙĪØ¨":10231,"Ø´Ø§ÛĮØ±":10232,"ĠØ´ÛĮÙĪØ¹":10233,"ĠÙħØ®ØªØ§Ø±":10234,"Ú¯ÙĪÛĮÙĨ":10235,"ĠÛ±Û³ÛµÛ±":10236,"ĠÙĨØ§Ø®Ø§ÙĦØµ":10237,"Ø´Ø§ÙħÙĦ":10238,"ĠÙĩØ±Ø¨":10239,"ĠØ¯Ø³ØªØ§ÙĪØ±":10240,"ĠÙħÛĮÙĦØ±":10241,"ĠØ°Ø§ØªÛĮ":10242,"ĠÙħØ®ÙģÙģ":10243,"ĠÚ©Ø´Ø§ÙĪØ±Ø²":10244,"ĠØ§ÛĮØ²ÙĪØªÙĪÙ¾":10245,"ĠÙħÙĪØ¶Ø¹ÛĮ":10246,"ĠÙĨØ«Ø±":10247,"Ø®ÛĮÙħ":10248,"ĠÚ¯Ø¦":10249,"Ø¹Ø§":10250,"ĠÙħÙĨØµØ¨":10251,"ĠÙ¾Ø³ÙĪÙĨØ¯":10252,"ĠØ¨ÛĮÙĨØ¯":10253,"ĠÛ±Û´Û°":10254,"ĠÛ±Û³Û´Û¹":10255,"ĠØ±Ø§Ø¶ÛĮ":10256,"ĠÙĤÙħØ±":10257,"ÙĨÚ¯Ø±":10258,"ÙħØ¯Ø§Ø¯":10259,"ĠØ§ÙĨÚ¯ÛĮØ²":10260,"ĠØ§ÙĤØ¯":10261,"Ø³Ø§ÙĦØ§Ø±":10262,"ÙħØ¹ÙħÙĪÙĦØ§":10263,"les":10264,"ÛĮÙĦØªÙĪÙĨ":10265,"ĠÙĦÙĪØ²":10266,"ĠÙħØ³Ø§ÛĮÙĦ":10267,"ĠÙħØ´Ø§ØºÙĦ":10268,"ĠÚ¯ÙĪÛĮÛĮ":10269,"ĠØ§ÙĦØ±":10270,"ĠØ§ØµÙĦØ§":10271,"ĠØ³Ú©ØªÙĩ":10272,"ÙħØ¯Ø±":10273,"ĠØ¨Ø§Ø²Ø±Ø³ÛĮ":10274,"ĠØ§Ø¨ØªÚ©Ø§Ø±":10275,"ĠÙĪØ²Ø§Ø±ØªØ®Ø§ÙĨÙĩ":10276,"ville":10277,"ĠÙĪØ²ÛĮØ±ÛĮ":10278,"ĠØ¢ÛĮØ²":10279,"ĠØªÙĤØ§Ø·Ø¹":10280,"ĠÙħØŃÙĦØ§Øª":10281,"ĠÙħØ§Ø²ÙĨØ¯Ø±Ø§ÙĨÛĮ":10282,"ĠØ³ÛĮØ§ÙĪØ´":10283,"ÙĪÙģÙĩ":10284,"ĠØªØ±ÙħÛĮÙħ":10285,"ĠØ§Ø±ÙħØºØ§ÙĨ":10286,"ĠØ¢Ø±Ø³ÙĨØ§ÙĦ":10287,"bur":10288,"Ø¯Ùģ":10289,"Ø³ÙħÛĮ":10290,"ÙĤØ·":10291,"ĠØ¨Ø±Ø·Ø±Ùģ":10292,"ĠØªØ±Ø§Ø¨Ø±ÛĮ":10293,"ĠØ§ÙĨØªØ²":10294,"ĠØªÙĨÙĩ":10295,"Ø±ÙĪØ²ÛĮ":10296,"ĠÙħØ¹ÛĮÙĨÛĮ":10297,"ĠØ¶ÙħÛĮÙħÙĩ":10298,"ĠÙĪÙģØ§Ø¯Ø§Ø±":10299,"ax":10300,"Ø§ÙħÙĨÙĩ":10301,"ĠØ®Ø´Øª":10302,"ÙĪÙĨØ§Ú¯Ø§":10303,"ĠØµØŃÙĨ":10304,"ĠØ·Ø±Ø§ØŃØ§ÙĨ":10305,"ĠØ§Ø³Ø¨Ø§Ø¨":10306,"ĠÚ¯ÙĦÙĪ":10307,"Ø·Ø§Ø¨ÙĤ":10308,"ĠØ·ÙĩÙħ":10309,"ĠØ§ÙĦØ¬":10310,"ĠÙħÙĪÙĦØ§ÙĨØ§":10311,"ĠØ±Ø¶Ø§ÛĮÛĮ":10312,"ĠØ¨ÙĪÙħÛĮØ§ÙĨ":10313,"ĠÙĨØµÛĮØ±":10314,"ÙĨØ¯Ú¯Ø§ÙĨÛĮ":10315,"ĠØ§ØŃÛĮØ§ÛĮ":10316,"ÙĪØ²ÛĮØ±ÛĮ":10317,"ĠÛ±Û³Û´Û¸":10318,"ĠØ§ÙĤÛĮØ§ÙĨÙĪØ³ÛĮ":10319,"ĠØªØ±Ø§Ø´Ùĩ":10320,"ÛĮÙģ":10321,"ĠÛ±Û³Û³Û°":10322,"ĠØ²ÙĪØ¯ØªØ±":10323,"Å¡":10324,"ĠØ³ÙħØ±":10325,"ĠÙ¾Ø®ØªÙĩ":10326,"ĠÙħØ´Ø§ÙĩØ¯Ø§Øª":10327,"ĠØªÙĩÛĮ":10328,"ĠØ°ÙĪØ§ÙĦ":10329,"Û¸Û¹Û":10330,"ĠÙħØªØ®ØµØµØ§ÙĨ":10331,"ĠØŃÙģØ±":10332,"ØºØ±Ø¨ÛĮ":10333,"Ø·ÛĮÙĦÛĮ":10334,"ĠØ³ÛĮÙĦÙĨØ¯Ø±":10335,"ĠÙ¾Ø§ØªØ±ÛĮÚ©":10336,"ĠØŃØ§Ø¯":10337,"ĠØºØ²Ùĩ":10338,"Ø¨Ø±Ø¯ÙĨØ¯":10339,"ĠCar":10340,"ĠØºÙĦØ§ÙħØŃØ³ÛĮÙĨ":10341,"ĠØ¯Ø§ÙĨÛĮÙĦ":10342,"ĠØ¹ÙħÙĪØ¯":10343,"ĠØ¨ÙĨÚ¯ÙĦØ§Ø¯Ø´":10344,"Ø§Ø³Ø¯":10345,"ĠÙħÙĨØ§ÙĤ":10346,"ĠØ²ÛĮØ§ÙĨ":10347,"ĠØ²ÙĨØ¬ÛĮØ±":10348,"ĠÙ¾Ø±Ø¨":10349,"ĠÙħÙĪØ§Ø¯ÛĮ":10350,"ĠØ¨Ø§Ø²Ø¯Ùĩ":10351,"ĠØªØµØ§ØŃØ¨":10352,"ĠØ¢ÙĩÙĨÛĮ":10353,"Ø·ÙĨØ·":10354,"Ø§ÙĨÙĪØ³":10355,"ĠØ¯Ø§Ø±ÙĨØ¯Ùĩ":10356,"ĠÙħØ®ØªÙĦØ·":10357,"ĠÙĨØµØ±Øª":10358,"ĠØ§Ø³ØªÙĪØ§Ø±Øª":10359,"ĠØ¨ÙĩØ¨Ùĩ":10360,"ĠÛĮÙĪÙĨØ§ÙĨÛĮØ§ÙĨ":10361,"ĠÙĩÙħØ¬":10362,"ĠØ¯ÙĪÙĤÙĦ":10363,"ĠÙģÛĮØ¶":10364,"Ø§Ø¦ÙĨ":10365,"ox":10366,"ĠÙĪØ²Ø±":10367,"ĠØºÙĦØ§Øª":10368,"Al":10369,"ĠØªÙħØ§Ø´Ø§Ú¯Ø±Ø§ÙĨ":10370,"ĠÙħÙħÙĨÙĪØ¹ÛĮØª":10371,"gr":10372,"ÙĪØ²Ø§":10373,"ĠØ§ØŃÛĮØ§":10374,"ĠÛ·Û±":10375,"ĠØªØ¹ÙĦÛĮÙĤ":10376,"Û¹Û³Û":10377,"ÙħØ§ÙĨØª":10378,"Ø±Ú©ÙĨ":10379,"ĠØ§ÙĨØ¯Ø§Ø®ØªÙĩ":10380,"ĠØ²Ø§ÛĮÙħØ§ÙĨ":10381,"ĠØ§ÙħÙ¾Ø±Ø§Ø·ÙĪØ±ÛĮ":10382,"ÙĦØ¨Ø±Ú¯":10383,"ĠØ¢ÙĪØ±ÛĮ":10384,"Ø±Ú©ÛĮ":10385,"ĠØ¯ÙĩÙĤØ§ÙĨ":10386,"ĠÙĦÛĮÙ¾":10387,"ĠØ¢ÙĨÛĮ":10388,"ĠÚĨØ³":10389,"ĠØ¨ÙĨØ²ÛĮÙĨ":10390,"ĠÛ²Û°Û²Û°":10391,"ĠØºÙĪØ§Øµ":10392,"ØªØ§Ùħ":10393,"ĠØ¨Ø§Ø²Ú¯Ø´ØªÛĮ":10394,"ĠÙĪÚ©":10395,"ĠTown":10396,"ÙħØ§ÙĩÛĮØ§ÙĨ":10397,"ĠÙĨØ§Ø¨Ø±":10398,"ĠØ²Ø±ØªØ´ØªÛĮØ§ÙĨ":10399,"ĠÙ¾Ø±ÙĩÛĮØ²":10400,"ÙĪÚĺ":10401,"ĠØ³ÛĮÙĨÚ¯":10402,"ĠØµØ±ÛĮØŃ":10403,"ĠÙ¾Ø§ÛĮØ§ÙĨÙĩ":10404,"ĠÙĪØ±Ø²Ø´Ú©":10405,"ÙĪÛĮÙĨØª":10406,"ĠØ¢Ø³ØªÛĮÙĨ":10407,"ĠØ³ÛĮÚ©ÙĦ":10408,"Ø¢Ø®Ø±":10409,"ust":10410,"Ø³Ù¾Ø§Ø±":10411,"ĠÙ¾ÙĪÛĮØ§ÙĨÙħØ§ÛĮÛĮ":10412,"ÙĦØ§ØŃÛĮ":10413,"ĠØŃØ³ÛĮ":10414,"Ø¢Ø´":10415,"Ø§ØŃØ§ÙģØ¸":10416,"ĠÚ©ÙĪÚĨÚ©ØªØ±ÛĮÙĨ":10417,"ĠÙħØ§Ø±Ú©Ø³":10418,"ĠØ§Ø³Ø§ØªÛĮØ¯":10419,"TP":10420,"ĠØ¨Ú¯":10421,"ĠØ¯ÙĪØª":10422,"ĠÛĮÚ©Ø§ÛĮ":10423,"ĠØ¯ÙĩØ®Ø¯Ø§":10424,"ĠØ§ÙĨØ¯Ø±ÙĪ":10425,"Ù¾Úĺ":10426,"Ø§Ø¨ÙĨØ¯Ùĩ":10427,"Ġ{":10428,"ĠØ¨Ø§ÙĦØ§ØªØ±ÛĮ":10429,"Ø³Ø§Ø²ÙħØ§ÙĨ":10430,"ĠØ³ÙģØ±ÙĩØ§ÛĮ":10431,"ĠØ¯ÙĪØ¨ÙĦÙĩ":10432,"ÙħØ¯Ø§Ø±Ø§ÙĨ":10433,"ĠØªÙĦÙģÙĨÛĮ":10434,"Ø®ÙĪØ§ÙĩÛĮÙħ":10435,"Ø·ÙĨØ·ÙĨÛĮÙĩ":10436,"ĠØ·Ø¹":10437,"ĠØµÙĪØª":10438,"ĠØ¢Ø²Ø§Ø¯Ú¯Ø§ÙĨ":10439,"ace":10440,"ĠØ¨Ú¯ÛĮØ±ÛĮØ¯":10441,"ile":10442,"ĠÙĨØ¦":10443,"ĠØ±Ú©ÙĨ":10444,"ĠÙģØ±ÙĪØ±":10445,"ĠØ§Ø³Ø±Ø§Ø±":10446,"ĠÙģØ±ÛĮØ§Ø¯":10447,"Ø¹ÙĦÙĪÙħ":10448,"ÙĩÙĪ":10449,"Ú©ÙĨÛĮ":10450,"ĠØ¨Ø§Ø¬":10451,"ĠÙģÙĪØ±ÛĮ":10452,"Ø±ÙĪÙĩ":10453,"Ú¯Ø±ÙĩØ§":10454,"Ø§Ø·ÛĮÙĨ":10455,"ÙĦÙĪØ§Ú©ÛĮ":10456,"ĠØªØ®ØµÛĮØµ":10457,"Ø¢ÙĨØ¬ÙĦØ³":10458,"ĠØ±Ø§Ú©Øª":10459,"ØµÙĨ":10460,"ĠØ§ÙĦØ´":10461,"ĠØ¢ÙĦÙ¾":10462,"ĠØŃØ³ÛĮÙĨÛĮÙĩ":10463,"und":10464,"ĠØ¯ÛĮÚ©Øª":10465,"ĠØ¯Ø±ØŃØ§ÙĦ":10466,"ĠØªÙĪÙĦÛĮØ¯Ú©ÙĨÙĨØ¯Ú¯Ø§ÙĨ":10467,"ĠÛ±Û³Û´Û¶":10468,"ĠØ§Ø³ÛĮØ¯ÙĩØ§ÛĮ":10469,"Ø³Ø§ÙĦØ§Ø±ÛĮ":10470,"ĠØ§ÙĨØŃØµØ§Ø±ÛĮ":10471,"ĠØ§ÙĨØªÚ¯Ø±Ø§ÙĦ":10472,"\",":10473,"ĠÙĨÛĮØ§ÙģØª":10474,"ÙģÚ©Ø±Ø§ÙĨ":10475,")-":10476,"ĠÙģØ§ØªØŃ":10477,"Ø±Ø³ÙĪÙĨ":10478,"oll":10479,"Ø«Ø§Ø±":10480,"ĠØ¢Ø±ÙĨ":10481,"ĠØ¨ÙĪØ²":10482,"ĠÚĨØ±Ø¨":10483,"ĠØºØ±ÛĮØ¨":10484,"Ø¯Ø§Ø±ÙĨØ¯Ùĩ":10485,"ĠØ³Ø±Ø¨Ø§Ø²ÛĮ":10486,"ĠÙĨÛĮØªØ±ÙĪÚĺÙĨ":10487,"ĠØ³Ú©Ø³":10488,"ĠÙĨÙ¾Ø§ÙĦ":10489,"ĠØµÛĮØ¯":10490,"ĠØ¯ÛĮØ§Ø¨Øª":10491,"ĠØ§ÙĦØ§ÙĨ":10492,"ĠÙħØ§ÙĩÛĮØ§ÙĨ":10493,"ĠØ¨Ø§ÙĤ":10494,"ĠÙĤØ·Ø±Ùĩ":10495,"ĠØ±ÙĪØ¯ÛĮ":10496,"Ø¬ÛĮÙħ":10497,"ĠÚ©Ø±ÛĮØ³ØªÙĪÙģØ±":10498,"ĠÙĦØ²ÙĪÙħ":10499,"ĠØ´Ø±Ú©ØªÛĮ":10500,"ĠØ¨Ø§Ø²ÙħØ§ÙĨØ¯Ú¯Ø§ÙĨ":10501,"ĠØ¹Ø³":10502,"ĠÚ©ÙĦÚ©":10503,"Ġla":10504,"ĠØ±ÛĮØ²ÛĮ":10505,"ĠØ®Ø§Ø´":10506,"Ø§ÙĨØ¯Ø±ÙĪ":10507,"ĠÙħÙĦØ®":10508,"ĠØµØ§ØŃØ¨Ø§ÙĨ":10509,"ĠÙĦØ§ÙĨÙĩ":10510,"ĠØºØ¶":10511,"ÙĨÙĪØ§Ø²":10512,"ĠÛ±Û³Û¶Û´":10513,"ĠÙģÙĨÙĪÙĨ":10514,"Ġ199":10515,"ÙĨØ§Ø²":10516,"ÙĨØªØ³":10517,"ĠÙħÙĪØ¬ÙĪØ¯ÛĮ":10518,"ĠÚ©Ø§Ø±ÙĪØ§ÙĨØ³Ø±Ø§ÛĮ":10519,"Ø¬ÙĦ":10520,"ĠÙĦÚĺÛĮÙĪÙĨ":10521,"ĠÙĦØ±Ø²Ùĩ":10522,"ĠÚ©Ø§ÙħÛĮÙĪÙĨ":10523,"ano":10524,"ĠÙĤØ³Ø·ÙĨØ·ÙĨÛĮÙĩ":10525,"Ø¨Ø§ÙĤ":10526,"ĠÙ¾Ú©ÙĨ":10527,"ĠÙĤØ´ÙĤ":10528,"Ø§Ø´Ø§":10529,"ÙĪØªÙĪÙĨ":10530,"Ø§Ø·ÛĮØ³":10531,"ĠÛ±Û¶Û°":10532,"ivers":10533,"ĠØ¨Ø±Ø¯Ø§Ø´ØªÙĨ":10534,"ÙĤÙĦØ¨":10535,"ÛĮÙĨÚ¯ÙĩØ§Ùħ":10536,"ĠÛĮÙĪØ±ÙĪÙĪÛĮÚĺÙĨ":10537,"ĠØ¯ÛĮÙ¾ÙĦÙħØ§ØªÛĮÚ©":10538,"ĠØ¨ÙĦÙĪØº":10539,"ck":10540,"ĠØ¯Ø±Ø´Øª":10541,"ĠØ§Ø³Ù¾ÛĮÙĨ":10542,"Ú¯Ø±ÙģØªÙĨ":10543,"ĠÙ¾ÙĨØ§ÙĩÙĨØ¯Ú¯Ø§ÙĨ":10544,"25":10545,"Ø¨Ø§Ú©Ø³":10546,"ĠØ¹Ø²ÙĦ":10547,"eng":10548,"ÙĪØ³Ø§Ø²ÛĮ":10549,"ĠØ³ÙĪØ§Ø±ÛĮ":10550,"Ù¾Ø±Ø³ØªÛĮ":10551,"ĠÙģØ±ÙĤ":10552,"ĠØ±ÙĪØ²ÙĩØ§":10553,"Ø´ÛĮØ®":10554,"ĠØ±ÛĮØ§ÙĦ":10555,"ĠÙĪÙĤÙģÙĩ":10556,"ĠØªÙĪÙ¾Ø®Ø§ÙĨÙĩ":10557,"Ø²ÙĨØ§ÙĨ":10558,"ĠÚĨÙĪÙ¾":10559,"Ø¨Ø±Ø¯Ùĩ":10560,"ĠÙ¾ÙĨÛĮØ±":10561,"ĠÙģÚ©":10562,"ĠÚ©ÙĦÙĨ":10563,"ĠÙģØ±Ø³ØªÙĨØ¯Ùĩ":10564,"ĠÙħØ£ÙħÙĪÙĨ":10565,"ĠØ±ÙĪØ¨Ø§Ùĩ":10566,"ĠÙĨØ³Øª":10567,"ÛĮÙĦØ¯":10568,"ĠØ¶ÛĮ":10569,"ĠÙģØ±ÙĪØ´ÛĮ":10570,"ĠØ³Ø§ÙħÙĪØ±Ø§ÛĮÛĮ":10571,"ĠÙħÙĪÙĨØªØ±":10572,"ĠØ´Ú©Ø§Ø±ÚĨÛĮ":10573,"ĠÙħÙĨØ´ÙĪØ±":10574,"ĠÙĪØ§Ø³Ø·":10575,"ÙĦÛĮÙĪØ³":10576,"ĠØ¯ÛĮÙģØ±Ø§ÙĨ":10577,"Â»)":10578,"ĠÙĪÙĦØ§Ø¯ÛĮÙħÛĮØ±":10579,"ash":10580,"Ġcodice":10581,"ĠØ¢ÙħÛĮØ²Ø´":10582,"ĠÚĺÛĮÙħÙĨØ§Ø³Øª":10583,"ĠØ²ÛĮØªÙĪÙĨ":10584,"ÙĭØĮ":10585,"ana":10586,"ĠÙ¾Ø§Ø±ÙĦÙħØ§ÙĨÛĮ":10587,"ĠÙģØ±ÛĮØ¯Ø±ÛĮØ´":10588,"ĠÙħÙĪØ§Ø²":10589,"ĠØ§ÙĦØªØŃ":10590,"ĠÙĨÛĮØ§Ùħ":10591,"ara":10592,"Ø´Ø§Ø®Ùĩ":10593,"ĠØ§Ø³Ù¾Ø±Ø§ÙĨØªÙĪ":10594,"ĠÙĩØ±ÙĪØ¯ÙĪØª":10595,"ĠÚ©Ø¨ÛĮ":10596,"Ø±Ú©Ø§ÙĨ":10597,"ĠÙ¾Ø±ÛĮÙĨ":10598,"ĠØ²ÛĮØ±Ø®Ø§ÙĨÙĪØ§Ø¯Ùĩ":10599,"Ø±Ø¦ÛĮØ³":10600,"ĠØ§ØªÛĮÙĪÙ¾ÛĮ":10601,"ØªØ§ÛĮÛĮ":10602,"ĠÙĪØ±ÛĮ":10603,"ĠØ§ÛĮÙĨØ³Øª":10604,"ĠÙĪÙĤÙģ":10605,"ĠÙĪÛĮØ§":10606,"ĠØ¨Ø§ÙĦÚ¯Ø±Ø¯":10607,"Û±Û¸Û·":10608,"ĠÙħØªÙħØ§ÛĮÙĦ":10609,"Ø³ÛĮØ³ØªÙħ":10610,"ĠØ³Ø±Ø§Øº":10611,"Ø§ÙĦÙĨÙĩØ±":10612,"ĠØ³Ø§ÙĪØ§Ú©":10613,"ĠÙĦØ§ÙĩÛĮØ¬Ø§ÙĨ":10614,"Ù¾Ø±ÛĮ":10615,"Ø§Ø¦ÛĮÙĩ":10616,"ĠÙħÙĨØ¹Ú©Ø³":10617,"Ø±Ø§ÙħÛĮ":10618,"ĠØŃÙħØ§Ø³ÛĮ":10619,"ĠÚ©Ø§ÙĦØ¨":10620,"ĠÙĨÛĮØ²Ùĩ":10621,"Ø§Ø¦Øª":10622,"ĠØŃØ²Ø¨ÛĮ":10623,"Ø³ÛĮØª":10624,"ĠÙĨØ³Ø§Ø¬ÛĮ":10625,"ĠÙĪÙĦÛĮØ¹ÙĩØ¯":10626,"ĠØ³ÛĮÙħÙĪÙĨ":10627,"ĠØºÛĮØ±ÙħÙħÚ©ÙĨ":10628,"ĠÙĪØµÛĮØª":10629,"ĠØ¢ÙĪØ±ÙĨØ¯":10630,"ĠØ¨Ø§ÙĪØ±ÙĩØ§ÛĮ":10631,"ÙħÙĪØ²":10632,"ÙģØ±ÛĮØ¯":10633,"ĠØ¨ÛĮØ§Øª":10634,"Ø§ØµØ¯":10635,"ĠÚ¯ÙģØªÙĨ":10636,"ĠØ®Ø±Ú¯ÙĪØ´":10637,"ĠØ§Ø³ØªØ±Ø§ÙĦÛĮØ§ÛĮ":10638,"ĠÙĨÛĮØ±ÙĪÙĩØ§":10639,"ÙĩÙĦ":10640,"ĠÙ¾Ø§ÙĩØ§ÛĮ":10641,"ÙĪÙħÙĪ":10642,"ĠÙħØªÙĨÙĪØ¹ÛĮ":10643,"ĠØ¨Ø§Ø±Ø¯Ø§Ø±":10644,"ĠÙħÙĪØ±Ú¯Ø§ÙĨ":10645,"ÛĮØ§Ø¯":10646,"ÛĮÚ©Ø§ÙĨ":10647,"ĠÙħØ¹Ø±ÙģØª":10648,"ĠØ¬ÙĨØ§Ø²Ùĩ":10649,"ĠÙħØ®ÙģÛĮØ§ÙĨÙĩ":10650,"ru":10651,"ĠÙĩØ±ÛĮØ³":10652,"ĠÙģØ§Ùħ":10653,"ĠØ¹ØªÛĮ":10654,"ĠÙħØµÙĪØ¨Ùĩ":10655,"ĠØ´Ø§ÙĩØ±Ø®":10656,"ÙĤØ±Ø¶":10657,"ĠÙħØŃØªÙĪØ§":10658,"Ø§ÙĨØ¬ÙħÙĨ":10659,"ĠØ¨Ø¨Ø±":10660,"ĠØ·ÙĪÙĦÛĮ":10661,"ÙĪÙĨÛĮØ³Øª":10662,"Ø¨Ø§ÙĨÙĪ":10663,"ĠÙħØ±Ø¯Ø§ÙĨÙĩ":10664,"ĠÙĦÛĮÙĪ":10665,"ĠØ³Ø±Ø²ÙħÛĮÙĨÛĮ":10666,"ĠÙĨÙĪØ¨ÙĪÙĨØ§Ú¯Ø§":10667,"ĠÚĺÙĨÙĪÙħ":10668,"ĠØ¯ÙĦÙģÛĮÙĨ":10669,"Ch":10670,"ĠØºØ²ÙĨ":10671,"ĠØ·Ø±ØŃÛĮ":10672,"ĠØ¨Ø®Ø§Ø±Ø§":10673,"ĠØ³ÙĪÙģ":10674,"ĠØŃØªÙħ":10675,"ĠÙĨÙĪØ±ÙĪÙĨ":10676,"outh":10677,"ĠØ§ÙħÛĮØ¯ÙĪØ§Ø±":10678,"ĠØ¢ÙħÙĪØ®ØªÙĩ":10679,"ĠØªÙĪÙĩÛĮÙĨ":10680,"ÙħØ®":10681,"Ø¯Ú©ØªØ±":10682,"ĠÙ¾ÙĦØ§ÙĨ":10683,"ĠÚĨØ´ÙħØ§ÙĨ":10684,"IP":10685,"Ú¯Ø§Ø¯":10686,"ĠØ¯Ø±Ø¨ÙĨØ¯":10687,"ĠÙĩÙĢ":10688,"ÙĪØ´ÛĮÙħØ§":10689,"ĠÛ±Û³Û¶Û±":10690,"ĠÙħÙĨÛĮ":10691,"pe":10692,"ĠØªØ²Ø¦ÛĮÙĨÛĮ":10693,"ix":10694,"Ø¹ÙĦØ§ÙĪÙĩ":10695,"ÙĩØ§ÙĪØ²ÙĨ":10696,"ĠÙĦØ±Ø²":10697,"ĠÚ©ÙĪÙ¾Ø±":10698,"ØªÛĮØ§Ø¯":10699,"ĠÙĦØ§Ø´":10700,"ĠÚ¯Ø±Ø§":10701,"ĠÙħÚ©Ø§ÙĨÛĮØ³Ùħ":10702,"ÙĪÙħØªØ±ÛĮ":10703,"ĠØ¢ÙħÙĪØ²Ùĩ":10704,"ĠÚ©Ø§ÙħØ±ÙĪÙĨ":10705,"ĠØ¨Ø§ÙĨÙĪÛĮ":10706,"ĠÙĨÙĪØ±Øª":10707,"Ø¹ØµØ±":10708,"ĠØ§ÛĮÙĪ":10709,"Ø·Ø§ÙĦØ¨":10710,"ĠÙĦÙĤ":10711,"Û²Û°Û°":10712,"ĠØ§ØªØ±ÛĮØ´ÛĮ":10713,"ĠØªÚ©ÙħÛĮÙĦÛĮ":10714,"ality":10715,"ĠÙħØ¨Ø§Ø±Ú©":10716,"ĠØ±Ø§Ø¯ÛĮÚ©Ø§ÙĦ":10717,"ĠØ¨Ø§Ø®ØªØ±":10718,"ĠØµØ§ÙħØª":10719,"ĠØ¯ÛĮØ§Ø±":10720,"ĠØµØ¯Ø§Ù¾":10721,"Ø°ÛĮØ¨":10722,"Ø§ÙĩÙĨÚ¯":10723,"ØŃØ§ÙĨ":10724,"ĠÚĨØ±ÛĮÚ©":10725,"ĠÚĨÚ©Ø³":10726,"ĠØ¯ÛĮÙĪØ§ÙĨÙĩ":10727,"ĠØŃÙħØ²Ùĩ":10728,"ĠÙħØ³ØªÙĪÙģÛĮ":10729,"ĠÙ¾ÙĨØ§ÙĦØªÛĮ":10730,"ØªØ§ÙĦ":10731,"ĠÙĦØ§Ø²":10732,"ĠØ§ÙħØ¶Ø§Ø¡":10733,"ĠÙħØ³Ø·ØŃ":10734,"ĠÙĨÛĮØ±ÙĪÙħÙĨØ¯":10735,"ĠØ¬Ø±ÙħÛĮ":10736,"ĠÙħÙģØ±":10737,"ĠÙ¾Ø§Ø²":10738,"Ø§Ø¦ÛĮÙĨ":10739,"ĠØªØ±Ø§Ú©ØªÙĪØ±":10740,"Ø³ÙħØ³":10741,"ĠØ¨ÙĪÙĨØ¯":10742,"ĠÙĩÙĪÚ©":10743,"ĠØ°Ø§Øª":10744,"ĠØ®Ø§Ø·Ø±Ùĩ":10745,"ĠÙĩØ§ÙĪØ§ÛĮÛĮ":10746,"ÙĪØ¯Ø´Øª":10747,"ĠØ²ØŃ":10748,"ĠØ§ÙĨÙĤØ¨":10749,"ĠÙħØŃÙĪØ±ÛĮ":10750,"Ø¨Ø§Ø±Ø§":10751,"ĠTe":10752,"ĠBe":10753,"Ú©Ø´ÛĮØ¯":10754,"ĠØ§Ø¸Ùĩ":10755,"ÃŃ":10756,"ÙĪÛĮÚ©ÛĮ":10757,"ÙħØ±Ø²":10758,"ĠØ±Ø§ÛĮØ§ÙĨ":10759,"ĠØ±Ø§ÙĨØ¯Ùĩ":10760,"ĠØ§Ø¹Ø·Ø§ÛĮ":10761,"Ø³ÙĦÛĮÙħØ§ÙĨ":10762,"Ø¯Ø³ØªÛĮ":10763,"ĠØ§ØªØ§Ø¨":10764,"ĠØ²Ø¨Ø§ÙĦÙĩ":10765,"ĠÙĦØ¹":10766,"ÙĪÙĨØªÙĪØ³":10767,"ĠØµØŃØ±Ø§ÛĮ":10768,"ĠØ§Ø±Ø³Ø·ÙĪ":10769,"80":10770,"CP":10771,"ĠÙĨØ·":10772,"ĠÙģØ±Ø§ÛĮÙĨØ¯ÛĮ":10773,"ĠÙĩÛĮØ¯Ø±":10774,"ĠÙĨÙĪØ§Ø²ÙĨØ¯Ú¯Ø§ÙĨ":10775,"ĠÙħØ¹ØªØ±Ø¶Ø§ÙĨ":10776,"Ø§ÙĪÙĦÛĮ":10777,"ĠØ±Ø§Ø³ØªØ§":10778,"Û±Û¸Û¹Û":10779,"ĠÚ¯Ø°Ø±Ú¯Ø§Ùĩ":10780,"ĠÙ¾ØªØ±ÙĪØ´ÛĮÙħÛĮ":10781,"ĠÙħØ³ÙĦØŃØ§ÙĨÙĩ":10782,"ĠØ¨ÛĮØ¯Ø§Ø±":10783,"ĠÙĩÙĪØ§ÙĨÙĪØ±Ø¯ÛĮ":10784,"60":10785,"DA":10786,"ĠÙħÛĮÚ¯":10787,"ÙħÛĮØ±Ø¯":10788,"Ø´Ø¯Ú¯Ø§ÙĨ":10789,"ĠØªÛĮØ±ÙħØ§Ùĩ":10790,"ÙĤÙĪÙĦ":10791,"ĠÙħÙĪØ§Ø¶Ø¹":10792,"ĠÚ¯Ø±Ø¯ÙĩÙħ":10793,"ĠØ´Ú©Ø³ØªÚ¯ÛĮ":10794,"Ø¢ÙħØ±ÛĮÚ©Ø§ÛĮÛĮ":10795,"ĠØ¢Ø±Ø§ÙĨ":10796,"ĠÙĦÛĮÚ©ÙĨ":10797,"ĠÚ©Ø±ÙħØ§ÙĨÛĮ":10798,"ĠØ³Ø±Ø¯Ø´Øª":10799,"ĠØ§ÙĦØ¯ÙĪÙĦÙĩ":10800,"Ø§ÙħØ²":10801,"Ø®Ø§Ø´":10802,"ĠÙħØ¹Ø§ÙħÙĦ":10803,"ĠÙħÙĩØ±ÙħØ§Ùĩ":10804,"ĠØ¨Ø±Ø§ÙĨÚ¯ÛĮØ®Øª":10805,"ĠÙĨØ§ÙĤØµ":10806,"Ø±ÙĪÚĺÙĨ":10807,"ĠØ§ÙĤØªØ¯Ø§Ø±":10808,"ĠÙĩÙħÙĪØ§Ø±":10809,"ĠÚ©ÙĦÙĪØ¯":10810,"ĠÚ¯ÙĦÙĨ":10811,"ĠSc":10812,"Ø¹Ø¨Ø¯Ø§ÙĦ":10813,"ØŃÙĪØ²Ùĩ":10814,"Ø´ÙĪØ§Ø±ÛĮ":10815,"ØªØ£":10816,"ĠØ§ØªØ±":10817,"Ø¨Ø±ÙĨØ§ÙħÙĩ":10818,"ĠØªÙĨØ§Ø³Ø¨":10819,"ĠØªØ¶Ø§Ø¯":10820,"ĠØ§ÙĨØ¯Ø±ÙĪÛĮØ¯":10821,"ĠØ¢Ø¯Ø§ÙħØ²":10822,"yl":10823,"ĠØ³Ø§ØªØ±":10824,"ĠØµØºÛĮØ±":10825,"ĠØ§Ø³ÙħÛĮ":10826,"ĠØ³Ø±Ø³Ø¨Ø²":10827,"ĠØ³Ø±Ø¯Ø§Ø±Ø§ÙĨ":10828,"ĠØ¹Ø±ÙĪØ³Ú©":10829,"ĠÙĪØµÙģ":10830,"ÙĪØ±Ø§Ø³":10831,"ĠÙĩÛĮÙħ":10832,"Ø§ÙĨÛĮØ§ÛĮ":10833,"Ø±ÙĪØ²Ùĩ":10834,"Ø¦Ø§":10835,"ÙĪØ´ÙĪ":10836,"ĠÚ¯ÙĪÙĩØ±":10837,"ĠØ¯ÛĮØ±ÛĮÙĨÚ¯ÛĮ":10838,"ĠØ¶Ø±Ø¨Ø§Øª":10839,"ĠÃ":10840,"ĠÙħØ¨Ùĩ":10841,"ĠØªØ±ÙĤÛĮ":10842,"ÙĪÛĮÙĨØ¯Ùĩ":10843,"ĠØ§ØŃÙĪØ§ÙĦ":10844,"ĠØ±ÙĨÚ¯ÛĮÙĨ":10845,"ĠÛĮØ§Ø¯Ø¢ÙĪØ±":10846,"ĠGe":10847,"ĠØ±ÛĮØ§Ø¶ÛĮØ¯Ø§ÙĨ":10848,"ĠØ´Ø¯Ú¯Ø§ÙĨ":10849,"ĠÙħØ¬ØªÙĩ":10850,"ĠØ±ÛĮØªÙħ":10851,"ĠÚĨÛĮØ±Ùĩ":10852,"ĠØ§ÙĪÛĮÙĨ":10853,"ĠÙĨÙħØ§ÛĮÛĮ":10854,"Ø¨Ø±Ø§ÙĨÚ¯ÛĮØ²":10855,"Ø¬Ø¹":10856,"ÙģØªØ¯":10857,"ĠÙħÙĨÙģØ±Ø¯":10858,"ĠÙĨØ§ÙħÙĪÙģ":10859,"ĠØ§Ø¹ÙĦØ§ÙĨ":10860,"me":10861,"ĠØ¨ØªÙĩ":10862,"ĠØªØ¨ÛĮ":10863,"ĠØ§ÙĦÚ©ØªØ±ÛĮÚ©":10864,"ĠØªÛĮØªØ±":10865,"âĪ":10866,"ĠÙĩÙģØ¯Ùĩ":10867,"ĠØªØ¬Ø±Ø¨ÛĮØ§Øª":10868,"ĠÙĤØ´ÙĤØ§ÛĮÛĮ":10869,"ĠÙħØ´Ø±Ùģ":10870,"ĠØ¹ÙĦØ§ÛĮÙħ":10871,"Ú©Ø§Ø±Ú¯ÛĮØ±ÛĮ":10872,"Ø§Ø¯Ø§ÙĨ":10873,"ĠØ§ÙĪÙ¾":10874,"ĠØ§Ø±Ø§ÙħÙĨÙĩ":10875,"ĠØ¢ÙħÛĮØ®ØªÙĩ":10876,"ĠÙĪÛĮÙĦÙĩÙĦÙħ":10877,"ĠÚĨÚ©Ø³ÙĦÙĪØ§Ú©ÛĮ":10878,"ĠØ¨Ø³Ø§Ø²Ø¯":10879,"ÙģØ¶ÙĦ":10880,"ÙĪÚ©Ø³ÛĮ":10881,"ĠÙħØ§ÙħÙĪØ±ÛĮØª":10882,"ĠØ¬ØºØ±Ø§Ùģ":10883,"ĠØ´Ø§ÙĨÚ¯":10884,"ĠØ®ÙĨØ¯":10885,"Ø§ÙĩØ¨":10886,"ĠØ¬ÙħØ¬ÙħÙĩ":10887,"ĠØ¨ÙĪÚ©Ø§ÙĨ":10888,"ĠØ¨Ø°Ø±":10889,"ĠÚ©Ù¾Ø³":10890,"ĠÙħÙĨØ¸Ø±":10891,"ĠÙħÙĪØ§ÙĨ":10892,"ĠØ³Ø§Ø²ÙĨØ¯Ú¯Ø§ÙĨ":10893,"ÙĪØ§ÚĺÙĩ":10894,"Ġth":10895,"ĠÛ±Û³Û´Û±":10896,"ĠÚ©ÙħÙĪÙĨÛĮØ³ØªÛĮ":10897,"ÙĨØ¨":10898,"ĠØ¯Ø±ÙĪÛĮØ´":10899,"ĠÙģØ±Ø§ÙĨØ³ÛĮØ³Ú©ÙĪ":10900,"ĠØ³ÙĨØ³ÙĪØ±":10901,"ĠÛ±Û¹Û°Û·":10902,"ĠÚ©Ø§Ø³ØªÙĩ":10903,"Ú©ÛĮÙĨØ²":10904,"ĠØ¨ÙĪÚ¯":10905,"ĠÙĦØ§Ù¾":10906,"ĠØ³ÛĮØ³ØªÙħÛĮ":10907,"ĠÙĦÛĮØªÙĪØ§ÙĨÛĮ":10908,"ĠØ±ÙĤØ§Ø¨ØªÛĮ":10909,"ĠÙħØºÙĪÙĦØ§ÙĨ":10910,"ĠÙħÙĨØŃØµØ±Ø¨Ùĩ":10911,"ĠÚ©Ø¨ÛĮØ³Ùĩ":10912,"ĠØ§ÙĪÛĮÙĦ":10913,"ÚĨØ§Ùĩ":10914,"ĠÚ©ÙħÛĮØª":10915,"ĠØ§Ø±ØªØ¯":10916,"ĠÚ©ÙħÛĮØ§Ø¨":10917,"ĠØ®Ø¨Ø±Ú¯Ø§ÙĨ":10918,"Ø±Ø§ÙĤ":10919,"Ø³ÛĮÚ©":10920,"ĠØ±Ø§Ø´":10921,"Ù¾Ø§Ø³":10922,"ĠÛĮÚ©ØµØ¯":10923,"ĠÙħÙĨÙĤØ±Ø¶":10924,"ÙħÛĮÙĨÚ¯":10925,"ĠÙħÙĩØ±Ø¯Ø§Ø¯":10926,"ĠÙĤÙĦÙħØ¯Ø§Ø¯":10927,"ĠØ±ÙĪØŃÛĮÙĩ":10928,"ĠØ³Ø§ÙĨØ³ÙĪØ±":10929,"ium":10930,"ĠØ§ÛĮÙħÛĮÙĦ":10931,"ØµØ±ÛĮ":10932,"ĠÙĪØ§Ø±Ø¯Ø§Øª":10933,"ĠØ²ÛĮØ¨Ø§ØªØ±ÛĮÙĨ":10934,"ĠÚ¯Ø±Ø§ÙĨØ´":10935,"ĠÙĨÚ©Ø§Øª":10936,"Ġj":10937,"ÙĦØ§Ø¹":10938,"Ø¨ÛĮÙħ":10939,"ĠØŃØ§Øª":10940,"ĠØ³ÙĪØ²Ø§ÙĨ":10941,"no":10942,"ĠØ¨Ø®Øª":10943,"ĠÙħÙĤØ§Ø·Ø¹":10944,"ĠLe":10945,"000":10946,"ĠØ´Ø±ÛĮØ¹ØªÛĮ":10947,"ĠØ®ÙĪÚ©":10948,"ĠÙĨÙħØ§":10949,"ØªÙĨÙĩØ§":10950,"ĠØ§ØµØ·ÙĦØ§ØŃÛĮ":10951,"ĠØ¶Ø®ÛĮÙħ":10952,"ĠÙĪØ±Ø²Ø´Ú©Ø§Ø±Ø§ÙĨ":10953,"ĠØ¨Ø§Ø²ÛĮØ§ÙģØª":10954,"ÙĨÛĮÙĨÚ¯":10955,"ĠÙħØ¹Ø±ÙĪÙģØªØ±ÛĮÙĨ":10956,"Ø³Ø§Ø²Ø§ÙĨ":10957,"Ù¾Ø³Ø±":10958,"ĠØ¢ÙĨÙĤØ¯Ø±":10959,"ĠÚ©ÙĨÛĮØ§":10960,"ĠÛ±Û¹Û°Û¶":10961,"ĠØŃØ¬Ø§Ø¨":10962,"40":10963,"ĠØ¨Ø¯Ùĩ":10964,"ĠÚ©Ø±Ø§ÙĨ":10965,"ĠÚ©Ø¬Ø§":10966,"ĠØµØ¯ÛĮ":10967,"ĠÚ©Ø´Ùħ":10968,"ÙĨØ¸Ùħ":10969,"ĠØ§Ù¾Ø±Ø§ÛĮ":10970,"ĠØ®Ø´ÙħÚ¯ÛĮÙĨ":10971,"ĠØ³Ø³":10972,"ĠÙħØ¹Ø§ÛĮ":10973,"ĠØ¢ÙĦØ§Øª":10974,"Û¹Û¸Û":10975,"ĠÙĦÛĮÙĨÚ©":10976,"ØºØ§ÙĨÛĮ":10977,"Ø´ÙĨØ§Ø®Øª":10978,"ĠÙ¾Ø±Ø³ØªØ´":10979,"ĠØ¯ÛĮØ¬ÛĮØªØ§ÙĦÛĮ":10980,"ĠØªØ¹ÙħÛĮÙħ":10981,"ĠØ³Ø§ÙħØ³ÙĪÙĨÚ¯":10982,"ĠØŃÛĮØ«":10983,"ĠØ¯ÛĮØ²ÙĨÛĮ":10984,"Ø³ØªÛĮÚ©":10985,"ĠØ¹Ø§Ø¬":10986,"ĠÛĮÚ¯Ø§ÙĨÙĩ":10987,"ĠÙĨØ´ÛĮÙĨ":10988,"ĠØ±Ø§ÙĩÙ¾ÛĮÙħØ§ÛĮÛĮ":10989,"ĠÙĨØ¸Ø±Ø³ÙĨØ¬ÛĮ":10990,"Ġ20":10991,"ĠÛ±Û³Û´Ûµ":10992,"ĠÛ±Û³Û¶Û³":10993,"ĠÚ¯Ø´Ø§ÛĮØ´":10994,"ĠÙģÙĪØªØ³Ø§ÙĦ":10995,"Ð½":10996,"ĠØ¨Ø¬Ø§ÛĮ":10997,"ĠØ¯Ø´ÙĪØ§Ø±ÛĮ":10998,"Ø²ÙħØ§ÙĨÛĮ":10999,"Ø§ÙħØªÛĮ":11000,"ĠÙħÙĩÛĮ":11001,"ĠØ§ØªÙĩØ§ÙħØ§Øª":11002,"ØªÛĮØ±":11003,"Ù¾ØªÙĪÙĨ":11004,"ĠØŃÙĨ":11005,"ĠÙħØ¹ÙĨØ§ÛĮÛĮ":11006,"ĠÚ©Ø±ÙĪÛĮ":11007,"ĠÙĨØ¨ÙĪØ¯ÙĨ":11008,"ÙĤØ¯Ø±Øª":11009,"ĠÙ¾ØªØ§Ø³ÛĮÙħ":11010,"ĠØ§ÚĺØ¯ÙĩØ§":11011,"ĠØŃØ¨":11012,"Û±Û³Û²":11013,"ĠÚĨÙĦØ³ÛĮ":11014,"Cl":11015,"IC":11016,"ĠÙĨØ±Ø³Ø§ÙĨØ¯":11017,"ĠØºØ±ÛĮ":11018,"ĠØªØ±ÙĪÙħ":11019,"ĠÙħÚ©Ø³":11020,"ĠÚĨØ´ÙħÚ¯ÛĮØ±":11021,"ĠÙĪØ¨ÙĦØ§Ú¯":11022,"ĠØ²Ø±ÙĩÛĮ":11023,"ĠØ®Ø¯ÙħØ§ØªÛĮ":11024,"ĠØ¯Ø³ØªØ§ÙĪØ±Ø¯ÙĩØ§ÛĮ":11025,"ĠØ¨Ø±Ù¾Ø§ÛĮÛĮ":11026,"ĠÚ©Ø§Ø±ÙĩØ§ÛĮÛĮ":11027,"ĠÙħØ´Ø§ÙĩÛĮØ±":11028,"Ú©Ø¨ÛĮØ±":11029,"Ø¨ÛĮÚ©":11030,"Ø¨ÙĪØ¯ÙĨ":11031,"ĠØ®Ø¯Ø§ØŃØ§ÙģØ¸":11032,"ĠÙĨÚ¯Ø§ÙĩÛĮ":11033,"ÙĪØ¯ÛĮÙĨ":11034,"Ø¢ÙģØ±ÛĮÙĨÛĮ":11035,"ĠÙħØ³ÙĪ":11036,"ĠØ§ÙĨØªÙĩØ§":11037,"Ø³Ø±Ø¯Ùĩ":11038,"ĠØ§Ø³Ù¾ÙĪØ±Øª":11039,"ĠØ³ÙģØ±ÙĨØ§ÙħÙĩ":11040,"ĠØ¬ÛĮØ±ÙģØª":11041,"ĠÙģØ§Ø¶ÙĦØ§Ø¨":11042,"Ú¯ÙĪØ±ÛĮ":11043,"ÙĪØ±ÛĮØ§":11044,"ÙĪØ±Ø¯ÙĩØ§ÛĮ":11045,"Ø§Ø±ÛĮØ³Øª":11046,"ĠÙħØŃØ¯ÙĪØ¯ÛĮ":11047,"ĠØªÙĩØ§Ø¬ÙħÛĮ":11048,"ros":11049,"ÙĨØ¯ÙĪØ±Ùģ":11050,"Ø³ÛĮØªÙĩ":11051,"ÙĪÙĩÛĮ":11052,"ĠÙĨÙĪÚ©ÙĦ":11053,"ĠØªØ±Ø¨Øª":11054,"Ø²Ø§ÛĮÙĨØ¯Ùĩ":11055,"ĠØ§ÙĦÙĩÛĮØ§Øª":11056,"ÑĢ":11057,"ĠØ¬Ùģ":11058,"ĠØ§ÙĪØ±ÛĮ":11059,"ĠÙ¾ÙĨØ§ÙĩÙĨØ¯Ùĩ":11060,"ĠÙħÚ¯Ø³":11061,"ĠÙģÛĮØ±ÙĪØ²Ø¢Ø¨Ø§Ø¯":11062,"ĠÙĪØ§ØªØ±":11063,"ĠÚ©Ø´ÙĪØ±Ø´":11064,"ĠØ¯ÙģØ§ØªØ±":11065,"ĠØ¨Ø§ØºØ§Øª":11066,"ĠÙĨØ§Ú©Ø§Ùħ":11067,"ĠØ§Ø¶Ø·Ø±Ø§Ø¨":11068,"ĠÙĨÙ¾Ø°ÛĮØ±ÙģØª":11069,"ĠÚ¯Ø§ÙĨ":11070,"ĠÛĮØ§Ø¨ÛĮ":11071,"ĠÚ¯Ø±Ø§Ø¯":11072,"ĠØ¨ÛĮÚĺÙĨ":11073,"ĠØ³ÙĨÚ¯ÛĮÙĨÛĮ":11074,"MS":11075,"ĠØ§Ø±Ø³ÙĦØ§ÙĨ":11076,"Ø§ÙĨØ¯Ø±Ø§":11077,"ĠÙ¾Ø±ÙĪØ³Ùĩ":11078,"ĠÚ©ÙĪØ³":11079,"ĠØ§ÛĮÙħÙĨ":11080,"Ø¶Ø§Ø±":11081,"Ø±ÛĮÚ©Ø³":11082,"Ø§Ø¦ÙĪØ³":11083,"ĠÙħØ§ÙĨØ¯ÙĨØ¯":11084,"ĠØ¯Ø§ÛĮÛĮ":11085,"ĠÙĪØ§ÙĦØ¯":11086,"ĠÚ©ÙĦØ§ÛĮÙĨ":11087,"Ø·ÙĦØ¨Ø§ÙĨ":11088,"ĠØ³ÙĦÛĮÙħ":11089,"ĠÛ¸Û¹Û":11090,"ĠØ®ÙĪØ´ÙĨÙĪÛĮØ³ÛĮ":11091,"ĠÛ±Û¹Û°Û´":11092,"ĠÚ©Ø§Ø³Ùĩ":11093,"ĠØªØ¯Ø±ÛĮØ¬ÛĮ":11094,"ĠØªØ§ØªÛĮ":11095,"ĠØ§Ø³Ø±Ø§ÛĮ":11096,"Ø²ÛĮØ§ÙĨ":11097,"ĠØ§Ú©ÙĪØ§Ø¯ÙĪØ±":11098,"Ġ*":11099,"ĠÚ©Ø¬":11100,"ĠØ§ÙĨØªØ±":11101,"ĠÙģØ±ÙħØª":11102,"Ú©ÙĪÙĪØ±":11103,"ÙĤØ§Ùħ":11104,"ĠØ³ÙĪÙĤ":11105,"ĠØ¹ÙħÙĪÛĮ":11106,"ĠØ§Ø³ØªÙĪØ¯ÛĮÙĪÛĮ":11107,"Ø³ØªÙĤÛĮÙħ":11108,"ĠÙĩÙĪØ´ÛĮ":11109,"ĠØ§ÙĨØ¯ÛĮ":11110,"ĠÙ¾Ø§Ø±Ø§ÙħØªØ±ÙĩØ§ÛĮ":11111,"ĠØ³Ú©Ø§ÙĨ":11112,"ĠØ´Ø§Ù¾":11113,"ĠØ¨Ø¯ØªØ±ÛĮÙĨ":11114,"ĠØªØ´Ø±ÛĮÙģ":11115,"Ø¬Ø§ÙĨØ¨Ùĩ":11116,"Ù¾Ø±Ø³":11117,"ĠØŃØ±ÛĮÙħ":11118,"Ú¯Ø±Ø¯Ø§ÙĨÛĮ":11119,"ĠØªÙĦÚ¯Ø±Ø§Ùģ":11120,"ĠØ³ÙĦÙĪÚ©":11121,"ĠÛ±Û³Û¶Û¶":11122,"ĠØ§Ø¸ÙĩØ§Ø±Ø§Øª":11123,"ĠØªØ§Ø¨Ø¹ÛĮØª":11124,"ĠØ±Ú©ÙĪØ¯":11125,"ĠØ´ÙĪÚ¯ÙĪÙĨ":11126,"ĠØ³ØªÙħ":11127,"ĠØ³Ø±Ø´Ø§Ø±":11128,"ĠÛ±Û²Û°Û°":11129,"ĠÙ¾Ø§Ø¯Ø§Ø´":11130,"ĠØ³Ø¹Ø§Ø¯Øª":11131,"ĠÛ±Û¹Û°Û¹":11132,"Ø·Ø¨ÙĤ":11133,"ØªØ³Ùĩ":11134,"ĠØ¨Ø§ÙĩÙħ":11135,"ĠÙħÙĪØ±Øª":11136,"ĠØ¹ÛĮÙĨÛĮ":11137,"ĠØ¨ÙĦØ§":11138,"ĠÛ¸Û³Û":11139,"ĠÚ¯ÙĪÛĮØ¯":11140,"ĠØ§ÛĮØ¯Ø¦ÙĪÙĦÙĪÚĺÛĮ":11141,"ĠØ§ØªÙĦØªÛĮÚ©":11142,"ĠÙ¾ÙĨÛĮ":11143,"ĠØ¨Ø§ÙģÛĮ":11144,"Ø§ÙĦÛĮØ³ØªÛĮ":11145,"ĠØ§Ø¹ØªÛĮØ§Ø¯":11146,"ĠÙħØŃÙħØ¯ØªÙĤÛĮ":11147,"icip":11148,"ĠØ¹Ø§Ø·ÙģÛĮ":11149,"ĠØ¨Ø´ÙħØ§Ø±":11150,"Ø±ÙĪØ³ØªØ§ÛĮ":11151,"ĠÙĨØ§ÙħÙĨØ§Ø³Ø¨":11152,"ĠØ§ÛĮÛĮ":11153,"ĠÙĤÙĦÙħØ±":11154,"Ù¾ÛĮÚĨÛĮ":11155,"Û¸Û¸Û":11156,"ĠÛ¹Û¹Û":11157,"ĠÙħØªÙĤØ§Ø¹Ø¯":11158,"ĠØªØ´ÛĮØ¹":11159,"ÙĨØ¯Ø§":11160,"Ú©ÛĮØ§ÙĨ":11161,"ĠØªØ§Ø¬Ø±":11162,"ĠØ¯ÛĮÙĪØ§Ø±ÙĩØ§":11163,"ĠØ¨Ù¾Ø±Ø¯Ø§Ø²ÙĨØ¯":11164,"ĠÙħÙĨÚ¯":11165,"ĠÙħØ¹ÙħØ§Ø±Ø§ÙĨ":11166,"ĠÚ¯ÙĪØ¬Ùĩ":11167,"ĠØ§ØŃØªÛĮØ§Ø¬":11168,"ĠØ§ÙĦÚ©ØªØ±ÙĪÙħØºÙĨØ§Ø·ÛĮØ³ÛĮ":11169,"ES":11170,"Ú©ÛĮÙĨÚ¯":11171,"ĠÚ¯Ø§Ø¨Ø±ÛĮ":11172,"ĠØ§ÙĦÚ©ØªØ±ÙĪÙĨÛĮ":11173,"ĠÙĨØ§ØªÙĪØ§ÙĨÛĮ":11174,"ĠØ²ÛĮÚ¯":11175,"ÙģÛĮØ³":11176,"ĠØ¬Ø§ÙĨÙĪØ±ÛĮ":11177,"ĠÙģØ±Ø¯ÛĮÙĨ":11178,"ĠÚ©Ø±ÛĮØ³ÙħØ³":11179,"ĠÙĤØ±ÙĤÛĮØ²":11180,"ĠØ¯Ø§ÙħÙĨ":11181,"ĠØ§Ø®ØªÛĮØ§Ø±Ø§Øª":11182,"ĠÙħØ¹ÛĮØ§Ø±ÙĩØ§ÛĮ":11183,"ĠØ±ØµØ¯Ø®Ø§ÙĨÙĩ":11184,"Ġal":11185,"ĠÙĦØ§ÙĪ":11186,"Ø§Ø¦ÙĦÛĮ":11187,"Ġ15":11188,"Ø¢ÙħÛĮØ²ÛĮ":11189,"AT":11190,"ĠØ¨Ø§Ø±Ú©":11191,"ĠÙģØ²Ø§ÛĮÙĨØ¯Ùĩ":11192,"ĠØ¹Ø§Ø¯Øª":11193,"ÙĬØ±":11194,"ake":11195,"ID":11196,"Ġ&":11197,"Ø¨Ø§Ø´ÛĮ":11198,"ĠØ³Ø§ÙĦØ§Ø±":11199,"ÛĮØ¯Ø±":11200,"ĠØ¯Ø±Ø¢ÙĪØ±Ø¯Ùĩ":11201,"ĠØŃÛĮÙĪØ§ÙĨÛĮ":11202,"ĠØ¢ÙĦÛĮØ³":11203,"ult":11204,"ĠÚ¯ÙĪØ±Ú©":11205,"ĠØ³ÛĮØ¨Ø±ÛĮ":11206,"ĠÙĨÙĤÙĪØ´":11207,"ĠØ®ÛĮØ§Ùħ":11208,"ĠÛĮØ²Ø¯Ú¯Ø±Ø¯":11209,"ĠCHO":11210,"Ø¨Ø§ÙĤØ±":11211,"ĠÚ©Ø§ÙħÛĮÚ©Ø³":11212,"ĠØ¨Ø§ØºÛĮ":11213,"ĠÙĦÛĮÙĨÚ©ÙĦÙĨ":11214,"ĠÙģØ±Ø§ÙĨÚ©ÙģÙĪØ±Øª":11215,"ĠØ´ÙĪÙĩØ±Ø´":11216,"ĠØ±Ø§ÛĮØ´":11217,"ĠÚ¯Ø±Ø§ÛĮ":11218,"ĠÙ¾ÙĦØ§Ø³ØªÛĮÚ©ÛĮ":11219,"ma":11220,"Ø±Ø³Øª":11221,"ĠØ®ÙĪØ¯ÛĮ":11222,"ĠØ§Ø´Ø¨Ø§Ø¹":11223,"orld":11224,"ĠÚ©Ø§ÙħÛĮÚ©":11225,"ĠLa":11226,"ĠÙĦÛĮÙĦØ§":11227,"ĠÙħÙĦØ§ÛĮØ±":11228,"ĠÙĨØ§Ø´ÙĨØ§Ø³":11229,"ĠÙ¾ÛĮØ´Ú¯Ø§ÙħØ§ÙĨ":11230,"ĠØŃØªÙħØ§":11231,"Ø²ÙĪØ±":11232,"ĠØ§Ø¹Øª":11233,"ĠÚ¯Ø±ÛĮÙĨÙĪÛĮÚĨ":11234,"ĠÙĪØ§Ú©Ø³ÙĨ":11235,"Ú©ÙĪÛĮ":11236,"Ġ\"(":11237,"ØªÙħØ§Ùħ":11238,"ĠØªÙģÙĦÛĮØ³":11239,"ĠÚ©Ø§Ø²Ø±ÙĪÙĨ":11240,"ÙĪØ¢ÙħØ¯":11241,"Ø¢Ú©ØªÙĪØ±":11242,"ĠØ¨ÙĦÙĪØ·":11243,"ĠÚ©Ø§Ø¯Ø±":11244,"ĠÙĩØ§Ú©":11245,"Ø§Ø¯Ø±ÛĮ":11246,"ÙĨÚ¯Ùĩ":11247,"ĠÙĨÚ¯Ø§Ø±ÛĮ":11248,"ĠÙĩØ¬Ø¯Ùĩ":11249,"ØªØ³Ø§":11250,"Ø´ÙĨØ§ÙĦ":11251,"Ø§Ø³ÛĮØ³":11252,"ĠØªØŃÙħÛĮÙĦ":11253,"ÙĤØ§ÙĨÙĪÙĨ":11254,"ĠÚ©Ø§Ù¾ÙĪØ±":11255,"ĠÙ¾Ø±Ø³ÛĮ":11256,"ĠØ¹Ø¨Ø¯Ø§ÙĦØ¹Ø²ÛĮØ²":11257,"ĠØ±ØŃÙħØª":11258,"ĠÙĨÙħØ§Ø¯ÛĮÙĨ":11259,"ĠÙħØ±Ø¨ÛĮÚ¯Ø±ÛĮ":11260,"ĠØ¯Ø³ØªØ§ÙĨ":11261,"ĠÙĨÚ¯Ø±ÙģØªÙĩ":11262,"ĠIs":11263,"ĠØ¹ÙĦÙħØ§":11264,"ĠÙĨØ¨Ø±Ø¯ÛĮ":11265,"ĠØ¹Ø²Øª":11266,"ĠÙ¾ÛĮÙĨÚ©":11267,"ĠÙ¾Ø´ØªÛĮØ¨Ø§ÙĨ":11268,"ĠØ±Ø¨ÛĮØ¹":11269,"ØªØ¹Ø¯Ø§Ø¯":11270,"ĠÙĨÙĪØ¨Ùĩ":11271,"ĠØ³ÙĪØ§Ø±Ùĩ":11272,"ĠÚĨÙĨÚ¯ÛĮØ²":11273,"ĠØ¬ÙĪÛĮÛĮ":11274,"Ø§Ø³ØªÛĮ":11275,"ÙĨÚ¯Ø§ÙĨ":11276,"ĠØ¯Ø³ØªÙħØ²Ø¯":11277,"ĠØ§Ø¨ÙĦ":11278,"ĠØ¨Ø²Ø±Ú¯Ø¯Ø§Ø´Øª":11279,"ĠÛ±Û¸Û¹Û°":11280,"ĠØ§ÙģØ±Ø§Ø·ÛĮ":11281,"ĠØ§ÛĮØ²ÙĪ":11282,"ĠÙĤØ²ÙĦ":11283,"ĠØªØ§ÛĮÙħ":11284,"ĠØ±Ø§Ø¬Ø±":11285,"ĠÚĨÙĨØ§Ø±":11286,"ÛĮÙĨØ§ÙħÙĩ":11287,"Ø¨Ø§ÙĨÚ©":11288,"ĠÛ±Û°Ûµ":11289,"ĠÙģÙĪÙĦØ§Ø¯ÛĮ":11290,"ĠØ¨Ø±Ø³ÙĨØ¯":11291,"ĠØ¨Ø±ÙĩÙĨÙĩ":11292,"ER":11293,"ĠÙħØ³Ø¬":11294,"ĠÙħÚ©ØªÙĪØ¨":11295,"ĠÙģØ±Ø¯Ø§":11296,"ĠÙ¾Ø±ÙĪØ§Ø²Ø´":11297,"ĠØ³ÙĪØ³ÛĮØ§ÙĦ":11298,"ĠØ§ÛĮØ³ÙĦÙĨØ¯":11299,"ĠÙģÙĤØ¯Ø§ÙĨ":11300,"ĠØ¢Ø´ÙĪØ¨":11301,"AM":11302,"ØªÙĨÙĩ":11303,"ĠÙĨÛĮØªØ±":11304,"ĠØ³Ø§Ø±Ø¯":11305,"ĠØ²Ø§ÙĨÙĪ":11306,"ĠÙħÙĨØ§Ø¸":11307,"ĠÙģØ±Ø¶ÛĮ":11308,"ĠÙ¾Ø±Ø²":11309,"ĠÙĨØ³Ø¨ÛĮØª":11310,"Ú©Ø§Ø±Ø§":11311,"ĠØ¯Ø¹Ø§":11312,"ĠØ¹ÙģÙĪ":11313,"Ùł":11314,"Ú¯ÙĨØ¬":11315,"Ø¶ÙĪÛĮ":11316,"ØŁÂ»":11317,"ĠÙĪÙĨÚ©ÙĪÙĪØ±":11318,"ĠØ§Ø³ÙħØ§Ø¹ÛĮÙĦÛĮ":11319,"ĠØ¬ÙĪØ¯":11320,"ĠÙħØ¹Ø§Ø´":11321,"ĠÚ©Ø±Ø¯ÙĩØ§":11322,"ĠØ®ÙĪØ¯Ø±ÙĪÙĩØ§":11323,"ĠØ§Ø±ØªÙĤØ§ÛĮ":11324,"ĠØ±ÙĨÙĪ":11325,"pp":11326,"ĠÙ¾ÙĪÛĮ":11327,"Ú©ÙĨØ¯ÛĮ":11328,"ĠÙħÙĩØ§Ø¨Ø§Ø¯":11329,"ĠØ³ÛĮÙħØ±Øº":11330,"ĠØ´Ø§Ø±Úĺ":11331,"ĠÚ¯ÙĦØ®Ø§ÙĨÙĩ":11332,"ØºÛĮØ§ÙĨ":11333,"ĠØµÙģØ§Øª":11334,"ĠØ¢ÙĦÛĮØ§ÚĺÙĩØ§ÛĮ":11335,"AN":11336,"ĠØ¢Ø¬Ø±ÛĮ":11337,"Û³Û°Û°":11338,"ÙĪÚ¯Ø§ÙĪØ§":11339,"Ø¨Ø§Ø¨Ú©":11340,"ĠÙĤÙĪØ±Ø¨Ø§ØºÙĩ":11341,"Ø±ÙĪØ§ÙĨ":11342,"ØªÙĪØ§ÙĨØ³ØªÙĩ":11343,"ĠØ¯Ø§Ø±Ø§Ø¨":11344,"ĠÙ¾Ø±ÙĨØ³":11345,"ĠØµØŃØ±Ø§":11346,"ĠØ§Ø³Ú©Ø§ÛĮ":11347,"ĠØ¢Ø¯ÙĪÙĦÙģ":11348,"ÙħÙĨØ¸ÙĪØ±":11349,"ÙĨØ§Ø±":11350,"ĠØ«ÙĦ":11351,"ĠØµÙģÙĪÛĮØ§ÙĨ":11352,"Ø¨ÙĦØ§Ø³Øª":11353,"ĠÙĨØ¯Ø§Ø´ØªÙĨ":11354,"ĠÛ±Û³Û³Û·":11355,"ĠÙħÙĪÙĦØ¯":11356,"ØºØ±ÙĦ":11357,"ĠØ¹Ø¨Ø¯Ø§ÙĦØ±ØŃÙħÙĨ":11358,"ĠÙģØ³ÙģØ§Øª":11359,"ĠØ§ÙĨÙĤØ¨Ø§Ø¶":11360,"ĠÙĪØ±Ùħ":11361,"ĠÙħÙĪÙĩØ§ÛĮ":11362,"ĠØ¨ÙĦÙĪØ±ÛĮ":11363,"ĠÙĨØ±Ø³ÛĮØ¯Ùĩ":11364,"ÙĩÛĮØ±":11365,"ÚĨØ§":11366,"Ø§Ø³ÙĪÛĮ":11367,"ĠÙĨÙħØ§Ø¯ÙĩØ§ÛĮ":11368,"Ø£Øª":11369,"ĠÚ¯Ø³Ø³ØªÙĩ":11370,"Û±Û¸Ûµ":11371,"ĠÙħØ¨Ø§ÙĨÛĮ":11372,"ĠØ¨ÛĮØ±Ø¬ÙĨØ¯":11373,"ĠØ±Ú©ÙĪØ±Ø¯Ø²":11374,"ĠØ§ÙĪØ¨Ø§ÙħØ§":11375,"ĠØ¹Ø§ÙħÛĮØ§ÙĨÙĩ":11376,"ĠÙħØ®ØªØ±":11377,"ĠØ¨Ø¯ÙĨØ¨Ø§ÙĦ":11378,"Ú©Ø´ØªÛĮ":11379,"Ø¨Ø²":11380,"ĠØ¨Ø±Ø¬Ø§ÛĮ":11381,"ĠØ§ÛĮØ¯Ø²":11382,"ĠØ¨Ø§ÙĨÙĪ":11383,"Ø¸Ø§Øª":11384,"ĠÙĦÛĮÙĪÙĨ":11385,"ĠØªØºÛĮÛĮØ±ÛĮ":11386,"ĠDe":11387,"ĠØ¯ÙħØ§ÙĪÙĨØ¯":11388,"ĠÙĩØ§ÛĮØ¯ÙĦØ¨Ø±Ú¯":11389,"ĠÙĨØ§ÙħÙĪÙģÙĤ":11390,"ĠÙ¾Ø§Ø±ÛĮ":11391,"ĠØ¨Ø§Ø´Ú¯Ø§ÙĩÛĮ":11392,"ĠÙ¾ÙĪØ´Ø§ÙĨØ¯Ùĩ":11393,"ĠØ¹ÙĩØ¯ÙĨØ§ÙħÙĩ":11394,"ĠØªØ¹Ø·ÛĮÙĦØ§Øª":11395,"ĠØ¯Ø±Ø¨Ø§Ø±ÛĮ":11396,"ÙĤØ±Ùħ":11397,"ĠØ¢ÙĨÙĩØ§Ø³Øª":11398,"ÙģÛĮÙĤÛĮ":11399,"ĠÚ©Ø§ÙĨØª":11400,"ĠÚ©Ø§ÙĨØªÛĮ":11401,"Ø¨Ø³ÛĮ":11402,"Ø±Ø§ÙĨÚ¯":11403,"ĠÙħÛĮØ§ÙĨØ¬ÛĮ":11404,"ĠÛ²ÛµÛ°Û°":11405,"ĠÙĨØ§Ø±ÙĨØ¬ÛĮ":11406,"ĠÙĪÙģØ§Ø¯Ø§Ø±ÛĮ":11407,"ĠØ²Ø§Ø¯Ú¯Ø§ÙĩØ´":11408,"ĠÙ¾Ø§ÙĨÚ©":11409,"ĠØŃØ§ÙħØ¯":11410,"Ø§ÙĤØª":11411,"ÙĬØ¯":11412,"ÙħØ¹Ø§Ø±Ùģ":11413,"ĠØ±Ø¬Ø¨":11414,"ĠTownship":11415,"ĠÙħØªÙĨÛĮ":11416,"ĠÙħÙĤØ¯ÙĪÙĨÛĮÙĩ":11417,"ĠÚ©ÙĨÚ¯ÙĪ":11418,"ĠØªÙĨÚ©Ø§Ø¨ÙĨ":11419,"Ġ_":11420,"Ø¯Ø§ÙĨÛĮÙħ":11421,"ĠØ¯ÙĪØ¨ÙĦ":11422,"ĠÙ¾Ø±Ø³ÙĨ":11423,"ĠØ§ØŃØ³Ø§ÙĨ":11424,"Ø¨ÙĦØ§Øº":11425,"ĠÛ±Û³Û³Ûµ":11426,"ĠÙħØ´Ú©ÙĪÚ©":11427,"ĠØ¨Ø¨Ø±ÙĨØ¯":11428,"ĠØªØ´ÙĨ":11429,"ĠØ¨ÙĨÙģØ´":11430,"ĠÛ±Û³Û°Û°":11431,"ĠÙĨÙĪØ²Ø§Ø¯Ø§ÙĨ":11432,"ĠÙħØ´Ú©ÙĦÛĮ":11433,"ĠØ³ÙģØ±ÛĮ":11434,"ĠÙ¾Ø§Ø¯Ú¯Ø§ÙĨ":11435,"ĠØªØ¯Ø§Ø®ÙĦ":11436,"ĠÙ¾ØªØ±Ø²Ø¨ÙĪØ±Ú¯":11437,"ÙħØŃÙĦÙĩ":11438,"Ø®ÙĨØ¯":11439,"ĠØ¹Ø¨Ø§Ø¯Øª":11440,"ĠØ¬Ø§Ø¨Ø¬Ø§":11441,"ĠØ³Ø§ÙħÛĮ":11442,"Ø§ÙħØ§Ùħ":11443,"ĠØ¨Ø§Ø²Ù¾Ø³":11444,"Ø§ÙĪÙĪØ³":11445,"ÙĨÙħÙĪÙĨÙĩ":11446,"Ø³ØªÙĨØ¯":11447,"ĠÙħØŃØµÙĪØ±":11448,"Ø´Ú©Ø±":11449,"ĠØ§ÙģØ²Ø§Ø±":11450,"ics":11451,"ĠÙħÙĪÙĦÙĪÛĮ":11452,"ĠÙĨØ§Ø±Ø³Ø§ÛĮÛĮ":11453,"AR":11454,"ØªØ¦":11455,"ĠÙħÛĮÚ©ÙĨÙĨØ¯":11456,"ĠØ§Ø±Øº":11457,"ĠØ²Ø¨Ø§ÙĨÙĩØ§ÛĮ":11458,"ound":11459,"ĠØ§Ø¹ØªÙĤØ§Ø¯Ø§Øª":11460,"ĠÙħØ§Ú©Ø±ÙĪ":11461,"Ðµ":11462,"ĠØ³ÙĪÛĮÛĮ":11463,"ĠØ§Ø³ØªÙģ":11464,"ĠÙħÙĨØ§Ø±Ùĩ":11465,"ĠØ³Ø±Ø§ÙħÛĮÚ©":11466,"ĠÙħØ§ÛĮØ¹Ø§Øª":11467,"ham":11468,"ĠØ¨Ø±ÛĮØ¯Ùĩ":11469,"Ø¦ÙĦ":11470,"ĠØµØ§Ø¯ÙĤÛĮ":11471,"ĠØ¯Ø§ÙĨÙħØ§Ø±Ú©ÛĮ":11472,"ĠØ¨ÙĩØ²Ø§Ø¯":11473,"ĠØ·ÙĪØ³ÛĮ":11474,"ĠÙ¾ÛĮØ±Ø§ÙĨ":11475,"ĠØ¨Ø±ÛĮØªÛĮØ´":11476,"ÙĪØ±Ø³":11477,"Ø³ÛĮÙĪØ³":11478,"ĠÚ¯Ø±ÙĨØ¯":11479,"ĠØ§ÙĤÙĦÛĮØ¯":11480,"ĠÚ¯ÙĦÙ¾Ø§ÛĮ":11481,"ÙģØ§Ø¹ÛĮ":11482,"ĠØ¬ÙĪØ¬Ùĩ":11483,"ĠÛĮÙĪÙĨÚ¯":11484,"ĠÚ©Ø§ÙĦØ§ÛĮ":11485,"ĠÙ¾Ø±ÙĪØªØ³ØªØ§ÙĨ":11486,"ĠØ¯ÙĨÛĮØ³":11487,"ĠØ³Ø§Ø¹Ø§Øª":11488,"ĠØ§Ø³ÙģÙĨØ¯ÛĮØ§Ø±":11489,"ÙħØ¨Ùĩ":11490,"ĠÚ¯ÙĪÙħ":11491,"Ø§Ø¨ÙĪ":11492,"ĠØ§ÙĨÙĪØ´":11493,"ĠØ´Ø¯ÛĮØ¯Ø§":11494,"ĠØ´ÙĩØ±Ø³Ø§Ø²ÛĮ":11495,"Ø¬ÙĩØ§ÙĨ":11496,"ĠÙĦÛĮÙĦÛĮ":11497,"ĠÙħØ§ÙĩØ±":11498,"ĠÙĩØ§Ø±ÙĪÙĨ":11499,"ĠÙĪØ±Ø³":11500,"Ø³Ø±Ø¹Øª":11501,"ĠØ¹ÙĪØ§Ùħ":11502,"ĠØ¨Ø±ÙĨØ§Ø±Ø¯":11503,"Ġ×":11504,"ÙĦÙĪØ³":11505,"ĠÙħÙĤØ¯ÙħØ§Øª":11506,"ĠSan":11507,"Ø±ÙģØªÙĨØ¯":11508,"ĠØ§ØµØ·ÙĦØ§ØŃØ§":11509,"ĠÙĲ":11510,"ĠÚ©ÛĮØ³":11511,"ĠØªØ¯Ø§":11512,"ĠØ§ÙħØ§Ø±Øª":11513,"Ø²ÛĮØ³ØªÛĮ":11514,"ĠÙĤØ±Ø§Ø±Ú¯ÛĮØ±ÛĮ":11515,"ĠÙĩÙĪØ§Ø´ÙĨØ§Ø³ÛĮ":11516,"ĠØ´Ú©ÙĪÙģ":11517,"ĠÚ©ÛĮÙģÛĮ":11518,"ĠÙħØ§Ø±Ú©Ø³ÛĮ":11519,"IV":11520,"ĠØ§ÙĨØ¯Ø§Ø®ØªÙĨ":11521,"ĠØ®Ø±Ø¬":11522,"ĠÙĪØ¨Ø³Ø§ÛĮØª":11523,"ĠÚ¯ÙĨØ¬ÛĮÙĨÙĩ":11524,"ĠØ¬Ø§Ø¯ÙĪÛĮÛĮ":11525,"Ú©Ø¨":11526,"ĠÙĩÙĦÛĮ":11527,"ÛĮØ±ÙĪØ§ÙĨ":11528,"ĠÙĩÙħÚ¯Ø§ÙĨ":11529,"ĠÙħÙĦÙĪØ¯ÛĮ":11530,"ĠHe":11531,"Ø·ÛĮÙģ":11532,"ĠØ¬Ø¨Ø±ÛĮ":11533,"ĠÙĤÙģ":11534,"ĠØªØŃØ±Ú©":11535,"ĠÛ±Û¸Û¹Û¶":11536,"ĠÙĨÙĩØ§ÙĪÙĨØ¯":11537,"ĠÚ¯ÙĪØ§ÙĩÛĮÙĨØ§ÙħÙĩ":11538,"ĠØ®ÙģØ§Ø´":11539,"29":11540,"ĠØ§ÛĮØ³":11541,"ĠÙħÛĮØ±ØŃ":11542,"ĠØªÙĪØ±ÛĮÙĨ":11543,"ĠØ¹Ø§Ø±Ø¶Ùĩ":11544,"Ø³ÙĦØ±":11545,"ĠØ¨Ú©Ø§Ø±Ú¯ÛĮØ±ÛĮ":11546,"ÙģØ±Ø¶":11547,"ÙĪÚ©Ø§ÙĨ":11548,"ĠØ´Ø±Ø¹ÛĮ":11549,"ÛĮÙĨÛĮØ§ÙĨ":11550,"ÙĦÙĪÙģ":11551,"ÙĦÙĪØ¹":11552,"ĠØ¢Ø±Ø§Ø¡":11553,"ĠÙģØ±Ø³Ø§ÛĮØ´":11554,"ĠØ¯ÛĮÙģØ±Ø§ÙĨØ³ÛĮÙĦ":11555,"Ø³ØªÙĪÙĦ":11556,"ĠØ§ÙħÛĮÙĦÛĮ":11557,"ĠØ±ÙĪØ´ÙĨÛĮ":11558,"ĠÙ¾ÛĮÚ©Ø§ÙĨ":11559,"ĠÙ¾Ø±ÙĪØ§Ø²ÙĩØ§ÛĮ":11560,"ĠØ´ÙĩØ±ÙĪÙĨØ¯ÛĮ":11561,"ction":11562,"ĠÙĩØ±Ø²Ú¯ÙĪÛĮÙĨ":11563,"ĠØªØ¨ÛĮÛĮÙĨ":11564,"ĠØ±ÛĮÚ¯":11565,"Ú¯ÙĪÛĮÛĮÙħ":11566,"ĠØªØ§ÛĮÙ¾":11567,"Ø·Ø¨ÛĮØ¹ÛĮ":11568,"ĠØ¨ÛĮÚ©Ø§Ø±ÛĮ":11569,"Ø¬ÛĮØ±":11570,"ĠÙģØµÙĪÙĦ":11571,"ĠØ§ÙĦÙħÙĦÚ©":11572,"ĠSp":11573,"ĠØ¹Ø¨Ø¯Ø§ÙĦØŃØ³ÛĮÙĨ":11574,"ĠÙħØ¹ØªØ±Ø¶":11575,"ĠÙħØ¯ÛĮØ±ÛĮØªÛĮ":11576,"ĠØ§ÙģÙĦØ§Ø·ÙĪÙĨ":11577,"ðĲ":11578,"ĠÙĨØ±Ø³ÛĮØ¯":11579,"Ø§ØªØ±Ø§":11580,"ĠØ§Ø³ÙģØ±":11581,"ĠÙĪÙĦÛĮÚ©ÙĨ":11582,"ĠÙĪØ±Ø´ÙĪ":11583,"ĠÛ±Û³Û³Û¶":11584,"Ġdistrict":11585,"Ø³ÙĨØ¯":11586,"ĠÙ¾ÙĪÙħ":11587,"ÙģÛĮØ¹":11588,"ĠØ¹ÙħØ±Ø´":11589,"to":11590,"à¸":11591,"ĠØ¢Ø´Ú©":11592,"Ø´ÛĮØ±ÛĮ":11593,"ĠØ¯ÙĦØ§ÛĮÙĦÛĮ":11594,"ĠØ¬ÙĪÙĩØ±":11595,"ĠIP":11596,"ĠØ³Ú©ÙĪÛĮ":11597,"ØªÛĮÚ©ÛĮ":11598,"ĠØŃØ¨Ø§Ø¨":11599,"ĠÚĨØ§Ú©":11600,"ĠØ¹ÙħØ§Ø¯":11601,"ÙĪØ¦Ø±":11602,"ĠÛ¹Û°Û°":11603,"ous":11604,"ĠØªÙĪÙħÙĪØ±":11605,"ĠÙĪØ§Ø¯":11606,"ĠØ§ÙĦØ³ÙĦØ·ÙĨÙĩ":11607,"ÙĪØ²ÛĮÙĨ":11608,"ĠÙħØªØ±Ø§Ú©Ùħ":11609,"ĠÛĮÙĪÙĪÙĨØªÙĪØ³":11610,"ÙĪØ³Ø§ÙĨ":11611,"ĠØ¨ÛĮØ¶Ø§ÛĮÛĮ":11612,"ĠØ§ÙĨØ¯Ø±Ø³ÙĪÙĨ":11613,"ĠÙħØŃØ±ÙħØ§ÙĨÙĩ":11614,"ĠÛĮØ§Ø¨ÙĨØ¯":11615,"ĠÙħØ·ÙĩØ±ÛĮ":11616,"ĠØŃØ¬Øª":11617,"ĠÙħØ§Ø¦":11618,"ĠÚ¯Ø±Ø¯ÙĨØ¯":11619,"ĠØµØ¯Ùģ":11620,"ĠÛ±Û³Û´Û³":11621,"ĠØ¹ÙĨÚ©Ø¨ÙĪØª":11622,"ĠÙħØ´Ø±ÙĪØ·ÛĮØª":11623,"ĠØ¨ÙĪØ±Ú©ÛĮÙĨØ§Ùģ":11624,"70":11625,"ÙĪØ§ÙĤØ¹":11626,"Ø³Ú¯":11627,"ĠØ¢ÛĮÙĦÙĨØ¯":11628,"ĠÙģÛĮØª":11629,"ĠØ§Ú¯Ø²":11630,"ĠÚ©ÙĦØ§Ø±":11631,"ĠØ³ÙĪØ²ÙĨ":11632,"ĠØ¢Ø®ÙĪÙĨØ¯":11633,"gh":11634,"Î±":11635,"ĠØªØ§ÙĨÚ¯":11636,"Ø§ÙĩØ¯ÛĮ":11637,"ĠÚ¯ÙĨÙĪ":11638,"Ø§ÛĮÛĮØ§ÙĨ":11639,"ĠÙĨØ¯Ø§Ø¯Ùĩ":11640,"ĠÚ©Ø§ÙĦØ§ÙĩØ§":11641,"Ø®ÙĪØ§ÙĩØ§ÙĨ":11642,"ĠØ±Ø¬Ø§ÙĦ":11643,"ĠÙħØ³ØªÙħØ±":11644,"ĠÚ©ÙĪØ³Ùĩ":11645,"ĠØ¨Ø§ÙģØªÙĩ":11646,"ĠØ¢ÙĨØªÙĪÙĨ":11647,"ĠÙħØ°Ø§ÙĩØ¨":11648,"ÙħØ³Ø¬Ø¯":11649,"Ø¹ÙĪØ¯ÛĮ":11650,"ĠØ¢ÙĪÛĮØ²":11651,"ĠØºØ§ÙģÙĦ":11652,"ĠÙĩØ±Ú¯Ø§Ùĩ":11653,"ĠØ¹ÙĦÙĨÛĮ":11654,"Ú¯Ø°Ø±Ø§ÙĨØ¯":11655,"ĠÙħØ«Ø¨ØªÛĮ":11656,"ĠØ¯Ø±Ø¨Ø±Ú¯ÛĮØ±ÙĨØ¯Ùĩ":11657,"ĠÙ¾Ø§ÙĪØ±":11658,"Ø§Ø¨Ø§":11659,"ĠØ§ÙĨØªØµØ§Ø¨":11660,"Ø³ØªÙĪ":11661,"ĠÙĩÙħÛĮÙĦØªÙĪÙĨ":11662,"Ø¢ÙĨÛĮ":11663,"ĠØ³Ø±Ø´":11664,"ÙĪÙħØ±ÛĮ":11665,"ĠØ§ÙĨØ²":11666,"ĠÙħØ±ÙħØ±":11667,"ĠØ§ÙģÙĤ":11668,"ĠØ±ÙĪÛĮØ§Ø±":11669,"ĠØ¹Ø¶ÙĦÙĩ":11670,"Ar":11671,"ÚĨØ§ÙĦÙĩ":11672,"ĠØªØ±ÙħÛĮÙĨ":11673,"ĠØ´Ø§ÙħÙĦÙĪ":11674,"ÙĤØ±Ø§Ø·":11675,"ĠÛ±Û³Û²Û¹":11676,"ĠÙħØªØ£Ø«Ø±":11677,"ĠØ§ÛĮÙĩ":11678,"ĠÛ²Û±Û°":11679,"ĠÚ©Ø§Ø±Ø§Ø¦ÛĮ":11680,"ÙĨØ¬Ø±":11681,"ĠØºÛĮØ±Ø¹":11682,"ĠØªÚ©Ø§ÙħÙĦÛĮ":11683,"ÙħÛĮØ±Ø²Ø§":11684,"ĠØ¹Ø±ÙĪÙĤ":11685,"ÙħØ±Ø¯Ø§ÙĨ":11686,"ĠÙħØ¹Ø§ÙħÙĦØ§Øª":11687,"Ø¯Ø±Ø¨":11688,"ĠØ²Ø¦ÙĪØ³":11689,"ÙħÛĮØ³":11690,"Ø¯ÛĮÙĪÛĮØ¯":11691,"ĠÙħØ¬ØªØ¨ÛĮ":11692,"ĠØ¨ÙĨØ§ÛĮÛĮ":11693,"ĠÙ¾ÛĮÙĪÙĨØ¯ÙĩØ§ÛĮ":11694,"Ú©Ø³Ø§ÙĨØ¯Ø±":11695,"ĠØ§Ø¬Ø±Ø§ÙĩØ§ÛĮ":11696,"ĠÛ±Û¹Û°Û³":11697,"ĠØ¯ÛĮØ±ÛĮÙĨÙĩ":11698,"ĠÙħØ·Ø¨ÙĪØ¹Ø§ØªÛĮ":11699,"ÙĪØ§Ø³ØªÙĩ":11700,"ÙĩÙħØ§ÙĨ":11701,"ÙĪÙĦÛĮÙĨÛĮ":11702,"ĠØ³ÛĮÙĦÙĪØ§":11703,"ĠÛ±Û³Û³Û¹":11704,"ĠØ³Ø§":11705,"ĠØ²ÙĪ":11706,"ĠØ³Ø§Ø¨ÙĤØ§":11707,"Ø¢ÙħÙĪØ²Ø§ÙĨ":11708,"ĠÙħØ§Ø¨":11709,"ĠØ¢Ø³ØªØ§Ø±Ø§":11710,"ĠÙĦØ²ÙĪÙħØ§":11711,"ĠÚ©Ø´ÙħÚ©Ø´":11712,"SP":11713,"ÙħÛĮØ²":11714,"ĠØ±Ø¢Ú©ØªÙĪØ±":11715,"ĠØ§ÙĨØ´Ø¹":11716,"Ø±ÙĪÙ¾":11717,"ĠÙĨÙĪØ§Ø¯Ø§":11718,"ĠÙħÙĦØ§ÛĮÙħ":11719,"enn":11720,"ĠÛ¸Û¸Û":11721,"ĠØ´ÙģØ§ÙģÛĮØª":11722,"ĠÙģÛĮØ´Ø±":11723,"ÙĪÙĨÛĮØ§ÙĨ":11724,"Ø§Ø¦Ø±":11725,"ĠØªØ£Ø«ÛĮØ±ÛĮ":11726,"Ø´Ø±ÙĤÛĮ":11727,"ĠÙģØ±ÙĪØ´ÙĨØ¯Ùĩ":11728,"ĠÅ":11729,"Ø§Ø±Ø¬":11730,"ĠØ¨Ø±Ú©ÙĦÛĮ":11731,"ĠØ§ÙĦØª":11732,"ĠÛ±Û¹Û°Û±":11733,"ĠÚ¯Ø±Ø§ÙĨØ´ÛĮ":11734,"ĠØ§Ø³ØªØ¹ÙģØ§ÛĮ":11735,"Ø³Ø§Ø±Ø§ÙĨ":11736,"ÙĪØ±ÛĮÚ©":11737,"Ø§Ø³ÛĮØ§":11738,"ĠØ§Ø´ÛĮØ§":11739,"ĠØ´Ø±Ø·ÛĮ":11740,"ĠÙĪØŃÛĮØ¯":11741,"Ø¢ÙħØ¯ÙĨØ¯":11742,"ĠÚ©Ø§ÙģÙĩ":11743,"ĠÙħØªØ¹ÙĩØ¯":11744,"ĠØªÙĨØ¨":11745,"ĠØ±Ø³Ø§ÙĨØ¯ÙĨØ¯":11746,"ĠØ¯ÙĪÙĨØ¯Ùĩ":11747,"ĠØ¢ÙĩØ³ØªÙĩ":11748,"ĠØ§Ø³ÙĦÙĪÙĪÙĨÛĮ":11749,"ĠØ¨Ø¨ÛĮÙĨØ¯":11750,"ĠØªØ¨Ø®ÛĮØ±":11751,"ĠØ³ÙĪØ§Ø¨ÙĤ":11752,"ĠØ¢ÙħØ³Øª":11753,"ĠÚ©Ø§Ø±ÙĪÙĨ":11754,"ÙĪÙ¾ØªØ±":11755,"CO":11756,"ĠÚ©ÙħØ¯ÛĮÙĨ":11757,"ĠÙ¾ÙĨØª":11758,"ĠÚĺÙĪØ²Ùģ":11759,"ĠØ®Ø§Ú©Ø³ØªØ±":11760,"ĠÙĤØ²ÙĪÛĮÙĨÛĮ":11761,"ĠØ¯Ú¯Ø±Ú¯ÙĪÙĨ":11762,"Ø¢Ø®Ø±ÛĮÙĨ":11763,"ĠØ³ÙĪØª":11764,"Ø§ÙĦÚ©ØªØ±":11765,"ĠÙģÙĪØ±Ø§ÙĨ":11766,"ĠÚĨØªØ±":11767,"ĠÙħØ¯Ø§Ø±ÛĮ":11768,"ØªØ´Ø§ÙĨ":11769,"ĠØ§ÙĤÙĦÛĮÙħÛĮ":11770,"ĠÙħØµØ§Ø¯Ùģ":11771,"ÙĨØ´Ø§Ùĩ":11772,"Ø¨Ø®Øª":11773,"ĠØ¨ÙĩØ§Ø¡":11774,"ĠØ¹ÛĮÙĦ":11775,"ĠØ§ÙĪØ³ØªØ§ÛĮÛĮ":11776,"ĠÛĮÙĨ":11777,"ĠØ³Ø§ÙĪÙĩ":11778,"ÙĪØ¯Ø¨ÙĦÛĮ":11779,"ÛĮØ§Ú¯ÙĪ":11780,"ĠØ§ÙĦØµ":11781,"ĠÙĨØ§Ø±Ø§ØŃØªÛĮ":11782,"ĠØ³ÛĮØ±Ø¬Ø§ÙĨ":11783,"ĠØ§Ø¨Ø±Ø§ÙĩÛĮÙħÛĮ":11784,"ĠØµÙĪÙģ":11785,"ĠØ¯ÛĮÙĪØ§Ø±ÛĮ":11786,"ĠÛĮÙĪØ²":11787,"Ø¯Ø§Ø±Ø§ÛĮ":11788,"ĠÙħÙĦÙĪØ§ÙĨ":11789,"ÙĪÙģÙĨ":11790,"Ù¾Ø±ÙĪØ±ÛĮ":11791,"ĠØ¢Ú¯ÙĩÛĮ":11792,"ĠÙĨØ¨Ø±Ø¯ÙĩØ§ÛĮ":11793,"ÙĨÙģ":11794,"ĠØªØ§Ø®Øª":11795,"Ø±Ú©Ùĩ":11796,"out":11797,"yst":11798,"ĠÚ¯Ø§Øª":11799,"ĠØ¶ÙĦ":11800,"ĠÙ¾Ø±ÙĪØªÙĪÙĨ":11801,"ĠÙħØ³ØªØ·ÛĮÙĦ":11802,"ĠØ´ÛĮØ±ÙĪØ§ÙĨ":11803,"ĠÙħØ°Ø§Ø¨":11804,"ase":11805,"ĠØ¯ÙĪØ³ØªØ´":11806,"ĠÙĦÙĪÙ¾Ø²":11807,"sc":11808,"ĠØ§ØµØ§Ø¨Øª":11809,"ĠÙĩÙĦØ§ÙĦ":11810,"ĠÙĪØ§Ø±Ø«":11811,"iew":11812,"ĠØ³ÙĩØ±Ø§Ø¨":11813,"ĠØ¬ÙģØ±":11814,"ĠÙģÙĪØªØ¨":11815,"ĠÙħØ§ÙĦØª":11816,"ĠÚĨØ§ÙĨ":11817,"ĠØ§ÙĤÙħØ§Ø±ÛĮ":11818,"Ø±ÙĪØ¯Ø§ÙĨ":11819,"ford":11820,"ĠÙĤÛĮÙħØªÛĮ":11821,"Ø¯ÙĪÙĦØª":11822,"ĠØ¢ÙģØ±ÛĮÙĨÛĮ":11823,"ÙĦÛĮÙĪÙĨ":11824,"Ø²ÛĮÙĦÛĮ":11825,"Ø¨Ø±Ø¬":11826,"ata":11827,"ĠØ§Ø±Ø²Ø´ÛĮ":11828,"ĠØ¨Ø±Ú©ÙĨØ§Ø±ÛĮ":11829,"ĠÛ±Û³Û´Û´":11830,"ĠØ±Ø¯ÛĮØ§Ø¨ÛĮ":11831,"ĠØºÙĦØ§ÙħØ±Ø¶Ø§":11832,"ĠØ¨Ø¯ÛĮØ¹":11833,"87":11834,"li":11835,"ĠØ±ÙĪØ¯Ø±ÛĮ":11836,"Ø®ÙĪØ§ÙĨÙĨØ¯Ùĩ":11837,"ĠWest":11838,"ĠØ±ÙĪØ´ÙĨÙģÚ©Ø±Ø§ÙĨ":11839,"ĠØ±ÙĨØ¯":11840,"ÙĨÚ¯Ø§Ùħ":11841,"ĠÙħØŃØªØ±":11842,"Ø¸Ùģ":11843,"ĠØ§ÙĨØ¬ÛĮØ±":11844,"ĠÚ©Ù¾Ø³ÙĪÙĦ":11845,"BC":11846,"ĠØ¨Ø±Ú©Ùĩ":11847,"ĠÙĤÙĨØ¯Ùĩ":11848,"ĠØ§ÙĪØ²":11849,"ĠÙħØ±Ø³Ø¯":11850,"ĠØ§ØŃØ¶Ø§Ø±":11851,"Ø´Ø®Øµ":11852,"ĠØ²Ø¨":11853,"ĠÙĦØ§Ø¬":11854,"Ø§ÙĪØ§Ø³":11855,"ĠØ°Ø±Øª":11856,"ĠÚ©ÛĮØ§ÙĨ":11857,"ĠNorth":11858,"ĠÙĨÙĪØ´ØªØ§Ø±":11859,"IT":11860,"ĠØ¨ÙĪÚ©Ø³":11861,"ĠÙħØ§ÛĮÙĨ":11862,"ĠÙĪØ³ØªØ±ÙĨ":11863,"ĠÙħØ®ØªØµØ±":11864,"ĠØªØµÙħÛĮÙħØ§Øª":11865,"ĠØºÛĮØ±Ø¯ÙĪÙĦØªÛĮ":11866,"ĠØ¯ÙĦÛĮÙĦÛĮ":11867,"illa":11868,"ĠØ®ÙĪÙĨÛĮÙĨ":11869,"ĠÙ¡Ù":11870,"Ø®ÙĪØ±Ø¯Ùĩ":11871,"ĠØªÙĨØ§Ø³ÙĦÛĮ":11872,"Ø±ÙĪØ³ØªØ§":11873,"ĠØ§ÙĦÙħÙĦ":11874,"ĠØ§Ø·Ø§Ø¹Øª":11875,"ĠÙ¾Ø±ÙĪØ³Øª":11876,"ĠÙħØ§ÙĩÙĨØ§ÙħÙĩ":11877,"ĠØ§ÙģØªØ§Ø¯ÙĨ":11878,"ĠÙħÛĮÚ©Ø±ÙĪØ³Ú©ÙĪÙ¾":11879,"ĠØªØ§Ø¨ÙĦÙĪ":11880,"ÖĢ":11881,"ÙĤÙĪØª":11882,"ĠØ´Ø§ÙģØ¹ÛĮ":11883,"Ø§ÙĦÛĮÙħ":11884,"ĠØ¨Ø§Ø²Ø¬ÙĪÛĮÛĮ":11885,"ĠÚĺØ¦":11886,"Ú©Ø±Ø¯ÙĩØ§ÛĮ":11887,"ĠØ±Ø®Ø¯Ø§Ø¯":11888,"ĠÙħÛĮØ§ÙħÛĮ":11889,"Ø§Ø²ÙĨØ¯":11890,"ĠØ¢ÙħØ§Ø²ÙĪÙĨ":11891,"ĠÙħØ±Ø§Ø³ÙħÛĮ":11892,"Ú¯Ø±Ø¯Ø§ÙĨØ¯ÙĨ":11893,"ĠØ§ÛĮØ±Ø§Ø¯":11894,"ĠÙĨÙĪØ´ØªØ§Ø±ÛĮ":11895,"ĠÙĩØ§ÙħØ¨ÙĪØ±Ú¯":11896,"ĠØ¢ØªÛĮ":11897,"ÙĦÛĮÚ¯":11898,"ĠÙĦÙĪÚ©Ø³":11899,"ĠÛµÛ°Û°Û°":11900,"ĠØ§Ú©Øª":11901,"ĠÙħØ«ÙĨÙĪÛĮ":11902,"ari":11903,"ĠÙħØºÙĪÙĦØ³ØªØ§ÙĨ":11904,"ĠÛĮÙĩÙĪØ¯ÛĮØª":11905,"son":11906,"Ø³ÙħØª":11907,"ĠÙĩØ§Ú¯":11908,"ĠÚ©Ø§Ø±Ú¯Ø²Ø§Ø±":11909,"ĠØ§ÙħÛĮØ±Ú©Ø¨ÛĮØ±":11910,"ĠØ¨ÙĪØ³ØªØ§ÙĨ":11911,"ĠØªÙħØ¯ÛĮØ¯":11912,"ĠÙ¾Ø³ØªÛĮ":11913,"ĠÙħØŃØ±Ø§Ø¨":11914,"ĠØ§Ø¨ÙĩØ§Ùħ":11915,"ĠØ³Ø¨Ú©ÛĮ":11916,"ĠÛ±Û·Û°":11917,"ĠÛĮÙĪÙĨÛĮÚ©Ø³":11918,"âĢįâĢį":11919,"ĠÛ±Û³Û²Û´":11920,"ĠØ®Ø±ÙħØ´ÙĩØ±":11921,"ĠÛĮÙĪØªÛĮÙĪØ¨":11922,"ĠØªØŃÙĤÛĮØ±":11923,"ĠØ§ÙĨØªØ²Ø§Ø¹ÛĮ":11924,"ĠÚ©Ø§Ø¬":11925,"ĠÙ¾ÙĪØ²":11926,"Ø·Ø§ÙĦ":11927,"ĠØ§ÛĮØ±Ø§ÙĨØ´ÙĩØ±":11928,"ĠÙĨÙĪÚ©ÛĮØ§":11929,"ĠÙĤÙĦÙħØ±ÙĪÛĮ":11930,"ĠØ§ÙĪØ¯Ø§":11931,"ØºÙĨÛĮ":11932,"ĠØ§Ø³ÛĮØ¯ÛĮ":11933,"ĠØ¨ÛĮØ¬Ø§Ø±":11934,"ĠÚ©ÙĪÙģÛĮ":11935,"ĠØ±ÛĮØ²Ø´":11936,"ĠÚĨÛĮØ³Øª":11937,"ÙĨÙģØ±Ùĩ":11938,"ĠÙ¾ÙĨÙĩØ§ÙĨÛĮ":11939,"ĠÚ©ÙĦÛĮÙĨØªÙĪÙĨ":11940,"ĠØ·ØºØ±ÙĦ":11941,"ĠØ³ÛĮØ§Ø±":11942,"Ø®ÙĪØ§Ø¨":11943,"Ú©Ø¯":11944,"ĠØ³Ø§ÛĮØ²":11945,"ĠÙĩØ±Ø§Ú©":11946,"ĠØ§ÙĨØªØ§Ø±ÛĮÙĪ":11947,"ĠÙĩÛĮÚĨÚ¯ÙĪÙĨÙĩ":11948,"ĠØ¹Ø¯Ø³ÛĮ":11949,"ĠØ§Ù¾ÛĮØ²":11950,"ĠØªÙĪÛĮÙĪØªØ§":11951,"ÙħÙĪØ³ÛĮÙĤÛĮ":11952,".(":11953,"ÙĪØ³ÛĮØ§ÙĨ":11954,"ĠVal":11955,"oph":11956,"Û±Û¸Û´":11957,"ĠØ§ØªÙĪÙħØ§ØªÛĮÚ©":11958,"Ø¬Ø±Ø¯":11959,"ĠÙħØ¹Ø¬":11960,"ĠØ§ÙĦÚ©ÙĦÛĮ":11961,"ĠØªØ±ØºÛĮØ¨":11962,"Ø§Ú¯Ø§Ø³Ú©Ø§Ø±":11963,"ĠÙģØ´Ø§Ø±ÙĩØ§ÛĮ":11964,"ĠÙĩÙĦÙĨ":11965,"ĠÙģØ±Ø§Ø®ÙĪØ§ÙĨÛĮ":11966,"ĠÙĦÙĨÙģ":11967,"pt":11968,"ĠÙĤØŃ":11969,"Ø§Ø±ÛĮÙģ":11970,"ĠÙĩÙģØªÚ¯ÛĮ":11971,"ĠØ§ØªØµØ§ÙĦØ§Øª":11972,"ĠÚ¯ÙħØ´Ø¯Ùĩ":11973,"ĠÙĨØ§ÙħØ´Ø®Øµ":11974,"ield":11975,"Ø§Ø±Ø²Ø´":11976,"ĠÛĮØ§Ø¯Ø¢ÙĪØ±ÛĮ":11977,"EE":11978,"ĠâĢĮ":11979,"ĠØ³ÙģØª":11980,"ÚĨÛĮØ²":11981,"ĠÙħØ¹ÙĦÙĤ":11982,"ĠØ§Ø³Ù¾Ø§Ø±Øª":11983,"ĠØ³ÛĮÙħÛĮÙĨ":11984,"ÙĪÙĨÚ¯Ø§":11985,"ĠÙħØ±ÙĪØ§Ø±ÛĮØ¯":11986,"ĠØ¹ÙĨÚ©Ø¨ÙĪØªÛĮ":11987,"ĠØ®Ø¯Ø§ØŃØ§ÙģØ¸ÛĮ":11988,"ĠØ¬ÙĩØ§ÙĨÚ¯ÛĮØ±":11989,"Ġ16":11990,"ĠÛ±Û³Û²Ûµ":11991,"ĠØ¨ÙħØ§ÙĨÙĨØ¯":11992,"ĠÙĨÛĮÙĪØªÙĨ":11993,"ĠØªÙĦÙģÛĮÙĤ":11994,"ark":11995,"ĠØªÛĮØªØ§ÙĨÛĮÙĪÙħ":11996,"\"\"":11997,"Ø³ØªØ§Ø±Ùĩ":11998,"ĠÙĤØ¨Ø§ÙĦ":11999,"ĠØ´ÙĨÛĮØ¯":12000,"ĠØ¨Ø±ÙĪØ¬Ø±Ø¯ÛĮ":12001,"ĠÙħÙħÙĦÚ©Øª":12002,"ÙħÙĪØ´":12003,"ĠØ§ÛĮØ¬":12004,"Ø§Ú©ÛĮÙĩ":12005,"ĠØºØ¨Ø§Ø±":12006,"ĠÙ¾Ø±ØªØ±Ùĩ":12007,"ĠØ§ØµÙĪÙĦØ§":12008,"ĠØªØ±Ø§":12009,"ØŃÙħÛĮØ¯":12010,"ÙĪÙħØ§Øª":12011,"ĠÚ©Ø±Ø§ÛĮ":12012,"ĠØºØ¯Ùĩ":12013,"Ø¯Ø§ÙĨØ´":12014,"ĠÙħØ·ÙĦ":12015,"ome":12016,"ĠÛ±Û³Û³Û¸":12017,"ĠØ®Ø±ÙħØ§":12018,"ĠØ³ÙĪØ³Ú©":12019,"ĠØ¯Ø±Ú¯Ø±ÙģØª":12020,"ĠØ±ÛĮÚ¯Ø§ÙĨ":12021,"ĠØªÙĤØ±ÛĮØ¨":12022,"ĠØºÛĮØ±ÙģØ¹Ø§ÙĦ":12023,"ĠÙĪÙĦØª":12024,"ĠÚ©ÙĪØ¦ÛĮÙĨØ²":12025,"Ú©ÙĪÙģ":12026,"Ø³ÛĮÙĨÛĮ":12027,"ĠØªØ·Ø§Ø¨ÙĤ":12028,"Ø¬Ø§Ø±ÛĮ":12029,"ĠØ¨Ø§Ø±Ú¯Ø°Ø§Ø±ÛĮ":12030,"ĠØ§ØŃØ³":12031,"Ø³Ø§ÙĨÙĨØ¯":12032,"ĠÙĪØ±Ø´Ú©":12033,"ĠØ¹Ø¨Ø¯Ø§ÙĦÚ©Ø±ÛĮÙħ":12034,
[...]
