#version: 0.2 - Trained by `huggingface/tokenizers`
Ø §
Ġ Ø
Û Į
Ø ±
Ù Ĩ
Ù Ī
Ù ĩ
Ù ħ
Ø ¯
Ø ª
Ø§ Ø
Ù Ħ
Ú ©
ĠØ ¨
Ġ Ùħ
Ø§ ÙĨ
ĠØ ¯
Ø§ ÛĮ
Ø ³
â Ģ
âĢ Į
Ġ Ø§Ø
Ġ ÙĪ
Ø§ Ø±
Ġ Ú©
Ø ´
Ù ģ
Ú ¯
ĠØ¯ Ø±
Ø ¨
Ù Ĥ
ĠØ ³
ĠØ ´
ĠØ ª
Ġ ÙĨ
ĠØ ±
Ø ²
Ø§ ÙĦ
³ Øª
Ø Į
Ù ¾
Ø¯ Ùĩ
ĠØ¨ Ùĩ
Ø ¹
ĠØ ¢
ĠØ§Ø ²
ÙĨ Ø¯
Ø§ Ùħ
ÙĪ Ø±
Ġ Û
Ġ Ø§ÛĮ
ĠÙħ ÛĮ
Ø³ Øª
ÙĪ Ø¯
ÛĮ ÙĨ
ĠØ§Ø ³Øª
Ġ Ùĩ
Ġ Ù¾
Ø ¬
ĠÚ© Ùĩ
ÛĮ Ú©
Ø ®
Ø§ Ø¯
ĠØ ¬
Ġ Ùģ
ĠØ¨ Ø±
Ùĩ Ø§ÛĮ
Ġ Ø§
ĠØ ®
ÙĦ ÛĮ
± Û
ĠØ§ÛĮ ÙĨ
Ø Ń
Ø§ Ùĩ
Ø± Ø¯
Ġ Ú¯
ÙĪ ÙĨ
Ú Ĩ
Ø± ÛĮ
Ø§ Øª
ĠØ ¹
Ø ·
Ø§Ø ¨
Ø§Ø ²
ĠØ± Ø§
Ġ ÙĤ
ÛĮ Ø±
ĠØ ²
ĠÛ ±Û
ÙĪ ÛĮ
Ġ ÛĮÚ©
Ġ (
ĠØ Ń
Û °
ĠØ¨ Ø§
Ø§Ø ³Øª
Ø³ ÛĮ
Ø§Ø ´
ĠØ¢ ÙĨ
Ø§Ø ³
Ø µ
Øª Ø±
ÙĪ ÙĦ
Ø§ÙĨ ÛĮ
Ùĩ Ø§
Ø§Ø± ÛĮ
ĠØ³ Ø§ÙĦ
ÛĮ ÙĦ
Øª Ùĩ
ÙĪ Ø§ÙĨ
ÛĮ Øª
Ø± Ø§ÙĨ
ĠØ´ Ø¯Ùĩ
ÙĪ Ùħ
ÛĮ Ø§
ĠÙĩ Ùħ
Ġ Ø§ÙĨ
Ù Ķ
Ø§Ø± Ø¯
ÛĮ Ø¯
Ùĩ Ø±
ĠØ´ Ø¯
Ġ ÚĨ
Ø± ÙĪ
ĠØ± ÙĪ
ÛĮ Ùħ
ĠØ¨ ÙĪØ¯
¹ Û
Ø³Øª Ø§ÙĨ
ĠØ§ ÙĪ
Øª ÛĮ
Ø§ Ø¯Ùĩ
Ø§ÛĮ ÛĮ
ĠÛ ²
Ùħ Ø§ÙĨ
Ø§ ÙĤ
Ùģ Øª
Ø± Ú©
ĠÙħ ÙĨ
Ú ĺ
Ġ Ċ
ĠØª ÙĪ
ÙĨ Ú¯
ĠØ¨Ø± Ø§ÛĮ
ĠÚ© Ø±Ø¯
³ Û
ĠØ ·
Ø ¶
Ø§Ø ®
Ġ ÙĦ
ĠØ µ
Ú¯ Ø§Ùĩ
Ùģ Ø±
ĠØ´ ÙĩØ±
ÛĮ Ø´
Ø º
Ø °
ĠÙħ ÙĪ
Ú¯ Ø±
Ø± Ø¨
ÛĮ Ø²
ĠØ¢ Ùħ
Ġ Ø§Ùħ
ĠÙģ Ø±
ĠØ¯ Ø§Ø±Ø¯
Ú¯ ÛĮ
Ø§ Ú©
ĠÚ© Ø´
ĠÙħ ØŃ
ĠØ¨ Ø§Ø²
ĠØ§Ø ³
Ø ¢
ĠØ¬ Ùħ
ĠØ® ÙĪØ¯
Ġ ÛĮØ§
ĠÙħ Øª
Ùħ ÛĮ
Ø «
ĠÙħ Ø³
ĠØ³ Ø±
Ø ¸
ĠÚ© Ø§Ø±
Ø ¦
Û° Û
Ø§Ø¯ ÛĮ
ĠÙĤ Ø±
ÙĦ Ùĩ
ĠÛ±Û ¹Û
Ø§Ø Ń
Ġ Ø§Ø±
ĠØ§ÛĮ Ø±Ø§ÙĨ
Ø§Ø± Ùĩ
Ø§ÙĨ Ø¯
Ø´ ÙĪØ¯
ĠÙħ Ø¹
Ø¨ ÛĮ
ĠÙĨ Ø§Ùħ
ÙĨ ÛĮ
Ø§Ø ¹
ÙĪ Øª
ĠØ¯ ÛĮ
Ø§ÙĤ Ø¹
¸ Û
Ø² ÛĮ
ĠÙĪ Ø§ÙĤØ¹
ĠØ¯ ÙĪ
Ġ Â
Ø§ÙĨ Ùĩ
ĠÙĪ ÛĮ
Ġ Ø§ÙĦ
Ġ ÛĮ
Ø§ Ùģ
Ø¨ Ø±
Â »
ĠØª Ø§
Ø¨ Ùĩ
ĠÂ «
ĠØ³ ÛĮ
Ú© ÙĨ
Ø¯ Ø±
ÙĤ ÛĮ
ĠÚ¯ Ø±
ÙĪØ± ÛĮ
ÙĪØ± Ø¯
ÙĪ Ø´
Ø§ÙĦ ÛĮ
Ø¯ ÛĮ
ÙĨ Ø¯Ùĩ
ĠÚ© Ø±
ĠÙĤØ± Ø§Ø±
Ø¹ ÛĮØª
Ø§Ø´ Ø¯
ÙĪ Ø¯Ùĩ
Ùħ ÛĮÙĨ
Ø® Ø´
ĠØ¯ Ø§Ø´
ĠÛ±Û ³Û
ĠØ º
ÙĪ Ø²
ĠÙĨ ÙģØ±
ĠØ±ÙĪ Ø³Øª
ĠØ¯ Ùĩ
ĠÙĨ ÛĮØ²
ÙĤ Ùĩ
Ø¹ Ùĩ
ĠÙħ Ø¬
ĠÙĨ Ùħ
Ġ "
ĠÙ¾ Ø³
ÙĨ ÙĪØ§ÙĨ
ĠØ¯ Ø³Øª
ĠÙħ Ø´
ÙĪÙĨ ÛĮ
Ø± ÛĮÚ©
Ø§Ùħ Ùĩ
Øª ÙĪØ§ÙĨ
Û ²
ĠÙħ Ø±
ÙĪ Ø³
ĠØ¬Ùħ Ø¹ÛĮØª
ĠÙģ ÛĮÙĦ
Ùģ ØªÙĩ
ĠØ¯ Ø§Ø±
Ø´ Ùħ
ÙĪ Ø¨
ĠÚ© ÙĨ
Ø§Ø ¬
ÛĮ Ùĩ
ÙĪ Ùĩ
ĠØ¨ ÙĪØ¯Ùĩ
Û µ
ĠØ§Ø ´
ĠØ¨ Ø®Ø´
ĠÙħ Ø¯
ĠØ¯ ÙĪØ±
Ø´ Øª
ĠØ¯ Ø§ÙĨ
Ù ĭ
ĠØ¢Ùħ Ø±ÛĮÚ©
Ø§ÙĦ Ø§Øª
ĠÙħ ÙĤ
ĠÛĮÚ© ÛĮ
Û ±Û
Ø² Ø§Ø±
Ø Ľ
ĠØ¨Ø§Ø² ÛĮ
ĠØªÙĪ Ø³
Ø´ Ú©
ĠÙĨ ÙĤ
Ú© ÙĨØ¯
ĠØ³ Ø§Ø®
ĠØ´ÙĩØ± Ø³ØªØ§ÙĨ
ĠÚ©Ø´ ÙĪØ±
ÙĨ ÛĮÙĨ
ĠÙħ Ø±Ú©
ĠØ¹ ÙĨÙĪØ§ÙĨ
Ùħ Ø¯
Ø§Ø ·
Ø¬ Ùĩ
ĠÙĩ Ø±
ĠØ¢ ÙĦ
Ø¹ Ø¯
Ø§ Ù¾
Ú© Ùĩ
Û ´
Ø¨ Ø§ÙĦ
ĠÙĨ Ø¸
ØªØ± ÛĮÙĨ
Ø® Øª
ĠÙģÛĮÙĦ Ùħ
ĠØ¨ ÛĮ
Ø± Ùģ
Ø´ ÙĨ
ĠÙĨ ÙĪ
Ø§Ùħ ÛĮ
ĠØ´ Ùħ
Ùģ Ø§Ø¯Ùĩ
ÙĪ ÙĨØ¯
ĠØ¹ ÙĦ
ĠØ§ Ùĩ
Ġ Úĺ
ĠØ¹ Ùħ
ĠØ§Ø³Øª ÙģØ§Ø¯Ùĩ
ĠØ§Ø ¹
Øª Ø´
Ø§Ø ¦
ĠØ§Ø³Øª Ø§ÙĨ
ĠÙĩÙħ ÚĨ
Û ·
Û ¶
Ø¨ Øª
Ø¨ Ø§ÙĨ
Ø§Ø³ ÛĮ
ĠÚ©Ø± Ø¯Ùĩ
ÙĪØ± Øª
ĠÙ¾ Ø±
Ø§Ø µ
ĠØ§Ø µ
Ø¬ ÙĪØ¯
ÙĪ Ø§Ø±
ÙĨ Ø§ÙħÙĩ
ĠÙ¾ ÛĮØ´
ĠØ¬ Ùĩ
Û° Û°
ĠÙħ Ùĩ
Ø² Ø±
ĠÚ© Ùħ
ÙĩØ§ÛĮ ÛĮ
Ø§Ø±ÛĮ Ø®
Ø £
ĠØ§Ø ¨
ĠÙħÛĮ ÙĦ
Ø§ÛĮ Ø´
ĠØª ØŃ
ĠØªÙĪØ³ Ø·
ĠÙ¾ Ø§ÛĮ
ĠØ¢ÙħØ±ÛĮÚ© Ø§
ĠØ¬ ÙĨ
ÙĪ Ú©
Ø§Ùħ ÙĦ
ĠØ¨ ÛĮÙĨ
Ú¯ Ø§ÙĨ
ĠØ¯ Ø§Ø¯
ĠØ¨ ÛĮØ´
ĠØª Ø§Ø±ÛĮØ®
ĠØª Ø±
Ø±Ú© Øª
ĠÛ² Û°Û
ĠÙĩ Ø³Øª
ĠÙħÙĨ Ø·
ĠÙĨ ÛĮ
ĠØ¯ÛĮ Ú¯Ø±
Ø§Ø² ÛĮ
ĠØ² ÛĮØ±
Ø¹ ÛĮ
Ù Ĳ
Ú© ÙĦ
Ø¨ Ø§Ø´Ø¯
Ø§Ø± Ú©
Ø³ Ùĩ
ĠØ§ ÙĪÙĦ
Ú¯ Ø±Ø¯
Ġ Ø§Ø¯
ĠÚ© ÙĦ
ĠÙħÙĨØ· ÙĤÙĩ
ĠØ§ÙĨ Ú¯
Ùħ ÙĨ
ĠØ¯Ø§Ø´ Øª
ĠÛ²Û°Û ±Û
ĠØ¨ ÙĨ
Øª Ø§Ø¨
ĠÙĨ Ø´
ÙĨ Ø¬
ĠÙħØª ØŃ
ÙĪÙĨ Ùĩ
ĠØ§Ø ¬
ĠØ¯Ø§ÙĨ Ø´
ĠØ¨ Ø³ÛĮ
ĠØ§ÙĨ Øª
ĠØ§ Ùģ
ĠÙģ ÙĪØª
ĠÙħ ÙĦÛĮ
Ø± Ùĩ
ĠÙħ Ø±Ø¯
ĠØ² ÛĮ
Ùħ Øª
ĠÙ¾ ÛĮ
ĠØ¨ Ø²Ø±
ĠÛ² Û°
Ùħ Ø§ÙĨÛĮ
ĠØª ÙĨ
ĠØ±ÙĪØ³Øª Ø§
ĠØ± ÙĪÛĮ
ĠÙĩÙħÚĨ ÙĨÛĮÙĨ
ĠØ§Ùħ Ø§
Ø§Ø± Øª
ĠØ¨ Ø¯
ĠØ «
Ú¯ Ø°
Ù «
ĠØ¨ ÙĦ
ĠØ® ÙĪ
Ø§ ÙĪ
ĠØ´ Ø±
ĠØ§Ùĩ ÙĦ
ĠÙħÛĮÙĦ Ø§Ø¯ÛĮ
ĠØ´ Ø±Ú©Øª
Ù ¬
ĠÙĪ Ø¬ÙĪØ¯
Ø´ ÛĮ
ÙĪ Ø¦
ĠÙģÙĪØª Ø¨Ø§ÙĦ
Ø® Øµ
ĠØ±ÙĪ Ø²
ĠØ§ Øª
ĠÛ ´
ĠØµ ÙĪØ±Øª
ĠÙħ ÙĪØ±Ø¯
Ø´ Ø¯
ĠØ¢ Ø¨
ĠØ¯Ø§Ø´ ØªÙĩ
Ùħ ÙĪ
ĠØ¨ Ø§Ø´Ø¯
Ø§Ø¨ Ø±
Û ³
ĠØ¯Ø± ÛĮØ§
ĠÙĩ ÙĨ
Ø§ÙĦ Øª
ĠØ§ÛĮ Ø§ÙĦØ§Øª
ĠÙħØªØŃ Ø¯Ùĩ
ĠØ§ÙĨ Ø¬
Ø§Ùĩ ÛĮ
ĠÙĩØ³Øª ÙĨØ¯
Ø² Ùĩ
ĠØ¨ Ø§Ø±
ĠÚ© ÛĮÙĦ
ĠØª Ùĩ
Û ¸
ĠÚ¯ Ø±ÙĪ
ĠÚ© ØªØ§Ø¨
ĠÚĨ Ùĩ
ĠØ® Ø§ÙĨ
ÙĪ Ù¾
ÛĮÙĨ ÛĮ
Û ±
ĠØ³Ø§Ø® Øª
ĠÛ µ
ĠØ³ Ø·
ĠÙħ Ø±Ø¨
ĠØ¨ Ø§Ø´
ĠØª ÙĦ
Ùģ ÛĮ
Ø§ÛĮ Øª
Ø§ÛĮ Ø¯
Ú© ÛĮ
ĠØ³ Ù¾
ĠØª Ø£
Ø¯ Ø§
ĠØ§Ø´ Ø§Ø±Ùĩ
ĠØ¨Ø²Ø± Ú¯
ĠØª ÛĮÙħ
ÙĨ Ùĩ
Ùħ Ùĩ
ĠØ³ ÙĦ
ĠÙħ ØªØ±
ĠÚ¯Ø±ÙĪ Ùĩ
ĠØ³ Ø§Ø²
ĠØ¬ ÙĨÚ¯
ĠØ§Ø Ń
ĠÙħØ±Ú© Ø²
ĠÛ²Û° Û°Û
ĠØ¹ Ø¨
ĠÙģ Ø¹
ĠØ² Ø¨Ø§ÙĨ
Ø² Ø¯
Ùħ ÙĦ
ĠØ³Ø· ØŃ
ĠÚĨ ÙĨØ¯
ĠØ³ Ùĩ
o r
ĠØ§Ø ®
ĠØ² ÙħØ§ÙĨ
ĠØª Øµ
ĠØª Ùħ
Ø¯ Ø§Ø±
Ø§Ø¨ Ø¹
Ùĩ ÙĨÚ¯
Û ¹
ĠØ² ÙħÛĮÙĨ
ĠÙĨ Ø³
ĠÙħ Ø§ÙĨ
ÛĮ Ø³
ĠÚ©ÛĮÙĦ ÙĪÙħ
ÚĨ Ùĩ
ĠØ¯ÙĪØ± Ùĩ
ĠÚ© ÙĨØ¯
Ø± Ùħ
ĠØ¬ Ø§ÛĮ
Ú© Ø§ÙĨ
ĠØ´ ÙĨ
ĠØ± Ø³ÛĮ
Ø§ÛĮ ÙĨ
Ø´Ùħ Ø§Ø±ÛĮ
Ú©ÙĨ ÙĨØ¯
ĠÙĩ ÙĪ
Ġ ÙĦÛĮ
ĠØ¨ Ø§ÙĦ
ĠØ¨Ø± Ø®
Ú© Ø±Ø¯
ĠØ§ ÙĤ
Ø¯ Ø§ÙĨ
Ø§Ø¨ ÙĦ
ĠØ¨ Ø¹Ø¯
Ø§Øª ÛĮ
ĠØ§ÙĨÚ¯ ÙĦÛĮ
Ø´ ØªÙĩ
Øª Ùħ
ĠØª Ø±Ú©
ĠÚ¯Ø± ÙģØª
ĠÚ¯ Ø±Ø¯
ĠØ¯ Ø§Ø¯Ùĩ
ÙĤ ÙĦ
Ø± Ø²
ĠØ ¶
Ø± Ø§
Ø³Øª Ùĩ
ÙĪ Ø·
ĠØ§Ø «
ĠØ· ÙĪÙĦ
ÙĨØ¯ Ú¯ÛĮ
Ġ )
ĠÙħ Ø·
ĠØ³Ø± Ø´ÙħØ§Ø±ÛĮ
ÙĦÛĮ Ø¯
ĠØ± Ø³
ĠÙģØ¹ Ø§ÙĦ
ĠØ¯Ø§ÙĨØ´ Ú¯Ø§Ùĩ
ĠØ¯Ùĩ Ø³ØªØ§ÙĨ
Ø± Ø§Øª
ÙĦ Ø§Ùħ
ÙĦ Ø³
ĠÙĨ Ø®
Ùģ Ùĩ
ĠØ§ Ú©
ÙĪÛĮ Ø³
ÙĨØ¯ ÛĮ
ĠØ´ ÙĪØ¯
Ø§Ø ¶
ĠØ§ÙĨ Ø¯
ĠÛ ¶
ĠØ§ÙĨØ¬ Ø§Ùħ
) ØĮ
Øª Ø¨
âĢ ĵ
ĠØŃ Ø¯
ĠÙħ Øµ
ĠØ§ÙĨÚ¯ÙĦÛĮ Ø³ÛĮ
ÛĮÚ© ÛĮ
¸Û µ
Ø¯ ÛĮØ¯
Ú© Ø±
ĠØ¯ ÙĪÙħ
ĠØ´ Ùĩ
Ú¯ÛĮ Ø±ÛĮ
Øª Ø±ÛĮ
Ø±Ø¨ ÛĮ
ĠÙĨÙĤ Ø´
ĠÛ ³
ĠØ¹ ÙĦÛĮ
ĠÙģ Ø±Ø§ÙĨ
ÙĦ Ø§
ĠØ± ÛĮ
Ø¨ Ø±Ø¯
ĠØ¯Ø§Ø± Ø§ÛĮ
ÙĨ Ø§ÙĨ
ĠØª Ø¨
Úĺ Ùĩ
Ú© Ø§Ø±
ĠÚ© ÙĪ
ĠØŃ Ø³
Ø§Ø¯ Ø±
ĠØª ÙĤ
ĠØ§Ø ·
ĠØ± Ø§Ùĩ
ĠØ³ ÙĨ
a n
ĠØ´ Ø§Ùĩ
ĠÙĩ ÛĮ
Ø± Ø§Ùĩ
ÙĦ ÙĪ
ĠØ¢ Ø²
e r
ĠÚ©ÛĮÙĦÙĪÙħ ØªØ±
ĠÛ ³Û
ÙĦÛĮ ÙĦ
ÙĪÙħ ÛĮ
ĠØ¯ ÙĪÙĦ
ĠÙĨØ¸ Ø±
ĠØ² Ø§Ø¯Ùĩ
ĠÚ¯ Ø°
ÙĪØ¯ ÛĮ
ÛĮØ± Ùĩ
Ø³ Ø§ÙĨ
ĠÙħØ¬ ÙħÙĪ
ĠÚĨÙĩ Ø§Ø±
ĠØŃ Ø§ÙĦ
ĠØ§Ø« Ø±
ĠÛ ±
Ġ( ØĽ
ĠÙħÛĮ Ø§ÙĨ
ĠÙħ ÙĦ
i n
ĠÛ ·
ĠØ³Ø§Ø® ØªÙĩ
ĠØ¨ÙĪØ¯ ÙĨØ¯
ĠÙħØ³ Ú©
ĠÙħØ±Ú© Ø²ÛĮ
o n
ÛĮÙħ ÛĮ
Ø¯Ùĩ Ø¯
Ø§ Ú¯
Ø¬ ÛĮ
ĠØ´ ÛĮ
ĠØªÙĪ ÙĦÛĮØ¯
Ø§Ø² Ùĩ
ĠÙĤ Ø¨
ĠÚ¯ ÙĦ
ĠÙĨ ÛĮØ±
ĠØ¨ÛĮØ´ ØªØ±
ĠÚ¯Ø± ÙģØªÙĩ
Ø¢ Ø¨
ĠØ¨Ø§Ø´ Ú¯Ø§Ùĩ
ĠØ¢ Ø±
Ú¯ Ø±ÛĮ
ĠØ¨Ø± ÙĨØ§ÙħÙĩ
ĠØ¢ Ø«
Ø³Øª Ø±
Ø³ Ø±
Ø³Øª Ùħ
Ø§ØŃ Øª
ĠØ§ÛĮ Ø±
Ø´ ÙĪÙĨØ¯
Ø· ÙĪØ±
ĠØ« Ø¨Øª
ÛĮÙĨ Ú¯
ĠØ´ ÙĪØ±
Ø§ ÙĪØ±
ĠÛ±Û °
ĠØª Ø¹
ĠØ® Ø·
Ø® Ø§ÙĨ
ĠÙĨØ® Ø³Øª
ĠÙħ Ø®Øª
Ø® Ø§Ø¨
ĠØ¨Ø³ÛĮ Ø§Ø±
ĠÙ¾ Ø±ÙĪ
ĠÙħ Ø§Ùĩ
ĠÙģØ¹Ø§ÙĦ ÛĮØª
Ø§Ø´ Øª
Ø´ Ø§ÙĨ
ĠØ¨Ø± Ú¯
ĠØª Ø¬
Ġ -
ĠØ· Ø±
ĠØ¢Ø« Ø§Ø±
Ø§ÛĮ ÙĦ
ĠØ´ Ø¨
Øµ Ø¯
ĠØ§Øµ ÙĦÛĮ
ĠÙħØ³Ú© ÙĪÙĨÛĮ
Ø§Ø º
ÙĦ Ùģ
ĠÙĨ ÙĪØ´
ĠØ§ÙĨØª Ø®Ø§Ø¨
ÛĮÙĨ Ùĩ
ĠØŃ Ùħ
ĠØ§ÙĪÙĦ ÛĮÙĨ
ĠÙħØ§ÙĨ ÙĨØ¯
ÙĪ ÙĦÛĮ
ĠÙĨ ÙħÛĮ
Øº ÛĮ
Ø® Ø§ÙĨÙĩ
ÛĮØ´ Ùĩ
ĠÙģ Ø§Ø±
l a
Û ³Û
ĠÙħØ¹ Ùħ
ĠØ±ÙĪØ³Øª Ø§ÛĮÛĮ
Ú© ØªØ±
Ø± Ø³
Ú© Ø³
ØªØ´ Ø±
ĠØ³ Ø¨
ĠÙħØ±Ø¯ Ùħ
ĠÙħ Ø³Øª
ĠØ¢ Øº
ĠØ®ÙĪ Ø§Ùĩ
ĠÙħÙĨ ØªØ´Ø±
ĠØ °
ĠØ¯Ø§Ø± ÙĨØ¯
Ø§Ùħ Ø¨Ø±
ĠØ¬ Ø§Ùħ
Ø§Ú© ÙĨ
Ø§ÛĮ Ø±
ĠÙĤ Ø·
Ø§Ø® Øª
Ù İ
Ø¶ ÙĪ
ĠØªÙĪ Ø§Ø¨Ø¹
ĠØ¢Ùħ Ø§Ø±
ĠÙħØ³ Ø§ØŃØª
ÛĮ Ø¯Ùĩ
Ø§Ø³Øª Ø§ÙĨ
ĠØ´ Ø§ÙħÙĦ
Ø§ÙĨÛĮ Ø§
Ø§Ø³ Ø§Ø³
ØªÙĪØ§ÙĨ Ø¯
Ø¯ ÙĨ
ĠØªÙĩ Ø±Ø§ÙĨ
ĠÙħØŃ ÙħØ¯
ĠØŃ Ú©
ĠÙħ Ø®
Ø§Ø¨ ÙĤ
Ġ C
ÙĪ ÙĤ
ĠÙħ Ø«
ĠØ¬ Ø²
ĠØ¬Ùĩ Ø§ÙĨ
ĠØ¨Ø± Ø§Ø³Ø§Ø³
Ø¨ Ø§Ø±
ĠØ¨Ø±Ø® ÛĮ
ĠØ¨Ø± Ø§Ø¨Ø±
ĠÛ±Û¹Û ¹Û
ĠØ³Ø§Ø² ÙħØ§ÙĨ
ĠØ¬ Ø§ÙĨ
ĠÙĪ ÙĦÛĮ
ĠÙħÙĪ Ø³ÛĮ
ĠØ¨ Ø§ÙĦØ§Øª
ĠØ¢Øº Ø§Ø²
Øª ÙĦ
ĠØ² ÙĨØ¯Ú¯ÛĮ
Ø· Ùĩ
ĠØ¨ ÛĮÙħ
ĠÙħØ¬ÙħÙĪ Ø¹Ùĩ
ĠØ¯ ÙĨ
ĠÛ±Û ²
Ø§Ø® ØªÙĩ
ÙĪÛĮ ÛĮ
ĠÙĨØ´ Ø§ÙĨ
Øª Øµ
ĠÙħ Ùħ
ĠÙĩÙħ Ø±Ø§Ùĩ
ĠØ¨Ø§ÙĦØ§Øª Ø±
ĠÙģØ± ÙĪØ¯
ĠØ¨ Ø¹
Ø¹ Øª
ÙĪ Ø³Øª
Ø¯ Ùħ
Ø¨ Ø§
Ø± ÙĪØ¯
Ø¢Ø¨ Ø§Ø¯
ĠØ´ Ú©
ĠÚ¯ ÙĪÙĨÙĩ
ĠÛ±Û³Û ¸Ûµ
ĠÙĨ Ùĩ
ĠÚ©Ø±Ø¯ ÙĨØ¯
ĠØ´ Ú©ÙĦ
Ø§ÛĮ Ùĩ
Ùħ Ø§
ĠÚ© ÙĦÛĮ
ĠÙĩÙħ Ø§ÙĨ
Ø¬ Ø§Ø¯
Ø® ÙĪ
Ø² Ø§Ø¯Ùĩ
ĠÙĤ ÙĦ
ĠØ± ÙģØª
ĠØ Į
ĠÙĨ Ø²Ø¯
ĠØ¬Ùħ Ùĩ
ĠØ¯ÙĪÙĦ Øª
ĠØº ÛĮØ±
ĠØª ØºÛĮ
ĠØ¯ ÙĦÛĮÙĦ
ĠÛĮØ§ ÙģØª
Û ¹Û
ĠØª Ø´Ú©
ĠØ§Ø³ Ù¾
e n
ĠØ¹ Ø±
ÙĨ Øª
Ø±ÛĮ ÙĤ
ĠØªÙĨ ÙĩØ§
ĠØ§ÛĮ Ø¬Ø§Ø¯
ĠØ¨Ø³ÛĮ Ø§Ø±ÛĮ
ĠÚ©Ø±Ø¯ ÙĨ
ĠÙĨÙħ ÙĪØ¯
Ø³ Ø§Ø²ÛĮ
ĠØªØºÛĮ ÛĮØ±
Ø§ØŃ ÛĮ
ÙĪØ± Ø´
ĠØ³ÛĮ Ø§Ø±Ú©
Ø¨ Ø§Ø±Ùĩ
Ø± Ø³ÛĮ
ĠÙĩÙĨ Ø±
ĠØ¬Ùħ ÙĦÙĩ
ĠÙħÙħ Ú©ÙĨ
ÙĪ Ùģ
ĠÙĤ Ø¯Ø±
ĠÛ±Û ¸Û
ĠÚ©Ø´ ØªÛĮ
ĠØªØ´Ú© ÛĮÙĦ
ĠÚ©Ø´ Ùģ
ĠÙ¾ ÛĮØ±
ĠÚ© Ø§ÙĨ
ĠØ³ÛĮ Ø³ØªÙħ
ĠØ¢ÙĦ ÙħØ§ÙĨ
ĠÙ¾ ÙĨØ¬
ÙĦ ÙĤ
ĠØ¬ÙħÙĩ ÙĪØ±ÛĮ
Ø¯ Ø§Ùħ
ĠØ§ Ú¯Ø±
ĠÙħØ±Ø¨ ÙĪØ·
Ù¾ ÛĮ
ÙĨØ¯ Ø§ÙĨ
ÙĪ Ø¨ÛĮ
ĠØ´Ø¯ ÙĨØ¯
Úĺ ÛĮ
ĠØ§Ø³ ÙĦ
ĠØª ÙĪØ§ÙĨ
a r
ĠØª Ø¹Ø¯
ĠØ´Ø¯ ÙĨ
ĠØ¯ÙĪØ± Ø§ÙĨ
Ùģ Ø§Ø¹
Ġ A
Ø¬ Ø§
Ø§Ø¨ ÛĮ
ĠØ® Ø§Ø±
ĠÙħÙĪØ³ÛĮ ÙĤÛĮ
Ġ S
ĠÙĨ Ø¯
ĠØŃØ¯ ÙĪØ¯
ĠÙĩÙħ ÛĮÙĨ
ĠÙĩ Ø²Ø§Ø±
Ø¨ Ø±ÛĮ
Øµ ÙĦ
ĠÚ©Ø§Ø± Ú¯Ø±Ø¯
Ù ı
ĠØ³ ÙĪ
ĠÚ©ÙĪ ÚĨ
ĠØ§Ùģ Ø²
ĠØ´ Ø®Øµ
ĠØ§Ø· ÙĦ
ĠÙħ Ú©
Ø® Ùĩ
ĠØªÙĪ Ø¬Ùĩ
ĠØ±ÙĪ Ø´
ĠÙģØ± ÙĩÙĨÚ¯
Ø§ÙĦ ÛĮØ§
Ø® Ø±
ÙĦ Ø¨
ĠÙģ ÙĦ
ĠØ¬ Ø¯ÛĮØ¯
Øª ÙĨ
ÙĪÙĦ Ø§
ÙĪÛĮ Ùĩ
Ġ( )
ĠÙ¾ Ø±Ø¯
Ø³Øª ÛĮ
ĠØ§ÛĮØ± Ø§ÙĨÛĮ
ĠØ¬Ùĩ Ø§ÙĨÛĮ
Ø¯ ÙĪ
ĠØ ¸
Ø§ÛĮ Ø¬
ĠØ¨ Ø§ÛĮØ¯
ĠØŃ Ø¶
ĠØª Ú©
ĠØ³ Ø±ÛĮ
ĠÙĨØ®Ø³Øª ÛĮÙĨ
ĠÚ© ÙĪÙĩ
Ø§ÙĦ ÙħÙĦ
ĠØ® ÙĪØ§ÙĨ
ĠØ³ ÙĨÚ¯
Øª Ø§
Ùģ ÙĤ
Ø¯ Ø§Ø¯
ĠØ§ÛĮ Øª
ÙĨØ¯ Ú¯Ø§ÙĨ
Øª ÙĤ
Øª ÙĪ
ĠÙĩÙħ Ùĩ
ĠØ¯ ÙĦ
Ú¯ ÛĮØ±
Ø´ Ø§Ùĩ
Ø§ØŃ ÛĮÙĩ
Û ¸Û
ĠÙĨÙħ Ø§ÛĮ
Øª ÙĪØ±
ĠØ§ ÙģØ±
Øµ ÛĮ
ĠÙĪ ÙĤ
ĠØ´Ùĩ Ø±ÛĮ
ÛĮÚ© ÙĨ
Ø¯ Ø§Ø±ÛĮ
ĠÙħÛĮ ÙĦÛĮ
ÙĨ ÙĪ
Ø¨ ÙĪØ¯
ÙĪÙħ Øª
Ø¶ Ø§
ĠÙħ Ø§Ø±
Ø³ Ú©
Ùģ Ø§
ĠØ± ÙĪØ¯
ÙĨ Ø§
ÙĤÛĮ ÙĤ
ĠÙħØ®Øª ÙĦÙģ
ĠÙĨÙĪ Ø¹
ĠÚ¯ ÛĮ
Ø´ÙĨ Ø§Ø³ÛĮ
ĠÚ¯ ÙģØªÙĩ
ĠÙĨÛĮ Ø³Øª
ĠÛ±Û µ
ĠØ³ Ùģ
Ù Ĭ
Ø ¤
ĠÙĩ ÙĨÚ¯
ÙĪÛĮ Ø²ÛĮ
Ø§Ùģ ÛĮ
f or
ĠØ± Ø¦
Ø³ Ø¨
ĠØªØ±Ú© ÛĮ
e s
ĠÙħÙĩ Ùħ
ĠØ¬ ÙĪ
ĠØ§Ø·ÙĦ Ø§Ø¹
Ø¯Ùĩ Ø§ÛĮ
ĠØ® ÛĮ
ĠØªÙĦ ÙĪÛĮØ²ÛĮ
ĠØ§Ø³ Ø§Ø³
ĠÙģ Ø±ÙĪ
ĠØ§Ø³ÙĦ Ø§ÙħÛĮ
ÙĪÛĮ Ø¯
ĠØ³ ÙĪÙħ
ĠØ· Ø¨
Ø®Ø§ÙĨ ÙĪØ§Ø±
m u
Ġ âĢĵ
ĠÙģØ±ÙĪØ¯ Ú¯Ø§Ùĩ
Ø² Ø¨
ĠØ¨Ø± ÛĮØª
a l
Ø±ÛĮ Ø§ÙĨ
ĠÙĤ Ø¯
ĠØªØŃ Øª
ĠÙħØ±Ø¨ Ø¹
ĠØ³ Øª
ĠØŃ ÙĤ
ÙĪ ÙĩØ§ÛĮ
ĠØ³ ÛĮÙĨ
ĠØ¬ÙĨ ÙĪØ¨
ĠÙģØ±Ø§ÙĨ Ø³Ùĩ
Ø¶ Ø§ÛĮ
ĠÙĨ Ú¯
Ú¯ÛĮ Ø±Ø¯
ĠÙĨØ³ Ø¨Øª
Ġ M
ĠØ§Ø± ÙĪÙ¾
ĠØ±Ø³ÛĮ Ø¯
ÛĮØ¯ Ø§
ĠØ®Ø§ÙĨ ÙĪ
ĠÛ±Û¹Û ·
ĠØ´Ùħ Ø§ÙĦ
ĠØŃØ¶ ÙĪØ±
Ø±ÙĪ Ùģ
ĠÚ©ÙĨ ÙĨØ¯
Ø³ÛĮ Ø³
ĠÙ¾Ø§ÛĮ Ø§ÙĨ
ĠØ¯ ÛĮØ¯
ĠØ¨ Ø§Ø¹
Ø§ÙĦ Ø¯
Ú¯ Ø²
ĠØ´Ùħ Ø§Ø±Ùĩ
ĠØ¨Ø§Ø¹ Ø«
ĠÙĨ ÙĪÛĮØ³
ÙĨ Ø§ÛĮ
ĠÙħÙĪ Ø§Ø±Ø¯
ĠÙģ Ø±Ø¯
Ø¶ ÛĮ
Ø§Ø´ ÛĮ
ĠÙģØ± ÙħØ§ÙĨ
Ø³ ÙĦ
Ø§Ø¹ ÛĮ
ĠÙĨÙħ Ø§ÛĮØ´
ĠØ¢Ùħ ÙĪØ²
ĠÙĤ Ø³
ĠÙ¾ ÙĦ
Ġ .
ĠÙĩ ÙĨØ¯
ĠØº Ø±Ø¨ÛĮ
ĠÚ¯ ÙģØª
ĠØ´ÙĨ Ø§Ø®ØªÙĩ
ĠÙĪ Ø§Ø±Ø¯
e d
ĠØ§ÛĮ Ø§ÙĦØª
ĠØ³Ù¾ Ø³
ĠØ²ÛĮ Ø§Ø¯ÛĮ
Û°Û° Û°
ĠØ± Ø´ØªÙĩ
ĠØ¹Ùħ ÙĦ
Ø±ÛĮ Ùĩ
ĠØ· ÛĮ
Ø§ÙĦ Ùĩ
Ø§ÙĦÙħÙĦ ÙĦÛĮ
ĠØ¯ Ø§Ø®
mu la
ĠÙĨ Ø§ØŃÛĮÙĩ
Ø³ ÙĨ
Øµ Ø±
ĠØ¨Ø± Ø¯
for mula
ĠÙ¾ Ø§Ø¯
ĠÚ© ÛĮ
ĠØ§Ø¨ Øª
ĠØ¢ Ø°
ĠØªÙħ Ø§Ùħ
ĠÙĩ Ø§ÛĮ
ĠÛ±Û³Û ¹Û
ĠØ§Ø¹ ÙĦØ§Ùħ
ÙĪÙĨ Øª
Ú©ÙĨ ÙĨØ¯Ùĩ
ĠÙĪ Ø±Ø²
ĠÙĤ Ø§ÙĨ
Ù ĳ
ĠØ±Ø¦ ÛĮØ³
ĠØ¨Ø§Ø² ÛĮÚ©ÙĨ
ĠÙ¾ Ø§Ø±
ĠÙĨÙĪØ´ ØªÙĩ
ĠØ±ÙĪØ³Øª Ø§ÛĮ
ĠØ¢ Ø³ÛĮ
ĠÛ±Û ·
Ùħ Ø±
ÛĮØ¯ ÛĮ
Ø§Ø¨ Øª
ĠØ¢ÙĨ ÙĩØ§
ĠØ§ÛĮÙĨ Ú©Ùĩ
ĠØ±Ø³ÛĮ Ø¯Ùĩ
ĠØ® Ø§ÙĨÙĩ
ĠØ§Ø¯ Ø§ÙħÙĩ
ĠØ´ ÛĮØ±
ĠÙĪ Ø²
Ø±ÛĮ Øª
Ø§Ø± Ø§ÙĨ
ØŃ ÛĮ
Øµ ÙĪÙĦ
ĠÛĮ ÙĪÙĨ
ÙĪ Ø§Ø±Ùĩ
ĠÙĩ Ø¯
ĠØ± ÙĨÚ¯
ĠÚ© Ø§ÙħÙĦ
ÙĪÛĮ Øª
ĠØµ Ùģ
ĠØ¬ÙĨ ÙĪØ¨ÛĮ
Ø¹ ÙĨÙĪØ§ÙĨ
ĠÙĪ ÙĦ
ĠÛ±Û¹Û ¸Û
ĠØ¬Ø§ÛĮ Ø²Ùĩ
ĠÙħ Ø¯Ø±
ĠÛ±Û¹Û ¶
Ú¯Ø° Ø§Ø±ÛĮ
ĠØ¢ÙĦ Ø¨
ĠØ®Ø§ÙĨÙĪ Ø§Ø¯Ùĩ
Ù¾ Ùĩ
i c
ĠÛ ¸
Ùħ Ø§ÛĮ
ĠÙĤ Ø§Ø¨ÙĦ
ĠÙ¾ Ø¯Ø±
ĠØªØ¹Ø¯ Ø§Ø¯
ĠÚĺ Ø§Ù¾
Ø¬ ÙħÙĩ
ĠØ§ÙĤ ØªØµ
Ù¾ Ø±
ĠÙĩÛĮ ÚĨ
ĠØ§ÙģØ² Ø§ÛĮØ´
ĠØ´Ø± ÙĤÛĮ
Ú¯ Ø±Ø§ÙĨ
ĠÙħÙĪ ÙģÙĤ
ĠÙħÛĮ Ø²
ĠÙĩ ÙģØª
ĠÙĨ ÙĪØ±
ĠÙĤ ÙĩØ±
ĠØ³ ÙĪÛĮ
Ø³ ÙĪÙĨ
ĠØ³ÛĮ Ø§Ø³ÛĮ
Ø³ÛĮ Ùħ
ĠØ´Ø¨ Ú©Ùĩ
ĠÚĺ Ø§ÙĨ
ĠØ§Ø± Øª
Øµ ÛĮÙĦ
ÙĪ Ø§
Ġ T
Ø§Ø¨ Ùĩ
Ø° ÛĮØ±
ĠØ²ÙħÛĮÙĨ Ùĩ
ÙĤ Ø±
ÙĪÙĦ Ø¯
ĠØ® Ø±
ĠÛ±Û ¶
i s
ĠÙħ Øº
Ø§Ø ¸
ĠØ´ Ø¹
Ø¯Ùĩ Ø§
ØªÛĮ Ø¬Ùĩ
ĠØ± Ùĩ
Ø¯ ÛĮÙĦ
ĠØªØ£ Ø³ÛĮØ³
ĠØ¯Ø± Ø¨Ø§Ø±Ùĩ
ĠØ· Ø¨ÛĮ
ĠÚ©Ùħ Ú©
a t
ĠÚ¯ Ø³ØªØ±
ĠÙħØŃ ØµÙĪÙĦ
ĠØ¯ Ø§Ø³ØªØ§ÙĨ
Ġ P
ĠØ® Ø§Øµ
ĠÚ¯Ø±Ø¯ ÛĮØ¯
ĠØ´ Ø±ÙĪ
ĠÙħÙĪ Ø¬ÙĪØ¯
ĠÛ±Û ´
Ġ formula
ĠØ· Ø±Ùģ
Ø¯ Ø§ÙĦ
ĠØ¢ ÙĪØ±
ĠÛ±Û¹Û ´
ĠØ¯ÛĮ Ú¯Ø±ÛĮ
ĠÚ©Ø§Ø±Ú¯Ø±Ø¯ Ø§ÙĨÛĮ
ÙĦ ÙĨØ¯
Ø± Ø§ÛĮ
ĠØ§ÙĦ Ú©ØªØ±
ĠÙĨ ØªÛĮØ¬Ùĩ
ĠÙħØ± Ú¯
ĠÚĨ ÙĪÙĨ
ĠØ² ÙħØ§ÙĨÛĮ
ĠØ¯Ø± ÛĮ
Ú© Ø§Ø±ÛĮ
ĠÚ© ÙĪØ¯
ĠÙĤØ¨ ÙĦ
ÙĨ Ø´
ĠÛĮ Ø§Ø¯
Ø§ÙĨ Øª
ĠØ®ÙĪØ§Ùĩ Ø¯
ÙĪØ² Ùĩ
ĠØ¨Ø±ÛĮØª Ø§ÙĨÛĮØ§
Ø³Øª Ø§ÙĨÛĮ
ĠÙħØŃ ÙĦ
Ø§ ÚĨ
Ø¹ ÙĨÛĮ
ĠØ§ÙģØ± Ø§Ø¯
ĠÙħØ¬ ÙĦØ³
ĠÙħ Ø¨
ĠØ¬Ùĩ Øª
Ġ B
ĠØªØ¨ Ø¯ÛĮÙĦ
ĠÚ©ÙĪÚĨ Ú©
Ø³ Ùħ
ĠØ¯Ø±ÛĮØ§ ÙģØª
ĠØ¯Ùĩ Ùĩ
ĠØ´Ø±ÙĪ Ø¹
Ø§ÙĨ Ú©
ØªÛĮ Ø¨
ĠÙĪ Ø§
ĠØ·Ø± Ø§ØŃÛĮ
ĠÙħØ³ Ø¦
ĠÙħØ¹Ùħ ÙĪÙĦØ§
ÛĮØª ÛĮ
ĠØ¯ Ø®
ĠØ· Ø±ÛĮÙĤ
ĠØµ Ø¯
ĠØªØ§Ø±ÛĮØ® ÛĮ
Ø§Ø¨ÙĤ Ø§Øª
ĠØ§ ÙģØª
ĠÚĨ Ø´Ùħ
ĠÚ© Ø§Ùĩ
Ø±ÛĮ Ùģ
ĠØ§ÙĨØª ÙĤ
ĠÚĺ ÙĪØ¦
ĠØ¹ÙĦ ÙħÛĮ
ĠÙĨÛĮ Ø§Ø²
ĠØ³ ÙħØª
ÙĪ Ú¯
ĠÙħ Ø°
ĠØ¢ ÙĪØ±Ø¯
ĠØªÙĦÙĪÛĮØ²ÛĮ ÙĪÙĨÛĮ
ĠØ¯Ø± Ú¯Ø°
ĠØ¯Ø± Ø¢
ĠÙĤØ± ÙĨ
ĠÙ¾ ÛĮØ¯Ø§
Ø§ÙĨ Ú¯
ĠÙĤØ³ ÙħØª
ĠÛ ¹Û
ĠÙħ Ø¤
ĠØ´Ùħ Ø§ÙĦÛĮ
ĠØ¨Ø§ÙĦ Ø§
ĠØŃ Ø²Ø¨
i a
ĠØ² ÙĨ
ĠÚ© Ø§Ùħ
ĠØª Ø®
ĠØ±ÙĪ Ø³ÛĮ
ĠØ§Ùħ Ø±ÙĪ
ĠØŃÚ© ÙĪÙħØª
ĠØ¹ Ø¶ÙĪ
Ùħ Ø²
ĠØ¢Ùħ Ø¯Ùĩ
ĠØ¨ ÙĨÛĮ
ĠØ¨Ø¯ ÙĪÙĨ
ĠØ¹Ø¨ Ø§Ø±Øª
ĠÙħØ³ Ø§Ø¨ÙĤØ§Øª
Ø§Ø ¡
ĠÙģØ± Ø²
ĠØ§ÙĨ Ø³Ø§ÙĨ
Ø¬ Ø±
ĠÛ ¹
ĠØ® ÙĪØ±Ø´
ĠÙħØ¯ Øª
ĠÙħØ¹ Ø±ÙĪÙģ
ĠÙģØ§Ø± Ø³ÛĮ
ĠØ¬ ÙĦ
ĠØ¢ Ø®Ø±
ĠØ¢ÙĦØ¨ ÙĪÙħ
Ø§ÙĦ Ø¨
ÙĪ Ø³ÛĮ
ĠØ± ÙĤ
ĠÙħØ´ Ùĩ
Ø§Øª Ø±
ĠØ¢ÙħØ±ÛĮÚ© Ø§ÛĮÛĮ
Ø§Ø¨ ÙĤÙĩ
ĠØ§Ø± ØªØ¨
Ġ Ø§Ø±Ø¯
ĠØ§Ø±ØªØ¨ Ø§Ø·
Ø´ Ø§Ø±
ĠØªÙĪØ³ Ø¹Ùĩ
i t
ĠÙħÙĨ Ø§Ø·
Ø§Ø¦ Ùĩ
ÙĪØ±ÛĮ Ùĩ
ĠØ§Ø±Øª ÙģØ§Ø¹
ĠØ§Ø·ÙĦØ§Ø¹ Ø§Øª
Øª ÙĪÙĨ
Ø§Ú©ÙĨ ÙĪÙĨ
Ø§Øª ÛĮÙĨ
ĠÛ±Û ¹
ĠØ§Ø¬ ØªÙħ
ĠÚ© ÙħÛĮ
Ø² Ø´Ú©
ĠÙ¾Ø§ÛĮ Ùĩ
ÙĦ Ø§ØŃ
Ú¯Ø±Ø¯ Ø¯
ĠØ¢Ø² Ø§Ø¯
Ø³ ÛĮÙĨ
ĠÙĨ ÛĮÙħ
ĠÙħØŃ Ø¯
Ø§Ø³ Ø¨
ĠØ¨Ø±Ú¯ Ø²Ø§Ø±
ĠØ³ÙĦ Ø·
ĠØ¬ Ø±ÛĮØ§ÙĨ
ĠØ§ÙĨ ÙĤÙĦ
ĠØµ ØŃ
ĠØª Ø§Ø¨
ĠØªØ±Ú©ÛĮ Ø¨
Ø¹ Ø§Øª
ĠÙħ Ø§
ĠÙħÙĪ Ø§Ø¯
ÙĦÛĮ Ùĩ
ĠÛĮ Ø¹ÙĨÛĮ
Ø« ÛĮØ±
ĠØª ÙĪØ±
Ġ D
) .
Ø³ Ø§Ø²
Ġ 1
ĠÛ±Û¹Û µ
Ø³ Ø§ÙĦ
ĠÙĪ Ø³ÛĮ
Ø´ Ø¯Ùĩ
Ø« Ø±
ÙĪÙĦ Ùĩ
Ø´ ÙĩØ±
ĠÙĦ Ùĩ
ĠÙĨ Ùģ
ĠÚ©Ø§Ùĩ Ø´
ĠØ´ÙĪØ± Ø§ÛĮ
ĠÚ©ÙĨ Ø§Ø±
ÙĪÙĦ ÙĪ
ĠØ³ ÛĮØ¯
ĠØ¢ ÙĩÙĨÚ¯
ĠØ§ÛĮØª Ø§ÙĦÛĮØ§
ĠÙĪÛĮ ÚĺÙĩ
ĠØ´Ú© Ø³Øª
Ú© ÙĪ
Ø§Ø¹ Øª
ĠØ¢Ùħ Ø¯
ĠÙĤØ¯Ø± Øª
ĠØ¹Ùħ ÙĪÙħÛĮ
Ùħ Ù¾
ĠØ§Ø± Ø§Ø¦Ùĩ
ĠØ¨ÛĮÙħ Ø§Ø±ÛĮ
ĠØ´ ÛĮÙħÛĮ
ĠÙĪ Ø±
Ġ ĠĊ
ĠØ§Ø±ÙĪÙ¾ Ø§
ĠØµ ÙĨ
ĠÛ±Û ³
ĠØ¨Ùĩ ØªØ±ÛĮÙĨ
ĠÙĨØ¸ Ø§ÙħÛĮ
ĠÙħ Ú©Ø§ÙĨ
ĠÙħØ´ Ø®Øµ
Øº Ø§ÙĨ
. .
ĠÚ© ÙĪØª
ĠÙĤØ§ÙĨ ÙĪÙĨ
ĠÙģ ØµÙĦ
Ùĩ ÙĨ
Ø³ ÙĪÛĮ
ĠØ² ÙĨØ§ÙĨ
ĠØ® ÙĦ
ĠÙĨØ²Ø¯ ÛĮÚ©
ĠÙĨÛĮØ± ÙĪÙĩØ§ÛĮ
Ø§Ø· Ø±
ØŃ Ùĩ
ĠÛ²Û°Û±Û °
Ø±Ø§ÙĨ Ùĩ
Ø¨ ÙĪØ±
ĠÙħÙĨØ§Ø· ÙĤ
ĠØª Ùģ
ĠØ® Øµ
ĠØ® Ø¯
ĠÚĺØ§Ù¾ ÙĨ
Ø³ Ø§
ĠØ± Ø§ÛĮ
ĠÙħÙĨ Ø¸
Ø¬ ÙĪ
ÙĪ Ø§ÙĦ
ÙĪ Øµ
ĠØŃÙħ ÙĦÙĩ
ÙĤ Ø·
ĠÙħÛĮÙĦÛĮ ÙĪÙĨ
ĠØ¯ÙĨ ÛĮØ§
ĠÚ© Ø±ÛĮ
ĠØ± Ø§Ø¨
ÙĪ Ø§Ø³
ĠÙ¾Ø³ Ø±
o l
Ø±Ø¨ Ø§ÛĮØ¬
ĠØ§Ø³Øª Ø±
Ø§Ø± Ø³ØªØ§ÙĨ
Ùħ ÛĮØª
ÙģØ§ ÙĪØª
ĠØ§ÙĨØ¯ Ø§Ø²Ùĩ
ĠØªØŃ ØµÛĮÙĦ
ĠÛ² Ûµ
Ø® ÛĮ
Ø¬ Ùħ
Ø§Ù¾ ÛĮÙħ
Ø§Ú© ÛĮ
ĠÙħ Ø¯ÛĮ
Ø¨ ÛĮØ±
Ø§ ÙĪÙĩ
Ø± Øª
ĠØ¢Ø° Ø±Ø¨Ø§ÛĮØ¬
ĠØ¯Ø± Ø¬Ùĩ
ĠØ§Ø³ ÙĦØ§Ùħ
ĠÙ¾Ø±Ø¯ Ø§Ø®Øª
ĠÙĩ Ø´Øª
Ø² ÙħÛĮÙĨ
ĠÚĨ ÙĨÛĮÙĨ
ĠØ§Ø¬ØªÙħ Ø§Ø¹ÛĮ
ĠØ³ Ø®
ĠØ§Ùħ Ù¾
ĠÙħ Ø§ÛĮ
ĠÙĦ Ø§ØªÛĮÙĨ
ÚĨ ÛĮ
Ú¯ ÙĪ
Ø§Ø¶ ÛĮ
ĠØ³ÛĮ Ø§Ø³Øª
ĠÙħØ³ ÙĦ
ĠØŃ ÙĦ
r e
ÛĮØ² ÛĮ
ĠØŃ Ø§ÙĦØª
ĠÙħÙĪ Ø¶ÙĪ
ĠÙĨØ³ Ø®Ùĩ
Ø³ Ø§ÙĨÛĮ
ĠØ¨ÙĨ Ø§
ÙĪ ÛĮØ±
ĠÙģ ÛĮ
Ø§Ø³ Ùħ
l e
ĠØ¢ÙĨ Ø¬Ø§
ĠØŃ ØªÛĮ
Ø§Ø³ Ø§ÙĨ
ĠÚ©ÙĨ ØªØ±
ĠØ¢ ÛĮ
Û±Û ¹Û
Ø±Ùģ ÛĮ
ĠØ¯ Ùħ
ĠØº Ø±Ø¨
ĠØ¯Ø® ØªØ±
ĠÙħÙĪ Ø¬
ĠÙ¾ Ø§Ø³
ĠÙĪ ÛĮØ±
ĠÛ ¸Û
Ø±ÛĮ Ø¯
ĠØªÙĩ ÛĮÙĩ
Ùħ ÛĮÙħ
ĠØªØ£ Ø«ÛĮØ±
ĠÙħ Ø§Ø¯Ùĩ
ØªØ´ Ø§Ø±
Ø§ÙĨ Ø³
ĠÙ¾ Ø²Ø´Ú©
Ø¹ ÙĦÛĮ
ĠØ¹ Ùĩ
Ù¾ Ø±Ø¯
h e
ĠØ¨Ø§Ø² Ø§Ø±
" ØĮ
ĠØ¹Ùħ ÙĦÛĮ
Ø§Ø´ ØªÙĩ
ĠÙĨÙħ ÙĪÙĨÙĩ
Ø¯Ùĩ Ùħ
ĠÚĨ Ø§Ù¾
Ø§Øµ ÙĦÙĩ
ĠÙĨÛĮØ± ÙĪÛĮ
Ø® ÙĪØ§ÙĨ
ĠØŃ Ø§Ø¶
ĠÙĩÙħÚĨ ÙĪÙĨ
ĠØ§Ø± ØªØ´
ĠÚ© Ø³Ø¨
Ùħ ÙĨÛĮ
ĠÙħØ¯ ÙĦ
Ùĩ Ùħ
ĠØ¨Ø± Ø¬
Ø¯Ùĩ ÙĨØ¯
ĠØ¯Ø³Øª Ú¯Ø§Ùĩ
ÙĨ Ø§Ùħ
Ùħ ØŃ
ĠÙ¾ ÙĪØ´
ĠØ¹ÙĦ ÙĪÙħ
ĠÚ©Ø± ÙħØ§ÙĨ
Ø¨ ÙĨØ¯ÛĮ
ĠØ¯Ø± ØµØ¯
Ø³ ÙĪ
ÙĨ Ùħ
ĠØ§ÙĨ ØªØ´Ø§Ø±
ĠØŃ ÛĮ
Ø± Ø§Ùģ
ĠØ§ ÙĪØ±
ĠØ³ Ø§Ùħ
ĠØ§Ø¯ Ø¨ÛĮ
ĠØ¹Ø± Ø§ÙĤ
ĠØŃØ§Ø¶ Ø±
ĠÙĩ Ø¬
Ùģ ÛĮÙĦ
ĠØŃ Ùģ
ĠØ§ÙĨÚ¯ ÙĦ
ĠÙ¾ ÙĦÛĮ
ĠÙ¾ Úĺ
ĠÚ©Ø´ÙĪØ± ÙĩØ§ÛĮ
Ø§Ùħ Øª
ĠØ¨Ø± ÙĨØ¯Ùĩ
ÙĨ Ø²
ĠÙħ Ø§ÙĦÛĮ
ĠØ·Ø¨ÛĮ Ø¹ÛĮ
ĠÙĩÙĪ Ø§Ù¾ÛĮÙħ
ĠØ±ÙĪØ³ÛĮ Ùĩ
ĠØ§ÙĨÙĤÙĦ Ø§Ø¨
ÙĪÛĮ Ø´
Ø§Øµ Ø±
ĠÙĩÙĨÚ¯ Ø§Ùħ
Ø±ÛĮ Ø²
Ù¾ ÙĦ
ĠØ¢Ø² Ùħ
Ø´ Ø±
Øª Ø¨Ø±
Ġ W
ĠØ³Ø¨ Ú©
ĠÛ±Û³Û ¸Û
ĠØ¨Ø§Ø²ÛĮ Ú¯Ø±
Øº ÙĪÙĦ
ĠØ¬ Ø´ÙĨ
ĠÚ¯ Ø²Ø§Ø±
ĠÚĨ ÛĮÙĨ
Ġ L
ĠØ§ÙħÙ¾ Ø±Ø§Øª
ĠÙħØ· Ø§ÙĦ
ĠØ§Ùħ ÙĨ
ĠØ¨ÙĪØ¯ ÙĨ
ĠÚ©ÙĨØªØ± ÙĦ
ĠØ³ Ø±Ø¯
Â» ØĮ
ÙĪØ± Ú©
ĠØ§ØŃ ØªÙħ
Ġ F
ĠÙĩØ¯ Ùģ
Ùħ Ø±Ø¨
ĠØ¨Ø± Ø±Ø³ÛĮ
Ø¨ Ø§Ø´
ĠØ¯ Ùģ
ÙĨ ÙĪÛĮØ³
ĠØ¹Ø¨ Ø¯Ø§ÙĦ
Ġ R
Ø¨ ÙĦ
ĠÙħ Ø§ÙĦ
ĠØ³Ø§Ø®Øª ÙħØ§ÙĨ
o u
ĠØ® Ø§Ú©
ĠÙĤÙĦ Ø¹Ùĩ
ĠØ¢ÙħÙĪØ² Ø´
ĠÙħÙĪ ÙĤ
ĠØŃ Ø±Ú©Øª
ĠÙħØ´ ØºÙĪÙĦ
ĠØªÙĤ Ø³ÛĮÙħ
ĠÙ¾ ÙĨ
ĠÙħÙĤ Ø§Ùħ
ĠØ¬ ÙĪØ§ÙĨ
Ø± ÚĺÛĮ
ĠØ¢ÙĨ Ø§ÙĨ
ĠÛĮØ§ ÙģØªÙĩ
Ġ G
Ø§Ø¨ Ø§ÙĨ
ĠØ¨Ø§Ø´ ÙĨØ¯
Ġ H
ĠØ¨ÛĮ Ø§ÙĨ
ÙħØ±Ø¨ Ø¹
Ø§Ø¯ Ø§
ĠØ¨ Ø§ÙĨØ¯
ĠØ³Ø± Ùħ
ĠØª Ø´
Ø§ ÙĪÛĮ
Ø¬ Ø¯
ĠØ¢Ø°Ø±Ø¨Ø§ÛĮØ¬ Ø§ÙĨ
Ġ I
ĠÚ© Ø§ÙĦ
ĠØ§Ø¬ Ø±Ø§
ĠØ§ÙĨÚ¯ÙĦ Ø³ØªØ§ÙĨ
ĠØ¬Ø§Ùħ Ø¹Ùĩ
Ø· ÛĮ
ĠØ§Ùħ Ú©Ø§ÙĨ
Ø§Ø¦ ÛĮ
ĠÛ±Û³Û µ
ĠØ¨ ÛĮØ±
ĠØŃÙĤ ÙĪÙĤ
Ù¾ ÛĮØ´Ùĩ
ĠÙĨÙĪÛĮØ³ ÙĨØ¯Ùĩ
ĠØ¯ Ø§Ùħ
Ġ E
ĠØŃ ÙĪØ²Ùĩ
ĠØ³ Ú©
ĠØª ÛĮ
Ø§Ùģ Ø¸
ĠØŃØ³ ÛĮÙĨ
ĠØ³ Ø§ÛĮØ±
ĠØ¹ ÙĨ
Ú©Ø±Ø¯ ÙĨØ¯
ĠØ¯Ùĩ Ø¯
ĠØ®Ø§Ø± Ø¬
Ø¯ÙĪ Ø§Ø¬
Ùħ ÙĨØ¯
ĠÛ±Û ¸
ØªÙĪØ§ÙĨ ÙĨØ¯
i k
Ú¯ Ø´Øª
ĠØ§Øª ØŃ
Ġ 2
ĠØ§Ø± Ø²
ĠÙħØŃ Ùħ
ĠÙħØ± ØŃ
Ú¯ Ø§ÙĨÛĮ
Ø±Ø³ Ø¯
ĠØ§Ø º
ĠØ¯Ø§Ø´Øª ÙĨØ¯
Ø§Ø¯ ÙĦ
ÙĪ Ø²ÛĮ
ĠØ±Ø³ ÙħÛĮ
ĠÙĨØ¯ Ø§Ø±Ø¯
ĠÙħÙĩ Ø§Ø¬
Ø¯ Ø±ÛĮ
ĠØªØŃ ÙĤÛĮÙĤ
ÙĩØ± Ø³Øª
Ø¢ ÛĮØ¯
ĠÙħ Ø³ÛĮ
Ø§ÙĦØ¯ ÛĮÙĨ
Ø§ÙĨÛĮ Ø§ÙĨ
ĠÙ¾Úĺ ÙĪÙĩ
ĠØ¨ ØŃ
ĠØ§Ø² Ø¯ÙĪØ§Ø¬
ĠÚĨ Ø±
Ø§Ø¨ Ø¯
Ø§Ø «
ĠÙĤ Ùħ
Ø±Ø¨ Ùĩ
ĠÚ¯Ø²Ø§Ø± Ø´
ĠØ§ÙĨ Ø±ÚĺÛĮ
ĠÙĩ Ø²
ĠÙģ ÙĦØ³
ĠÚ©ÛĮÙĦÙĪÙħØªØ± ÙħØ±Ø¨Ø¹
ĠØ´ Ø´
ĠÙĩÙĨØ± Ù¾ÛĮØ´Ùĩ
ĠØ¨ Ø®
ĠÙģÛĮÙĦ ÙħÛĮ
ÙĪ Ø¹
ĠÙħØŃ ÛĮ
ĠØ·Ø± ØŃ
a s
ĠØ³ Ø§ÙĨ
ÙĨ Ø±
ĠÙħØ´ Ú©ÙĦ
ÙĤ Ø¨
ĠØ¯ÛĮ Ø¯Ùĩ
ĠØ´ Ø§Ø®
ĠÙħ ÙĪØ±
ĠØ³ÛĮ Ø§Ùĩ
ĠÙģØ±ÙĪ Ø´
ĠØ´Ø± ÙĤ
ĠÙĩ Ø§
ĠØ§Ùģ ØºØ§ÙĨ
Ùħ Ø¹
ĠÙĨ Ø±Ùħ
ĠØ§Ø¹ Ø¶Ø§ÛĮ
ĠØ¯ÙĨ Ø¨Ø§ÙĦ
ĠØ¨Ø®Ø´ ÛĮ
Ø²Ø§Ø± Øª
ĠÙħÙĤ Ø§Ø¨ÙĦ
ĠØ¨ÙĨ Ø§Ø¨Ø±
ĠÛ±Û¹Û ²
ĠØ´ÛĮÙħÛĮ Ø§ÛĮÛĮ
ĠÛ² Û²
ĠÙħÛĮ Ø¯Ø§ÙĨ
ĠÙĪ Ø§ØŃ
ĠØ®ÙĪØ¯ Ø±ÙĪ
ĠÙħ Ø§Ø¯Ø±
Ø¬ Ø§Ùħ
ĠØ´ ÙĪÙĨØ¯
ĠÚ¯Ø± Ùħ
ĠØ±ÙĪØ² ÙĨØ§ÙħÙĩ
ĠÙĪ Ø²Ø§Ø±Øª
ĠØ¹ Ø±Ø¨ÛĮ
ĠØ³Ø± Ø¹Øª
ĠØ§Ø³ Ú©
ĠÚĨÙĨØ¯ ÛĮÙĨ
Ø§ÙĦ ÙĦÙĩ
Ø¢ ÙĨ
ĠÚ¯ ÙĪØ´
Úĺ ÙĨ
ĠØ´Ø®Øµ ÛĮØª
i p
ĠÙħØ« Ø§ÙĦ
ĠÙģØ± Ø§ÛĮ
ÙĨØ¯ Ø±
ĠÙħØ¯Ø± Ø³Ùĩ
ĠØ´Ø± Ø§ÛĮ
ĠÛ² Û´
ĠØ¯Ø³Øª Ùĩ
. Â»
ĠØ¹ÙĦ Ø§ÙĪÙĩ
ĠÙģØ±ÙĩÙĨÚ¯ ÛĮ
ĠÛ±Û¹Û ³Û
ĠØŃ Ø±Ùģ
Ø¨ ÛĮÙĨ
ÙĪØ± ÛĮØª
e l
Ø³ ÙĪØ¨
ĠØªØ± ØªÛĮØ¨
ĠØ³ Ø¯Ùĩ
Ú¯ ÙĪÙĨÙĩ
Ú¯ ÙĪÛĮ
Ø§Ùĩ Ø¯
ĠØ§Ø¨Øª Ø¯Ø§
ĠÙĨÚ¯ Ùĩ
ÙĦ ÛĮÙĨ
Ø¬ Ø§ÙĨ
ĠÙ¾Ø§ÛĮ ÛĮÙĨ
ĠÙĪ Ø³
ĠÙĦ Ø¨
ĠÙ¾ Ø°ÛĮØ±
ĠÚ©ÙĦ Ø§Ø³
Ù ª
ÙĪ Ø§Ø¹
t r
ÙĪ ÙĪ
ĠÙħØ¹ Ø±ÙģÛĮ
ĠØ¨Ø±Ø® ÙĪØ±Ø¯
ĠÙģ Ø§ØµÙĦÙĩ
ĠÙħÛĮØ² Ø§ÙĨ
Ġ N
ĠÙĩÙħ Ú©Ø§Ø±ÛĮ
ĠØª Ø¦
ĠØ® Ø§Ø·Ø±
ĠÙħÙĨ Ø§Ø¨Ø¹
ĠØ®Ø§ÙĨ ÙĪØ§Ø±
ĠÛĮ Ùĩ
ÙĪÛĮ ÙĦ
Ø± ØŃ
ĠÙħØ® Ø§ÙĦ
ĠØ³ Ø§Ø¹Øª
ĠØ¹ Ø¯
ĠØ§Ø³Øª Ø§Ø¯
ĠÙĦÙĩ Ø³ØªØ§ÙĨ
ĠØ³ ÙĪØ¦
ĠÙģØ±Ø² ÙĨØ¯
ĠØ§ÙĤØªØµ Ø§Ø¯ÛĮ
ÙĨ Ø³
ĠÙħØ¯ ÛĮØ±
Ø¨ Ø¯
ÙĪ ÚĨ
ĠØ® Ø¨Ø±
ĠÙħÙĪØ¶ÙĪ Ø¹
ĠÙĪØ³ÛĮ ÙĦÙĩ
ĠØ¢Ø®Ø± ÛĮÙĨ
ĠÚ©Ø´ ØªÙĩ
ĠØ§ÙĪ ÙĦÛĮÙĩ
ĠÚ¯Ø° Ø´ØªÙĩ
ĠØ³Ù¾ Øª
ĠØ§Øµ ÙģÙĩ
ĠØ±Ø§Ø¨ Ø·Ùĩ
ĠØ±ÙĪ ØŃ
ĠØ§ØŃØªÙħ Ø§ÙĦ
ĠÛ±Û¹Û ±Û
ÙĪ Ø¬
ĠØªÙĦ Ø§Ø´
ĠÙħØ±ØŃ ÙĦÙĩ
ĠØ¨Ùĩ Ø±Ùĩ
ĠØ§Ø® ØªÙĦ
ĠÙģ ÙĤØ·
ĠØ§Ø³ Ùħ
ĠØ¢ Ø³
ĠØª Ø±Ø§ÙĨÙĩ
Ø§Øµ ÙĦ
ĠØ¹Ùĩ Ø¯Ùĩ
Ø§ÙĨ Ø§
ĠØ¬ Ø±
ĠÙĪØ§ ÚĺÙĩ
ĠØ³Ù¾Øª Ø§ÙħØ¨Ø±
ĠÙĤØ¯ ÛĮÙħÛĮ
Ø± ÙģØª
ĠØ± Ø§Ø³Øª
ÙĪ ÛĮÙĨ
ĠØ¯Ø³Øª ÙĪØ±
Ùħ ÛĮÙĦ
ĠØ¨ Ø§Øº
ĠØº Ø°
ĠØ¬ Ø¯
ĠØ§ÙĤ Ø¯Ø§Ùħ
ĠØ¢ ØªØ´
ĠÛ±Û ±Û
ĠØ¹ÙĦ Øª
ĠØ³ ÛĮÙħ
ĠØ¸ Ø§Ùĩ
ĠÙħÙĪ ØªÙĪØ±
ĠØ±ÛĮ Ø§Ø³Øª
ĠÙĦÛĮ Ú¯
ĠÙħØ¯ÛĮ Ø±ÛĮØª
ĠØ³ ÙģØ±
ĠØ¹Ø± Ø¶
ĠÙħØ³ ÛĮØ±
ĠØ¨Ø§ ÙĤÛĮ
ĠØ± Ø´Ø¯
ĠØ¯ Ú©ØªØ±
ĠÙħØŃ ÙĦÛĮ
Ø¢ Ùħ
ĠÙħØ¯ Ø§ÙĦ
ĠØª Ù¾Ùĩ
ĠÙħÙĩ ÙĨØ¯
ĠØªØµ ÙħÛĮÙħ
ĠÚ©Ø´ Ø§ÙĪØ±
Û±Û °
ĠØ§ÙĨØªØ®Ø§Ø¨ Ø§Øª
i on
Ø§ÙĨ ÙĪ
ĠÛ±Û ±
ĠØ¢ Ùģ
ĠÙħØ´Ùĩ ÙĪØ±
âĢ ¦
ĠÙħØ¹ ÙĨÛĮ
ĠØ¨Ø¯ ÙĨ
ĠØ¹ Ø±Ø¨
ĠØ§Øº ÙĦØ¨
Ú© Ø´
ĠØ± ÙĪÙħ
Ú¯Ø° Ø§Ø±
Ú¯ ÙĨ
ĠÙĩÙĪ Ø§
ĠØ¯Ø§Ø® ÙĦÛĮ
ĠÙ¾ Ùĩ
ÙĦÛĮ Øª
Ø±ÛĮ Ø¨
ĠÙ¾ Ø®Ø´
Ø¯ Ø§Ø´Øª
ĠØ§ÙĦ Ø¨
Ø² ÙĨ
ĠØ§ÛĮ Ø³Øª
Ø§Ø² Ùħ
ĠØªÙĪØ§ÙĨ Ø³Øª
ĠÚ© ÙĪØ±
ĠØ¯Ø§Ø¯ ÙĨ
Ø§ÛĮ Ø§ÙĨ
ÙĪÛĮ Ø§ÙĨ
c h
ÚĨ Ø±
¹ Û°
ĠØ·Ø¨ ÙĤ
ĠØ§Ùħ Ø§Ùħ
Ú¯ Ø§Ø±
ĠØŃ Ø§ÙĦÛĮ
ĠÙģØ±Ø§ÙĨ Ø³ÙĪÛĮ
Ø¯Ùĩ ÛĮ
ĠÙĩÙĪ Ø§ÛĮÛĮ
Ø±ÛĮ Ø´
Ø§Ùĩ Ùħ
ĠÛ±Û³Û ·
ĠÚ©Ø§Ø± Ø¨Ø±Ø¯
ĠÙĪØ±Ø² Ø´
ĠÙħØ§Ø± Ø³
Ø® ØªÙĩ
i l
ĠÙ¾ Ø§Ú©
o m
ÙĪØ± Ø§ÙĨ
ĠØ³Ø± Ø¯Ùĩ
ĠÙĪ Ø¶
ĠØ¬ Ø¯Ø§
ĠØŃØ³ ÙĨ
ĠÙħ Ùģ
ĠØ³Ø± Ø²ÙħÛĮÙĨ
ĠÙħÙĨ Øª
ĠÙĩÙĨ Ø±ÛĮ
ĠÙĪØ² ÛĮØ±
ĠØ§Ú© ØªØ¨Ø±
Ú© Ø§
Øº Ø±
ĠØ® ÙĪÙĨ
ĠÙĪÛĮ Úĺ
Û±Û ³Û
ĠØ¨ Ø§Ø¨
Ø´Ú© Ø¯Ùĩ
ĠØ¯Ø§Ø® ÙĦ
ĠÙĨ ÙĩØ§ÛĮ
ĠØ§Ø ¶
ÙĦ Ø±
ĠØ¯Ø±Ú¯Ø° Ø´Øª
Ø§Ùĩ Ø§
ĠÙħØŃØ¯ ÙĪØ¯
ÙħÛĮÙĨ Ø§
ĠØ§ÙģØºØ§ÙĨ Ø³ØªØ§ÙĨ
ĠÙħØ° Ùĩ
ĠÙħ ÙĩØ±
ĠÛ³ Û°
ĠØ¬ ÙĦÙĪ
ĠÙĦ ØŃ
ĠØ§ÙĨØªÙĤ Ø§ÙĦ
ĠÙħØŃ ÙĦÙĩ
ĠÚ¯ÛĮ Ø§Ùĩ
ĠØ¬Ø² ÛĮØ±Ùĩ
ĠÙħØ« ÙĦ
ĠÙĤÙĩØ± ÙħØ§ÙĨÛĮ
Ùģ Ø§ÙĤ
ĠØ¢ÙĦ ÙħØ§ÙĨÛĮ
Ú¯ ÙĪÛĮØ¯
ĠÙģØ± Ùħ
ĠØªØ¹ Ø±ÛĮÙģ
ĠØ³Ùģ ÛĮØ¯
ĠÚ©ÙĪØª Ø§Ùĩ
ĠÙħØª ÙĨ
ĠØ§ØŃ ÙħØ¯
ĠØ´Ø±Ø§ÛĮ Ø·
ĠØ± Ø®
d e
ĠØ¯ ÛĮÙĨ
ĠØ¢Ø²Ùħ Ø§ÛĮØ´
ĠÚĺØ§ÙĨ ÙĪÛĮÙĩ
Ùħ Ø¨
ÙĤ ÛĮÙħ
ĠÚ© Ø¯
ĠØ¨Ø§Ø² Ú¯Ø´Øª
ed ia
ĠÙħØµ Ø±Ùģ
Ø§ÙĨÛĮ Ø§ÛĮÛĮ
ĠÙĪÛĮÚĺ Ú¯ÛĮ
Øª Ø¨Ùĩ
ĠØ¬ ÛĮ
ĠØŃÙħ Ø§ÛĮØª
ĠØ§ÙĨ ÙĪØ§Ø¹
Ø¨Ø§Ø´ ÙĨØ¯
ĠÙĨØ¸ Ø±ÛĮÙĩ
Ù¾Ø±Ø¯ Ø§Ø²
ĠØ§ÙĪ Øª
ĠØ¬Ùħ Ø¹
ĠÙħÙĨØ¸ ÙĪØ±
ĠØ¢ ÙĤ
ĠÙħÛĮ Ø±Ø²
ĠØ® ÙĪØ´
ĠÙ¾Ø§Ø¯ Ø´Ø§Ùĩ
ĠÙħØŃÛĮ Ø·
ĠÙ¾Ø²Ø´Ú© ÛĮ
ĠÙħØ³ Ø§Ø¨ÙĤÙĩ
ĠØ´ÙĨ Ø§Ø³
ĠØ³Ø§ÙĦ Ú¯ÛĮ
Ø§Ø± Ø§Øª
ĠØ§Ø¬ Ø±Ø§ÛĮ
ĠØªØ± Ø¬ÙħÙĩ
ĠØª ÛĮØ±
ĠØ¯Ø±Ø¢ ÙħØ¯
ĠÙħØ³ Ø¬Ø¯
ĠØ¨Ø¹ Ø¶ÛĮ
ĠÙħØ· ÙĦÙĤ
ĠÙħ ÙĪÙĦ
Ø ©
ÙģÛĮÙĦ Ùħ
ĠÙħØŃ Ø³ÙĪØ¨
ĠÚ©ÛĮÙĦÙĪÙħ ØªØ±ÛĮ
Ùħ Ø§ÙĦ
ĠÙħÙĤ Ø¯Ø§Ø±
ĠØªÙĤ Ø±ÛĮ
ĠÙĩØ¬ Ø±ÛĮ
ĠØ³ Ø±Ø¨
Ø¯ÛĮ Ú¯Ø±
ĠØ¹ÙĦÛĮ Ùĩ
ĠØ¯Ø± Ø®Øª
ĠØª Ø§Ú©ÙĨÙĪÙĨ
ĠØ´ÙĩØ± ÙĩØ§ÛĮ
ĠØ¨ÙĦ ÙĨØ¯
ĠÙģ Ø¶
ĠÙ¾Ø±ÙĪ ÚĺÙĩ
ĠØ®ÛĮ Ø§Ø¨Ø§ÙĨ
Ø¨ÛĮ Ùĩ
ĠØ¯ÙĪÙħ ÛĮÙĨ
ĠØ¨ÙĨØ§Ø¨Ø± Ø§ÛĮÙĨ
ĠØ§Øª ÙģØ§ÙĤ
Ø´ÙĨ Ø§Ø³
ĠØªØµ ÙĪÛĮØ±
ĠØ¢ Ø´
ĠØ¨Ø± Ø§Ø¯Ø±
ĠØ§Ø³Ù¾ Ø§ÙĨÛĮØ§
ĠØªØµ ÙĪÛĮ
ĠÙĪ Ø¨
ĠØ¯ Ø³
ĠÚ¯ ÛĮÙĦ
ĠØ²ÛĮØ± Ø§
ĠØ¹ÙħÙĦÛĮ Ø§Øª
a m
ĠÙĨ Ø¬
Ø¨ Ø§Øª
Ø§Ø® Ø±
ĠØ¨ Ø§ÙĨÚ©
ĠØ§ØµÙģÙĩ Ø§ÙĨ
Ø¯Ùħ Ø§Øª
ĠØ¨ Ø§Ø³ØªØ§ÙĨ
Ø´Ùħ Ø§Ø±
Ø§Ø³ÛĮ ÙĪÙĨ
Ø§ÙĦÛĮ Ø§ÛĮÛĮ
ĠÙĩÙħ Ø³Ø±
Øº Ø§ÙĦ
ĠØ³ Ø§Ø¨ÙĤ
ĠÛ² Û¶
Ø¦ ÛĮ
ĠØ®Ø§Ø± Ø¬ÛĮ
Ú¯Ø± ÙģØª
ĠÙĨÙĤ Ø·Ùĩ
ÙĪÙĨ Ú¯
ĠØ§Ø³Øª Ø§ÙĨØ¯
ĠÚ©Ø§ÙĨ Ø§Ø¯Ø§
ĠØ§ÙĨØ¬ ÙħÙĨ
ĠØ³Ø§Ø®Øª Ø§Ø±
ĠØ§Ø· Ø±Ø§Ùģ
Ø§ÙĤ Ùĩ
in g
ĠØ¯Ø± ÙĪÙĨ
ÙĦÛĮ Ùħ
Ø§Ùħ Ø§
ØªÙĤ Ø¯
Ġ c
Ø¦ Øª
ĠØ´ÙĪØ± ÙĪÛĮ
ÙĨ ÙĪÛĮ
ĠÙģ Ø´Ø§Ø±
ĠÚ©Ø± Ùĩ
ĠØ¨ÛĮ Ø³Øª
h t
ĠØ¹ ÙĪ
ĠÚ¯Ø³ØªØ± Ø´
ĠØ¢ÙĪØ± ÛĮÙĦ
ĠÙģØ§Ø± Ø³
ĠØ¯Ø± ÙħØ§ÙĨ
ÙĨ ÛĮØ§
ÙħÙĨ Ø³ØªØ§ÙĨ
ĠÚ¯Ø³ØªØ± Ø¯Ùĩ
ĠØ§Ùħ ÙĪØ±
Ø´ Ø§ÙĩÛĮ
Ø¨ Ø±Ø§ÙĨ
ĠØ¹ Ø§ÙĦÛĮ
ĠØ³ Ø¹
ĠÙ¾ Ø´Øª
o f
ĠØ¨ ÙĪØ±
Ú¯Ø§Ùĩ ÛĮ
ĠÛ±Û³Û ¶
Ø¹ÛĮ ÛĮÙĨ
ĠÙĨÙĪ Ø§ÙħØ¨Ø±
ĠØ®ÙĪØ±Ø´ ÛĮØ¯ÛĮ
ÙĨÚ¯ ÛĮ
Ø° ÛĮ
Ø§Ø³ Ø±
ĠØª Ø§Ø¬
ĠÙĪÙĤ ØªÛĮ
ĠÙħØµ Ø±
ĠÙħÙĪØ¬ Ø¨
ĠØ³Ø±ÛĮ Ø§ÙĦ
Ùĩ ÛĮ
ĠØ¨ Ø³ØªÙĩ
ĠØª Ø¹ÛĮÛĮÙĨ
ĠØ±ÙĪØ¯ Ø®Ø§ÙĨÙĩ
ĠØ± ÙħØ§ÙĨ
Ø§ÙĨ Ø²
ĠØŃ ÙĪ
ĠØ¯ ÙģØ§Ø¹
ĠØ§ÙĦ ÙħÙ¾
Ø² ÙħØ§ÙĨ
ĠØ²ÛĮ Ø³Øª
Ø¨Ø±Ø¯ Ø§Ø±ÛĮ
ĠØ§Ø± ÙħÙĨÛĮ
ĠÚ©Ø´Ø§ÙĪØ± Ø²ÛĮ
ĠÙĤÙĩØ± ÙħØ§ÙĨ
ØªØ± Ú©
ĠØ¯Ø³ Ø§ÙħØ¨Ø±
Ú¯ Ø§ÙĨÙĩ
ĠÙĨÛĮÙħ Ùĩ
ĠÙģ ÛĮØ²
ĠÙħ Ø§ÙĩÛĮ
ĠØ± ÙģØªÙĩ
ĠØ´Ø¹ Ø±
ĠÚ©Ùħ ØªØ±
ĠÚ¯ ÙĪÙĨ
ĠØ³ Ø±Ø§ÙĨ
ĠØ²ÛĮ Ø§Ø¯
Ø¹ ØªÛĮ
ĠØ§Ø¯ Ø§Ø±Ùĩ
ÛĮØ¯ ÙĨ
ĠØª ÛĮØ±Ùĩ
ĠØ³Ø±Ùħ Ø§ÛĮÙĩ
Ø§Ùĩ Ø¯Ùĩ
ĠØ§Ø³ Ø±
ĠØµÙģ ØŃÙĩ
Ø¨Ø± Ú¯
ĠØ§ÙĦØ¨ ØªÙĩ
Ø®ÙĪ Ø§Ø³Øª
u s
ÙĪÙĦ ÛĮÙĨ
ĠÛ² Û·
Ø§Ø¦ ÙĦ
ĠÙħÛĮÙĦ Ø§Ø¯
ĠÙħÙĤ Ø¯
Ø¸ ÛĮÙħ
ĠÛ °
ĠÙħØª Ø±ÛĮ
ĠÙģ ÙĩØ±Ø³Øª
ĠÙĩÛĮ Ø¦Øª
ĠØ³ÙĨ Øª
ĠÙĨ Ø¨Ø±Ø¯
ĠØ¯ÙĪ Ø¨Ø§Ø±Ùĩ
ĠØ³Øª Ø§Ø±Ùĩ
0 0
ĠÚ¯ Ø§Ø²
ĠÙħ Ø§Ø¯
Ø§ ÙĩØ§ÛĮ
Ú© Øª
Øª ØŃ
Ø§Ùģ Ø²Ø§Ø±
ĠØ³ÙĦ ÙĪÙĦ
ĠØ¢Ø² Ø§Ø¯ÛĮ
ĠÚĺÙĪØ¦ ÛĮÙĩ
ÙĨ Ø¸
ĠØ´ ÙĪ
Ø±ÛĮ Ùħ
Ø¯Ø§Ø± Ø§ÙĨ
ĠØ± ÙĪØ§ÙĨ
ĠÙģ ÙĪØ±ÛĮÙĩ
ĠØªØ±Ú© ÛĮÙĩ
ĠÙħ Ø§ÙĨØ¯
ĠØ®ÙĪ Ø§Ø³Øª
Ġ t
ĠÙĨØ§Ùħ ÛĮØ¯Ùĩ
ĠÙĨØ§Ùħ Ùĩ
ĠÙ¾ÚĺÙĪÙĩ Ø´
ĠÙ¾ Ø´
ĠÙĩÙĨ ÙĪØ²
ĠÙĨ ÙģØª
ĠÚ© Ø§ÙĦÛĮ
ĠÚĺÙĪØ¦ ÙĨ
Ø³Øª Ú¯ÛĮ
Ø¯ ÙĦ
ĠØ³Ø§ÙĦ Ùĩ
Ġ Ù
ĠÙħØ¬ÙħÙĪ Ø¹
ĠÚ¯ ÙĪ
Ø´ ÙĤ
ĠÙĩÙĨ Ø±Ùħ
a c
ĠÚ¯ ÙħÛĮÙĨØ§
ĠØ®Ø± Ø§Ø³Ø§ÙĨ
ĠØ¬Ø´ÙĨ ÙĪØ§Ø±Ùĩ
ĠÙħÛĮØ±Ø² Ø§
Ú© Ùħ
ĠÙħ Ø§Ø´
ĠÙĩØ² ÛĮÙĨÙĩ
ĠÙ¾Ø±ÙĪ Øª
Ø¨ Ø´
ĠØª Ø³
Ø§ØŃ ÙĦ
Ø§Ú©ÙĨ Ø´
ĠØ¢Ùģ Ø±ÛĮÙĤ
ĠÙħÙĨ Ø¬Ø±
ĠØ¨Ø¯ Ø³Øª
Û±Û ²
ĠØ§ÙħÙĨ ÛĮØª
Ø¢ ÙĪØ±
ĠØ¢ Ø¨ÛĮ
ĠØ§ÙĦÙħÙ¾ ÛĮÚ©
ĠØ² Ø±
ÙĦ Ø§ÙĤ
Ø§ ÙĪÙĨ
ĠÙħØ¤ Ø³
ÙĤ Ø§ÙĨ
Ġ V
ĠÙĨ Ø¨ÙĪØ¯
ĠØ´ Ø§Ø¹
ĠØ§ÛĮÙĨ ØªØ±
ĠØŃ ÙħÙĦ
ĠØ§Ùħ ÛĮØ±
Øµ Ø¨
ĠÙħØª ÙģØ§ÙĪØª
ĠÙħØ¹Ùħ Ø§Ø±ÛĮ
ĠÙ¾ Ø§Ø±Ú©
ĠØ§Ø¯Ø¨ÛĮ Ø§Øª
ĠÙĨ ÛĮÚ©
ĠÛ±Û³Û ´
ĠØ¢Ø¨ Ø§Ø¯
ĠÙĪØ§ØŃ Ø¯
ĠØ¯Ø§ÙĨ Ø´Ú©Ø¯Ùĩ
ĠÙħØª Ø¹
Ùħ ÛĮØ±
ĠÙĨÙĪ Ø¹ÛĮ
ĠÙ¾ ÙĪÙĦ
Ø§Ú© Ùħ
Ø³ Ø§ÛĮ
Ø¨ Ø¹
ĠØ® Ø¯ÙħØ§Øª
ĠØ§ÛĮØª Ø§ÙĦÛĮØ§ÛĮÛĮ
ĠÚ©Ø§Ø±Ú¯Ø±Ø¯ Ø§ÙĨ
Ø§Ùģ Ùĩ
ĠØ§ÙħØ±ÙĪ Ø²Ùĩ
Ø² Ø§Ø±ÛĮ
ĠØ± Ø¶
ĠØ§Øµ Ø·
ĠØ¨Ø²Ø±Ú¯ ØªØ±ÛĮÙĨ
ĠØªÙĤØ±ÛĮ Ø¨Ø§
ĠÙĨØ¸ Ø§Ùħ
ĠØ´Ø± ØŃ
ĠÙĨ Ø±
ĠÙĩÙĨÚ¯ Ø§ÙħÛĮ
ĠÙħØ³ÙĦ ÙħØ§ÙĨ
Ú¯ÛĮØ± ÙĨØ¯
ĠÛ²Û°Û±Û ±
ĠÙ¾ÛĮØ´ ÙĨÙĩ
ĠÙħ Ø¨Ø§Ø±
Ø¨ ÙĪ
ĠÙĤ Ø§Ø¬
ĠÙĨÙħØ§ÛĮ ÙĨØ¯Ùĩ
Ø£ Ùħ
ĠÙ¾ÛĮ ÙĪØ³Øª
ĠØª Ú©ÙĨ
Ø§Ø± Ø§
Ø§Ø¦ ÛĮÙĦ
ĠØ¶ Ø¯
ĠØ± Ø§Ø¯ÛĮ
ĠÛĮÙĩ ÙĪØ¯ÛĮ
ÙĦ Ø²
ĠØ§Ø® ØªÛĮ
Ø§Ùģ ÙĤ
ĠØ¯Ø±ÛĮ Ø§ÛĮÛĮ
u r
o p
ĠØ§Ø± ÙħÙĨØ³ØªØ§ÙĨ
ĠØª Ø¯Ø±ÛĮ
ĠÚ© Ø§Ø±ÛĮ
ĠØ³ ÙĤ
ĠØ¯Ø§Ø¯ ÙĨØ¯
ĠÙħÛĮ Ø±
ĠÙħØ³Ø¦ ÙĦÙĩ
ĠÙĪ Ø§ÙĦ
ĠÙħØ± Ø§Ø³Ùħ
ĠÛĮÚ© Ø¯ÛĮÚ¯Ø±
ĠÙĪÙĤ Øª
ĠØ® ÙĦÛĮ
ĠØ³Ù¾ Ø§Ùĩ
ĠØ³ Ø§Ø¯Ùĩ
ĠØ§ÙħÙ¾Ø±Ø§Øª ÙĪØ±ÛĮ
ĠØ¹Ùħ Ø±
ĠÙĤØ· Ø¹
ĠØ§ÙĤØªØµ Ø§Ø¯
Ø¦ ÛĮÙĨ
ĠØªÙĦ Ùģ
ÙĪÛĮ ÙĪØ±Ú©
Ø§Ø± Ø´
e t
ĠÙħÙĤ Ø§
ĠÙħÙĨ Ø§Ø³Ø¨
ĠÙĦ ÙĨØ¯
ĠÙĩØ³Øª Ùĩ
ĠØ§Ø® ØªØµ
ĠØ®ÙĪØ§ÙĨ ÙĨØ¯Ùĩ
Ø³ Ù¾
Ø¢ ÛĮ
ĠØ¬ÙĨ Ø³ÛĮ
ĠÙħØ± ØªØ¨
ĠØ§Ø¬ Ø§Ø²Ùĩ
ĠÙħØ³Øª ÙĤÛĮÙħ
ĠÙ¾Ø¯Ø± Ø´
Ø¢ ÙĪØ±Ø¯
ĠØ§ÙĪ Ø§Ø®Ø±
ĠÙħØ¹ ÙĨØ§ÛĮ
ĠÙĦ ÙĪ
ĠÙĨÙĩØ§ÛĮ Øª
ĠØ¢Ø± Ø§Ùħ
ĠÙĨØ´ Ø¯Ùĩ
ĠÙģØ±Ø§ÛĮ ÙĨØ¯
ĠØ´ÛĮ Ø®
ĠØ¨Ø¹ Ø¯ÙĩØ§
i d
Ø¨ Ø§Ø²
an d
ĠÙģØ± Ø§
ĠÙ¾ÛĮ ÚĨ
ÙĪ ØµÛĮ
ĠØ¯ÙĦ Ø§Ø±
ĠÚ© Ø§Øª
Ø¢ ÙĪØ±ÛĮ
Â ł
ĠØ³ÛĮÙĨ ÙħØ§
Û² Û°
ĠØªÙħ Ø§ÙħÛĮ
ÙĤÙĦ Ø§ÙĦ
ĠØ¯ÙĪÙĦ ØªÛĮ
ĠÚĨÙĩØ§Ø± Ùħ
Ø¬ Ø²
Ú¯ ÙĦ
ĠØ·Ø¨ ÙĤÙĩ
ĠÙĪ ÛĮÙĦ
ĠÙħÙĪÙĤ Ø¹ÛĮØª
ĠØ´Ø®Øµ ÛĮ
ĠÙģØ± Ø³Øª
ĠØ§Ø³ØªØ± Ø§ÙĦÛĮØ§
ĠÙ¾Ø§Ø³ Ø®
ĠÙĤ ØªÙĦ
ĠÙĨÛĮ ÙĪÛĮÙĪØ±Ú©
ĠÙħØ¯ ØªÛĮ
ĠÚ©Ø´ Øª
ĠÙħØ± Ø²
ĠØŃ Ø§ØµÙĦ
o s
ĠØ§Ø³Øª ÙĤÙĦØ§ÙĦ
ĠÙĪØ¶ Ø¹ÛĮØª
ĠØ³ ÙĪØ±
ĠÙĨÙĤ ÙĦ
ĠØ² ÙĨØ¯
ĠÙĨØ²Ø¯ ÛĮÚ©ÛĮ
ĠØ¹ÙĦ Ùħ
ĠØ¹ Ø§ÙħÙĦ
ĠØ¨ Ø§Ø¯
ĠØ³ ÛĮÙĦ
ĠÙħØ´ ØªØ±Ú©
ĠØ§Ùħ Ø±
ĠÚ© Ø³ÛĮ
o w
ĠØ¨Ø± Ø¯Ùĩ
ĠØ³Ø¨ Ø¨
ĠØŃØ±Ùģ Ùĩ
ĠÙħ ÙĪÙĨ
ĠØ§ÙĦÚ©ØªØ± ÙĪÙĨ
ĠØ¹ Ø¶
ĠÛ² Û±
ĠØ®ÙĪØ¯ Ø´
ĠÙĪ Ø§Ú©ÙĨØ´
ĠØ§Øµ ÙĦ
ĠÙ¾Ø§Ø¯ Ø´Ø§ÙĩÛĮ
ĠØ® Ø¯Ø§
ĠÙĪ ØŃ
ÙĪÙĦÙĪ ÚĺÛĮ
ĠØ³ Ø®Øª
ĠØ±ÙĤ Ø§Ø¨Øª
¸ Û°
Ø§Ø³Øª Ø§ÙĨÛĮ
ĠÙħØª ÙĪÙĦØ¯
ĠØŃ Ø°
ĠÙħØ´ Ø§ÙĩØ¯Ùĩ
ĠØ¹ÙĦ Ø§ÙĤÙĩ
Øª Ø³
ĠØ¨Ø¹ Ø¯ÛĮ
ĠØ¬ Ø±Ùħ
ĠØ± ØªØ¨Ùĩ
i r
ĠÙħ Ø£Ùħ
ĠÛ²Û°Û±Û ²
ĠÙħØ³Øª ÙĤÙĦ
ĠØ¯Ùģ ØªØ±
Ġ K
Ø¨ Ú©
ĠÙĨ Øª
ØºØ± Ø§ÙģÛĮ
ĠÛ² Û³
Ø±ÛĮ Ø§ÛĮÛĮ
ĠØ¨ÙĦ Ú©Ùĩ
ĠÙģ Ø¶Ø§ÛĮ
ĠÙĤØ± Ø§Ø±Ø¯
ĠØ² ÙĨØ¯Ø§ÙĨ
ĠÙ¾ÛĮØ± ÙĪØ²ÛĮ
Ø§Ø± ÙĩØ§ÛĮ
Ø§Ø¨ Ø·
ĠÚ¯Ø±ÙģØª ÙĨ
ik ip
Ġ s
ÛĮ Ø³ÛĮ
ĠÚ¯ÙĪÙĨ Ø§Ú¯
ĠÛ²Û°Û°Û ¸
Ø§ ÙģØª
ikip edia
Ùģ Ø±Ø§ÙĨ
ĠØ¯ Ø¨ÛĮØ±
ĠÙħØ®Ø§ÙĦ Ùģ
ĠÙģØ± Ø§ÙĩÙħ
Ø¨ Ø®Ø´
Ø§ Ú¯Ø±
ĠÚ©Ø§ÙĦÛĮ ÙģØ±
ĠÙĩ ÙĦ
ÛĮÙĨ Ø§
ĠÙħØ· Ø±ØŃ
ĠØ§ÙĦ Ú¯
ĠØ±Ùĩ Ø¨Ø±ÛĮ
ĠØ±ÙĪ Ø´ÙĨ
Ø§ØŃ Ø¨
ÙĪ Ø§Ø²
ĠÙħÙĨ Øµ
ĠØ¯ ÙĤÛĮ
ĠØªØµÙĪÛĮ Ø¨
ĠØ§Ø´ Ú©
ĠØ¬ Ø°
Ø§Ø¬ Ùĩ
ĠÙĨØ¯ Ø§Ø´Øª
Ø³ÛĮ Ø§Ø±Ú©
ĠØ²ÛĮ Ø¨
ĠÙħØ§Ø´ ÛĮÙĨ
ĠØ° Ú©Ø±
ĠØŃÙģ Ø¸
ĠÙģ Ø¯Ø±
Ø§Øª ÙĪØ±
Ø· Ø§ÙĨ
ĠÙħØ®Øª ÙĦ
ĠÛ²Û°Û°Û ¹
ĠØ³Ø±Ø§ÙĨ Ø¬Ø§Ùħ
ĠÙĤ Ø²
ĠØ¯ Ø§Ø±ÛĮ
Ùģ ÙĦ
ĠØ¬ ØºØ±Ø§ÙģÛĮ
ĠØ³Ø¨ Ø²
Ø´ ÛĮØ±
Ùħ Ø¬
ÙĩØ± Ùĩ
ÙĨØ§ ÙĪØ±ÛĮ
ĠØ®Ø¯ ÙħØª
ĠØ®Øµ ÙĪØµÛĮ
Ø´ Ùĩ
ĠÙħØ´ Ø§Ø¨Ùĩ
ĠØ®ÙĪØ±Ø´ ÛĮØ¯
Ø±Ú© Ø²
ĠØ®Øµ ÙĪØµ
ÚĨ Ø§Ø±
Ø±ÙĪ Ø²
ĠÚ© ÙĪÙħ
Ø¹ Ø¨
Ù¾ Ø³
ĠØ´Ùĩ Ø±Ø¯
ĠØªØ¬ Ø§Ø±ÛĮ
ĠØ§Ø¨Øª Ø¯
ÙĦ ÙĪÛĮ
Ùħ Ø§ÛĮÛĮ
Ø§Øª Ø§
Ø®Øµ ÙĪØµ
ĠÙ¾ ÛĮÚ©
ÙĪÙĨ Ø§
Ø§Ø¯ÛĮ Ùĩ
ĠØ§Ø³ Ø§Ø³ÛĮ
ĠØ¨Ø± ØªØ±
ĠØ³ Ø§Ø³
ĠØ¹Ø¨Ø§Ø±Øª ÙĨØ¯
ĠÙĪ Ø±ÙĪØ¯
ĠÙ¾ÛĮØ´ÙĨÙĩ Ø§Ø¯
ĠÚ¯ ÙĨ
Ø§ÛĮ Ø²
ĠØ± ÛĮØ´Ùĩ
ĠØ¨ÙĨÛĮ Ø§ÙĨ
ÙĪØ´ ÛĮ
ĠÙħØ¬ ÙĦÙĩ
ĠÚ¯ Ø§ÙĩÛĮ
ÙĩØ§ÛĮ Ø´
ĠØ¹ Ø«
ĠÙĨÙĪØ´ Øª
Ø² ÛĮÚ©
ĠØŃ Ø±
ĠØ¹ Ø¯Ùħ
ĠØ® Ø±ÙĪ
Ø±ÛĮ Ø²ÛĮ
Ø§Ø±ÛĮ Ø³
ĠØ² Ùħ
ĠÙĦÙĨØ¯ ÙĨ
ĠÛ² Û°Û°Û°
ĠÙĨÙĤ Ø§Ø´ÛĮ
ĠØ¨ÛĮØ´ ØªØ±ÛĮ
ĠÚ©Ø§ÙĦÛĮÙģØ± ÙĨÛĮØ§
Ġ of
ĠÚ¯Ø±ÙĪÙĩ ÛĮ
ĠÙħÙĩÙĨØ¯ Ø³ÛĮ
Ø§ÙĨÛĮ Ùĩ
ĠÚ© Ø±Ø¨
ĠÙħÙĪ Ø²Ùĩ
ĠØ¨Ø§ÙĦ Ø§ÛĮ
ÙĪÙĨ Ø¯Ùĩ
ĠØµÙĨ Ø¹Øª
ĠØ¬ Ø§Ø¯Ùĩ
ĠÙĤ ÛĮÙħ
ĠØ³ ÙĪØ±ÛĮÙĩ
Ø¹ Ùħ
ĠØ« Ø§Ø¨Øª
ĠØ· ÙĦ
ĠØ±ÛĮ Ø§Ø¶ÛĮ
ĠØ®ÙĪØ§Ùĩ Ø±
Û±Û ·
ĠØ¯ÙĪ Ø³Øª
ĠÙ¾ Ø§
ĠØ¨Ø²Ø± Ú¯ÛĮ
ĠÙĪØ² ÙĨ
ĠØ² ÙĨØ¯Ùĩ
Ø§Ú© Ø³
ĠÙĪ Ø§Ø¨
Ø®ÙĪ Ø§Ùĩ
ĠÙĨ Ø§Ø¨
ĠØ§ÙĪ Ø§ÛĮÙĦ
ĠÙĦ Ø§Ø²Ùħ
ĠÙħ Ø§Ø²
ĠØ® Ø´Ú©
ĠØ´Ø§Ø® Ùĩ
ĠØµÙĨ Ø¹ØªÛĮ
Û±Û µ
ĠØ§ ÚĨ
ĠØ¯Ø³Øª ÛĮ
ĠØ³Ø± Ø®
Ø§Ø¬ ÛĮ
ĠØ¢ Ú©
ĠÙĤØ§Ø¬ Ø§Ø±
ĠØ¨Ø¯ ÛĮÙĨ
ĠÙ¾Ø±ÙĪ Ø§Ø²
ÙĪ Ø§ÛĮ
ĠÙĤÙħ Ø±ÛĮ
ÙĨ ØªÛĮ
ĠØ¯Ø±Ú¯Ø° Ø´ØªÙĩ
ĠÙħØª Ø¹Ø¯
ÚĨØ± Ø®Ùĩ
ĠÛ² Û¸
ĠÙģ ÙĨØ§ÙĪØ±ÛĮ
ĠØ§Ø¹ ØªØ±
ĠØ±Ø³ Ø§ÙĨØ¯
ÙĪ ØªÛĮ
ĠØ® ÙĪØ±
ĠØªÙĪ ØµÛĮ
Ùħ Ø³
ĠÚ©Ùħ Ù¾
ĠØ® ÙĦÙĤ
ĠÚ©Ø§ÙħÙĦ Ø§
ĠØ§Ø±Ø² Ø´
ĠÚ©ÙĪØ¯ Ú©Ø§ÙĨ
ĠÙĩ ÙģØªÙĩ
ĠØªØ£ ÙħÛĮÙĨ
ĠØª Ø±ÛĮ
ĠØ³ÙĦØ· Ø§ÙĨ
ĠØ· ÙĦØ§
ĠÙĤ Ø§Ø¨
Ùħ ÙĪÙĨ
Ø³ÛĮ Ø¯
ĠØ® ÙĪØ±Ø¯
ĠØ¢ÙĪØ± Ø¯Ùĩ
ĠÙħ Ø¨Øª
ĠÛ²Û°Û°Û ¶
Ø± Ø§ÛĮÛĮ
ĠØ§Ø®ØªÛĮ Ø§Ø±
ĠØ¯ ÙĤÛĮÙĤ
Ġ O
ĠÙħØ·Ø§ÙĦ Ø¹Ùĩ
ĠØ± Ú©
/ /
ĠÙĨÙħ ÙĪØ¯Ùĩ
ĠÙħØ°Ùĩ Ø¨ÛĮ
ĠØª ÙĪÙħ
ĠÚ¯ ÙĪØ±
Øº ÛĮØ±
ĠØ® Ø±Ø¯
ĠØ³ÙĨ ØªÛĮ
ĠØ¨Ø§ ÙĪØ±
ĠÙħÙĤ Ø§ÙĦÙĩ
ĠØ¹Ùħ Ø¯Ùĩ
ĠØ¨Ø± Ø²
ĠØ¹Ø±Ø¶ Ùĩ
ĠÙħ Ø²
ÙħØ§ÙĨ Ø¯
ĠÙħ Ø§Ø±Ú©
ĠÙĨ Ø¨
ĠÙħØ¹ ØªÙĤØ¯
ĠØŃØ³ Ø§Ø¨
ĠÙħØŃØµÙĪÙĦ Ø§Øª
ĠÚ¯ ÛĮØ±
ĠØ´ÛĮ ÙĪÙĩ
ĠØ± Ø²
t p
ĠØ±ÙĪ Ø§Ø¨Ø·
ĠÚ¯ Ø§Ùĩ
ÙĦ Ùħ
ĠØ¨Ø±Ø¬ Ø³ØªÙĩ
Ú© Ø±ÙĪ
ĠØ§Ø¨ Ø²Ø§Ø±
ĠØ§Ø¶ Ø§ÙģÙĩ
Ø³ÛĮ ÙĪÙĨ
ĠÛ±Û° Û°
ĠØªØ´ Ø®ÛĮ
ĠÙħØ¯ Ø§Ø±
ĠØ¬ Ø¹
Ġ [
ĠØ§ÛĮ ÙĦ
ĠØ§Ø³Ø± Ø§Ø¦ÛĮÙĦ
ĠÛ²Û°Û±Û ´
ÙĪ Ú¯Ø±
ĠØª Ø§ÛĮ
ĠÛ±Û³Û¹Û µ
Úĺ Ø§Ø¯
ĠØ§Øµ ÙĦØ§ØŃ
ĠØªØ¹Ø¯ Ø§Ø¯ÛĮ
ĠØµØŃ ÙĨÙĩ
n t
Ø³ Ø¯
ĠÛ±Û¹ Û°Û
ĠÚĨ Ú©
ĠØ§ØµØ· ÙĦØ§ØŃ
ĠØ´ Ø¨ÛĮÙĩ
ĠØ§Ø¨ ÙĨ
ĠØ± Ø¯Ùĩ
ĠØ± Ø¯
ĠÙħØªØŃ Ø¯
Ú© ÙĪÙĩ
Ø³ Ú©ÛĮ
ĠÙĪ Ø¸
ĠØ¬ÙĨ Ø¨Ø´
ĠØ¹ ØµØ±
ht tp
ĠØ§Ùĩ ÙħÛĮØª
ĠØ¬ Ø§
ĠØ³ ÙĪØ¯
ÙĪÙĦÛĮ Øª
âĢ į
ĠØ¨ÛĮØ± ÙĪÙĨ
ÙĪØ± Ø§
: //
ĠØ§Ø® ÛĮØ±
Ø ¡
ÙģØ± ÙĪØ¯
Ø± ÙĪÛĮ
ĠÚĨ Ø§Ø±
ĠØ¢Ø³ÛĮ Ø§
ĠÙħØ¬ Ø¯
ĠØ§Ùģ Ø³
ĠÙħÙĦ ÙĦ
ĠÛ²Û°Û±Û ³
ĠØªÙĪØµÛĮ Ùģ
ĠØ¯ Ø¹
ĠØ¬Ø§ÛĮ Ú¯Ø²
Ú¯ ÛĮÙĨ
ĠÛ²Û°Û°Û ·
ĠØ¯Ø§ÙĨØ´ Ø¬
ĠÙħÛĮ Ø§ÙĨÙĩ
ĠÙĦØŃ Ø§Ø¸
Ú¯ÙĪÛĮ ÙĨØ¯
ĠØ² Ø¯
ĠØ®Ø· Ø±
Ø± Ø¯Ùĩ
Û±Û ¶
ĠÙħØ±Ø¯ Ø§ÙĨ
Úĺ ÛĮÚ©
ĠØ¯ÙĤÛĮ ÙĤÙĩ
Ùģ Ø§ÛĮ
ĠÚ¯ Ø±ÛĮ
ĠØ¯ÙĪ ÚĨØ±Ø®Ùĩ
ĠÙ¾ÙĪØ´ Ø´
Ø± ÛĮÙĨ
ĠØ¬ÙĦÙĪ Ú¯ÛĮØ±ÛĮ
ĠØªØ¦ Ø§ØªØ±
Ø¢ ÙħØ¯
ĠÙħ Ø§Ø³
ĠØ´ÙĩØ± Ú©
o t
ĠØª Ø§ÙĦ
ĠÛ±Û³Û ²
ĠÚ¯Ø° Ø§Ø´Øª
Ù¾ ÙĪØ±
ĠÚ¯Ø±Ø¯ Ø´
ĠØ¨ ÙĪÙħÛĮ
ĠÙħÙĪ Ø³
Ø²ÛĮ Ø¹
ĠØ±Ø³ Ø§ÙĨÙĩ
Ø§Ùħ ÛĮÙĨ
ĠÙħØ± Ø§Ú©
ĠØ¯ ÙĨÛĮ
ĠÚ¯ Ø´Øª
ĠØª Ø§Ø±
ĠØ§ØªØŃ Ø§Ø¯ÛĮÙĩ
ĠÙģ ÙĪÙĤ
ĠØªØŃÙĤÛĮÙĤ Ø§Øª
Â» .
Ú¯Ø±Ø¯ Ø§ÙĨ
ĠÙĤ ÙĪØ§ÙĨ
ĠØ· ÙĪØ±
i g
ĠÙģ ÙĪÙĦ
ĠÙħ ÙģÙĩ
ÙģØ±ÙĪØ¯ Ú¯Ø§Ùĩ
ĠØ´ÙĩØ± Øª
Ø§ÙĪ Ø§
Ùħ Ø§Øª
ĠØ§Ø³ØªØ§ÙĨØ¯ Ø§Ø±Ø¯
Ø¨ ÛĮÙĦ
Ġ p
ÛĮÚ© Ø§
" )
ĠØªØ´Ø®ÛĮ Øµ
Ù Ĵ
ĠØ§Øª Ø§ÙĤ
Ø´ ØªÛĮ
ĠÙ¾ Ø§ÙĦ
ĠØ² ÙĨØ¬
ĠØŃ Ø§ÙģØ¸
ĠØ¹Ø¨ Ø§Ø³
ĠÙĦ Ø§ÛĮÙĩ
ĠØ¹Ø¯ Ø¯
ĠÚ©Ø§Ø± Ø¨Ø±
Ø§ÙĨØ¯ Ø§ÙĨ
ĠØ§Ø®ØªØµ Ø§Øµ
ĠØ¢ Ø´ÙĨ
ĠÙħØ§ÙĨ Ø¯Ùĩ
ĠØ´Ø¯ Øª
Û±Û ´
ĠØ³Ø±Ø¨ Ø§Ø²
ĠØªÙĦÙĪÛĮØ²ÛĮ ÙĪÙĨ
Ú©ÙĨ ÙĪÙĨ
u t
ĠÙħØª ÙĪØ³
Ø³ Ùģ
ĠÙħÙĤØ§ ÙĪÙħØª
ĠÛ²Û°Û±Û ¶
ĠÛµ Û°
ĠØµ Ø§ØŃØ¨
ĠØªØ¨ Ø±ÛĮØ²
ĠÙģ ÙĨ
ĠÙ¾ Ø§Ù¾
ĠØ§ÛĮØ³Øª Ú¯Ø§Ùĩ
Ø Ł
a d
ÙĦ ØŃ
ĠØª ÙģØ§ÙĪØª
ĠÚ©ØªØ§Ø¨ Ø®Ø§ÙĨÙĩ
Ġ J
Ø² Ø§
ĠØ° Ø®
ĠØ·ÙĪÙĦ Ø§ÙĨÛĮ
ĠØª Ø§Ø²Ùĩ
ĠØªÙĪ Ø²ÛĮØ¹
ĠØª Ø§Ø¨Ø¹
ĠØ® ÙĪÛĮØ´
ĠÙ¾ÛĮ Ø§Ùħ
ĠØ§Ø®ØªÙĦ Ø§Ùģ
ĠØ§Ø± Ø´Ø¯
ĠØ¨Ø§ ÙģØª
ĠØ¢ÙĨ Ú©Ùĩ
ĠÙ¾ ÛĮØ§
ĠÙĩ Ø§Ø±
ĠØ®ÙĪ Ø¨ÛĮ
ĠÙģÙĦØ³ ÙģÙĩ
ĠØ³Ø± Ø§Ø³Ø±
Ø±Ø¯ Ø±ÛĮØ§ÛĮÛĮ
ĠÙħÙĪÙģÙĤ ÛĮØª
ĠÙ¾ Ø§Ø±ÛĮØ³
ĠÙĨÙĤ Ø§Ø·
ĠÚ© ÙĨÚ¯
ĠØ§ÙĨ Ø³Ø§ÙĨÛĮ
Ú¯ ÙĪÙĨ
Ø´Ú© Ø§Ø±
ĠØ¯Ø± ÙĪ
ÙĪÙħ Ùĩ
ĠØ¢Ø³ÛĮ Ø¨
ĠØ± Ø£
ĠØ¹ ÙĤ
ĠØ¯Ø§Ø´Øª ÙĨ
ĠÙħØ®ØªÙĦ ÙģÛĮ
Ø· Ø±
ĠÚ©Ø§Ø± ÙĩØ§ÛĮ
ĠØªÙĪØ§ÙĨ Ø§ÛĮÛĮ
ĠÙĨÛĮØ± ÙĪ
ĠÙĪÛĮ ÙĦÛĮ
Û±Û ¸Û
ĠÙĪ ÛĮØ¯
ĠØ§ Ú©ÙĨÙĪÙĨ
ĠÙĩ ÛĮØ¯
ĠØ¯Ø± Ùĩ
ĠØ¬ Ø§ÛĮÛĮ
ÛĮÚ© Ø³
ĠÙĤØ· Ø¹Ùĩ
ĠØ§Ø³Ù¾ Ø§ÙĨÛĮØ§ÛĮÛĮ
ĠØ¯Ø± Ø³Øª
ĠÙĨ Ø§Ø±
ĠÙĪØ§ÙĤØ¹ ÛĮ
ÙĨØ§ÛĮ Ø¹
ÙĪ ØªØ±
ĠÚ¯ Ø±Ø§ÙĨ
ÙĤÛĮ Ø§ÙĨ
Ø¬ÙħÙĩ ÙĪØ±
ĠÙħÙĩØ§Ø¬ Ø±Øª
ĠØ´Ùħ Ø§Ø±
Ù¾Ø±Ø¯Ø§Ø² Ø¯
Ø³ Ø§Ø³
ĠØ§Ø¨ Ø±
ĠÙĤÛĮÙħ Øª
ĠØ¨ ÛĮØª
ĠÙ¾Ùĩ ÙĦÙĪÛĮ
ÛĮ Ø§Ø¨Ø¯
ĠÙĪÙĦ Ø§ÛĮØª
ĠØ¯ ÚĨØ§Ø±
Øª Ø®Øª
Ø¨ Ø§Ø¨
ĠØ¢ ÛĮÙĨ
ĠØµ Ø±Ùģ
Ø§Ø¯ Ú¯ÛĮ
ÙĪØ± ØªÛĮ
ĠÙĨØ³ ÙĦ
Ġ :
Ġ ÛĮØ²
ĠØ¹ÙħÙĦ Ú©Ø±Ø¯
ĠÛ±Û³Û ³Û
ĠØ¯Ø§Ø¯ Ú¯Ø§Ùĩ
Ø³ÛĮ ÙĦ
Ø³ ÛĮØ±
ĠØ¬ Ø³Øª
ĠÙĪ ÛĮÙĨ
ĠÙħÙĨØª ÙĤÙĦ
ÙĪ Ø°
ĠÙĪØ± ÙĪØ¯ÛĮ
Øª Ù¾Ùĩ
ĠØ± Ø§ÙĨ
ĠØ³Ú© ÙĪÙĨØª
ĠØ´ÙĩØ±Ø¯ Ø§Ø±ÛĮ
Ø² ÙĦ
ĠØ§Ø¯ Ø¹
ĠØ¨Ø§Ø²ÛĮ Ú¯Ø±Ø§ÙĨ
ĠÙĨ ÙĩØ§ÛĮÛĮ
ĠØ® Ø§ÙĨØ¯Ø§ÙĨ
en t
ĠØªÙĨ Ø¸ÛĮÙħ
ĠØ§ Ù¾
ĠÙħØ¤Ø³ Ø³Ùĩ
ĠØ³ Ø§ÛĮØª
Ø¢ Ø±
ĠÙĤÙĦ Ùħ
ĠÙ¾ ÛĮÙħ
ĠÛ³Û µ
ĠØµ ÙĨØ§ÛĮØ¹
ĠØ³ Ø±ÙĪ
ÙĤÛĮ Ùĩ
Ø§ ÙģØ±
ĠÙĤÙĪØ§ÙĨ ÛĮÙĨ
ĠÙħØŃÙħ ÙĪØ¯
ĠØ§ÛĮ Ø´Ø§ÙĨ
ĠØ¯ÛĮ ÙĪØ§Ø±
ĠØ¨Ø± ÙĤ
ĠÛ²Û°Û±Û µ
ĠØ¯Ø§ÙĨ Ø´Ùħ
ĠØ³ Ø§Ú©
ĠÙ¾Ø± Øª
ÙĦ Ø§Øª
ĠØ¸Ø§Ùĩ Ø±
Ø§Ø¯ Ø«
ĠØ§ØªØŃ Ø§Ø¯
ĠØ±Ø³ÛĮ Ø¯ÙĨ
ĠØ¯Ø± Ø®ÙĪØ§Ø³Øª
Ø§ÙĨÛĮ Ùħ
ĠØ³ Ø§Ø¨ÙĤÙĩ
ĠØ±ÙĪØ³ØªØ§ ÙĩØ§ÛĮ
ĠØ¸ Ø±Ùģ
ĠÛ²Û°Û°Û µ
Ġ d
ĠÚĨ ÛĮØ²ÛĮ
ĠÚ¯Ø± Ø§Ùģ
ÙĪÛĮ Ø²
Ø³ ÙĪØ±
Ø´ ÛĮÙĨ
ĠÙ¾ Ø³Øª
ĠØŃÚ© Ùħ
ĠØ§Ø³ Ùģ
ĠÙħÙĨ ØŃ
ĠÙĦ Ø±
ÙĪØª Ø§
ĠØ®Ø§Øµ ÛĮ
ĠØªÙĪ Ù¾
ĠÙ¾Ø§Ú© Ø³ØªØ§ÙĨ
ĠÚ©ÛĮ Ùģ
ĠØ®ÙĪØ§ÙĨ Ø¯Ùĩ
ÙħØ¯ Ø§Ø±
ĠØ´Ø¯ ÛĮØ¯
ĠÙĪ ÙĨ
ĠØ³ Ùħ
ĠÙĪØ±Ø² Ø´ÛĮ
ĠÙħØª ÙĪ
ĠÙĦØ¨ Ø§Ø³
ĠØ¹Ø¨ ÙĪØ±
ĠØ§ÙĦÚ¯ ÙĪØ±ÛĮØª
ĠÚĨ Ø±Ø§
ØªÙĪØ§ÙĨ Ø³Øª
ĠÙĦ Ø´Ú©
ÛĮÚ© Ùĩ
Ø¨ ÛĮÙĨÛĮ
Ø¯ÛĮ Ø¯Ùĩ
ĠÙĪ ÛĮØª
ĠØªØ¬ Ø±Ø¨Ùĩ
ĠØ¹Ø« ÙħØ§ÙĨÛĮ
ĠØ¬ØºØ±Ø§ÙģÛĮ Ø§ÛĮÛĮ
ĠØ±ÙģØª Ø§Ø±
Ùħ ØªØ±
ÙĪÙħ Ø§
ĠØªØŃØµÛĮÙĦ Ø§Øª
ĠÛ² Û¹
ĠØ±Ø§ÛĮ Ø§ÙĨÙĩ
Ú© ÙĪØ±
ĠÚ¯ÛĮÙĦ Ø§ÙĨ
ÙĨÙĪÛĮ Ø³ÛĮ
ĠØ¨ÙĦ ÙĪÚĨ
ĠÙ¾ÙĦÛĮ Ø³
Ú© Ø±ÛĮ
ĠÛĮÙĪÙĨ Ø§ÙĨÛĮ
Ø¨ Ø§ÙĨÛĮ
ÛĮ Ø§ÙĨ
ĠÚĺØ§ÙĨ Ø±
ĠÛĮ ÙĪØ§Ø³
ĠÚ¯ Ø²
ĠÙħØŃ Ø¨
ÛĮÙĨ ÙĪ
u n
ĠØª Ø®Øª
ĠÚ©Ø§Ø± Ø®Ø§ÙĨÙĩ
Ø§Ø¦ Ùħ
ĠØ³Ø±ÛĮ Ø¹
Ø§ÛĮ Ø³Ùĩ
ĠØªØŃ ÙĦÛĮÙĦ
Ø§ÙĤ ÙĦ
Ú© Ø´ÛĮ
ĠÙĤ Ø§ÙĦØ¨
ÙĨØ´ ÛĮÙĨ
Ø§ Úĺ
ĠÙ¾ ÙĪØ³Øª
ĠÙħØ´Ú©ÙĦ Ø§Øª
Ù¾ Ø°ÛĮØ±
ĠÙĨØ¸ ÛĮØ±
ĠØ®ÛĮ ÙĦÛĮ
ĠÙĨ ÙĪØ²
ĠØ§ÙģØª Ø®
Ú© ÙĪÙħ
ĠØ¨ ÙĨØ¯
Ø§Ø² Ø¯Ùĩ
ĠØ¢ÙĨ ÚĨÙĩ
Øµ Ùĩ
ĠÙģØ±Ùħ ÙĪÙĦ
Ø¹ ÙĪØ¯
ĠÙħØªØ¹ ÙĦÙĤ
Ġ( ;
ĠÙ¾Ø§ÛĮ ØªØ®Øª
ĠØ¨ØŃ Ø«
a g
ÙĪ Ø³ØªÙĩ
ĠÙģ ØªØŃ
ÙĪÛĮ Ùħ
ÙĤØ± Ø§Ø±
ĠØ¯Ø³Øª Ø±Ø³ÛĮ
ÙħÛĮÙĨ ÛĮ
Ú© ØªØ±ÛĮ
ĠØ¢ ÙĦÛĮ
ĠØ§Ú© Ø«Ø±
ĠÙĪ Ø§Ø±
ĠØ¢ÛĮÙĨ Ø¯Ùĩ
ĠÙħØ¨Ø§Ø± Ø²Ùĩ
ĠØ³ÙĪÙħ ÛĮÙĨ
Ø³ Ø±ÙĪ
Øµ Øª
ĠØ¨Ø±Ø®ÙĪØ±Ø¯ Ø§Ø±
Ú© Ø§Ùħ
ĠÙĤØ§Ø¨ ÙĦÛĮØª
ĠØµ Ø¯Ø§
ĠØ³ ÛĮØ±
ĠØ¯Ø±ÛĮ Ø§ÛĮ
ÛĮØ´ ÙĨ
ĠØ³ Ø§Ú©ÙĨ
Ûµ Û°
ĠØ§Ø¹ ÙħØ§ÙĦ
ĠØ¨Ø±Ø² ÛĮÙĦ
ĠØ±Ùĩ Ø¨Ø±
ĠØ¯Ùħ ÙĪÚ©
ĠÙ¾Ø§ÛĮ Ú¯Ø§Ùĩ
ĠØ² Ø¯Ùĩ
ĠØªØ£ ÛĮ
Ø¦ ÙĪ
i v
ĠØµ Ø§Ø¯
Ùĩ Ø§Ùħ
ĠÙħÙĤ Ø§ÛĮØ³Ùĩ
Ùģ Ø¹
0 1
Ú¯Ø² Ø§Ø³
ĠØ¨ÛĮÙħ Ø§Ø±Ø³ØªØ§ÙĨ
ÚĨ ÙĨÛĮÙĨ
ĠÙĤØ¨ ÛĮÙĦ
ĠÙħ Ø§Ø±ÛĮ
Ø§ÙĦ Ùħ
ĠÙĨ Ø§Ù¾
ĠÙĪØ±Ø²Ø´ Ú¯Ø§Ùĩ
ÛĮ ÙĪØ§Ø³
Û°Û µ
Ùħ Ø¯ÛĮ
ĠØ® ÙĪØ²
ÙĪ Ø§Ø±Ø¯
ĠØ¯Ùĩ ÙĨØ¯
ĠÙĤ Ø¶
ĠÙģØ±ÙħØ§ÙĨ Ø¯Ùĩ
ĠÙģØ± Ø§Ø±
ĠØ§ÙĦÚ¯ÙĪØ±ÛĮØª Ùħ
ĠØ¢ÙħÙĪØ² Ø´ÛĮ
ĠÙĪØ§Ø¨ Ø³ØªÙĩ
ĠØ¯ Ø´Ùħ
ĠØ§Øª Ùħ
ĠÙĤØ¯ ÛĮÙħ
ĠÙħØ±ØªØ¨ Ø·
ĠØªØ£ÛĮ ÛĮØ¯
ĠÙĨÚ¯Ùĩ Ø¯Ø§Ø±ÛĮ
ĠØªØºÛĮÛĮØ± Ø§Øª
ĠÙħ Ø±ÛĮ
ĠØ§Ø¨ Ø±Ø§Ùĩ
Ú©Ø± Ø¯Ùĩ
ĠØ§Ø±ÙĪÙ¾ Ø§ÛĮÛĮ
ĠØ´Ø§Ø¹ Ø±
ĠØª Ú¯Ø²Ø§Ø³
ØªÛĮØ¨ Ø§ÙĨÛĮ
ĠÚ©Ø§Ùħ Ù¾ÛĮ
ĠØ³Ø® ÙĨ
.. .
ĠÙħÙĨ Ø¨Ø¹
ĠÙ¾ÙĨØ¬ Ùħ
ĠÚ©Ø±ÙħØ§ÙĨ Ø´Ø§Ùĩ
ĠØŃØ° Ùģ
ÙĨ Ø§Øª
ĠÙĦ Øº
Ø³Øª Ø±ÛĮ
ĠÙĨ ØŃ
ĠØ±ÙĪØŃ Ø§ÙĨÛĮ
ĠÙĩØ¯ Ø§ÛĮØª
ĠØ´Ùħ Ø§
ĠÙĨ Ø§Ø´ÛĮ
ĠØ³ Ø§Ø²ÛĮ
Ġ U
o d
Ú¯ Ø§
Ø« ÛĮ
ĠØ§ØŃ Ø³Ø§Ø³
ĠØ¯ Ø§ÛĮ
ÙĨ Ø§Ø¯
ĠØ§Ùħ ØªÛĮ
Ġ m
ĠÙ¾Ø´ ØªÛĮØ¨Ø§ÙĨÛĮ
Ø¯ ÛĮÙĨ
ĠØ´ÙĨØ§Ø³ Ø§ÛĮÛĮ
Ø´ÙĩØ± Ø³ØªØ§ÙĨ
ÛĮÙħ Ø²
ĠØ± Ø§ÛĮØ¬
ĠÛ²Û°Û±Û ·
ĠÙ¾ ÙĪØ±
ĠØ²ÛĮ Ø±Ø¯Ø±ÛĮØ§ÛĮÛĮ
ĠØ®ÙĪØ² Ø³ØªØ§ÙĨ
ĠÙħ Ø§Ø¬
ĠÙĩ ÙĦÙĨØ¯
Ø¢ ÙĦ
ĠØ¯ ÛĮØ±
ĠÚ©ÙĦ ÙħÙĩ
ĠØ¯ Ø´Øª
ĠÙĩÙħÚĨ ÙĨØ§ÙĨ
ĠØ°Ø® ÛĮØ±Ùĩ
ĠØ¨ Ø§ÙĨ
Û² Û°Û
ĠÚĨØ´Ùħ Ùĩ
ĠØ¬Ø§ÛĮÚ¯Ø² ÛĮÙĨ
ĠØ± Ùħ
ĠÙĨÙħØ§ÛĮ ÙĨØ¯Ú¯Ø§ÙĨ
ĠÙ¾ÛĮ ÙĪÙĨØ¯
ĠØ³Ø§Ùħ Ø§ÙĨÙĩ
ĠØŃ Ø§Ú©Ùħ
ĠØ¯Ø±ÛĮØ§ ÚĨÙĩ
Ú© ÙĪÙĦ
ĠÙĤ Ø§Ø¯Ø±
ĠØ² Ø±Ø¯
ĠÙħØ¹ Ø§Ø¯ÙĦ
ĠÚ©Ø´ ÙĪØ±ÛĮ
ĠÙħØ¯Ø± ÙĨ
ĠÙĩÙħØ§ÙĨ ÙĨØ¯
ĠØ¯Ø± Ø§Ùħ
Ø¸ Ùĩ
ĠØª Ø®Øµ
ĠÛ´ Û°
ĠÙħØ³ÛĮ ØŃÛĮ
ĠÚ© Ø§Ù¾
ĠØ¨ ÙĪ
ĠÚ¯Ø° Ø§Ø´ØªÙĩ
ĠÙĤ ÛĮ
Øº ÙĨ
ĠØ¨ÙĨÛĮ Ø§Ø¯
ĠØ§Ø¹ØªØ± Ø§Ø¶
Ø´Ø¯ ÙĨØ¯
ĠÚ©Ø§Ø± Ø´ÙĨØ§Ø³ÛĮ
ĠØ¬Ø° Ø¨
ĠÙ¾ Ø¯ÛĮØ¯
ĠÚ¯ ÙĪÛĮ
ĠÛ³Û ²
ĠÙ¾ÛĮØ´ Ø±ÙģØª
Ø§ÙĨØ¯ Ø§Ø²ÛĮ
ĠØ± ÙĪÙĨ
ĠÛ²Û°Û°Û ´
ĠØ¨ Ú©Ø§Ø±
Ø§Ø¯Ùĩ Ø§ÛĮ
ĠÙħØ·Ø§ÙĦ Ø¹Ø§Øª
ĠÙħÙģÙĩ ÙĪÙħ
ĠÙĨÙĤ Ø±Ùĩ
ØªØ¨ Ø§Ø±
ÙĨØ¯ Ø±Ø§ÙĨ
ĠØ§Øª Ø±ÛĮØ´
ĠÙ¾Ø±Ø¯ Ø§Ø²
ĠÙģÛĮØ² ÛĮÚ©
Ø§ÙĦ ØŃ
ĠÙĩÙħ Ú¯Ø§ÙĨÛĮ
ĠÙĦ ÛĮÙĨ
ĠÙģØ± Ø¶
ĠÙĩÙħ ÛĮØ´Ùĩ
ĠØ§ÙĦ ÛĮ
ĠÚ©ÙĨ ÛĮØ¯
ÙĪØ± ÙĪ
ĠÙĪÛĮÙĦÛĮ Ø§Ùħ
ĠÚ¯ÙĪÙĨØ§Ú¯ ÙĪÙĨ
Øª ÛĮÚ©
ĠØ¬Ø§ÛĮ Ú¯Ø§Ùĩ
ÙĪØ· Ùĩ
ĠÙĨÙĩ Ø§Ø¯
ĠØ´ÛĮØ± Ø§Ø²
ĠÙħÙĤØ¯ Ø³
ĠÙħØª ØµÙĦ
ĠÛĮÚ© Ùħ
ĠÙħØ¹ Ø¯
ĠÙģ Ø±ÛĮ
ÙĪ Ø§ÙĨÛĮ
ĠÙĪ Ø§ÙĦÛĮ
ĠÙĨÙģ ÙĪØ°
ĠØ³ÛĮ Ø³ØªØ§ÙĨ
Ø¬ Ø§ÛĮÛĮ
ĠÙĨØ´ Ø§ÙĨÙĩ
ĠØ¯ ÙĪØ¯
ĠØ¯Ùĩ ÙĨØ¯Ùĩ
Ùħ Ø§Ø±
ĠØªØ¯Ø±ÛĮ Ø³
ĠØµ ÙĦØŃ
ĠØ¨ Ø´Ø±
ĠØ® Ø§Ùħ
ÙĪØ§ÙĨ Ùĩ
Ø¨ Ø±ÙĪ
ĠÚ© Ùģ
ĠÙħØŃØ¨ ÙĪØ¨
ĠÚĨ ÙĨØ§ÙĨ
ĠÙĨØ´ Ø¯
ĠØ± ÛĮØ²
ĠØ¹ Ú©Ø³
Û°Û ´
ĠÙĨØ§Ùħ Ø²Ø¯
ĠØ¨ Ø§Ø³ØªØ§ÙĨÛĮ
ĠØ§ÙĦÚ©ØªØ± ÛĮÚ©ÛĮ
Ø§Ùħ Ù¾
ĠÙħØ§ÙĦ Ú©
ĠØŃ Ø¬
ĠÚ©Ø±ÛĮ Ø³Øª
ĠØ¹Ø±Ø¨ Ø³ØªØ§ÙĨ
³ Û°
Ú© ÙĦÛĮ
Ø³Ú© ÙĪ
ĠÙĨÙĪ Ø§Ø²
ÙħÛĮÙĦ Ø§Ø¯ÛĮ
ĠØ± Ø¶Ø§
ĠÙĨÙĤØ´ Ùĩ
or g
Ú¯Ø± ÙģØªÙĩ
ĠÚĨ ÙĩØ±Ùĩ
ÙħØ§ÙĨ ÙĨØ¯
ĠÙģØ±Ø¯ ÛĮ
es s
_ _
ÙĪÚ© Ø³
ĠÙĤ ÙĪÛĮ
ÛĮÙĨ Ø²
Ø±ÛĮ Ø³
Ø§ÙĦ Ø¹
ĠØ§Ø¬ Ø±Ø§ÛĮÛĮ
ĠØ¨Ùĩ Ø¨ÙĪØ¯
ĠØ§Ùĩ Ø¯
ĠØŃÛĮ ÙĪØ§ÙĨ
Ø§Ø± ØªÛĮ
Ø¨ Ø·
ĠÙħØ³ Ø§Ø¦ÙĦ
ĠØŃÙĦ ÙĤÙĩ
ĠØ¹ ÙĤØ¨
Û°Û ·
ĠÚĨ Ù¾
ĠÛĮ ÙĪ
ĠØ¬ ÙĪØ±
Ø§Ø °
Ø¨ Ø§ÛĮ
Ø¦ ÙĪÙĨ
ĠØ¹ Ø´ÙĤ
ĠØ§ÙħØ±ÙĪ Ø²
ĠØ¬ÙĨÚ¯ ÙĦ
Û°Û ²
ĠÙħØŃ Ø§ÙģØ¸
Ø¯Ø§Ø± ÙĨØ¯
ĠÙ¾ÛĮØ§ Ø¯Ùĩ
ĠØ§ÛĮ Ø¯Ùĩ
ĠØ³ Ø±Ú©
ĠÚ© Ø³Ø§ÙĨÛĮ
ĠÙħÙĩ Ø¯ÛĮ
ĠØ§ÙĦ Ùħ
ĠÙĨ ÙĪØ¨
ĠÚ© Ø§Ø®
ĠØ¯Ø§Ø± ÙĪ
ĠÚ©ÙħÛĮ ØªÙĩ
ĠÚ©ÙĨ ÙĪÙĨÛĮ
ĠÙĤ ØµØ¯
ĠØ¹ Ø±ÙĪ
ĠÚ©Ø´ ÛĮØ¯Ùĩ
ĠÙĩÙĪ Ø§ÛĮ
ĠØ® ÙĪØ¨
Ùģ Ø±Ø¯
Ø§Ø¦ ÙĪ
Ø§Ø± Ùģ
ÚĨ ÙĨØ¯
Ù Ģ
ĠØ§ÙĪ Ø³Øª
ĠÙĩ ÙĪØ´
ÙħØ§ÙĨ Ø¯Ùĩ
ĠØªØ§Ø¨ Ø³ØªØ§ÙĨÛĮ
ĠØ¨ ÙĨØ¯Ø±
Ú¯Ø± Ø§ÛĮÛĮ
ĠØ¨Ùĩ ÙħÙĨ
ĠØ±ÙĪ Ø§ÛĮØª
ĠØ¶ Ø±Ø¨
ĠÙħ Ø§Øª
ÙĦÛĮ Ù¾
ĠØ³ Ø¯
ĠØ´ Ø¨Ùĩ
i m
Ø¯ÛĮ Ø³
ĠÚ© Ø§ÙģÛĮ
ÙĪØ³ Ùģ
Ø² Ø§Ø¯
ĠÙĪ Ø§Ø³
ĠÚĺ ÙĨ
Ø¯ Ø§ÙĨØ¯
ĠØ¨Ùĩ ØªØ±
ĠØ§ÙĨØª Ø¸
Ø´ÙĨ Ø§ÙħÙĩ
ĠØ¨ÙĦÙĪÚĨ Ø³ØªØ§ÙĨ
Û°Û ¶
ĠØ³ ÙĨØ¯
ĠØ¹ÙĪ Ø§ÙħÙĦ
ĠØ§Øµ ÙĪÙĦ
ĠÙħ Ø®ØµÙĪØµ
ĠÙĤØ± ÙħØ²
ĠØ±Ø§ Ú©
ÙĪÚ© ÛĮ
ĠØµ ÙģØ±
ĠÙ¾ÙĨ Ø§Ùĩ
ĠØ³ÛĮÙĨ ÙħØ§ÛĮÛĮ
ĠÙ¾ÛĮØ´ ÛĮÙĨ
ĠÛ±Û¸Û ¹Û
ĠØŃØ¯ Ø§ÙĤÙĦ
ĠÙĩÙĨØ±Ùħ ÙĨØ¯
Ú¯ Ùĩ
ĠØ¯Ø± Ú¯ÛĮØ±ÛĮ
ØŃ Ø³ÛĮÙĨ
ĠØ§ÙħØªÛĮ Ø§Ø²
ĠÙħØ§Ø² ÙĨØ¯Ø±Ø§ÙĨ
ĠØ§Ø³ ÛĮØ¯
ĠØ´ Ø§ÛĮ
s t
ĠØ¯ ÛĮÙĨÛĮ
ĠÙħÛĮ ÙĨ
ĠÙħØ¬ Ø¨ÙĪØ±
Ø´Ú© ÙĦ
ĠÙħØ¹Ùħ ÙĪÙĦ
Ø¯Ø§ÙĨ ÙĨØ¯
ĠÙĨØ´ Ø³Øª
Ø§Ø¯ Ø§Ø±
ĠØ¯ÛĮØ¯ Ú¯Ø§Ùĩ
ĠÙħÙĩ ÙħÛĮ
ĠÙħØ³Ø¦ ÙĪÙĦ
e m
ĠÙĤØ§ÙĨ ÙĪÙĨÛĮ
ĠÙħØª ØºÛĮØ±
Ø§ÛĮ ÙĤ
ĠÙĤØ± Ø¢ÙĨ
ĠÙ¾ Ø§ÙĨ
ĠØ§Ùĩ Ø§ÙĦÛĮ
Ùħ Ø±Ø¯
ĠØª Ø²
ÛĮÙħ ÙĨ
ĠØ¹Ø¨Ø¯Ø§ÙĦ ÙĦÙĩ
ĠØªÙĪ Ø¶ÛĮ
Ø³ ÙĦÙĩ
ĠÙĨ Ø§Øª
Ġ /
ÙĪÙĦ Ùģ
ĠÙģ ÙĨÛĮ
Ø§Ùħ ÙĪÙĨ
ĠÚ¯Ø±ÙģØª ÙĨØ¯
ĠØ¬Ø¯ ÙĪÙĦ
ĠÙħØŃ Ø§Ø³
ÙĨÚ¯ Ø§Ø±
ĠØ§Ú¯Ø± ÚĨÙĩ
Ø§Ø¯ ÙĪ
ĠÙħØ± Øª
ÙĨØ¬ ÛĮ
Ġ Ġ
ĠÙħÛĮÙĦÛĮ Ø§Ø±Ø¯
ĠØ¢ ÙĨØ¯
ĠØ§Ø¨Ø±Ø§Ùĩ ÛĮÙħ
ĠØ®ÙĦÛĮ Ø¬
Ùģ ÙĪØ±Ø¯
Ø§ÙĨØ¯ Ø±
ĠØ§ÙģØª Ø§Ø¯
Ø³ ÙĪØ§Ø±
ĠÙĨ ÙĪØ±ÛĮ
ĠØ¯Ø§Ùħ ÙĨÙĩ
ĠØ¯Ø§ÙĨ Ø³Øª
ĠØŃÙģ Ø§Ø¸
ĠØ§Ø³ Ø¨
ĠØµØ¯ Ø§ÛĮ
ĠØ® Ø§ÙĦ
ĠØ§ÙħÙ¾Ø±Ø§Øª ÙĪØ±
ĠØªØ¨ ÙĦÛĮ
u m
w w
Ø¢ ÙĩÙĨÚ¯
ĠØ¯ ÙħØ§ÛĮ
ĠÙħØ¯ ÙĨÛĮ
ĠØ§ØŃØªÙħØ§ÙĦ Ø§
ÙĨ ÙĪØ´
Û°Û ±
Ø± Ø¶Ø§
ĠÛ³Û ¶
ĠØ§ ÙĤÛĮØ§ÙĨ
ĠØ§ÛĮ Ø²
ĠÙĩÙĪØ§Ù¾ÛĮÙħ Ø§
ĠÙħÙĤ Ø±
Ġ b
ĠØ¨ÛĮÙħ Ø§Ø±
t h
Ù¾ Ø°ÛĮ
ĠØ§Ø¹ ØªÙĤ
Ø¨ÙĪØ± Ú¯
ĠÙĨ Ø§Ú¯
ĠÙģØ§Ø± Øº
ĠØ§ÛĮ ÙģØ§ÛĮ
ĠØ³ÙĪØ¦ Ø¯
ĠØ¢Ùħ Ø§Ø¯Ùĩ
ĠØº ÙĦ
Ø²ÛĮ Ùĩ
Ú¯ ÙģØª
ĠØ± ØŃ
ĠØ¨ÛĮØ´ ØªØ±ÛĮÙĨ
Ù¾ Ø§
Ø´ ÙĪ
ĠØ¨ Ø§ÛĮ
ĠØª Ø§Ú©
Û² Ûµ
ĠÙħØŃØ§Ø³ Ø¨Ùĩ
Ġ g
ĠØ³ ÙĦÛĮ
ĠÙģØ¶ Ø§ÛĮÛĮ
ĠÙ¾Ø± ÙĪØ±Ø´
ĠØ³ÙĦ Ø³ÙĦÙĩ
Ø¨ ÙĨ
ĠØª Ø±Ø¨
ĠØ¢ ÙĩÙĨ
ĠÛ±Û¹Û ¹Û°
ĠÛ¶ Û°
ĠÙħØ³ÛĮ ØŃ
ĠÙĨØª Ø§ÛĮØ¬
ĠÛ²Û°Û±Û ¸
ĠÙĤØ±Ø§Ø±Ø¯ Ø§Ø¯
ĠØ§Ø³ Ú©Ø§Ø±
Ø²ÛĮ Ø¯Ùĩ
ÙĪØ± Ùĩ
ÙĪÙĦ Øª
Ùħ Ø§Ùĩ
ĠÚ©ÙĦÛĮ Ø³Ø§ÛĮ
ĠØ¨Ø± Ø§Ø¯
ÙĪÛĮ ÚĨ
Ø§Ùģ Ø¹
Ø³Øª ÙĪÙĨ
e c
ĠÙĨ ÙĩØ§
ĠØ´ ÙĦ
ĠØ³Ø§ÙĨ ØªÛĮ
ĠØª ÙĨÚ¯
ĠØ¯ÙĪ Ø³ØªØ§ÙĨ
ĠÛĮÙĪÙĨ Ø§ÙĨ
ĠØµ ÙĪØ±ØªÛĮ
Ø¨Ø± Øª
ĠØ±Ø£ ÛĮ
ĠÙħØªÙĪØ³ Ø·
ĠÚ© ÙĪØ´
Ø§ÙĨ Ø¯Ùĩ
ĠÚ¯Ø±Ø¯ ÛĮØ¯Ùĩ
ĠÛ²Û°Û°Û ³
ĠÚĨ ÛĮØ²
ÛĮ ÙģÙĩ
ĠÙĨÙĪ Ø§ØŃÛĮ
ĠÛ²Û°Û°Û ²
ÛĮØ¯ ÙĨØ¯
ĠØ§Ø´ Ø¹
ĠÚ¯Ø±Ø¯ Ø¯
ĠØ® Ø±ÛĮØ¯
ĠØªØ§Ø¨ Ø³ØªØ§ÙĨ
Ø§Ø¹ ÛĮÙĦ
ĠÙħØ³ÙĦÙħØ§ÙĨ Ø§ÙĨ
ĠÙĨ Ú©
ĠÙħØ¯ Ø±Ú©
ĠØªØ¬ Ø§Ø±Øª
Ġ n
ĠØ§ÙģØ± Ø§Ø¯ÛĮ
ĠÙģ Ø¶Ø§
ĠØªÙĪØ¶ÛĮ ØŃ
ĠÚĺØ§Ù¾ ÙĨÛĮ
ĠÙĨ ØµØ¨
Ġ 3
ĠØ¢ Ùĩ
ĠÙħØ´ Ø±ÙĪ
Ġ http
ĠÚ©ÙĨ ÛĮÙħ
ĠØ¢ÙħØ±ÛĮÚ© Ø§ÛĮ
ĠØ¬Ø¯ÛĮØ¯ ÛĮ
ĠØ®Ø· ÛĮ
ĠÚ©ÙĪØ¯ Ú©
ĠØ¨ ÙĤ
Ø´ÙĨ Ø¨Ùĩ
Ø§ÙĪ ÛĮØ±
ĠØ¢ Ø¯
ĠØªØ¨ÙĦÛĮ Øº
Ø² Ùħ
ĠÙĨ Ø§Ø¯Ø±
ĠØ³ Ø¹ÛĮ
Ø²Ø¯ Ø§ÛĮÛĮ
ĠÙĦ ÙĪØ¦
ĠØ® Ø±Ùħ
ĠØ¹ Øµ
ĠÙĨ Ú¯Ø§Ùĩ
Ø± Ø§Ùħ
Û² Û´
Ùħ Ø§Ø±Ú©
ĠÙħØ§Ø¯Ø± Ø´
Ø¯ Ø³Øª
ĠÙĨÙħ Ø§ÛĮØ¯
ĠÙģØ±ÙħØ§ÙĨ Ø¯ÙĩÛĮ
ÙĦ ÙĪØ¨
ĠØ¨ Ø³
ĠÚ©ÛĮÙģ ÛĮØª
ÙĤ Øª
ĠØ³ Ø§ÛĮ
ĠÙħØ´Ùĩ Ø¯
Ġ f
Ø¬ ÙĪØ§ÙĨ
ĠÙħÙĪ Ø§ÙģÙĤ
ĠØ¢ Ù¾
Ø¨ ÙĨØ¯
r a
ĠÙĪØ¸ ÛĮÙģÙĩ
ĠØ³ÙĪ Ø®Øª
ĠØ²ÙħÛĮÙĨ ÛĮ
ĠØ§Ø´ Øª
ĠØ¯Ø¹ ÙĪØª
ÙĤÛĮÙĤ Øª
ÙĨ Ú©
ĠØ§Øª Øµ
ĠØ±Ø§Ø¯ÛĮ ÙĪ
ĠØ¨Ø§Ø² Ø±
Ø¨ ÙĦÛĮ
ĠØ§Ø¨ ÙĪØ§ÙĦ
ĠÙħØ±Ø§Ú© Ø²
ĠØ²ÛĮ Ø¨Ø§
Ø§Ø¯ Øª
Ø§Ø¨ Ø±ÛĮ
ĠØ¹ Ø§Ø´
ĠÙħÙĪ Ø´Ú©
ĠÙĪ Ø§Ø´
ĠØ§Ø³Ú© Ø§Øª
ÛĮØ² Ùĩ
ĠÙĩÙĪØ§ Ú¯Ø±Ø¯
ĠØ¨ Øº
Ù¾ ÙĪØ´
ĠÙģ ÛĮÙĨ
ĠØ¶ Ø±
Ø¬Ùĩ ÛĮØ²
ÚĨ Ùħ
ĠÚĨ ÛĮÙĨÛĮ
ĠØ·Ø¨ÛĮ Ø¹Øª
ĠØ³ÙĤ ÙĪØ·
o v
Û³ Û°
ĠÛ±Û¹Û¹Û ¹
ĠØ´ Ø§Ø±
Ø² ÙĨØ¯
ĠØ¯ Ø§
Ø¨Ùĩ Ùĩ
ĠØ´ÛĮ Ø¹Ùĩ
Ú¯ Ø§Ø±ÛĮ
ĠØ¯ÛĮØ¯ Ø§Ø±
ĠÚ©ÙĨ ÙĨØ¯Ùĩ
ĠÛ±Û³Û ±Û
ĠÙĨ Ø§ØµØ±
ĠØ±ÙĪ Ø³
ĠÙħØŃ ÙĤ
Ø±ÙĪ Ø´
Ø§ ÙĪÛĮÙĩ
ĠÙ¾ Ø¯ÛĮØ¯Ùĩ
ĠÙħØ³Øª ÙĨØ¯
ĠÙħÙĪ Ø§Ø¬Ùĩ
ĠØ¬Ø§Ùħ Ø¹
Øª Ø§ÙĨ
ĠÙ¾Ø±ÙĪØª Ø¦ÛĮÙĨ
ĠÛ±Û¹Û¹Û ¸
ĠÚ¯ÛĮØ§Ùĩ Ø§ÙĨ
ĠØ§ÙĦ Ùģ
ĠÚ©ÙĪÙħ ÙĪÙĨÙĩ
ĠØ³ÙĦØ· ÙĨØª
ĠÚ© Ø§Ø´
ĠÙħØŃØ¯ ÙĪØ¯Ùĩ
ĠÙĦ ÙĪÙĦÙĩ
p h
ĠÙħØ¹ Ø§ØµØ±
Ø§Ø¨Ø± Øª
ÙĪ ØŃ
ĠØª Ø¬ÙĩÛĮØ²
ĠÚ©Ùĩ ÙĨ
ĠÙģÙĦ Ø²
Ùĩ Ø§Ø±
ĠÙĪÛĮØ± Ø¬
ĠØ¶ ÙħÙĨ
an t
ĠØ¬Ø² Ø¦ÛĮ
ĠÛ²Û°Û°Û ±
Ø³ÙĦ Ø·
ĠØºØ° Ø§ÛĮÛĮ
ĠØ¹ ÛĮÙĨ
ĠØ¯Ø§ÙĨ Ø³ØªÙĩ
Ø® ÛĮØ±
ĠØ¶ Ø¨Ø·
ĠÚ©Ø±Ø¯ Ø³ØªØ§ÙĨ
ĠØ¨Ø± ÙĪØ²
ĠÙģØ± Ø§ÙĪ
ĠØ¬ÙĨÚ¯ ÛĮ
Ù¾ Ø§Ø±
ĠÚ© Ø§Ø¨
ĠÚ¯Ø° Ø´Øª
ĠÙĩÙħ ÙĪØ§Ø±Ùĩ
ĠØ§Ø¹ØªÙĤ Ø§Ø¯
i b
Û³Û µ
ĠØ¹ Ú©
ĠÚ¯ÛĮ Ø±Ø¯
ĠÙħ Ø§Ø±Øª
ĠÙĤØ· Ø±
ĠØ® Ø§ÙĪØ±
ĠØ¨ Ú¯ÛĮØ±Ø¯
ĠØ³ÙĪ Ø³ÛĮ
ĠØ¨Ø§Ø² Ø³Ø§Ø²ÛĮ
ÙħØŃ ÙħØ¯
ĠØ´ Ø§
ĠØ³Ùĩ Ø§Ùħ
ĠÙĩÛĮØ¯ Ø±ÙĪ
ĠØ±ÙĪ ÙĨØ¯
ĠÚĨÙĩ ÙĦ
Ø¨ Ø§Ø²ÛĮ
ĠØ¢ Ú¯
ĠØ¨Ø±Ú¯ Ø²Ø§Ø±ÛĮ
ĠØ´ Ú©Ø§Ø±
ĠØ¨Ø± ÙħÛĮ
ĠØ¹ ÙħØ¯
ĠØ±ÙģØª ÙĨ
u l
Ø§Ø±Ú© Øª
ĠØ¢ÙģØ±ÛĮÙĤ Ø§
ĠØ¯ÙħÙĪÚ© Ø±Ø§Øª
ĠÙħØª Ùħ
ĠT he
ĠØ¹ÙĨ Ø§ØµØ±
ĠÙģÙĦ Ø²ÛĮ
ĠÙħØº Ø²
ĠØ§Ø® ÙĦØ§ÙĤ
ĠÚ© Ø±ÙĪ
ĠÙħØŃ Ú©ÙĪÙħ
ĠÙħØ´ Ø§ÙĪØ±
o c
ÙĨÙħ Ø§ÛĮØ¯
ĠÚĨ ÙĪØ¨
Ø¬ Ø§ÛĮ
ĠÙĨ Ø§
ĠØ±ÙĤ Øµ
ØŃÛĮ ØŃ
ĠØ¨ ÛĮÙĦ
Ø§ÙĤ ÛĮ
ĠÙ¾ÛĮÙħ Ø§ÙĨ
ĠØ³Ø± ÙĪÛĮØ³
ĠØ§Ø³Øª ÛĮ
ĠØ¯Ø³Øª Ú¯ÛĮØ±
ĠÛ±Û¸Û ¶
ĠÙħØ§ÛĮ Ú©ÙĦ
ĠÙĨÙħ Ø§Ø¯
ĠÚ¯ ÙĪÛĮØ´
ĠØŃØ§ÙģØ¸ Ùĩ
Ùħ Ø§ÙĩÛĮ
ĠÙĨÙĪØ´ ØªÙĨ
Øª ÙĪÙĨÛĮ
ĠØ¬ ÛĮÙħØ²
ĠØª ÙĪÙĨ
Û³Û ²
ĠØ´ÙĩØ± ÙĩØ§
ĠÙģØ±Ø§ÙĪ Ø§ÙĨÛĮ
Û² Û²
ĠØ¯ÙĨÛĮ Ø§ÛĮ
ĠØ´ Ø´Ùħ
ĠÙģÙĦ ÙĪØ±
ĠÙħØ¤ Ø«Ø±
ĠØ¸Ø±Ùģ ÛĮØª
ĠÙĨØ¸ Ø§Ø±Øª
ĠØ¬ Ø¨ÙĩÙĩ
at ion
ĠØ¨ Ø³Øª
ĠØŃ ÙĤÛĮÙĤØª
Ùģ Ø§ÙĦØª
ĠÚ¯Ø° Ø±Ø§ÙĨ
Ġ âĢ
ĠÛ±Û¸Û ·
Øµ Ùģ
ĠØ³Ø± Ø·Ø§ÙĨ
ĠØŃÙģØ§Ø¸ Øª
ĠÙħÙĦ Ú©
Ú© ÛĮØ¯
ĠÙĨ Ø§Ø®
ĠÛĮ Ø§ØªØ§
ĠØ§Ø ¸
ĠÚ©ÙĦØ§Ø³ ÛĮÚ©
ĠÙĤ Ø¨Ø±
ĠØ± ÙħØ²
ĠØ§ÙĨ ØŃ
ĠÂ ł
ÙĦÛĮ Ùģ
ĠÙħÙĦ Øª
Ù¾ ÛĮØ´
ĠÚ©Ùħ ÙĪÙĨÛĮ
ÙĪØ± Ú¯
ĠW ikipedia
ĠÙĨ Ø§Ø´
Ø§Ø® ØªÛĮ
ĠØ® Ø´
ĠÛĮ Ø®
ĠÚ©Ø´ÙĪØ± ÙĩØ§
ĠØµØŃ Ø¨Øª
ĠÙĤØ¨ ÙĦÛĮ
Ùħ Ø±ÛĮ
er s
ĠØ¬ÙĨ Ø³
ĠÙħ Ø§Ú©
Ø± ÙģØªÙĩ
ĠÙħØ±Ø¨ ÛĮ
ĠØ´Ùĩ ÛĮØ¯
ĠÙĨØ¬ Ø§Øª
Ø¨ Ø§Ø±ÛĮ
ĠÙħØ¬ Ø§Ø±Ø³ØªØ§ÙĨ
ĠÙ¾ Ø±ÛĮ
ĠØµ ÙĦÛĮ
ĠÙĨÙĪÛĮØ³ ÙĨØ¯Ú¯ÛĮ
ÙĨÙĪÛĮØ³ Ø¯
ĠØ® Ø±ÛĮ
ĠØ§Ø³Ùħ Ø§Ø¹ÛĮÙĦ
ĠÙĨ Ø¯Ø§Ø±ÙĨØ¯
ĠÙħØ³ Ú©ÙĨ
ĠØ§Ø´ ØªØ¨
ÙĪ Ø§Ùħ
ĠÛĮÙĩÙĪØ¯ÛĮ Ø§ÙĨ
ĠÛ² Û°Û°
ĠÙ¾ÛĮÚĨ ÛĮØ¯Ùĩ
ÙĪÙ¾ Ø±
ĠØª Ú©Ø±
ĠØ± Ø§Ø³
ÙĪØª ÙĪ
Ø¨ ÙĪÙĦ
ĠØ® Ø§Øª
ĠØ´ Øº
ĠØ§Ø³Øª ÙĪØ¯ÛĮ
ĠÛ´ Ûµ
ĠØ¨ Ø§Øª
Ø±ÙĪ ÙĨØ¯
ĠÚ¯ ÙĨØ¬
ĠØ§Ø® ØªØ±
ĠÙģØ±Ø³Øª Ø§Ø¯
ĠÙħÙĨ ÙģÛĮ
ĠØ¹Ø¶ ÙĪÛĮØª
ĠÙħØ¹ Ø§Ø¯
ĠÚ¯ Ùħ
Ø³Ø§Ø² Ø¯
Ø§Ù¾ ÙĪØ±
ĠØªÙĤ ÙĪÛĮÙħ
Ø´ ÛĮØ¯
ÙĨÙĪ Ø¹ÛĮ
Û²Û°Û ±Û
ĠØ¯ÛĮ Ú¯Ø±Ø§ÙĨ
ĠØ¬ÙĪØ§ÙĨ Ø§ÙĨ
ĠÙĨ Ø§ÙĨ
ĠÙģØ±Ø§ ÙĪØ§ÙĨ
ĠÚ©ÙħÙ¾ Ø§ÙĨÛĮ
ĠØ³Øª ÙĪÙĨ
ĠÙ¾Ø± ÙĨØ¯Ùĩ
ĠØ³ ÙĪØ²
ĠÙħÚ© Ø§ÙĨÛĮ
ĠØ§ÙĦ Ø¬Ø²
ĠØªØµ Ø±Ùģ
ĠÛ±Û¹Û ¸Û°
ĠØ³ Ø§Ø±
ĠÙħÙĨ Ø´
ĠØµ Ø§Ø¯Ø±
ĠÙĤØ· Ø¨
ĠÚ© Ø§Ø³Øª
ĠÙħØ®Ø§ÙĦ ÙģØª
ÙģØ± ÛĮÙĨ
Ø¹ÛĮ Ùģ
ÙĦ Ø§ÙĨ
Ø§Ùħ ÙĨ
ĠØ¬Ø² ÙĪ
ĠÙĪ ÛĮÚ©
ĠØ§Ø¹ Ø¯Ø§Ùħ
ÙĦØ± Ø²Ùĩ
ĠØ³ÙĦØ· ÙĨØªÛĮ
ĠØ¯Ø§ÙĨØ´Ø¬ ÙĪÛĮØ§ÙĨ
ĠØ³ ÙĨØ¬
ĠØ®ÙĪ Ø§Ø¨
ĠØ´ Ø§ÛĮØ¯
ĠØŃ Ø§Ø¬
Ú¯ ÛĮÙĦ
Û±Û ³
Ø± Ø¶
ĠÛ³Û ±
Ø§ØŃ ØªÛĮ
ĠØª Ø§Ùħ
ou nt
o g
ĠØ¢ÙĤ Ø§ÛĮ
ĠØ¢Ø° Ø±
Ùģ Ø±ÛĮ
ĠØªØ® Ø±ÛĮØ¨
Ø² Ø§ÛĮ
ĠÙĨ Ø§ÛĮ
ĠÚ©Ø§ÙħÙ¾ÛĮ ÙĪØªØ±
ĠØŃ Ø¬Ùħ
ĠØªØµ Ø§Ø¯
ĠØ¬ÙĦ Ø¯
ĠØª Ø¯
ĠØ®Ø· ÙĪØ·
ĠÙĨÙĪÛĮØ³ ÙĨØ¯Ú¯Ø§ÙĨ
ĠÙĩ ÙĨØ¯ÛĮ
ĠØª ÙħØ¯
ĠØ§Ùħ ÛĮØ¯
ĠÙħØªØ¹Ø¯ Ø¯ÛĮ
ĠÙħØ¹Ø¯ ÙĨÛĮ
Ġ âĢ¦
ĠÙĨ ÛĮØ´
Ø§Ø¨Ùĩ Ø§Ùħ
ĠÙĦ ÙĪÚ©
ĠÚ¯Ø° Ø±
ĠØ´ÙĩØ± ÙĪÙĨØ¯
ĠØ§ÙħØ±ÙĪ Ø²ÛĮ
ĠØ¨Ø® ØªÛĮ
Ø¨Ø± Ø§ÛĮ
ĠÚĨ Ø§Ùĩ
ĠØ¯Ø± Ú©
ĠÙĩÙģØª Ùħ
Ø² Ø¨Ø§ÙĨ
Û±Û ¹
ĠØ¯Ø±ÙĪ Ø§Ø²Ùĩ
ĠØ® ÙħÛĮÙĨÛĮ
ÙĪØ±Ø¯ ÛĮ
ĠØ¨Ø±Ø¯ Ø§Ø´Øª
ĠØ§ÙĩØ¯ Ø§Ùģ
ĠÙħÛĮ Ú©Ø±ÙĪ
ÙħÙĪ ÙĦÛĮ
ĠØ³ÙĨÚ¯ ÛĮÙĨ
ĠØ§ÛĮØ±Ø§ÙĨÛĮ Ø§ÙĨ
ĠØ¨Ø§Ø² Ø¯Ø§Ø´Øª
ØªÙħ ÙĨØ¯
ĠÙħÙĨØµ ÙĪØ¨
a y
ĠÙħØªÙĪ Ø¬Ùĩ
ĠÙħØ¹ ÙĦ
ĠÙĪ ÛĮÚ©ÛĮ
ĠØ¹ÙĦÛĮ Ø§
ĠÙĩÙħ Ø²ÙħØ§ÙĨ
ĠØ§ÙĤÛĮØ§ÙĨ ÙĪØ³
ĠØ®Ø±Ø¯ Ø§Ø¯
ĠØ¯ÛĮ ÙĪÛĮØ¯
ÙĪØ± Ùģ
Ø¹ ÙĦ
ĠÙħØ¹ Ø§ÙĪÙĨ
ĠÙģÛĮØ² ÛĮÚ©ÛĮ
ÙĦÛĮ Ø³
ÙĦ Ø§ÙĨØ¯
ĠÙĦ Ø°
Û² Û·
ĠÙĩ ÛĮÙĦ
ĠÙĤØ· Ø¹Ø§Øª
ĠÙĩÙĨØ± ÙĩØ§ÛĮ
ĠØ¯Ø¨ÛĮØ± Ø³ØªØ§ÙĨ
ÙĨ ÙħØ§ÛĮ
Û±Û ¸
ÙħØ¬ ÙħÙĪ
Ġ Ø§Ø¯ÛĮ
Ø¹ ÛĮØ¯
ĠÙĩØ± ÚĨÙĨØ¯
ĠÙĨÛĮØ³Øª ÙĨØ¯
ĠÛĮØ² Ø¯
ĠØ´ ÛĮØ´Ùĩ
ĠÚ©Ø§ÙĨ Ø§ÙĦ
ÚĨ Ø§Ø±Ø¯
ĠØ§Ø³Øª Ø®ÙĪØ§ÙĨ
Ø¬ ÙĨ
ĠØ§ÛĮÙĨØªØ± ÙĨØª
Ø§ÙĨÛĮ Ø¯
ĠØ³ÙĦ Ø§ØŃ
ĠØ§Ø± Ø³Ø§ÙĦ
Ø§ÛĮ Ùħ
ĠÛ³Û ´
ÙĦ Ø§Ùģ
ĠØ« Ø±ÙĪ
ĠØ¹ Ø²
ĠÙħÛĮØ² Ø¨Ø§ÙĨ
ÛĮÙĨÚ¯ ØªÙĨ
ĠÙĤ Ø±Ø¨
ĠÚ¯ Ø§ÙĦ
ĠÙģØ±ÙħØ§ÙĨ Ø±ÙĪ
Û±Û ±
ĠÙħØ´ Ø§Ø±Ú©Øª
ĠØ´ÙĪØ± Ø´
ĠØ¨ÙĨ Ø§Ùħ
ĠÙ¾ÛĮØ± Ø§ÙħÙĪÙĨ
ĠØ¨Ø§ÙĦ Ø§ÛĮÛĮ
Û³Û ·
ĠØ¨Ùĩ Ø§Ø±
ĠÚ© Ø¯Ø§Ùħ
Ú¯ ÙĪØ±
ĠÙĦ ÙĤØ¨
ĠÙ¾Ø± Ø§Ú©
Ġt he
ĠÚ©Ø§Ø± ÙĦ
Ø¹Ùĩ Ø¯Ùĩ
Ø¨ Ø³
Ø§ÙĨ Ø´
Ø§Ùĩ Ø±
ĠØ¹ÙħØ¯ ØªØ§
ĠØªØ¬ Ø²ÛĮÙĩ
Û² Û¶
ĠØŃ Ø¯ÛĮ
Û³Û ¶
Ø§Øª ÛĮÚ©
Ø¬ ÙĪÛĮ
ĠØ§ÙĦ ÙĦÙĩ
a k
ĠØ¢Ø´ÙĨ Ø§
ĠÚ¯ ÛĮØª
ĠØ§Ø·ÙĦØ§Ø¹ Ø§ØªÛĮ
ĠÙĨØ± Ø®
ĠØ²ÛĮØ¨ Ø§ÛĮÛĮ
ĠÙģÙĦØ³ Ø·
Ø± Ø§Ø¨
ĠÙĤ Ùĩ
ĠØŃÛĮ Ø§Øª
ĠØ§ÙĨÚ¯ÙĦÛĮ Ø³
ĠÙ¾Ø±Ø¯ Ø§Ø®ØªÙĩ
Ø¯ÙĪ ÛĮÙĨ
ĠØ²Ùħ Ø³ØªØ§ÙĨ
ĠÙħØ¬ Ø§Ø²
ĠÙģØ±Ø² ÙĨØ¯Ø§ÙĨ
ĠØ¢Ø³ ÙģØ§ÙĦØª
ĠØ¨ÙĦ Øº
ÙĨÚ¯ Ø§Ø±ÛĮ
ĠØ¯Ø± Ø¯
Ùĩ ÙĪØ±
ĠÙĩÙħØ³Ø± Ø´
ĠØ¯ ÙĪÛĮ
Ú¯ Ø±ÙĪ
Ø¶ Ùĩ
ĠÙĩÙħ Ø¯Ø§ÙĨ
ÚĨ Ø´Ùħ
ĠÛ³Û ·
Ø§ØŃ ÙħØ¯
ĠØ¯Ø± Ø¨Ø§Ø±
ĠØ®ÙĦ Ø§Ùģ
Øµ ÙĪØ±Øª
ĠÚ©Ùħ Ø¯ÛĮ
ĠØªØ£ Ú©ÛĮØ¯
Ø§ÙĦØª ØŃ
ÙĤ Ø§Ø¨ÙĦ
Û°Û ¸
Û³Û ´
ÙĤ Ø§Øª
ĠÙħØ³Ø¦ ÙĪÙĦÛĮØª
ĠØ± ÙĪÙħÛĮ
ĠØ¨ ÙĪØ´
ĠÙħØ³ Ø§ÙģØ±
ĠÙħ ÙħÙĨ
ĠÙ ĥ
ĠØªØ¬ÙĩÛĮØ² Ø§Øª
Ø¨ ØŃ
ĠØ§Øª ÙĪÙħ
Ø¯Ø§ÙĨ Ø³Øª
ĠÙħØ« Ø¨Øª
ĠØ² Ø®
Ġ a
ĠØ¨Ø± ÛĮ
Ø¨Ùĩ Ø´Øª
ĠØªØ±Ú©ÛĮ Ø¨ÛĮ
ĠÙģ Ú©Ø±
ÙĪ Ø³ØªØ§ÙĨ
ĠØ¨ÛĮ Ø³ØªÙħ
ĠØ§Ø´ØªØ¨ Ø§Ùĩ
ĠØ¢ ÙĪØ§Ø²
ĠØ³Ùģ ÙĦÛĮ
ĠØ¬Ø² Ø§ÛĮØ±
ĠÙħØŃ ÙĪØ±
ĠÙħØ´ ØªØ±ÛĮ
ĠØªÙĦÙģ ÙĨ
ĠØ¨Ø± ÙĨØ²
ÙĦ Ø§Ø³
ĠÚ© ÙĪÙĦ
ÛĮØ± ÙĪ
Û±Û ±Û
Ø¬ ÛĮØª
ĠÙ¾Ø± ÙĪÙĨØ¯Ùĩ
ĠØŃ Ø§ÙĪÛĮ
ĠÙ¾ÙĨØ¬ Ø§Ùĩ
ĠÚĨÙĩØ§Ø± ÙħÛĮÙĨ
ĠÙĩ ÙĪØ±
Ø®ÙĪØ§ÙĨ Ø¯Ùĩ
ĠØ¨ ÙħØ¨
ĠØ§Ú© Ø«
ĠØ³Ø§ÙĦ ÙĨ
Ø¢ÛĮ ÙĨØ¯
Ø®ÙĪ Ø§ÙĩØ¯
ĠØ¨Ø±Ú¯ Ø²ÛĮØ¯Ùĩ
Û Ģ
Ú¯Ø° Ø§Ø±Ø¯
Û ¸Ûµ
ĠÙħØ± Øº
Ø¬ Ø§Ø±
ĠØ¹ Ø¯Ùĩ
ĠØ§Ø³Ùģ ÙĨØ¯
Ø± Ø§Ø¬
ĠÙ¾ ØªØ±
ĠØ§ÙĦ ØŃ
ĠÚ¯Ø± Ùĩ
ĠØ§ØªØµ Ø§ÙĦ
Ø³ ÙĨÚ¯
Ú¯Ø± Ø§
Û°Û ³
ĠÛ±Û³Û ¹Û°
ĠØ§ÙģØ³ Ø§ÙĨÙĩ
ÙĨ ÙģØ±
ĠØ§ÙĨØªØ´Ø§Ø± Ø§Øª
ĠØ§Ø´ ØºØ§ÙĦ
ĠÙħÛĮØ± Ø§Ø«
ĠØ± Ø§Ùħ
ĠØ¬ÙĪØ± Ø¬
ĠØ¯ÛĮ ÙĪØ§ÙĨ
ĠÙģØ¹ ÙĦÛĮ
ĠØ¬Ø§ÙĨ Ø´ÛĮÙĨ
ĠØ¢Ùħ Ø¯ÙĨ
ĠØ¯Ùĩ Ø§ÙĨÙĩ
ÙħØ¬ÙħÙĪ Ø¹Ùĩ
i e
ĠÙĪÛĮØ¯ Ø¦
Ø¯Ø± Ø¶Ø§
ĠÛ²Û°Û±Û ¹
ĠØ± Ø¯ÛĮ
ĠÙħ ÙĤÛĮ
âĢį .
ĠÚ©ØªØ§Ø¨ ÛĮ
ĠÙģÛĮ ÙĦÛĮÙ¾
ĠØ§ÙĨ Ø¯ÛĮØ³
Ø¢Ùħ ÛĮØ²
ĠØ³ ÛĮØªÛĮ
ĠÙģ ÙĤ
Ø³Ø§ÙĨ Ø³
ĠØ§ÙĪ Ø¬
ÙĤÛĮ Ø¨
Ø¨ ÛĮØª
Úĺ Ø§ÙĨØª
Ø§ØŃ Ø¨Ùĩ
ĠØ®ÙĪØ§Ùĩ ÙĨØ¯
Øª ÛĮÙĨ
Ø§Ø· ÛĮØ³ÛĮ
ĠÙħØ« ÙĦØ§
ĠÛ±Û¹Û¹Û ²
ĠÙħÛĮ ÙĪÙĩ
ĠØ¨ ØªÙĪØ§ÙĨØ¯
ØŃ Ø§Øª
ĠÙĨØ¯ Ø§Ø´ØªÙĩ
ĠØ´ÙĩØ±ÛĮ ÙĪØ±
ĠØºØ° Ø§
ĠØ§Ø¨ØªØ¯ Ø§ÛĮÛĮ
ĠÚ©ÙĪØ¯ Ú©ÛĮ
Ø§ÙĨØ¯ ÙĨ
ÙĪÛĮ Ø§
ĠÚĨ ÛĮ
ĠÛ±Û¹Û· Û°
ĠØ§Ø± Ø²ÛĮ
ĠØ± Ø¨
ĠØµÙģ ÙĪÛĮ
ĠØ³ ÙĪØ§Ø±
ĠÙĤÙĦ Ø¨
ĠÙĦØ´Ú© Ø±
ĠØ¯Ø³Øª Ø±Ø³
ĠØµ Ø¯Ø±
ĠØ¨Ø± ÙĤØ±Ø§Ø±
ĠØ±Ú© ÙĪØ±Ø¯
ĠØ¹ Ùģ
ĠÙĨ ÚĺØ§Ø¯
ĠÙĤ Ø§Ø±Ùĩ
ĠÙħØ§ÛĮ Ø¹
ĠÙĩÙĪØ§Ù¾ÛĮÙħ Ø§ÛĮÛĮ
ĠØ§ÙĨØ¯ ÛĮØ´Ùĩ
ĠØ§ÙħÙĨ ÛĮØªÛĮ
ĠØ¹ÙĨ ØµØ±
Ø§Ø¯Ø« Ùĩ
ĠÙħÙĨ Ø§Ø³
ĠÙĦ Ø§
Û°Û ¹
ĠÙħÙĤØ§Ùħ Ø§Øª
Ø² Ø§Ùħ
Ú© ÛĮÙĨ
ĠÛ±Û¸Û ¸Û
Ġ2 01
ĠÙĩÙĨØ±Ùħ ÙĨØ¯Ø§ÙĨ
ĠØ§ÙĨØªÙĤ Ø§Ø¯
ĠÛ±Û¹Û¹Û ¶
ĠÙĤØ² ÙĪÛĮÙĨ
Ú©ÙĨÙĨØ¯ Ú¯Ø§ÙĨ
ic t
ĠØªÚ©ÙĨ ÛĮÚ©
ĠØ± Ø§Ø¨Ø±Øª
ĠØ¢ÛĮ ÛĮÙĨ
ĠØ§ØŃ Ø¯
Ú© ÛĮÙĦ
ĠØ¯ÙĪØ± Ø¨ÛĮÙĨ
Ø´ÙĨ Ø§Ø³Ø§ÙĨ
ĠÛ±Û¹Û¶ Û°
ĠØ§Ø³Øª Ø±Ø§Øª
ĠÚ©ÙĦ ÙħØ¨
Û´ Û°
ĠÙ¾ÛĮ ÙĪØ³ØªÙĩ
ĠÙĤÙĦÙħ Ø±ÙĪ
ĠÙĤØ·Ø¹ ÙĨØ§ÙħÙĩ
ÛĮØ¯ Ø§ÙĨ
Ùģ Ø³
ĠØ¯Ø± ÙħØ§ÙĨÛĮ
ĠØ± Ø§Ø¬
ĠÙģ ÛĮØ±
ÙĪØ¦ ÙĦ
ĠÙħØ¹ ÙħÙĪÙĦÛĮ
ĠØµ ÙĨØ¯
ĠÙħØŃ ÙĪØ·Ùĩ
ĠÙ¾Ø± Ø³Øª
ĠÙģØ¯Ø± Ø§Ø³ÛĮÙĪÙĨ
ĠØ§Ø¨ØªØ¯ Ø§ÛĮ
ĠØªÙĪ Ø§ÙģÙĤ
Ú©ÙĨ ÛĮÙħ
ĠÙħØµ Ø§ØŃØ¨Ùĩ
ĠÙĪ Ø§ÛĮ
Ø§Ø± ÙĨ
ĠØ³ Ø§ØŃÙĦ
ĠÙĦØ± Ø³ØªØ§ÙĨ
ĠÙħÚ© Ø²ÛĮÚ©
ĠØ¬Ø± Ø§ØŃÛĮ
Ġ =
ount y
Ø± ÙĤ
ÙĪÙĦ ÛĮÚ©
ĠØª ÙĪÙĦØ¯
Ø§ÙĨØ¯ Ø§Ø²
ĠØ¯ ÙĪÙĨ
ĠÙĪØ§Ø´ ÛĮÙĨÚ¯ØªÙĨ
ĠÙĩ Ø§Ø´
ĠØ¨Ø§Ø² ÛĮÚ©
ĠØ¯ Ø§ÙĪ
ĠØ¨Ø²Ø±Ú¯ ØªØ±
ĠØªÙĩ Ø¯ÛĮØ¯
Ùħ ØªÛĮ
Ú© Ø´Ø¯
ĠÛ¸ Û°
ĠÙħ ØªÙĩ
ĠØ¢Ú© Ø§Ø¯
c e
ĠÛ¹ Û°
ĠÚ© Ø§Ø¨ÙĦ
Û¸ Û°
ĠÚ©Ø§Ø± Ø¨Ø±Ø§ÙĨ
ĠØªÙħ Ø§Ø³
ÙĨØ± Ø§ÙĨÛĮ
ĠØ± Ø§ÙĩÛĮ
ĠÚ©ÙĨ Ø³Ø±
ĠØ³ Ø§ÙĨØª
ĠØ¨Ø§ÙĦ Øº
Û¹Û µ
ĠÛ±Û¹Û¹Û ·
ĠÙħØ³ÙĦ ØŃ
ĠÚ¯Ø± Ø§ÛĮØ´
Ø¬ ÙĨØ³
ĠÙĩÙħ Ø§Ùĩ
ĠØ¯ Ø§ÙĨÙĩ
ĠØ§ÙĦ ÙĤ
ĠÙĪØ§ÙĦÛĮ Ø¨Ø§ÙĦ
ĠØ« Ø§ÙĨÛĮÙĩ
ĠÛ· Û°
Ù¾ ÙĨ
ĠØ¢ÙĪØ±Ø¯ ÙĨ
Ø§ÛĮ Ùģ
ĠÛĮØ§ÙģØª ÙĨ
ĠÚ¯ Ø§Ùħ
ĠØ¨ÙĨ Ø§ÛĮ
ÛĮ Ø¨ÙĩØ´Øª
Ġ1 9
ĠØ² Ø¯ÙĨ
ĠØ³ÛĮÙĨ ÙħØ§ÛĮ
ĠØ§Ø³Øª Ø®Ø±
ĠÙĨÙħØ§ÛĮØ´ Ú¯Ø§Ùĩ
Øº Ø°
ĠÙħØº ÙĪÙĦ
ĠØ¨ÙĦ ÚĺÛĮÚ©
ĠÚ©ÙĦÛĮ Ø³Ø§
ĠÙħÙĤÛĮ Ø§Ø³
Ø³ Ø§Ø®Øª
ĠØ·Ø± Ø§ØŃ
ĠÙħÙĪ ÙĦÛĮ
ĠÙħØ°Ùĩ Ø¨
Ø³ Ø§Ùħ
ĠØ¬ Ø¯ÛĮ
ÙĪÙĨ ÛĮÚ©
ĠØ³Ø® ÙĨØ±Ø§ÙĨÛĮ
Øµ Ø§Ø±
ĠÙĨØ³Ø¨Øª Ø§
ĠØ¢Ø± ÚĺØ§ÙĨØª
ĠØŃ Ø§Ø¯Ø«Ùĩ
ĠØªÙģ Ø³ÛĮØ±
Ùĩ Ø§ÙĨ
ĠÚ©ÛĮÙĦ ÙĪÚ¯Ø±
Ø± ÙĪÙħ
Øª Ø²
ĠØ§ØŃ ÙħØ¯ÛĮ
Ø¸ Ùħ
ĠÙĤ ÙĪÙħ
ĠC ounty
Øº Ø§Ùħ
ĠÙĦÛĮ Ø³Øª
ĠØª ÙĨØ¯
ĠÚ©ÙĨÚ¯ Ø±Ùĩ
ĠØ³Ú©ÙĪÙĨØª Ú¯Ø§Ùĩ
ĠÚ©Ø±Ø¨ ÙĨ
ĠÙ¾Ø§Ø± Ø³ÛĮ
ĠØ³Ø± Ù¾Ø±
ĠÙħØ±Ø¯ Ø§Ø¯
ĠÛ±Û¹Û¹Û ±
t er
ĠÚ©ÙĦÛĮ Ùĩ
Ø§ÙĦ ØªÛĮ
ĠØ®Ø±ÙĪ Ø¬ÛĮ
Ø§ÛĮ ÙģÙĩ
Ø§ÙĦ Ø§
ĠØª Ø¶
ĠÚ¯ ÙĪÚ¯
Ø§Øµ Ø±Ùĩ
ĠØ³ÙĪØ³ÛĮ Ø§ÙĦÛĮ
Ø´ Ú¯Ø§Ùĩ
ÙĨ Ø§Ú©
Øª Ø§ÛĮ
ĠÙĪ Ùģ
is tr
ĠØ¨Ø± Ø¹ÙĩØ¯Ùĩ
ĠØ±Ø¶ ÙĪÛĮ
ĠÛĮ Ø§Ø¨Ø¯
Ù¾ Ø§ÛĮ
Øº Ùħ
ØªØ§ Úĺ
ĠØ¯ÛĮ Ù¾ÙĦ
ĠÙĨ ÛĮØ§
Ø® ÙĪØ§Ø±
ĠØ§ÙĦ Ø¹
Ø¨Ø± ÙĨØ¯
a p
ĠÙĤØ¨ ÙĪÙĦ
ĠØ§ÙĦ Ø¯ÛĮÙĨ
ĠÙĨ Ø±ÙĪ
ĠÙ¾Ø± ØªØ§Ø¨
ĠÙĨ Ø§Ø²
ĠÚ© Ø§Ø³
ĠØ§ØŃØ¯ Ø§Ø«
ĠØ±ÙĪ ØºÙĨ
ĠØ§Ø¹ Ø¯Ø§Ø¯
ÛĮÚ© ÙĪ
ĠÚĨ Ø§ÙĦ
ĠØ§Ø¯Ø¹ Ø§
a b
Ø± ÙĨÚ¯
ĠØ¨ ÚĨÙĩ
ĠØ¯Ø± Ø³
ĠÙħØ· Ø§Ø¨ÙĤ
Û¸Û ¶
Ø² Ø§ÙĨ
ĠÙħØ¬Ø¯ Ø¯
ĠØ¯ÛĮ Ø¬ÛĮØª
ĠØ§Ø« Ø¨Ø§Øª
ĠØ® Ø³Ø±ÙĪ
ĠØ¨ ÙĨÚ¯
it y
ĠØº ÛĮØ±Ùĩ
ĠÙħØ® ÙģÛĮ
ĠØ§Ø´Ø¹ Ø§Ø±
Û¹Û ²
Ø® ØªÛĮ
ĠØ´ÛĮØ± ÛĮÙĨ
Ø· ÙģÛĮ
ĠÚ© ÙĪØ¨
ĠØªÙħ Ø±Ú©Ø²
Ø®Øµ Øµ
ÙĪØ±Ø¯ ÛĮÙĨ
ĠØ³Ø§ÙĦ Ø§ÙĨÙĩ
ĠØªÙĤ ÙĪÛĮØª
ĠØŃÛĮÙĪØ§ÙĨ Ø§Øª
ĠÚ©ÙĨ Øª
ĠÙ Ģ
ĠÙģ Ø§Ø²
ĠØŃØ³ Ø§Ø³
Û¹Û ¶
Ø§Ø´ ÛĮÙĩ
ĠØ¨ ÛĮØ¯
Ø§Ú© Ø«Ø±
ĠÙĨØ® ÙĪ
ĠØ§Ø±Ø¯ ÛĮØ¨ÙĩØ´Øª
ĠÛ±Û¹Û¹Û ´
Ø® ÙĪØ±Ø¯
ĠØ§Ø¸ ÙĩØ§Ø±
ĠÙħØ³Øª ÙĤØ±
ĠØªÙĪØ¬Ùĩ ÛĮ
ĠÙħØ£Ùħ ÙĪØ±ÛĮØª
ĠØ¨ ÙĤÛĮÙĩ
ĠØ´Ø§Ùĩ Ø¯
ĠÙĩÙħ Ø³
ĠØ§Ø±ØªØ¨Ø§Ø· Ø§Øª
ĠØªÚ©Ø± Ø§Ø±
ĠØ¹ Ø§Ùħ
ĠÙħ Ø¶
ĠØ¹Ø§Ø´ ÙĤ
ĠÙ¾ ÙĨÙĩ
ÙĪÙĨ Ø²
ĠÙħØª Ùģ
ĠØ¯ÙĪ Ø§Ø²Ø¯Ùĩ
ĠÙĩØ± Ú¯Ø²
ĠÚ©Ø§Ùħ Ù¾
ĠØ² Ø§ÙĪÛĮÙĩ
ĠØ³Ø¹ ÙĪØ¯ÛĮ
ĠØŃ ÙĪÙħÙĩ
ĠØ¸Ø§Ùĩ Ø±ÛĮ
ĠØ« ÙħØ±
Ø§ÙĪ ØªÛĮ
Ø¹ ÙĤ
Ø±ÛĮ ØŃ
ĠØ¨ Ø·ÙĪØ±
ĠØ¢ Øª
ĠØ´ÙĨØ§Ø³ Ùĩ
ĠØªÙħ Ø§Ø´
ĠÙ¾Ø± ÚĨÙħ
ĠÙħØ± Ø§Ø¬
ĠÙħÙĤ Ø·
ĠØ¯ ÙħØ§
ĠÙĨØ´ Ø±ÛĮÙĩ
Û´ Ûµ
ĠØ³Ø§Ø®Øª ÙĨ
Ø¨ Ø§Øº
ĠØ¨Øº Ø¯Ø§Ø¯
ĠÙģØ¯Ø± Ø§ÙĦ
ĠØ§Ø¨ ÛĮ
ĠØ§ÙģØª Øª
Û¶ Û°
ĠØ§ÙĤ Ø§ÙħØª
ĠØªØµ Ø§ÙĪÛĮØ±
Û¹Û ·
ĠØªÚ©ÙĨ ÙĪÙĦÙĪÚĺÛĮ
Ø§ÙĦØªØŃ ØµÛĮÙĦ
ĠÙģ Ø±ÛĮØ¯
ĠÚ©ÛĮÙĦÙĪÚ¯Ø± Ùħ
ĠØ·ÙĦ Ø§ÛĮÛĮ
ĠÙĨÙĤ Ø§Ø´
ĠØ§ÙĦØ¬Ø² Ø§ÛĮØ±
Ġ in
Ġ and
ØŃ Ø³ÙĨ
ĠÙ¾Ø§Ø± ÙĦ
ĠÙĩØ´Øª Ùħ
ĠØªØ® Ùħ
ĠÙĤØ± Ùĩ
ĠØ§ÙĨ Ø¯Ø±
ĠØ§Ø¹ ØªÙħ
ĠÙĨØ´ Ø±
ĠØ§ÙĦ Ú©Ø³
ĠØªØ®Øµ ØµÛĮ
Û¸Û ·
ĠØ´ Ø§ÙĨ
Ù¾ Øª
ĠÛ±Û¹Û¹Û µ
ĠØ¯ÙĦ Ø§ÛĮÙĦ
ĠØ¢ ÛĮØ¯
ĠØ§Ø³Øª Ø¹
Ø§Ú© Ø§
ĠÙ¾Ø°ÛĮØ± ÙģØªÙĩ
ĠØ§ÛĮ ÙĪØ§ÙĨ
ØŃ Ø§ÙĦ
ĠØ´Ø§Ùĩ Ø²Ø§Ø¯Ùĩ
ĠØŃ Ø±Ú©
ĠÙĨÙĪ Ø¬ÙĪØ§ÙĨ
ĠØ´ Ùģ
ĠÙħØ± Ø§ØŃÙĦ
ĠØ§Ø³ Ú©ÙĨØ¯
ĠØ´Ø§Ø® Øµ
ĠØ´Ùħ Ø³ÛĮ
Ø§Ú© ÙĪ
ĠØ¨Ø®ØªÛĮ Ø§Ø±ÛĮ
ĠÙĪÛĮ ÙĨØ¯
ĠÙĩØ² Ø§Ø±Ùĩ
ĠØ³ÛĮ Ú¯ÙĨ
ÙģØ±Ø§ÙĨ Ø³
Ø§ÙĤ Ø§Øª
ĠÙĦ Ø§ÛĮ
ĠØ¯Ø± Ø§Ø²
ĠØ¢ Ø´Ú©Ø§Ø±
ĠØ¨ ÙĨØ¯ÛĮ
ĠØ³ÙĪØ¦ ÛĮØ³
Û´ Û·
Ġ ,
ĠÙħØª Ø®ØµØµ
ĠÙħØ§ÙĦÛĮ Ø§Øª
ÙĦ Ø§ÛĮÙĨ
ĠØ¬ ÙĦØ¨
Ùģ ÙĩØ±Ø³Øª
ĠØ¢ÙĩÙĨÚ¯ Ø³Ø§Ø²
ĠØ¨Ø± ÙĨ
Û¹Û ´
ĠØ¹ ÙħÛĮ
Ø¢ ÙĩÙĨ
ĠÚ© Ø§
ĠØ³ ÛĮÙĨÙĩ
ĠÙħØ¨Øª ÙĨÛĮ
ĠØ¯Ø± Ú¯ÛĮØ±
ĠØ· Ø§ÛĮÙģÙĩ
ÙĦ Øª
ĠÙħØŃ Ø§ØµØ±Ùĩ
ĠØ¯ÙĨØ¨Ø§ÙĦ Ùĩ
ĠÙ¾Ø± Ø³
ĠÙħÚ© ØªØ¨
ÙĨ ÚĺØ§Ø¯
ĠØ¯Ø± Ø®Ø´
ĠÚ¯ ÙĨØ¯
Ø¹Ùĩ Ø¯
ĠØ¯ Ø§Ø¦
ĠØ® Ø§ÙĦÛĮ
ĠØ² ÙĨÛĮ
ĠØ³Ø§Ø³ Ø§ÙĨÛĮ
Ù ĥ
ĠØ¨Ùĩ Ø¯Ø§Ø´Øª
ÙĪØ² ÛĮØ±
ĠÙĨÙĤ Ø¯
ĠØ®ÙĪØ§ÙĨ Ø¯
ÙĪÚ© Ø§
ÙĪ ÙĤÛĮ
ĠØ± Úĺ
ĠØ®Ø§Ø± Ø¬Ùĩ
ĠØ§ÙĨØª ÙĩØ§ÛĮ
ĠÙħÙĤ Ø¯Ùħ
ĠØ§Ø³ ÙĨØ§Ø¯
ĠØ® Ø²
ÙĪÙ¾ ÛĮ
ĠØ±ÛĮ ÚĨØ§Ø±Ø¯
ĠØ¹Øµ Ø¨ÛĮ
ĠØ¨ÙĦØº Ø§Ø±Ø³ØªØ§ÙĨ
ĠØ§Ø¯ Ø§Ø±ÛĮ
ĠØª Ø¯ÙĪÛĮÙĨ
ĠØ§ ØªÙĩ
ĠØ¢Ø³ ÙħØ§ÙĨ
ĠØ° Ø±Ø§Øª
a v
Ø§ÛĮ Ø§ÛĮ
Â «
ÙĪ ÙĪØ§
ĠØ¹ ÙĤÛĮ
ĠØ³ÙĨ Ø§ØªÙĪØ±
ĠØ¹ Ø§Ø¯ÛĮ
ĠÛ±Û ¸Ûµ
ĠØ±ÙĪÛĮ Ø¯Ø§Ø¯
ĠÛµ Û°Û°
ĠØ¬Ø² Ø¡
ĠÙ¾ Ø§Øª
ĠÙħØªØ¹Ø¯ Ø¯
ĠØ§Ø±Ø²ÛĮ Ø§Ø¨ÛĮ
Ø§ ÙĪØª
Ġc on
ĠØ¯Ø§ÙĨØ´Ùħ ÙĨØ¯Ø§ÙĨ
ÙĨØ¯Ùĩ Ø§ÛĮ
ĠÛ±Û¹Û¹Û ³
ĠØ¯ ÙĨØ¯Ø§ÙĨ
w ikipedia
ĠØ¢ Ø¨Ø§ÙĨ
ÙĪ Ø§ÛĮÛĮ
ĠØ®Ø§ÙĨ Ùħ
ĠÙħØº ÙĨ
ĠØ³ÙĨÚ¯ ÛĮ
ØºØ° ÛĮÙĩ
ĠÙ¾Ø§ÛĮ Ø§ÙĨÛĮ
ĠØŃ Ø§Ø´ÛĮÙĩ
ĠØ§Ø´ ØªØ±
re e
ĠÚ© ØªÛĮ
ĠÙħØ± Ø¬
ĠØ¨Ø±ÛĮØª Ø§ÙĨÛĮØ§ÛĮÛĮ
ĠØ§Ø³Øª ÙĤ
ÙĪ ÙģÛĮ
ĠE n
ĠÚ¯ÙĪØ´ Ùĩ
istr ict
ÙĪ ÙĪØ¯
ĠØŃÙĪ Ø§ÙĦÛĮ
ĠÙĩÙĪØ§Ù¾ÛĮÙħ Ø§ÛĮ
Û¸Û ´
ĠØ®Ø§ÙĨ Ú¯ÛĮ
ĠÙĦØ¨ ÙĨØ§ÙĨ
ĠØ¢Ùħ ÙĪ
ĠØ¨ Ø´
Ø¯ ÙĪØ¯
c l
ĠÙģ Ø§ÛĮÙĦ
Ø± Ø§ÙĨÛĮ
Ø§Ùĩ ÛĮØ±
ĠØ³Ø¹ ÛĮØ¯
ĠØ¨Ø±Ø§Ø¯Ø± Ø´
ĠØ¢Ø±ÚĺØ§ÙĨØª ÛĮÙĨ
Û¸Û ²
ĠÙĪÙĤ ÙĪØ¹
ĠÚ¯ÙĪØ´ Øª
Ú© Ø³ØªØ±
ĠØŃÙħÙĦ Ø§Øª
ĠÙĤÙĩ ÙĪÙĩ
ĠÙħØ¨ ÙĦ
i an
ĠÚ¯ÛĮ Ø§ÙĩÛĮ
Ø§Ø² Ø¯ÙĩÙħ
ĠØ§ÙģØªØ® Ø§Ø±
ĠÙĨ Ú©Ø±Ø¯
ĠØ³ ÛĮØ²
ĠÙħÛĮØ§ÙĨ Ú¯ÛĮÙĨ
ĠÚ©Ø§Ø± Øª
ĠØ³Ø§Ø³ Ø§ÙĨÛĮØ§ÙĨ
ĠØ³ Ú¯
Ø§Ø³Øª ÛĮÚ©
ĠØ¯Ø§ÙĨ ÙħØ§Ø±Ú©
ÛĮÙĨ Øª
ĠØ± Ø§Ø¯
ĠÙ¾ÙĨØ¬ ÙħÛĮÙĨ
ĠÙ¾Ø°ÛĮØ± Ø´
Ġ 4
ĠØ¬ÙĪ Ø§ÛĮØ²
Û¹ Û°
ĠØ§ØŃ ØªØ±
ĠØ¯ Ú¯Ø±
ĠØ§ÙĨØªØ¸ Ø§Ø±
e b
ĠÙ¾ÛĮ ØªØ±
Ø§ÙĨØ² Ø¯Ùĩ
ĠØ¸ ÙĩÙĪØ±
ÙĪØ² Ùģ
ĠØ¨Ø§Ø²ÛĮÚ© ÙĨØ§ÙĨ
ÙĪÙĤ Ùģ
ĠØªØ± ÙĪØ±ÛĮ
ĠØ¯Ø´Ùħ ÙĨ
ĠØ¨Ø¹Ø¯ Ø§
ÙĦ Ø¹
ÙĪØ² ÙĨ
ĠÙģØ± ÙĪØ±Ø¯ÛĮÙĨ
ĠØ¯Ø§Ø± Ø§ÛĮÛĮ
ĠØ³Ù¾ Ø±Ø¯Ùĩ
ĠØªØ±Ø¨ ÛĮØª
ik i
ÙĪØ¯ Ø±
ĠÙĨØ¸ Ø±ÛĮ
ĠØ´ÙĨ Ø§Ø®Øª
ĠØ® Ø§Ø·
ĠØ¯Ø§ÙĨØ´Ú¯Ø§Ùĩ ÛĮ
ĠÚ© ÙĦÛĮØ¯
ĠÙ¾ Ø§Ø¨
ĠØ§ÙĤØ¯Ø§Ùħ Ø§Øª
ĠØªÙħØ¯ ÙĨ
ĠØ§Ø¹ØªÙħ Ø§Ø¯
ĠÚĨØ± Ø®
ĠØ³ÛĮÚ¯ÙĨ Ø§ÙĦ
ĠØ¯ Ø§ÙĦ
ĠØ¬ÙĨ Ø¨Ùĩ
Ø® ÙĪØ±
ĠØ± Ø³Øª
ĠÚ¯Ø±Ø¯Ø´ Ú¯Ø±ÛĮ
ĠØ§ÙħÚ©Ø§ÙĨ Ø§Øª
ĠÙħ Ø¸
ĠØ³Ø§Ø² Ùĩ
ĠØ¨ÛĮÙħ Ø§Ø±Ø§ÙĨ
ĠÙħ Ú¯
ĠØ¢ÙĨ Ø¬
Ø¯Ùĩ ÙĨØ¯Ùĩ
ĠØ¨Ø§ Ú©ØªØ±ÛĮ
ĠÛ¶ Ûµ
ĠØ¨ Øª
ÛĮ Ø±ÛĮ
ĠØ¹Ø± ØµÙĩ
ĠØ¶ Ø¹ÛĮÙģ
ĠØ§ÙĨØ¯ Ú©ÛĮ
ĠÙĨ ÙĪØ³
Ø±Ø¯ ÛĮ
Ø· ÙĪØ±ÛĮ
ĠÙĦ Ø§Ú©
ĠÙĨÙħÙĪØ¯ ÙĨØ¯
ĠÙĨ Ú¯Ø±
ĠØ§Ú© Ø³ÛĮ
al l
ÙĪØ¯ ÙĨ
ĠÙĩ Ø§ÙĦ
ĠÙ¾Ø± Ø¯Ùĩ
ĠØ®ÙĪØ§ÙĨ Ø¯ÙĨ
ĠØ§Ø®ØªÙĦ Ø§ÙĦ
ĠØ³ Ú©Ùĩ
ĠØ¹ Ø´
ĠØ¯Ùĩ Ùħ
ĠÙĩØ± ÙħØ²
ĠØ´Øº ÙĦ
ĠØ¨Ø§Ø² ÙħÛĮ
ĠØ¨ ÙĪÙĦ
ĠÙħØŃÙħ Ø¯Ø±Ø¶Ø§
ĠØ± ÛĮØ³
ĠØ¨Ø± Ø³
ĠØ³Ø® ØªÛĮ
ÙĪ Ø§Ø±ÛĮ
ĠØ§ØªÙĩ Ø§Ùħ
ĠÙĦ Ø³
ĠÛ±Û¹Û¸Û ¹
is t
Ġ w
Ø§Ø¨ ÙĪØ±
ĠÙĨÙĩ Ùħ
ÙĨÙħ Ø§ÛĮÛĮ
Û· Ûµ
ĠÙĩÙģØª Ø§Ø¯
ĠÚ©ÙĦÙħØ¨ ÛĮØ§
ĠÙħØ® Ø§Ø·
ĠÛ±Û³Ûµ Û·
ĠØ±Úĺ ÛĮÙħ
ĠØ¹Ùĩ Ø¯
ĠØ²ÙĨØ¯ Ø§ÙĨÛĮ
ĠØŃØ± Ø§Ø±Øª
Ø§ÙĦØ¯ ÙĪÙĦÙĩ
ĠØª ØºØ°ÛĮÙĩ
ĠÙĤØ³ ÙħØªÛĮ
ĠØ¢Ø¨ Ø§Ø¯ÛĮ
ĠØ®ÙĪØ§ÙĩØ± Ø®ÙĪØ§ÙĨØ¯Ùĩ
ĠØ¢ÙĨ ØªÛĮ
ĠØ§Ø¯ ÙĪØ§Ø±Ø¯
ĠÙħØŃØ¯ÙĪØ¯ ÛĮØª
ĠØ§Ø± ØªÙĤ
ĠØªÙĪ Ø¯Ùĩ
ĠÙĨÙĪ Ú©
ÙĪÚ© ÙĪ
ĠØŃØ¯ Ø§Ú©Ø«Ø±
Ġ de
Ø²Ø± Ú¯
ÚĨØ´Ùħ Ùĩ
ĠÙģØ±Ø³Øª Ø§Ø¯Ùĩ
ĠÙģØ±Ø§ÙĨ Ú©
] ]
ĠØ§ÛĮÙĨ Ø¬Ø§
ĠØ¨Ø® Ø§Ø±
ĠØŃ Ø§Ø¬ÛĮ
Ġ Y
ĠØ· ÙĪØ±ÛĮ
ĠÙħØ° Ø§Ú©
ØªØ± Ø§ÙĨÙĩ
ĠÛµ Ûµ
ÙħØª ÙĪÙĦØ¯
ĠÂł ĠÂł
ĠÙħØª ÙĪÙĤÙģ
ĠÙħÙĩÙħ ØªØ±ÛĮÙĨ
ĠØ§Ø ¦
ĠØ´ÛĮ Ø¹ÛĮ
Ø§Ø¨ ÙĦÙĩ
ÙħÛĮ Ø§ÙĨ
ĠÙħØŃ ØªÙĪ
ĠÙĨ Ø§ÙĪ
ĠØº ÛĮ
Ø§ÛĮ Ø§Øª
Ø² ÙĨÛĮ
ĠØ¨Ø§Ø² ÙĨØ´
ĠÙħÙĦ Ø§ÙĤØ§Øª
ol d
ĠÙ¾ÛĮØ´ Ø±ÙģØªÙĩ
ÙĤ Ùģ
ĠÙħÙĤØ· Ø¹
ÙĨ Ø§ØŃÛĮÙĩ
ØªÙĤ Ø¯Ø§ÙĨ
ĠØ¨ Ø§Ø®
ĠØ¨ Ø§Ø¨ÙĦ
ĠØ®Ø´ ÙĪÙĨØª
ĠØ§ÙĪ ÙĤØ§Øª
ĠØ®ÙĪØ¯ Ú©Ø´ÛĮ
ĠØ¨ Ø§Ùħ
ĠØ¨Ø± Ø³Ø¯
ĠÚ©Ø§Ø± ÙĪÙĦÛĮÙĨ
Ø³ ÙĪÙģ
ÙĪØ± ÙĨ
ĠS t
ĠØ² ÙĪØ¯
ĠÙħ Ø§ÛĮÙĦ
ÛĮ Ø§Ø±
ĠØ¢ ÛĮØª
ĠA l
Ø³ ÙĪÙĦ
or s
Ġ1 3
ĠØ®Ø±ÙĪ Ø¬
ĠÙ¾ÛĮ Ø§ÙħØ¨Ø±
ĠÙħØ¯Ø§Ø± Ø³
ĠØ§Ø¨ Ø¹
Ø§Ø¯ ÛĮØ±
Ùħ ÙĤ
ĠØ¨Ùĩ ÛĮÙĨÙĩ
ĠØ¢Ø³ÛĮ Ø§ÛĮ
ĠØ¬ÙĪ Ø§ÙĨÛĮ
ĠØŃ Ø§Ú©
ĠØµ ØŃÛĮØŃ
ĠØ®ÙĪ Ø§Øµ
ĠØ§ÛĮØ± ÙĦÙĨØ¯
o b
ĠØ² ÙĦØ²
ĠØµ Ø¨ØŃ
ĠØ®ÙĦÛĮ ÙģÙĩ
Ø± ÙĪÙĨ
ĠØ¯ÛĮØ¯ ÙĨ
ĠÙĤ ÙĦÙĩ
ĠØ§ÙĨ Ùģ
ĠØµÙĦÛĮ Ø¨ÛĮ
ĠØ³Ø±Ø¨Ø§Ø² Ø§ÙĨ
ĠØ¨Ø± Ø¯ÙĨ
ÙĪÙĦÛĮ Ø³
ĠÙĩ ÙĪÛĮØª
ĠÙĪØ§Ø³ Ø·Ùĩ
ÛĮØª Ø§
ĠÙħØ¨Øª ÙĦØ§
ĠÛ³ Û°Û°
Ù¾ ÙĪÙĦ
Ú© ÙĪØ³
ĠÛ±Û¹Û¸Û ¸
ĠØªÚ© ÙħÛĮÙĦ
ĠØ´ ØµØª
Ø· ÛĮÙĦ
ĠØº ÙĦØ§Ùħ
ÙĨ ÛĮÚ©
Ø¹ Ø§ÙħÙĦ
Ø±Ø³ÛĮ Ø¯
ĠØ§Ú© Ø¨Ø±
Ø§Ùĩ ÛĮÙħ
Ø· Ø±Ùģ
ĠØ¨ÙĪØ± Ø³
Ùģ Ø´
ĠØªØµ ÙĪØ±
ĠØ¨Ø±Ú¯ Ø´Øª
ĠÙĪÛĮØ± ÙĪØ³
ĠÙ¾Ø§ÛĮ Ø¯Ø§Ø±
Ø³ ÙħÙĩ
ĠÚ©ÙĪÙĩ Ø³ØªØ§ÙĨÛĮ
ĠÚ©ÙĪÚĨ Ú©ÛĮ
ĠØ³ÛĮ Ø§Ø±Ùĩ
Ø®ÙĪØ§ÙĨ Ø¯
ĠÚ©Ø§Ø± Ø¢
ĠØ²ÙĦØ² ÙĦÙĩ
Ø§Ø³Øª Ùĩ
ĠÙĨÙħØ§ÛĮ Ø´ÙĨØ§ÙħÙĩ
ÙĨÙĪØ´ Øª
ĠØ¢Ø²Ùħ ÙĪÙĨ
ĠÙĪ Ø§ÙĨ
ĠÙĩ Ø®
Û¶ Ûµ
es t
ĠØ¹ Ø±Ùģ
ÙĨØ± Ø§ÙĦ
ĠØ±ÙĪØ² ÙĩØ§ÛĮ
ĠØ¯Ø±Ø®Øª Ø§ÙĨ
ĠÙĨÙĪØ§Ø² ÙĨØ¯Ùĩ
ĠØªØ£ ÙĦÛĮÙģ
ĠÚ© Ø§Øº
ĠØ§Ø±Ø¯ ÙĪ
ĠØ·ÛĮ Ùģ
ĠÚ¯Ø± ÚĨÙĩ
ĠØ¹Ùħ ÙĪÙħØ§
Ùħ Ø§Ø±ÛĮ
ĠØ¬Ùħ Ø¹ÛĮ
ĠÙĪØ³ Ø§ÛĮÙĦ
ĠÙĪ Ø³Øª
ĠÚ©ÙħÛĮ Ø³ÛĮÙĪÙĨ
ĠÚ©ÙĪØª Ø§ÙĩÛĮ
ĠÙ¾Ø³Ø± Ø´
ĠØ®Ø§ÙĨÙĪ Ø§Ø¯Ú¯ÛĮ
ĠÚ©Ø§ÙĦ Ø¬
ÙĤÛĮ ÙĤÛĮ
ĠØ¨Ø± ÙĦÛĮÙĨ
ĠØ§ÙĦ ÙĩØ§Ùħ
Ġ X
ĠÙħÙĤ Ø§ÙĦØ§Øª
Ø§Ú¯ ÙĪ
ĠØ¯ Ø²
ĠÙħÙĨ ØªÙĤØ¯Ø§ÙĨ
ĠØªØ¦ ÙĪØ±ÛĮ
ĠÙ¾Ø°ÛĮØ± ÙģØª
c y
ĠÙĪÛĮØ¯Ø¦ ÙĪÛĮÛĮ
ĠØ¢Ú©Ø§Ø¯ ÙħÛĮ
ĠØ¬Ø¹ ÙģØ±
ĠÙĨÙģ ØªÛĮ
ĠÙħØ¹ ØªØ¨Ø±
Û· Û°
ÙĪØ¦ ÛĮ
Ø§ÙħÛĮ Ø§ÙĨ
ĠÙħÙĪÙĦ Ú©ÙĪÙĦ
Ø· ÙĪØ¨
ĠÙģØ± Ø§Ùħ
ÙĪÙħ ÙĨ
an g
Ġ +
Ø¨Ø± Ùĩ
Û² Û±
ĠÙħØ¬Ø¯ Ø¯Ø§
ĠØ± ÙĩØ§
ĠÙģÙĪÙĦ Ø§Ø¯
Ø¯ Ø§ÙĨÛĮ
ĠØ¶ Ø±Ø¨Ùĩ
ĠØº Ø§Ø±
ĠÛ³Û ±Û
Ø§ÛĮ Ø§
ĠÙħØª Ø´Ú©ÙĦ
ĠÚ©ØªÛĮ Ø¨Ùĩ
ĠØ¨ ÛĮÚ©
ĠØ§Ø·ÙĦ Ø§ÙĤ
ĠØ¨Ø§Ø² Ø¯ÛĮØ¯
ĠÚ©ÙħÙĪÙĨÛĮ Ø³Øª
ĠØ¢ ÛĮØ§
ÙĨÛĮ Ø³
ĠØ´ Ø±ÛĮ
Ø§ÙħÙĨ Ø´ÛĮ
Ø´ Ø§Ø¯
ĠØ¨Ø§Ø²ÛĮ Ú¯Ø±ÛĮ
ĠÚ© Ø³
ĠØªØŃ Ø±ÛĮÚ©
ĠÙħÙĤ Ø§Ø¨ÙĦÙĩ
ĠÙĤØ¨ÛĮÙĦ Ùĩ
ÙĤ Ø¯Ø±
ĠØ¨ÙĪØ¯ Ø¬Ùĩ
ĠÙ¾ ÙĪØ±Øª
ÙĪÛĮ ÙĤ
ĠÚ¯ÙĨ Ø¨Ø¯
ĠÙĪÙĦ Ø²
ĠØ¬ÙĦ Ø³Ùĩ
ĠÚ¯Ø± ÛĮÙĨ
ĠØ³Ø§ÙĦ ÙĩØ§ÛĮ
ÙģÛĮÙĦ Ø¯
ĠØ§Ø¨ Ø¯
Ø¯ Ø§Ø´
ĠØ¨ ÛĮØ²
ĠÙĤ Ø§Ø¶ÛĮ
ĠÙħØŃ Ø§Ø³Ø¨
Øµ ÛĮÙĩ
ĠØ¹ÙĤÛĮ Ø¯Ùĩ
ĠØŃ ÛĮÙĨ
ĠØ¯ ÙĤØª
ÙĪØ¦ Ùĩ
ĠÙĪ Ø¬Ùĩ
ĠÙĨ Ø§Ø²ÛĮ
Ø§Ø· Ø¹
ĠÙĨØ§Ùħ Ú¯Ø°Ø§Ø±ÛĮ
ĠÙĩØ® Ø§ÙħÙĨØ´ÛĮ
ĠØ®ÙĪØ¯Ø±ÙĪ ÙĩØ§ÛĮ
ĠØ³ÙĦÛĮ ÙħØ§ÙĨ
ĠØ¯Ø§ÛĮ Ø±Ùĩ
ĠÙħ ÙħØª
ĠØ§ÛĮ Ú©Ø³
ĠÙħØºÙĨ Ø§Ø·ÛĮØ³ÛĮ
ĠØ§ÛĮ ÙģØ§
ĠÚ©Ø§Ø± Ú¯Ø±Ø§ÙĨ
ĠÙģÙĦ Ú©ÛĮ
ĠØ§ÙģØªØª Ø§ØŃ
ÙĨÛĮ Ùĩ
ĠØ° ÙĩÙĨ
ĠØµØ§Ø¯ ÙĤ
ĠØ§ÛĮ ÙħÙĨÛĮ
ĠÙħØ¨ ÙĨÛĮ
ĠÙħØ¬ Ø³ÙħÙĩ
ĠØ¢Ø³ÛĮ Ø§ÛĮÛĮ
ĠØ¢ ÙģØª
ĠØ¬ ÙģØª
ĠÙ¾ÚĺÙĪÙĩ Ø´ÛĮ
ĠÙ¾ Ø§Ø´
Ø· ÙĨ
Ø§Ùĩ Øª
ĠØªÙĤ Ø§Ø¶
ĠÙħØµ ÙĨÙĪØ¹ÛĮ
ĠÚ¯ÛĮØ± ÙĨØ¯Ùĩ
ĠÚ©Ø§Ø±Ø¨Ø±Ø¯ ÛĮ
ĠÙĪÛĮÙĨØ¯ ÙĪØ²
Ø³Ø± Ø§ÛĮ
ĠÚ© Ø§Ø²
ĠØªÙħ Ø§ÛĮÙĦ
Ø¯Ø§Ø¯ ÙĨØ¯
Ø³ Ø§Ø±
ĠØ³ Ø¤
ĠØ§ØªÙħ Ø§Ùħ
Ú© Ø§ÙĦ
ĠØ´ Ø¬
ÙĪØ±ÛĮ Ø§ÙĨ
Ùĩ Ø²
ĠÙħÙĦ Ú©Ùĩ
ĠÚ© ÙĪÚ©
Ø® ÙĦ
ĠØªÙĪ ØµÛĮÙĩ
ĠÙĨÛĮØ±ÙĪ Ú¯Ø§Ùĩ
Ø§Øª ÙĦ
ĠÙħØ§Ø±Øª ÛĮÙĨ
ĠØ³Ø§Ú© ÙĨØ§ÙĨ
Ø§ÙĦ ÛĮØ²
ĠØ³Ø§ÙĦ ÛĮ
ĠØ¨Ø±Ø® ÙĦØ§Ùģ
ĠÛ· Ûµ
ĠØ±ÙĪ Ø¨Ø±ÙĪ
ĠØ§ÙħØ§Ùħ Ø²Ø§Ø¯Ùĩ
ĠØ§Ø¨Ø¹ Ø§Ø¯
ĠÙģ ÙĪØ±
ĠÛ±Û¸Û ´
or t
ĠÙĨØŃ ÙĪÙĩ
ĠÛĮÚ© Ø³Ø§ÙĨ
Ù¾Ø°ÛĮ Ø±ÛĮ
ĠØ§ÙĦ ÙĩÛĮ
ĠØŃ ÛĮØ¯
Ø§Ø³ Ù¾
ĠÙĪØ±Ø² Ø´Ú©Ø§Ø±
ĠÙħØ¬ ÙħØ¹
ĠÙĨÚ© ØªÙĩ
ĠÙĨ Ø§Ú©
ĠÙ¾ ÛĮØ¯
ÙĪÙĨ Ø²ÛĮ
Ù¾ Ø§ÛĮÙĩ
ĠÙĨÙĪØ² Ø¯ÙĩÙħ
Úĺ Ø§ÙĨØ³
Ġ 5
Ø±ÛĮ Ø§
ĠØ¯Ø±Ø¢ ÙĪØ±Ø¯
ĠÚ©ÙĨ ÙĪÙĨ
Û´ Û´
ĠØ± Ø´Øª
ĠÙģ Ø§Ø·
ĠÙĨÛĮ ÙĪ
ĠÙ¾Ø±Ø¯Ø§Ø² Ø´
ĠÙħØ§ÙĨ Ø¹
ÚĨ ÙĪØ¨
ĠÚ©Ø§Ø± ÙĨØ§ÙħÙĩ
ĠØªØ® ÙħÛĮÙĨ
Ø± Ø§Ø±
ĠÙħØ³Ú© ÙĪ
ĠØ±Ùĩ Ø¨Ø±Ø§ÙĨ
ĠÙħØªÙĩ Ùħ
ĠÙĩ Ø§ÙĨ
ĠØ¢Ø±Ø§Ùħ Ú¯Ø§Ùĩ
ÛĮÙħ Ø§
ĠØ§ÙĦÚ©ØªØ±ÙĪÙĨ ÛĮÚ©ÛĮ
ĠØ®Ø¯Ø§ ÙĪÙĨØ¯
ĠØ¯ Ø§ÙĪØ±
ĠØ³Ø· ÙĪØŃ
Ø³ Ø±Ø§
ĠÙĩ ØªÙĦ
ĠÙħÙĤ Ø§Ø¯ÛĮØ±
ĠÙħØµ Ø¯
ÙħÛĮ Ø§ÙĨÙĩ
Ø¯ Øª
ĠØ¨ÛĮ Ú¯
Ġ2 00
ĠÙħØ±Ø¯ ÙħØ§ÙĨ
ĠÙĨ ÙĪØ¯
ĠØ± ÙĨØ¬
ĠÙĪ Ø§Ú©
ĠÙĨÙģ ÙĪØ³
Ú¯Ø± Ø§Ø¯
ĠÙħØ± ÙĪØ±
ĠÙĪØ§ÙĤØ¹ ÛĮØª
ĠÙ¾ Ø¯
ĠØ¹ÙħÛĮ ÙĤ
Ø¬ Ø³ØªØ§ÙĨ
ĠÙģØ± ØµØª
ĠÙħØ±Ø¯ ÛĮ
ĠØ² ÛĮÙĨ
ĠØ³Ø§ÙĦ Ùħ
ĠØ³ÙĦ Ø§ÙħØª
ĠØ® Ø¨Ø±ÛĮ
ĠØ§Ø¹ ØªØ¨Ø§Ø±
Ú©Ø³ ÙĪÙĨ
ĠØ±ÛĮØ§Ø¶ÛĮ Ø§Øª
ĠØ® ÙĪØ§Ø±
ĠÙĨÚ¯ Ø§Ø±Ø´
ÙĪØ³ÛĮ ÙĦÙĩ
ĠØ¨ØŃ Ø±Ø§ÙĨ
s h
ĠØ¬ ÙĪØ´
ĠÙħØ± Ø§ÙĤ
ĠÙ¾ Ø§Ø¦
ar d
ĠØŃÙĤ ÙĪÙĤÛĮ
Ø³Øª Ø§
ĠØ¬ Ø§Ø¨
ĠØ¯Ø§ÙĨØ´Ùħ ÙĨØ¯
ĠC h
ĠØ¢ÙģØ±ÛĮÙĤ Ø§ÛĮ
ĠØ¹Ø¨ Ø§Ø³ÛĮ
ĠÙħÙģ ÛĮØ¯
ĠØ¢ Ú¯Ø§ÙĩÛĮ
ĠÚ©Ø§Ø± ÙĪØ§ÙĨ
ĠÙħØ±Ø¯ ÙħÛĮ
ĠØ¢ Ø¯Ùħ
ĠÙħØ¹ Ø±Ø¶
ĠØ§ÙĨÙĤÙĦ Ø§Ø¨ÛĮ
ĠØ² Ø§Ø¯
Ø· Ø¨ÛĮ
Û² Û³
ĠÙĪØ§ Ú¯Ø°Ø§Ø±
ĠÙ¾ÛĮØ± ÙĪØ²
ĠØ§Ø¯ ØºØ§Ùħ
ĠÙħØ§Ùĩ ÙĪØ§Ø±Ùĩ
ĠØ§Ø±ØªØ¨Ø§Ø· ÛĮ
ÙĪØ¯ Ø§
ĠØ¯Ø§Ø± Ø§
Ú©ÛĮ ÙĪ
ĠÙħ Ø§Ùħ
e w
ĠÙĨÙĪ ÛĮÙĨ
ĠÛ±Û¹Û¸Û ¶
ĠØ· Ø§ÙĦ
Ù¾ ÛĮØ±
ĠØ¨Ø§Ø± ÙĩØ§
ĠÙĤ Øµ
Ø³ÛĮ Ø§
ĠÚ©ÙĨ ÙģØ±Ø§ÙĨØ³
Ø² ÛĮÙħ
ĠÚ©ÙĨØ³Ø± Øª
ĠØªØµØ§Ø¯ ÙģÛĮ
ÙĤ ÙĦÛĮ
ĠØª Ø±Ø§ÙĨ
ĠØ¬Ùħ Ø¹Ùĩ
Ø§ÛĮ Ø²ÛĮ
Ø§Øª Ùĩ
ĠØ¯ÙĪØ¯ ÙħØ§ÙĨ
. "
ĠÚ©ÙĦ Ø§Ùĩ
ĠØ§Ø± Ú©Ø³ØªØ±
ĠÚ©ÙĪÚĨ Ú©ØªØ±
ĠØ®Ø±ÛĮ Ø¯Ø§Ø±ÛĮ
ĠØ¹Ùħ ÙĤ
Ø§Ø³ Ú©Ø§
ĠØ§Ø³Øª Ø®
ĠØ³ÙĤ Ùģ
ĠØ¨Ø± ÙĪÙĨ
ĠØ§Ùħ Øª
Ø¹ Ùģ
Ø§ÙĨØ² Ø¯ÙĩÙħ
ĠØ§ÙģØ² ÙĪØ¯Ùĩ
Ã ©
ÙħÙĨ Øª
ĠÚ©ÙĨ ÙĨØ¯Ú¯Ø§ÙĨ
ĠÙĨØ¨ Ø§ÛĮØ¯
ĠØ³Ø±Ú© ÙĪØ¨
Û³Û ±
ĠÚ© ÙĪØ§ÙĨ
ĠØ¨Ø± ÙĪØ¯
ĠØ§Ø³ØªÙĤ Ø¨Ø§ÙĦ
Ø§Ú© ØªÙĪØ±
ĠÙħØª ÙĪÙĨ
ĠÙģ Ø³
ĠÙĩ Ø±ÛĮ
ĠØ³ Ø§ØŃ
ĠÙĨÙħØ§ÛĮ ÙĨØ¯Ú¯ÛĮ
Ø§ ÙĪØ²
ĠØ¢ ÙĪ
ÛĮÙĨ ÛĮØ§
ĠÙħ ÙĪÙĨØª
Ùħ Ø«
ĠÙĨØ±ÙĪ Úĺ
Û· Û¶
ĠØ§ÙĪ Ú©Ø±
Ø§Ø± ÙĪ
Û´ Û¶
Øª ÛĮÙħ
ĠÙĩØ´Øª Ø§Ø¯
Ø§ÙģØª Ø¯
ĠÛ±Û¹Û¸Û ´
Û² Û¸
ĠÚĺ ÙĨØª
ĠØ§Ú©Ø« Ø±ÛĮØª
Ø³ÛĮ ÙĦÙĪ
ĠØ¨Ø§Ø± Ø§ÙĨ
ÛĮ ÙĦÛĮ
ĠØ¨ Ø§Ø³
ĠØª Ø¸
Ø¨ Ø§Ø¯
Ø¬ Ø§Øª
ĠØ¯ÛĮØ¬ÛĮØª Ø§ÙĦ
Ùģ ÙĨ
ĠÙĨ ÛĮÙĦ
n d
ĠÚĺ ÙĨØ±Ø§ÙĦ
Ø³Øª ÛĮÙĨ
ÚĨ ÛĮÙĨ
Ø®ÙĪ Ø§ÙĨÛĮ
Øº Ùĩ
ĠÙħØªÙģ Ø§ÙĪØªÛĮ
ĠÙĩÙħ Ø¬ÙĨØ³
ÙĨØ¸ Ø±
ĠØ±Ø§Ø³Øª Ùĩ
Ø§ ÙĪÙĦ
ĠØ§Ø³Øª Ø¯ÙĦ
ÙģØ± Ùĩ
ĠÚ©Ø± ÙĪÙħ
Ø± Ø§ÙĩÛĮ
Ùĩ Ø§Ø³Øª
ĠØ±ÙĪÛĮ Ø¯
Ø¯ÛĮ Ùĩ
ĠÛ±Û³Û¸Û ¸
ĠØ§Ùħ Ø¶Ø§
ĠØ´Ø´ ÙħÛĮÙĨ
ĠÚ© Øª
ĠÙĩÙħ Ú©Ø§Ø±
Ø³Ú© Øª
ĠÙĪØ¶ Ø¹
ĠÙħØ®Øª Øµ
Û³Û ¸
ĠØ¨ ÙĪÚ©
o k
ĠØ¯ ÛĮÙĦ
Ø¬ÛĮ Ø¨
Û¹Û ¹
ĠÙģÛĮÙĨ Ø§ÙĦ
ĠØ§Ø´Ú© Ø§ÙĦ
ĠØ§Ø¹ Ø·
u b
ĠÙħØ¹ Ø¨Ø¯
Ø¬ÙħÙĩ ÙĪØ±ÛĮ
ĠØªÙĤ Ø¯
ĠÚ©Ø§Ø±ÙĪÙĦÛĮÙĨ Ø§ÛĮ
Ø§ÛĮ Ø¹
ĠÙĨØ§Ø¨ ÙĪØ¯
Ú© Ø³ÛĮ
ĠÙĩÙħ Ú¯ÛĮ
ĠØ±ÙĪ ÛĮÚ©
ĠÛĮ ÙĪØ³Ùģ
ĠÙĤÙĩØ±ÙħØ§ÙĨ Ø§ÙĨ
ĠÙħÛĮ Ø§ÙĨÛĮ
ĠØ±ÙĤ Ùħ
ĠÙĪÛĮÚ© ØªÙĪØ±
ØµÛĮ ÙĦÛĮ
ĠÙĨØ¨ ÙĪØ¯Ùĩ
ĠÙ¾ÙĨÙĩ Ø§ÙĨ
il l
N A
Ø§Ùħ Ø¯
ĠØ§ÙĤ ÙĪØ§Ùħ
ĠØªØ¨ Ø¹ÛĮØ¯
ĠØ§Ø³Øª ØŃ
ĠØ® ÛĮØ±
ÙĪØ± ÙĩØ§ÛĮ
ĠØ§ÛĮ ÙĦÛĮÙĨ
in e
ĠÛ±Û¹Û¸Û ²
ĠÙħØŃØ§ÙģØ¸ Øª
Ù¾ Ø¯ÛĮ
ĠÛ ¸Ûµ
ĠØªØ§Ø¬ ÛĮÚ©
ĠÚ©Ø§Øª ÙĪÙĦÛĮÚ©
ĠØ¢ Ø³Ø§ÙĨ
Û¹Û ¸
ĠÚ©Ø´ ÛĮØ¯
ĠØ¬ Ø§Ø³
ĠÙĨ ØµØ±
ĠÙĨØ§Ùħ ÛĮ
ĠØŃÙħ Ø§Ùħ
Ø±Ø³ Ø§ÙĨØ¯
ĠÙĨÙħ Ø§Ø²
ĠÙħÙĩ Ø§Ø±Øª
ĠÙĤØ¨ ÙĦØ§
ĠØ§Ø®ÙĦØ§ÙĤ ÛĮ
ĠÙĨÙħØ§ÛĮ ÙĨØ¯
ĠØ³ÛĮ Ø¨
ÙĩÙħ ÚĨÙĨÛĮÙĨ
ĠØ¹Ú© Ø§Ø³ÛĮ
ĠÙģ ÙĪ
ĠØ´ ÙĪØ´
ĠÚ©Ùħ Ø§ÙĦ
ĠØ³Ù¾ Ø§ÙĩÛĮ
Ø® Ø±Ùĩ
ĠØ§ÛĮ Ø¯
ĠØ§Ø´ ÛĮ
Ġ. ..
ĠØ¬Ø³Øª Ø¬ÙĪ
ÙĪÙħ ÛĮÙĩ
ĠÙĨÙĪ Ø§Ø±
ĠÙħØ³ Ø¹ÙĪØ¯
ĠØ§Ùħ ÛĮÙĨ
Ø§Ø¨ ÙĨØ¯
ĠØ±ÙĪØ² Ø§ÙĨÙĩ
Ø´ Ø¨
ĠÚ¯ ÙĦÛĮ
ĠÙĨ Ú©Ø±Ø¯Ùĩ
ĠÙħÙĨ Ø²ÙĦ
Ġ( "
ĠØ§ÙĦÚ©ØªØ±ÙĪÙĨ ÛĮÚ©
ĠØ§Ø®ØªØ± Ø§Ø¹
Ø¦ ÙĪØ³
ĠÚĨ Ø§ÛĮ
Ú¯ ÙĪØ´
ĠØ±ÙĪ Ø§Ø¬
ĠØ¹ÙĦ Ø§ÙħØª
ĠÙħÙĨ ØªÙĤØ¯
ĠØ®Ø§ÙĪØ± ÙħÛĮØ§ÙĨÙĩ
ĠØ¨Ø±Ø§Ø¯ Ø±Ø§ÙĨ
ĠÛ±Û¹Ûµ Û°
ĠÙħÙħÙĨ ÙĪØ¹
ĠÚ© ÙĪØ¦
ĠØ§Ø³ØªØ§ÙĨØ¯ Ø§Ø±
Ùģ ØªÛĮ
ĠØ¢ Ø±Ú©
ĠÙħØ¬ ÙĪØ²
ĠØ¬Ø± Ø¬
ĠØ¯Ø§Ø±ÛĮ ÙĪØ´
ĠÛ±Û³Û¹Û ²
Ú¯Ø±Ø¯ ÙĨØ¯
ĠÙģÙĦÙĪØ± ÛĮØ¯Ø§
ĠÙħÛĮ ÙĨÙĩ
ĠÙ¾ ÛĮÙĨ
ĠØ§Ø³Ú©Ø§Øª ÙĦÙĨØ¯
ĠÙĤØ¯ ÙħØª
ĠÙħØŃÙĤ ÙĤ
ĠØ¬ Ø³Ùħ
Ú¯Ø² Ø§Ø±ÛĮ
ĠØªØŃ ÙĪÙĦ
ĠØ¨Ø® Ø§Ø·Ø±
Ø° Ø±
ĠØ¨ Ø²
Û¸Û ¸
ÙĬ ÙĨ
ĠØ´Ø¨ Ø§ÙĩØª
ĠÙģÙĦØ³Ø· ÛĮÙĨ
ÙĤÙĦ Ø¹Ùĩ
ĠÚĨ Ú¯ÙĪÙĨÙĩ
ĠÚ¯ÙĪÙĨØ§Ú¯ ÙĪÙĨÛĮ
ĠØ¨ ÛĮØ§
ĠØ¨ Ùħ
Ø§Ø¹ Ø¯Ùĩ
ĠØ¨Ø¯ Ø§ÙĨ
Ú¯Ø± Ùħ
Ø¬ ÙĨÚ¯
ĠØ·Ø±Ùģ Ø¯Ø§Ø±Ø§ÙĨ
ĠØ¯ Ø§Øº
ĠØ¨ Ø³ØªÚ¯ÛĮ
ĠØ¬ÙĪ Ø§ÛĮØ²ÛĮ
c t
ĠØ¨Ùĩ Ø±Ø§Ùħ
ĠØ±Ø¯ÛĮ Ùģ
ĠÙħØªÙħ Ø±Ú©Ø²
ÙĦ Ø§Ú©
ĠÙģ Ø±Ú©
ĠØ¨ Ø§Ø±Ø¯
ĠÙĩ Ú©Øª
ĠØ¬Ø³Øª Ø¬ÙĪÛĮ
ĠØ§ÙĨ Ø¨
Ù¾ Ø±ÙĪ
Ø· ÙĦØ¨
ĠØ¬ ÛĮÙĨ
in de
ĠØªÙħ Ø±ÛĮÙĨ
Ø´ Ø§Ø±ÛĮ
ĠP r
Ùħ ÙĪØ¯
ÚĨ Ø³ØªØ±
ĠÚ©ÙĨ Ø§Ø±Ùĩ
ĠÙħÙĪ Ø²ÛĮÚ©
ÙĨ ÙĤ
ĠØµ Ø¹ÙĪØ¯
ĠÙģÛĮÙĦ Ø³ÙĪÙģ
ĠØ®ÙĪ Ø§Ø¬Ùĩ
ĠÙĦ ÛĮÚ©
ĠØ±ÙĪ Ø§ÙĨÛĮ
ĠØªØ± Ø³
ĠÙħØ¹ Øª
ĠÙĪØ³ Ø·
ĠØ´Ø§ Ú¯Ø±Ø¯Ø§ÙĨ
ĠØ´ Ø§Ùħ
ĠØ²ÙĨØ¬ ÛĮØ±Ùĩ
Ú©ÙĨ Ø§ÙĨ
ĠÚ© ÙĪÛĮ
ÙĪØ±ÛĮ Ø³
cy cl
ĠØ¨Ø± Ø¢ÙĪØ±Ø¯
ĠÚ©Ø±ÛĮ Ùħ
ĠÚ©Ùħ Ø±Ø¨
ĠÙħØ¯ Ø§ÙģØ¹
c om
ĠÙĪØ³ÛĮ Ø¹
ĠØ§ÙģØª Ø§Ø¯Ùĩ
ĠÙ¾Ø§Ø±ÙĦ ÙħØ§ÙĨ
Ø§Ùĩ Ø±Ø§Øª
ĠØ§Ùħ ÙĪ
ÙħÛĮÙĨ Ø§ÙĨ
ĠÛ±Û¹Û¸Û ·
ĠÚ©ÙĦ Ø±
Ú¯Ø±ÙģØª Ú¯ÛĮ
Ú¯ Ø§Ùħ
ĠÙĨÛĮ ÙĪØ²
ĠÙĨØ§ÛĮ Ø¨
cycl op
ĠØ¨Ø§ÙĦØ§ØªØ± ÛĮÙĨ
Ø³ ÙĪÙħ
ĠÙħØ§ÙĦÚ© ÛĮØª
ĠØ³Ø§Ø² ÙĨØ¯Ùĩ
ĠØªØ§ÙĦ Ø§Ø±
ĠØ§ÛĮÙĦÛĮÙĨ ÙĪÛĮ
ar t
Ø¹Ø¨ Ø§Ø³
ĠØ§ÙĨØªØ®Ø§Ø¨ ÛĮÙĩ
ĠØ± Ø§ØŃØªÛĮ
ĠÙĨØ®ÙĪ Ø§ÙĩØ¯
ĠÙħØ§Ø¬ Ø±Ø§
Ú¯Ø±ÙĪ Ùĩ
ĠØ¹ Ø¸ÛĮÙħ
ĠØ§Øª ÙħÛĮ
ĠÙĩ Ùģ
ĠØªØ¬ Ø¯ÛĮØ¯
ĠØ¨Ø± ÙĨØ¯
ĠÛ´ Û¶
ĠÙĩ ÙĪÙĦ
ĠÙģ ÙĤÙĩ
ĠØ´Ø± Ø·
ĠØ¨ ÙĪÛĮ
ĠØ§ÙĪ Ø§Ø³
ĠF ree
ĠØ¯Ø±Ø¢ Ùħ
ÙĪØ± Ø²
ĠØ¬ Ø³
ĠÙģØ±ÙĪ ÙĨØ¯
ĠÙħØ¨ ÙĨØ§ÛĮ
ĠÙĤÙĦ Ø¨ÛĮ
el l
ĠØ§Ú© Ø±Ø§ÙĨ
ĠÚ¯ Ø§ÙĪ
ĠÙħØ® ÙĦ
ĠÙħØŃÙĦ ÙĪÙĦ
Ø§Ùħ Ø¹
ĠÙħØª Ø£
Ø§Ø¸ Ø±
ĠØ¬ÙĪ Ø§Ø¨
ĠØ¨Ø± Ú¯Ø±ÙģØªÙĩ
ĠÙ¾Ø§Ø± Ø§Ùħ
ĠØ¯ Ø§Ø³ØªØ§ÙĨÛĮ
ĠÙĨÙħ Ú©
ÙĦÛĮ Ø§ÙĨ
ĠØ¨Ø²Ø± Ú¯Ø§ÙĨ
Û³Û ³
ĠØ§Ø±Ø¯ Ø¨ÛĮÙĦ
ĠØªÙĪÙħ Ø§Ø³
ĠÙ¾Ø±Ø§Ú© ÙĨØ¯Ùĩ
ĠÚĨ ÙĨÚ¯
ĠÙĪØ§ØŃ Ø¯ÙĩØ§ÛĮ
ĠÙĩÙħ Ø±Ø§ÙĩÛĮ
Ø§Øª ÙĪ
ĠÙĤØ± ÙĪÙĨ
ĠØ§Ú© Ø³ÛĮØ¯
ĠÚ©ÙĦ Ø§ÙĨ
ĠØ³Ùĩ Ùħ
ĠØ¹ ÛĮØ³ÛĮ
ĠØªØ¬ Ø±Ø¨ÛĮ
ĠÙĩÙģØª ÙħÛĮÙĨ
ĠØ¹ÙĪ Ø¶
Ú¯ ÙĪÛĮÛĮ
ĠÛ¹Û µ
ĠØ® Ùħ
ĠÙħØª ÙĤ
ÙĪÙĨ ÛĮØ§
Û² Û¹
ĠØ§Ø³ØªØ®Ø± Ø§Ø¬
ĠØ³Ùģ ÛĮØ±
Ø³ØªØ§ÙĨ Ùĩ
ĠØªØŃ ÙĪÛĮÙĦ
ĠÚ©Ø§Ø±Ø¨Ø± Ø¯ÙĩØ§ÛĮ
ib ut
ph p
ĠÛµ Û·
Ø§ÛĮØª Ø¯
Ø§ØªØ± ÛĮÙĨ
Ø¨ÛĮ ÙĨØ¯
Ø¬Ùħ ÙĦÙĩ
ĠÙĨÛĮØ´ Ø§Ø¨ÙĪØ±
ÙĦÛĮ Ø¯ÛĮ
Ùģ ÙĪÙĨ
Ø´Ø¯ ÙĨ
ĠØ° Ùĩ
ÙĦ Ø§ÙĦ
ĠØ¨ ÙĪØ³
Ø³ÛĮÙĦÙĪ Ø§ÙĨÛĮØ§
Ù¾Ø¯ÛĮ Ø§ÛĮ
ĠÙħØ¯ Ø¹ÛĮ
Ġ l
ĠØª Ø³Øª
ĠÚ© ÛĮÙĨ
ĠÙĤ Ø§Ø±
ÛĮ ÙĪ
ĠEn cyclop
ĠÙħØ° Ú©ÙĪØ±
ĠÙĨ Ø¨Ø±
ĠØ¢ÙĤ Ø§
ĠÙħÙĩÙĨØ¯ Ø³
m ol
ĠØ¨ÛĮØ± ÙĪÙĨÛĮ
Ø§ÛĮ ØªÛĮ
ĠØ§Ø® Ø°
ĠØ±Ø³ Ø§ÙĦÙĩ
q u
ĠÙĩ ÛĮØª
ĠØµ ÙĦØ§ØŃ
ĠØ¬ Ú©Ø³ÙĪÙĨ
ĠÚ©Ùħ ØªØ±ÛĮ
t it
ÛĮØ¯ Ú¯ÛĮ
ww w
ĠØ¬ÙĦ Ø§ÙĦ
ĠÙĦØ° Ø§
Ø§Ø ¢
ĠÙĨ Ø¹
ĠØ² ÙĪØ¬
ĠØ¬Ø§Ùħ Ø¯
ĠÙĤ ÙĨØ§Øª
ĠÛ±Û¹Û ¸Ûµ
Ġ Ø§ÙĨÛĮÙħ
ĠØ¯Ø§Ø± ÙĪÛĮÛĮ
ĠØ³Øª Ø§Ø±
Ø³ ÙĪØªØ§
ĠÛ±Û¹Û· Û¹
ĠØ§Ø³ØªØ¯ÙĦ Ø§ÙĦ
ĠØ¯ ÛĮØ²
ĠÚ© Ø§ÙĨØ¯
ÙĪÙĨØ¯ ÛĮ
ĠØ±Ø³ ÙħØ§
ÙĪÛĮØª Ø³Ùĩ
ĠØ¢ÙĦ Ø§Ø¨
ĠÚĨØ§Ø± ÙĦØ²
Ø´ Ø¹
ĠÙħØ¹ ÛĮÙĨ
Ù¾Ø±Ø¯ Ø§Ø®Øª
ĠÛ´ Û´
e g
ĠÚ¯Ø± Ú¯
ĠÙħØ¹Ø§Ø¯ ÙĦÙĩ
ĠÙĨ Ø§Ø³
ĠØ¢ÙĨ ØªÙĪÙĨÛĮ
ĠÂ« "
ĠØ®ÙĪØ¯ Ú©Ø§Ø±
ĠÙħØ£Ùħ ÙĪØ±
ĠØ¯ ÛĮÚ©
ĠØ± Ø³ØªÙħ
ĠÙħØŃ Ø³ÙĨ
Ġcon tr
ĠØ§ØŃØªØ± Ø§Ùħ
ØŃ Ùħ
ĠÛ±Û¹Û¸Û ±
Ø¯ Ø§Ø±Ø¯
ĠÛ´ Û·
Ùģ Ø±ÙĪ
ĠØ®ÙĪØ§Ø³Øª Ùĩ
ĠØ¯Ø§Ø±ÛĮ Ùħ
ĠØ¹ Ø·
ÙĨØ¬ Ø§ÙĨ
ĠØ¬Ø¯Ø§ Ú¯Ø§ÙĨÙĩ
ÙĪÙħ ØªÛĮ
ĠØ§Ú© Ø³
Ú© ØªØ§Ø¨
inde x
ĠØ§Ùĩ ÙĪØ§Ø²
ĠØ§ÛĮ ÙĨØ¯ÛĮ
ĠÚ©Ø±Ø¯ ÛĮ
Ġ <
ĠÙħØ´ Øª
ĠÛ±Û³Û¹Û ¶
ĠEncyclop edia
ĠÙħØ®ÙĦ ÙĪØ·
ĠÙĤ ÙģÙĤ
ĠØªÙĨ Ø´
ĠÙħÙĪØ³ ÙĪÙħ
Ø®Øª ÙĨ
ĠØ§Ø· ÙħÛĮÙĨØ§ÙĨ
ĠØ§Ø³Øª ÙĪØ§Ø±
Ø§ÙĤ Ø¯
ĠØ¨ ØªÙĨ
Ø§Ø¨ ÛĮÙĨ
ÛĮÙĦ Ø§
ĠÙħØŃÙħØ¯ Ø¹ÙĦÛĮ
Û¸Û ¹
ÙĪÙħ Ø±
ĠÙĩÚ©Øª Ø§Ø±
ĠÛ±Û¹Û´ Ûµ
Ø³Ú©Øª Ø¨Ø§ÙĦ
ĠØ¬Ùħ Ø§ÙĩÛĮØ±
ĠÙ¾Ø± ÙĨØ¯Ú¯Ø§ÙĨ
ĠÙĨ ØªÙĪØ§ÙĨØ³Øª
ĠÚ©ÙĪ ÚĨÙĩ
ĠØªÚ© Ø§ÙħÙĦ
ĠÙ¾ Ø±Ùģ
Ø¨Ø± Ø²
ĠÛĮØ§Ø¯ Ú¯ÛĮØ±ÛĮ
ĠØ± Ø¬
ĠÚ¯Ø±Ø¯ ÙĨ
ĠØ³ÛĮÙĨ Ø§
ĠØ®ÙĪØ§Ø³Øª Ø§Ø±
ĠÚ¯Ø°Ø±Ø§ÙĨ Ø¯
ĠØ³ Ø§ÛĮÙĩ
ĠÚ©Ø§ÙĨ ÙĪÙĨ
ĠØŃ Ø´
ic e
ĠÚ¯Ø± Ø¬Ø³ØªØ§ÙĨ
ĠØ¢Ø¨ Ø´Ø§Ø±
ĠØ¨ÛĮ Ø§ÙĨÛĮÙĩ
ĠÚ¯ ÙĪØ¯
ĠØ³Ùģ Ø§Ø±Øª
ĠØªØ±Ú©ÛĮØ¨ Ø§Øª
ĠÙģØ±Ø¯ ÙĪØ³ÛĮ
ĠÙĨÙĩØ§ÛĮ ØªØ§
ĠÙĩÙĦ ÙĨØ¯ÛĮ
ĠÙĪ Ø§Ùħ
ĠÙĪ Ø§Øª
ĠØ² Ø¨Ø§ÙĨÛĮ
ĠØ¯ Úĺ
ĠÙĦ ÙĨÚ¯
ĠÙĤÛĮ Ø§Ùħ
ĠØ¨Ø¯ ÙĨÙĩ
ĠÙĪØŃ Ø´ÛĮ
ĠØ³Ø·ØŃ ÛĮ
ĠØ¬Ø§ÙĨ Ø¨
ĠÙħÙĪÙĤ Øª
ĠÚ¯ÙĦ Ø³ØªØ§ÙĨ
ĠÛĮÙĪÙĨ Ø§ÛĮØªØ¯
ĠØ¨Ø§Ø²Ø± Ú¯Ø§ÙĨÛĮ
Ùģ Ø§ÙĨ
ĠØ²ÛĮ Ø³ØªÛĮ
ĠØŃØ± Ø§Ø±ØªÛĮ
ĠÚ© Ø§ÙĨÛĮ
ĠÙĦ Ø§Ø±
Ùħ ÙĨØ¯Ø§ÙĨ
ĠØ´ Ø±ÛĮÙģ
ĠÛĮ ÙĪØ±ÙĪ
ÙĩØ§ÛĮ Ùħ
ĠÚĨÙĨØ¯ Ø§ÙĨ
Ûµ Ûµ
__ __
Ġ v
ĠØ¨ Øµ
ĠØ³ÙĦ Ø¬ÙĪ
Ø® Ø¯
ĠØŃØ° ÙģÛĮ
Ø³Ø§ ÙģØª
ĠØ´Ø¹ Ø¨Ùĩ
ĠÙģØ± Ø§Ø®
ĠØ± Ø¹
ĠÙĦØŃ Ø¸Ùĩ
Ú¯Ø° Ø±Ø¯
ĠØ¨ Ø§ÛĮØ±
ĠÙħ Ø±ÙĪ
ĠÙĦÛĮ Ø³Ø§ÙĨØ³
Û³Û ¹
Û¶ Û¶
ĠÚ© ÙĪÙĨ
ĠØ§Ø± Ø³
ĠØ§ ÙĪÙĨ
ĠÙħØ¯ ÛĮØ±Ùĩ
ÙĨÙĪ Ø¹
ĠÛ´ Û°Û°
Ø¶ Ø§ÙĨ
Ø¦ Ùĩ
ĠÙħØ¹ Ø¯ÙĨ
ac c
ĠÛ±Û¹Û· Û¶
Ø´Ø± Ø¯Ùĩ
ĠÙ¾ÙĨ Ø³ÛĮÙĦÙĪØ§ÙĨÛĮØ§
Ú¯ÛĮÙĦ ÙĪÛĮÙĩ
ĠÚĨØ± Ø®Ùĩ
ibut ors
ĠÛĮ Ø§Ø±ÛĮ
ĠØ¶ Ø®
Ø§ÙĦ ÙĪ
Ú¯Ø± Ø§Ùĩ
ĠÙĦ Ø²
ĠÙĩØ§Ø´ ÙħÛĮ
ĠÙĪÙĦ ØªØ§Úĺ
ĠØ´ÛĮØ¹ÛĮ Ø§ÙĨ
Ġcontr ibutors
Ø§Ø¹ Ø¯
ĠÙħÙĪØ§Ø±Ø¯ ÛĮ
ĠÙħØ¹ØªÙĤØ¯ ÙĨØ¯
ĠØ¨ Ø³Ú©ØªØ¨Ø§ÙĦ
Øµ Ø§Ø±ÛĮ
ĠØŃ ÙĤÛĮÙĤÛĮ
n ow
ĠØ§ÙĪ ÙĦÛĮ
ĠØŃÙĪ Ø§Ø¯Ø«
ĠÙ¾Ø±Øª ØºØ§ÙĦ
ÙĪØ¯ Ú¯ÛĮ
ĠØ¬ Ø§Ø°
ĠØ§ÛĮÙĨØªØ± ÙĨØªÛĮ
ĠØ³Ø§ØŃ ÙĦÛĮ
ĠØ¨ÙĪØ´ ÙĩØ±
ĠØ±Ø§Ø¯ÛĮ ÙĪÛĮÛĮ
ĠÛ±Û¹Û´ Û´
ĠØªØ¹ ÙĦÙĤ
ĠØªØµÙĪÛĮ Ø±ÛĮ
ĠØ³Ø¤ Ø§ÙĦ
ĠØ¢ÙĦØ§Ø¨ Ø§ÙħØ§
Ú© Ø´Ø§ÙĨ
ĠØ® Ø´Ùħ
ĠÙĪÛĮ Ø³
ĠØªØ³ ÙĦÛĮÙħ
ĠÙĤØ¯Ø± ØªÙħÙĨØ¯
ĠØ¯ Ø§Ú©
ĠØ§Ùħ Ø§Ø±Ø§Øª
ĠÙĪÙĤ Ø§ÛĮØ¹
ĠÙģÛĮØ± ÙĪØ²
ÙħØ§ÙĨ Ùĩ
ĠØ¬ÙĦ ÙĪÛĮ
ĠØ¬Ø¹ Ø¨Ùĩ
ĠØ³Ø±Ùħ Ø±Ø¨ÛĮ
ĠØ§ÙħØª Ø¯Ø§Ø¯
ĠØ³Øª Ø§Ø¯
ÙĪ Ø§ÙĦÛĮ
Ø§ ÙĪØ±ÛĮ
ĠÙħØ´ ØªÙĤ
Ø¬Ùħ Ø¹ÛĮØª
Ø§ÙĦ Ø¨Ø§
ĠÙĤ ÙĪÙĦ
ĠØ¯Ø®ØªØ± Ø§ÙĨ
e v
ĠÛ±Û¹Û· Û¸
ĠØ³ ÙĪÙ¾Ø±
ĠØ¨Ø± ÙĪØ¬
ĠØ§Ø¨ ÙĪ
ĠÙħØ§ÛĮ Ú©Ø±ÙĪ
ĠÙ¾Ø± ÙĪØ§ÙĨÙĩ
ĠØ§ÙĨØ¬Ø§Ùħ ÛĮØ¯
Ø² ÛĮÙĨ
ĠØ¢ÙĦ ÙĪÙħ
ĠÚĨÙĨØ¯ ÛĮ
ĠÚĨØ± Ø®Ø´
ĠÚ© Ø§Ø±Ø¯
Ø¹Ø¯ Ø§Ø¯
Û¹Û ³
ĠÙ¾Ø± ØªÙĪ
ĠÚ©ÙĨ Ø³ÙĪÙĦ
ĠA r
ĠØ²ÙĨØ¬ Ø§ÙĨ
Øª Ø§Ø±ÛĮØ®
ĠÚ©Ø§Øº Ø°
ĠÛ±Û¹Û· Û³
ĠØ§ÙĨØ¯ Ø§Ùħ
ĠÛ±Û¸Û ²
ĠØ§Ø± ÙĪÙħÛĮÙĩ
ĠØ¨ÙĦ ÙĪ
Ú¯ÙĪÙĨ Ú¯ÛĮ
Ġ â
Ø® Ø§Øµ
ĠØ³Ø±Ø¯ Ø§Ø±
ĠØ¬Ø¯ Ø§ÛĮÛĮ
tit le
ĠØ¢ Ú¯Ø§Ùĩ
Ø± ØºÙħ
Ùģ ÙĪØ±
ĠÙ¾ÛĮØ± ÙĪØ§ÙĨ
ĠØ®Ø¯ Ø§ÛĮ
Û¹Û ±
ÙĤ ÙħØ±ÛĮ
ĠÛ±Û¹Û¸Û ³
ĠØ¬Ø§ÙĨ ÙĪØ±Ø§ÙĨ
ĠØ¯ÙĪÛĮ Ø³Øª
ĠÙģ Ø´Ø±Ø¯Ùĩ
ĠØ¶Ø± ÙĪØ±ÛĮ
ĠØ§Ú©Ø³ÛĮ ÚĺÙĨ
ÛĮØ§ ÙģØª
ĠÚ© Ø§Ø¸
ĠÙħÛĮ Ø´
ĠØ´ÙĩØ±ÙĪÙĨØ¯ Ø§ÙĨ
ĠØŃ Ø±ÙĪÙģ
Ø§ÙĦÛĮ Ø³Ùħ
ĠØªØ´ ÙĪÛĮÙĤ
ĠÚ¯ÙĨØ¯ Ùħ
ĠØ§Ø³ØªØ® Ø¯Ø§Ùħ
ĠÚ¯ÙģØª Ú¯ÙĪ
ĠÙĤØ¶ ÛĮÙĩ
ĠÚ©Ùħ Ø¨ÙĪØ¯
ĠØ¯ÛĮ Ø³Ú©
ÙĪØ³ Ú©
Ø³ÙĪ Ø§Ø±ÛĮ
ØªØ´ ØªÛĮ
ĠÙħØµ Ø·ÙģÛĮ
Ø§Ùħ ÙĦÙĩ
ĠÙħØ¹ ÙĦÙħ
ĠÚ© Ø¨Ú©
ĠÙĤØ¶ Ø§ÛĮÛĮ
ĠÙħÙĨØ· ÙĤ
ĠÚ©ÙĪÙĩ Ø³ØªØ§ÙĨ
Ø§Ú¯ Ø§
ĠÙħØ¬ Ø§Ø²ÛĮ
ĠÛ±Û¹Û¶ Û¸
ĠÙħÚ©Ø§ÙĨ ÛĮÚ©ÛĮ
e x
Ġ Z
ĠØ¢Ú¯ ÙĪØ³Øª
Ø§Ùħ ÛĮÚ©
ĠÙĩ ÛĮØ±
ĠØªØ¹ Ø§Ø¯ÙĦ
Ú¯ Ø´
ĠÙĤ Ø¯Ùħ
ĠØªØ± ÙĪØ±
ĠØ¯Ùģ ÙĨ
ĠØªØ¯Ø±ÛĮ Ø¬
Ġ 6
ĠØ®ÙĪØ¯ Ø´Ø§ÙĨ
ĠØ±ÙĪØ² Ú¯Ø§Ø±
Ø§ÙĨÚ¯ ÛĮØ²
ĠØ¨ ÙĪØ¦
Ù¾ Ø§ÙĦ
ĠÛ±Û³Û¹Û ´
Ø¯Ùĩ Ø³ØªØ§ÙĨ
ĠØ§ÛĮ Ø²Ø¯
ĠÚ©Ùħ ÙĪÙĨ
ÛĮÙĨÚ¯ ÙĨ
ÙĨÙħ ÙĪØ¯
ĠØ¯Ø± Ø¨Ø±
Ø³ Ø§Øª
ĠØ¯ÙģØ§Ø¹ ÛĮ
Ùħ ÙĪØ±
ĠÙħÙĤ ØµØ¯
ĠÛ±Û¹Û´ Û³
ĠÙħÙĨ Ø¹
ĠØ®ÙĪØ±Ø¯ ÙĨ
old id
ĠÙĤØ±Ø¨ Ø§ÙĨÛĮ
ĠÛ±Û¹Û· Û²
ĠØªØŃÙĤÛĮÙĤ Ø§ØªÛĮ
ĠØ¬ ÙĪÛĮ
Ø§Ø¨ ÙĨ
ĠÙĤ Ø´
Ú¯Ø± Ø§ÛĮ
Ø§Ú© Øª
ĠØ§ÙĨØ¯ Ø§Ø®Øª
ĠÙĪØ³ Ø¹Øª
ĠÙĨØ§Ùħ Ø´
ĠØ§ÙĨØ¯ ÙĪÙĨØ²ÛĮ
ĠÛ¶ Û´
ĠØ¬Ø§ÙĨ Ø¨ÛĮ
ĠØ¯Ø§Ø± ÙĪÙĩØ§ÛĮ
ĠØºÛĮØ± ÙĤØ§Ø¨ÙĦ
ĠC H
ĠØ¢Ø²ÙħØ§ÛĮØ´ Ú¯Ø§Ùĩ
ĠÙħØ±Ø² ÙĩØ§ÛĮ
ĠØ¨ ÛĮÙĩ
ĠØ´ÛĮ Ø¨
1 1
ÙĪ ÛĮÚ©
ĠÙģ Ø§ÙĤØ¯
Øµ Ø§Ø¨
ĠÙĨ Ø¨Ø§Ø´Ø¯
ÙħÛĮ Ùĩ
ĠÛ³Û ³
ĠÛ±Û³Û¹Û ³
ĠÙĩ Ø±Ú©
ĠØº Ø§ÙĦØ¨Ø§
Øª Ú©
Ù¾Ø±Ø¯Ø§Ø² ÙĨØ¯
ĠÙģ ÙĪÙĨ
ĠØ§ÙħÙĪ Ø§Ø¬
ĠØ³ÙĪ Ø¡
ĠØ®Ø§Ø· Ø±Ø§Øª
ĠØ§ÙĪÚ©Ø± Ø§ÛĮÙĨ
ĠÚ¯ ÚĨ
ĠØ§Ø¹ Ø±Ø§Ø¨
ĠØ¯Ú©ØªØ± Ø§ÛĮ
ĠÙħØ± ØªØ¨Ùĩ
ĠÛ±Û¹Û· Û´
ÙħÛĮ ÙĦÛĮ
ĠÙħÙĪØ§ÙģÙĤ Øª
Ġ ÛĮÙħÙĨ
ĠÙħÛĮ Ø´ÙĪØ¯
ĠØº ÙĨÛĮ
ĠÙħÙĪØ¶ÙĪ Ø¹Ø§Øª
ĠÙĨÙĪØ¨ ÙĦ
ĠØ¹Ùģ ÙĪÙĨØª
ĠØ¨ Ø§Ø±Ùĩ
Ùħ Ú©
ĠØ³ÙĪØ± Ùĩ
ĠØ´ Ú©ÙĨ
i o
ÙĨØ§Ùħ ÙĨØ¯
ĠØ¯Ø± ÙĪÙĨÛĮ
ĠØ¨ÛĮÙħ Ùĩ
ĠØ§Ø³Øª ÙĨ
ĠØ§ÙĪØ§Ø³ Ø·
ĠØ§ÙĦ Ùĩ
ĠØ§ØªÙĪÙħ Ø¨ÛĮÙĦ
ÙĨ ÙĪØ±
Ø¯Ø§Ø´ ØªÛĮ
Ø§ ÙĪÙħ
ĠØ¨ÙĦ ÙĪÚ©
ĠÚ¯Ø° Ø§Ø±ÛĮ
Û¸Û ³
ÙĨØ´ ÛĮÙĨÛĮ
b er
ĠØ®ÙĦ Ø§Øµ
ĠÙĩØ´Øª ÙħÛĮÙĨ
Ġ Î
ĠØ®ÙĪØ¯ Ùħ
ĠÚĨ Ú¯ÙĪÙĨÚ¯ÛĮ
ĠØ± ÛĮØ´
ĠÙ¾Ø§Ø± Ø³
ĠØ§ÙĨÚ¯ Ø´Øª
ĠÙ¾ Ø³ØªØ§ÙĨ
ĠØ§Ø¹ Ø¸Ùħ
ĠÙĪÛĮØ±Ø¬ ÛĮÙĨÛĮØ§
ĠØªÙĪ Ú©ÛĮÙĪ
ĠÙħØ±Ø§ÙĤ Ø¨Øª
ĠÙģØ± Ùĩ
ĠØŃÙħ ÛĮØ¯
Ø§ÙĨØ¯ ÛĮØ³
ĠØ§Ùĩ Ø¯Ø§
ĠØ¢ Ø±Ø§
ĠÛ±Û³Û¸Û ¹
ĠÙħØŃÛĮ Ø·ÛĮ
ĠØ§ØµÙĦØ§ØŃ Ø§Øª
Ø¯Ø§ ÙĪÙĦ
ĠØµ Ø±Ø¨
ĠÙħØ· ÙĦÙĪØ¨
ĠØ¢ Ø¯Ø±
ĠØ²Ø± ØªØ´ØªÛĮ
ĠÚ© ÛĮÙħ
Û±Û¹Û ¹Û
ĠÛ±Û¹Û² Û°
ĠÙ¾ÙĨØ¬ Ø±Ùĩ
ĠØ®ÙĪØ¯ Ø±ÙĪÛĮ
ĠÙħØ± Ø²ÛĮ
ĠØ¨ÛĮÙĨ ÛĮ
ĠÛĮÚ© Ù¾Ø§Ø±
ĠØ±Ø³ ÙħÛĮØª
Ø¨ ÙĤ
ĠÚ©Ø± Ø³ÛĮ
ÙĦÛĮ ÙĦÛĮ
ĠÙĨ Ø§Ø¯
ĠÙĨØ§Ùħ Ø²
ĠÙħØ³ÛĮØŃ ÛĮØª
ĠØ¨ Ø¯ÛĮ
i f
ĠØªØ¹ Ø·ÛĮÙĦ
Ġ r
Ø³ÙĦØ· ÙĨÙĩ
ĠÛ±Û¹Û· Ûµ
ĠÙħÙĪØ± Ø®
ĠØ³ ÛĮÚ©
ĠÛ±Û¹Û· Û·
ĠØ§Ø±Ø¯ Ø´ÛĮØ±
Ġ k
Ùħ ÙĨØ¯ÛĮ
ĠØ±ÙĨÚ¯ ÛĮ
ĠÙĪØ§ Úĺ
Ø§ÙĦÙħÙĦ ÙĦ
ĠØª Ø±Ø¯
ĠÚ¯ Ø§Ø±
ĠØ¨Ø± ØªØ±ÛĮ
Ø§Ø² ÙĨ
ĠD istrict
ĠÙħ Ø²Ø§Ø±
Û· Û·
ĠÚ©Ø´Øª Ø§Ø±
ĠØµÙĨØ¯ ÙĪÙĤ
ĠÙĪ Ú©ÛĮÙĦ
Ú©ÙĨ Ùĩ
ĠØ¨ Ø¯ÙĩØ¯
ĠÙħÙĪ Ø³ÙĪÛĮ
ĠØ®Ø§ÙĦ Øµ
ĠØ³ ÙĨÛĮ
ĠØ³Ø§Ø®Øª ÙħØ§ÙĨÛĮ
ĠØ¢Ø°Ø±Ø¨Ø§ÛĮØ¬ Ø§ÙĨÛĮ
ĠØ§Ø³Ú©ÙĨØ¯ Ø±
ĠØ¨ ÙĪÛĮØ±
ĠØ±Ø³ÛĮØ¯ ÙĨØ¯
ĠÚĨ Ú¯
ÛĮØ± Ø§
Ø³ÛĮ Ø±ÛĮ
ĠØºÛĮØ± Ùħ
ĠÙĪØ³ÛĮ Ø¹ÛĮ
ĠØ¹ ÙĪØ§Ø±
ĠÚĨ ÙĪØ¨ÛĮ
ĠÙĪØ¸ Ø§ÛĮÙģ
ĠÚ¯ÛĮØª Ø§Ø±
ĠØ§Ø® Ø±Ø§Ø¬
ĠØª ÛĮÙĦ
ĠØ®ÙĪØ± Ø¯Ùĩ
, "
ĠØ§Ø« Ø±Ø§Øª
ĠÛĮØ§ÙģØª ÙĨØ¯
ĠØª Ø§ÛĮÙĦ
ĠØ´Ø§Ø¹ Ø±Ø§ÙĨ
iv e
ĠÛ¹Û ¶
ĠÙħØ· Ø§ÙĦØ¨
ĠÙģÙĨ ÙĦØ§ÙĨØ¯
ĠÙħØ´Ø±ÙĪ Ø·Ùĩ
ĠØ± ÙĪÙĦ
ĠÛĮ Ø§Ø²Ø¯Ùĩ
ĠÙħØ¨ÙĦ Øº
ĠÚ©Ùĩ Ú¯ÛĮÙĦÙĪÛĮÙĩ
ĠÛ±Û³Û¹Û ·
ĠØ¨Ø§Ø²ÛĮÚ¯Ø± Ø§ÙĨÛĮ
ĠÛ±Û³Û¹Û ±
Ø§ÙĦÛĮ Ø³Øª
Ú©ÙĨÙĨØ¯ Ú¯ÛĮ
ĠÚ©ÙĪØ§ÙĨ Øª
ĠØ§Ø³ ÙĦÙĪ
ĠØ¢Ø´ÙĨ Ø§ÛĮÛĮ
ĠØ¹ÙĦ Ø§Ø¦Ùħ
ĠÙħØº Ø²ÛĮ
ĠÙĨ Ø§ÚĨ
ĠØ¨Ø± Ø¯Ø§Ø±ÛĮ
1 9
ĠÚ©Ø± Ùħ
ĠØª Ø±ÙĪ
ØŃ ÙĤ
ĠÙĨÙĩ ÙħÛĮÙĨ
ĠØ´ Ø§Ù¾ÙĪØ±
ĠÙĩØ± Ø§Øª
ĠØªØ± Ø´
acc ess
ÙĪØª ÙĨ
ĠÙ¾Ø±ÙĪØª Ú©ÙĦ
ĠØ³Ø±ÙĪ Ø¯Ùĩ
ĠÙĨØ§Ø´ ÙĨ
ĠØ¯ Ø´
Ø§Øº Ùĩ
ĠÙ¾ÙĪØ´ ÛĮØ¯Ùĩ
ĠÛ±Û¹Û ³Û°
ĠÚ¯ÙĦ ÙĪÙĦÙĩ
ÙĪØª Ø±ÛĮ
ĠØ´ÙĦ ÛĮÚ©
ĠÙģ Ø§ÙĦ
ĠÛ±Û¹Û· Û±
ĠØ´ÛĮ ÙĦÛĮ
ĠÙĤ ØµØ±
ĠÛ¹Û ²
ĠÙħØ¹ÙĦ ÙĪÙħ
Ø§Ø³Øª Ø±
ĠØ³ÙĦ ÙĪÙĦÛĮ
ĠÙ¾Ø± Ø³Ù¾
ĠÛ³Û ³Û
Ùħ ÙĪÙĦ
ĠÙģØ± ÙĤÙĩ
ÙĪ Ø¢
ĠÚ©Ø§ ÙĪØ´
Ø±Ø¯ Ú¯ÛĮ
ĠØ³ ÙĪÙĨ
ĠØ® ÙĦØ§
ĠÙĤ ÙĪÙħÛĮ
ĠØ§ÙĨ Ø¹
ĠÙģÙĦØ³ ÙģÛĮ
Ġ h
ĠØªØ± Ø¬ÛĮ
ĠØ´ÙĪ ÙĩØ±
ĠÛĮ ÙĪÙĨÛĮ
ĠØ´ÛĮØ± Ø§Ø²ÛĮ
ĠÙĩ Ø§Ùģ
ĠØ¯ÙĪ Ú©
Ø§Ùħ ÙĦÛĮ
ĠØªÙĪ ÙĦÛĮØ¯ÛĮ
Úĺ ÛĮÚ©ÛĮ
ĠÙĩØ±ÙħØ² Ú¯Ø§ÙĨ
Ø¯Ø± Ùĩ
ĠØ§Ø³ØªØ±Ø§Øª ÚĺÛĮ
ĠÛµ Û¶
ÙĪ ÙĩØ§
ĠØ³Ø± ÚĨØ´ÙħÙĩ
Ú¯Ø° Ø§Ø±Ø§ÙĨ
Ø²ÛĮ Ø³Øª
ĠÛ±Û¹Û´ Û°
ĠÙĨØ¬ Ùģ
Ø² Ø§Ø¨
Ø· ÙĦ
ĠØ´Ùģ Ø§Ùģ
Ø² Ø§ÛĮÛĮ
ĠØªÙĨ ÙĩØ§ÛĮÛĮ
ĠÙĨØ¸ Ùħ
ÙħÙĦ Ú©
ĠØ¯Ùĩ ÛĮ
ĠÙħØª Ø§ÙĦ
ĠÙħÚ©Ø§ÙĨ ÛĮÚ©
ĠØ§Ø´Ú© Ø§ÙĨÛĮØ§ÙĨ
" .
ĠØ¨ Ø§Ø±ÛĮ
ĠÙħÙĪ Ø¶
ĠÙ¾Ø§Ø± ÚĨÙĩ
ĠØªÙģ Ú©
Ø¨ ÙĪØ¯Ùĩ
ĠÚ©Ø§Ø± Ú©ÙĨØ§ÙĨ
ÙĪÙĩ Ø§ÙĨ
Ø¨Ø§Ø± Ø§ÙĨ
ĠÚ©Ø§ÙĦ Ø§
ĠØ¹Ùħ ÙĪÙħ
ĠÚ©Ø§Ø± Ú¯Ø±
ĠÙħØ¬ Ø±ÛĮ
Ø² Ø§Ø³
ĠØªØ¬ Ø§ÙĪØ²
ÚĨ Ø§ÙĦ
ĠÛĮ Ø§Ø±
Û¸Û ±
Ø¢Ùħ ÙĪØ²
ĠÚ¯ Ø³Øª
ĠÙĩÙĨØ¯ ÙĪØ³ØªØ§ÙĨ
Ø§Ø³ Ø±ÛĮ
Ø§Ùģ Ø²Ø§Ø±ÛĮ
ĠÙĪØ§ÙĤØ¹ Ùĩ
ĠØ±ÙĪ Ø²ÛĮ
ĠÙħØ¬Ø§Ø² Ø§Øª
ĠÛ±Ûµ Û°
ĠØ²ÛĮØ¨ Ø§ÛĮ
Ù¾ Ø²Ø´Ú©
ĠØ´ÙĪ Ø§ÙĩØ¯
ĠÙĤÙģÙĤ Ø§Ø²
ĠØ¬ Ø§Ø±ÛĮ
ÛĮØ³ Ùħ
ĠØ§Ø¨Ø²Ø§Ø± ÙĩØ§ÛĮ
ĠÙĨØ³ Ø¨ÛĮ
Ø§ÛĮ ÙĦÛĮ
ĠÛ±Û¹Û¶ Û¹
ĠÙħ Ø§ÙĨÛĮ
ĠØ± Ø¤
ĠÙģØ±Ú© Ø§ÙĨØ³
ĠØ² ÙĨÚ¯
Ø§Ø¯Ùĩ Ø§
ĠÛ±Û¹Û¶ Û´
ĠÚ©ÙħØ±Ø¨ ÙĨØ¯
ĠØ¨Ø§Ø²Ø± Ú¯Ø§ÙĨ
ĠØ¯Ø§ÙĨØ´ Ø¬ÙĪ
ĠÙħÙĩØ§Ø¬ Ùħ
Ø§Ø¯ Ø§Øª
) :
ĠØ¢ÙĦ ÙĨ
ĠØªØŃ ÙħÙĦ
ĠØªÙĩ Ø§Ø¬
a in
Ø§Ø· ÛĮ
1 0
ĠØªÙĪØ§ÙĨ Ø³ØªÙĩ
ĠØ¢ÙĨ Ø²ÛĮÙħ
Øµ ÙĦÛĮ
ĠØ· Ø§ÙĤ
ĠØ¬Ø§Ø° Ø¨Ùĩ
ĠÙĪÛĮØ± Ø§ÛĮØ´
ĠÙħØ®Ø§ÙĦÙģ Ø§ÙĨ
Ø§Ø¨ Ø§Ø¯
ĠÙħÛĮÙĦ Ø§ÙĨ
ou r
ÛĮÙĦ ÙĨØ¯
Ø·ÙĪØ± Ùĩ
access ed
ĠØª Ø³ÙĦØ·
ÙĪ ÙģØ±
ĠÙħØ¹ Ø§ÙĨÛĮ
ĠÙħØ± Ø§Øª
ĠÚ© ÛĮÙĩ
ĠØªÚ© ÛĮÙĩ
Ø§Ø± ÙĩØ§
ĠÙħØ® Ø§Ø¨Ø±
ÙĩØ± Ø§
ĠØ§ÛĮ ÙĦØ§Ùħ
ÙĪÛĮ Ø¬
ĠØ¨ÙĦ Ø§Ùģ
Ù¾ ÛĮÙħ
ĠÙĨÙĩØ§ Ø¯Ùĩ
Ø§ÚĨ ÛĮ
ĠØ´ ÛĮÚ©
ĠØ¢ ÚĺØ§ÙĨØ³
ĠÛ±Û±Û °
ĠÙħØ¨Ø§Ø± Ø²
ÙĩØ§ÛĮ Ø´Ø§ÙĨ
ĠØ§Øª ÙĪØ¨
Ø§Ùĩ ÙĪ
ĠÙħÙĩ Ø§Ø±
ĠØ¨Ø± Ùĩ
ĠØ¹ Ø§ÙĦÙħ
ĠØ¬ Ú©
Ø§Ø³ Ùĩ
ĠÙĦ ÙĨ
ĠØ§ÙĦÚ©Ø³ Ø§ÙĨØ¯Ø±
t on
ĠØ³Ø± ÙĪØ±
ÙĦ Ø¯
Ùģ Ø§Ø±
ĠÙĪÛĮØ±Ø¬ ÛĮÙĨÛĮ
ĠØ¢ÙģØª Ø§Ø¨
ĠÚ© ÛĮØª
ĠØªÙģ ÙĨÚ¯
ĠØ¨Ùĩ Ø´Øª
ĠØ¯ Ú©ØªØ±ÛĮ
ĠØ¢ Ø¨Ø±
ĠØ¯Ø® Ø§ÙĦØª
ĠØ¶ ÙĦØ¹
ĠÛ±Û¹Û¶ Û·
ĠØªØ¨ÙĦÛĮØº Ø§Øª
Ø§Ø´ ÙĨ
ĠÙģ Ú©Ø±ÛĮ
ĠÙħÙĨØŃ ØµØ±
ĠÙĩ Ø§ÙĦÛĮ
ĠÙħØŃ Øª
ĠÙĦÛĮ Ø¨Ø±
ĠÙĩÙĪØ´ ÙħÙĨØ¯
ÙĪ Ø§Ø¯
ĠÙħØŃ Ø±Ùħ
ĠÙĦÙĩ Ø¬Ùĩ
ĠØ®ÙĦØ§ ÙģØª
ĠØµ Ø®Ø±Ùĩ
ĠÚ© ÛĮÙĨÚ¯
ĠØŃ Ø¨ÛĮ
ĠÙħÙĪ Ø´
ÙĦ Ø§ÛĮ
Ø² ÙĪÙĨ
Ø±ÙĪ Ø³
ĠÙħØ¹ Ø§ÙħÙĦÙĩ
ĠÚ© Ø¨ÛĮØ±
ÛĮØª Ø§ÙĨ
ĠÙħÙĨØ¸ Ùħ
ĠÚĨ Ùħ
Ú© Ø±Ùĩ
ĠÛ±Û¸Û ±Û
ĠØ¢ÙĪØ±Ø¯ ÙĨØ¯
ĠÙħØ±Øª Ø¶ÛĮ
ĠØªÙĨ ÙĪØ¹
ĠÙĦØº Øª
ĠØ¬ÙĨÚ¯ ÙĨØ¯Ùĩ
ĠØ§ÙĨÛĮÙħ ÛĮØ´ÙĨ
ĠØ³ÛĮØ§Ø³Øª ÙħØ¯Ø§Ø±
ĠØ¨Ø²Ø± Ú¯Ø±Ø§Ùĩ
ĠØ§Ø³ØªØŃ Ú©Ø§Ùħ
ĠÚ¯ÙĪÚ¯ ÙĦ
ĠØªØ± Ø§Ú©Ùħ
ĠØ³ ÙĪÙĦ
Ø¢ ÙħÙĪ
ÛĮÙĨÚ¯ ØªÙĪÙĨ
Ø¨ Ø§ÛĮÛĮ
ĠÙħØ¬ ÙĩØ²
ĠÙħÙĤØ¯Ùħ Ø§ØªÛĮ
ĠÚ¯ Ø§Ø±Ø¯
ĠØ Ľ
ĠÚ©Ø´ ØªÙĨ
ĠØŃØ§ÙĦ ÛĮÚ©Ùĩ
ĠØ¨Ø± Ø§ÙĨ
ĠÙħÙĤ Ø¨Ø±Ùĩ
ĠÚ©ÙĦ ÙħØ§Øª
< /
Ø³Øª ÙĨ
Ø´ ÙĪØ±
ĠØ¯ÙĪ Ø³ØªÛĮ
ĠØªØ§Ø¬ÛĮÚ© Ø³ØªØ§ÙĨ
) "
ĠØ´ Ø·Ø±
Ø§ÙĦ ÛĮÙĨ
ĠØ¯ Ø¨ÙĦÛĮ
ĠØ¹ ÙĤÙĦ
Ú¯Ø± Ø§ÛĮØ§ÙĨ
r an
ĠØ¨Ø§Ø² ØªØ§Ø¨
ÙĪØ³ ÙĨ
ĠØ³Ø±Ù¾Ø± Ø³ØªÛĮ
ĠØ¹ÙĪØ§Ø± Ø¶
Ø¨Ø§Ø´ Ú¯Ø§Ùĩ
a h
ĠØ¨Ø±Ø³ Ø§ÙĨØ¯
ĠØ ¦
ĠØ§Ø³ ÙħÛĮØª
ĠØ¹ÙħÙĦÛĮ Ø§ØªÛĮ
ØªÙĩ ÛĮ
ĠØ³ ÙĨØ¯ÛĮ
ĠØŃÚ© ÙĪÙħØªÛĮ
Ø§Ø±ÛĮ Ø§ÙĨ
ĠÙħØª Ø¯Ø§ÙĪÙĦ
ĠÙħØ§ÛĮÚ©Ø±ÙĪ Ø³Ø§ÙģØª
ĠØ´Ùħ Ø´ÛĮØ±
ĠØ¨ ÙĪØª
ÙĪÛĮ ÙĪ
ÙĪÚ© Ø§Ø±
on g
ĠØ§Ø³ØªØ§ÙĨ Ø¨ÙĪÙĦ
ĠØ®ÙĪØ±Ø´ÛĮØ¯ Ú¯Ø±ÙģØªÚ¯ÛĮ
Ù¾Ø°ÛĮ Ø±Ø¯
ĠØ§Ø¨Ø¯ Ø§Ø¹
ĠÙħØ± Ø¯Ùĩ
ĠÛ¸Û ²
ĠÙħÙģ Ø§ÙĩÛĮÙħ
Ø¶ ÙĦ
ĠØ¨ Ø³ØªØ±
ÙĪØª Ø§ÛĮ
ĠØ¨ ØªÙĪØ§ÙĨÙĨØ¯
ĠÙħÙĨØ· ÙĤÛĮ
now iki
Ø§ÛĮ Ø³Øª
ĠØµ ÙĪØªÛĮ
ØªØ± ÙĪ
ĠØ¢ÛĮ ÙĪÙĪØ§
ĠÙĩÙħØ³ Ø§ÛĮÙĩ
ĠØªÙĪÙĦÛĮØ¯ Ú©ÙĨÙĨØ¯Ùĩ
ĠÙĪÛĮØ±Ø¬ÛĮÙĨÛĮ Ø§ÛĮ
ÙĦ ÛĮÚ©
ĠØ¬ÙĪ Ø§ÙħØ¹
ĠÙĨ ØµÙģ
ĠØ±ÙĪÙħ Ø§ÙĨÛĮ
ĠÙĩ Ø§Ùħ
ĠØ²ÛĮ Ø§Ø±Øª
ĠØ§Ø® Ø¨Ø§Ø±
ĠÙ¾ ÙĪÙĦÛĮ
ĠØ± ÙĨ
ĠÙħÙĨØµ ÙĪØ±
ĠÚ© ØªØ¨
ĠØ¹ ØµØ¨
Ø³Ø§ÙĨ Ø§ÙĨ
r o
Ù ī
t e
ĠÚ©Ùĩ Ú©Ø´Ø§ÙĨ
Ø±Ø¯ ÙĨ
Ġ" "
ĠÙħØ³ÛĮØŃÛĮ Ø§ÙĨ
ĠØŃØ³ ÛĮÙĨÛĮ
ÙĨ Ø¹
ĠØ´Ú© ÙĦÛĮ
ĠØ¬ÙħÙĩ ÙĪØ±
ĠÙĨÛĮØ§Ø² ÙħÙĨØ¯
ĠÚ¯ÙĪÛĮ ÙĨØ¯
ĠØ¨Ø± ÙĨØ¬
ØªÙħ Ø¹
ĠØ± ÙģØ¹
ĠÙ¾Ø³ Ø±Ø§ÙĨ
ĠÛµ Û´
ĠØ¢ÙĨ Ú¯Ø§Ùĩ
ĠØ§Ø¬ Ø¨Ø§Ø±ÛĮ
ĠØ§Ø² Ø§ÛĮ
" Â»
u d
ÙĨ Ø§ÛĮÛĮ
Ø¯ ÙĪÙĨ
Ø§Ùħ ØªÛĮ
ĠÙĩÙĪ Ø§Ø¯
ĠØ´Ú©ÙĨ Ø¬Ùĩ
ĠØ²Ø® ÙħÛĮ
n e
ĠÙģØ±ÙħØ§ÙĨØ±ÙĪ Ø§ÛĮÛĮ
Ø± ÙĪÛĮÛĮ
ĠØ³ Ø§ÙĪØª
ĠØ³ Ø§Ø¹
Ø§Ø³ ÙĪ
Ø®Øª Ø±ÛĮ
ĠØ¯Ø³Øª Ú¯ÛĮØ±ÛĮ
ÙĪØ³ Ø§
Û¶ Û·
ĠÙħØ§ÙĩÛĮ ÚĨÙĩ
ĠØ¯Ø±Ø¢Ùħ Ø¯Ùĩ
ĠÚ¯ÙĪØ± Ø³ØªØ§ÙĨ
ĠÚ¯ Ø±Ø¨Ùĩ
ĠØ§Ø´ØªØ± Ø§Ú©
ÙĩØ§ÛĮ ÙĪ
ĠÙĨÚ¯ Ø§Ø±
ĠÛ¹Û ·
ĠÙģØ±ÙĪØ´ Ú¯Ø§Ùĩ
Ø§ÛĮ ÙĨØ¯
ĠÙģØ± Ø´
ĠØªØŃ ØµÛĮÙĦÛĮ
ĠØ§Ø³ÙĦ ØŃÙĩ
Ø§ÙĨØ² Ø§Ø³
Ø§Ùģ ÙĦ
ĠØ®ÙĦ Ø¨Ø§ÙĨ
ĠÙħØŃØ¨ÙĪØ¨ ÛĮØª
ĠØ¯Ø´ ÙĪØ§Ø±
ĠÙħØŃØªÙĪ Ø§ÛĮ
ĠØ¬Ùħ Ø´ÛĮØ¯
ĠÙĨ Úĺ
ĠØ§Ø³Øª Ø«
ĠÙĦ Ø¦ÙĪÙĨ
ĠØ¯Ùĩ Ø§ÙĨ
ĠØ§Ø °
ÛĮÙħ Ùĩ
ĠØ³ÙĪØ³ÛĮØ§ÙĦÛĮ Ø³ØªÛĮ
ĠÙ¾Ø§Ø¯Ø´Ø§Ùĩ Ø§ÙĨ
ĠÛ±Û¹Û´ Û²
ĠØ¢ÙĨØ¬ ÙĦØ³
ĠØ³Ø§Ø² ÙħØ§ÙĨÛĮ
ĠÙħÙĩ ÙħØ§ÙĨ
ĠØ§ØŃ Ø²Ø§Ø¨
ĠØ¸Ø§Ùĩ Ø±Ø§
ĠÙĨ ÙĪÛĮ
ÛĮÙĦ Ùĩ
ĠÙħ ÙĬ
ĠÙ¾Ø§Ø±Ø§Ùħ ØªØ±
ĠØ¨Ø§ÙĦ Ø§Ø®
ĠØ° ÙĪØ¨
ĠÚ© Ø§ÙħÛĮ
ĠÙĨ Ø´ÙĪØ¯
ĠÛ±Û¹Û´ Û±
ĠÙħØ±Ø¬ Ø¹
ĠØ¶ Ø¹Ùģ
ĠÙħØ¯ÛĮØ± Ø§ÙĨ
ĠØ§ÙĨÙģ Ø¬Ø§Ø±
ĠÙĦØº ÙĪ
ec t
ÙĪØ³ Ùĩ
ĠÙĩ Ø§ÙĪ
ĠÙħØŃ Ø±ÙĪÙħ
ĠØ¹Ø¯ Ø§ÙĦØª
ĠÙ¾Ø±Ø³Ù¾ ÙĪÙĦÛĮØ³
ĠØªØŃ Ø±ÛĮÙħ
ĠÛ±Û° Û°Û°
ĠÚ© ÙħØ§ÙĨ
Ø¯Ùĩ ÙħÛĮÙĨ
ĠÙĤ Ø§ÙĦÛĮ
1 3
Ú© ÙĪÙĦÛĮ
ÙĨ Ø§Ø±
ĠÚ© ÙĪÙ¾
ĠØ³ ÛĮØ§
ĠØ³ÙĪØ± Ø§Ø®
ĠØ¯Ø± ØŃ
ĠØ§Ø³ØªØ§Ø¯ Ø§ÙĨ
Ø§ÙĦÛĮ Ùĩ
ĠÚĨØ§ÙĦ Ø´
ĠØ§Ø³ Ø·ÙĪØ±Ùĩ
ĠÛĮ ÙĪØªÛĮ
ĠØªØ¹ ÙĤÛĮØ¨
Ùģ Ø§ÙĦ
Û±Û¹Û ·
ĠØªØ² Ø±ÛĮÙĤ
Ø§Ø¶ ÙĦ
ĠÙ¾ÛĮØ¯ Ø§ÛĮØ´
ĠØ± Ø§Ø²
ĠØ²ÛĮØ± Ø²ÙħÛĮÙĨ
ĠÙĨ Ø§ÙĨÙĪ
ĠØ¢Ø« Ø§Ø±ÛĮ
ĠØ¯ÛĮÙ¾ÙĦ ÙħØ§Øª
ĠÙĩÛĮ Ù¾
ĠÙħØ±Ø§Ú© Ø´
ĠÙ¾Ø± ÙĪÛĮØ²
ĠÙħÙĩØ± Ùĩ
ĠÙĩÛĮØ¯Ø±ÙĪ ÚĺÙĨ
Ø¨Ø±Ø¯ Ø§Ø±
ĠØ¨ Ú¯ÛĮØ±ÙĨØ¯
Ú©ÙĦ Ø§Ùĩ
ĠÙ¾ÛĮØ± ÙĪÛĮ
ÛĮØª Ø³Ùĩ
Ø¯ Ø´Øª
Ø² ÙĦÛĮ
ĠØ±ÙĪÙĨ ÙĤ
ĠØ®ÙĦØ§Øµ Ùĩ
ĠØªØ³ Ø®ÛĮØ±
ĠØ¨ÙĪÛĮØ± Ø§ØŃÙħØ¯
ĠØ¨ÙĦØ§Ùģ Ø§ØµÙĦÙĩ
Úĺ Ø§ÙĨ
ĠØ¢ÙĦ ÙĪØ¯Ú¯ÛĮ
ĠØªØ± Ø§Ø´
ĠÛ¸Û ¶
ĠØ®Ø¨Ø± Ú¯Ø²Ø§Ø±ÛĮ
ĠØª ÙĪÙĦ
ĠÛ±Û³Û¸Û ·
ĠØ± Ùģ
ĠÚĨ ÙĦ
ĠÙħÙĪØ¬ÙĪØ¯ Ø§Øª
1 2
ÛĮ ÙĪÙĨ
ĠØ´ ØªØ§Ø¨
ĠÙĤØ² Ø§ÙĤ
Û¶ Û´
ĠÚ©Ø§Ø± Ø§ÛĮÛĮ
ĠØ¯Ø³ØªÛĮ Ø§Ø¨ÛĮ
ĠØªØ¸ Ø§ÙĩØ±Ø§Øª
ĠØ§Ø±ÙħÙĨÛĮ Ø§ÙĨ
ĠÙ¾Ø±Ùģ Ø±ÙĪØ´
Ø³Ú© ÙĪÙ¾
ĠØ§ÛĮ Ø§ÙĦØªÛĮ
ĠÛ´ Û²
ĠØ§ÙĨ Ø¨Ø§Ø±
ĠØ³Ø± Ø§Ø³Ø±ÛĮ
ĠØªØ± ÛĮÙĨ
ĠÙ¾Ø§ÙĨ ØµØ¯
ĠØ³ Ø§Ø±ÛĮ
ĠÙĨÚ¯Ùĩ Ø¨Ø§ÙĨ
ĠØª Ú©Ùĩ
ĠÛ±Û¹Û´ Û¸
ÙĪÛĮ ÚĺÙĩ
ĠØ´Ø·Ø± ÙĨØ¬
ĠØ¨Ø± Ú©ÙĨ
ĠØ®Ø§Ú© Ø³ØªØ±ÛĮ
Ùħ ÛĮÚ©
ĠØ²ÛĮØ± ÙħØ¬ÙħÙĪØ¹Ùĩ
ĠÙħÙĨØ§Ø³ Ø¨ÛĮ
Ø§Ø³ Ø§Ø²ÛĮ
ĠØ±ÙģØª ÙĨØ¯
Ú¯Ø°Ø§Ø± ÙĨØ¯
ĠÙĨÙģØ± Ùĩ
Ø±Ø³ Ø§ÙĨÛĮ
ĠØ´Ú© Ø³ØªÙĩ
ant on
Ùħ Ø´
ĠØ§Ø¨ Ø±ÛĮ
ĠÙħØªØ± Ø¬Ùħ
ĠÙħØ§Øª Ø±ÛĮØ³
ÙģØ± Ø³Øª
ĠØ§Ø±Ø¯ÙĪ Ú¯Ø§Ùĩ
ĠÙģ ÙĩÙħ
ĠÙĩØ²Ø§Ø± Ø§ÙĨ
ĠÛ¸Û ´
Ø§ÙĦØ¹ ÙħÙĦ
ÛĮØ± Ø§ÙĨ
ĠØ³ÛĮ ØµØ¯
Ø²Ø± Ø¹Ùĩ
ĠØ· ÙĦØ¨
ĠÙ¾ ÙĪ
ĠØ§Ø´Øª ØºØ§ÙĦ
ĠØ¶ Ø±ÛĮØ¨
ĠØ® Ø²Ø±
ÛĮØª ÙĪ
ĠÙĦ ÙĪØ±
ĠÚĨ ÙħÙĨ
ĠØ±ÙĪÛĮÚ© Ø±Ø¯
ĠØ§ÙĦ ÙĨ
ĠØª ÙĪÛĮ
ĠØ¨Ø± Ø´
Ø® Ø§ÙĨÛĮ
ĠØªÙĦÙģ Ø¸
ĠÚĨØ§Ø± ÚĨÙĪØ¨
ĠÙħ ÙĨØ¯
ĠÙ¾ Ø§ÛĮÛĮ
ĠØ² Ø±Ùĩ
ĠØ¯ÛĮ ÙĪØ§Ø±Ùĩ
Ġ x
ĠÙģØ± Ø§Ø²
ĠØªØ¹ ÙħÛĮØ±
ÙĤØ± Ø§Ø±ÛĮ
Ù¾ Ø´Øª
ĠÙģÛĮÙĦ ØªØ±
ÙĪÚ© Ø±
ĠØ¬ÙĨÚ¯ ÙĦÛĮ
ĠÙĨØ§ØµØ± Ø§ÙĦØ¯ÛĮÙĨ
ĠØ§ÙĪ ÙĩØ§ÛĮÙĪ
ĠÙħÚ© ÙħÙĦ
ĠÙħØ´ÙĩÙĪØ± ØªØ±ÛĮÙĨ
s e
ÙĨ ÙħØ§
Ø® Ø¯Ø§
ĠØ´Ø¨ Ø§ÙĨÙĩ
ĠÙģØ§Ø· ÙħÙĩ
at e
ĠÙħØŃÙĤ ÙĤØ§ÙĨ
Ġ ĠĠĊ
ĠØ´ Ø§Ø¯
ĠØ§Ùħ Ø§ÙĨ
ĠÛ±Û¸Û ³Û
ĠÙ¾ÛĮÚ© Ø±
Ùĩ Ø±ÛĮ
ĠÙħØª ÙħØ§ÛĮ
Ø§ÙĨÚ© Ø§
Ø§ÛĮ Ø³
ĠØ´Ø§ÛĮ Ø¹
ĠØ±ÙĪ Ø´ÛĮ
ĠØ¯Ùĩ Ø³ØªØ§ÙĨÛĮ
ĠØ§ÛĮÙĨØ¯ÛĮ Ø§ÙĨØ§
ĠØ¬ Ø§Ø¯
ÙĪÙħ ØªØ±
ĠÚ¯ÛĮ Ø±ÛĮ
ĠÙĦ Ø¨Ùĩ
ÙĪØ¬ Ø±Ø³ÛĮ
Ø¢Ø¨ Ø§Ø¯ÛĮ
ĠÙģØ±Ø§ÛĮ ÙĨØ¯ÙĩØ§ÛĮ
ĠØ§ÙĨØªÙĤ Ø§Ùħ
ĠØ¢ÙģØ±ÛĮÙĤ Ø§ÛĮÛĮ
ĠÙĤØ· Ø§Ø±
ĠÙĦÙĪØ¦ ÛĮØ³
ĠØ§Ø³Øª Ø§Ø¯ÛĮ
Ø§ÛĮØ´ Ú¯Ø§Ùĩ
ĠÙħØµ Ø§ÙĦØŃ
Ø§ÙĦÙħÙĦ Ú©
ĠÙħÙĨØ´ Ø£
ĠØ§Ø² Ø¨Ú©
ĠÚ©Ø§Ø± Ø¨Ø±ÛĮ
ĠØ¨Ø±Ú¯ Ø²
ĠØ¢ Ø±ÛĮØ²
ĠÙħØ¬ ØªÙħØ¹
ĠØµÙģ ØŃØ§Øª
ĠØ®Ø¯ Ø§ÛĮØ§ÙĨ
Ø¯ ÙĪØ±
ĠÙħÛĮ Ø´ÛĮ
ĠØ±Ø§Ø³Øª Ø§ÛĮ
ĠØ¯ Ø¨ÛĮ
ĠØ§ÙĪØ± Ø§ÙĤ
ĠÙĪØŃ Ø¯Øª
ĠØ³ ØŃ
ĠØ§ ÙĪØ±Ø´
ĠØ§ÙĨØ¯ Ø§Ø²ÛĮ
ĠÙħÙĨ ØªÙĩÛĮ
Ġ Q
ĠÙĪ ÙĦØ³
Ø³ Ø§ÙĦÙĩ
ĠÙĨØ§Ø¨ ÙĪØ¯ÛĮ
ĠØ§ÙĤ ØªØ¨
ĠØ¨Ø¹ ÙĨÙĪØ§ÙĨ
ĠÛ¸Û ·
ĠØ§Ø¯Ø¹ Ø§ÛĮ
Ø³ ÙĪØ³
ĠØ® ÙĨÚ©
ĠØ§Ø¦ ØªÙĦ
Ø³ ÙĨØ¬ÛĮ
ĠØ¢ Ø²Ø§Ø±
ĠØ¬ Ø±ÛĮ
ĠØ¨Ø§Ø² Ø§Ø±ÛĮ
Ø® ÙĪØ¯
ĠÙ¾ Ø§Ø±Ùĩ
Ø§ ÙĪÙĨØª
in a
ĠÙħØ¹Ùħ Ø§Ø±
ĠØ¹Ø±Ø§ÙĤ ÛĮ
p r
ĠÙħØ¯ Ø§Ø±Ú©
ĠØ±ÙĪØ² Ùĩ
ĠÛ±Û¹Û¶ Û³
ĠÛĮÙĩ ÙĪØ¯
ĠØ¬ÙĪØ±Ø¬ ÛĮØ§
ĠØª Ø§ÙĨÚ©
ĠÙģØ± Ø³
ĠØ§Ø´ Ø®Ø§Øµ
as t
ĠØ±Ø¹ Ø§ÛĮØª
ÙĪØ± Ø¯Ùĩ
ĠÙģÛĮÙĦÙħ Ø¨Ø±Ø¯Ø§Ø±ÛĮ
Ø¯Ø§ÙĨ Ø´Ú¯Ø§Ùĩ
ĠØ±Ø³ Ùħ
ĠÙĨØ¯Ø§Ø´Øª ÙĨØ¯
ĠÚ© Ø±Ú©
ĠØ³ÙĪ Ø§ØŃÙĦ
ĠÚ©ÙĪÙĩ ÛĮ
Ø§ÚĨ ÙĪØ³Øª
ĠÛ¹Û ´
ĠØ§Ø¹ØªØ±Ø§Ø¶ Ø§Øª
ĠÙħØ¨ Ø§ØŃ
ĠÙ¾ Ø§ÙĨØ²Ø¯Ùĩ
ĠÙĩÙħØ§Ùĩ ÙĨÚ¯
ĠØ¨ Ú©
ĠØ¯ÙĤÛĮÙĤ Ø§
ÛĮØ´ ÛĮ
ĠÙħØŃ Ø¶
ĠØŃ Ø¨Ø³
ĠÙĨÛĮ ÙĪØ¬Ø±Ø³ÛĮ
Ø§ÙĦ Ø³
ĠÙ¾Ø±ÙĪ Ùģ
ĠÙĤ Ø§Ø³Ùħ
ĠÙĪÛĮØ± Ø§ÙĨ
ĠØªØŃ ÙĤ
ĠÙ¾ ØªØ§ÙĨ
ÙĤØ§ÙĨ ÙĪÙĨÛĮ
ĠØŃØ§Ú© ÙħÛĮØª
ĠÙĨÙħØ§ÛĮØ´ ÛĮ
ĠØ«Ø±ÙĪ Øª
ĠØ¢ Ø±Ùħ
ĠØ³ Ø§ÙĪ
ĠÛ±Û³Û¸Û ¶
ĠÙħØ§Ø¯ Ø±ÛĮØ¯
ĠÙĨÙĪØ² Ø§Ø¯
Ú© ÙĪÙĨ
ĠÙĤ Ø§ÛĮÙĤ
ĠØ¨ÙĨØ§ ÙĩØ§ÛĮ
Ú¯Ø± Ø§ÙģÛĮ
ĠØ´Ø§Ùĩ ÙĨØ§ÙħÙĩ
Ġ[ [
ĠØ¬ Ø§ÙĦØ¨
ĠÚ©Ø´ ÛĮØ¯ÙĨ
ĠÙħØ¯Ø± Ø³
ĠØªØ§Ø¨ Ø´
ĠÙ¾ ÙħÙ¾
ĠÙ¾ÛĮ Ø§ÙĨÙĪ
ĠÙ¾ ÙĩÙĨ
ĠØ´Ùħ Ø³
ĠØªÙĪÙħ Ø§ÙĨ
ĠÙĩ Ø§Ø¯ÛĮ
er n
ĠØµØ¯ ÙĪØ±
ĠØ¢ÙħØ¯ ÙĨØ¯
ĠØ¢ Ø¯Ø§Ùħ
ĠÙħÙĦ Ø§ØŃ
ĠÚ©ÙĦÛĮ Ø¯ÛĮ
Ġ 7
Ø§ÙģØ²Ø§Ø± ÙĩØ§ÛĮ
ĠØ¹ÙĦÙħÛĮ Ùĩ
Ø§Øª Ø³
ÙģØ± ÛĮÙĨÛĮ
ĠØªÙĦ ÙĤÛĮ
ĠØ¯ Ø®ØªØ±ÛĮ
Ø¨ ÙĪØª
ĠÛ±Û¹Û¶ Û¶
Øº Ø§ÙĦÛĮ
ĠÛ±Û¹Û¶ Û²
ĠØ®Ø·Ø± ÙĨØ§Ú©
ĠØ³ØªØ§Ø± Ú¯Ø§ÙĨ
ĠØº Ø§ÙĦØ¨
ĠØ³ÙĨ Ø§ÛĮ
ĠØ§ØµÙģÙĩ Ø§ÙĨÛĮ
ĠÙħÛĮØ´ÛĮ Ú¯Ø§ÙĨ
ĠÙħ Ø±ÛĮÙħ
Ù¾ ÙĪØ³Øª
ĠÙĪÛĮØª ÙĨØ§Ùħ
ĠÙĤ Ø§Ø¹Ø¯Ùĩ
ĠØ§Ø®ØªØµØ§Øµ ÛĮ
ĠÙħÙĤØ¯ ÙħÙĩ
ĠÙħØ§Ø³ Ø§ÚĨÙĪØ³Øª
ĠØ¢ÙĦÛĮ Ø§Úĺ
ĠØ¢ Ø³ØªØ§ÙĨÙĩ
ĠØŃØ±Ú© Ø§Øª
ÙĦ ÙĨØ¯ÛĮ
ĠÛ³Û ¸
ĠØª Ø§Ø¨ÙĦ
ĠØ¬ÙħØ¹ÛĮØª ÛĮ
ĠØ· ÙĨØ²
ĠÙģØ±Ø§ÙĨ Ø³
ĠÙ¾ Øª
ĠÙĩÙħØ§Ùĩ ÙĨÚ¯ÛĮ
ĠØ§Ø¹ Ø²Ø§Ùħ
ĠØ®Ø§Øµ ÛĮØª
ĠÚ©ÙĪØ± ÙĪØ´
ĠÙ¾Ø±Ø¯Ø§Ø² ÙĨØ¯Ùĩ
Ġ 9
ĠÙĩØ± Ú¯ÙĪÙĨÙĩ
ĠØ¢Ùħ ÛĮ
ĠÙħØŃ Ø±Ú©
ĠÙħØ¬ Ø§ÙĪØ±
ĠÙĪ Ø§ÛĮØª
Ø±ÙĪ ØŃ
Ø¨ Ø§Ø®
ØªÛĮ ÙĪ
ĠÙħÙĤ Ø¯Ø§Ø±ÛĮ
Ø¢ÙĪØ± ÙĨØ¯
ĠØ¨Ø± Ø§ÙĪÙĨ
ĠÙħ ÙĦØ§
ĠØ§ÙĪØ±Ø´ ÙĦÛĮÙħ
ĠØª ÙĪØ±ÛĮ
ĠØ¨Ø± ÙĪÚ©
ĠÙħÙĨ ÚĨØ³ØªØ±
ÙĪÚ¯Ø± Ø§ÙģÛĮ
Ø¶ Ø§Ø¹
ĠØµ Ø§ÙĦØŃ
ĠØ§Ø¬ Ø²Ø§ÛĮ
Ú© Ø¯Ùĩ
ĠÙĪ Ø§Ø¬
en d
ĠÙħÙĪ Ø§Ø²ÛĮ
Ø§Ø¨ Ø§ÙĨÛĮ
ĠÙĩÙĪØ§Ø¯ Ø§Ø±Ø§ÙĨ
Ûµ Û·
ow n
Ú© ØªÙĪØ±
ÙĦÛĮ Ø§
ĠØ´ÙĨ Ø§Ú¯Ø±
Ø¨Ø±ÛĮ Ø¬
ĠÚ¯Ø± ÙħØ§
Û±Û¹Û ¶
ĠØ³ÛĮÙħ Ø§
ĠØ¨Ø§Ø± ÛĮÚ©
ĠØ¨Ø§Ø²ÙĨØ´ Ø³ØªÙĩ
Ø± Ø®
Ú©Ø±Ø¯ ÙĨ
ĠÙĨ Ø§Ùĩ
Ø§ÙĦØ¹ Ø§Ø¯Ùĩ
ĠÙģ Øª
ĠØªØ¬ ÙħØ¹
Ø§Ùħ ÛĮØ¯
ĠØ´ÙĪØ± Ø´ÛĮ
ĠØªÛĮ Ù¾
ĠÚ©Ø§Ø± Ú¯Ø§Ùĩ
Ø¹ Ø¯Ùĩ
ĠÚĺ Ø±Ùģ
ĠØ±ÛĮ Ø®ØªÙĩ
ÙħÙĨ Ø·
ĠÚĺÙĨØª ÛĮÚ©ÛĮ
ĠØ¨Ùĩ Ø¯Ø§Ø´ØªÛĮ
ĠÙĪØ¨ Ú¯Ø§Ùĩ
ĠÛ±Û² Û°
ĠØ§Ø¬ØªÙħ Ø§Ø¹
ĠÙ¾Ø±Ø¯Ø§Ø®Øª ÙĨØ¯
ĠÙĨÙģ Ø³
ĠØ¢Ø±ÛĮØ² ÙĪÙĨØ§
ÙĪØ¦ ÛĮØ¯
ĠØ± ÛĮÚ©
ĠØ¬ÙĦ ÙĪÙĩ
Ùģ ÙĪÙĦ
ĠØ³ ÙħÛĮ
ĠØ¨ÙĦ Ú©
ĠØ¬Ø²Ø¦ÛĮ Ø§Øª
ĠØ¯Ø§Ø¦ ÙħÛĮ
ĠØ¬ ÙĨÛĮÙĨ
ĠÙģÛĮÙĦÙħ ÙĨØ§ÙħÙĩ
ĠØªÛĮÙħ ÛĮ
Ø±Ø¨ Ø²Ø±Ú¯
ĠØ§ÙĨÚ¯ ÛĮØ²Ùĩ
ÙĦ ÙĨ
ĠØ§Ø³Øª ÙĪÙĨ
Ûµ Û¶
ĠØªØ¨ Ø§Ø±
ĠÙĨÙĪØ¬ÙĪØ§ÙĨ Ø§ÙĨ
ĠØ³Ø± Øª
Ø¢ÙĪØ± Ø¯Ùĩ
ĠÛ±Û¹Û¶ Ûµ
ĠâĢ Ķ
ĠÙħØŃØ§Ø³Ø¨ Ø§Øª
i re
Ú© ÙĪØ¨
ĠØ¨Ø± Ùģ
ĠÙĤØ¨ Ø§ÛĮÙĦ
ĠØªØ¹ Ø§ÙħÙĦ
ĠØ¯ Ø¨
ĠØ¹ Ø¸
ÙģÛĮ ÙĤ
ĠÚ© Ø§ÙĪ
ĠÙħÙĨØª Ø¸
ĠØ¬Ø§ÙĨ ÙĪØ±
ĠØªØ±Ø¬ÛĮ ØŃ
ĠÛ²Û°Û ²
ĠÛ¶ Û·
ĠØ§Ø± Ø§Ø¶ÛĮ
ĠÙħØ±Ø§Ø¬ Ø¹Ùĩ
ØªØ± Ùĩ
ĠÚ¯Ø± ÙħÛĮ
Ø§Øª ØŃ
ĠÙħØªÙħØ§ÛĮ Ø²
ic h
Ø¬ ÙĪÛĮÛĮ
ĠØ³Ø± ÙĪØ¯
ĠØ§Ø« Ø±ÛĮ
ĠÙĨ Ø²
Ø±Ø§ÙĨ Ø¯
ĠÙħØ¹ ÙĨØ§
ĠÙ¾Ø´ ØªÛĮ
ĠÙĪÛĮØ¯ Ø¦ÙĪ
ĠØ§Ø³Øª ÙĤØ±Ø§Ø±
ĠÙħÙĪØªÙĪØ± ÙĩØ§ÛĮ
ig ht
ĠØ¢ Ø±ÛĮ
ĠØ§Ø¹ Ùħ
ÙĪ Ø¬ÙĪØ¯
Ø¯Ùĩ Ø§ÙĨÙĩ
ĠØŃ Ø§ÙħÙĦ
ĠÛ´ Û¸
ÙĪÙĦ ÙĨ
ĠØ§Ùģ Ø³Ø±
ĠÚ©Ø§ÙĨ Ø²Ø§Ø³
ĠÛĮÚ©Ù¾Ø§Ø± ÚĨÙĩ
ĠØ¢ÙĨ Ø¬Ø§ÛĮÛĮ
ĠØ§ÙĦ Ú¯ÙĪÛĮ
ĠØ±Ø³ÛĮØ¯ Ú¯ÛĮ
ĠØ¢ Ø¬Ø±
ĠÚ©Ø§Ø¨ ÛĮÙĨÙĩ
Ø¬ ÛĮÙĨ
ĠØ§ÙĪ Ø¶Ø§Ø¹
ĠÛ±Û¹Ûµ Û¶
ĠØ®Ø§Ùħ ÙĨÙĩ
Ø¨ Ø¯ÛĮ
ĠØªÙĪØ§ÙĨØ³Øª ÙĨØ¯
ĠÙĤØ±Ø§Ø±Ø¯ Ø§Ø¯ÛĮ
ĠØ¢Ø¯Ø± Ø³
ĠØ¢ Ø¦
ĠÙ¾ØªØ§ÙĨ Ø³ÛĮÙĦ
ĠØ§ ÙĪØ¯
ĠØ§ Úĺ
Ø¯ Ø®
ĠØ² Ø§ÛĮ
ĠØ±Ø§Ùĩ ÙĨÙħØ§ÛĮÛĮ
on t
ĠØ®ÙĪØ¯ Ø±ÙĪÛĮÛĮ
ĠØºÛĮØ± ÙĤØ§ÙĨÙĪÙĨÛĮ
Ø³ÛĮ Ø§ÙĨ
Ù¾ Ø§ÙĨ
ĠØ§ÛĮ ÙħØ§ÙĨ
ĠÙĦ ÙĪØ¨
ĠØµØ±Ùģ Ø§
ÙĪÙħ ÛĮØª
ĠÙħØ¹ Ø§ÙĪÙĨØª
ĠØ´ ÙĨÛĮ
Ø¶ Øª
ĠØ°Ùĩ ÙĨÛĮ
ĠØ¨Ø¯ ÙĦ
ĠÙĩ Ø§ÛĮØ¯
ĠÛ±Û¹Ûµ Û¸
ĠÛ±Û³Û¸Û ´
ĠØ´Ø§Ùĩ ÛĮÙĨ
Ùħ Ø±Ùĩ
Ú¯ Ø²Ø§Ø±
ĠÚ©ÙĨØ¯ ÛĮ
Ø§ÙĦ Ùģ
ĠÙħØ¬ Ø§ÙĩØ¯
ar y
2 0
ĠÙĪ Ø§Ù¾
ĠØ±Ø² ÙħÛĮ
) )
ĠÙģÙĦØ² Ø§Øª
ĠØ¨Ø± ÙĤØ±Ø§Ø±ÛĮ
ĠÛĮÙĪÙĨ Ø³Ú©ÙĪ
ĠØªÙĪ Ø§ÙĦÛĮ
ĠØ³Ù¾ Ø±ÛĮ
ĠØ§Ø¶ Ø§ÙģÛĮ
Ø¨Ø§ÛĮ Ø³Øª
ĠÙĪ ØµÙĦ
Ø§Ø±Ø¯ ÛĮ
ĠÙĨØ§Ù¾ ÙĦ
ĠÙħØ· Ø¨ÙĪ
ĠØª Ø§Øª
ÙĪØª ÛĮÚ©
ĠÙĩÛĮØª ÙĦØ±
ĠØ¢ Ø±Ø²
ĠÙ¾ ÙĪØ³ØªÙĩ
ĠØ²Ø± ÛĮÙĨ
ĠØª ÙĨÛĮØ³
ĠÛ±Û¹Û±Û ¸
ĠÙħØ§ÙĦ Ø²ÛĮ
ÙĤØ· Ø¹
e p
ĠØ £
ĠØŃ Ø±Ùħ
ØªØ± Ø§
Ø®ÙĪ Ø§ÙĩÛĮ
ĠØ¬ÙĪ Ø§Ø¯
ĠÙħÙĨ Ø§ÙģØ¹
ĠØ³ÙĪØ¦ Ø¯ÛĮ
ĠØ²Ø§Ø¯ Ú¯Ø§Ùĩ
Ø³ ÙĨØª
Ġ 8
ĠØ¨ ØªÙĪØ§ÙĨ
ĠÚ© ÙĪÛĮØª
ĠÛ¶ Û¶
Ù¾ ÛĮÙĨ
ĠØ§Ø³Øª ÙĪÙĨÛĮ
ĠØ§Ùģ Ú©Ø§Ø±
ĠÙĨÙĪØ± ÙĪØ²
ÚĨ Ø³Ø¨
Ø§Ù¾ ÛĮ
ĠØ´Ø§Ø± ÙĦ
Ø§Ø³ Ú©
Ûµ Û´
Ùħ ÙĪØª
ĠØ§ Ù¾ÙĦ
ĠÚ© ÛĮØ´
ĠØ§ÙĨØªØ®Ø§Ø¨ Ø§ØªÛĮ
ĠÙħÛĮØ² ÙĪØ±ÛĮ
ĠØ¨ÙĦ ÙĪØ±
I I
ĠÙħØ§Ø±ÛĮ Ø§
Ø® Ø·
ĠÚ¯ ÙħØ§ÙĨ
ĠØ§Ø±Ø¯ ÙĨ
ĠØ§Ùģ Ø´Ø§Ø±
ĠÙħÙĩØ§Ø¬ Ø±
ĠØ¹ÙĦÛĮ Ø±Ø¶Ø§
ĠÙĪÛĮÚ©ØªÙĪØ± ÛĮØ§
ĠÙħÛĮ Ø¨Ø§Ø´Ø¯
ĠØ¯ÙĪ Ø´
ĠØ¯ÙħÙĪÚ©Ø±Ø§Øª ÛĮÚ©
ĠÙĪ ÙĪØ¯
ĠÙĩÙħ Øª
Ú¯Ø° Ø´Øª
ĠØ³Ø§Ø®Øª Ø§Ø±ÛĮ
ĠÚ©ÙĨØª Ø§Ú©ÛĮ
ĠØªØ¹ ÙĦÛĮÙħ
ÙĨØª ÙĪ
ĠØ§Ø¨Ø± Ø§Ø²
Ø³ ÙĦÛĮ
ĠØ´ Ø±Ú©
ĠØ®ØµÙĪØµÛĮ Ø§Øª
ĠØ¯Ø±ÙĪ Øº
ĠÚ¯ Ø´
ĠÙħ ÙĪÙĨÛĮ
ĠØ§Ø³ Ø§Ø·
ĠÙĪ Ø§ÙĦØ¯ÛĮÙĨ
Ø§Ø±Ø¯ ÙĪ
ĠÚ©Ø§Ø±Ø¢ ÙģØ±ÛĮÙĨ
ĠØ¢ÙħÙĪ Ø®Øª
ĠÙĨÚ¯Ø± Ø§ÙĨÛĮ
ĠØ¨Ø§ÙĦ Ùĩ
ĠØªÙģ Ú©Ø±
ĠÚĨ Ø±Ø¨ÛĮ
ĠÙĨÛĮØ§Ø² ÙĩØ§ÛĮ
ĠØ§Ø´ÛĮ Ø§Ø¡
à ¤
ĠÛĮ Ø§ÙĨ
ï º
ĠØª Ø§Ø²
ĠÙĩ ÙĪÛĮ
ĠÙģØ±ÙħØ§ÙĨ Ø¯Ø§Ø±
Ø¨ ÙĪØ±Ø¯
ĠØ¹ÙĤ Ø§ÛĮØ¯
ĠÙĪÙĦØ³ ÙĪØ§ÙĦÛĮ
ÙħÙĨ Ø§ÙĨ
ĠÙĪØ³ Ø·ÛĮ
i z
ĠÛĮ Ø§Ø²Ø¯ÙĩÙħ
Û±Û³Û ¹Û
u p
Ø³Ú© Ø§
ĠÙħØ³ Ø§Ùģ
Ú©Ø§ÙĨ Ø³ÛĮÙĨ
ĠÙħÙĪÙĤ Ø¹
ĠÙħØ¹ ÙĨÙĪÛĮ
Ø§Ø³Øª ÙģØ§Ø¯Ùĩ
ĠØ¨Ø²Ø±Ú¯ Ø³Ø§ÙĦ
ĠØ·Ø¨ Ø§Ø·
ĠØ¬Ø° Ø§Ø¨
ÙĨØ´ Ø§ÙĩÛĮ
ĠC anton
ĠØ¨Ùĩ Ø§Ø¦ÛĮ
Ø§Ú© Ùĩ
ĠØ§ÙĨØ¯ Ú©
ĠØ¢ ÛĮÙĩ
Ø³Ø§Ø² ÙĨØ¯
ĠØ§ØŃØªÙħ Ø§ÙĦÛĮ
ĠØªÙģÚ© ÛĮÚ©
ĠÙħ Ø§Ø¯ÛĮ
ĠØ®ÙĪØ§Ùĩ Ø§ÙĨ
ĠÛ±Û¹Û¶ Û±
ĠÚ©ÙĪØ§ÙĨØª ÙĪÙħÛĮ
g e
ĠØ³Ø± ÙĨÙĪØ´Øª
ĠØ§Ø±ØªÙģØ§Ø¹ Ø§Øª
ĠØ³ ÙĪÙ¾
ĠØ§Ø± Ø¬
ĠØ§Ú© Ø´ÙĨ
ØŃÛĮ ÛĮ
ÙĤ Ø¯
ĠØªØ£Ø«ÛĮØ± Ú¯Ø°Ø§Ø±
ĠØ¨ Ø®ØµÙĪØµ
ĠÙģ ÙĤÛĮÙĩ
ĠØ§ÙģØ² ÙĪØ¯
ĠÚ© Ø±Ø§ÙĨÙĩ
ĠØ§ÙĦ ÛĮØ²
ĠØªÙĤ ÙĦÛĮØ¯
ĠÙĪÛĮØ³ Ú©Ø§ÙĨØ³ÛĮÙĨ
ĠØªÙĪ ÙĤÙģ
ÙĤ Ø§Ø³Ùħ
ĠØ®Ø· Ø§Ø¨
ĠÚ¯ÙĪØ´ ÛĮ
ĠÙħØ·Ø¨ÙĪ Ø¹Ø§Øª
ĠÚ© Ø§Ø´ÛĮ
ĠØ±ÙĪ Ø§ÛĮØ§Øª
ĠØº Ø´
ĠÙģ Ø§ÛĮ
Ø¬ÙĪ Ø§ÙĨÛĮ
Ú¯ ÙĪÙĨÛĮ
ĠÚĨØ± Ø§Øº
Ġ Ø§ÙĨÛĮ
ĠØ¯ ÛĮÙħ
Ø§Ùĩ Ø±Ùĩ
ĠØ¢ÙĦÙĪÙħ ÛĮÙĨÛĮ
ÚĨÙĩ Ø§Ø±
Ø§Ø¯ Ø´
ĠØª Ø«
ĠÙĨÙħØ§ÛĮ Ø§ÙĨ
Ù¾ Ø¯
ĠØ·ÙĦ Ø§ÛĮ
ĠØ¢ ØªÙĨ
ĠØ§ÛĮØ± ÙĪØ§ÙĨ
ĠÙĤ ÙĦÛĮ
ĠØ§Ø± Ø§Ú©
ØªÙĪ Ø§ÙĨÛĮÙħ
ĠÙĨ ÛĮÙħÛĮ
ĠÙģ Ø¬Ø±
ĠØ§Ú© ØªØ´
ĠØ´Ø§Ùĩ ÙĨØ´Ø§ÙĩÛĮ
ĠØ®ÙĪØ§ÙĨ ÙĨØ¯Ú¯Ø§ÙĨ
ĠØ¨Ø±Ø¯ ÙĨØ¯
ĠÚ¯Ø±Ø¯ Ø¢ÙĪØ±ÛĮ
ĠØ§Ùħ ÙĪØ§ÙĦ
Ø® ÙĪØ±Ø´
ĠØ· Ø¨Ø±
ĠÙĦÛĮ ÙĪØ±
Ø²ÙĨ ÙĨØ¯
ĠØ±ÙĪ Ø¨
ĠØ¯ Ø§ÙĨÛĮ
ĠÙĤ ÙĨØ¯
ĠÙ¾Ø± Ùĩ
ĠØ¨Ø§Ø± Ø³ÙĦ
ĠØ´Ø§Ùĩ Ø§ÙĨ
ĠØªÙĦÙģ Ø§Øª
Ùģ Ú©
ĠÙ¾ÛĮÙĪØ³Øª ÙĨ
ĠØµØ±Ø¨ Ø³ØªØ§ÙĨ
ĠÙĩ Ø´Ø¯
ĠØ¢ÙĨ Ø§Øª
ĠØ¢ÙĨ ÙĦØ§ÛĮÙĨ
ÙĦØ§ ÙĪÛĮ
Ùĩ Ø²Ø§Ø±
ĠÙħØ¹ Ú©ÙĪØ³
ĠØ¨Ø§ÛĮØ± ÙĨ
ĠÚ©ÙĦ ÛĮÙĨ
Ø¯Ø§ÙĦ ÙĦÙĩ
ĠÙ¾ÚĺÙĪÙĩØ´ Ú¯Ø±Ø§ÙĨ
ĠØ¨ ÙħØ§ÙĨØ¯
Ø± Ø³Ø§ÙĨ
ĠÙ¾ Ø±Ú©
ĠØ´Ø§ Ú¯Ø±Ø¯
u c
ĠØ® Ø³
ĠÛ±Û¹Û³Û ¹
ĠØ´ÙĨ Ø¨Ùĩ
ĠØ§Ùħ Ø±ÛĮÚ©
ĠÙĨÙĩ Ø¶Øª
ĠÙĤ Ø§Ø¦Ùħ
Ù¾ÛĮ ÙĪÙĨØ¯
ĠØ¹Ø² ÛĮØ²
ÙĦÛĮ ÙĪ
ÚĨ ÙĪÙĨ
ĠØŃ ÙģØ±Ùĩ
Ø§Ú© ÙħÙĩ
ĠÙĨØ§Ùħ ÛĮØ¯
ĠØ¹Ùħ Ø§Ø±Øª
ĠÚ¯ÙĨ Ø§Ùĩ
ĠØ§ØªÙĪØ¨ ÙĪØ³
ĠØ¢ Ø®
ĠÙħØ§Ø¯ Ø±ÛĮ
ĠØ®ÙĪØ¯Ùħ Ø®Øª
ĠØ³ Ú©ÙĨÙĩ
Ø§Ùģ ÛĮÚ©
ĠÙĨØ® ÙĦ
ĠØ´ Ú©Ø±
ĠØ¨Ø± Ù¾Ø§
ĠØª Ø³Ùĩ
ĠØ±ÙĪ Ø¯Ùĩ
ĠØ³Ø§Ùħ Ø§ÙĨ
ĠØ® Ø±Ø³
ĠÙĦ Ø§Ùħ
ĠØ§ÙĨØ¨ ÙĪÙĩ
ĠÙģØ± Ø¹ÛĮ
ĠÙĨ ÙĪÙĩ
ĠØªØ§Ø± ÛĮÚ©
Ø³ Ø±ÛĮ
ĠÚĨÙĩØ§Ø± ØµØ¯
ĠÙģÛĮ Ø¨Ø±
ĠÙħ Ø²Ø±Ø¹Ùĩ
ĠÚ¯ Ø§Ø²ÛĮ
ĠÛĮÚ© ÙħÛĮÙĨ
ĠØªØ® ÙĦÛĮÙĩ
Ø§Ø¨ ØªÛĮ
ĠÙĪØŃ Ø´Øª
Ġ '
Ø³ Ø§ÛĮØª
ĠÛĮ ÙĪÚ¯
ĠØ±Ø§ÛĮ Ú¯Ø§ÙĨ
ĠÛ²Ûµ Û°
ĠØ¯Ø± Ø³ØªÛĮ
ĠØ§Ø± ÛĮÚ©
ĠÙħØ§Ùĩ ÛĮØª
ĠÙħØ´ØªØ±ÛĮ Ø§ÙĨ
ĠØ¯ÙĪ Ø¨
Â Ń
ĠÙħÙĪ Ø§ÙĤØ¹
ÙĪÙħ Ø§ÙĨ
ĠÚ©Ø§Ø± Ø´ÙĨØ§Ø³Ø§ÙĨ
ĠØ´ÙĨ Ø§Ø®ØªÛĮ
Ø§ ÙĪØ±Øª
ĠÙĪ Ùĩ
ÙĦ ÛĮÙĨÚ¯
ÙĪØ¯ ÙĪØ±
ĠÚ¯ Ø´ØªÙĩ
ÙĪØ´ ÛĮÙħÛĮ
ĠØ«Ø±ÙĪ ØªÙħÙĨØ¯
ĠÙħØ¹ ØªØ±
ĠÛµ Û²
ĠØ¢Ùħ Ø§Ø±ÛĮ
ĠØ§ÙĦ Ø¨Ø±Ø²
ĠØ§Ø³ØªÙĪØ¯ÛĮ ÙĪ
ĠØ§Ø¹Ø· Ø§
1 6
ĠØ§Ø±ÙĪÙ¾ Ø§ÛĮ
ĠØ´ Ú¯ÙģØª
ĠÙħØµ Ø±ÛĮ
ĠØ®Ø´Ú© ÛĮ
ĠÚ¯Ø² ÛĮÙĨÙĩ
ĠÙ¾Ø§ÛĮ Ø¯Ø§Ø±ÛĮ
ĠØ´Ø±Ø§ÛĮ Ø·ÛĮ
ĠØ®ÙĪØ´ Ùĩ
ĠÙĨØ´ Ø±ÛĮ
ĠØŃ Ø±ÛĮÙģ
ĠØ¬ Øº
ĠÙ¾ÛĮØ´ Ú¯ÛĮØ±ÛĮ
ĠØ´ ÛĮÙħ
ÙĪØ¦ ÙĨ
ĠØ¯Ø± ÙħÛĮ
Ø±Ø¯ Ø§Ø¯
ĠØ±ÛĮ ÙĪ
ĠØ¨ Ø§Ø¯ÛĮ
ĠØµ Ø¯ÙĩØ§
ĠÙħØªØŃ Ø±Ú©
ĠØ´ ÛĮÙĨ
ĠÙħØ±Ú© Ø¨
ĠØ¢Ø± Ø§ÛĮÙĩ
Û³Û ±Û
ĠÙħØ¨Ø§ØŃ Ø«
ĠØ´ÛĮÚ© Ø§Ú¯ÙĪ
ĠÚ©ÙĪØ´ Ø´
ĠØ¯Ùģ Ø¹
ĠØ±ÙĪÛĮØ¯ Ø§Ø¯ÙĩØ§ÛĮ
ĠÛ±Û¹Û´ Û·
ĠÙģØ± ÙĨÚ¯ÛĮ
ĠÛ±Û¹Ûµ Û´
Û· Û´
ĠØ¹ Ø§Ø±Ùģ
ĠØ´ Ø§ÙĩÛĮ
ĠÙĤ ÙĪÙĩ
ĠØ²ÛĮØ³Øª Ú¯Ø§Ùĩ
ĠØ± ÛĮØª
ĠØ³Ø§Ø²ÙħØ§ÙĨ Ø¯ÙĩÛĮ
ĠØ¨ Ø¯Ø±
ĠÙħ Ú©Ø±
Ú¯ Ø³
ĠØ³Ùħ Ùģ
ÙģØ± Ùħ
ĠØ±Ø£ Ø³
ÙĪÙĦ Ø§ÙĨ
ĠØ§Ø³ Ø¯
ĠÙħØ® Ø¯Ø±
ĠÚĨ Ø´
Ġt o
ÙĨÛĮ Ùģ
Ø§ÛĮØ´ ÛĮ
ÙĨØ¸ Ø§ÙħÛĮ
ĠÙħÙĨØ§Ø³ Ø¨Øª
Ø¶ Ø§Ø¡
ĠØªÙĪØ± Ùħ
ĠØ³Ø± Ø´ÙĨØ§Ø³
ĠÙ¾Ø±Ø³ Ø´
ĠØ§ÙĦ Ø¯
ĠÙħØ¯ Ø§ÙĪÙħ
ĠØ³Ùģ Ø§Ø±Ø´
ĠÛĮ Ø§Ø³
ĠØ´Ú© Ø§ÛĮØª
ĠÛ±Û¹Û³Û ¶
ĠØ± Ø·ÙĪØ¨
ĠØ±ÙĪ Ø¨Ùĩ
ĠØ³ÙĦ Ø·Ùĩ
ĠØ¨ÙĦ ÙĨØ¯ÛĮ
ĠÛ¶ Û°Û°
ĠÙģØ³ Ø§Ø¯
ĠØ´ ÛĮÙĦ
Ø§ÙĨØ¯ ÙĪ
ĠÚ¯Ø±Ø¯ Ø§ÙĨ
ĠØ¯Ø´Ùħ ÙĨØ§ÙĨ
ĠØ¨Ø± Ø¯Ø§Ø±
ĠØ¨Ø§Ø² Ùĩ
ĠÙĨÙĩØ§ Ø¯ÙĩØ§ÛĮ
ĠØ§Ø³Øª Ø¹Ùħ
ĠØ¢ Ø³Øª
ĠÙħØ® Ø²ÙĨ
ÙĪÙħ ÙĨØ¯
Ø²Ø¨ Ø§ÙĨÛĮ
ĠØ±ÛĮØ³ Ú©
ĠØ¯Ø± Ø¨
ÙĪØ² ÙĪÙħ
ĠÚĨÚ¯ Ø§ÙĦÛĮ
ĠØ¨ Ø§Ø®Øª
ĠØ±Ø³ Ø§ÙĨØ¯Ùĩ
Ù¾ÛĮ ÚĨ
Ùħ Ø§Ø³
ĠÙģ Ø§Ú©ØªÙĪØ±
ĠØµØ§Ø¯ Ø±Ø§Øª
ĠÙħÛĮ Ú©
Û±Û³Û ¸Û
Ø¯Ø§ÙĨ Ø§ÙĨ
ĠØ¯Ø§Ú© ÙĪØªØ§ÛĮ
Ø¯Ø® ØªØ±
ĠÙħØ®ØªØµ Ø§Øª
ĠØ± ÙĤÛĮØ¨
ĠØ®ÙĪØ¯ Ø¯Ø§Ø±ÛĮ
ĠØ¯Ø§ÙĨ Ø´ÙĨØ§ÙħÙĩ
ÙĪ ÙĪÙĨ
Ùĩ Ø§ÙĨÛĮ
ĠØ³ ÙĪÙĦÙģ
ÛĮØ§ Ùģ
ĠØ§ÙĦ Ú©ÙĦ
ĠÙħØªØ± ÙĪÛĮ
ĠØ¬Ø§ÙĨ Ø´
ĠØ¯ ÙĨØ¯Ùĩ
ĠÛ±Û¹Ûµ Û²
ĠÙĦ ÙĪØ¯
ĠÛ³Û ¹Û
ĠØ¨ ÙĪÙĨ
ĠØŃØ¯ÛĮ Ø«
ĠÙħÙĪÙĦ Ú©ÙĪÙĦÛĮ
ĠÚ©Ø§ÙħÙ¾ÛĮ ÙĪØªØ±ÛĮ
ĠØ¬Ø§Ø¨ Ø¬Ø§ÛĮÛĮ
ĠØ¹ Ø¬ÛĮØ¨
Ø¦ ÛĮÙĨÛĮ
ĠÙħØ¬ ÛĮØ¯
ĠÙ¾Ø²Ø´Ú© Ø§ÙĨ
ĠØ²ÙĨØ¯ Ø§ÙĨÛĮØ§ÙĨ
ĠØ±Ø§ÙĨ ÙĨØ¯Ùĩ
r i
ĠØ§Ø¶ Ø·Ø±
ÙĨÙĩ Ø§Ø±
ĠØ¯ ÙĦÙģ
ĠØ¢ÙĨ Ø±Ø§
ĠÙ¾ÛĮ Ú¯ÛĮØ±ÛĮ
ĠØ¨Ø§ Ú©ÙĪ
ĠÙħØµØ¯ ÙĤ
ĠØ§Ø³ØªÛĮ ÙĪÙĨ
Ø§Ø¯ ÙĨ
ĠÛ±Û¹Ûµ Û¹
ĠÚ© Ø§Ú©
Ø¬ ÙĪÛĮØ§ÙĨ
ĠØªØŃ Ø±ÛĮ
ĠÙ¾ ÙĦÙĩ
ĠØ¢Ø´ Ù¾
ĠØ³ Ø§Ø¯Ú¯ÛĮ
ĠÛ±Û¹Û´ Û¶
ĠØ§Ø³ Ú©ÙĨ
ĠØ¢Ø± ØªÙĪØ±
ĠÙģØ±ÛĮØ¯ ÙĪÙĨ
ĠØ§ ÙĪÛĮ
ĠØ¹Ø« ÙħØ§ÙĨ
Ø° Ùĩ
ÙĪØ³Øª ÙĪÙĨ
ĠØ® ÙĪÛĮ
ĠÛ· Û¶
ĠÙħØ¹Ø§Ø¯ ÙĨ
ĠØ´Ú© Ùħ
ĠÚ¯Ø± Ø¬ÛĮ
ĠÙħØ³ØªÙĤÛĮÙħ Ø§
ĠØ¨ÙĨÛĮ Ø§Ø¯ÛĮ
ĠØ´ Ø§ÙĨØ²Ø¯ÙĩÙħ
ĠÙĨÙĤ Ø´ÛĮ
ĠÙħØ´Ø®Øµ Ø§Øª
ĠØ¨ÛĮØ² Ø§ÙĨØ³
Ù¾ Ø§Ø¯
ĠØ¦ ÛĮ
ĠØ± Ø´
ĠØ³Ù¾Ø§ÙĩÛĮ Ø§ÙĨ
Ø§ÙĦ ÙĨ
Ùģ ÙĪ
ĠØ¢Ø±Ú© Ø§ÙĨØ²Ø§Ø³
ĠÙĤØ§Ø± ÚĨ
Ø² ÛĮØ±
ĠØªÛĮÙħ ÙĪØ±
ĠÙģ Ø§ÙĨ
ĠÙħØŃ Ø§Ú©ÙħÙĩ
ĠÙħØ± Ø§
ĠØ¹Ø¨ Ø¯
ĠÙĦÙĩ Ø³ØªØ§ÙĨÛĮ
ĠI n
ĠÙħØ«ÙĦ Ø«
ĠÚĨ Ø³Ø¨
ĠØ¯ Ø§Ø¦Ùħ
ĠØ¬ Ø³Ø¯
ĠØªØ± Ø³ÙĨ
ĠØºØ° Ø§ÛĮ
Ú©ÙĦØ§Ùĩ ÙħØ§
ĠÚ© Ù¾ÛĮ
ĠÚ©Ø§Ø± Ø§Ú©
ĠØŃØ¨ÛĮ Ø¨
Ø§Øª ÙĪØ±ÛĮ
ĠØ¢Ùħ ÛĮØ²
ĠØªØŃ Ø³ÛĮÙĨ
ÙĪÙģ Ø§ÙĨ
ĠÙħØª ÙĨÙĪØ¹
ĠØª Ø§ÙĨ
ĠÙħÙĨ Ùģ
ĠÙģØ± Ø§ØªØ±
ĠÛ±Û¹Ûµ Û·
ĠØ¨ ÙĪÙħ
ĠÙħØ¨ Ø¯ÙĦ
ÙĨÙħØ§ÛĮ ÙĨØ¯
ÙĨ Ø§Ø¨
ĠØ¯ Ø§Ú¯
Ø§Ø±ÛĮ ÙĪ
Ø§Ø¯ Ø§ÛĮÛĮ
ĠØ´ÙĪØ± Ø§
ĠØ¯ Ú©
Ø¨ ÛĮØ´
ĠÙ¾ÛĮØ± ÙĪ
ĠÙģÛĮÙĦÛĮÙ¾ ÛĮÙĨ
ÚĨ ÙĪ
ÙĪÛĮ ÙĦÛĮ
ĠÛĮ ÛĮÙĦ
ĠØªÙĪÙĨ Ø³
ÛĮÙĨÚ¯ Ø²
ĠØ¨ÛĮ Ø³
ĠÙħØ¯ÛĮ ØªØ±Ø§ÙĨÙĩ
Ø¬ Ø§ÙĨÛĮ
ĠÙĨÙĪ Ø¬ÙĪØ§ÙĨÛĮ
ĠØ®ÙĦ Ø§ÙĦ
e y
ÚĨ ÙĦ
ĠÙħØ¤Ø³ Ø³
ĠÙ¾ ÛĮØª
ĠÙ¾Ø§ÛĮÛĮ Ø²
Ø§Ø® Ø§ÙĨ
ĠÛĮ Ø§ÙĦ
ÙĨ Ø´Ø§ÙĨ
ĠØ¢ÙĦ ÙĪØ¯Ùĩ
ĠØ° Ø±Ùĩ
ĠØ¨ØŃ Ø±ÛĮÙĨ
ĠÙ¾ÙĪØ± ÙĨÙĪ
Ø¨ Ø³Øª
ĠØ± Ú¯
ĠÛ· Û´
ĠØ³Ø§ÙĨØª ÛĮÙħ
ĠØ´Ùħ Ø§Ø±ÛĮ
ĠÙħØŃÙħ Ø¯ÛĮ
ĠØ¬ ÙĪÙĨØ²
ĠØªÙĤØ§Ø¶ Ø§ÛĮ
ĠÙĩ Ø§Ø³Øª
Ø§Ø³ ÙĦØ§Ùħ
ĠØ¨Ø¯ ÙĨÛĮ
Ø±Ø³ ÙĨØ¯
ĠÙĤ ÙĪØ§ÛĮ
Ø¯ Ø§ÛĮ
ĠØª Ø´ÛĮ
ĠÙĤ ÙĨ
ĠØªÙĪ Ø¬
ĠØª Ø·Ø¨ÛĮ
ĠÙĨÙĤ Ø¶
ØŃ Ø¯ÙĪØ¯
ÙĩØ§ÛĮ Øª
ĠÚ¯Ø± Ú¯Ø§ÙĨ
Ø´ÙĨ Ø§Ø®ØªÛĮ
Ø¬Ø² ÛĮØ±Ùĩ
ĠØ± ÛĮÙħ
ĠÙħØ³ Ø§ÙĪÛĮ
ĠÚ©Ùħ ØªØ±ÛĮÙĨ
ĠS h
Ø® ÛĮØ²
Ø¯Ø§ÙĨØ³Øª ÙĨØ¯
ĠÙħ Ø§Ø¨ÛĮÙĨ
Ø® Ø§Ø±
ĠÙĤØ· Ø¹ÛĮ
ĠÙĪ Øµ
ĠÙħÙħØª ÙĨØ¹
Ø§ÙĨ Ø¨Ø§Ø±
ØªØ± Ú©ÛĮ
ĠÙ¾Ø±ÙĪÙģ Ø³ÙĪØ±
ĠØ¨ Ú¯ÛĮØ±ÛĮ
Ùħ Øµ
ĠØ· Ø±Ø²
ĠÚ©ÛĮ Ø³Ùĩ
ĠØ¯ Ø²Ø¯
ĠÚ©Ø±ÛĮ Ø³
ĠØ§Ø¦ØªÙĦ Ø§Ùģ
ĠÙħ Ú©Ùĩ
ĠØ§Ø±Ø² Ø´Ùħ
ĠØ§ ÙĪØ±Øª
ĠØ§Ø± Ø´Ø§Ø¯
ĠØ¢ ÙģØ±ÛĮÙĨ
ĠØ±Ø·ÙĪØ¨ Øª
ĠÚ©Ø± Ø¬
ØŃ Ø¯
ĠÙħØ¬ Ø²Ø§
ĠÛ±Û¹Ûµ Û³
Ø®Ø§ÙĨ ÙĪ
ĠÙĨØ§Ø² Ú©
Ù¾ Ø§Ø´ÛĮ
ĠØªØ¨ Ø§Ø¯ÙĦ
ĠÙ¾ÙĦ Ø§Ø³
ĠØ±Ø§Ø¨ Ø·
ĠØ¯Ø±Ø®Ø´ Ø§ÙĨ
ÙħØ¯ Øª
Ú©Ø§Ø± Ø§ÙĨ
ĠØ§ÙĨ Ø³
ĠÚĺ Ø±
ĠØ´Ú© Ø§Ùģ
ĠØ®ÙĦ Ø§ÙĤ
ĠÚ© ÙĨÛĮ
ĠÙģ ØªÙĪ
Ø§ÙĨØ¯ Ø§
ĠØ§ÙĤ ÙĦÛĮØª
ĠÛ±Û³Û¹Û ¸
ĠØ§Ø³Ùħ Ø§Ø¹ÛĮ
Ùģ ÛĮÙĩ
Ø§ÙĨØ¯ ÛĮ
Û±Û¹Û µ
ĠØ®Ø± Ø§Ø¨
ĠÙħØªØ± ÙĪ
Ø§ÛĮÙĦ Ø±
ÙħÙĨØ· ÙĤÙĩ
ĠÂ °
ĠÙħÙĤØ± Ø±Ø§Øª
ĠÙĦÛĮ Ø²Ø±
ĠÚĺ ÛĮÙħÙĨ
ĠØ²ÛĮØ±Ø²ÙħÛĮÙĨ ÛĮ
Û±Û¹Û ´
ĠØªØ±Ø³ÙĨ Ø§Ú©
ĠØ³Ø§Ø² Ø¯
ĠØ¢ ÛĮÙĨÙĩ
ĠÛ³Û ¹
ĠÙģØ±ÙħØ§ÙĨØ¯Ùĩ Ø§ÙĨ
ĠÛ±Û¹Ûµ Ûµ
ĠÚ©Ø§Ø´ Ø§ÙĨ
Ø§ÙĨ Ø¬
ĠØ§Ùħ Ø¶Ø§ÛĮ
ĠÙħÙĦ ÙĤØ¨
ĠØ¯Ø³ØªÙĪØ± Ø§ÙĦØ¹ÙħÙĦ
a e
ĠÚ©ÙĪØ± Ùĩ
ÙĨ ÙĪÙĨ
Ø§Ùħ Ø±
ĠØ¹Ùħ ÙĪØ¯ÛĮ
Ú¯Ø± ÙĩØ§ÛĮ
ÚĨ ÙĨ
ĠØªÛĮØ± Ø§ÙĨØ¯Ø§Ø²ÛĮ
ĠØ§Ø³ Ø§ÙħÛĮ
Ø§ÙĪ ÛĮÙĨ
Ø§ ÙĪØ³
ĠÙĤØ· Ø¨ÛĮ
ĠØ³Ùģ Ø§ÙĦ
Ø· ØŃ
ĠB r
Ú¯Ø±Ø¯ Ø§ÙĨØ¯
ĠØ±Ø¶ Ø§ÛĮØª
ĠÙĪÛĮØª Ø§ÙħÛĮÙĨ
ĠÙ¾ÛĮÚĨ ÛĮØ¯Ú¯ÛĮ
ĠØ§Ø· ÙĦØ³
ĠØ§Ø®ØªØµ Ø§Ø±
Ùģ Ø¯Ø±
Ø¨ ØªÛĮ
Ú¯ ÙħÛĮÙĨØ§
ĠØ¢ ÛĮØ±
u g
ĠÙ¾ ÙĪØ¯Ø±
ĠÛ³Û ¸Û
ÙĪÚ¯ ÙĪ
a z
ĠÙĦ Ø·
Ø§Ø®Øª ÙĨ
ĠÙĤØ¨Ø± Ø³ØªØ§ÙĨ
ÛĮØ§ ÙģØªÙĩ
ĠÙħØ±Ú¯ Ø´
ĠØ¹ ÙħØ§ÙĨ
Ø§Ø³ ÙĦ
ĠØªØ¶ ÙħÛĮÙĨ
ĠØ¹Ø§Ø´ÙĤ Ø§ÙĨÙĩ
Ø´ Ø§Ø®
ÙĪØ§ÙĨ Ú¯
ĠÙħØ°Ø§Ú© Ø±Ùĩ
ÛĮ Ø§ÛĮ
Ø³ Ø§ÙĦÛĮ
ÙĪØ§ÙĨ Ø§
ĠØ¹Ùħ ÙĦØ§
ĠÙħÚ© Ø¹Ø¨
Ø§ÚĨ Ø§ÙĤ
ĠØªØ± ÙĪÛĮØ¬
ĠA m
ĠØ¯ÛĮÙ¾ÙĦ Ùħ
' s
ĠØª ÙĤÛĮ
ĠØ§ØŃØ³Ø§Ø³ Ø§Øª
ĠÙħØ§Ø¬ Ø±Ø§ÛĮ
ĠØªÙģ Ø±ÛĮ
ĠM ar
Û±Û° Û°
ĠØ¢Ø´ ÙĪØ±
ĠØ³Ø±Ù¾Ø± Ø³Øª
ĠÚ© ÙĪØ§Ø±
ĠÙ¾Ø§Ø³ Ø¯Ø§Ø±Ø§ÙĨ
ĠÙħÙģ ØµÙĦ
ĠÙ¾ÚĺÙĪÙĩØ´ Ú¯Ø±
ĠÙĦØ° Øª
ÙĨÚ¯ Ø§Ø±Ø§ÙĨ
ĠÛĮ ØŃÛĮÛĮ
ĠÙĦÛĮÙĪØ± Ù¾ÙĪÙĦ
ĠØ¯ÙĪ Ø§Ø²Ø¯ÙĩÙħ
ĠÙĦÛĮ Ø¨ÛĮ
ĠÙħØ§Ø± Ø´
ĠÛ±Û¹Û´ Û¹
ĠØ¬Ùĩ Ø´
ĠØ§Ø± Ùħ
Ø§Ú¯ Ø±Ø§ÙĨ
ĠØ¬ ÛĮØ±
ĠØ±Ø¦ Ø§ÙĦ
ĠØ¬ÙĨ Ø§ØŃ
ĠÛ±Û¹Û±Û ·
ĠØªØ§ ÙĪÙĨ
er t
Ùģ ÛĮÙĨ
Ú©ÙĨ Ùħ
ĠØ° ÛĮÙĦ
ÙĦ Ø§ÙĨÛĮ
ĠØ®ÙĪØ± Ø§Ú©ÛĮ
l y
ĠØ¯Ø± ÙĩÙħ
ĠØªØ±Ú© Ø§ÙĨ
ĠÛ· Û·
Ø³Ø¨ ÙĪØ±Ú¯
ĠØ§ÙģØªØ® Ø§Ø±Ø§Øª
ĠØ¨Ø§Ø² Ú¯
ĠÙħØ± Ø§Ø¯
ĠÙħØ¤ ÙĦÙģ
ĠØ²Ø® Ùħ
ĠØ¨ ÙĪÙĦÛĮ
ĠÙĩÙĪØ§Ù¾ÛĮÙħ Ø§ÙĩØ§ÛĮ
Ø§Ùħ Ø§ÙĨ
ĠØ¬ ÙĪÙĨ
Ø§ÙĨÛĮ ÙĪÙħ
ĠÛĮ Ø§ÙĨÚ¯
Û±Û¹Û ±Û
i es
ĠÙħØ¹ ÛĮØ§Ø±
Õ ¡
ĠÛ±Û¹Û±Û ¹
a ch
ĠØ³Øª Ø§ÛĮØ´
ĠØŃÛĮ Ø§Ø·
ĠÙħÙĪÙĨÛĮ Ø®
ĠØ§ÙĦ ØªÙĩ
Ú© ÛĮÙħ
Øª ÙĪÙħ
ĠØ¨ Ø¨ÛĮÙĨ
ĠØ² Ø§Ùĩ
ĠÚ©Ø§Ø± Ú©Ø±Ø¯
Ø² ÙĪ
ÙĦÛĮ Ø³ÛĮ
ĠØ´Ø¹ Ø§Ø±
ĠØ¯Ùħ Ø´ÙĤ
ĠÚ¯ ÙĪØ§Ø±
Ø°ÛĮ Ø±ÛĮ
ĠÙĨØŃ ÙĪÛĮ
ĠØ¬Ùĩ Ø§Ø¯
ĠÙĩØ´Ø¯ Ø§Ø±
ĠÙĪØ§Ø¨ Ø³ØªÚ¯ÛĮ
ĠÙĨØ§Ú¯ ÙĩØ§ÙĨÛĮ
ĠÙħØ°Ø§Ú© Ø±Ø§Øª
Ø§ÛĮ Ø±ÛĮ
ĠÙ¾ÛĮØ´ ØªØ±
ĠÙħØ®ØµÙĪØµ Ø§
ĠÙģ Ø§ÙĨØª
ĠØŃÛĮØ¯ Ø±
ĠØ³Ù¾ Ùĩ
ĠÙĩÙģØª ØµØ¯
ÙĪÚĨ ÙĩØ±
ÙĨ Ø§Ù¾
ĠØ® ÙĪÙĨÛĮ
ĠÙħØ¯ ÛĮÙĨÙĩ
ĠØ´ÛĮ Ø·Ø§ÙĨ
Ø§ÙĨ ÙĪØ±Ø¯
Ø´Ùĩ Ø±ÛĮ
ĠØªØ§ÛĮÙĦ ÙĨØ¯
ĠÙħØ¬Ø§ÙĩØ¯ ÛĮÙĨ
ĠØ§ Ú©ÙĦØ§ÙĩÙħØ§
ĠØ¨Ø§ÙĦØ§Ø® Ø±Ùĩ
ĠÛ±Û³Û ¸Û°
ĠÛ´ Û³
ĠÙĨÙģ Ø¹
ÙĪ Ø§ØŃ
Ø¨ ÙĪÙĨ
ĠØŃØ³Ø§Ø³ ÛĮØª
Ø§ÙĦ Ø³ÙĦØ·ÙĨÙĩ
ĠØ± ÙģØ³
ÙĪÙĨÛĮ Ùĩ
ĠØ¨ÛĮ ÙĦÛĮ
ĠÙħÙĤØ§ ÙĪÙħ
ÙģÙĦ Ø¯
ĠØ§ÛĮ Ø§Ùħ
Øµ ÙĪØ±
ĠØ§Ùģ Ø´
ĠØª Ø¹ÙĩØ¯
ĠØ§Ø´ Ø±Ø§Ùģ
Ø§Øº ÛĮ
Ø§Ø« ÛĮØ±
ĠØ§Ø³ØªØ§ÙĨØ¯Ø§Ø± Ø¯ÙĩØ§ÛĮ
ĠÙģ Ø§Ø¶ÙĦ
ĠØ§Ø³ ÛĮØ±
ĠØªÙĤØ³ÛĮÙħ Ø§Øª
ĠØªÙĨÚ¯ Ùĩ
Ú© Ø§Ú©
ĠØ¨Ø§Ø²Ø§Ø± ÙĩØ§ÛĮ
ĠØ§Ø¯ÛĮ Ø§ÙĨ
ĠÙģØ±Ùĩ Ø§Ø¯
Ù¾ Ø§Øª
Û±Û¹Û ¸Û
ĠØŃÙģ Ø§Ø±ÛĮ
Ø¨ ÙĪØ¹
Ø§Ø¯ ÙĦÙĩ
ĠØ® ÙĨ
ĠØ³Ø§Ø² Ú¯Ø§Ø±
an s
ĠÙĩÙĨØ¯ Ø³Ùĩ
Ø§Ø±Øª ÙħØ§ÙĨ
ĠØ¯Ø§ ÙĪØ±ÛĮ
ĠØ±ÙħØ§ÙĨ ØªÛĮÚ©
ĠØ§ÛĮØ¯ Ø¦
ĠØ² ÙĪØ±
ĠÙĦ Ø§Øª
ĠÛ±Û¹Û³Û ¸
a la
Ã Ĺ
ĠØ¬Ùħ Ø§ÙĦ
ĠÙħÛĮ Ø®
Ø¦ ÙĨ
ĠØ¨ÛĮ Ø§Ø¨Ø§ÙĨ
ĠØ±ÛĮ Ø§Ø¶
Ø· Ø¦Ùĩ
Ø± Ø§ÙģÛĮ
ĠĠ ĠĠ
ÙģØ± Ø§Ø¯ÛĮ
ĠÙħØ· ÙĦØ¨
ĠØµÙģ ÙĪÛĮÙĩ
ĠØ¢ Ú©Ø³
ĠØ·Ø±Ùģ Ø¯Ø§Ø±
ĠØ¨ ÙĪØ³ÛĮÙĦÙĩ
Ø§Ø³ ÙħÛĮ
ĠÙģØ¹Ø§ÙĦ Ø§ÙĨ
ĠØ·Ø¨Ø§Ø· Ø¨Ø§ÛĮÛĮ
ĠÚ©Ø§Ø¸ Ùħ
Ø± Ú¯
Ø¯ Ø§Ø¯ÛĮ
ĠÛ¸ Û°Û°
ĠØ¯Ø±ØŃ Ø§ÙĦÛĮ
Ø³ ÙĨÛĮ
ĠØ¯Ø®ØªØ± Ø´
ĠÚ©Ø§Ø± Ø´
Ø± Ø§Ø³ÛĮ
ĠØ§ÛĮÙĨ Ú¯ÙĪÙĨÙĩ
Ø¸ Øª
ĠÙħØ³Øª Ø¹
ÙĤØ·Ø¹ ÙĨØ§ÙħÙĩ
ĠØ¶Ø® Ø§ÙħØª
ĠÙģ ÙĪØ±Ø¯
ĠÙ¾Ø±Øª ØºØ§ÙĦÛĮ
Ã ³
ĠÙħØ´Ø®Øµ ÛĮ
ĠØ¯ÛĮÙĪØ§Ø± ÙĩØ§ÛĮ
ĠÚ©Ø§ÙĨØ¯ ÛĮØ¯
Ø®Ø§ÙĨÙĪ Ø§Ø¯Ùĩ
ĠØ®Ø§Øª ÙħÙĩ
Ø§Ø² Ø§ÙĨ
ĠÚ©ÙĪØ¨ Ø§
Ø§ÙĦ ÙĨÙĩØ§Ø±
ĠØ³Ø§ÙĨØªÛĮÙħ ØªØ±
ĠØ¬ ÙĦØ³
ĠÙĦ Ø§ÙĨÚ¯
ĠÚ©ÙĨ Ø´
ÙĪÚ© ÙĦ
ĠØ§Ø¯ Ø¨
Ø¨ Ø§Ø¹
ĠÙģØ±Ø¶ ÛĮÙĩ
ĠÚ© ÛĮÚ©
ĠØ§Ø³ ÙĨ
ĠØ± Ø§ÙĨØ¯
ĠØ§Ø®ØªÙĦ Ø§ÙĦØ§Øª
Ø³ ÙĨÚ¯ÛĮ
ĠØ¹ÙĨ Ú©
ĠØ¨Ø±Ø§ÙĨ Ú¯ÛĮ
ĠÙ¾ÛĮØ´ ÛĮÙĨÙĩ
ĠÙģØ¹ ÙĦ
Ø´ Ø§Ùħ
ĠØ¹ÙĦ ÙħØ§ÛĮ
ĠÙĩØ³Øª ÛĮ
ĠÙħØªÙĪ Ø§ÙĦÛĮ
Ùħ ÙĩØ±
ĠØŃØ³ Ø¨
ĠØ¨ÙĦÙĨØ¯ ØªØ±ÛĮÙĨ
ÙĦÛĮ Ø²
ĠÙħÛĮ Ùĩ
ĠÙĩØ± ÚĨÙĩ
Ú©ÙĦ ÛĮÙĨ
ĠØŃ Ø§ÙħÛĮ
ĠÛ±Û³Ûµ Û¸
ĠÙħÛĮ ÙĨÛĮ
ĠØ³Ø§Ø² ÙĩØ§ÛĮ
ĠØªÙĪ Ø·Ø¦Ùĩ
Û°Û ±Û
Ġ Ð
ĠØ¬Ø§ÛĮÚ¯Ø² ÛĮÙĨÛĮ
Ø¯Ùĩ Ø§ÛĮÛĮ
ĠÙģ ÙĤØ±
ĠØ§Ùħ ÙĦØ§Ú©
Ø¨ÙĪØ± ÙĨ
l and
Ø¨Ø§ÙĦ Ùĩ
ĠÙħØªÙĪØ³ Ø·Ùĩ
ĠÚ¯Ø±Ø§Ùģ ÛĮÚ©
Ø§ÙĦ Ø§ÙĨ
ĠÚ©ÙĦ Ø§Ùħ
Ùħ Ú©ÙĨ
ĠÙģØ±ÙĩÙĨÚ¯ Ø³ØªØ§ÙĨ
ÛĮÙĨ Ú¯ÛĮ
ĠÛĮ Ø¹ÙĤ
ÚĨÛĮ Ø§ÙĨ
ĠØªØ§ÛĮ ÙħØ²
ĠØªÙĤØ±ÛĮ Ø¨ÛĮ
ĠØªØ³Ùĩ ÛĮÙĦ
ĠØ¹ Ø³ÙĦ
ĠÙĨÚ¯ Ø§Ø´ØªÙĩ
ĠÚ¯ÙĪ Ø§ÙĩÛĮ
Ø¹ Ú©Ø³
a w
ĠÙģ Ø¯
ĠØ§ÙĨ ÙģØ±Ø§Ø¯ÛĮ
ĠÙĦ Ø§ÙĦÙĩ
ĠØ¯Ùĩ Ú©Ø¯Ùĩ
en s
ĠØ¨Ø±Ø¯ Ø§Ø´ØªÙĩ
Ġ ÛĮØ¯
Ùİ Ùĳ
Ø§Ø³Øª ÛĮÙĨ
ĠÙħÙĩØ§Ø¬ Ø±Ø§ÙĨ
Ġ Ø§Ø±ÛĮ
ĠØŃØ§ÙĦ Ø§
ÙĪÙĦÙĪ ÚĺÛĮÚ©ÛĮ
ĠÙĤ Ø§ÚĨØ§ÙĤ
ĠØ±Ø³ ÙĪØ¨
ĠÙĩØ¬ ÙĪÙħ
Ø³ÛĮ Ø³Ú©ÙĪ
ĠÛ±Û³Û¸Û ³
ĠØ§Ø±Ø² Ø§ÙĨ
ĠÙĨØ´Ø±ÛĮ Ø§Øª
ĠØ³ Ø¹Ø¯
ĠÙĩ Ø±Ø¯
Ø¢ ÙĤ
ĠØ¨Ø§Ø¨ Ø§
Ù¾Ø²Ø´Ú© ÛĮ
Ùħ Ø²Ø¯
ĠØ§ÙĤ ÙĦÛĮÙħ
m an
ĠÚĨÙĨØ¯ Ø§ÙĨÛĮ
Ø¬ Ø±ÛĮ
ĠØ¯Ø§ÙĨØ´Ø¬ ÙĪÛĮ
ÙĤ ÙĩØ±
Øµ ÛĮØ±
ĠØ§Ø³ØªØ¹ ÙģØ§
ĠØ¨Ø±Ø§ÛĮ Ø´
ĠÙĪ ÙĨØ²
ĠÛ±Û³Ûµ Û°
ĠÙħØ±ÛĮ ÙĦÙĨØ¯
ĠÙģÙĦØ³Ø· ÛĮÙĨÛĮ
ĠÙģØ± ÙĨ
ĠØ´Ø´ ØµØ¯
ĠØ±Ú© Ø§Ø¨
ĠØ§ÙĨØªØ®Ø§Ø¨ ÛĮ
Û±Û¸Û ¶
ĠØºÙĦ Ø¸Øª
ĠØ§ÙĦÛĮØ² Ø§Ø¨Øª
ĠÚ©Ø§ÙĨ Ø§Ø¯Ø§ÛĮÛĮ
ĠÙħØ´Ø®Øµ Ùĩ
ĠÙĪ Ø¬
Ø§Ùħ ÛĮØ±
ĠØŃØ±Ú© ØªÛĮ
ĠØ« Ø¨Ø§Øª
Ø±Ú© Ø´ÛĮ
ĠØ§Ø¯ Ø±
ĠÚ©ÙĦØ± Ø§Ø¯ÙĪ
ĠÚ©Ùĩ ÙĨÙĩ
ĠØ±Ø³ ÙĪÙĦ
on d
ĠØ¬Ø§ÙĨ Ø³ÙĪÙĨ
ÙĪØ¦ ÙĦØ§
ĠØ¹Ø¯ Ø¯ÛĮ
= "
ĠØ¬ ÙĪØ²Ùģ
ĠØ¯Ø§Ø¯ Ú¯
ĠÙħØ³Øª Ø¹Ùħ
ĠÙĨÙħÙĪØ¯ Ø§Ø±
ĠÙħÙĨØŃ ÙĨÛĮ
ĠØªØ±ÙĪØ±ÛĮ Ø³ØªÛĮ
ØªÛĮ Ø³
ĠØª ÛĮØª
ĠÚ©Ø± ÛĮÚ©
ĠØ¨Ø§Ø²Ø§Ø±ÛĮ Ø§Ø¨ÛĮ
ĠØ¨Ùĩ Ø´ØªÛĮ
ĠØº Ø§Ø±Øª
ĠÙĩØ´Øª ØµØ¯
ĠØ¬ÙĨ Ø¨
ĠØ®Ø§Ùħ ÙĪØ´
ĠÚĨ Ø§Ø±Øª
ĠØ§Øµ Ø§ÙĦØª
ĠÙħØ¨ Ø¯
ÙĨ ÙĪØ³
ĠÙ¾ÛĮ Ø³Øª
is h
ĠÙħØ§Ø³ Ùĩ
ÙĦ ÙĪÚ©
ĠÙĨ Ø§Ø¦
ĠÙĤØ± ÙĤ
ÙĦØ§ ÙĪÙĩ
ĠÚ© ÙĪØ±Øª
ĠÙĩÙħ Ø§ÛĮ
ĠÙĤ ØµÙĩ
Ø§ÛĮ Ø±Ø§ÙĨ
ĠÙĨÙĤ Øµ
ĠÛ±Û¹Û³Û ·
ĠØ¢Ø¨Ø§Ø¯ Ø§ÙĨ
ĠØ¢Ø±Ø§Ùħ Ø´
1 5
ĠØ¨ Ø´Ú©
âĢĮ âĢĮ
ĠØ§ÙĦÙģ Ø¨Ø§ÛĮ
ĠÙĦÙĪ Ø§Ø²Ùħ
ĠØ· Ø§ÙĩØ±
Û±Û³Û ·
ĠØ¨ÙĤ Ø§ÛĮØ§ÛĮ
ĠØªÙĨØ¯ ÛĮØ³
ĠØ³Ø±Øª Ø§Ø³Ø±
ÛĮØª Ø³
ĠØ§Ø¹ ØªØµ
ĠØªÙĨ Ø³ÛĮ
ĠØ¯Ø§ÙĨØ´Ø¬ ÙĪÛĮÛĮ
ĠÙħØ¹Øª Ø¯ÙĦ
ĠØ§Ø²Ø¨Ú© Ø³ØªØ§ÙĨ
ĠÙĦ Ùģ
ĠØªØ« Ø¨ÛĮØª
Ø· Ø§Ùģ
Ø±Øª Ø´Øª
ĠÙĩØ§Ùģ Ø¨Ú©
ĠÙ¾ÛĮØ´ Ú¯Ø§Ùħ
ĠÙģØ±Ø²ÙĨØ¯ Ø´
ĠÙĤ Ø¶Ø§
ĠÛ±Û¹Û³Û ³
Ø¢ ÙĦØ¨
Û´ Û²
Ø±Ø§Øª ÙĪØ±
ĠØªÙĪÙĦÛĮØ¯ Ø§Øª
ĠØ¯Ø§Ùħ Ø¯Ø§Ø±ÛĮ
ĠØ¯ÙħÙĪÚ© Ø±Ø§Ø³ÛĮ
1 8
ĠØ¨ Ù¾Ø±Ø¯Ø§Ø²Ø¯
Ø¦ ÙĪÙ¾
ĠØ¬ÙĨ Ø§ÛĮØª
ĠÙħØ±Ú©Ø² ÛĮØª
ĠØ§Ø³Øª ÙĨØ§Ø¯
ĠØ¯ÙĪ Ø²
Ø§Ø¯ Ùģ
Ø§Øª Ø§ÙĨ
ĠÙħØ¬ Ø§ÙĪØ±Øª
ĠÚ©Ø§Ù¾ ÛĮØªØ§ÙĨ
Ø±ÙĪ Ø¨
ĠØ¯Ø§Ø¯Ú¯ Ø³ØªØ±ÛĮ
T he
ĠØ¯ÛĮØ¯ ÙĨÛĮ
ĠØµ ÛĮ
ĠÙĩØ³Øª ÛĮÙħ
ĠØ±ÙĪØ§ÙĨ Ùĩ
ĠØ¯Ø§Ø± ÙĪÛĮ
ĠÚ©ÙĪÙĩ ÙĨ
ÙħØŃ ÙĪØ·Ùĩ
ĠØ¨Ø±ÙĪØ¬ Ø±Ø¯
ĠÙ¾ÛĮØ´ Ø±ÙĪÛĮ
ĠÛ´ Û±
ĠØ§Ø³Øª Ø¹Ø¯Ø§Ø¯
ĠØ³Ø± ÙĨÚ¯
Ø§Øµ Ø±ÛĮ
ĠØ± Ø§ÛĮÙĨ
ĠØ³ ÙħÙĨØ§ÙĨ
b r
Ġ re
Ø² Ø´
Ú©ÙĦ Ø§
ĠØŃØ¶ Ø±Øª
ĠÛ±Û¹Ûµ Û±
ĠØ¹Ø¨Ø¯Ø§ÙĦ Ø±ØŃ
Ø¢Ùħ Ø±ÛĮÚ©
Ùħ Ø±Ú©Ø²
ĠØ§Ø¹ Ø¶Ø§
ĠÚ¯Ø° Ø§Ø±
ĠÙħØ§ Úĺ
ĠÙħØ¹ ÛĮ
ÙĪÙĪ ÙĪ
Ø¨ Ø§ÙĤ
ĠÙģØªØŃ Ø¹ÙĦÛĮ
ĠØµÙĦØ§ØŃ ÛĮØª
ĠÙħØŃØ§ÙģØ¸ Ùĩ
ĠØ³ÛĮ Ø§ÙĦ
Ø¨ ÙĪÚ©
ĠÙħØ´ Ú©
ĠØŃØ§ÙĦ ØªÛĮ
ĠØ±Ø³Øª ÙĪØ±Ø§ÙĨ
Ð °
ĠØ² Ø±ØªØ´Øª
ĠØ®Ø§Øª ÙħÛĮ
ĠØ® Ø§Ú©ÛĮ
ĠÙĨÛĮ Ø§Ø²ÛĮ
ĠØ§ÙĦ Ø²
Ø´Øª Ø§ÛĮÙĨ
Ø³Ø¨ Ø²
ĠÙģØ±ÙĪ Ù¾Ø§Ø´ÛĮ
ĠÙħØ£Ùħ ÙĪØ±Ø§ÙĨ
Ú¯Ø± ÙħÛĮ
ĠÛ±Û¹Û³Û µ
ÙħØ³ Ø¬Ø¯
É Ļ
ĠÙĩ Ø§ÛĮÛĮ
ĠØ§ØŃ ØªÛĮ
ĠØ¨Ø§ÙĦ ÛĮÙĨÛĮ
ĠÚ¯ÙĦ ÙĪØ¨
ĠÛ±Û³Û¶ Û°
ĠÚ©ÛĮÙĩ Ø§ÙĨ
il le
ĠÛ±Û³Û¸Û ²
ĠØ¢ÙĦÙĪÙħÛĮÙĨÛĮ ÙĪÙħ
Ø³Ø± Ø®
ØªÙĪ Ø§ÙĨÛĮØ¯
Ø²Ø¨ ÙĪØ±
ĠØ§Ø®ÛĮØ± Ø§
ĠØ¨ÙĨ Øª
Ø§Ø¯ Ú¯Ø§ÙĨ
ĠØ¹Ø¨ Ø±ÛĮ
ĠØ§Ø³Ù¾ Ø±
ÙĪÙģ Ø³Ú©ÛĮ
ĠØ¨ÙĪØ³ ÙĨÛĮ
ÙģØ¯Ø± Ø§Ø³ÛĮÙĪÙĨ
Ø³Ø§ ÙĪÛĮ
ĠØ¬ ÙĪÙĦÛĮ
ĠØ·Ø±Ùģ ÛĮ
ĠÙģØ¶Ø§ ÙĩØ§ÛĮ
O S
ĠÙĦ Ø§Ø³
ĠØ§Ø± Ú¯
ĠØ·Ø±Ùģ ÛĮÙĨ
ĠØ¹ Ø§Ø²Ùħ
ĠÙĨØ§Ø® Ø§ÙĦ
ĠØ·Ø¨Ø± Ø³ØªØ§ÙĨ
ĠØ§Ø®ØªÙĦØ§Ùģ Ø§Øª
ĠÚĨÙĨØ§ÙĨ ÚĨÙĩ
ĠØªØ² Ø¦ÛĮÙĨ
ÙĪÙĦ Ø§ÛĮ
ÙĦØ§ Ú¯
ĠÙħØ® Ø±ÙĪ
ĠØ¨Ø± ÙĩÙħ
ĠØ¯Ø³ØªÛĮ Ø§Ø±
ĠÚ©Ø±ÛĮØ³Øª Ø§ÙĦ
ĠÙħØ±Ø§Øª Ø¨
Úĺ ÙĪ
ĠØ³Ø§Ø®ØªØ§Ø± ÙĩØ§ÛĮ
ĠØ¨ Ø§Ø±Øª
ĠØ¯ ÙĪØ±ÛĮ
or d
ĠØ§ÙģØ³ Ø±Ø§ÙĨ
ĠØ¨Ø²Ø±Ú¯Ø³Ø§ÙĦ Ø§ÙĨ
ĠÙħ Ú¯Ø±
ĠØ¯Ø± Ø¬
ĠÙĦ ÙĪØª
ĠØµ Ø§Ùģ
ĠÚ©ÙĨ Ø³ØªØ§ÙĨ
ĠÛ· Û²
ĠØ³Ø¨ Ø²ÛĮ
ĠØ§Ø¹ØªØ± Ø§Ùģ
u re
ĠØ³Ø¹ Ø¯ÛĮ
ĠØ¬Ø§ÙĨØ´ ÛĮÙĨÛĮ
ØŃ ÙĦ
ĠÙħØ§ÙĨØ¯ ÙĨ
ĠØ§Ùģ ÙĤÛĮ
Û³Û ³Û
Ø´ ØªØ±
ĠØŃÚ© ÛĮÙħ
I S
Øª Ø§ÙĦ
Ú¯Ø± Ø§Ùģ
ĠÙĤØ²Ø§ÙĤ Ø³ØªØ§ÙĨ
ĠØ¨ Ø¨Ø±Ø¯
ĠØ´ Ø§ÙĨØ²Ø¯Ùĩ
ÙĪØ¯ ÙĪ
ĠÛ´ Û¹
ĠØªÙĪÙĨ ÙĦ
ĠÙħØ¹ Øµ
ĠÛĮ Ø§Ø±Ø§ÙĨ
ĠØ¢Ø«Ø§Ø± Ø´
ĠØ§Ø¨Ø±ÛĮ Ø´Ùħ
Ø³ÛĮ Ùĩ
Ø³ Ø§Ø¨
Ø³ Ø§ÛĮÛĮ
ĠÙħØª ÙĤØ§Ø¨ÙĦ
ÛĮÚ© Ø±
ĠØ¨Ø§Ø± Ø´
ÛĮØª ÙĪÙĨ
ĠÙĨ Ø§ÙĤ
Ø¬ ÙĪØ±
ĠØ· ÙĪØ§ÛĮ
ĠØŃÙĪ Ø¶Ùĩ
ĠØµÙĨØ¯ ÙĦÛĮ
ĠØ³ Ø§ÙĤÙĩ
ĠØ¢Ø³ÛĮ Ø§Ø¨
ĠØ´ÙĨ Ø§ÙĪØ±
ÙĪ Ø§Øª
Ùģ ÙĪØ±Øª
ĠØ¯ÛĮ ÙĪ
ĠÙħØŃ Ú©Ùħ
ĠÚ©Ø±ÙĪ Ø§Ø³ÛĮ
ÛĮ Ø¹ÙĨÛĮ
Ú© ÙĪØª
ĠØ¬Ùħ Ø§Ø¹Øª
ĠØªØ§Ø±ÛĮØ® ÚĨÙĩ
ĠÙĪ Ø¹Ø¯Ùĩ
ĠÛĮ ÙĪÚ©
ĠÛ±Û¹Û³Û ´
ĠØ³ÛĮØ² Ø¯ÙĩÙħ
ĠØ² Ø§Ú¯Ø±
ĠØ¬ Ø¨Ø±
ĠØµ ÙĪÙħ
ĠØ¨Ø§Ø± Ø²
ĠØ± ÛĮÙĩ
Ø¢ ÙĨØ¬
ĠÙĨØ¸ Ø±Ø§Øª
ĠÙħÙĨØª Ø®
ĠØ§ÙĨÚ¯ ÙĪØ±
ĠØ¢ØºØ§Ø² ÛĮÙĨ
ÙħÙĩ Ø¯ÛĮ
ĠØ®ÛĮ Ø§ÙĦÛĮ
ĠÙĩÙĨØ¯ Ø³ÛĮ
ĠØ´Ø¹ Ø±ÛĮ
ĠØª Ø²ÛĮ
ÛĮÚ© Ø§ÙĦ
ĠÚ¯ ÙĪØ³Ùģ
ĠØ§ÙĦ ÛĮØ§Ùģ
ĠØ¬ÙĦØ³ Ø§Øª
Ú© Ø§ÙĨÛĮ
Ù¾ Ø§ÛĮØ§ÙĨ
ĠØªØ§Ø± ÛĮÚ©ÛĮ
ĠÚ©Ø´ ÛĮØ´
ÙĨ Ø§ÙĪ
Ø§ÙĪØ± Ø¯Ùĩ
is s
Ø´ Ø±Ú©Øª
ĠÙģ Ø³Ùģ
ĠÚ©Ø§ÙĦ Ø§ÙĩØ§ÛĮ
Ø§Ø´ Ø§Ùĩ
la r
ÙĪ Ø®
ĠÙħØª ÙģÙĤ
ĠØ¯ Ø§Ø¹
ĠÙĩØ± Ø²
ĠØ§ÙģØ² ÙĪÙĨ
ĠÙģØ±ÙĪ Ø®ØªÙĩ
ĠØ±Ùħ Ø¶Ø§ÙĨ
ĠÙĪÛĮÙĦÛĮØ§Ùħ Ø²
ĠÙħ ÙĪØ¯
ĠØ§ÙģØªØ® Ø§Ø±ÛĮ
ÛĮØ¯Ùĩ Ø§ÛĮ
ĠØ¨Ø±Ú¯Ø² ÛĮØ¯
ĠÚ© Ø³Ø±
ĠØµ ÙĪÙģÛĮ
Û´ Û±
Ø§Øº ÙĦ
ĠØ³ Ø§Ø¯Ø§Øª
ĠÛ±Û¹Û² Û¹
Ø¶ Ø§ÛĮÛĮ
ÙĪØ· ÛĮ
ĠÛĮØ§Ø¯ Ø¨ÙĪØ¯
ĠØ¨Ø§Øª Ø±ÛĮ
ĠØ¢Ùħ ÙĦ
ĠØ¯Ø§ÙĪ Ø·ÙĦØ¨
ĠØ³ÛĮØ² Ø¯Ùĩ
ĠØªÙĤØ¯ ÛĮØ±
ĠÙħ ÙħÙĦ
ĠÙħÙĪ Ø¨
ĠØ§Ù¾ Ø±Ø§
ĠÙħÙĨØ§Ø· ÙĤÛĮ
ĠØ²Ø¯ ÙĨØ¯
1 4
ĠÙĨÙĪ Ø¢ÙĪØ±ÛĮ
Ø§Ø³Øª ÛĮØ´ÙĨ
Ø¨Ø± ØªÙĪ
ĠÙħØ± Ø·ÙĪØ¨
ĠÙģÙĤ ÛĮØ±
ĠØ¬ Øª
ĠØ¹ ÛĮ
ĠÙĨ ÙĩÙĨÚ¯
ĠØªØ± Ø§ÙħÙ¾
ĠØ³Ø± Ø§
ĠÙĨÙĪØ³ Ø§ÙĨ
ĠØª Ø§Ø«ÛĮØ±
ĠÙħÛĮ Ø¯Ø§ÙĨÛĮ
ĠØ±ÙĪÛĮ Ùĩ
ĠÙħÙĪØ³ Ø³Ùĩ
ĠÚ© Ø§ÛĮ
as s
ĠÙ¾ÙĪØ±ÙĨÙĪ Ú¯Ø±Ø§ÙģÛĮ
ÙĪØ§Ø¯ ÙĪØ±
Ùģ Ø³ÛĮ
ĠØªØ± Ø³ÛĮÙħ
Ù¾ Ø±ÛĮ
ĠÙĩ Ø¯ÛĮÙĩ
Ùħ ÙĪÙĨØ¯
ÚĨ Ú©
ĠÚ¯Ø³Øª Ø±Ùĩ
ĠÙĨ ØµÛĮ
ĠØ¹ Ø§ÙħÙĩ
ÙħØ± Øº
ac k
ĠÙħØ³Ø¦ÙĪÙĦ Ø§ÙĨ
ĠÙĤ Ø§ÙĩØ±Ùĩ
ĠÚ©ÙĪØ¯ ØªØ§ÛĮ
ĠÙĨØ¨ÙĪØ¯ ÙĨØ¯
ĠØ¢ÙĦ Ø¨Ø±Øª
Ġhttp s
ĠÙħ Ø²Ø¨ÙĪØ±
Ø¹ Ø²
ĠØ¯ÙĪØ³ØªØ§ÙĨ Ùĩ
ĠÙĨØ§ÙĪ Ú¯Ø§ÙĨ
ĠÙħÙĦØ§ØŃ Ø¸Ùĩ
ĠØ· ÙĦØ§ÙĤ
ĠØ¯Ø¨ÙĦÛĮ ÙĪ
ĠØªÙĪØ¬ ÛĮÙĩ
ĠÚ¯ Ø´ÙĪØ¯
ĠØŃÚ© ÙħØª
ĠØ§ ÙĩØ±
Ø±ÙĪ Ø³Øª
ĠØ§Ø± ÙĨ
ĠØªÙħ Ø§ÛĮØ²
ĠÙģ ÙĩØ±
ĠÙ¾ ÙĪØ¯
Ø¨ Ø¹Ø¯
ĠØ§ÙĪØ± Ú¯ÙĨ
Øª ÙĪØ³
ĠØ® ØªÙħ
ĠØªØ®Øµ Øµ
ĠÙħÙĨ Ø³ÙĪØ¨
ĠØ¬ÙĦ Ú¯Ùĩ
it h
ÙĪÙĦÙĪ ÚĺÛĮÚ©
ĠÙħÛĮ Ø²Ø¨Ø§ÙĨÛĮ
ĠÙħÙĨØ¸ ÙĪÙħÙĩ
ĠÙĦ ÙĪÛĮ
ĠÚ©Ø§Ø± ÙħÙĨØ¯
ĠØ¢ÙĦ ÙģØ§
ĠÚ©ÛĮÙĦ ÙĪ
Ø® ÙĪØ´
Ø³ÙĦ Ø·Ø§ÙĨ
ĠØŃ ØµØ§Ø±
Ø§Ø±ÛĮ Ùĩ
Û´ Û¸
ĠØªÚ© Ø«ÛĮØ±
ĠØ³Ù¾ Ø±Ø¯
ØªØ§ ÙĪÙĨ
ĠÛµ Û±
ĠØ§ÙĦÚ©ØªØ± ÙĪÙħ
ĠÙħØªÙĨ Ø§Ø³Ø¨
ĠØ§ÙĨØ¹ Ø·Ø§Ùģ
l in
Ùģ Ø´Ø§ÙĨ
ĠÛ±Û¹Û³Û ²
ĠÙħ ÙĪØ±ÛĮ
ĠØª ÛĮØ²
ĠÙĨÙĩ ØµØ¯
ĠÙĪØ± ÙĤ
ĠÙ¾ Ø®Øª
ĠØ¬ Ø§Ø¨Ùĩ
ĠÛĮ Ø§Ø®ØªÙĩ
Ø§Ø¦ÛĮ ÙĦÛĮ
ĠÙĪÙĨ ÛĮØ²
ĠØ§Ø³Ø§Ø· ÛĮØ±
ĠØ¨ Ø§Ùĩ
Ø® ÙĪÙĨ
ĠØ³ÙĪ Ø®ØªÙĩ
ĠÛ±Û³Û· Û°
ĠÚ¯ÛĮØ± ÙĨØ¯
5 0
ĠÙħØ¹Ø§Ø¯ÙĦ Ø§Øª
ĠÙĤØ´ ÙĦØ§ÙĤ
Ø§Ø´ÙĨ Ø§Ø³ÛĮ
ĠÙħØ± Ø³ÙĪÙħ
ĠØ¢Ø± Ø§ÙħÛĮ
Ú¯ÙģØª ÙĨØ¯
ĠÙģ ÛĮØ²ÛĮ
ĠØ§ÙĦ Ú©
Ú©ÙĦ Ùħ
ĠØ´ÙĩØ±Ø¯ Ø§Ø±
ĠÙĩØ§ÙĦÛĮ ÙĪÙĪØ¯
ĠØ¨Ùĩ Ùħ
ĠØ« Ø§ÙĨ
ĠÙĨØ§Ø´ÙĨ Ø§Ø®ØªÙĩ
Ø± Ø¦
ĠÙĤ ÙĪØ§Ø¹
ĠØ² Ùĩ
ar e
Ú© ÙĪØ´
ĠØ§Ø± Ú¯Ø§ÙĨ
ĠØ®ÙĪØ¯ÙħØ®Øª Ø§Ø±
Ùģ ÛĮØ±
ĠØ§Ø³Øª ÛĮÙĦ
ĠØ¬ÙĨ Ø§ÛĮÛĮ
ĠÙĦ ÙĪÙ¾
ÙĨ ÙĩØ§
ĠØªØ± Ø§ÙģÛĮÚ©
ĠØ¢Ø± Ø³ÙĨ
ĠØ¯Ø§ÙĪØ± Ø§ÙĨ
ĠÙģØ±Ø§Ø® ÙĪØ§ÙĨ
ĠØ¬ Ø¨Ø±Ø§ÙĨ
ĠØ¨Ø§Ø² ÙħØ§ÙĨØ¯
ĠØ§Ø¹ ØªØ¨
ĠÛ· Û°Û°
ĠØ³Ø±Ø¯ Ø¨ÛĮØ±
ĠØ§ÙĨØªØ¸ Ø§ÙħÛĮ
Ú¯ ÙĦÛĮ
Ø§Ø¯ ÛĮÙħ
ÙĦ ÙĪØ§ÙĨ
ĠÛ±Û³Û¸Û ±
ag e
ĠÚ¯Ø±Ùħ Ø³ÛĮØ±ÛĮ
Ú¯ Ø§Ø³
Ø® Ø§ÙĦ
ĠØ§ ÙĪÙħ
ĠØ¢ÙĨ Ø§
1 7
Ø§ÙĦ ÙĪÚ¯
ĠÙ¾ÙĦÛĮ ÙħØ±
ĠÙģØ¶ ÙĦ
ĠÚ¯Ø±ÛĮ Ø®Øª
ĠØ¨Ø± Ø§Ø¨Ø±ÛĮ
ĠÙĩÙħ Ø§ÛĮØ´
at h
ĠØ®ØµÙĪØµ Ø§
Ø±ÛĮ Ø²Ø¯
Ø§Ú¯ ÙĨ
ĠØ±Ø³Ø§ÙĨØ¯ ÙĨ
r y
ĠØª ÙĦÙĩ
Ø§Ùħ ÙĪ
ĠØ² ÙĩØ±Ø§
ĠØ¯Ø§Ø± Ùħ
ÙĨÙĪ Ø§Ø®Øª
er v
Ġ1 0
ĠÙħÙģÙĩ ÙĪÙħÛĮ
ĠØ³ Ø§ÙĨØ¯
ĠØ§Ø¨ÙĪØ§ÙĦ ØŃØ³ÙĨ
ĠÙ¾ ÙĪÙĨØ¯
ÙĪÛĮ ÚĺÙĨ
ĠØ¨Ø± ÙĤÛĮ
ĠÚ©Ø´ÙĪØ± ÙĩØ§ÛĮÛĮ
Ø³ÙĪ Ø²ÛĮ
ĠÚ© ÙĪØ²
ĠØªØºÛĮÛĮØ± Ø§ØªÛĮ
ĠÙĩÙĪØ± ÙħÙĪÙĨ
ĠÛµ Û³
ĠÙĥ Ùĩ
ĠÙĨÙħÙĪØ¯ ÙĨ
ĠØ³Ø¯ ÛĮÙħ
ĠÙĨØ§ÚĨ Ø§Ø±
o h
s s
ĠØ® Ø´ÙĨ
Ø¢ÙħÙĪ Ø®ØªÙĩ
ĠØ² ÙĪØ¯ÛĮ
ĠÙħÙĨ ÙĪÚĨÙĩØ±
Ø§Ú¯ ÛĮØ±
ĠØ¯Ø§ÙĪ ÙĪØ¯
ĠÙħØ±Ø§Ø¬ Ø¹
Ø±Ø¯ Ø§Ùħ
ĠØªÙģØ±ÛĮ ØŃÛĮ
ĠØ§Ø¨Øª ÙĦØ§
ĠØ·ÙĪØ§ÛĮ Ùģ
ĠØª Ø§Ø³
ĠØ± ØµØ¯
ĠØŃÙĪ Ø¶
ĠØ¨Ø§ÛĮ Ø³ØªÛĮ
ĠØ¢ÙĩÙĨÚ¯ Ø³Ø§Ø²ÛĮ
ĠØ±ÙĪØ´ÙĨ Ø§ÛĮÛĮ
ÛĮØ¯ Ø±
ĠØª ÙĪÙĨÛĮ
ĠØ§Ø´ Ø±Ùģ
u e
ĠØ¨Ø§Ø´ ÛĮÙħ
ĠÚ©Ø± Øª
Ø®ÙĪØ§Ùĩ ÙĨØ¯
ÙĨ Ø¨Ø±Ú¯
ĠØªØ£ Ø®ÛĮØ±
ĠÙħÙĨ ÙĤ
Ø§Ø· Ùĩ
ĠØ¨Ø³ Ø·
ØªÛĮ Ø§ÙĨ
i al
ØŃ Ø§ÙĤ
ĠØ² ØºØ§ÙĦ
ĠØ¨ÙĤ Ø¹Ùĩ
ĠÙħØ´Ø§ÙĪØ± Ùĩ
ĠØ¹ Ø§Ø¯ÙĦ
ĠØ§Ø³ Ú©ÛĮ
ĠØ´Ø¹ Ø§Ø¹
Ù¾ ÙĪØ±Øª
ĠÙħØ´ Ø±ÙĤ
ĠØ±ÙĪ ØŃÛĮ
Øª Ø¹
ÙĨÚ¯ Ø±ÛĮ
ÙĪÛĮ Ø¶
ĠØ¢Ø¨ÛĮ Ø§Ø±ÛĮ
ĠØ¯ Ø´ØªÛĮ
ĠÙħÛĮ Ú©ÙĨØ¯
ĠØ®Ø· Ø§
ĠØºÙĦ Ø¨Ùĩ
Ùħ ÛĮØ¯
ĠØ´ÙĩØ± Ú©ÛĮ
ĠÛ±Û±Û µ
ĠØ³ÙĦØ¬ÙĪ ÙĤÛĮØ§ÙĨ
ĠÙĨØ§ÙħØ² Ø¯ÛĮ
Ùħ Ø§Ùħ
ÙĤ ÙĪÙĩ
ĠØ¨Ø§ ÙĤØ±
ĠØµ ÙģÛĮ
Û´ Û³
ĠØ§Øµ ÛĮÙĦ
ĠÛµ Û¸
ĠÙħØ² Ø§ÛĮØ§ÛĮ
Ø· Ø§ÙĨÛĮ
ĠÙħÙĪØ³ÛĮ ÙĤ
ĠÛĮ ÙĪØ±Ø´
ĠÛ±Û² Ûµ
ĠØ§Ø³ØªØ± Ø§ØŃØª
ĠØ§Ø³Øª Ø§ÙĨÛĮ
ĠØ´Ø®Øµ ÛĮØªÛĮ
ĠØºØ° Ø§ÙĩØ§ÛĮ
ĠØ³Ø§Ú© ÙĨÛĮÙĨ
k a
ĠØº ÙĪÙĦ
ÙĨ Ø®
ĠÙĤ Ø§ØªÙĦ
ĠØ§ØŃ Ú©Ø§Ùħ
ÙħØŃ ÙĪØ±
ĠØµØ±Ùģ Ùĩ
Ø§Ùĩ ÙĨ
ĠÛ¶ Û²
ĠØªØ¨ Ø±ÛĮØ²ÛĮ
ĠØ§ØªÙģØ§ÙĤ Ø§Øª
ĠÙħ Ø²Ø¯
ĠØ¢Ø± Øª
ĠØ³Ø® ÙĨÚ¯
ĠÛ±Û¹Û² Û±
ĠØªØ¨ÙĦÛĮØº Ø§ØªÛĮ
ĠÙ¾ ÙĨØ¯
ĠØ¬ Ø§ÙĨÛĮ
ĠØ¢ÙĦ Ø§Ø³Ú©Ø§
ĠØ®ÛĮ Ø§ÙĨØª
ĠØ³Ø® ÙĨØ§ÙĨ
ĠÛ¸Û ¸
ĠØªÛĮÙĦ ÙĪØ±
ĠØ´ ÙĪÚ©
Ù¾ ÙĪ
Øº Ø¯
Ø§ÙĪ Ø§Øª
Ú¯Ø±ÙģØª ÙĨØ¯
ĠØ¢ Ø±Ø¯
Ø§Ø² Ø¯
Ú¯Ø° Ø´ØªÙĩ
ĠÙĤØ¯ Ø³
ĠØ¨ Ø§Ø·
ÙĪÛĮ Ú¯
ĠØªØ£Ø«ÛĮØ± Ø§Øª
ĠØ¯Ø± Ø³ÛĮ
ÙĨØ¸ Ø§Ùħ
w eb
ĠÙħÛĮ ØªÙĪØ§ÙĨ
Ø¬ Ú©
ĠÚ©Ø± Ø§Ø³
ĠØ¹Ùħ Ø±Ø§ÙĨ
ĠÚ¯ Ø³
t a
Ø¯ ÙĦÛĮÙĦ
Ġ e
ĠØ¹ ÛĮØ¯
Ø§Ú© Ø¨Ø±
ĠÙĨ Ø¯Ø±
ĠÙĨÙģ Ø±ÛĮ
ĠØ³ÙĨØ¬ Ø´
Øº Ø±Ø¨
ĠØ±Ø² Ùħ
ĠØ± ÙħØ§ÙĨÛĮ
ĠØ²Ùħ Ø³ØªØ§ÙĨÛĮ
ĠÛ±Û³Û· Û¶
Û±Û³Û µ
ĠØ¢Ø¯ Ø§Ø¨
) ,
ĠØ³ ÙĩØ±
ĠØ§Ùħ ÛĮ
Ø±Ø² Ø§Ø¯Ùĩ
ĠÚ¯Ø§Ùĩ Ø´ÙħØ§Ø±ÛĮ
ĠÙ¾Ùĩ ÙĨØ§ÛĮ
Ø« Ùĩ
Ú¯Ø´ Ø§ÛĮÛĮ
ÙĦØ³ ÙĪÙĨ
Ø¯ ÙĨØ¯Ùĩ
Ú© Ø§Øª
ØªØ± ÙĨ
ĠØ± Ø¨ÛĮ
ĠØªÙĪØ± Ø¨ÛĮÙĨ
ĠÚ¯Ø±Ùħ Ø§ÛĮÛĮ
ĠØ±Ø§Ø¬ Ø¹
Ø± ÙĩØ§ÛĮ
ĠÙĨ ÙģÛĮ
ĠÚ¯ÙĦ Ø¯ÙĨ
Ġ1 2
Ø¨ ÛĮØ§
ÙħÙĨ Ø¸
ĠØ±ÙĪØ¯ Ø¨Ø§Ø±
ĠØ±ÙĪØŃØ§ÙĨÛĮ ÙĪÙĨ
ĠØ§Ø±ØªÙĤ Ø§Ø¡
ĠÙħØ¬ ÙĦ
ĠÙħÙħÙĨ ÙĪ
ĠØºÛĮØ± ÙĨØ¸Ø§ÙħÛĮ
ĠÛ±Û³Û· Ûµ
ĠØ¯Ø± Ø®ØªÛĮ
ĠØ¬ Ø§Ø¯ÙĪ
ĠÙĦ ÙĨØ²
ĠÙģØ± Ø§ÙĪØ±Ø¯Ùĩ
ĠØ·Ø¨ÙĤ Ø§Øª
Ø¨Ø§Ø² ÛĮÚ©ÙĨ
Ø³ÛĮ Ø§Ùĩ
ĠØ¹ÙĤ Ø§Ø¨
ĠØ§Ø¹ ØµØ§Ø¨
Ú©ÙĦ ÙĨ
ĠÙħØ· Ø¨ÙĪØ¹
ĠØ³ÛĮÙħ Ø§ÛĮ
ÙĪØ± Ùħ
ÙĦ Ú©
Ø¯Ùĩ ÛĮÙħ
ĠÛ±Û¹Û±Û ´
[ [
ĠØ¨Ø± Ú¯Ø±Ø¯Ø§ÙĨ
Ø³ÛĮ Ø³ÛĮ
ĠÙħØ±Øª ÙģØ¹
ĠØ¹Ø´ Ø§ÛĮØ±
ĠØ¯ÙĪ Ú¯Ø§ÙĨÙĩ
ĠØªØ£Ø³ÛĮØ³ Ø§Øª
ĠØ®ÙĪØ± Ø§Ú©
ĠÙħÙĪØ³ Ø³Ø§Øª
ĠÙĩ ÙĪØ§ÙĨ
ĠÚĺ Ø§Ú©
ĠØ§Ø³Ù¾ Ø±Ø§ÙĨ
ÙħØŃ Ø§ÙĦ
Ùħ ÙĪÙĨÛĮ
p ort
ĠÙģØ± Ø´ØªÙĩ
ĠØ±Ø³ Ø§ÙĨÛĮ
ÙģØ¹ Ø§ÙĦ
ĠÙĨØ¨Ø± Ø§Ø³Ú©Ø§
Ø§Ø± Ø¨
ĠÙħÛĮ Ø¯
ĠØ® Ø§ÙĪØ±ÛĮ
ĠÙĩÙħ Ø¨
ĠÛ±Û¹Û±Û µ
ĠÙħ Ø§Ø³Øª
ĠØªØµ ØŃÛĮØŃ
ĠØªØµ ÙĨÛĮÙģ
ĠØ¨ÛĮØ§ÙĨ Ú¯Ø±
ÙĪØ´ ÙĨ
ĠØ¬Ø¹ ÙģØ±ÛĮ
ĠÙĦ ÙĪØ³
ĠØ§Ø³ Ú©ÙĦ
ĠØ§Ø± Ø¨Ø§Ø¨
Û´ Û¹
ĠØ¹ÙĦ Ø§ÙħÙĩ
Û¶ Û²
ĠÚ©ÙĦ Ø³ÛĮÙħ
ĠØ³ÙĨ Ø§
ĠØªØ§ÙĦ Ø§Ø¨
ĠØ¹Ø±ÙĪ Ø³
ĠÙģ ÙĪÚ©
ĠÙħÙĨØŃ Øµ
Ø¹ Ø§Ùħ
ĠØ¢ÙĨ Ø§ÙĦÛĮØ²
ĠÙħÙĩ Ø¯
ÙĤØ± Ø§Ø¶
ĠØ®ÙĨ Ø«ÛĮ
2 01
ÛĮ Ø¹
ĠÚ¯Ø°Ø§Ø´Øª ÙĨ
Ø¨ÙĪ ØªØ±
Ù¾ Ø§ÛĮÛĮ
ĠÙĦ Ø§ÙħÙ¾
ĠÚ©ÙĪ ÛĮØ±
ĠT h
ĠØ¹Ú© Ø§Ø³
ĠØ§Ú©ØªØ´ Ø§Ùģ
ĠÛ±Û¹Û³Û ±
ĠÙħÙĪØ¶ Ø¹
Ø³Øª ÙħÛĮ
ĠÚ©Ø´ ÛĮ
ĠØ±ØŃ ÛĮÙħ
m ent
ĠØ§ÛĮ ÙĦÛĮ
Ø²ÛĮ Ø±ÛĮ
ĠÙĦÛĮ ÙĨØ¯
ĠÚ¯ÙĪÛĮ Ø§
ĠÚ¯Ø± Ø§ÛĮÛĮ
ÙħÛĮÙĨ Ùĩ
ĠØ§ØªÙģØ§ÙĤ ÛĮ
ĠÙħØ´Ø§Ø¨Ùĩ ÛĮ
Ø³Ùģ Ø§ÙĨÙĩ
ĠÙĩ Ø§Ù¾
ĠØªØµØ§Ø¯ Ùģ
ĠØ³ ÛĮØª
ÙĨØ¯Ùĩ Ø§
on e
ĠØ¯Ø± ÙĪØ³
ĠÙħØ¹ Ø§ÙĩØ¯Ùĩ
ĠØ±ÙģØª Ø§Ø±ÛĮ
ĠÙ¾ÙĦ Øª
ĠØ² Ø§Ø±
ĠØµ Ø±
Ã ¼
ĠÛĮ ÙĪØ±
ĠØ³ÙĪ Ø§Ø¯
ĠØ¯Ú¯Ø± Ú¯ÙĪÙĨÛĮ
ĠÙĪÙĨØ² ÙĪØ¦ÙĦØ§
Øµ Ø¯ÛĮ
ĠØ®ÛĮ Ø±ÛĮÙĩ
ĠÙģØ±Ø§Ùħ ÙĪØ´
ĠØ¢Ú©Ø³ ÙģÙĪØ±Ø¯
ĠØ§ÙĤØªØ¨ Ø§Ø³
ĠÙĩ Ø§Øª
ÚĨ ÙĨÚ¯
ĠÚ¯ÙģØª Ø§Ø±
ĠØ®Ø± Ø¯Ùĩ
ĠÛ¹Û ³
ÛĮØ²ÛĮ Ø§ÙĨØ§
ĠÙĪÛĮÙĦ Ø³ÙĪÙĨ
ĠÙħØ¸ ÙģØ±
ĠØ§Ø³ Ø§Ø±Øª
ÙĪØ¦ ÛĮÙĩ
ĠÛĮØ§Ø¯ Ø¯Ø§Ø´Øª
ĠÙħØ³Ø§Ùģ Ø±Ø§ÙĨ
ĠÙĨÙĤ ÙĦÛĮÙĩ
ĠØ¢ÙĦ ÙģØ±Ø¯
or e
ĠØ±ÙģØª Ø§Ø±ÙĩØ§ÛĮ
ĠÛ±Û¹Û² Û¸
ĠÙħØ² ÛĮØª
ĠØ¯Ø§Ø¹ Ø´
ÙĪÙĨ ÙĪ
ĠÙħÙĨ Ø§Ø²
ĠÚ©ÙĨ Ùħ
ĠÙ¾ÙĦ Ø§Ø³ØªÛĮÚ©
Ûµ Û°Û°
Û· Û²
Û³Û ¹Û
ĠÙĪØ§Úĺ Ú¯Ø§ÙĨ
ÙĨ ÙĩØ§ÛĮØª
ĠØ¢ÛĮ Ø§Øª
ĠÛĮÚ© Ø¨Ø§Ø±
ĠÙĨØ³ Ø¨
ĠØªØ±Ú© ÙħÙĨ
ĠØ±Ø§Ø¨ ÛĮÙĨ
ØªÙĪØ§ÙĨØ³Øª ÙĨØ¯
ĠØ´ Ø§ÙĨÙĩ
ĠÙĦØ´Ú© Ø±Ú©Ø´ÛĮ
ĠÙĪØ§Ù¾ Ø³ÛĮÙĨ
n a
ĠÙ¾ ÙĪÛĮØ§
ĠÙħÙĨ Ùĩ
ĠÙħÙĤ ÛĮÙħ
Ù¾Ø± Ø³Øª
Ø¢Ùħ Ø¯Ùĩ
i er
ĠÛ¹Û ¸
ĠÛ±Û³Û· Û¹
ĠØ¬Ø³ ÙħÛĮ
ĠØªÙĩØ§Ø¬ Ùħ
ĠÛĮ Ø§Ùħ
in d
ĠØ®Ø¨Ø± ÙĨÚ¯Ø§Ø±
ĠÙģØ¶ Ø§Ù¾ÛĮÙħ
ĠÙħØ¯ Ø§Ø®
ĠØ§ÙĪÙĦ ÙĪÛĮØª
ĠÙĨØ¯ Ø§Ø¯
ĠÙĨØ§Ø¯Ø± Ø³Øª
ĠØº Ùħ
ĠØ³ÙĦ Ø§ÙħØªÛĮ
Ø´ÙĨØ§Ø³ ÙĨØ¯
ĠØµÙĦÛĮ Ø¨
ĠØ´Ø¯ ÛĮØ¯ÛĮ
ĠØŃÛĮ Ø§ØªÛĮ
ĠØ§Ø¨ÙĪØ§ÙĦ ÙĤØ§Ø³Ùħ
ĠØ± Ø¨Ø§Øª
ĠÙģØ± Ø§Ø±ÛĮ
ĠÙħ Ø§ÙĪØ±
ĠÙĪ Ø§Ø¶
ĠØ´ Ø§Ø¯ÛĮ
ĠØ·Ø§ÙĦ Ø¨Ø§ÙĨ
ĠÚ© ÙĨÙĪØ§ÙĨ
ĠØ±Ø§ÙĨ ÙĨØ¯Ú¯ÛĮ
ĠØ¨Ø§ÙĨ ÙĪØ§ÙĨ
ĠØ¹Ø±ÙĪ Ø³ÛĮ
ĠT r
Û· Û¸
ĠØ° ÛĮ
ĠÙĦ Ø±ÛĮ
ĠØ´Ùħ Ø±Ø¯Ùĩ
ĠØ³Ø§ÙĦÛĮ Ø§ÙĨÙĩ
ĠØ´ÙĨ Ø§
ĠÚ¯ÙģØª ÙĨØ¯
ĠØ¨ØŃ Ø±Ø§ÙĨÛĮ
ĠØ¢Ø²ÙħØ§ÛĮØ´ ÛĮ
ĠÙĩØ§Ø± ÙĪØ§Ø±Ø¯
ĠØ§Ø±Ø²Ø´Ùħ ÙĨØ¯
ĠØ§Ø¹ØªØµ Ø§Ø¨
Ú¯ ÙĪØ¯
Ø§ÙĨØ¯ Ø§Ø±
ĠÙĤØ±Ø¨ Ø§ÙĨÛĮØ§ÙĨ
Ä ģ
Ú¯ Ø§Ø±Øª
ĠÙĤ ÙĪÚĨ
ĠÚĨÙĩØ§Ø± ÙħØŃØ§ÙĦ
ĠÙĨØ§Ú¯ ÙĩØ§ÙĨ
ĠÙĩÙģ Ø¯ÙĩÙħ
Ø³ ÙĪØ²
ĠÙĩ Ø§Ø±Øª
ĠØ¢ÙĨ Ú¯
ĠØ¹ÙĦ Ùģ
ĠÚ©ÙĪ ÛĮÙĨ
ĠÙ¾Ø±Ø¯ ÛĮØ³
Û±Û¹Û ²
ĠÚ¯ÙĪ Ø§Ùĩ
ĠÙĨÙĪØ± Ø«
ĠØ®ÙĪØ§Ø± Ø²Ùħ
ĠØ¨Ø§Ø±Ø¯ Ø§Ø±ÛĮ
ĠÚ© ÛĮØ±
ĠÙģ Ø®Ø±
Ø³Ùģ ÛĮØ¯
ĠÙħ ÙĪØ±ÛĮØ³
ĠÙĤ Ø±ÛĮØ¨
ĠÙģÙĦ Ø§Øª
ĠØ¹Ø±Ùģ Ø§ÙĨ
ĠØªÙĤØ§Ø¶ Ø§
ĠÙĨÚĺ Ø§Ø¯ÛĮ
Ġ i
ĠÙ¾ÛĮØ´ Ùĩ
ØªÙĪ Ø§ÙĨÛĮ
ĠØµÙĪÙħ Ø¹Ùĩ
ĠØ±ÙĪØ§ÙĨ Ø´ÙĨØ§Ø³ÛĮ
ÙĪØª Ø³
ĠØº Ø²
ĠÙħÙĨØªØ® Ø¨
ÙĤ Ø§ÙĨÛĮ
ĠØ§Ø² Ø¬ÙħÙĦÙĩ
ĠÙħØ¬ Ø±ÙĪØŃ
ĠÙģ ÛĮØ´
ÚĨ ÙĨØ§ÙĨ
ĠØ§ÙĨØ¯ ÛĮØ´
l d
Ú© Ø§Ø³
ĠØ¨Ø± ØªØ±ÛĮÙĨ
Û¶ Û±
ĠÚ©ÙĨÙĪØ§ÙĨ Ø³ÛĮÙĪÙĨ
Ø± Ø§ÙĦ
ĠØª Ø¨Ø±
ion al
Ø© Ø§ÙĦ
Ø²Ø§Ø¯ Ú¯Ø§ÙĨ
ĠØ´ Ø±ÛĮÚ©
Ø§Ø±ÛĮ Ø§
ĠØªÙĪ ÙĤÛĮ
ĠØ§Ø³Ø± Ø§Ø¦ÛĮÙĦÛĮ
ĠÙ¾Ø§Ø´ Ø§
ĠÙħØªÙģÙĤ ÛĮÙĨ
ĠØ¨ Ø·
ĠØ¬ ÙĪÙĨÛĮ
ĠØŃ Ø§ÙħÛĮØ§ÙĨ
ÙĦÛĮ ÙĤ
ĠØŃÚ© Ø§ÛĮØª
Û¸Û ±Û
ĠÙħØ¨Ø¯ Ø£
ĠÙĨ ÙĪØ±Ø¯
ÙĪÙĨØ¯ Ø§
ĠÛ±Û¹Û² Û´
ĠØ± Ø§ÛĮØª
ÙģØ± ÙĩÙĨÚ¯
ĠØ§ÙĦ Ø³
ĠØªØ¹ Ø¨ÛĮØ±
ĠÙħØ³ÛĮØ± ÙĩØ§ÛĮ
ÛĮÙĨ Ø³
Ú© Ø¯Ø§Ùħ
ĠØ¹ Ø§ÛĮÙĤ
ĠÙģØ±Ø§ÙĨ Ø³ÛĮØ³
am p
ĠØ¨Ø§Ø±Ø³ÙĦ ÙĪÙĨØ§
ĠÙħØ´Ø±ÙĪ Ø·
ĠØ´ Ø§ÙĨØ³
ĠØŃ Ø§Ú©ÛĮ
Ø§ÙĦÛĮ Ø§ÛĮ
} ,
ĠÙĦ ÙĨÛĮÙĨ
ĠØ³Ø± ÙĩÙĨÚ¯
ĠØ¯Ø§Ø± Ø§ÙĦ
ÛĮØ³ ÙĪÙĨ
ĠÚ©Ùħ Ø¨Ø±ÛĮØ¬
ĠÚ©Ùģ Ø´
ï »
ĠÙħØ³ÛĮ Ø±ÛĮ
ĠÚ© Ø±ÙĪØ²
ĠÙĪØ§ÙĦ ØªØ±
ĠØ§ÙĦÙħ Ø§Ø³
ĠÙĦÙĪØ¦ ÛĮØ²ÛĮØ§ÙĨØ§
____ ____
ĠØ´ Ø§ÙĦ
ĠØº Ø²ÙĦ
ĠØ§Ø³ØªÙĪØ¯ÛĮ ÙĪÛĮÛĮ
ĠÚ©Ø§Ø±Ø§Ú© ØªØ±
ĠÙ¾ Ø§ÙĨØ²Ø¯ÙĩÙħ
Ø±ÙĪ Øª
ĠÙĨÙĪ Ø§Ø®ØªÙĨ
ĠØ¨ÙĦ ÙĪØ§Ø±
Õ¡ Õ
ĠÙĩÙħØ§ÛĮ ÙĪÙĨ
ĠÚ©Ø§Ø± Ú¯Ø±ÛĮ
ĠÙħØ± ÙħØª
ĠÛ±Û³Û· Û¸
ĠØŃ Ø§Ø¦
ĠØ· ÙĪÙģØ§ÙĨ
Ø¢ Øº
Ø¯ Ø§Ø³ØªØ§ÙĨ
ĠÙĪ Ø·ÙĨ
ĠØ³ Ø§Ø¨
ĠØ¨Ø± Ø¢ÙĪØ±Ø¯Ùĩ
Ø§Ø±ÛĮ Ø¯
ĠÙ¾Ø± Ø´
ØªÙĪ ÙĦÛĮØ¯
ĠÙĤÙĪØ§Ø¹ Ø¯
ĠÙħÛĮ Ú©Ø±
ÛĮØ¯ ÙĨÛĮ
Ġ for
ĠÙ¾ ÛĮÙĦ
ĠÙħØ¬ ÙĦØ§Øª
ĠÙĨØ´Ø§ÙĨ Ú¯Ø±
ÙħØ± Ø§ÙĨÛĮ
ĠÙĦÛĮÙĨ ÙĪÚ©Ø³
ĠÙħØ³Ø§ÙģØ± Ø¨Ø±ÛĮ
ĠØ¨Ùħ Ø¨Ø§Ø±Ø§ÙĨ
ĠÙĨÛĮÙĪØ² ÛĮÙĦÙĨØ¯
Ø§ÙĨÛĮ Øª
ĠØ³ÙĨØ¯ Ø±Ùħ
ĠÙĦØ§ÛĮ ØŃÙĩ
ĠØªØ§Ø² Ú¯ÛĮ
ĠÙħÛĮ ÙĦÙĩ
ĠØ±ÛĮ Ø®Øª
ĠØ§Ø¹ÙĦØ§Ùħ ÛĮÙĩ
ĠØ¨Ø§Ø¯ Ø§Ùħ
Ø§ÙĨ Ø³ÛĮ
Ûµ Û±
Û· Û±
ÙĦÛĮ ÙħÛĮ
ĠÚ©Ø±Ø¯ Ùħ
ĠØ§Øµ Ø±Ø§Ø±
Ú¯ÛĮØ± ÙĨØ¯Ùĩ
ĠØªØ±ÙĪØ±ÛĮ Ø³Ùħ
Û¶ Û¸
ÛĮ Ø§Ø¨ÙĨØ¯
ĠÙĪ Ø±Ø¯
ĠÙģ Ø§Ú©Ø³
ĠÚ¯Ø±Ø§Ùģ ÛĮÚ©ÛĮ
ĠÚ© Ø¨Ø¯
Û· Û¹
oc k
ĠÙĦ ÙĪØ³ÛĮ
ĠÙ¾ Ø´ØªÙĩ
Ø§Ú© Ø±
ĠØ§Ø³ØªÛĮ ÙĪ
Ø¢ÙĦØ¨ ÙĪÙħ
ÙĪ Ø¨Ùĩ
ĠØ¨ÙĨÛĮØ§ÙĨ Ú¯Ø°Ø§Ø±
ĠØ´Ø¬ Ø§Ø¹
Ø®ÛĮ ÙĦÛĮ
ĠØ¬ØºØ±Ø§ÙģÛĮ Ø§ÛĮ
ĠØ¢ Ø¦ÛĮÙĨ
ĠØ¨ÙĪØ¯ Ø§ÛĮÛĮ
ĠÙĦ Ùħ
Ø§Ú© Ø³ÛĮØ¯
Ø§ ÙĬ
ĠÙĤ Ø§Ø¦ÙĦ
ÙħØª Ø±ÛĮ
ĠØ§ØŃ Ø§Ø·Ùĩ
ĠU n
Ø¯ ÙĪØ³Øª
ĠÙĪ ÙĨØ¯
ĠÚĨ ÙĨ
ĠD NA
Ø¢ÙĩÙĨÚ¯ ÛĮ
ĠØ³ Ø²Ø§Ø±
Ø²Ø¨ ÙĪØ±Ú¯
ÙĪÚ¯ ÙĪØ¦Ùĩ
ĠÙħØ¯ÛĮ Ø±ÛĮ
Ġ y
Ùģ Ø±ÙĪØ´
ÙħÙĪ Ø³ÛĮ
ĠØŃÙĦ Ø§ÙĦ
ĠÚ¯ ÛĮÙħ
ĠØ¨Ø§ Ú©
ĠØ§ÙĪ Ø³
ĠÚ©ÙĦ Ø§Ø±Ú©
ĠØ®ÙĪØ±Ø¯ Ú¯ÛĮ
ĠÙĤØ¨Ø± Ø³
ĠØº Ø±ÙĤ
Ûµ Û³
ĠØªÙĨ ÙģØ³ÛĮ
Ù¾ ÙĨØ¯
Ġ13 9
ĠØ¨ Ú¯Ø°Ø§Ø±Ø¯
ĠØ§Ø¬ Ø§Ø±Ùĩ
Ø² Ø¨ÛĮ
ĠØ¨Ø§Ø² ÙħØ§ÙĨØ¯Ùĩ
Û· Û³
ĠÛ±Û³Ûµ Û¹
ÙħØ« ÙĦ
A S
ĠØ¢ ØªÙĦ
ĠÙĩ ÙĪÙĨ
Ø§ÙĤ Ø¨
ĠÚĨÙĩØ§Ø± Ø¯ÙĩÙħ
ÙĪÙģ Ø§
ĠÙĤØ¶Ø§ ÙĪØª
ĠÙ¾ Ø¯Ø±ÛĮ
ÙĪÙħ Ú©
ÙģØª Ú¯ÛĮ
ĠØ³ÙĦØ¬ÙĪ ÙĤÛĮ
Ø¨ Ø²Ø±Ú¯
ĠØ± Ø§ØŃØª
ĠØ¨Ø± Ø¢ÙħØ¯
ĠÙĨØ§Ùħ Ø¯Ø§Ø±
Ã ¡
ĠÙĨ Ú©ÙĨØ¯
ĠÚ©Ùħ Ú©ÛĮ
ĠÙĦÙĪ ØŃ
ĠÚ©Ø±ÛĮØ³Øª ÛĮÙĨ
ĠÛĮ Ú¯Ø§ÙĨ
ĠÙħØ· Ùħ
ĠØ§Ø³ØªØ±Ø§Øª ÚĺÛĮÚ©
ĠÚ© Ø§Ø´Øª
ĠÙĤ ÙĪØ±
ĠÛĮØ¹ÙĤ ÙĪØ¨
ĠØ§ Ù¾Ø±
ĠA n
Ø¯ Ø§Ø¯Ùĩ
ĠØ¯ ÙĦÛĮ
âĢ İ
Ø¢ Ø¨ÛĮ
ĠØ¨ÛĮØ´ ÛĮÙĨÙĩ
ÛĮØ¯Ùĩ Ø§
ĠG r
ĠÙĩ Ø§ÛĮÙĨ
Û°Û ³Û
ĠÙ¾ÙĨ Ø¨Ùĩ
ĠÚ¯ ÙĦÙĩ
ĠØ´ÙĨ Ø§Ø³ÛĮ
ĠØ§ÙĤ Øª
ĠÚ¯ ÛĮÙĨÙĩ
ĠØ³Ø± Ø³
ĠØ±ÙĪØ³Øª Ø§ÙĩØ§
ĠØ³ÙĪ Ú¯
ĠØ§ÙģØ³ Ø±Ø¯Ú¯ÛĮ
Ú© Ø±ÛĮÙħ
ĠØ¨Ùĩ Ø§ÙĨÙĩ
Ø§ÛĮØ´ Ø§ÙĨ
A C
Ø¨ ÙĨÛĮ
ĠØ´Ùĩ Ø§Ø¨
ĠÚĨÙĩØ§Ø± Ø¯Ùĩ
ĠØ¨Ø§Ø¨ Ú©
ac t
ĠØ¨Ø±Ú©ÙĨ Ø§Ø±
Ùĩ ÙħÙĩ
ÙĨØ¯ Ø¬
ĠÚ©ÙĦ Ùħ
ĠØ´Ú© ÙĪÙĩ
ĠØ¢ÙĦØ¨ ÙĪÙħÛĮ
ÙĨÙĪÛĮØ³ Ø§ÙĨ
ĠÛ±Û¹Û±Û ²
Ø¹ Ø§ÙĨ
ĠÙĦ Ø§ÙĩÛĮ
ĠØªØ¨ Ø¹ÛĮ
Ø¬Ø§ÛĮ Ø²Ùĩ
a f
ÙĦ ÙĪØ±
ĠØ± Ø§Ø²ÛĮ
Ø¨Ø± Ø§
ĠØ± ÛĮÙĨ
ĠØº Ø±
ĠØ®ÙĪØ§Ùĩ ÛĮÙħ
Ù¾Ø¯ ÛĮØ§
. )
Ø¨Ø± ÙĨ
ĠØ§Ø±ØªÙĤ Ø§
ĠØ¯ÙĪ Ø´ÙĨØ¨Ùĩ
Ûµ Û²
ĠÙĪØ² ÙĨÙĩ
ĠØ³Ø± Ø§Ø¨
ĠØ¢Ø± Ø§ÛĮØ´
ÙĦ Ø§Ø·
Ø¬ ÙĨØ¯
ÙĪØª ÙĪÙ¾
Ø±Ùģ Ùĩ
ĠØŃØ¯ ÙĪØ¯ÛĮ
Ø¦ ÙĪÙĦ
ĠØ¨Ø§Ø´ ÛĮØ¯
ĠØ§ÛĮØ± Ø¬
ĠÙħØº Ø±Ø¨
ĠØ²ÙĨ Ø¨ÙĪØ±
Ø± Ø§Ø¯
ÛĮÙĦ ÙĪ
ĠØ±Ùģ Ø§Ùĩ
ĠÙĦ ÙĪÛĮÛĮ
ĠØ· Ø¨Ø±ÛĮ
ĠÂ ·
ĠÚ¯ ÙĪØª
ĠØ§ÙĪ Ú©
ĠÚ¯Ø± ÙħØ§ÛĮ
ĠP ar
ĠØªÙĤØ¯ ÛĮÙħ
ĠØ§ÛĮ Ùħ
ĠØ§ÛĮ ÙĨØ¯
ĠØ¨Ø± ÙĪØ³
ĠØªÙĪ Øª
ĠØ³Ø± Ú¯Ø±ÙħÛĮ
ĠØ¢ÙĨØªÙĪÙĨÛĮ ÙĪ
a u
o od
ĠØ¨Ùĩ ØªØ±ÛĮ
ĠØ¯ÛĮ ÙĪÛĮØ³
ĠØ¨Ø±Ø®ÙĪØ±Ø¯ ÛĮ
ĠØ´ÙĨÛĮ Ø¯Ùĩ
Ø³ ÙĨØ¬
ĠØªÙħ ÛĮØ²
ĠØ±Ø¶ Ø§Ø´Ø§Ùĩ
Ø§Ùħ ÛĮÚ©ÛĮ
ĠØ§ Ú¯
Ø« Ø±ÛĮ
Û¶ Û³
ĠÙĨØ´ Ø³ØªÙĩ
ĠØªØ® ØªÙĩ
ĠÙħØ®Ø§Ø¨Ø± Ø§Øª
ĠÙģ Ùĩ
ĠØ® ÙħÛĮØ±
ĠÙħÙĨ Ø¬
ĠÙĦ Ø§Ø±ÛĮ
ĠØ¸ Ø±ÛĮÙģ
ĠØ´Ø± Ø§Ø¨
ĠØ³ÛĮÙĦ ÛĮÚ©
ĠØ¨ Ø§Ø¨Øª
Ø³ÛĮ ÙĪ
ĠØ§ÙĨØ¬ ÛĮÙĦ
Ø¯ ÙĪÙħ
ĠÙĪ ÙĪ
ĠÙģØ±Ø¯ Ø±ÛĮÚ©
ĠØ¬Ø§Ø³ ÙĪØ³ÛĮ
ĠØ³ Ø¬
ĠÛ±Û±Û ²
Ø® Ø§Ø·Ø±
ĠÙĩÙħ Ø³Ø§ÛĮ
Ø§Ø¬ Ø¹Ùĩ
Ûµ Û¸
Ú¯Ø° Ø§Ø´Øª
la t
ĠØ±ÙħØ² ÙĨÚ¯Ø§Ø±ÛĮ
ĠØ¨ Ú©Ø±
Ø® Ùħ
ĠØ§ÙĦ Ú¯ÙĪ
ĠÙħÙĦ ØŃÙĤ
ĠØ¨Ùĩ Ø§Ø¯Ø§Ø±
ĠÚĨØ´Ùħ Ú¯ÛĮØ±ÛĮ
ĠÙĪ Ø¶ÙĪ
ĠÙĩ Ø§Ø¯
ĠÙħØº ÙĦÙĪØ¨
ĠØ§Ø³ØªØ¹Ùħ Ø§Ø±
ĠÛ±Û³Ûµ Û¶
ĠØ¬Ø¯ Ø§Ø³Ø§Ø²ÛĮ
ĠÙħØ§Ø±Ø´ Ø§ÙĦ
om p
ĠÙĨØ¹ ÙħØª
y s
ĠÛ¹Û ±Û
ĠÛ±Û¹Û² Ûµ
ĠÙħØ§ÙĨØ¯ Ú¯Ø§Ø±
ĠÙĨ Ø§Ø¯ÛĮ
Ø±ÛĮ ÙĦ
ĠÙ¾ÙĦ Ø§Ú©
ĠÙħØªØ£ Ø³ÙģØ§ÙĨÙĩ
ĠØ¨ Ø§Ø¨ÛĮ
ĠØ³ÛĮ Ùģ
ĠØ¬ÙĨ Ø¬
ĠÙ¾ÛĮØ± Ø§ÙĩÙĨ
ĠØ§ÙĦÚ©ØªØ±ÙĪÙħ ØºÙĨ
ĠØ¢ÙĨ ØªÙĨ
ĠÙħØ±Ø¨ÙĪØ· Ùĩ
ĠØ¨ Ø²ÙĨØ¯
ĠÚĨ Øº
ĠÙ¾Ø³ Ø±ÛĮ
ĠÙĩØ± Ùħ
ĠØ¨ÛĮ Ú¯Ø§ÙĨÙĩ
ĠÚĺØ±Ùģ Ø§ÛĮ
Ø§ ÙĪÙĦÛĮÙĨ
ĠØ¢ ÙĨØ¯Ø±
ĠØ² Ø§Ø¦
ĠÙĦ Ø±Ø¯
ĠÙĩØ³Øª Ùħ
Øª Ø§Ø±
ĠÙĤ ÙĪØ³
Ú¯Ø° Ø±
Ø´Ø¯ ÛĮØ¯
ĠÙĪØŃ Ø´
Ùħ ØŃÛĮ
Ø¨ÙĪØ¯ ÙĨØ¯
Øª Ø§Ùħ
Ø¨Ø¹ Ø¯ÛĮ
ĠÙĦÙģ Ø¸
ĠØªÙĪ Ùĩ
Û°Û ¹Û
ĠÛĮ ÛĮ
ĠØªØµ ÙģÛĮÙĩ
ĠØ¢ØªØ´ ÙģØ´Ø§ÙĨ
ĠØªÙĨ Ú©
ĠØ¢Ø± ÙħØ§ÙĨ
ĠÛ±Û±Û ´
ĠÙħØŃØ§Ø³Ø¨ Ø§ØªÛĮ
ĠØª ÙģØ±
ĠÙħØ³ Ø§ÙģØª
Ø±ÙĪ Ú©
Ø¨ÛĮ Ø±ÛĮ
ĠØ¨Ø´ Ø±ÛĮ
ĠØ¢ÙĨØ§Øª ÙĪÙĦÛĮ
ĠØ³ Ø§Ø±Ø§
Ø§Ùĩ Ùĩ
ĠØ¢Ø° Ø±ÛĮ
ĠÛĮØ² Ø¯ÛĮ
ĠØ¨ ÛĮØªÛĮ
ĠÙħØ±ØŃ ÙĪÙħ
ĠÙĨØŃ ÙĪ
ĠØ§ÙĦØªÙĩ Ø§Ø¨
2 00
ĠØªØ´Ú©ÛĮÙĦ Ø§Øª
ĠØ³ÙĨÚ¯ Ø§Ù¾ÙĪØ±
Û±Û¹Û ³Û
c he
ĠØ¬ ÙĪØ²
ĠÙħØ´Øª ÙħÙĦ
ĠÙģØ¶ Ø§ÙĨÙĪØ±Ø¯
ĠØ³ÙħÙģ ÙĪÙĨÛĮ
Ùģ Ùģ
ĠØ§Ø³ Ø§Øª
ĠØ§Ø± ÙĪÚ¯ÙĪØ¦Ùĩ
ĠÚ¯Ø´Øª Ø§ÙĪØ±
Ø§Ø¦ÛĮ Ø§ÙĨ
ĠÛ±Û¹Û² Û·
ĠÚ¯Ø±Ø¯Ø´ Ú¯Ø±Ø§ÙĨ
ĠÙħØ³ Ùħ
ĠØŃÚ© ÙħØ±Ø§ÙĨÛĮ
Ø®ÙĪØ§ÙĨ ÙĨØ¯
ĠØªØŃÙĪÙĦ Ø§Øª
Ùħ ÛĮÙħÛĮ
ĠØ§ÙĨ ÙĤØ±Ø§Ø¶
ĠÙħØ¹ Ø¯Ùĩ
ĠÙĨÛĮ Ø¬
le y
ĠÚ¯Ø²Ø§Ø± Ø´ÛĮ
ĠÙħÙĨØŃ ÙĦ
Ø³ ÙĦØ§ÙĪÛĮ
ĠØ¨Ø± Ù¾Ø§ÛĮÙĩ
Ø§Ú© Ø§ÙĨ
Ø¨ÛĮ Ú¯
ĠÚ¯Ø±Ø¯ ÙĪ
ĠÛ±Û¹Û² Û²
Ùĩ ÛĮØ¯
ĠØ±ÛĮ ÙĪØ±
Ú© ÙħÛĮ
Ø¨ ÙĪØ¬
ĠÙħÛĮØ´ ÙĦ
ĠØ³ ÙĪØ³
ĠØ³Ø± ÙĤØª
ĠÛ±Û±Û ·
ÙĦ ÙĪØ¯
ĠØ§Ø¬ Ø³Ø§Ùħ
ĠÛ¶ Û¸
ĠÚ¯ Ø±ÛĮØ²
ĠÙ¾Ø§Ø¦ ÛĮÙĨ
Ø³ Ø§Ø±ÛĮ
ĠØ¢Ø± Ø§ÛĮ
ĠØ¨Ø§ÙĨ Ú©ÛĮ
ĠØ±ÙĪÙħÛĮ Ø§ÙĨ
ĠØªØŃÙĤ ÙĤ
ÙĪØ± ÙĩØ§
ĠØ² Ø§Ùħ
Ġ1 8
ĠØ¨Øµ Ø±ÛĮ
ÙģØ±ÙĪ Ø´ÛĮ
Ø¹Ø² ÛĮØ²
Ùħ Ø§ÛĮÙĩ
ØªÛĮ Ù¾
ĠØ¨ÛĮ Ø§ÛĮØ¯
ĠÙħØ¯ÛĮØ± Ø¹Ø§ÙħÙĦ
ĠÙ¾ÛĮØ´ÙĨÙĩ Ø§Ø¯ÛĮ
Û°Û ¸Û
Ø§Ø¬ Ø¯
ĠÙħÙĤ Øª
ĠØ´ÛĮØ± ÛĮÙĨÛĮ
ĠÙĨØ§Ù¾ Ø¯ÛĮØ¯
ĠØ³ÙĪØ³ÛĮØ§ÙĦÛĮ Ø³Øª
ĠÙģÙĩØ± Ø³ØªÛĮ
Ú© Ø±Ø¨
Ùħ Ø§Ø¯
ĠÛ±Û³Û· Û·
Ø³ÛĮØ³ÛĮ Ù¾ÛĮ
Ûµ Û¹
Ø´Øª ÛĮÙĨ
ÙĨØ¬ Ø§ÙĨÛĮ
ĠÛ±Û³ Û°
ĠØ¯Ú©ØªØ± Ø§
ĠÙĪ Ø§Ø¯Ø§Ø±
Û³Û ¸Û
ÙģØ´ Ø§ÙĨÛĮ
Ùħ ÙĪØ³
ĠÙĤ ÛĮØ¯
ĠØ¢ÙħÙĪØ² Ø§ÙĨ
ĠÙ¾Ùĩ ÙĦÙĪØ§ÙĨ
ĠØ¢Ø´ ÙĪØ±ÛĮ
Ø¨ÙĪ ØªÛĮ
ĠÚ¯Ø°Ø±Ø§ÙĨ Ø¯ÙĨ
ĠØª Ø´Ø¯ÛĮØ¯
ĠÙħÛĮ Øª
Ø§Ùĩ Ø§Ùħ
ĠØ³ÛĮ Ú¯Ø§Ø±
Ú¯Ø±Ø¯ ÛĮØ¯
ÙģÛĮ Ùģ
ĠØ¨ÛĮØ§ ÙĪØ±Ø¯
ĠÙĨØ¯Ø± Øª
Ġ ÙĬ
ĠÙ¾ ÙĪÛĮØ§ÙĨ
ĠØ¢ÙĦØ¨ Ø§ÙĨÛĮ
ĠÛ±Û¹Û² Û³
Ø§Ø³ ÛĮÙħ
ĠØ±Ø³ ÙĪÙħ
ĠØªÙĪÙĤÛĮ Ùģ
ĠØ¨Ø± ÚĨØ³Ø¨
ĠÛ±Û¹ Û°Û°
ĠÛ±Û³Û´ Û°
ĠØ´Ø§ÛĮ Ø³ØªÙĩ
) ØĽ
ĠØ³Ø§Ø®Øª ÙĨØ¯
re f
Ø±ÛĮ Ø´ÛĮ
Ú© Ø±Ø§Øª
ÙĩØ± Ø§ÙĨÛĮ
ĠØ§ÛĮØ± ÙĦØ§ÛĮÙĨ
ĠÙĨØ¸Ø§ÙħÛĮ Ø§ÙĨ
Ù¾ Ø¯Ø±
ĠØ¨Ø± Øª
ĠØªØµ Ø¯ÛĮ
ĠØ®ÙĦ Ø¹
Ø± ÙħØ§ÙĨ
ĠØ¨Ø§Ø²ÛĮ Ø§Ø¨ÛĮ
ar ch
ĠÙĨ Ø§ÙĩÙħ
Ù¾ ÙĦÛĮ
ĠØ¹Ø¨ Ø§Ø±ØªÛĮ
ĠÙĨØ§Ø´ Ø±
ĠÚ¯Ø§Ø² ÙĩØ§ÛĮ
Â °
Øª ÙĪØ¨
ĠØ¨ Ø¯ÙĩÛĮ
ĠØ®ÛĮ Ø§Ø¨Ø§ÙĨÛĮ
ĠÙ¾Ø¯ÛĮØ¯ Ø§Ø±
ĠØ¹Ø¸ ÛĮÙħÛĮ
ĠÚ©ÙħÙ¾ ÛĮÙĨ
ĠÙ¾Ø§Ø± ØªÛĮ
ĠÙ¾Ø¯ Ø±Ø¨Ø²Ø±Ú¯
ĠØ²Ø§Ú¯Ø± Ø³
Ø® Ø³Ø±ÙĪ
Ú¯Ø±Ø¯ ÛĮ
ÙĨØ¸ ÛĮØ±
ĠÛĮÙĪÚ¯ Ø³ÙĦØ§ÙĪÛĮ
ÛĮ Ø§Ø¨ÛĮ
ĠØ³ ÙĪØ±ÛĮ
ĠÙħÛĮ Ø³ÛĮØ³ÛĮÙ¾ÛĮ
ĠÙħÙĪÙĨ ØªÙĩ
ĠÙħÙħØª Ø§Ø²
i el
Ã ¶
ĠÙĪ ÛĮØ²
ĠÚ©ÙĪØ¯ ØªØ§
Øª Ø¨ÛĮ
ĠÙħÙĨ ÛĮØ²
ĠÙĨÙĪ Ø§Ø¯Ú¯Ø§ÙĨ
ĠÛ±Û³Û¶ Û¸
ĠØªØ¯ Ø§Ø±Ú©
ĠÙģØ±ÙħØ§ÙĨØ±ÙĪ Ø§ÛĮ
ĠÙħÚ©Ø± Ø±
ĠÙĨÛĮØ¬ Ø±ÛĮÙĩ
e e
ĠØŃØ´ Ø±Ø§Øª
Ùħ ÙĦÛĮ
ĠÚ¯ÙĦ Ø¯
ĠØ´Ú©Ø³Øª ÙĨ
ĠÙħ Ø§ÛĮÙĩ
ĠØ§Ø³ ÙĤÙģ
ĠØªÙĨ Ø§Ø³
Ø±Ø³ ÙħÛĮ
ÙĪØ³ÛĮ Øª
ĠØ¨Ø§Ø® ØªØ±ÛĮ
ÙĪØ± ÙĨØ¯
ĠÙĤØ± Øµ
ĠØ¢ÙĦ Øª
ĠØ³Ø§ÙĨ ØªØ§
ĠØ§Ø±ÙĨ Ø³Øª
ĠØ® ÙĦÙģ
ĠÂłĠÂł ĠÂłĠÂł
Ø¯ Ø§ÙĨÙĩ
ĠÙĦ ÙĪÙħ
ĠØ¹ÙĤ Ø¯
ĠØ¨ Ú©Ø´Ø¯
ĠÚ© ÙĦÙĩ
ĠÙģ ØµÙĦÛĮ
ĠØ§Ø¨ Ø²Ø§Ø±ÛĮ
Ù¾ ÙĪØ³ØªØ§ÙĨ
ØªØ± ÙĪÙĨ
ĠØ¢Ø³ ÙħØ§ÙĨÛĮ
ĠÙĪÙģ Ø§Øª
Ùħ Ø¯Ø±
ĠØ§Ø± Ø«
ĠÙ¾Ø±Ø³Øª Ø§Ø±ÛĮ
ĠÙĩØ®Ø§ÙħÙĨØ´ÛĮ Ø§ÙĨ
Ùĩ Ø§ÙĦ
ĠØ®ÙĪØ§ÙĩØ± Ø´
Ø¨ ÛĮØ¯
ĠÙĨ ÛĮØª
ĠØ® ÙĦÛĮÙĦ
ĠØ±Ø¨ Ø§Ø·
2 2
Ð ¾
ĠØ³Ø§Ø² Ú¯Ø§Ø±ÛĮ
ĠØµØŃ Øª
Û±Û³Û ¶
ĠØ§ÙĨ ØµØ§Ø±ÛĮ
ÙĪØ¯ Ø§ÙĨ
ĠÙ¾ Ø§ØªØ±
ĠØ§Ø´ Ø¹Ùĩ
ĠÙĩØ¬ Ø¯ÙĩÙħ
ĠØ§Ø´Ú© Ø§ÙĨÛĮ
ĠØ®ÙĪØ§ÙĨ ÙĨØ¯Ú¯ÛĮ
ĠØ¯ÙĦ Ø®ÙĪØ§Ùĩ
ĠÛ±Û¹Û² Û¶
ĠØ§Ú©Ø« Ø±Ø§
ĠÙħØ²Ø§Ø± Ø¹
ĠÛĮ ÙĪØ±Ú©
ĠÚ©ÙĨ ÙģØ¯Ø±Ø§Ø³ÛĮÙĪÙĨ
ĠØ¨ÛĮÙĦ Ø¨ÙĪØ±Ø¯
ĠÛ¹Û ±
Ø§ ÙĪÙĨØ¯
ĠÙģ Ø´
ĠØ¯Ùĩ ÛĮÙħ
ĠØ³Ø§Ø² ÙĨØ¯
ØªÙĨ Ø§Ø¨
ĠÛ±Ûµ Û°Û°
Ú©Ø´ ÙĨØ¯
ĠÙħØŃ Ùģ
ĠØ²ÛĮØ± Ø³Ø§Ø®Øª
ĠØ®Ø² Ø§ÙĨÙĩ
ĠØ¨ÙĨ Ø²
ĠÙģÛĮ ÙĦÛĮ
ÙĪÙĨ Ø¯ÙĩØ§ÛĮ
ĠÚĨ Ø§ÙĤ
ĠØŃØ³Ø§Ø¨ Ø¯Ø§Ø±ÛĮ
Ġp r
ĠÚĨØ± Ø§Ú©Ùĩ
ÛĮÙĨ Ú©
ĠØ® Ø§Ø³Øª
ÙĪØ¨ Ú©Ø±
ic a
ĠØ¶Ø± ÙĪØ±Øª
ĠÙ¾Ø³ØªØ§ÙĨ Ø¯Ø§Ø±Ø§ÙĨ
ÙģØ±Ø³Øª Ø¯
Ø§ÛĮ Ú©Ø³
ĠØ´ÙĩØ±ÛĮ Ø§Ø±
Ù¾Ø±Ø¯ Ø§Ø²ÛĮ
ĠØ²Ùħ Ø±Ùĩ
ĠÙħØ³ØªØ¹ Ø§Ø±
ÙĪ ÛĮÙĨÛĮ
ÙĪØ±ÛĮ ÙĪ
ĠØ®ÛĮ Ø§ÙĦ
ĠÛ±Û³Ûµ Û´
ĠÙ¾ÙĪØ³Øª ÛĮ
ĠÚ©Ø§Ø´ Ø§ÙĨÛĮ
ĠÙħÙĩ Ø±Ø§ÙĨ
or k
ĠÙģ Ø±ÛĮØ¨
ĠØ±Ø§Ùĩ Ø¨Ø±Ø¯
ĠØ³Ú© ÙĪØª
ĠØªØ±Ø´ ØŃ
Øª Ùģ
ĠØ± ÛĮØ¯
ĠØŃ ÙĦÙĤ
Ø¶ Ø±
Û¶ Û¹
ĠØµØŃ Ø±Ø§ÛĮÛĮ
ĠØ´ÙĪ Ø§ÙĦÛĮÙĩ
ĠØŃØ´ Ø±Ùĩ
ĠØ¯Ø§Ú¯ ÙĦØ§Ø³
ĠØ¯Ùĩ ÙħÛĮÙĨ
ĠØ¨ Ø³ØªØ±ÛĮ
ĠØ´ ØªØ±
ĠØº ÙĪ
ĠÙħØ´Ú©ÙĦ Ø§ØªÛĮ
ĠÙĦÙĪØ¦ ÛĮ
ĠØªØ¨Ø¹ÛĮ Ø¶
ĠØ§ÛĮÙĨ ÙĩØ§
ĠÚĺ ÙĨÙĪ
ĠÚ©Ø´ Ø´
ĠØ¯Ø¨ Ø³ØªØ§ÙĨ
ĠØ§Ø³Øª Ø§Ø±
ĠÙĦ Ú©
Ø³ÙĦ Ø§ÙĨ
ĠØªÛĮ ØºÙĩ
ĠÙĨØ¬ ÙģÛĮ
ĠÙĨØ§Ù¾ÙĦ Ø¦ÙĪÙĨ
ĠÙĩÙħØ¨ Ø³ØªÚ¯ÛĮ
" (
Ø§Ùħ Ø§Ùħ
ĠÙĤ ÙģÙĦ
ĠØµÙĦÛĮØ¨ÛĮ ÙĪÙĨ
ĠØ¯ Ù¾
ĠØ§Ùħ Ø§Ú©ÙĨ
Ø¨ÛĮ ÙĦÛĮ
ĠØŃØ¯ÙĪØ¯ Ø§
¡ Ù
ĠÚ© Ø§Ø¯
ĠÚ© ÙĨØ¯Ùĩ
ĠØ² ÛĮØ¯
ĠÙĦ Ú©Ùĩ
ĠÚ©Ø§Ø± ÙĩØ§
ĠØ¯ÙĦ Ø§Ø±ÛĮ
Ø²ÛĮÚ© ÙĪ
ĠØ® Ø¯Ùħ
ĠÚ©Ø§Ø± ÙħÙĨØ¯Ø§ÙĨ
ĠØ¯ÙĪ Ø§Ùħ
ig n
Ä ±
Ø² Ø¯Ùĩ
ĠÛĮÚ© Ø´ÙĨØ¨Ùĩ
ĠØŃ ÙĪÙĦ
ĠØªÙĪØ± ÙĨ
ĠØ¹Ø¶ ÙĦØ§Øª
ĠÚ© Ø§Ùģ
ĠØ§ÙĪ Ø¨
ĠÚĨÙĩØ§Ø± Ø´ÙĨØ¨Ùĩ
p er
Ø±ÙĪ ÙģÛĮ
ĠÙĪØ§ÙĤØ¹ Ø§
ĠØ´Ø¹ ÙĦÙĩ
Ø§Ú© Ø³ÛĮ
Ø¢ Ø²
Ġ ÛĮØ±
or th
ĠØ´ÙĨ Ø§Ø³Ø§ÙĨ
ĠØ§Ø¯ÛĮ Ø¨
Ø¯ Ø²
ĠÚ©Ùħ Ø±
ĠØ¯Ø§Ø¯ Ø³ØªØ§ÙĨ
ÚĨ ÛĮÙĨÛĮ
ĠØ¢ÙĨØ¯ Ø±Ùĩ
ĠØ§Ø¬ ØªÙĨØ§Ø¨
ĠØªØ±Ú© ÙħÙĨØ³ØªØ§ÙĨ
Ø§ÙĩØ¯ Ø§Øª
ĠÙ¾ÛĮØ§ Ù¾ÛĮ
w iki
Ù¾Ø°ÛĮØ± ÙģØª
ĠÙĦÛĮØ¨Ø± Ø§ÙĦ
ĠØª Ø°
ĠÙĩ Ø±ÛĮÚ©
ĠØ¨Ø§ÙĦ ÙĤÙĪÙĩ
ĠØŃØ¯ Ø³
ĠÙĨÚ¯ Ø§Ø±Ùĩ
Ø¨Ø®Ø´ ÛĮ
ĠÚ©Ø±Ø¨ ÙĦØ§
ĠÙ¾Ø§ ÙĪÙĦ
ĠÛ¶ Û±
Ø¹Ø¨ Ø¯Ø§ÙĦ
ĠÛĮØ® ÚĨØ§ÙĦ
ĠØ¨Ø´Ú© Ùĩ
N O
ÙĨ ÛĮØ±
ÙĪ Ø¬Ùĩ
ĠÚ¯ Ø³ÙĦ
ĠØªØ¹ ÙĪÛĮØ¶
ĠØ³ÛĮØ¯ ÙĨÛĮ
Ø§Ø³Øª ÛĮÚ©ÛĮ
ĠÛ¶ Û³
ĠÙĩÙĨØ± Ø³ØªØ§ÙĨ
ĠÙħØº Ø§Ø²Ùĩ
ĠÛ±Û¹Û±Û ¶
ÙĨØ¯ ÙĪ
ĠØ³ÙĨ ÙĨØ¯Ø¬
Ø«ÛĮ Ø±ÛĮ
o ok
ĠØ¯ Ø§ÛĮØ±
Ø±ÛĮ ÙĪ
Ø§Ø³ Ø§ÙĨÛĮ
ĠØ³Ø§ÙĦ Ú¯Ø±Ø¯
ĠÚ©ÙĦ Ø§
ĠÛµ Û¹
ÙħØ± Ú¯
ĠØ²ÙĨ Ø§ÙĨÙĩ
ĠÙħØ¨Ø§Ø±Ø² Ø§Øª
ĠØ«Ø§ÙĨ ÙĪÛĮÙĩ
ĠØ¬ Ø§ÙĪØ§
ĠÙĩØ§Ø´ Ùħ
ĠÙĨÙĪØ¨ Øª
ĠØ¯Ø§Ø± Ø§Ø³Øª
ĠÙħÙĪØ± Ø®Ø§ÙĨ
Ø¯ Ø¯
ĠØ§ÙģØ² ÙĪØ¯ÙĨ
ĠÙĤ ÙĪØ§Ùħ
Û¹Û ¹Û
ÙĨØ§ ÙĪØ¨
ĠÙĩØ±Ú© Ø¯Ø§Ùħ
ĠÙĩ ÙĪÙħ
ĠI nt
ĠÛ±Û³Ûµ Û³
ĠØ¯Ø§Ùħ Ø§Ø¯
ĠØ¨ÙĨÚ¯ Ø§Ùĩ
ÙħØ« ÙĦØ§
Ú¯ Ø§ÙĦ
Ø· ÙĪ
ĠØ¨Ø®Ø´ ÛĮØ¯
ĠØªÙĨ ÙģØ³
ĠØªØ´ Ø±ÛĮØŃ
ĠØ¯ÙĪÙĨ Ø§ÙĦØ¯
ĠÙħØ®Ø§Ø· Ø¨Ø§ÙĨ
ĠÙħÙĪØ²ÛĮÚ© Ø§ÙĦ
Ù¾ ÙĨØ¬
ĠØ§ÙĨ Ø·
ĠØ· Ø¹Ùħ
ĠØ¨ ÙĦÛĮ
ĠÙĤ Ø´Ø±
ĠÚ¯Ø±ÙĪ Ú¯Ø§ÙĨ
ĠÙĩÛĮ Ø¬Ø§ÙĨ
ation al
ĠØ¯Ø§Ø¦ Ø±
- -
Ø¨ ÛĮÙħ
ĠØ³ Ø§Ø¦
ĠÙĨ Ø§Ø¸Ø±
ÙĪØª ÛĮÙĨ
ĠØ¹ÙĨ Ø§ÙĪÛĮÙĨ
ĠÙħ Ø§Ú¯
Ø¨ Ø§Ø·
Ø§ÙĦ Ø«
Ø§Ø® ÙĦ
ÙħÛĮ Ø¯Ùĩ
ĠÙģÙĪÙĤ Ø§ÙĨÛĮ
ĠÙĩÙħÚ©Ø§Ø± Ø§ÙĨ
ÙħØ¯ Ø§ÙĨ
Ø³ØªØ± ÙĨ
ĠÙħØ¨ Ø§Ø¯ÙĦÙĩ
ĠØ¯Ø² ÙģÙĪÙĦ
Ù¾ÛĮÙĪÙĨØ¯ Ø¯
ĠÙħØ§Ø± ÙĪÙĦ
ĠØ± ÙĩØ§ÛĮÛĮ
ÙĪÙĤ Øª
ĠØ¢Ùĩ Ú©
c o
ĠØ¬ ÛĮÙħ
ĠØµ Ø§ØŃ
i de
ĠÙģ ÛĮØ³
ĠØ§Ùħ Ø±ÛĮ
Û¹Û ±Û
ĠØªØ±Ø¯ ÛĮØ¯
ĠØ¹ Ø§Ø·
ĠØ§ÙĨ Ø³Øª
an n
ĠÚ©Ø§Ø±ÙĦ ÙĪØ³
Ø§ ÙĪØ±Ø¯
ĠÙĩÙĪØ´ ÙĨÚ¯
Ú¯Ø±Ø§ÛĮ Ø§ÙĨÙĩ
ĠØ¬ ÛĮÙħÛĮ
ĠØ§Ùħ ØªØŃ
ĠÛ±Û¸ Û°
Ú© ÛĮÙĩ
ĠØªØ± Ø§Ø²
ĠØ¨Ø¯ ÙĪ
ĠØ§ÙĨØŃ Ø±Ø§Ùģ
ĠÙħ Ø³ØªÙħ
ĠØ´ÙĨ ÛĮØ¯ÙĨ
ÙĪØ² ÛĮØª
ĠØ§Øª ÙĦ
ĠØ§ ÙĬÙĨ
Ø§Ùģ Ø¹ÛĮ
ĠØ± Ø§Ø¯Ø§Ø±
ĠØ§ÙĨ Ø²ÙĦÛĮ
ĠØ§Ø¯ Ø±Ø§Ø±
ĠØ¸ ÙĩØ±
ĠØ§ÛĮØ³Øª Ø§Ø¯Ùĩ
ĠÙģ Ø§Ø´
ĠØ´Øº ÙĦÛĮ
2 7
ÙĪÙĦ Ø§Ø±
ĠØªÙĦ Ø³Ú©ÙĪÙ¾
ĠÙĨÛĮÚ© ÙĪÙĦ
ÙĪØ± Ø§ÛĮÛĮ
ĠÙģØ§ÙĨØª Ø²ÛĮ
Ú¯ ÛĮØ²
ĠÙ¾Ø± Ø¬ÙħØ¹ÛĮØª
in t
ĠØ§Ø³Ø§Ø³ Ø§
ĠÛ±Û³Û· Û²
ĠØ¢ ÙĪÛĮ
ÚĨ Ø§Ùĩ
ĠØ´ÛĮ Ø¡
ĠÙĪ Ø§Ø±ÛĮ
Ø¯Ùĩ ÙĨØ¯Ú¯Ø§ÙĨ
ĠØ§ÛĮÙĨ ÚĨ
ĠÙĨÛĮ ØªØ±ÙĪ
ĠØ§Ùħ Ø§ÙħÛĮ
ĠÙĦÛĮ ØªØ±
ÙĩÙħ Ø±Ø§Ùĩ
Ø± Ø§Ø²
ĠÚ© Ø§ØªØ±ÛĮÙĨ
ĠØª Ø³Ø§ÙĪÛĮ
ĠÙ¾Ø± Ø§Ú¯
ĠÙħÙĪØ¶ÙĪ Ø¹ÛĮ
ĠÚ© ÙĪØ±ÛĮ
ĠØ¹Ø§Ùħ ÙĦÛĮ
ĠØ§Ø¹ØªØ¨ Ø§Ø±ÛĮ
Ø§Ùģ Ø²
ĠØ¨Ø³ÛĮ Ø¬
ĠØ±Ø§Ùĩ ÙĨÙħØ§ÛĮ
ĠÙĦØ· Ùģ
ĠØ² Ø¹
ĠÚ¯ÙĦ ÙĪÚ©
Ùĩ ÙĪ
ĠØ¢ Ø±ÛĮØ§ÛĮÛĮ
ĠØ¨Ø±Ø® Ø§Ø³Øª
ĠÚ¯Ø±ÙģØª Ø§Ø±
Ú©ÙĨ ÛĮØ¯
ĠÙ¾Ùĩ ÙĦÙĪ
ĠØ³Ø¨Ø² ÙĪØ§Ø±
ÚĨ Ø§ÛĮ
ĠØ¨Ø§ÙĨÚ© Ø¯Ø§Ø±ÛĮ
ÙĨÙĪØ´ ØªÙĩ
Ø®ÙĪØ±Ø´ ÛĮØ¯ÛĮ
ĠÙģØ± Ø®
ĠØ¨ÛĮÙĨ Ø§ÛĮÛĮ
ĠÙĨØ´ Ø§ÙĨÛĮ
ĠØºÛĮØ± Ø±Ø³ÙħÛĮ
ĠÙ¾ÙĨØ¬ Ø§Ø¨
ĠÙģØ±Ø§ Ú¯ÛĮØ±ÛĮ
ĠØ§ÛĮØ±ÙĦØ§ÛĮÙĨ Ø²
ĠØ¨ Ø¯ÙĩÙĨØ¯
ĠØ§ÙĨ Ú©Ø§Ø±
ĠÙħØ¹ Ø§ÙĪÛĮÙĩ
or y
ĠA d
ĠØ³Ø§ÙĨØªÛĮ Ú¯Ø±Ø§Ø¯
o y
ĠÙĩ ÙĪØ³
ÙĪÙħÚ© Ø²ÛĮÚ©ÙĪ
ĠÙħÙĪ Øª
2 3
ĠØ¯ ÛĮØª
ĠÙģ Ø§Ø¬Ø¹Ùĩ
ĠØ¨ÙĪØ¯ Ùħ
ĠØ¯ÙĪÙħ ÛĮ
ØªÙĪ Ø¬Ùĩ
Ø³ÙĪÙĨ Ú¯
ĠÙĨØ§Ø¯ÛĮ Ø¯Ùĩ
ĠØ§Ø¬ Ø±
ĠØ¨Ø§Ø²ÙĨØ´ Ø³ØªÚ¯ÛĮ
ĠÙĨØ§Ø³ Ø§
ĠØ® ÙĪØ²Ùĩ
ÛĮØ´ Øª
ĠÙĩÙĨØ¯ ÙĪ
ĠÙħÙĨØªØ¸ Ø±
Ø¢ Ø´
ĠØ¹ÙĦ ÙĦ
ĠA ir
ĠØ³ÙĪØ¯ Ø§ÙĨ
Ø§Ø³ Ú©Ø§Ø±
ĠØ¬ÙĨØ³ÛĮ Øª
ĠØ²Ø§Ùĩ Ø¯Ø§ÙĨ
ĠØ¨Ø§Ø± ÙĨØ¯Ú¯ÛĮ
ĠÛ±Û³Û¶ Û·
ĠØºÙĦ Ø·
C A
ĠØª Ú©ÙĦÙħ
ĠØ± Ù¾
ĠØ±ÙĪØ² ÙħØ±Ùĩ
ic al
ÛĮÙĦ ÙĨ
ĠØªÙĪ Ú©
ÛĮØ´ Ø§ÙĨ
ĠØ§Øµ ØºØ±
ĠØ§Ø³ØªØ± Ø§ÙĦÛĮØ§ÛĮÛĮ
ĠÙħØªØºÛĮØ± ÙĩØ§ÛĮ
ĠÙĪ ÛĮØ¯ÛĮ
ĠØªØ¬ ÙĪÛĮØ²
ĠÙĨÙĪØ§Ø² ÙĨØ¯Ú¯ÛĮ
ĠÙħØ¯Ø§Ø® ÙĦÙĩ
ĠÛ¸Û ±Û
r om
ĠÛĮ ÙĪØªØ§
ĠØ¨ ØªØ§
ĠØ¢Øª Ø´Ú©Ø¯Ùĩ
ĠØªØŃØ±ÛĮ Ø±
ĠÙĪØ§Ø¶ ØŃ
Øª ÙĤÛĮ
in n
ĠØ¢Ø²ÙħØ§ÛĮØ´ Ú¯Ø§ÙĩÛĮ
ĠØ® ÛĮØ²
ĠÙĤ Ø±ÛĮÙĩ
ĠØªØ¹ Ø¨ÛĮÙĩ
ĠØ®ÙĪØ¯Ø±ÙĪ Ø³Ø§Ø²ÛĮ
Ġs t
ĠÛ±Û³Û² Û°
ĠØ¯Ø§Ø±ÙĪ ÙĩØ§
Ø§Ø¯ÛĮÙħ ÛĮØ±
Ø§Ùĩ Ø±ÛĮ
ĠÙħÙĪ Ø²
ĠØ§Ùħ Ù¾Ø±
ĠÙħØª ÙĨØ§ÙĪØ¨
ĠÙĨÛĮ ÙĪÙħÚ©Ø²ÛĮÚ©ÙĪ
ĠÙħØ®Ø§Ø· Ø¨
Øª Ø¬
ÙĤ ÛĮÙĨ
ĠØ¨Ø±Ø§ÛĮ Ø§ÙĨ
ĠÛ· Û¸
Ø§ÙĦØ¨ ØªÙĩ
Ø± ÙĨ
ĠØ¨Ø§ÙĪØ± ÙĨØ¯
ĠÙħØŃ Ø±
ic k
ĠÛ±Û±Û ¶
ĠÚ¯ Ùĩ
ĠÛ±Û³Û³Û ²
ĠØ¢ÙģØ±ÛĮÙĨ Ø´
Ø§ÙĦ Ú©
ĠÙĩÙħ Ø¯ÛĮÚ¯Ø±
ĠØ¢ØªØ´ ÙģØ´Ø§ÙĨÛĮ
ÙħØ¯ ÛĮÙĨ
ĠØªØ§Ø¨ Ø¹ÛĮ
ĠÛ±Û³Ûµ Ûµ
ÙĤÙĩØ± ÙħØ§ÙĨ
ĠÙħØ³ Ø§Ø¬Ø¯
ĠØ§ÙĪØ³Øª Ø§
Ùģ ØµÙĦ
ĠÙĨ Ø±Ø³ÛĮ
ĠØ§ÛĮ Ø³ÙĦ
Ø¬ Ø¨
ĠÙħØª Ø§Ø¨
ĠØ¨ÛĮ ÚĨ
ĠÙĪØ²ÛĮØ± Ø§ÙĨ
ĠÙĨ Ø§Ø¸
ĠØ± ÛĮÙĨÚ¯
ĠØ§Ø³Øª Ø§ÙĦÛĮÙĨ
ĠØªÙĦ Ø®
ĠØ±Ø³ Ø§ÙĨÛĮØ¯
ot a
ĠÙĨ Ø¬ÛĮØ¨
Ø² ÙĨØ¯Ú¯ÛĮ
ĠØ² Ø§Ø¨ÙĦ
ÙĪÛĮ Ø³ÛĮ
ĠN ew
S O
Ø§ÙĦ Ø¨ÛĮ
ĠØ¹ÙĦ ÙĪÛĮ
ĠØªØ® ÛĮÙĦÛĮ
ĠØ§Ø³Ùģ ÙĨØ¯ÛĮ
ĠÚ©Ø´Ø§ÙĪØ± Ø²Ø§ÙĨ
ĠÚ© Ø¨ÙĪØªØ±
ĠÚ©Ø± ÙĪÙĨ
ĠØ¯Ø±ÛĮ ÚĨÙĩ
ĠØ§ÙĦÚ¯ ÙĪÙĩØ§ÛĮ
ĠÙĨÙĤ Ø¯ÛĮ
ĠÛ¹Û ¹
Ø¯ ÙĪØ±Ùĩ
ĠÛ±Û¹Û±Û ³
ĠØ¨ Ø§ÙĨÛĮ
ĠÙĩ Ø§Ø¨
ÙħØ±Ø¯ Ùħ
Ø® Ø§Ø°
ĠØ§ ØªÛĮ
en ce
ĠÙĤØ§Ø¬ Ø§Ø±ÛĮÙĩ
Ø§ÛĮ ÙĪ
ĠØ´ Ø³Øª
ĠØ´ÙĩØ± Ø³ØªØ§ÙĨÛĮ
ĠÙ¾Ø§ÛĮ ÛĮÙĨÛĮ
Ø§Ø« Ø±
ĠØ¯Ø± Ú¯Ø§Ùĩ
ĠÙħØ¤ ÙĦ
ĠØ¢Ø´ ØªÛĮ
ĠØ¨ÙĨÚ¯ ÙĦ
ĠØ³Ø®ÙĨÚ¯ ÙĪÛĮ
ĠØ§Ø¨ ÙĪÙħ
ĠØ¨ÙĪØ¦ ÛĮÙĨÚ¯
Ø± Øº
ĠØ³ ÙĪÙĨÛĮ
ĠØ· Ø§ÙĦØ¨
ÙĪØ³ Ú©ÛĮ
ĠÙĩØ± ÙĪØ¯
ĠÙħØŃÙģ Ø¸Ùĩ
Ø¨ ÙĪØ¯ÛĮ
ĠØ§Ø³Øª ÙĪØ§ÙĨÙĩ
ĠØªØŃ ÙĦÛĮÙĦÛĮ
âĢ Ŀ
ÛĮØ² ÛĮÚ©
Ø³ØªÛĮ ÙĪØ§ÙĦ
ÙĩÙĨ Ø±
ĠÛ±Û³Û¶ Û¹
ĠÙĩØ±Ø¯ ÙĪ
Ù¾ Ø±Ø³ÛĮ
ĠÙħØ³ Ø¯ÙĪØ¯
al e
Ø³Ø§Ø² ÙħØ§ÙĨ
ĠÙĪ Ø¯
ĠÙĨ ÛĮÚ©ÛĮ
ĠØŃ Ø§ÙĦØ§Øª
Ø¯ÛĮ ÙĪÛĮØ¯
ĠÙ¾ÛĮØ´ Ø±ÙĪ
ĠÙħØ³Ø§ÙģØ± Øª
ÙĨØ§Ù¾ Ø°ÛĮØ±
ĠØ³ ÙĨÛĮÙĨ
ĠØ³Ø§Ùħ ÙĪØ¦ÙĦ
ĠÙħØ®Ø§Ø¨Ø± Ø§ØªÛĮ
ĠÛ³ Û°Û°Û°
ĠÙģÛĮ ÙģØ§
ÛĮÙħ Øª
ĠÙħØ±Ø¯ Ú¯Ø§ÙĨ
ĠØ¬ÙĪÙĨÛĮ ÙĪØ±
Ùĩ ÙĦ
ĠÙģØ±ÙħØ§ÙĨ Ø¯Ø§Ø±ÛĮ
ĠÙ¾ÙĦ ÙĨÚ¯
ĠØ¹Ø¶ ÙĦØ§ÙĨÛĮ
Ġ 0
ĠØ® Ùģ
ĠÚ¯ Ø¯
ĠÙħØ§ÙĦÛĮ Ø§ØªÛĮ
a i
ĠÚ¯ ÙĪØ±Ø¯
ĠØªØ²ÛĮ ÛĮÙĨ
ĠÙģØ± Ø§Ú¯ÛĮØ±
ĠØ§Ø± Ø§Ø¯Ùĩ
ĠØ³ÙĨ ØªØ±
ĠÛ±Û³Û· Û³
ĠØ´Ø±ÛĮ Ø¹Øª
ĠÚ¯ÙĪØ³Ùģ ÙĨØ¯
ĠØ¯ Ø§Ø¨
Ø´ Ø§
Ø§Ø¶ Ø¹
ĠØ®Ø¯ ÙħÙĩ
ĠØ¯ÙĪØ³ØªØ§ÙĨ Ø´
ĠÚ© Ø¯ÙĩØ§ÛĮ
ĠÙĦ Ø§ÙĨ
Ø¨ÛĮ Ø¯Ùĩ
ĠÙĨÚ¯ Ø±Ø§ÙĨ
ĠØ§Ø¨ ÙĪØ¨Ú©Ø±
ĠÛ±Û³Ûµ Û²
ĠÚ©Ø±ÙĪÙħ ÙĪØ²ÙĪÙħ
ĠØ§ÙħØªØŃ Ø§ÙĨ
ĠØ¨ Ø´ÙĪØ¯
Ø¨Ùĩ ØªØ±ÛĮÙĨ
ÙĪÙ¾ ÙĦ
ÙĨØ¯Ø± Ø§ÙĨÛĮ
ĠØ´ÙĪØ±Ø´ÛĮ Ø§ÙĨ
ĠØ§Øª Ø®Ø§Ø°
ĠÛ±Û¹Û°Û µ
Øª Ø®ÛĮÙĦÛĮ
ĠÙĪÛĮ ÙĪÙĦÙĨ
ĠÙħØ· ÙĦØ¹
Û±Û³Û ´
ĠÙĪØ¶ÙĪ ØŃ
ĠÙħÙĨ Ø´ÛĮ
ĠÙģØ± ØŃ
Û¸Û ³Û
ĠØªØ§Ø¨ Ø¹Ùĩ
Ù¾ÛĮÙħ Ø§ÛĮÛĮ
Ø§Ø± Ùħ
Ø¨ Ø§Ùģ
Ø¨ ÙĨØ¯Ø§ÙĨ
ĠØµ ÙģØª
Ø¦ ÙĪØ¯
Ø¯Ø± Ú¯Ø°Ø´ØªÙĩ
ĠØ¯Ùĩ ÙĦÛĮ
ĠØ²ÛĮØ± ÛĮÙĨ
os t
ĠØ®Ø§Ø³Øª Ú¯Ø§Ùĩ
ĠÙħØ¹ ÙĨ
ĠÛĮØ§Ø¯ Ú¯Ø§Ø±
am e
ĠØ´ ÙĪÚ¯
ØºÛĮ Ø¨
ĠÙ¾ÛĮÙĪØ³Øª ÙĨØ¯
ĠÙĨÚ¯Ø± Ø´
ĠØ´ Ø±Ùģ
ĠØ³Ù¾ ÛĮØ¯
ĠØ®Ø± Ø§Ø³Ø§ÙĨÛĮ
ĠÙħØ³Ø¦ ÙĪÙĦÛĮÙĨ
ĠØ¨Ø± Ø¹Ú©Ø³
ĠØ§ÙĤ Ø¨Ø§ÙĦ
ĠØ°Ø® Ø§ÛĮØ±
ĠØ¯Ø´Ùħ ÙĨÛĮ
ĠØŃØ§Ú© ÙħØ§ÙĨ
ĠÚ©ÙĨØ³ØªØ§ÙĨ ØªÛĮÙĨ
ĠÙħ ÙĪÛĮ
ĠØ¨Ø± ÙĪÙĨØ¯
ĠØ³ÛĮÙħ Ø§ÙĨ
ĠØ¹ Ø§ÙĦ
ĠØ¨ÙĦ Ø®
Ø§Ø± ÙĪØ³
ĠÚ©Ø§Ø± Ø´ÙĨØ§Ø³
Ø§ÙĨÚ¯ ÙĦÛĮØ³ÛĮ
ĠÙħØ§ÛĮ Ú©
ĠÛ¸Û ¹
ĠÙħØ² ÙħÙĨ
od ice
ĠÚ¯Ø§ÙĦ Ø±ÛĮ
ĠØ¨ Ø§ÙĦØª
Ø§Ø¡ Ø§ÙĦØ¯ÛĮÙĨ
ĠØªÙĪØ± ÙĨØªÙĪ
ĠÙħØ³ÙĦ Ø·
ĠÛ¸Û ³
Ġ |
ĠÙħÙĤ Øµ
ĠÛ±Û¹Û°Û ¸
Ú¯ ÛĮØª
ĠÙħØµ ÙĪØ¨
ĠÛ±Û³Û´ Û²
ĠØ§ØµØ·ÙĦØ§ØŃ Ø§Øª
ĠÙĨØ¸Ø±ÛĮ Ø§Øª
ĠÙħÙĨØªÙĤØ¯ ÛĮÙĨ
Ø§Ø± Ø´ÛĮ
ĠØ² Ø§Ú©
ĠÛ±Û³Û¶ Û²
ĠØ±ÙĪÙĨ ÙħØ§ÛĮÛĮ
ĠØ³ÙĦÛĮ ÙħØ§ÙĨÛĮ
ÙĤ ÙĨØ¯
Ùħ ÙĪÙĦØ§
Ø´ÛĮ Ø®
ĠÙĨÙĪØ´ ÛĮØ¯ÙĨÛĮ
ÙĪØ± Ø«
ĠØ§ÙĨØª Ú¯Ø±
ĠÙħÙĪÙĨØª Ø§ÙĨØ§
Ø¯ Ùģ
ĠÙĪ ÙĦÙģ
ĠØ³Ø± Ø§ÛĮ
ĠÛĮ ÙĪØ´
ĠÛ±Û³Û· Û±
ĠØ®Ø³ Ø§Ø±Øª
Ø¨ÛĮ Ø§ÙĨ
ĠÛ±Û³Û· Û´
ĠØ´Ùħ Ø§Ø±Ø´
ĠØ§ÙħÙ¾Ø± Ø§Ø·
ĠØ§Ø³ ØŃØ§ÙĤ
Ø§Ú¯ ÙĪØ¦Ùĩ
ĠØ¨Ø³Øª ÙĨ
ĠÙħÙĨÛĮØ² ÛĮÙħ
A T
ĠÙħØ± Ø§ØºÙĩ
ĠØ¶ Ø§ÛĮ
ÙĪÛĮØª Ø³
sh ip
s p
s k
ĠÙħÙĨ Ø²
ĠØ±ØŃ Ùħ
E T
ĠØ´ ÙĪÙĨØ¯Ùĩ
ĠÙĨ ÛĮÙĨ
ĠÙĨ Ø§Ø¢
Ø§Ùĩ Ø§ÙĨ
ÙĨÚ¯ Ø±
ĠØ§Ú© Ø³Ù¾
ĠÙĩÛĮÚĨ Ú¯Ø§Ùĩ
ĠØªØ³ ÙĦÛĮ
ĠØ¯Ø¨ÛĮØ± Ú©ÙĦ
ĠØ¹Ø±Ùģ Ø§ÙĨÛĮ
ĠÙģÙĪ Ø§ØµÙĦ
f f
ÙĦ Ø§ÙĨÚ©Ø§
ĠØ§Ø±Ø¬ Ø§Ø¹
ĠØª ÙĨÛĮ
Ø§Øª ÙĨ
ĠÚĨ Ø§Ø¯Ø±
ĠÙħØ³ÙĦ Ùħ
Ø§Ø¯ ÛĮÙĨ
ÙĩØ± Ùħ
ĠØ¨ÙĨØ¯Ø± Ø¹Ø¨Ø§Ø³
ĠØ³Ø± ÙĨØ´ÛĮÙĨ
ĠØªØµÙĪÛĮØ± Ø¨Ø±Ø¯Ø§Ø±ÛĮ
ĠÙħØ§Ø¬ Ø±Ø§Ø¬
ĠÛ±Û¹Û±Û ±
ĠØ¨ÙĪ ØªÙĩ
Ø¬ Øª
Ø§ÙĨØ¬ ÙħÙĨ
ĠÙĩ Ø§Ø±Ø¯
Ø¢ Ø®Ø±
ÙħØ§ÙĦ Ú©
ĠÛ±Û³Û´ Û·
Ø¨Ø®Ø´ Ø¯
u k
ĠØ±Ø§ ÙĪÛĮ
Ø§ÙĤ Ø¶
ĠØªØ§ÛĮ ÙĪØ§ÙĨ
ĠÙħØŃØª ÙĪÛĮ
ĠØ±ÙĪ Øª
ĠÛ±Û¹Û±Û °
ĠØ¯ÙĤÛĮ ÙĤÛĮ
2 6
3 0
Ġ ;
ĠÙħÛĮ ÙħÙĪÙĨ
ĠØ§ÛĮÙĨ Ú©
ĠØ±ÙĪ Ø§ÛĮØªÛĮ
it e
ol og
ĠØ¢ÙĨ Øª
ĠØ§Ø³ Ú©Ø§ÙĨ
ĠÙĨØ§Ùħ ÙĨ
ĠÚ©Ø±ÛĮ Ø³ØªÛĮ
ĠØ¨ÛĮØ± ÙĪØª
ĠÚ¯Ø°Ø§Ø´Øª ÙĨØ¯
ĠØ¨Øµ Ø±Ùĩ
ĠØ±ÙģØ³ ÙĨØ¬Ø§ÙĨÛĮ
ĠÚ© ÛĮØ§
ĠØ¢ Ø³Ø§ÙĨÛĮ
ĠÙ¾ Ø§Ø±Øª
ĠÙ¾ Ø°ÛĮØ±ÛĮ
ĠÚ¯ Ø§
Ø§Ø² ÙĪÙĨ
Ø§Ø³ Ø§
ĠØ¨ÛĮÙĨ ÙĨØ¯Ùĩ
ĠØªÙĪØ§ÙĨ Ø¯
ĠÙħÚ© Ø§Øª
ĠÚ©ÙĪØª ÙĪÙĦÙĩ
ĠØ¯ ÛĮØ§
Ú¯Ø± Ø§Ùħ
ĠÙĨÙħ Ø±Ùĩ
Ø´Ø¯ Øª
ÚĺÛĮ ÙĪÙĨ
ĠØ³Ù¾Ø§Ùĩ Ø§ÙĨ
ĠØ±ÙĨ Ø³Ø§ÙĨØ³
ĠØ§Ùģ ÙĦØ§Ø·
ĠØ±Ø§Ø³ ÙĦ
ÙĪÛĮÙĦÛĮ Ø§Ùħ
ĠØ¨ÙĪÙĦÛĮ ÙĪÛĮ
ĠØ· ÙĨØ§Ø¨
Ø¬Ø§Ùħ Ø¯
ĠØ¬Ø± Ø§ØŃ
ĠÙħÙĪØ¨ Ø§ÛĮÙĦ
ĠØ¯ ÙĦØ§
Ø¢ ÙĨØ¯
Ð ¸
ØŃ ÙħØ¯
ÛĮØ´ Ú¯ÛĮ
ĠØ³ÙĦ ÙħØ§ÙĨ
ĠØ¯Ùħ Ú©Ø±Ø§Øª
8 6
ĠÙħÙĤØ± Ø±
ĠØ¹ Ø§ÙħÛĮ
ĠØ®Ø· Ø§ÛĮ
Ú© ÙĨÛĮ
ĠÙģ Ø³ØªÛĮÙĪØ§ÙĦ
ĠÛ³Û¶ Û°
Ùģ Ø±ÛĮØ¯
ĠÛĮÚ© ÙĨÙĪØ§Ø®Øª
Ø²ÛĮ Ø±Ø¯Ø±ÛĮØ§ÛĮÛĮ
ĠÚ©Ùħ ÛĮÚ©
ÙħÛĮÙħ Ùĩ
ĠÚ¯Ø² Ø§Ø±Ùĩ
ĠÙħØ±ÛĮ Ø®
ĠØºÛĮ Ø±Ø¯
ĠÙĪ Ø§ÙĦØª
ĠÙ¾Ø§ÙĦ Ø§ÛĮØ´Ú¯Ø§Ùĩ
ĠÙĨ Ø§Ø³ÛĮÙĪÙĨ
ĠØ® Ø³ØªÚ¯ÛĮ
ĠÚĨ ÙĪ
ĠÙ¾ÛĮ Ø§Ø²
ĠØ§ÙĦÙĩ Ùĩ
2 4
Ø§ÙĨØ¯ Ø±ÙĪ
ĠÙħØ¹ Ø§Ø±Ùģ
ĠÙħØµ Ø±ÙģÛĮ
ĠØ§ÛĮØ± ÙĦÙĨØ¯ÛĮ
ĠR e
ĠÙĨØ±Ùħ Ø§ÙĦ
ĠÛ³Ûµ Û°
ĠÙħØ¹Ø¯ ÙĪØ¯
ĠØª ÙĩØ±Ø§ÙĨÛĮ
ĠÙ¾ Ø´Ùħ
ĠØ¯Ùĩ ÙĨØ¯Ú¯Ø§ÙĨ
ĠØ§ÙĨØŃ ÙĦØ§ÙĦ
ĠØªØ¶ Ø¹ÛĮÙģ
ĠÙħØ¶ ÙħÙĪÙĨ
ÙħØŃÛĮ Ø·ÛĮ
ĠØ³ Ø§ÙĨØ³
Ø§Ø¯ÛĮ Ø§ÙĨ
ĠÙ¾Úĺ ÙĪ
ĠØ³ÙĪØ¦ ÛĮ
ĠØ®Ø§Øª ÙĪÙĨ
ĠÙħÚ©Ø§ÙĨÛĮ Ø²Ùħ
Ø¨Ø§Øº Ùĩ
y n
ĠÙħ ÙĪÙħ
ÙĪØ¯Ùĩ Ø§ÛĮ
on s
ĠØ¯ÙĨ ÛĮÙĦ
Ù¾ Úĺ
ĠØ¯ÙĪ Ù¾
ĠØªÙĩ ÙĪÛĮÙĩ
Ø§Ú¯ ÙĪÙĨ
ĠØ¢Ùħ Ø§Ø¯Ú¯ÛĮ
Ø³ÛĮ ÙĦÛĮ
ĠÙħÙĩÙĨØ¯ Ø³Ø§ÙĨ
ĠØ³ØŃ Ø±
Ø±ÙĪ Ø²ÛĮ
ĠØ±ÙĪÛĮ Ø§ÙĦ
Ø¬ Ø¹
Ø¨Ø± Ø®ÛĮ
ĠÚ©ÙĪ ÙģÙĩ
ĠÛ· Û³
ĠØ§ÙĨØªÙĤ Ø§Ø¯ÛĮ
ĠØ¬ ÙĨÛĮ
ÙĪÙĦ ØªÛĮ
Ø± ÙĩØ§
ĠØ³ ØªÛĮ
ĠØ³ ÙĪÚ©
ĠÙħØ³Øª ØŃ
Ú¯ÙĪ ÛĮÙĨ
ĠÚĺÙĨØª ÛĮÚ©
Ġ ÛĮÙĦ
ÙĨ ÙĦ
ĠØ¯ Ø§ÛĮÙĨ
ĠÙģ ÙĪØ±Øª
ĠØ³ÙĨØª Ø²
ĠÙĨØ§Ù¾ Ø°ÛĮØ±
E C
Ø³Ø§ÙĦ Ø§Ø±
h er
ĠÙħØ·Ùħ Ø¦ÙĨ
ÛĮÙĨ Ø§Ùģ
ĠØ¬ Ø§Ø²
ÛĮÙĦ ØªÙĪÙĨ
ĠÛ¶ Û¹
ĠÙĪÛĮØ± Ø§Ø³Øª
ĠÛ¸Û ±
ĠÛ±Û³Û¶ Ûµ
Ø´ Ø§ÛĮØ±
Ø¹ ÙĪÙĨ
Ø® ÛĮÙħ
ĠÙħØŃÙħØ¯ ØŃØ³ÛĮÙĨ
ĠØ¸ Ø±ÙĪÙģ
ÙĪØ§Ø³ Ø·Ùĩ
Ġ on
ĠØ² ÛĮÙħ
ĠØµ Ø¯Ø§Ùħ
Ø¨Ø± Ø¬
ĠÛ· Û¹
Ú¯Ø§ÙĨÛĮ Ø³Ùħ
ĠØ§Ø³ÙĦÙĪ Ø§Ú©ÛĮ
ĠÙħØ³ØªØ¹Ùħ Ø±Ùĩ
ĠØ¯ ÙĨØ¯
Ø§ÙĦ Ú©Ø³
ĠÙħÛĮ ÙĩÙĨ
ĠØŃ ÙĦØ¨
ĠÙħØ¤ÙĦ ÙģÙĩ
ĠØ¨ ÙĪØ±Ú©
Ø§Ø³ Ø¯
ĠØ³Ø§ÙĦ ÛĮØ§ÙĨ
ĠÚ©Ø§Ø± Ø¢ÙħØ¯
ĠØ´Ùĩ Ø§Ø¯Øª
ĠÚ©Ø±ÛĮ ÙħÛĮ
ĠØ´ÙĪØ´ ØªØ±
ĠØ±ÙĪ Ø¨Ø±
Ø§ØªÛĮ ÙĪ
ĠâĢ ľ
ĠØªØ·Ø¨ÛĮ ÙĤ
ĠØ¨ ÙĪØ³ØªÙĪÙĨ
ĠØ¹ Ø§Ø±
ÛĮ Øµ
Ø´ Ø§ÙħÙĦ
ĠØ± Ø´ÛĮØ¯
ĠØ¹Ø¶ ÙĪÛĮ
ĠÚ¯Ø² ÛĮÙĨ
ĠÙħ ÙģØª
ĠÙĨÚ¯ Ø§Ø´Øª
ĠÙ¾Ø±Ø§Ú© ÙĨØ¯Ú¯ÛĮ
ĠÙĨØ§Ø®Ø§ÙĦ Øµ
Ø¹ Ø§
ÙħØ¯ Ø§Ø¯
ĠØ´ÛĮ ÙĪØ¹
ĠØ° Ø§ØªÛĮ
ĠÙħØ® ÙģÙģ
ĠÙħÙĪØ¶ Ø¹ÛĮ
Ø¢ ÙĨØª
ĠØ¯Ø³Øª Ø§ÙĪØ±
ĠÙĦÛĮ Ø²
ĠÛ±Û³Ûµ Û±
ĠÙ¾Ø±ÙĪ Ø³
ĠÚ©Ø´Ø§ÙĪØ± Ø²
ÛĮ Ùģ
ĠÙĨ Ø«Ø±
ĠØ§ÙĨ Ø§Ø±
ĠÙħÙĨ ØµØ¨
ÙĪØ² Ø§ÙĨ
ĠØ¯Ùĩ ÛĮØ¯
ĠØ§ÙĨÚ¯ ÛĮØ²
ĠØ±Ø³ Ø§ÙĨ
ĠÛ±Û´ Û°
ÙħØ¹ ÙħÙĪÙĦØ§
ĠÛ±Û³Û´ Û¹
l es
ĠÛĮ ÙĪÙĩØ§ÙĨ
ĠÙ¾Ø³ ÙĪÙĨØ¯
ĠØ§ÙĤ Ø¯
ĠÙ¾ÙĪØ´ Ø§Ú©
Ø§Ø¯ Ø§Ø±ÛĮ
ĠÙħØ³ Ø§ÛĮÙĦ
ĠÙħØ´ Ø§ØºÙĦ
ĠÚ©ÙĪ ÙĦÛĮ
ĠÙ¾ÙĨ Ø¬Ùĩ
ĠÚ© Ø¨ÙĪØ¯
ĠØ± Ø§Ø¶ÛĮ
ÙĪØ¨ Ø§
ĠÚ¯ ÙĪÛĮÛĮ
ÙħØ§ÙĨ Øª
ĠØ¨ÛĮ ÙĨØ¯
ĠØ§Øµ ÙĦØ§
ÛĮ Ø§Ø¯
ĠØ³Ú© ØªÙĩ
v ille
Ø¬ ÙĦ
ĠØ¨Ø§Ø² Ø±Ø³ÛĮ
ĠÙħØŃÙĦ Ø§Øª
ĠÙħØ§Ø² ÙĨØ¯Ø±Ø§ÙĨÛĮ
ĠÙĪ Ø²ÛĮØ±ÛĮ
ĠØ¨Ø± ÙĩØ§ÙĨ
ĠØ§Ø¨Øª Ú©Ø§Ø±
ĠÙĪØ²Ø§Ø±Øª Ø®Ø§ÙĨÙĩ
b ur
Ø§Ùħ ÙĨÙĩ
ĠØ¨Ø± Ø·Ø±Ùģ
ĠÙħÛĮÙĦ Ø±
ĠÙħØ®Øª Ø§Ø±
ĠÚĨØ§Ø± ÙĦÛĮ
ĠØ§Ø±Ùħ ØºØ§ÙĨ
ÙĪ ÛĮÚ©ÛĮ
ĠØ´ Ø±Ø¨
ĠÙħØ¹ ÛĮÙĨÛĮ
ĠØªØ± ÙħÛĮÙħ
ĠÙģØ±Ø§ÙĨ Ú©ÙĦÛĮÙĨ
ĠÙĪÙģ Ø§Ø¯Ø§Ø±
ĠØ¢Ø±Ø³ÙĨ Ø§ÙĦ
ĠØ§ÙĨØª Ø²
ĠØªÙĤ Ø§Ø·Ø¹
ĠØ¢Ø´Ù¾ Ø²ÛĮ
a x
ĠØ´ ÙĪÙħ
ÙĪÙĨ Ø§Ú¯Ø§
ĠØ¶ ÙħÛĮÙħÙĩ
Ø³ÙĦ Ø§ÙĪ
ĠØ·Ø±Ø§ØŃ Ø§ÙĨ
Ġ ÛĮÙħ
ÙĨ Ø§Ø²
ĠØ¨ ÙĪÙĩ
ĠØªÙĨ Ùĩ
ÙĪØ²ÛĮ Ø±ÛĮ
ĠØ±Ø¶ Ø§ÛĮÛĮ
ÙĪ ÙģÙĩ
Ø³ ÛĮÚ©
ÙĨØ¯ Ú¯Ø§ÙĨÛĮ
ĠØ® Ø§ÙĦØ¯
Ø· Ø§Ø¨ÙĤ
Û¸Û ¹Û
ĠØªØ± Ø§Ø¨Ø±ÛĮ
ĠØ¨ÙĪÙħÛĮ Ø§ÙĨ
ĠØ§ÙĤÛĮØ§ÙĨ ÙĪØ³ÛĮ
ØŃ ÙĪØ²Ùĩ
Ø³ÛĮ Ø³ØªÙħ
Øº Ø±Ø¨ÛĮ
ĠØµØŃ ÙĨ
ĠÛ±Û³Û´ Û¸
ĠØ²ÙĪØ¯ ØªØ±
Å ¡
ĠØ§Ø³ Ø¨Ø§Ø¨
ĠÛ±Û³Û ³Û°
ĠØ§ØŃ ÛĮØ§ÛĮ
ĠØ® Ø´Øª
ĠØ· ÙĩÙħ
ĠÙħØ´ Ø§ÙĩØ¯Ø§Øª
ĠÙħØªØ®ØµØµ Ø§ÙĨ
ĠØªØ±Ø§Ø´ Ùĩ
ĠÙĤ ÙħØ±
Øµ ÙĨ
ÙĪØ² Ø§
Ø·ÛĮ ÙĦÛĮ
ĠØ³ÛĮÙĦ ÙĨØ¯Ø±
Ø¢Ø± Ø§Ùħ
ĠÙĨ ÙĩØ±
ĠØŃ Ø§Ø¯
ĠØŃ ÙģØ±
Ø±ÙĪ Ùĩ
Ø¨Ø±Ø¯ ÙĨØ¯
ĠC ar
ĠÙħÙĪÙĦ Ø§ÙĨØ§
ĠØ³ÛĮØ§ ÙĪØ´
Ø±Ú© ÛĮ
ĠØº Ø²Ùĩ
ĠØ¢Ø± Ø´
ĠÙħ Ø§Ú©Ø³
ĠÙ¾ Ø®ØªÙĩ
ĠÚ¯ ÙĪØ³Øª
ĠØ¨ÙĨÚ¯ÙĦ Ø§Ø¯Ø´
ĠÙħÙĪ Ø§Ø¯ÛĮ
ĠØ§ÙĦ Ø±
ĠØ¹Ùħ ÙĪØ¯
Ø¹ÙĦ ÙĪÙħ
S A
ĠØªÙĩ ÛĮ
ØªØŃ ØµÛĮÙĦ
ĠØ²ÙĨØ¬ ÛĮØ±
ĠØ¢Ùĩ ÙĨÛĮ
Ø·ÙĨ Ø·
ĠØ³ ÙħØ±
ĠØ¯Ø§Ø± ÙĨØ¯Ùĩ
ĠØ²ÛĮ Ø§ÙĨ
M A
ĠÙħÙĨ Ø§ÙĤ
Ø« Ø§Ø±
ĠØªØµ Ø§ØŃØ¨
ĠÛĮÙĪÙĨ Ø§ÙĨÛĮØ§ÙĨ
ĠÙħØ®ØªÙĦ Ø·
ĠØ° ÙĪØ§ÙĦ
Ø§Ø¦ ÙĨ
o x
ĠØ¨Ùĩ Ø¨Ùĩ
ĠÙ¾ Ø±Ø¨
ĠÙĩÙħ Ø¬
A l
Ø² ÙĨØ§ÙĨ
ĠØ¨Ø§Ø² Ø¯Ùĩ
ĠØº ÙĦØ§Øª
Û¹Û ³Û
g r
ÙħØ§ÙĩÛĮ Ø§ÙĨ
ĠØªÙħØ§Ø´ Ø§Ú¯Ø±Ø§ÙĨ
ĠØ§ÙĨØ¯ Ø§Ø®ØªÙĩ
ĠÙ¾ÙĨØ§Ùĩ Ú¯Ø§Ùĩ
Ø±Ø¦ ÛĮØ³
ĠØ§ÙħÙ¾Ø±Ø§Ø· ÙĪØ±ÛĮ
ĠØ§ÙĪ Ú¯
Ø±Ú© ÙĨ
ĠØ§ØŃ ÛĮØ§
ĠÙĪ Ø²Ø±
ĠÚ© Ù¾
ĠÛ· Û±
ĠØªØ¹ ÙĦÛĮÙĤ
ĠÙħÙħÙĨÙĪ Ø¹ÛĮØª
ĠØ¯ÙĪ ÙĤÙĦ
Ø§ÙĪ ÙĦÛĮ
ÙĪÛĮÙĨ Øª
ÙĪ Úĺ
ĠÛ²Û°Û² Û°
ĠØ²Ø§ÛĮ ÙħØ§ÙĨ
ĠØ¨Ø§Ø²Ú¯ Ø´ØªÛĮ
ĠØ¨ÙĨ Ø²ÛĮÙĨ
ĠT own
Ùħ Ø®
Ø³Ù¾ Ø§Ø±
ĠÙĨ ØµÛĮØ±
ĠØ¢ ÙĪØ±ÛĮ
ĠØµ Ø±ÛĮØŃ
ĠØ²Ø±ØªØ´ØªÛĮ Ø§ÙĨ
ĠÙ¾Ø±Ùĩ ÛĮØ²
ÙĦ Ø¨Ø±Ú¯
ĠØ¢ ÛĮØ²
us t
ÙĦ ÙĪØ³
ÙĦ Ø§ØŃÛĮ
Ø§ØŃ Ø§ÙģØ¸
ĠÙĪØ±Ø² Ø´Ú©
ĠÚ©ÙĪÚĨÚ© ØªØ±ÛĮÙĨ
ĠØ§ÙĪ Ø¨Ø±
ĠØ¯Ùĩ Ø®Ø¯Ø§
ĠØ§Ø³Ø§Øª ÛĮØ¯
ĠÙ¾ÙĪÛĮØ§ÙĨ ÙħØ§ÛĮÛĮ
ĠØºÙĪ Ø§Øµ
Ø§Ø¨ ÙĨØ¯Ùĩ
Ø±Ø³ ÙĪÙĨ
Ġ {
Ø¯ Ú©ØªØ±
ÙĪØª ÙĪÙĨ
ĠØ¯Ùĩ ÙĤØ§ÙĨ
ĠØ¨Ø§ÙĦØ§Øª Ø±ÛĮ
ÙħØ¯ Ø§Ø±Ø§ÙĨ
ĠÙ¾Ø§ÛĮ Ø§ÙĨÙĩ
ÙĤÙĦ Ø¨
ĠØªÙĦÙģ ÙĨÛĮ
Ø®ÙĪØ§Ùĩ ÛĮÙħ
ĠÙħØ§Ø¬Ø±Ø§ ÙĩØ§ÛĮ
ĠØ¯ÙĪØ¨ ÙĦÙĩ
Ø·ÙĨØ· ÙĨÛĮÙĩ
ĠÚ¯ ÙĦÙĪ
ĠØŃ Ø³ÛĮ
ÙĨØª Ø³
ac e
ĠØ¨Ú¯ÛĮØ±ÛĮ Ø¯
i le
ĠØ¢Ø²Ø§Ø¯ Ú¯Ø§ÙĨ
Ø¢ÙĨØ¬ ÙĦØ³
ĠØ¬ÙĨ Ø±Ø§ÙĦ
ÙĤØ§ÙĨ ÙĪÙĨ
ĠØª ÛĮØ³
ĠÛĮÚ© Ø§ÛĮ
ĠØµ ÙĪØª
Ú¯Ø± ÙĩØ§
Ø§Ø· ÛĮÙĨ
ÙĦÙĪ Ø§Ú©ÛĮ
ĠÙħØ§Ø±Ú© Ø³
Ø¨ Ø§Ú©Ø³
ĠÙĨ Ø§Ø¨Ø±
un d
Øª ÛĮØ±
ĠØ· Ø¹
ĠÙģØ± ÙĪØ±
ĠØªÙĪÙĦÛĮØ¯ Ú©ÙĨÙĨØ¯Ú¯Ø§ÙĨ
Ø³Ø§ÙĦ Ø§Ø±ÛĮ
ĠØ§ÛĮØ² ÙĪØªÙĪÙ¾
ĠØ¯Ø± ØŃØ§ÙĦ
ĠØ³ ÛĮÙĨÚ¯
ĠÙģ ÙĪØ±ÛĮ
ĠÛ±Û³Û´ Û¶
ĠØ§ÙĨØŃ ØµØ§Ø±ÛĮ
ĠÙĨØµØ± Øª
" ,
ĠÙģÛĮ Ø¶
ĠØ³ÙģØ± ÙĩØ§ÛĮ
ĠØªØ®Øµ ÛĮØµ
ĠÙĨÛĮØ§ ÙģØª
ĠØºÙĦØ§Ùħ ØŃØ³ÛĮÙĨ
ÙģÚ© Ø±Ø§ÙĨ
) -
Ø§Ø´ Ø§
ol l
ĠØ¯ÛĮÚ© Øª
Ø§ÙĨ ÙĪØ³
ĠÙĪ Ú©
Ø¨Ø± ÙĨØ§ÙħÙĩ
ĠØ§ÙĨØªÚ¯Ø± Ø§ÙĦ
Ùħ ÙĪØ²
ĠÚĨ Ø±Ø¨
ĠØ§Ø³ ÛĮØ¯ÙĩØ§ÛĮ
Ø¯Ø§Ø± ÙĨØ¯Ùĩ
ĠÙģØ±ÛĮ Ø§Ø¯
ĠØ¨ Ú¯
ĠÙ¾ ÙĪÙĨ
ÙĨÙĪ Ø§Ø²
ĠØ³Ø±Ø¨ Ø§Ø²ÛĮ
ĠÙĨ Ù¾Ø§ÙĦ
Ù¾ Ø§Ø³
ĠØ±Ø§ Ú©Øª
ĠØ¯ÛĮ Ø§Ø¨Øª
ĠÙĦØ² ÙĪÙħ
ĠØ´Ø±Ú© ØªÛĮ
Ùħ Ø§Ø±Øª
Ø¹ ØµØ±
ĠØ§Ø³ØªÙĪØ§Ø± Øª
Ø´Ø§Ø® Ùĩ
ĠÙĨÛĮØªØ±ÙĪ ÚĺÙĨ
Ġ la
ÙĦÛĮ Ú¯
ĠÙĤØ· Ø±Ùĩ
ĠØ§Ø³Ø± Ø§Ø±
ĠØ¨Ø§Ø²ÙħØ§ÙĨØ¯ Ú¯Ø§ÙĨ
ĠØµØ§ØŃ Ø¨Ø§ÙĨ
ĠØ± ÛĮØ²ÛĮ
ÛĮÙĦ Ø¯
ĠÙģÙĨ ÙĪÙĨ
Ġ19 9
ĠØ® Ø§Ø´
Ø¨Ø± Ø¯Ùĩ
Ú¯Ø±ÙģØª ÙĨ
ĠÛ±Û³Û¶ Û´
ĠÙħØ§ÙĩÛĮ Ø§ÙĨ
an o
ĠÙģ Ø§ØªØŃ
ĠØ¢ÙĦ Ø¨Ø±
ÛĮÙĨÚ¯ ÙĩØ§Ùħ
ĠÙħÙĪØ¬ÙĪØ¯ ÛĮ
ĠÙĦØ± Ø²Ùĩ
Ú¯ Ø§Ø¯
ĠØ± Ú©ÙĨ
Ø±Ú© Ø§ÙĨ
Ø§Ø· ÛĮØ³
ĠÙĤØ³ Ø·ÙĨØ·ÙĨÛĮÙĩ
ĠÛ±Û¶ Û°
iv ers
ĠØ¨Ø±Ø¯Ø§Ø´Øª ÙĨ
ĠÙĩ Ø±Ø¨
ĠÚĨ Ø³
ĠÛĮÙĪØ±ÙĪ ÙĪÛĮÚĺÙĨ
ĠÚ©Ø§ÙħÛĮ ÙĪÙĨ
ĠØ¯ÛĮÙ¾ÙĦÙħØ§Øª ÛĮÚ©
ĠØ¯ ÙĪØª
ĠÙĨ Ø¦
ĠÙ¾ Ú©ÙĨ
ĠÙĤ Ø´ÙĤ
c k
ĠØ¨ Ø§Ø¬
ĠØ¨Ø§ ÙĤ
ĠØµ ÛĮØ¯
ĠØ¨ÙĦÙĪ Øº
2 5
ĠØ§ÙĦ Ø´
ĠÙħÙĦ Ø®
en g
Ù¾Ø± Ø³ØªÛĮ
ĠØ¯Ø± Ø´Øª
ĠØ¢ Ø³ØªÛĮÙĨ
Ø³ÛĮ Øª
ĠØ¢ÙĨ ÛĮ
ĠØº Ø¶
ÙĪØ³ Ø§Ø²ÛĮ
ĠÚ©Ø§ÙħÙ¾ Ø§ÛĮÙĦØ±
Ùħ Ø±Ø²
ĠÚ¯ Ø¦
ĠØ¹ Ø²ÙĦ
ĠØ±Ø§ Ùģ
ĠÙģØ± ÙĤ
ĠØ±ÙĪØ² ÙĩØ§
ĠØªÙĪÙ¾ Ø®Ø§ÙĨÙĩ
ĠØ³ Ú©Ø³
ĠØ³ÙĪ Ø§Ø±ÛĮ
ĠØ² ØŃ
ĠÙĦ ÚĺÛĮÙĪÙĨ
Ú© ÛĮÙĨÚ¯
ĠØº Ø±ÛĮØ¨
ĠØ±ÛĮ Ø§ÙĦ
ĠÙĪÙĤ ÙģÙĩ
ĠÙģØ±ÙĪ Ø´ÛĮ
ĠÙ¾ÙĨØ§Ùĩ ÙĨØ¯Ú¯Ø§ÙĨ
ĠÙħØ£Ùħ ÙĪÙĨ
Øª Ø¦
ÙĦÛĮ ÙĪØ³
Â» )
as h
Ġc odice
ĠÙģØ±Ø³Øª ÙĨØ¯Ùĩ
ĠÚĺÛĮÙħÙĨ Ø§Ø³Øª
ĠÚ¯ ÙĪÙĦ
ĠØ¹ Ø³
ĠÙĦ Ø§ÙĨÙĩ
ĠØ¯ÛĮ ÙģØ±Ø§ÙĨ
Ùĭ ØĮ
an a
ĠÙ¾Ø§Ø±ÙĦ ÙħØ§ÙĨÛĮ
Ø± Ø§ÙħÛĮ
ÙĩØ§ ÙĪØ²ÙĨ
ar a
Øª Ø§ÛĮÛĮ
ĠÙħÙĪ Ø§Ø²
ĠØ§ÙĦ Ø§ÙĨ
ĠØ¢ÙĦ Ù¾
Ø¨Ø§ÙĨ ÙĪ
ĠØ²ÛĮØ± Ø®Ø§ÙĨÙĪØ§Ø¯Ùĩ
ĠÙĪØ§Ø³ Ø·
ĠÙĩØ±ÙĪØ¯ ÙĪØª
ÙħØŃ ÙĦÙĩ
Û±Û¸Û ·
ĠØ§ØªÛĮ ÙĪÙ¾ÛĮ
ĠØ³Ø§Ùħ ÙĪØ±Ø§ÛĮÛĮ
ĠÙħØªÙħ Ø§ÛĮÙĦ
Ø³ÙĦÛĮ ÙħØ§ÙĨ
ĠØ¢ÙħÛĮØ² Ø´
Øª Ø£
ĠØ³Ø± Ø§Øº
ĠÙĪÙĤ Ùģ
ĠÙ¾ÙĨ ÛĮØ±
ĠØ³Ø§ÙĪ Ø§Ú©
ĠØ±ÙĪØ¨ Ø§Ùĩ
Ø§ÙĦÙĨ ÙĩØ±
ĠØ§Ø³Ù¾Ø±Ø§ÙĨ ØªÙĪ
P S
ĠÚ© Ø¨ÛĮ
ĠØ§ÛĮÙĨ Ø³Øª
ĠØ² ÛĮØªÙĪÙĨ
ÙĪÙħ ÙĪ
Ø§Ø¦ ÛĮÙĩ
ĠÙħÙĨØ¹ Ú©Ø³
ĠÙĦØ§ÙĩÛĮ Ø¬Ø§ÙĨ
ÛĮÚ© Ø§ÙĨ
ĠØŃÙħ Ø§Ø³ÛĮ
Ø§Ø¦ Øª
ĠÙĨÛĮ Ø§Ùħ
ĠÚ©ÙĦ Ú©
Ø³ ÙħÛĮ
ĠÙĨ Ø³Øª
ĠÙģ Ú©
ĠØŃ Ø²Ø¨ÛĮ
ĠÙĨØ³ Ø§Ø¬ÛĮ
ĠÙĪÙĦÛĮ Ø¹ÙĩØ¯
ĠØ§Ø³Ù¾ ÛĮÙĨ
ĠØ´Ú©Ø§Ø± ÚĨÛĮ
ĠØ¢ÙĪØ± ÙĨØ¯
ĠÙħÙĨØ´ ÙĪØ±
ĠØºÛĮØ±Ùħ ÙħÚ©ÙĨ
Ø§Øµ Ø¯
ĠØ¶ ÛĮ
ĠÚ¯ÙģØª ÙĨ
ÙĤØ± Ø¶
ĠØ¨Ø§ÙĪØ± ÙĩØ§ÛĮ
ĠÙĨÛĮØ±ÙĪ ÙĩØ§
ĠØ± ÙĪØ¯ÛĮ
ĠÙ¾ Ø§ÙĩØ§ÛĮ
ĠÚĨ ÙĪÙ¾
ĠÙħØª ÙĨÙĪØ¹ÛĮ
ĠØ§Ø³ØªØ± Ø§ÙĦÛĮØ§ÛĮ
ĠØ¨Ø§Ø±Ø¯ Ø§Ø±
ĠÙĪØµ ÛĮØª
ĠØ¬ÙĨ Ø§Ø²Ùĩ
ĠÙħØ®ÙģÛĮ Ø§ÙĨÙĩ
ĠØ³ÛĮÚ© ÙĦ
C h
r u
ĠÙħØŃØªÙĪ Ø§
ĠØ· ÙĪÙĦÛĮ
ÙĪØ´ ÛĮÙħØ§
ĠÙĨÛĮØ² Ùĩ
ÙĪÙĨÛĮ Ø³Øª
ĠÙħØ±Ø¯ Ø§ÙĨÙĩ
ĠØ³Ø±Ø²ÙħÛĮÙĨ ÛĮ
Ú© ÙĪÛĮ
ĠØ¹ ØªÛĮ
Ø· Ø§ÙĦØ¨
ĠØ¨ÛĮ Ø§Øª
ĠÙĦÛĮ Ù¾
ĠÙħØµ ÙĪØ¨Ùĩ
ĠØ·Ø± ØŃÛĮ
ĠØŃ ØªÙħ
ĠÙħØ¹ Ø±ÙģØª
ou th
ĠÙħÙĪÙĨ ØªØ±
ĠÙĨÙĪØ¨ ÙĪÙĨØ§Ú¯Ø§
ĠØ¢ÙħÙĪ Ø®ØªÙĩ
ĠØº Ø²ÙĨ
ĠØ§ÙħÛĮØ¯ ÙĪØ§Ø±
ĠØªÙĪÙĩ ÛĮÙĨ
Ù¾ Ø³Ø±
ĠÙĩ ÙĢ
ĠÙĨÙĪØ± ÙĪÙĨ
ĠÚĺÙĨ ÙĪÙħ
ĠÚ© Ø§ÙĦØ¨
ĠØ³ Ø§Øª
ĠØ¨Ø® Ø§Ø±Ø§
ĠÛ±Û³Û¶ Û±
ĠØ¯Ø§ÙĨÛĮ ÙĦ
p e
ÙĨ Ø¨Ø±Ø¯
ĠÙĪ ÛĮØ§
ĠØªØ² Ø¦ÛĮÙĨÛĮ
ĠÙ¾Ø§Øª Ø±ÛĮÚ©
i x
ĠÙĪ Ø±ÛĮ
ĠÙģ Ø§Ùħ
Ø¹ ÙĦØ§ÙĪÙĩ
Û² Û°Û°
Ø§Ùĩ ÙĨÚ¯
ØªÛĮ Ø§Ø¯
ÙĪÙħ ØªØ±ÛĮ
ĠÙħÚ©Ø§ÙĨÛĮ Ø³Ùħ
ĠØ¯ÛĮ Ø§Ø±
ĠØªÚ© ÙħÛĮÙĦÛĮ
al ity
ĠØ¢ÙħÙĪØ² Ùĩ
Ø¯ Ø³ØªÛĮ
Ø±ÙĪ ÚĺÙĨ
ĠÙĦ Ø±Ø²
ĠÚ¯Ø± Ø§
ĠØ§Øª Ø±ÛĮØ´ÛĮ
Ø³Ùħ Ø³
ĠØµØ¯ Ø§Ù¾
Ø°ÛĮ Ø¨
ĠÚĨØ´ ÙħØ§ÙĨ
Ø¢ÙħØ±ÛĮÚ© Ø§ÛĮÛĮ
ÙĤ ÙĪÙĦ
ĠØµ Ø§ÙħØª
Ø§Ø¦ ÛĮÙĨ
ĠØ±Ø§Ø¯ ÛĮÚ©Ø§ÙĦ
ĠØ¨Ø§Ø® ØªØ±
ĠÚĨ Ú©Ø³
ĠØ§Ùħ Ø¶Ø§Ø¡
ĠÙħØ³ Ø·ØŃ
ĠØ§ÙĦ Ø¬
ĠÙĨÛĮØ± ÙĪÙħÙĨØ¯
Ùĩ ÙĦÙħ
ĠÚĨ Ø±ÛĮÚ©
ĠÙħØ³Øª ÙĪÙģÛĮ
ĠÙ¾ÙĨ Ø§ÙĦØªÛĮ
Û±Û¸Û ¹Û
ÙĪØ¯ Ø´Øª
ĠØªØ± Ø§Ú©ØªÙĪØ±
Ú©Ø´ ÛĮØ¯
ĠØ¨ Ø¨Ø±
ĠÙĩ Ø±ÛĮØ³
ĠÙħØŃ ÙĪØ±ÛĮ
ĠØ´Ø§Ùĩ Ø±Ø®
Ø¨Ø§Ø± Ø§
ĠT e
ĠB e
ĠØ§Ø¸ Ùĩ
Ã Ń
ĠÙħ ÙģØ±
ĠÙĦ ÙĤ
ĠØ§Ø¹Ø· Ø§ÛĮ
ĠØ° Ø§Øª
ÙĪÙĨØª ÙĪØ³
8 0
Ùģ Ø¶ÙĦ
ĠÙĨ Ø·
ĠØ®Ø± Ú¯ÙĪØ´
ĠÙģØ±Ø§ÛĮ ÙĨØ¯ÛĮ
ĠÙĨÙĪØ§Ø² ÙĨØ¯Ú¯Ø§ÙĨ
ĠÙħØ¹ØªØ± Ø¶Ø§ÙĨ
Ù¾ Ø§Ø±Ú©
ØŃ Ø§ÙĨ
ÙħÛĮ Ø±Ø¯
ĠÙ¾Ø± ÛĮÙĨ
ĠØ±Ø§Ø³Øª Ø§
ĠØ±Ø§ÙĨ Ø¯Ùĩ
ĠÙħØ³ÙĦØŃ Ø§ÙĨÙĩ
ĠØ®Ø§Ø· Ø±Ùĩ
6 0
ĠÙĦ Ø§Ø´
Ø´Ø¯ Ú¯Ø§ÙĨ
ĠÙ¾ÙĦ Ø§ÙĨ
ĠØªÛĮØ± ÙħØ§Ùĩ
ĠÙĩØ§ÙĪ Ø§ÛĮÛĮ
ĠØ¯ÙĦÙģ ÛĮÙĨ
ĠÙĩ Ø§ÙĨØ³
Ø® Ø§Ø´
Ø±ÙĪ Ø²Ùĩ
ĠÙĩÛĮØ¯ Ø±
ĠØ§Ø±Ø³ Ø·ÙĪ
ĠÚ© ÙĪÙ¾Ø±
Ø§Ø³Øª ÛĮ
ĠÚ¯Ø± Ø¯ÙĩÙħ
ÙĪØ´ ÙĪ
Ø¨Ø§ÙĨ Ú©
ĠØ§ÙĦØ¯ ÙĪÙĦÙĩ
ĠÙĩÙĪØ§ÙĨ ÙĪØ±Ø¯ÛĮ
ĠØ² Ø¨Ø§ÙĦÙĩ
ĠÙħÙĪ Ø§Ø¶Ø¹
ĠØ¯ÛĮ ÙĪØ§ÙĨÙĩ
ĠÚ©Ø± ÙħØ§ÙĨÛĮ
ĠÙ¾ØªØ± ÙĪØ´ÛĮÙħÛĮ
ĠØ¨ÛĮØ¯ Ø§Ø±
ĠÙĨØ§ÙĤ Øµ
ÙĨ Ø¨
Ùĩ ÛĮØ±
ØŃ ÛĮØ¯
ĠÙĦ Ø¹
ĠÙĦ ÛĮÚ©ÙĨ
ĠØ³Ø±Ø¯ Ø´Øª
ÙĪÛĮÙĨ Ø¯Ùĩ
ĠÙħÙĩØ± ÙħØ§Ùĩ
ĠØ¨Ø±Ø§ÙĨÚ¯ÛĮ Ø®Øª
I C
Ø³ ÙĨØ¯
ĠÙħØ¹ Ø§ÙħÙĦ
ĠS c
ĠØ§ÙĤØª Ø¯Ø§Ø±
ĠØ¯Ø± Ø¨ÙĨØ¯
ÙĪØ± Ø§Ø³
ĠØ§ÙĨ ÙĤØ¨
Ø´ÙĪ Ø§Ø±ÛĮ
ĠØ§ ØªØ§Ø¨
ĠÙħÙĨ ÛĮ
ĠØµØŃ Ø±Ø§ÛĮ
ĠØ´Ú©Ø³Øª Ú¯ÛĮ
y l
Ù¾ Ø±Ø³
ĠÙĩÙħ ÙĪØ§Ø±
ĠØªÙĨ Ø§Ø³Ø¨
ĠÙħØ¨ Ø§Ø±Ú©
ĠÚ©Ø§Ùħ Ø±ÙĪÙĨ
ĠØ³Ø±Ø¯ Ø§Ø±Ø§ÙĨ
ĠÚ©Ø±ÛĮØ³Øª ÙĪÙģØ±
Ø§ÙĨÛĮ Ø§ÛĮ
ĠØµ ØºÛĮØ±
ĠØ³Ø± Ø³Ø¨Ø²
ÙĤØ¯Ø± Øª
Ø¬ ÛĮÙħØ²
ĠØ¯ÛĮØ± ÛĮÙĨÚ¯ÛĮ
ĠØªØ¶ Ø§Ø¯
ĠÙģØ±ÛĮØ¯ Ø±ÛĮØ´
ĠÙĪ ØµÙģ
ÙĪØ§ ÚĺÙĩ
ĠØ¶Ø±Ø¨ Ø§Øª
ÙĦ Ø§Ø¹
ĠÙħ Ø¨Ùĩ
ĠÙ¾ Ø§Ø²
Ø§Ø¯ Ø§ÙĨ
ÙħÛĮÙĨ Ú¯
ĠÛĮØ§Ø¯ Ø¢ÙĪØ±
ĠG e
ĠØ§ÙĨØ¯Ø± ÙĪÛĮØ¯
ĠØ±ÛĮØ§Ø¶ ÛĮØ¯Ø§ÙĨ
ĠØ´Ø¯ Ú¯Ø§ÙĨ
ĠØªØ± ÙĤÛĮ
ĠØ¨Ø§ÙĦ Ú¯Ø±Ø¯
ĠØ¨Ø§ÙĨ ÙĪÛĮ
ĠØ§Ø³ ÙħÛĮ
ĠÙĨÙħ Ø§ÛĮÛĮ
ĠØ§ØŃ ÙĪØ§ÙĦ
ĠØŃÙħ Ø²Ùĩ
Ø¨Ø±Ø§ÙĨ Ú¯ÛĮØ²
Ø¨ ÛĮÚ©
ĠÚĨ ÛĮØ±Ùĩ
ÙģØª Ø¯
ĠÙħÙĨ ÙģØ±Ø¯
ĠÙĨØ§Ùħ ÙĪÙģ
ĠÙĦÛĮ ÙĪ
ĠØ§ÙĨØ¯ Ø±ÙĪ
m e
ĠØ³ ÙĪÙģ
Ø¦ Ø§
ĠÙħØ¬ ØªÙĩ
ØªÙĨ ÙĩØ§
ĠÙħÙĪØ± Ú¯Ø§ÙĨ
â Ī
ĠØ¨ ÙĪÙĨØ¯
ĠØ§ÙĪ ÛĮÙĨ
ĠØªÛĮ ØªØ±
ĠÚ¯Ø°Ø± Ú¯Ø§Ùĩ
ĠÙĩÙģ Ø¯Ùĩ
ĠØªØ¬Ø±Ø¨ÛĮ Ø§Øª
ĠØ³ Ø§ØªØ±
ĠØ¹ÙĦ Ø§ÛĮÙħ
Ú©Ø§Ø± Ú¯ÛĮØ±ÛĮ
ĠÙĤØ´ÙĤ Ø§ÛĮÛĮ
D A
Ġ Ã
ĠØª Ø¨ÛĮ
ÙĪØ¯ ÛĮÙĨ
ĠÙħØ´ Ø±Ùģ
ĠØ¢ÙħÛĮ Ø®ØªÙĩ
ĠØ±ÛĮØª Ùħ
ĠÚĨÚ©Ø³ ÙĦÙĪØ§Ú©ÛĮ
ĠØ¨ Ø³Ø§Ø²Ø¯
ĠØ§Ø± Ø§ÙħÙĨÙĩ
ĠØ§Ø¹ ÙĦØ§ÙĨ
ĠØ³ÛĮÙħ ÙĪÙĨ
ÙĨÚ¯ Ùĩ
ĠØ¬Ø± ÙħÛĮ
ĠØ¹Ø±ÙĪ Ø³Ú©
ĠÙħØ§Ùħ ÙĪØ±ÛĮØª
ĠØ¬Øº Ø±Ø§Ùģ
Ø± Ø§ÙĤ
ĠÙĩ ÙĪÚ©
Ø§Ùĩ Ø¨
Ø±ÙĪ Ù¾
ĠØ§ÙĦÚ©ØªØ± ÛĮÚ©
Øµ Ø±ÛĮ
ĠÙĦ Ø§Ø²
ÙĨÛĮÙĨ Ú¯
ĠØ³Ø§Ø² ÙĨØ¯Ú¯Ø§ÙĨ
ÙĨØ¸ Ùħ
Ġt h
ĠÛ±Û³Û´ Û±
ĠÚ©ÙħÙĪÙĨÛĮ Ø³ØªÛĮ
Ú© ÛĮÙĨØ²
ĠÙħ ÙĪØ§ÙĨ
ĠØ±ÙĨÚ¯ ÛĮÙĨ
ĠÛ±Û¹Û°Û ·
ĠÚ©Ø§Ø³Øª Ùĩ
ĠØ¢ Ø±Ø§ÙĨ
ĠØ³ÛĮ Ø³ØªÙħÛĮ
ĠØ³ÙĨ Ø³ÙĪØ±
ĠØ±ÙĤ Ø§Ø¨ØªÛĮ
ĠÙħÙĨØ¸ Ø±
ĠØ¨ÙĪÚ© Ø§ÙĨ
ĠØ§ ØªØ±
ĠØ¬Ùħ Ø¬ÙħÙĩ
ĠÙĦÛĮ ØªÙĪØ§ÙĨÛĮ
ĠÚ©ÙħÛĮ Ø§Ø¨
ĠØ®Ø¨Ø± Ú¯Ø§ÙĨ
ĠÙħØºÙĪÙĦ Ø§ÙĨ
ĠÙħÙĨØŃØµ Ø±Ø¨Ùĩ
ĠÚ©Ø¨ÛĮ Ø³Ùĩ
ĠØ¨ ØªÙĩ
ĠÙħÙĨ ÙĤØ±Ø¶
ĠÙĤÙĦ ÙħØ¯Ø§Ø¯
ĠØ§Ø±Øª Ø¯
i um
ĠÛĮÚ© ØµØ¯
ĠØ±ÙĪØŃ ÛĮÙĩ
ĠØ¨ Ø°Ø±
Û±Û³Û ²
ĠØ²ÛĮØ¨ Ø§ØªØ±ÛĮÙĨ
ĠÙĨÚ© Ø§Øª
Ġ j
ĠÚ© Ù¾Ø³
ĠÚ©Ùħ ÛĮØª
ĠÙĪØ§Ø±Ø¯ Ø§Øª
n o
ĠØ§ÛĮ ÙħÛĮÙĦ
ĠÙħÙĤ Ø§Ø·Ø¹
Ø¬Ùĩ Ø§ÙĨ
ĠØ¢Ø± ÙĨ
ĠL e
00 0
Ú© Ø§Ù¾
Ú¯ ÙĪØ±ÛĮ
ĠÙĩ ÛĮÙħ
ĠØ§ØµØ· ÙĦØ§ØŃÛĮ
ĠØ¶Ø® ÛĮÙħ
ĠÙĨÙħ Ø§
Ø´ÙĨ Ø§Ø®Øª
Û¹Û ¸Û
ĠÙħØ¹Ø±ÙĪÙģ ØªØ±ÛĮÙĨ
Ø³Ø§Ø² Ø§ÙĨ
ĠØ´Ø±ÛĮ Ø¹ØªÛĮ
ĠØ¢Ø¯Ø§Ùħ Ø²
ĠØ¢ÙĨ ÙĤØ¯Ø±
Ø¨ÙĪØ¯ ÙĨ
ĠÚ¯ÙĪ ÙĩØ±
ĠÚ¯Ø±Ø§ÙĨ Ø´
ĠÙĪØ±Ø²Ø´Ú© Ø§Ø±Ø§ÙĨ
4 0
Ú¯ ÙĨØ¬
ĠØ´ Ø§ÙĨÚ¯
Ú©Ø´ ØªÛĮ
ĠÛ±Û¹Û°Û ¶
ĠØ®Ø´Ùħ Ú¯ÛĮÙĨ
ĠÚ©Ø´ Ùħ
Ø§ÙĨØ¯ Ø±Ø§
ĠÚ©ÙĨ ÛĮØ§
ĠØŃØ¬ Ø§Ø¨
ĠØ¨ Ø®Øª
ĠØ¯Ø± ÙĪÛĮØ´
Ø² ÙħØ§ÙĨÛĮ
Ø³Øª ÛĮÚ©
ĠØ® ÙĨØ¯
Øº Ø§ÙĨÛĮ
ĠÙħØ¹ Ø§ÛĮ
ĠØ¯ÛĮØ¬ÛĮØª Ø§ÙĦÛĮ
ĠÚ© Ø¬Ø§
Ù¾ ØªÙĪÙĨ
Ø§Ø¨ ÙĪ
ĠÙĪÙĦ Ø§Ø¯ÛĮÙħÛĮØ±
ĠØ¨ Ø¯Ùĩ
ĠØ¨ ÙĪØ²
ĠÙĨØ´ ÛĮÙĨ
ĠØ±Ø§ÛĮ Ø§ÙĨ
ĠØŃÛĮ Ø«
Ġ2 0
ĠÙ¾Ø±Ø³Øª Ø´
Ø±ÙĪØ³Øª Ø§ÛĮ
ĠØŃ Ø§Øª
ĠØ¢ÙĦ Ø§Øª
ĠØªØ¹ ÙħÛĮÙħ
ĠÛ±Û³Û¶ Û³
ĠØ¨Ø§Ø² ÛĮØ§ÙģØª
ĠÛ±Û³Û´ Ûµ
ĠØ§Ù¾Ø± Ø§ÛĮ
Ð ½
ĠØ¨ Ø¬Ø§ÛĮ
ĠØ¯ Ø´ÙĪØ§Ø±ÛĮ
ĠÙħÛĮ Ú¯
ĠØ¹ Ø§Ø¬
ĠÛĮ Ú¯Ø§ÙĨÙĩ
ĠÙģÙĪØª Ø³Ø§ÙĦ
ĠØ¯ÛĮØ² ÙĨÛĮ
Ø± Ø§Ø¨Ø±Øª
Ú© Ø¨ÛĮØ±
ĠÙħØ¹ ÙĨØ§ÛĮÛĮ
ĠÙĨØ¨ÙĪØ¯ ÙĨ
ĠØ§ØªÙĩØ§Ùħ Ø§Øª
C l
ĠØ§ ÙĪÛĮÙĦ
ĠØµ Ø¯ÛĮ
ĠÙħÙĩ ÛĮ
ĠÙĨØ¸Ø± Ø³ÙĨØ¬ÛĮ
ĠÚ¯Ø´ Ø§ÛĮØ´
ĠØ³Ø§ÙĨØ³ ÙĪØ±
ĠÙĨ Ø±Ø³Ø§ÙĨØ¯
ĠØ® ÙĪÚ©
ĠÚĨØ´Ùħ Ú¯ÛĮØ±
ĠØ²Ø±Ùĩ ÛĮ
ĠØ®Ø¯Ùħ Ø§ØªÛĮ
ĠÚ©Ø§Ø± ÙĩØ§ÛĮÛĮ
ĠÚ©Ø± ÙĪÛĮ
Ø³Ø± Ø¯Ùĩ
ĠØ¯Ø³ØªØ§ÙĪØ± Ø¯ÙĩØ§ÛĮ
ÙĪØ± Ø¯ÙĩØ§ÛĮ
ĠØ¨Ø± Ù¾Ø§ÛĮÛĮ
Ø§Ø±ÛĮ Ø³Øª
Ø¢ ÙģØ±ÛĮÙĨÛĮ
ĠÙħØ´ Ø§ÙĩÛĮØ±
ÙĪÙĩ ÛĮ
ĠØ±Ø§Ùĩ Ù¾ÛĮÙħØ§ÛĮÛĮ
Ø²Ø§ÛĮ ÙĨØ¯Ùĩ
ĠØ§Úĺ Ø¯ÙĩØ§
ĠÙĨ Ú¯Ø§ÙĩÛĮ
ÚĨ Ø§
ĠØŃ ÙĨ
ĠÙĪØ¨ ÙĦØ§Ú¯
ĠØ¬ÛĮØ± ÙģØª
Ø± ÙĪØ§ÙĨ
Ø³ÛĮ ØªÙĩ
ĠØ§ÙĨØª ÙĩØ§
ĠÙħØŃØ¯ ÙĪØ¯ÛĮ
ĠØªÙĩØ§Ø¬ ÙħÛĮ
ĠÙģØ§Ø¶ÙĦ Ø§Ø¨
C P
r os
Ø´Ú© Ø±
ĠØ³ÙģØ± ÙĨØ§ÙħÙĩ
ĠÙĦÛĮÙĨ Ú©
Ñ Ģ
Ø±ÛĮÚ© Ø³
ĠØ§Ø³Ù¾ ÙĪØ±Øª
ĠØªØ±Ø¨ Øª
ĠØŃ Ø¨
ĠÙħØ³ ÙĪ
ĠØ§ÙĦÙĩÛĮ Ø§Øª
M S
ĠÚ©Ø´ÙĪØ± Ø´
ĠÙĨÙĪ Ú©ÙĦ
Ú©ÙĪ ÙĪØ±
ĠØ¯Ùģ Ø§ØªØ±
ĠÙ¾ÙĨØ§Ùĩ ÙĨØ¯Ùĩ
ĠÙĨ Ù¾Ø°ÛĮØ±ÙģØª
Ø§Ùħ Ø²
Ø¶ Ø§Ø±
ĠÛĮ Ø§Ø¨ÛĮ
Ø§Ø¦ ÙĪØ³
ĠØ³ÙĨÚ¯ ÛĮÙĨÛĮ
ĠØ¨Ø§Øº Ø§Øª
ĠØ§Ø¶Ø·Ø± Ø§Ø¨
Ø²ÛĮ Ø§ÙĨ
ĠÙ¾Ø±ÙĪ Ø³Ùĩ
ĠÙħØ§ÙĨØ¯ ÙĨØ¯
ĠÙĨØ§Ú© Ø§Ùħ
Ø¨Ø§ÙĤ Ø±
ĠØ§ÛĮ ÙĪ
Ø§Ø¨Ø± Ø§ÙĩÛĮÙħ
Ø·ÙĦ Ø¨Ø§ÙĨ
ĠÙ¾Øª Ø§Ø³ÛĮÙħ
Ùħ ÙĪØ´
ÙĤ Ø§Ùħ
ĠØº Ø±ÛĮ
ĠÙħÙĩ Ø±Ø¯Ø§Ø¯
Ú©ÛĮ Ø§ÙĨ
ĠØ®ÙĪØ´ ÙĨÙĪÛĮØ³ÛĮ
ĠØªØ¯Ø±ÛĮ Ø¬ÛĮ
Øª Ø³Ùĩ
Ø² ÙĪØ±
ĠØ§Ø³ Ø±Ø§ÛĮ
ĠÛ±Û¹Û°Û ´
Ġ *
ĠØ§Ú© ÙĪØ§Ø¯ÙĪØ±
Ø³Øª ÙĤÛĮÙħ
ĠÙģØ± ÙħØª
ĠØ¯ Ø§ÛĮÛĮ
ĠÙĦ Ø§Ù¾
ĠÚ¯Ø± Ø§Ø¯
ĠØ¹Ùħ ÙĪÛĮ
ĠÛ¸Û ¹Û
ĠÚ©Ø§Ø³ Ùĩ
ĠÚĨÙĦ Ø³ÛĮ
Ø¬Ø§ÙĨ Ø¨Ùĩ
Ø¨ Ø²
Ú¯Ø±Ø¯ Ø§ÙĨÛĮ
ĠØ¨Ø¯ ØªØ±ÛĮÙĨ
ĠØŃØ³ÛĮÙĨ ÛĮÙĩ
ĠÙģÛĮØ±ÙĪØ² Ø¢Ø¨Ø§Ø¯
ĠÙ¾Ø§Ø±Ø§ÙħØªØ± ÙĩØ§ÛĮ
ĠØ§Ø¸Ùĩ Ø§Ø±Ø§Øª
ĠÚ© Ø±Ø§ÙĨ
ĠÙĩ ÙĪØ´ÛĮ
ÙħÛĮØ± Ø²Ø§
ĠØ§Ø³ØªÙĪØ¯ÛĮ ÙĪÛĮ
Ø± Ø³Øª
ĠØ³Ø± Ø´Ø§Ø±
ĠØ§Ø± Ø³ÙĦØ§ÙĨ
ĠÛ±Û² Û°Û°
ĠØªØ§Ø¨ Ø¹ÛĮØª
ĠØªØ´ Ø±ÛĮÙģ
ĠÛ±Û³Û¶ Û¶
ĠÛ±Û¹Û°Û ¹
ĠØ³ Ú©Ø§ÙĨ
ĠØ³ ØªÙħ
ĠØ§ÛĮ ÙħÙĨ
ĠØ¨ Ø§ÙĩÙħ
ÙģÛĮ Ø³
Û¸Û ¸Û
ĠÙ¾Ø§Ø¯ Ø§Ø´
ĠØ®Ø¯ Ø§ØŃØ§ÙģØ¸
ĠÛ¸Û ³Û
ĠØ±Ú© ÙĪØ¯
ĠØ§ØªÙĦ ØªÛĮÚ©
ĠÚ© Ø¬
ĠØŃ Ø±ÛĮÙħ
Ø§ÙĦÛĮ Ø³ØªÛĮ
ĠØªØ± ÙĪÙħ
ic ip
ĠØ¹Ø§Ø· ÙģÛĮ
ĠØ´ÙĪÚ¯ ÙĪÙĨ
ĠØ¨ Ø´ÙħØ§Ø±
ÙĪØ± ÛĮØ§
ĠÚ¯ ÙĪÛĮØ¯
ĠØ¹ ÛĮÙĨÛĮ
ĠØªÙĦ Ú¯Ø±Ø§Ùģ
Ù¾ÛĮ ÚĨÛĮ
ĠÙĨØ§ÙħÙĨ Ø§Ø³Ø¨
ØªÙħ Ø§Ùħ
ĠÙħØªÙĤ Ø§Ø¹Ø¯
ĠØ§ÛĮØ¯Ø¦ ÙĪÙĦÙĪÚĺÛĮ
Ø¨ Ø§Ø´ÛĮ
ĠØ¨Ø§ ÙģÛĮ
ĠØªØ´ÛĮ Ø¹
E S
ĠØ¨ Ù¾Ø±Ø¯Ø§Ø²ÙĨØ¯
ĠØ³ÙĦ ÙĪÚ©
ĠÙħØ¹Ùħ Ø§Ø±Ø§ÙĨ
ĠÛ¹Û ¹Û
ĠØ¯ÛĮÙĪØ§Ø± ÙĩØ§
ĠØ§ØŃØªÛĮ Ø§Ø¬
ĠØ§ÙĦÚ©ØªØ±ÙĪÙħØºÙĨ Ø§Ø·ÛĮØ³ÛĮ
ĠØ§ÙĦÚ©ØªØ± ÙĪÙĨÛĮ
Ø§ÛĮØ³Øª Ú¯Ø§Ùĩ
ĠØ§Ø¹ ØªÛĮØ§Ø¯
ĠØ¬Ø§ÙĨ ÙĪØ±ÛĮ
ĠØªØ§Ø¬ Ø±
ĠÙĨØ§Øª ÙĪØ§ÙĨÛĮ
Ø³ Ú¯
ĠØ¨ÛĮ ÚĺÙĨ
ĠØ§Ø®ØªÛĮ Ø§Ø±Ø§Øª
I D
Ġ al
ĠØ§ÛĮ ÛĮ
Ø§Ø¦ ÙĦÛĮ
Ġ1 5
Ø¢Ùħ ÛĮØ²ÛĮ
ĠØ³ ÙĪÙĤ
Ø§Ø¯ Ø±ÛĮ
ĠÙģ Ø²Ø§ÛĮÙĨØ¯Ùĩ
Ø· Ø¨ÙĤ
Ø¨Ø§Ø¨ Ú©
ak e
ĠÙĤØ±ÙĤ ÛĮØ²
ĠÙħØ¹ÛĮ Ø§Ø±ÙĩØ§ÛĮ
Ġ &
ĠØª Ø§ØªÛĮ
ÙĨØ¯ ÙĪØ±Ùģ
ĠÙģØ±Ø§ÙĨ Ø³ÛĮØ³Ú©ÙĪ
ĠØ¯Ø±Ø¢ ÙĪØ±Ø¯Ùĩ
ul t
ĠØŃÛĮ ÙĪØ§ÙĨÛĮ
ĠÙħÚ¯ Ø³
ĠØ¹ Ø§Ø¯Øª
ĠÚ©Ø§Ùħ ÛĮÚ©Ø³
ĠCH O
ĠØ´ÙĪÙĩØ± Ø´
Ø¨ Ø§ØŃ
ĠÙ¾ÙĦ Ø§Ø³ØªÛĮÚ©ÛĮ
ĠÚ¯ÙĪ Ø¬Ùĩ
m a
ĠØ³ÛĮ Ø¨Ø±ÛĮ
Ú©ÙĨØ¯ ÛĮ
or ld
ĠØ®ÛĮ Ø§Ùħ
ĠL a
Øª Ø³Ø§
ĠØ¨ ÙĪÚ¯
ĠØ®ÙĪØ¯ ÛĮ
ĠÙħÙĦ Ø§ÛĮØ±
ĠÙĤÙĦ ÙħØ±
ĠØ³Ø¹ Ø§Ø¯Øª
ĠÛĮØ²Ø¯ Ú¯Ø±Ø¯
ĠØŃØªÙħ Ø§
ĠØ§Ø´ Ø¨Ø§Ø¹
ĠÙĨÙĤ ÙĪØ´
ĠØ¨Ø§Øº ÛĮ
ĠÙĪÛĮÙĦ ÙĩÙĦÙħ
ĠÙ¾ÛĮØ´Ú¯Ø§Ùħ Ø§ÙĨ
ĠÚ¯ Ø§ÙĨ
ĠØ§ÙĪ Ù¾
Ġ" (
ĠÙĨØ§Ø´ÙĨ Ø§Ø³
ÙĪ Ø¢ÙħØ¯
Ø¢ Ú©ØªÙĪØ±
ÙĬ Ø±
ĠØªÙģ ÙĦÛĮØ³
ĠÚ©Ø±ÛĮ Ø³ÙħØ³
ĠÚ©Ø§Ø² Ø±ÙĪÙĨ
Ùħ Ø¤
ĠØ³ ÙĦÛĮÙħ
ĠÚ¯Ø± Ø§ÛĮ
ĠÙĩØ¬ Ø¯Ùĩ
ÙĪØ±Ø² Ø´Ú¯Ø§Ùĩ
Ø¨ Ø§Ú©
ĠÙħÙĨ Ú¯
ÙĨÚ¯ Ø§ÙĨ
Ø´ÙĨ Ø§ÙĦ
Ø§Ø³ÛĮ Ø³
ĠØªØŃ ÙħÛĮÙĦ
ĠÙĨÚ¯ Ø§Ø±ÛĮ
ÙħØ§ÛĮ Ú©ÙĦ
Ùħ ÛĮØ²
ĠÚ© Ø§Ø¯Ø±
ÙĪÚ© Ø³ÛĮ
ĠÚ©Ø§Ùħ ÛĮÚ©
ÙħØŃ ÙħÙĪØ¯
ĠÙĨÙħØ§Ø¯ ÛĮÙĨ
ĠÙħØ±Ø¨ÛĮ Ú¯Ø±ÛĮ
ĠÙĨ Ú¯Ø±ÙģØªÙĩ
ĠØ³Ø§ÙĦ Ø§Ø±
ĠØ¨ÙĦ Ø§
ĠI s
ĠÚ©Ø§Ù¾ ÙĪØ±
ĠÚ¯Ø±ÛĮÙĨ ÙĪÛĮÚĨ
Øª Ø¹Ø¯Ø§Ø¯
ÙĪØ³ Ø§ÙĨ
ĠØ§Ø¹ Øª
ĠÙĨØ¨Ø±Ø¯ ÛĮ
ĠÚ¯ ÙĪØ±Ú©
ĠØ§ÙĨ ØªØ±
ĠØ¹ÙĦ ÙħØ§
Ú©Ø§Ø± Ø§
ĠÙģØ±Ø§ÙĨÚ© ÙģÙĪØ±Øª
ĠÙ¾Ø´ØªÛĮ Ø¨Ø§ÙĨ
ĠØ¯ Ø³ØªØ§ÙĨ
ĠØ± Ø§Ø´
ĠØ§ ÙĪØ±ÛĮ
Ø¢ Ø³ÛĮ
ĠØ§ÙģØ± Ø§Ø·ÛĮ
ĠÙ¾ ÙĨÛĮ
ĠØ¬ ÙĪÛĮÛĮ
ĠØ¯Ø³Øª ÙħØ²Ø¯
ĠØ¨Ø²Ø±Ú¯ Ø¯Ø§Ø´Øª
ĠÛ±Û¸Û ¹Û°
Øª ÙĨÙĩ
ÛĮÙĨ Ø§ÙħÙĩ
ĠØ³ÙĦ Ø§Ùħ
ĠÛ±Û° Ûµ
ĠÙģÙĪÙĦ Ø§Ø¯ÛĮ
ĠØ¨Ø±Ø³ ÙĨØ¯
E R
ĠÙ¾Ø±ÙĪØ§Ø² Ø´
ĠØ³ÙĪØ³ÛĮ Ø§ÙĦ
ĠØ³ÙĪØ² Ø§ÙĨ
A M
ĠØ³ÙĪ Ø§Ø±Ùĩ
ĠÙħÚ© ØªÙĪØ¨
ĠØ¯Ø§Ùħ ÙĨ
ĠØ±Ø¨ÛĮ Ø¹
ÙĪØ± Ø³
ĠÙħØŃÙħØ¯ ØªÙĤÛĮ
ĠØªØ§ÛĮ Ùħ
ĠØ¨Ø±Ùĩ ÙĨÙĩ
ĠØ§ÛĮØ³ÙĦ ÙĨØ¯
ĠÙĪ Ø§ØªØ±
Ø¨ Ø³ÛĮ
ĠÙģÙĤ Ø¯Ø§ÙĨ
ĠÚĨÙĨÚ¯ ÛĮØ²
Ù ł
Ø¯ ÙĪÙĦØª
ĠØ± Ø§ÛĮØ´
ĠØ² Ø§ÙĨÙĪ
Ø¶ ÙĪÛĮ
ĠÙģØ± Ø¶ÛĮ
ØŁ Â»
ĠØ¹Ùģ ÙĪ
ĠÙĪØ§Ú© Ø³ÙĨ
ÙħØ¯Ø± Ø³Ùĩ
Ø¢Ø®Ø± ÛĮÙĨ
Ø¯ Ø±Ø¨
ĠÙħØ¹ Ø§Ø´
ĠÚ©Ø±Ø¯Ùĩ Ø§
ĠÚ©ÙĦ ÙĪØ¯
ĠØ®ÙĪØ¯Ø±ÙĪ ÙĩØ§
ĠØ§Ø±ØªÙĤ Ø§ÛĮ
ĠÙ¾ÛĮÙĨ Ú©
T P
ĠØ¨ÙĦ ÙĪØ·
ĠØ¢Ø´ ÙĪØ¨
ĠØ§Ø³ÙħØ§Ø¹ÛĮ ÙĦÛĮ
A N
p p
ĠÙħØ³ Ø¬
Û³ Û°Û°
ĠØ¯Ø¹ Ø§
Ø® ÙĨØ¯
ĠÙĨÙĪ Ø¨Ùĩ
ĠÙħÙĩ Ø§Ø¨Ø§Ø¯
ĠÙĨØ³ Ø¨ÛĮØª
ØºÛĮ Ø§ÙĨ
ÙĪÚ¯ Ø§ÙĪØ§
ĠØ¢ Ø¬Ø±ÛĮ
ĠÙģØ±Ø¯ Ø§
ĠØµÙģ Ø§Øª
ÙħÙĨØ¸ ÙĪØ±
ĠÙħ Ú©Ø³
Ø§Ø³ ÙĪÛĮ
ĠÙħÙĨ Ø§Ø¸
ØªÙĪØ§ÙĨ Ø³ØªÙĩ
ØŃÙħ ÛĮØ¯
ĠÙĨÛĮ ØªØ±
ĠÚ¯ÙĦ Ø®Ø§ÙĨÙĩ
ĠØµÙģ ÙĪÛĮØ§ÙĨ
ĠÙĨØ¯Ø§Ø´Øª ÙĨ
ĠÙĪÙĨ Ú©ÙĪÙĪØ±
ĠØ´Ø§Ø± Úĺ
ÙĤ Ø±Ùħ
Û±Û ¸Ûµ
Ø¨ÙĦ Ø§Ø³Øª
ØºØ± ÙĦ
ĠØ±ØµØ¯ Ø®Ø§ÙĨÙĩ
ĠÙħÙĪ ÙĩØ§ÛĮ
ĠØ§Ø¨ ÙĦ
ĠØ« ÙĦ
ĠØµØŃ Ø±Ø§
ĠÛ±Û³Û³Û ·
ĠØ¢ÙĦÛĮØ§Úĺ ÙĩØ§ÛĮ
ĠÙĨØ±Ø³ÛĮ Ø¯Ùĩ
Ø£ Øª
ĠÙģØ±Ø¯ ÛĮÙĨ
ĠØ¯Ø§Ø± Ø§Ø¨
ĠÙ¾Ø± Ø²
ĠØ²ÛĮ Ú¯
ĠØ¨ÙĦ ÙĪØ±ÛĮ
ĠØ¨ÛĮØ± Ø¬ÙĨØ¯
ĠØ³ÛĮÙħ Ø±Øº
ĠØ¹Ø² Øª
ĠØ±Ú©ÙĪØ±Ø¯ Ø²
ĠÚ¯Ø³ Ø³ØªÙĩ
ĠØ¹Ø§ÙħÛĮ Ø§ÙĨÙĩ
Ø³Øª Ø§Ø±Ùĩ
Ø±Ø§ÙĨ Ú¯
ĠÙ¾Ø± Ø³ÛĮ
ĠØ¨Ø¯ÙĨ Ø¨Ø§ÙĦ
ĠÙģØ³Ùģ Ø§Øª
ĠØ§ÙĪØ¨ Ø§ÙħØ§
ĠÙħØ® ØªØ±
ĠØ¨Ø±Ø¬ Ø§ÛĮ
ĠØ¹Ø¨Ø¯Ø§ÙĦ Ø¹Ø²ÛĮØ²
Ø¸ Ø§Øª
ĠØªØºÛĮ ÛĮØ±ÛĮ
ĠÙħØ¨ Ø§ÙĨÛĮ
ĠD e
ĠÙĨØ§ÙħÙĪÙģ ÙĤ
Ø§ÙĦ Ú©ØªØ±
ĠÚĨ ÙĨØ§Ø±
ĠØ¨Ø§Ø´Ú¯Ø§Ùĩ ÛĮ
Ø³Ø± Ø¹Øª
ĠÙ¾ÙĪØ´ Ø§ÙĨØ¯Ùĩ
ĠØ±ØŃ ÙħØª
ĠØ¯ÙħØ§ ÙĪÙĨØ¯
ĠÙĪ Ø§ÙĦØ¯
ĠØ¯Ø± Ø¨Ø§Ø±ÛĮ
ĠØ³ Ø§Ø±Ø¯
ĠØ¬ Ùģ
ĠØ¢ÙĨ ÙĩØ§Ø³Øª
Ø§ÙĤ Øª
ĠÙĨÙħ Ø§Ø¯ÙĩØ§ÛĮ
ÙĪÚ© Ø§ÙĨ
ÙģÛĮ ÙĤÛĮ
ÙħØ¹ Ø§Ø±Ùģ
ĠÙ¾ ÙĪÛĮ
Ø¢ ÙĨÛĮ
ĠÙħÛĮØ§ÙĨ Ø¬ÛĮ
ĠÛ²Ûµ Û°Û°
ÙĨÙħ ÙĪÙĨÙĩ
ĠÙĦÛĮÙĨ Ú©ÙĦÙĨ
ĠÙĪÙģ Ø§Ø¯Ø§Ø±ÛĮ
ĠØ§ÛĮØ¯ Ø²
ĠØ²Ø§Ø¯Ú¯Ø§Ùĩ Ø´
ĠÙĩØ§ÛĮØ¯ ÙĦØ¨Ø±Ú¯
ĠTown ship
Ø§ÙĪ ÙĪØ³
ÙĬ Ø¯
ĠÙĨØ§Ø± ÙĨØ¬ÛĮ
Ù¾Ø§ÛĮ Ú¯Ø§Ùĩ
ĠØ§ÙĨÙĤØ¨ Ø§Ø¶
Ġ _
Ø¯ Ø§ÙĨÛĮÙħ
Ø³Øª ÙĨØ¯
ĠÙħØª ÙĨÛĮ
ĠÚ©Ø§ÙĨ ØªÛĮ
Ø¨ÙĦ Ø§Øº
ĠØªÙĨÚ© Ø§Ø¨ÙĨ
Ú© Ø¨
ĠØ¨ Ø¨Ø±ÙĨØ¯
ØŃ Ø²Ø¨
ĠØ§ÙĨ Ø¯ÛĮ
ĠÛ±Û³Û³Û µ
ĠØ§ÛĮØ² ÙĪ
ĠÙħØ´ Ú©ÙĦÛĮ
ĠÙ¾Ø± ÙĨØ³
ĠÛ±Û³ Û°Û°
ĠÙĨÙĪØ²Ø§Ø¯ Ø§ÙĨ
ĠÙħØ´Ú© ÙĪÚ©
ĠÙ¾Ø± Ø³ÙĨ
ĠØ¬Ø§Ø¨ Ø¬Ø§
ĠÙħ ÙĪÙĦØ¯
ĠØ³ Ø³
ĠØ¨Ø§Ø² Ù¾Ø³
ĠØ¨ÙĨ ÙģØ´
ĠØ³Ùģ Ø±ÛĮ
A R
Øª Ø§Ø¬
ĠØ¨ Ø§ÙĨÙĪ
ÙĨØ¯ Ø§
ÙģØ± Ø¶
ĠÙħØŃ ØµÙĪØ±
ĠØ§Ùģ Ø²Ø§Ø±
ĠØ¹Ø¨ Ø§Ø¯Øª
ic s
ĠØªØ¯ Ø§Ø®ÙĦ
I P
ĠÙħ ÙĪØ±Øª
ĠØ± ÙĨÙĪ
ĠÙħÛĮ Ú©ÙĨÙĨØ¯
Ø±Ú© Ùĩ
ou nd
ĠØ§Ø¹ØªÙĤØ§Ø¯ Ø§Øª
ĠØ¹ÙĩØ¯ ÙĨØ§ÙħÙĩ
Ð µ
Ùħ ÛĮØ¯Ø§ÙĨ
ÛĮØ± ÙĪØ§ÙĨ
ĠØ³Ø± Ø§ÙħÛĮÚ©
ĠÙħØ§ÛĮ Ø¹Ø§Øª
Ø´Ø¨ Ú©Ùĩ
ĠØ±Ø¬ Ø¨
h am
ĠØª Ø´ÙĨ
ĠÙ¾ Ø§ÙĨÚ©
ĠØ¹ Ø²Ø§Ø¯
ĠØ¯ÙĪ Ø¨ÙĦ
ĠØ²Ø¨Ø§ÙĨ ÙĩØ§ÛĮ
ĠÙ¾Ø§Ø¯ Ú¯Ø§ÙĨ
ĠÙħÙĪÙĦ ÙĪÛĮ
ĠÙħÙĤØ¯ ÙĪÙĨÛĮÙĩ
ĠÚ©ÙĨÚ¯ ÙĪ
ĠØ¢ÙĦÛĮ Ø³
ÙħØ±Ø¯ Ø§ÙĨ
ÙħÙĪØ³ÛĮ ÙĤÛĮ
ĠØ³ ÙĪÛĮÛĮ
ĠÙ¾ Ø§Ø±ÛĮ
ÙģØ§Ø¹ ÛĮ
ĠØ¯Ø§ÙĨÙħØ§Ø±Ú© ÛĮ
Ùħ Ø¨Ùĩ
ĠØ· ÙĪØ³ÛĮ
ĠÙĦÛĮ ÙĦØ§
ĠÚ¯ÙĦ Ù¾Ø§ÛĮ
ĠØµØ§Ø¯ ÙĤÛĮ
ÙĪ Ø§ÙĤØ¹
ĠØ´Ø¯ ÛĮØ¯Ø§
ÙĦÙĪ Ùģ
ĠÙħØ§Ú© Ø±ÙĪ
ĠØ´ Ø§Ù¾
ÙħÛĮ Ø³
ĠÚ©ÙĦ Ø§ÛĮÙĨ
ĠØ§ÙĤ ÙĦÛĮØ¯
ĠÙ¾Ø±ÙĪØª Ø³ØªØ§ÙĨ
ĠÙĨØ§Ø± Ø³Ø§ÛĮÛĮ
ĠÙ¾ØªØ± Ø²Ø¨ÙĪØ±Ú¯
ĠØªØ¹Ø·ÛĮÙĦ Ø§Øª
ĠØ³Ø§Ø¹ Ø§Øª
Ġ ×
Ùħ Ø§Ø¬
ĠØ´ÙĩØ± Ø³Ø§Ø²ÛĮ
ĠS an
Ø±ÙģØª ÙĨØ¯
ĠØ¹ÙĪ Ø§Ùħ
ĠØ§ØµØ·ÙĦØ§ØŃ Ø§
ĠØ±Ø§Ø¬ Ø±
I V
Ġ ÙĲ
ĠØª Ø¯Ø§
Ø³Øª ÙĪ
ĠÙĦ Ø§ÙĪ
Ø²ÛĮ Ø³ØªÛĮ
ĠÙħÙĤ Ø¯ÙħØ§Øª
ĠØ¹Ø¨Ø¯Ø§ÙĦØ±ØŃ ÙħÙĨ
ĠØ§Ø³ÙģÙĨØ¯ÛĮ Ø§Ø±
ĠØ¨ Ø§Ø±Ú©
ĠØ¨Ø± ÛĮØ¯Ùĩ
Ø§Øª Ø±Ø§
ĠÙĤØ±Ø§Ø± Ú¯ÛĮØ±ÛĮ
ĠÙĩÙĪ Ø§Ø´ÙĨØ§Ø³ÛĮ
ĠÚ©ÛĮ ÙģÛĮ
Ø·ÛĮ Ùģ
ĠÙĪØ¨ Ø³Ø§ÛĮØª
ĠÙĤØ² ÙĦ
ĠØ¬Ø§Ø¯ ÙĪÛĮÛĮ
Øª ÛĮÚ©ÛĮ
Ø³ ÙģØ±
ĠÙĩÙħ Ú¯Ø§ÙĨ
ĠØ´Ú© ÙĪÙģ
ĠØ®Ø± Ø¬
ĠH e
ĠÙħØ§Ø±Ú© Ø³ÛĮ
Ø± Ø§Ø³Øª
ĠÙĪ Ø±Ùħ
Ú¯ ÙĪÙĦ
Ø³Øª ÙĪÙĦ
ĠØ¬ ÙĪØ¯
ĠØŃ Ø§ÙħØ¯
ĠÙ¾ÛĮØ± Ø§ÙĨ
ĠÛ±Û¸Û¹Û ¶
ĠÙĨÙĩØ§ ÙĪÙĨØ¯
2 9
ĠØ§Ùħ Ø§Ø±Øª
ĠÙħØ§Ùĩ Ø±
Ø¬ ÛĮØ±
ĠØ§Ø± Øº
ĠØªØŃ Ø±Ú©
Ø´ÛĮ Ø±ÛĮ
ĠØ¨Ú©Ø§Ø± Ú¯ÛĮØ±ÛĮ
ĠØ¹Ø§Ø± Ø¶Ùĩ
Ø¯ Ø±ÙĪ
Ø§ÙĦ ÛĮÙħ
ĠÙħÛĮ Ø±ØŃ
ĠÙĩ Ø§Ú©
ĠØ¬ Ø¨Ø±ÛĮ
ĠÚ¯ Ø§Ø¨Ø±ÛĮ
ĠØ´Ø± Ø¹ÛĮ
ÙĦÙĪ Ø¹
ĠÙħÙĦ ÙĪØ¯ÛĮ
ĠØ¢Ø± Ø§Ø¡
Ø·Ø¨ÛĮ Ø¹ÛĮ
ĠØ§ÙĨØ¯Ø§Ø®Øª ÙĨ
ĠÙĤÙĪØ± Ø¨Ø§ØºÙĩ
ĠÙĤ Ùģ
ÙĪØ¦ Ø±
Ø³ÙĦ Ø±
ĠØ§Ø³Ú© Ø§ÛĮ
Ú¯ÙĪÛĮ ÛĮÙħ
ĠÙ¾Ø±ÙĪØ§Ø² ÙĩØ§ÛĮ
ct ion
ĠÙĩØ±Ø² Ú¯ÙĪÛĮÙĨ
ĠØ¯ÛĮÙģØ±Ø§ÙĨ Ø³ÛĮÙĦ
Ú© Ø¯
ĠØ§ÙĨ ÙĪØ´
ÛĮÙĨÛĮ Ø§ÙĨ
ĠÚ©Ø§ÙĦ Ø§ÛĮ
ĠÙĩØ§Ø± ÙĪÙĨ
ĠÚ¯ÙĨØ¬ ÛĮÙĨÙĩ
ĠÙģØ±Ø³ Ø§ÛĮØ´
ĠØªØ¨ÛĮ ÛĮÙĨ
ĠÙģ ØµÙĪÙĦ
ĠØ§ÙĦ ÙħÙĦÚ©
ÙĪØ² ÛĮÙĨ
ĠØ±ÙĪØ´ ÙĨÛĮ
ĠØ´ÙĩØ±ÙĪÙĨØ¯ ÛĮ
ĠÙħØ¯ÛĮØ±ÛĮ ØªÛĮ
ĠØ§ÙģÙĦØ§Ø· ÙĪÙĨ
ð Ĳ
Ùĩ ÙĪÙĦ
ĠÙĨ Ø±Ø³ÛĮØ¯
ĠØ§ØŃ Ø³Ø§ÙĨ
ĠS p
Ġd istrict
ĠÙħØ¹ØªØ± Ø¶
Ú© ÙĪÙ¾
ĠÙĦÛĮ ÙĪÙĨ
ĠÙĪÙĦ ÛĮÚ©ÙĨ
ĠØ¹ÙħØ± Ø´
ĠÚ¯ÙĪØ§Ùĩ ÛĮÙĨØ§ÙħÙĩ
t o
à ¸
ĠØ³ Ø§ÙħÛĮ
ĠØ§Ø³ ÙģØ±
ÙģÛĮ Ø¹
ĠØ¯ÙĦ Ø§ÛĮÙĦÛĮ
ĠÛ±Û³Û³Û ¶
ĠØ¨ÛĮÚ© Ø§Ø±ÛĮ
ĠØ¨Ùĩ Ø²Ø§Ø¯
ĠÛ¹ Û°Û°
ĠØªÙĪØ± ÛĮÙĨ
ou s
ĠØ¢ Ø´Ú©
ĠØ§ÙĦ Ø³ÙĦØ·ÙĨÙĩ
ĠÙħØªØ± Ø§Ú©Ùħ
Ø³ Ø±Ø¯
Ú¯ Ø§Ø±Ø¯
ĠØ¬ÙĪ Ø¬Ùĩ
ĠÛĮÙĪ ÙĪÙĨØªÙĪØ³
ĠÛĮ Ø§Ø¨ÙĨØ¯
ĠØ¨ÛĮ Ø¶Ø§ÛĮÛĮ
ĠÙħØ· ÙĩØ±ÛĮ
ĠÙĪØ± Ø´ÙĪ
ĠÙ¾ÛĮÚ© Ø§ÙĨ
ĠÙħØŃØ± ÙħØ§ÙĨÙĩ
ÙĪÙħ Ø§Øª
Ø§Ø¦ Ø±
ĠÚ¯Ø±Ø¯ ÙĨØ¯
ĠØ³Ú© ÙĪÛĮ
Ø®ÙĪØ§Ùĩ Ø§ÙĨ
ĠØ¨ÙĪØ±Ú© ÛĮÙĨØ§Ùģ
7 0
ÙĦÛĮ ÙĪÙĨ
ÚĨ Ø§ÙĦÙĩ
Ø¦ ÙĦ
ĠÛĮÙĪÙĨ Ú¯
ĠÛ±Û³Û´ Û³
ĠØªØ§ÛĮ Ù¾
Ú¯ÙĪØ± Ø³ØªØ§ÙĨ
ĠÙħØ´Ø±ÙĪØ· ÛĮØª
g h
Î ±
Ø¨ ÙĪØ³
Ø¹ ÙĪØ¯ÛĮ
Ø§Ùĩ Ø¯ÛĮ
Ø§ÛĮÛĮ Ø§ÙĨ
ĠÙħÙĨ Ø§Ø±Ùĩ
ÙĨØ¬ Ø±
ĠÙĨØ¯ Ø§Ø¯Ùĩ
ĠÚ©Ø§ÙĦ Ø§ÙĩØ§
ĠØªÙĪÙħ ÙĪØ±
ĠÙħØ³ØªÙħ Ø±
ÙĨ Ùģ
Ø§Ø± Ø¬
ĠØ¨Ø±ÛĮØª ÛĮØ´
ĠÙħØ° Ø§ÙĩØ¨
ĠØ¢Ø¯ ÙĪÙĦÙģ
ĠØ±Ø¬ Ø§ÙĦ
ĠØ¨Ø§ ÙģØªÙĩ
ĠØº Ø§ÙģÙĦ
ĠØ¹ÙĦ ÙĨÛĮ
Ú¯Ø° Ø±Ø§ÙĨØ¯
ĠÙħØ« Ø¨ØªÛĮ
ĠØ¬ÙĪ ÙĩØ±
ĠØ¯Ø±Ø¨Ø± Ú¯ÛĮØ±ÙĨØ¯Ùĩ
ĠØ¢ ÙĪÛĮØ²
ĠØŃ Ø¨Ø§Ø¨
ĠÙĩØ± Ú¯Ø§Ùĩ
ĠØ§ÙĨØª ØµØ§Ø¨
Ø§Ø¨ Ø§
ĠÚ©Ø§ÙĨ Øª
ĠØ¢Ø® ÙĪÙĨØ¯
Ùĩ ÙħØ§ÙĨ
Ø´ Ú©ÙĨ
ĠØ±ÙĪÛĮ Ø§Ø±
ÙĤØ± Ø§Ø·
ĠØ¹Ø¶ ÙĦÙĩ
A r
ĠÙħØ± ÙħØ±
ĠØ³ÙĪØ² ÙĨ
ĠÙħØªØ£ Ø«Ø±
Ùĩ ÙģØª
ĠÙĪ Ø±Ø³
Ø¹ Ø´ÙĤ
ÙĪÙĦ ÛĮÙĨÛĮ
ÙĪÙħ Ø±ÛĮ
ĠØªÚ© Ø§ÙħÙĦÛĮ
ĠØ¹Ø±ÙĪ ÙĤ
ĠØ§ Ú¯Ø²
ĠÚ©Ø§Ø± Ø§Ø¦ÛĮ
ĠØ¹Ùħ Ø§Ø¯
ĠØ¨ÙĨ Ø§ÛĮÛĮ
ĠØ´Ø§ÙħÙĦ ÙĪ
ĠØºÛĮØ± Ø¹
ĠØ§Ø¬Ø±Ø§ ÙĩØ§ÛĮ
ĠÛ±Û¹Û°Û ³
ĠÛ±Û³Û² Û¹
ĠÙħØ·Ø¨ÙĪØ¹ Ø§ØªÛĮ
ÙĪ Ø§Ø³ØªÙĩ
ÙĪØ± ÛĮÚ©
ĠÛ² Û±Û°
ĠÙ¾ÛĮ ÙĪÙĨØ¯ÙĩØ§ÛĮ
ĠÙħØ¹Ø§ÙħÙĦ Ø§Øª
ĠØ¢ ÛĮÙĦÙĨØ¯
ØªØ± Ùħ
ÛĮØª Ø²
ĠÛ±Û³Û³Û ¹
ĠØ¯ÛĮØ± ÛĮÙĨÙĩ
Ø¢ÙħÙĪØ² Ø§ÙĨ
Ø³ Ø±Ø²
ĠØ§ÙĨ Ø²
ĠØ³Ø§Ø¨ÙĤ Ø§
ĠØ§ÙĨØ¯Ø± Ø³ÙĪÙĨ
ĠÙĦØ² ÙĪÙħØ§
ĠØ®Ùģ Ø§Ø´
Ø³ Ø§Ø±Ø§ÙĨ
ĠØ² Ø¦ÙĪØ³
ÙĪÙĨÛĮ Ø§ÙĨ
ĠÙħÙĦ Ø§ÛĮÙħ
en n
Ø´Ø± ÙĤÛĮ
Øµ ØŃ
ĠØªØ£ Ø«ÛĮØ±ÛĮ
ĠÚ©Ø´Ùħ Ú©Ø´
ĠÙħ Ø§Ø¨
ÛĮØ§ Ú¯ÙĪ
Ø¢ Ù¾
ĠØ§Ùģ ÙĤ
ĠØ¹Ø¨Ø¯Ø§ÙĦ ØŃØ³ÛĮÙĨ
ĠÚ¯Ø±Ø§ÙĨ Ø´ÛĮ
ĠØ§Ø³ØªØ¹ ÙģØ§ÛĮ
ĠØ´ÙģØ§Ùģ ÛĮØª
ĠÙĨ ÙĪØ±Øª
ĠØ§Ø´ ÛĮØ§
ĠÙĦÛĮ ÙĦÛĮ
ĠÛ¸Û ¸Û
ĠÙģØ±ÙĪØ´ ÙĨØ¯Ùĩ
ĠÛ±Û¹Û°Û ±
Ø¢ÙħØ¯ ÙĨØ¯
ĠØ¢Ø³Øª Ø§Ø±Ø§
Ø¨ Ø®Øª
ĠØ§Ø³Øª Ùģ
Ø¬ Ø´ÙĨ
Ø§Ø³ ÛĮØ§
ĠØ§ÙĨ Ø´Ø¹
ĠÙĨÙĪ Ø§Ø¯Ø§
ĠØªØ± ÙħÛĮÙĨ
ĠØ±Ø³Ø§ÙĨØ¯ ÙĨØ¯
ĠÙĩÙħ ÛĮÙĦØªÙĪÙĨ
ĠÙħØª Ø¹ÙĩØ¯
ĠØ¨ Ø¨ÛĮÙĨØ¯
ĠØ§ÛĮ Ùĩ
ĠÙĩ ÙĦÛĮ
ĠØ´Ø± Ø·ÛĮ
ĠØ³ÛĮÙĦ ÙĪØ§
ĠØ§Ø³ÙĦÙĪ ÙĪÙĨÛĮ
ÙģØª ØŃ
ØªØ´ Ø§ÙĨ
ĠØ³ÙĪ Ø§Ø¨ÙĤ
ĠØ¢Ùĩ Ø³ØªÙĩ
C O
ĠÚ¯ ÙĨÙĪ
ÙĪÙģ ÙĨ
ĠÙĤØ² ÙĪÛĮÙĨÛĮ
ĠØ¯Ú¯Ø± Ú¯ÙĪÙĨ
ĠØ¯ ÙĪÙĨØ¯Ùĩ
ÛĮÚ© ÙĪÙ¾
ĠÚ¯ ÙĪÙħ
ĠÙħØ¯ Ø§Ø±ÛĮ
ĠØ§ÙĤ ÙĦÛĮÙħÛĮ
ĠÙħØµ Ø§Ø¯Ùģ
ĠØªØ¨ Ø®ÛĮØ±
ĠØŃØ¬ Øª
Ø¯ ÙĨÛĮ
ĠÚ© ÙħØ¯ÛĮÙĨ
Ø² Ø±Ø¯
ĠØ§ÙĪØ³Øª Ø§ÛĮÛĮ
ĠÙģÛĮØ´ Ø±
Ġ Å
ÙĨ Ø´Ø§Ùĩ
ÙĪØ¯ Ø¨ÙĦÛĮ
ĠÙ¾ Ø§ÙĪØ±
ĠØ¹ ÛĮÙĦ
Ø¯Ø§Ø± Ø§ÛĮ
Ø®ÙĪ Ø§Ø¨
ĠÙĨØ§Ø± Ø§ØŃØªÛĮ
ĠØ³ÛĮØ± Ø¬Ø§ÙĨ
ĠØ§Ø¨Ø±Ø§Ùĩ ÛĮÙħÛĮ
ĠØ¯ÛĮ ÙĪØ§Ø±ÛĮ
Ø±ÙĪØ¯ Ø§ÙĨ
Ù¾Ø± ÙĪØ±ÛĮ
Ø³ Ø§Ú©
ĠØ³ Ø§ÙĪÙĩ
ĠØª Ø§Ø®Øª
Ø· Ø§ÙĦ
ou t
ĠØ¢Ú¯ ÙĩÛĮ
y st
ĠÚ© ÛĮØ³
Ø´ Ø®Øµ
ĠØ¨Ùĩ Ø§Ø¡
ĠÙģ ÙĪØ±Ø§ÙĨ
ØŃ Ø§Ø¬ÛĮ
ÙĪØ¨ Ø±ÛĮ
ĠØ¶ ÙĦ
ĠÙħØ³Øª Ø·ÛĮÙĦ
as e
s c
Ø³ ÙħØª
ĠÚ© ÙĪØ³
ĠÚ©Ø§Ø± ÙĪÙĨ
ĠØ§Øµ Ø§Ø¨Øª
Ø§ÙĪ Ø§Ø³
ĠÙħØ° Ø§Ø¨
ĠØ¯ÙĪØ³Øª Ø´
ie w
ĠÙĦÙĪÙ¾ Ø²
Ø¬ Ø±Ø¯
ĠØ¨Ø± Ú©ÙĦÛĮ
Ø±ÙĪ Ø³ØªØ§
ĠØµ ÙĪÙģ
ĠØµØ¯ Ùģ
ĠÙĨØ¨Ø± Ø¯ÙĩØ§ÛĮ
ÙĦ Ø§Ø±
ĠÚ© ÙĪØ³Ùĩ
ĠØ± Ø¢Ú©ØªÙĪØ±
ÚĨ ÛĮØ²
ĠÙģÙĪØª Ø¨
ĠØ§ÙĤ ÙħØ§Ø±ÛĮ
Ø¯Ø§ÙĨ Ø´
Ú©Ø± Ø¯ÙĩØ§ÛĮ
ĠÙħÙĦ ÙĪØ§ÙĨ
for d
ĠØ®Ø§Ú© Ø³ØªØ±
ĠÙĤÛĮÙħ ØªÛĮ
ĠÚ© Ø§ÙģÙĩ
ĠØ± Ø§Øª
ĠØ¢ ÙģØ±ÛĮÙĨÛĮ
at a
ĠØ¨Ø±Ú©ÙĨ Ø§Ø±ÛĮ
ÙĨ ÙĪÚ©
ĠÚĨ ØªØ±
ĠØ´ÛĮØ± ÙĪØ§ÙĨ
Ø®ÙĪØ§ÙĨ ÙĨØ¯Ùĩ
ĠØ§Ø±Ø² Ø´ÛĮ
ĠÙĪØ§Ø± Ø«
8 7
l i
ĠÙĪ Ø§Ø¯
ĠØª Ø§ÙĨÚ¯
ÙĨÚ¯ Ø§Ùħ
Ø¸ Ùģ
Ø²ÛĮ ÙĦÛĮ
ĠÙħØ¬ ØªØ¨ÛĮ
ĠÙ¾Ø±ÙĪ ØªÙĪÙĨ
ĠW est
ĠØ±ÙĪØ´ÙĨ ÙģÚ©Ø±Ø§ÙĨ
B C
I T
ĠÛ±Û³Û´ Û´
ĠØ±Ø¯ÛĮ Ø§Ø¨ÛĮ
ĠØ¨Ø±ÙĨ Ø§Ø±Ø¯
Ø§Ø± Ø²Ø´
ÙĦÙģ Ø§
ĠN orth
ĠÙĨÙĪØ´Øª Ø§Ø±
ĠÙ¾ ÙĪÙħ
ĠÚĨ Ø§Ú©
ĠÙħØ®Øª ØµØ±
ĠØªØµÙħÛĮÙħ Ø§Øª
ĠÙĩÙĦ Ø§ÙĦ
Ø®ÙĪØ± Ø¯Ùĩ
ĠØ¹ÙĨÚ© Ø¨ÙĪØª
ĠØºÛĮØ±Ø¯ ÙĪÙĦØªÛĮ
ĠØ¯ ÙĦÛĮÙĦÛĮ
ÙĨÛĮ ÙĪ
il la
ĠÙ ¡Ù
ĠØªÙĨØ§Ø³ ÙĦÛĮ
ĠÚ©Ù¾Ø³ ÙĪÙĦ
ĠÙĤ ÙĨØ¯Ùĩ
ĠØ§ÙģØªØ§Ø¯ ÙĨ
Ö Ģ
Ú© ÛĮØ±
ĠØ´ Ø§ÙģØ¹ÛĮ
ØŃ Ú©
ĠØ§ØŃ Ø¶Ø§Ø±
ĠØ§Ø· Ø§Ø¹Øª
ĠØ° Ø±Øª
ĠØ®ÙĪÙĨ ÛĮÙĨ
Ø¯ ÛĮØ±
Ø§Ø² ÙĨØ¯
ĠØ¨Ø§Ø² Ø¬ÙĪÛĮÛĮ
ĠÙħØ± Ø§Ø³ÙħÛĮ
Ú¯Ø±Ø¯ Ø§ÙĨØ¯ÙĨ
ĠØ§ÛĮØ± Ø§Ø¯
ĠÙħØ§Ùĩ ÙĨØ§ÙħÙĩ
ĠÙĪØŃ ÛĮØ¯
ĠÙĨÙĪØ´Øª Ø§Ø±ÛĮ
Ø¹ Ø§Ø´
ĠÙ¾ ÙĪØª
ĠÛµ Û°Û°Û°
ar i
ĠØ¨Ø¯ÛĮ Ø¹
ĠØªØ§Ø¨ÙĦ ÙĪ
s on
ĠÙħ Ø§ÙĦØª
ĠÙĦ Ø§Ø¬
Ø³ÙĦ Ùħ
ĠØ±Ø® Ø¯Ø§Ø¯
ĠØ§ÙħÛĮØ± Ú©Ø¨ÛĮØ±
ÙħØ³ Ø§Ø¨ÙĤØ§Øª
ĠØªÙħØ¯ ÛĮØ¯
ÙĨÙģØ± Ùĩ
ĠÙħØºÙĪÙĦ Ø³ØªØ§ÙĨ
ĠÙĪ Ø³ØªØ±ÙĨ
ĠÙ¾ Ø³ØªÛĮ
Øº ÙĨÛĮ
ĠØ³Ø¨ Ú©ÛĮ
ĠÙħØ« ÙĨÙĪÛĮ
âĢį âĢį
ĠØ®Ø±Ùħ Ø´ÙĩØ±
ĠØ³ÙĩØ± Ø§Ø¨
Ùħ ÙĪÙĨØª
ÙĪÙĨÛĮ ÙĪ
ĠÛĮÙĪÙĨ ÛĮÚ©Ø³
ĠÛ±Û³Û² Û´
Û±Û¸Û ´
ĠÛĮÙĩÙĪØ¯ ÛĮØª
ĠØªØŃÙĤ ÛĮØ±
ĠØ§ÙĨØªØ² Ø§Ø¹ÛĮ
ĠÙħ Ø§Ø¦
ĠØ³ Ø§
ĠØ§Ø³ ÛĮØ¯ÛĮ
ĠØ§ÛĮØ±Ø§ÙĨ Ø´ÙĩØ±
ĠØ§ÙĦ ÙħÙĦ
ĠØ³ÛĮ Ø§Ø±
ĠÛ±Û· Û°
Ø§ÙĨØª Ø®Ø§Ø¨
ĠÙ¾ÙĨÙĩ Ø§ÙĨÛĮ
ĠÛĮÙĪØªÛĮ ÙĪØ¨
ĠØ¨ ÙĪÚ©Ø³
ĠÚ©Ø§Ø± Ú¯Ø²Ø§Ø±
ĠØ§Ø¨ ÙĩØ§Ùħ
ĠÚ©ÙĦ Ø§Ø±
ĠÚ©ÙĪ ÙģÛĮ
Øª Ø§Ú©
Ø³ ÛĮÙĨÛĮ
ĠØ³ Ø§ÛĮØ²
ĠØ· ØºØ±ÙĦ
ĠÙĦ ÙĪÚ©Ø³
ĠÛĮ ÙĪØ²
ĠØ§Øª ÙħØ³
ĠÙ¾Ø±ÙĪ Ø³Øª
ĠÙĩÛĮÚĨ Ú¯ÙĪÙĨÙĩ
ÙĪØ³ÛĮ Ø§ÙĨ
Ú©ÙĪ ÙĪ
ĠØ§Ù¾ ÛĮØ²
ĠØ±ÛĮØ² Ø´
ĠÙħÛĮÚ©Ø±ÙĪ Ø³Ú©ÙĪÙ¾
ĠÚĨÛĮ Ø³Øª
. (
S P
Ú© ÙĪÙģ
Ø§Ø±ÛĮ Ùģ
ĠØ¢Ùħ Ø§Ø²ÙĪÙĨ
ĠØ§ÙĨØª Ø§Ø±ÛĮÙĪ
ĠÚ¯ÙĦ ÙĨ
ĠV al
op h
ĠØ§ØªÙĪÙħ Ø§ØªÛĮÚ©
ĠÚĺ Ø¦
Ø§Ú¯ Ø§Ø³Ú©Ø§Ø±
ĠÙģØ´Ø§Ø± ÙĩØ§ÛĮ
p t
ĠÚĨ Ø§ÙĨ
ĠÙĩØ± Ø§Ú©
ĠØªØ± ØºÛĮØ¨
ĠÙĩÙģØª Ú¯ÛĮ
ĠÙģØ±Ø§Ø® ÙĪØ§ÙĨÛĮ
ĠÙĨØ§ÙħØ´ Ø®Øµ
iel d
ĠØ§ÙĦ Ú©ÙĦÛĮ
ĠØ§ÙĨØ¬ ÛĮØ±
ØªÙĤ Ø§ÙĦ
ĠÙĩØ§Ùħ Ø¨ÙĪØ±Ú¯
E E
Ġ âĢĮ
Ø² ÙĨØ¯Ùĩ
ĠÙħØŃ Ø±Ø§Ø¨
ĠØ¨ÛĮ Ø¬Ø§Ø±
ĠØ¹Ø¯ Ø³ÛĮ
ÙĪÙĨÚ¯ Ø§
Ù¾ÙĨ Ø§Ùĩ
ĠØ§Ùħ ÛĮÙĦÛĮ
Ø§Ú© ÛĮÙĩ
ĠÙħØ¹ ÙĦÙĤ
ĠØ±ÙĪØ¯ Ø±ÛĮ
ĠÛĮØ§Ø¯ Ø¢ÙĪØ±ÛĮ
Ġ1 6
ĠØ¯ÙĨÛĮ Ø³
ĠØ§ØªØµ Ø§ÙĦØ§Øª
ĠÚ¯Ùħ Ø´Ø¯Ùĩ
Ġ ÛĮÙĨ
ĠØ¨ ÙħØ§ÙĨÙĨØ¯
ĠØ³ ÙĤØ·
ar k
ĠØ¹ÙĨÚ© Ø¨ÙĪØªÛĮ
" "
ÙĨ Ø§Ø³
ÙĪØ³ ÙĪØ±
ĠÛ±Û³Û² Ûµ
ĠØ¨Ø±ÙĪØ¬ Ø±Ø¯ÛĮ
Ø± Ø§Ø³
ÙĤ ÙĪØª
ĠÚ¯ Ø§Øª
ĠÙĤ Ø¨Ø§ÙĦ
Ø§Ø¹ Ø¸Ùħ
ĠÚ¯Ø± ÙĨØ¯
ĠØ§Øµ ÙĪÙĦØ§
ĠØªÙĦ ÙģÛĮÙĤ
ĠØ´ÙĨ ÛĮØ¯
ĠÙħÙħÙĦ Ú©Øª
ĠØ®Ø¯Ø§ØŃØ§ÙģØ¸ ÛĮ
Ø¬ Ø§Ø±ÛĮ
ĠÙħØ· ÙĦ
om e
ĠØ®Ø±Ùħ Ø§
ĠÙĤÙĦÙħØ± ÙĪÛĮ
ĠØ¯Ø± Ú¯Ø±ÙģØª
ĠØ³ ÙģØª
ĠØªÙĪÛĮ ÙĪØªØ§
ĠØªÛĮØª Ø§ÙĨÛĮÙĪÙħ
Ø³ Ø§Ø¯
ĠØ² ÙĪ
ĠØ§ØŃ Ø³
Ø³Ø§ÙĨ ÙĨØ¯
ĠØºÛĮØ± ÙģØ¹Ø§ÙĦ
ĠÚ©ÛĮ Ø§ÙĨ
ĠÛ±Û³Û³Û ¸
ĠØ¢ ØªÛĮ
Ø¬ Ø§Ø¯Ùĩ
Ú©ÙĨ Ø´
Ú© Ùģ
ĠÙħÛĮ Ø§ÙħÛĮ
ĠÙ¾ ÙĨØª
ĠØ§ÙĪ Ø²
ĠØº Ø¯Ùĩ
ĠØº Ø¨Ø§Ø±
ĠØ¨ÛĮ Ø¹Øª
ĠÚĺ ÙĪØ²Ùģ
ĠØ¨Ø§Ø± Ú¯Ø°Ø§Ø±ÛĮ
ĠC O
ĠÙĪØ± Ø´Ú©
ĠØ³Ø§Ùħ Ø³ÙĪÙĨÚ¯
ĠØ¯ÙĪØ¯ ÙĪÛĮÛĮ
ĠÙĨÙĤØ§Ø´ Ø§ÙĨ
ĠÙĦÙĨ Ùģ
ĠØŃÙĦÙĤ ÙĪÛĮ
ĠÙ¾Ø±Ø³ÙĨ ÙĦ
ĠØª Ø·Ø§Ø¨ÙĤ
ĠÙĤ ØŃ
ĠØ² Ø¨
ĠØ´Ø§Ùĩ Ø±ÙĪØ¯
ĠØªÙĪØ± ÛĮÙĨÚ¯
ĠÙħØ±ÙĪ Ø§Ø±ÛĮØ¯
ĠÚ© Ø§Ø¬
ĠÙĩÙħ ÛĮØ´Ú¯ÛĮ
ĠÙħØ± Ø³Ø¯
ĠØ§Ø° ÛĮØª
icip ality
ĠØ¶ÙĦ Ø¹ÛĮ
Ø® Ø±Ø¯
ÚĨ ÛĮÙĦ
ĠØ±ÛĮ Ú¯Ø§ÙĨ
ĠØªÙĤ Ø±ÛĮØ¨
ĠÛ±Û±Û ¹Û
ĠØ´Ø¹Ø± ÙĩØ§ÛĮ
ĠØ§ÙĤØªØµØ§Ø¯ Ø¯Ø§ÙĨ
ĠØªÙħØ§Ø´ Ø§ÛĮ
ĠØ§ÙĤØ¯ Ø§ÙħÛĮ
2 1
Ø±ÛĮÚ© ÙĪ
ĠØ§ØŃ Ø§Ø¯ÛĮ
Ø§Ú©ÛĮ Ø§ÙĨ
ĠØ§Ø¯Ø± Ø§Ú©
ĠÙħ Ø§ÛĮÙĨ
ĠØ¬ ÙģØ±
ĠØ§Ùĩ Ùħ
ĠÛ¹Û ³Û
Ù¾Ø±Ø¯Ø§Ø®Øª ÙĨØ¯
ĠÙħØ§Ø¬Ø±Ø§Ø¬ ÙĪÛĮÛĮ
Ø³ Ø§Ø¹Øª
ĠÙħØ¹ Ø¬
ĠØ´Ø®Øµ Ø§
Ø¨ÛĮÙĨ ÛĮÙħ
ĠØ¨Ø§Ø¨ ÙĦÛĮ
ĠØ´Ø§Ø¹ Ø±ÛĮ
ĠÙħØ·Ø§Ø¨ÙĤ Øª
ĠØ¨Ø§Ø²Ø±Ú¯Ø§ÙĨ Ø§ÙĨ
Ġ ch
ÙĦ ÙĪÙħ
ĠØ§Ø³Øª Ø±Ø³
Ø¯ÛĮ ÙĪ
ĠÚĺ ÙĪØ±ÙĨ
ĠÙĨØ³ Ø®
Ú©Ø§Ø± ÙĩØ§ÛĮ
ĠØ³ÙĦØ· Ø§ÙĨÛĮ
ĠÛĮØ² ÛĮØ¯
ĠØ¨ÙĪ Ø³ØªØ§ÙĨ
ĠØºÙĦØ§Ùħ Ø±Ø¶Ø§
ĠÚ©ÙĪØ¦ ÛĮÙĨØ²
ĠÙ¾Ø±Ú© Ø§Ø±
ĠÙ¾ÙĦØ§Ø³ ÙħØ§
Ø¯Ø± Ø®Øª
ĠÙħÙħ Ø³ÙĨÛĮ
ĠG m
ĠØ§ÛĮÙĦ Ø®Ø§ÙĨÛĮ
ĠÙĦÙĪÚ© Ø²Ø§Ùħ
ĠØ¯Ø± Ø§ÛĮÙĨ
ĠÙĨ Ø§ØµØ±ÛĮ
ĠM un
ĠÙħØ§Ø¯Ùĩ Ø§
ĠÛ±Û³Û² Û¸
ĠÙĨÙĩØ§Ø¯ ÙĨØ¯
ÙħØ±Ø¯ ÛĮ
ĠÚ¯ÙĨØ¬ Ø§ÛĮØ´
Ø± Ø´ØªÙĩ
ĠÙĩ Ø§Ú¯
ĠÙĨÙģØ± Øª
ĠØ§Ø³Ù¾ Ø§Ø±Øª
ĠÙħÙĤØµ ÙĪØ¯
Ú© Ø§Ø¨
Ø· Ø¨
ĠÙħØª Ú©ÛĮ
ĠÙħØ¯ Ø§Ø±ÙĩØ§ÛĮ
ĠÙ¾Ø±ÙĪ Ø§Ø²ÛĮ
ĠØ¢ÙĩÙĨÚ¯ ÛĮ
ĠØ³ÛĮÙħ ÛĮÙĨ
ĠÙĨØ§Ø² ÙĦ
ĠÚ©ÙĦÛĮÙĨ ØªÙĪÙĨ
ĠÙĨ Ú¯Ø±ÙģØª
ĠØ§Ùħ ÛĮØ±ÛĮ
Û´ Û°Û°
ĠØ§Ú© Øª
Ø¬ÙĪ Ø§Ø¯
ĠØ¢Ø¯ ÙħÛĮ
ĠÚ©Ø§ÙħÙ¾ ÙĪØ²ÛĮØª
ĠÙĤØ±ÙĤÛĮØ² Ø³ØªØ§ÙĨ
Ø³Øª Ø±Ø¯Ø§Ùħ
ĠÙ¾ ÙĪØ²
ĠÙħÙĪ Ø¸Ùģ
ĠI P
ĠE l
ĠØ¨ÛĮÙħØ§Ø± Ø³ØªØ§ÙĨÛĮ
ĠØ¨Ø®ØªÛĮ Ø§Ø±
: "
Ùħ ÛĮØ´
Ú¯ ÙģØªÙĩ
ĠÙĨ Ú©Ø±Ø¯ÙĨØ¯
Ø§ÙĦ ØŃÛĮ
ĠØ¢Ø¨ Ø®
ĠÚ©ØªØ§Ø¨ Ø´
ĠØªÙĤ Ø§Ø±ÙĨ
ĠØªÙħØ±ÛĮÙĨ Ø§Øª
Ø§ ÙĪØ¨
ÙĤ Ø§ÛĮÙĤ
ĠÙģØ± Ø§Ùĩ
ĠÙĨØ§Ùħ ÙĨØ¸Ùħ
ĠÙħØ´ ÙĪØ±Øª
ÙĪÚ© ÙĪÚ©
ĠÛ±Û² Û¸
ĠÙĤØ¯ Ø±ÛĮ
ĠØ¹Ø¨Ø¯Ø§ÙĦ Ú©Ø±ÛĮÙħ
ĠÙħÙĪØ´Ú© ÛĮ
ĠÙĨØ±ÙĪ ÚĺÛĮ
ĠÚ©Ø± Ø§ÛĮ
ÙĪØ§Ø± Ø§
Ø±Ø§ ÙģØª
ĠÙĪÙĦ Øª
ĠØºÛĮØ±Ùħ Ø³ØªÙĤÛĮÙħ
ĠØ±Ø§ÙĩØ¨Ø±Ø¯ ÛĮ
ĠØ±ÙĪÛĮØ§Ø± ÙĪÛĮÛĮ
Ø§Ø± Ø¶
ĠÙĦ Ø§Ùĩ
ĠÙ¾Ø± ØªØ±Ùĩ
ĠÙĨÛĮ ÙĪØªÙĨ
ĠØ¨ÙĦ Ø§Ø±ÙĪØ³
ĠØ¬ÙĩØ§ÙĨ Ú¯ÛĮØ±
ĠØ§ÙĦØŃ Ø§ÙĤ
ĠØª Ú¯
ĠØ§ÙĨØª ÙĩØ§ÛĮÛĮ
ĠÙģÙĦ Ø¬
Ù¾Ø± Øª
at t
ĠÚĨØ§Ù¾ ÛĮ
ĠØ¬ÙĨØ³ÛĮ ØªÛĮ
ĠØ§Ø¶Ø·Ø± Ø§Ø±ÛĮ
8 5
Ø¯ ÙĦÛĮ
ĠÙģ Ø±ÛĮÙħ
ĠØ¨Ø± Ú©Ùĩ
ĠØ¨Ø± ÙĨØ¯Ú¯Ø§ÙĨ
ĠØ® Ø³ØªÙĩ
ĠØŃ ÙħØ¯
ĠÙĨÙħ Ø§Ø¯ÛĮ
ĠØªØ± Ø§
ĠØŃÚ©Ùħ Ø±Ø§ÙĨ
ĠØ´Ùģ Ø§ÙĩÛĮ
âĢ Ļ
Ø¹ ÛĮÙĨ
ĠØ§ ÙĪØ¯Ø§
ĠÙĩÙħ Ø¯Ø§ÙĨÛĮ
ĠØ²Ø¹ ÙģØ±Ø§ÙĨ
C C
ĠØ§ÛĮ Ø¬
ÛĮØ¯ ÙĪ
ĠÙĪØ§ Ú¯Ø°Ø§Ø±ÛĮ
ĠÙħÙĨØ¸ Ø±Ùĩ
ĠÙĨØ§Ø® ÙĪØ§Ø³ØªÙĩ
ĠÙħØ¨Ùĩ Ùħ
Ø§Ùĩ ÙĨØ¯
ĠÚ©Ø§Ø± ØªØ±
ĠØªÚ© Ø°ÛĮØ¨
ĠØ± ÙĨØ¯
ĠØ² ÙĩØ±
Úĺ ÙĨÛĮ
ĠØ§ÙĦ Øµ
ĠC on
ĠÙĦØ§Ø± ÙĨØ³
ĠØ§ÙĤØªØ¨ Ø§Ø³ÛĮ
ĠÙĨÙĪÚ©ÙĦ Ø¦
M L
Ø´ ÙĪÛĮÛĮ
ĠØ¨Ø± Ø´Ùħ
ĠØ±ÛĮ Ú¯
ĠÙģØ±Ø² ÙĨØ¯ÛĮ
ĠØ¯Ø² Ø¯ÛĮ
ĠØ§Ø³Ù¾Ø± ÛĮÙĨÚ¯Ø²
ĠÙħ Ø§Ùģ
ĠÚ© ÙħÛĮÙĨÙĩ
ĠØ¢ÙĨ ØªÙĪÙĨ
ĠÙĦ ØªÙĪÙĨÛĮ
Ø±Ø¨ ÙĨØ¯ÛĮ
ĠØ³Ø± ÙħØ§
ĠÙ¾ÛĮØ´ Ø¨Ø±Ø¯
ĠÙģÛĮØ²ÛĮÚ© Ø¯Ø§ÙĨ
im e
ĠÙģØ±Ø³ØªØ§Ø¯ ÙĨ
ÛĮ Ø§Ø¨
Ùħ ÙĪØ²Ùĩ
ĠØ¨ Ø¬Ø²
Ù¾ ÙĪÙĨ
ÚĨ Ú¯ÛĮ
ĠC ol
ĠÚ©Ø§Øª Ø§ÙĦ
ĠØ²Ùħ Ø§Ùħ
ĠÛ±Û¹Û°Û ²
ĠØ³ÙĪÚ¯ ÙĨØ¯
ĠØ± ÛĮÙĦ
ĠØ¬ ÛĮØ±ÙĪ
ÙħØ§ÙĨ Ø§ÙĨ
ĠØ³Ø§ÙĨ ØŃÙĩ
ĠØ®ÙĦØ§ÙĤ ÛĮØª
ĠÙħØ®Ø±ÙĪ Ø·ÛĮ
ĠÙĨ ÙħØ§ÙĨØ¯Ùĩ
ĠØ´ÛĮ Ø±ÛĮ
id ae
ĠÙģÛĮÙĦØ³ÙĪÙģ Ø§ÙĨ
m er
ÙĪØ³ ÙĪ
ĠÛ´ ÛµÛ°
ĠÙĨØ¬ ÙĪÙħ
ĠÙħÙĪØ§Ø¬Ùĩ Ùĩ
A P
S S
ÙĨ Ø§ØµØ±
ÙĪ ÚĺÙĨ
ĠØ¯ Ø§Ø³
Ø³ Ø±Ø¨
ĠØ§Ø¬ Ø¯Ø§Ø¯
Ø¨Ø§Ø²ÛĮ Ú¯Ø±
ĠÙħÛĮ ÙĨØ§
ĠÚ©Ø§Ø± ÛĮÚ©
or n
ĠØ®Ø± Ø§Ø¨Ùĩ
ĠØ®ÙĪÙĨ Ø±ÛĮØ²ÛĮ
ĠÙħÙĪÙĨ ØªØ§Úĺ
ĠØ®Ø§ÙĦ ÙĤ
ĠØªØ¯Ø§ ÙĪÙħ
ĠØ§Ø³ Ø¯Ø§ÙĦÙĦÙĩ
ĠØ¯ÛĮ Ùĩ
ĠØ¨ÙĨ ÙĪÛĮØ³
ĠÚĨÙĨØ¯ Ú¯Ø§ÙĨÙĩ
ĠØ¨Ø¹ Ø«
ÙĨØ² Ø§
ĠÚ©Ø§Øº Ø°ÛĮ
ÙĤØ¯ Ø³
Ã ¤
ĠÙĤ ÙĪØª
ÙĪÙĨÛĮ ÙĪÙħ
ĠØ§Ø¯ ÙĪØ§Ø±
ĠØ¢ÙħÙĪØ² Ú¯Ø§Ø±
ĠØ§Ø±Ø¯ ÙĪÛĮ
ĠÙĪÛĮØ± Ø§ÙĨÛĮ
ĠØ´ÙĪ Ø§ÙĩØ¯ÛĮ
ĠØ¬ØºØ±Ø§Ùģ ÛĮØ§
4 5
ĠØ³ Ø§ÙĤ
ĠØ¬ Ø§Ùĩ
Ø®Øµ ÙĪØµÛĮ
Ø¢Ø¨ Ø´Ø§Ø±
A D
ĠØµØ¯ ÙħÙĩ
ĠÚ©Ø§Ø±ÙĪØ§ÙĨ Ø³Ø±Ø§ÛĮ
á ĥ
ĠØ¬ Ø§Ú©
ĠÚ©ØªØ§Ø¨ ÙĩØ§ÛĮ
ĠÙħÙĪØ§ÙĨ Ø¹
ĠØ³ ÙĪØª
ĠØ® Ø§ÙĨÛĮ
ĠÙģÙĦ ÙĪÛĮØ¯
Ø¬Ø² Ø§ÛĮØ±
Ø¨ ÙĪÙĦÛĮ
ĠØ´ Ø§ØªÙĦ
ĠØ¨Ø§ Ùģ
Ø³ÛĮ ÙĪØ³
ĠÛ²Û°Û ´
ĠÙħØµ ÙĪØ±
ĠM e
ĠØªÙĪØ± Ø§ÙĨ
Ġâ Ĩ
âĢ Ķ
ĠÙħØµ Ø§Ùģ
Ø¯ ÙĪØ±Ùģ
Ù¾ Ø§Ú©
Ù¾ÛĮ ØªØ±
ÙĩÛĮ ÚĨ
ĠØ¨Ø§Ùħ Ø¯Ø§Ø¯
Ø¢ Ú©
ĠØ®Ø· Ø±Ø§Øª
ĠÙģÙĦ Ø§ÙĨØ¯
ĠØ³Ø±ÙĪ Ø´
ĠØ¬Ø±ÛĮ ÙħÙĩ
ĠØŃØ§Ø¦ Ø²
ĠÙħ ÚĨ
ĠØ´ÙĩØ± Ø§Ùħ
ĠØ¨Ø®Ø´ ÛĮØ¯ÙĨ
ĠÙ¾ÛĮÙĪÙĨØ¯ ÛĮ
Ġ200 9
ĠØ¨Ø¨ÛĮÙĨ ÛĮØ¯
ĠØ´Ú©ÙĪÙģ Ø§ÛĮÛĮ
r ed
ĠØ§ÙĦ ØªØŃØµÛĮÙĦ
ĠØ¨Ø®Ø´ ÛĮØ¯Ùĩ
Ø¹Ùħ ÙĦÛĮ
ĠÙħÙĨÙĩ ØªÙĨ
ĠØ¬ Ø§ÙĩØ§ÛĮ
ĠØ²ÛĮØ± Ú©
3 5
Ùħ Ø´Ùĩ
Øª Ø§Ù¾
Ø® Ø§ÙĦÛĮ
ĠØ§Ø± ÙĪØ§ØŃ
ĠÙĨØ§Ùħ Ø·
ĠØº ÙĨ
ĠØ¯Ø§Ø± ÙĪÛĮÙĨ
ĠÙħÙĪØªÙĪØ± Ø²
Ø¨ Ø®ØªÛĮ
ĠØµ ÙħÛĮÙħÛĮ
ĠØ§Ùħ Ø§ÙħØª
ĠØ¨Ø±Ú¯ Ùĩ
ĠA b
ĠØ²Ø± Ø§Ø¹Øª
ĠÙĩÙĦ ÙĨ
ĠØ¢Ø´Ù¾ Ø²
ĠÚ©Ø§Ø±Ø§Ø¦ÛĮ Ø¨
ĠØ³ ÙĪØ³Ú©
ĠÚ©Ø±Ø¯ ÛĮÙħ
ĠÙĪØ§ØŃ Ø¯ÛĮ
ĠØ§ÙĨØŃ ØµØ§Ø±
Ø¢Øº Ø§Ø²
ĠØ¬ Ø§Ø¬
Ú©ÙĨ Ø§Ø±
ÙĪÙĨÛĮ Ø³Ùħ
ĠÙħØ± Ø¹
ĠØªØ± Ùħ
ĠÛ²Û°Û µ
ĠØ§Ø¬ Ø²
ĠØ¯Ø³ØªÚ¯Ø§Ùĩ ÛĮ
ĠÙħØ§Ø±Ú© ÙĪØ³
ĠØ§ÙħØ±ÛĮÚ© Ø§
ĠÙħÙĨ Ø§Ø¸Ø±
ĠÙģØ¹Ø§ÙĦÛĮØª Ø´
ĠØªØ±ÙĪØ±ÛĮ Ø³Øª
ĠÙĤØµ ÛĮØ¯Ùĩ
ĠÙĤÙĪÚĨ Ø§ÙĨ
ĠÙĤÙĨØ¯Ùĩ Ø§Ø±
ÙĪ Ø¶
ĠØ¯Ø± ØµØ¯ÛĮ
ĠØ³ ÙĪÙĨÚ¯
ÙĩØ² ÛĮÙĨÙĩ
ĠØ¯Ù¾ Ø§Ø±ØªÙħØ§ÙĨ
ĠÙģÛĮÙĦ Ø¯
ĠÙħØµ Ø§Ø±Ùģ
ĠÚ©Ø§Ø¸ ÙħÛĮ
ĠØ³ØŃ Ø§Ø¨ÛĮ
ĠÙĩ Ø§Ú©ÛĮ
ØªØ± ÙĪÙ¾
ĠØ³Ø± Ø´
mu n
ÙĦØ§ÙĤ ÛĮ
ĠØ¢Ù¾ Ø§Ø±ØªÙħØ§ÙĨ
ĠØ´ ÙĪÛĮ
ĠØª Ø§Ø¯
ØŃ Ø´
ĠØ¹ Ø·Ø±
ĠÚ¯Ø° Ø§Ø±Ø¯
Ø³Ú© Ø±ÛĮØª
ĠÙĨÛĮÚ© ÙĦ
ĠÙ¾ÛĮÚ© Ø±Ùĩ
ĠÛ±Û³Û³Û ´
ĠØ±Ø¨ ÙĪØ¯Ùĩ
ĠÙĨÙĪØ³ Ø§Ø²ÛĮ
Ø¨ÛĮØ´ ØªØ±
ĠØªØ²Ø¦ÛĮÙĨ Ø§Øª
ĠØ§Ø³Øª Ø±ÛĮ
Ùª )
ĠØ§Ø³Ú©ÙĨØ¯ Ø±ÛĮÙĩ
ĠØ¯Ø±Ø®Ø´ Ø´
ĠÚ©Ø³ Ø±ÛĮ
Ø§Ø´ ÛĮÙĨ
ĠØ§ÙĦ Øª
ĠØ§Ø¬ ÙĦØ§Ø³
ĠÙĨØ¬ ÙĪÙħÛĮ
ĠÙģØ±Ø²ÙĨØ¯Ø§ÙĨ Ø´
ĠØ³Ø§ÙĨØª ÙĪØ³
ain t
ĠØ¯Ø¨ÙĦÛĮ ÙĪØ¯Ø¨ÙĦÛĮ
h a
ĠÙĩ Ø¬Ø±
ĠÙ¾ Ø§Ø³Øª
Ø¨Ø± ÙĪÙĨ
ĠØº Ø±ÙĪØ¨
ĠØ¨ÛĮ Ø¶ÛĮ
ĠØ±ÙĪØ´ÙĨ Ùģ
ĠÙĨØ§Ù¾ Ø§ÛĮØ¯
ĠÙħÛĮ Ø³Ø±
ĠØ¨Ø± ÙĪ
Ø· Ø§Ø±
Ø¢ ØªØ´
ĠÙħÙĤ Ø§ØµØ¯
ĠÙ¾Ø§Ø¦ ÙĪÙĦÙĪ
ĠØ¬ Ø¨Ø§ÙĦ
Ø³ÛĮ ØªÛĮ
ĠÙħØ§Ø´ ÛĮÙĨÛĮ
ĠÚ©Ø§ÙĨØ¯ÛĮØ¯ Ø§ÛĮ
ÙĨ ÙĪØ±Ø¯
ĠØ´Ø§Ùĩ ÙĨØ´Ø§Ùĩ
ĠØ¯Ø§ÛĮ ÙħÛĮ
ĠØ¯Ø§ÙĨØ³Øª ÙĨ
ĠØ¨Øª ÙħÙĨ
I N
v er
Ùĩ ÙĨØ¯
ĠØ¯ Ø§Øª
ĠÛ²Û² Û°
ĠÚ¯ÙĪ Ú¯Ø±Ø¯
ĠÙħØ§Ø³ Ú©
ĠÙĨØ´Ø¯ ÙĨØ¯
ĠÙħØªÙĤ Ø§Ø±ÙĨ
ĠØ±ÙĪØ¨Ø± ÙĪÛĮ
ĠØ·ÙĩÙħ Ø§Ø³Ø¨
ĠGm ina
ĠÙĦÙĪÚ©Ø²Ø§Ùħ Ø¨ÙĪØ±Ú¯
Ġ is
Ø§Ø¯ Ø±Ùĩ
ĠÚ¯ Ø§ÛĮ
ĠØªØ± ÙĨØ³
Ø´Ø± ÙĤ
ĠØªØ§ÙĦ Ø´
ĠÙħØ±Ø³Ø¯ Ø³
Ø¹ Ø§ÙĦ
ĠØ¨Ø± Ø²ÛĮÙĦÛĮ
ĠÙħÙĪØ¬ÙĪØ¯ ÛĮØª
ĠÙħÙĩØ± Ø¨Ø§ÙĨ
ĠÙĨÙĪØ² Ø¯Ùĩ
ĠØ³Ø¨Ø²ÛĮ Ø¬Ø§Øª
ĠØ§ÛĮ Ø³
ĠØ§ÙĨ Ø¹ÙĤ
Ø´Øª ÙĨ
ĠÙĨÙĪÛĮØ³ Ø§ÙĨ
ĠÙħÙĪØ± ÚĨÙĩ
ĠØ³ ÙĨØ¬ÛĮ
ĠÙħÙĪ ØµÙĦ
ÙĪØ§Ø± Ø§ÙĨ
ĠØ§Ø¨ ÙĪØ³
Ø§Ø¨Ùĩ Ø§Ø±
Ø§ÙĨØª ÛĮÚ©
ĠØ³Ø±Ø® Ø³
ĠØªØ§Ú© Ø³ÛĮ
ĠØ§Ø³Ú©Ø§Øª ÙĦÙĨØ¯ÛĮ
Ú¯Ø± Ùĩ
Ø¢ Ø±Ú©
ĠØ³Ùĩ ÙħÛĮÙĩ
ĠÙĩØ§ ÙĪØ³
ĠØ®Ø¨Ø± ÙĨÚ¯Ø§Ø±Ø§ÙĨ
ĠÙħÙĪØ³ÛĮÙĤ Ø§ÛĮÛĮ
o la
Ø± ÙĪÛĮØ¯
Ø¯ Ø³
ĠØ§ÙĦ ÙĦ
ĠÙģØ±Ø¯ ÙĪØ³
ĠØ¢Ùģ Ø±ÛĮ
ĠØ§ÛĮÙĦ Ø§Øª
Ø®ÙĪØ± ÙĨØ¯
ĠØ¨ÛĮÙĩ ÙĪØ´ÛĮ
ĠØ§Ø³Ú©ÙĨ Ø§Ø³
Ø§Ø± Ø³
ĠØª Ø§ÙĨØ²
ĠÛĮÚ© Ø³Ø§ÙĨÛĮ
ĠØ¹Ø¨ Ø§Ø±Ø§Øª
ĠØ§Ø³Ú© ÛĮØª
Ùħ Ø¯Ø±Ø¶Ø§
Ú© ÙĪØ¯
ÙĪÙħ ÛĮÙĨÚ¯
ÙħÛĮ Ø±ÛĮ
ĠØ¯Ø§Ø± ÙĪØ³Ø§Ø²ÛĮ
ĠØŃÙħ Ø§Ø³Ùĩ
ĠÚ©Ø§Ùħ ÙĦÛĮ
ĠØ¢Ø²Ø§Ø¯ Ø³Ø§Ø²ÛĮ
ĠÙĩÛĮÙĦ Ø²
ĠØ§ÙĨÛĮ ÙħÙĩ
ĠØ¯Ø²Ø¯ Ø§ÙĨ
ĠÙĨØ§Ø¨Ø± Ø§Ø¨Ø±ÛĮ
ÙĦ ÙĪÙĨ
Ø¹ÙĦÛĮ ÙĤ
Ø¨Ø¯ ÙĪÙĨ
ĠØ²Ø± Ø§Ø¹ÛĮ
ĠÙħØ¹ÙĦ ÙħØ§ÙĨ
ĠÚĺÛĮÙħÙĨ Ø§Ø³ØªÛĮÚ©
ĠØ² Ø§ÙĦ
ĠØ¨Ø§Ø² Ø¨ÛĮÙĨÛĮ
ĠÛ¹Û ¸Û
ĠÙ¾Ø§Ú© Ø³Ø§Ø²ÛĮ
Ø´ÙĨØ§Ø³ Ø¯
ĠÙħÙĨÙģ Ø¬Ø±
ĠÙħØ¬ÙĦ Ø³ÛĮ
ĠÙħØ³ØªØŃ Ú©Ùħ
ĠØ¨ Ø§ÙĦÛĮ
ĠÙĨ Ø¨ÛĮ
ÚĨ Ø§ÙĨ
ÙĪØª Ø§ÙĨ
ĠØ§ÙĦ Ø²Ø§Ùħ
ĠÙĩÙĨØ¯ Ø¨Ø§ÙĦ
ĠÛ±Û³Û² Û·
ĠÙģØ§Ø· ÙħÛĮ
L ist
Ù¾ Ø±Ùĩ
ĠØ§Ø³Øª Ú©Ùĩ
ĠÙħØŃ Ø§ÙģÙĦ
ĠÙĤØµ Ø¨Ùĩ
ĠÙĪ Ø§Ø²
ĠÙ¾ ÛĮØ²
ĠØ¬ ÙĩØ±Ùħ
ĠØ§Ø± Ø¨
ĠØªÙĨ Ø§ÙĤØ¶
it t
ĠÙ¾Ø§ÙĦ Ø³
Øª ÙĨÚ¯
ĠÙĨ Ø§ÛĮØª
Ø§Ùħ Ø§Øª
ĠØ¬ ÛĮØ³ÙĪÙĨ
ĠÙħÙĨ Ø³ÙĪ
ĠØ³Ø±Ø¯ Ø¨ÛĮØ±ÛĮ
ĠØ³ÙģØ± Ùĩ
ĠØªÙĪÚ© ÙĪÚ¯Ø§ÙĪØ§
8 9
ĠØ¢ Úĺ
ĠØ¬ Ø¹ÙĦÛĮ
ĠÙĤ ÛĮØ±
ØªÙĩ Ø±Ø§ÙĨ
ĠØ§Ø± ÙĤØ§Ùħ
Ø§ÙĨØ¯ ÛĮÙĨ
ĠØ§ÙĪØ± Ø§ÙĨÛĮÙĪÙħ
ĠÙĨÙĪØ³ ÙĨÚ¯ÛĮ
ĠÙĨÙĪÚ© ÛĮØ§
ĠØ±ÛĮØ´ ØªØ±
l o
Øª Ø§Ø²
ĠØ¨ Ú¯ÙĪÛĮØ¯
ĠØ³ Ø§Ù¾
ĠØª ÙģØª
ĠØ² Ø§ÙĨ
ĠØ³Ø§Ø®Øª Ú¯ÛĮ
ĠØ§ÙĨØ¯ Ø§Ø²
ÙĪÙĤ ØªÛĮ
ĠÛ±Û¸Û¹Û µ
ĠØ§Ø¨ÙĪØ§ÙĦ ÙģØ¶ÙĦ
f t
Ø® Ø§Ú©
Ø¢ Ø¯
Ø³ØªØ± ÙĪÙĦ
ÛĮ Ø¨
ĠØ¨Ø± Ø³Ø§ÙĨÙĨØ¯
Ø§ÙĤ Ø§ÙĨ
ĠÛ±Û° Û·
Ø§ÙĨÚ¯ Ùĩ
ĠÚ©Ø±ÙĪ Ø¨ÛĮ
ÛĮØ± Ø²
ĠÙģØ± Ø¹ÙĪÙĨ
ĠÙĤØ± Ø§Ø¦Øª
ĠÚ¯Ø± Ø¯Ùĩ
ĠØ¯Ø³Øª Ú©Ø§Ø±ÛĮ
ÙĨØ¬ Ø§Ø±ÛĮ
ĠÙħØ®ØªØ± Ø¹
Ø§Ø± ÛĮÙĨ
ĠØª Ù¾
ĠØ± ØºÙħ
ĠØµ Ø¨Ø§
Ø²ÛĮ ÙĪ
ĠØ¯ÙĪØ± ÙĪØ¯
ĠÙĨÙĪ Ø§
ĠØ§Ùĩ Ø±ÛĮ
ĠÙħØ® Ø§Ø²ÙĨ
ĠP h
ĠØ¨ØŃ Ø±
ĠÙ¾Ùĩ ÙĨÙĩ
inn es
ĠÚ© Ø¨Ø¯ÛĮ
Ú¯Ø± Ú¯
Ø¢ Ú¯Ø§Ùĩ
Ø¯Ø± Ø§Ø²
ĠØ´ÙĨ ÙĪØ§ÛĮÛĮ
ĠØ®Ø± Ø§Ø¬
ĠØ¹ÙĪ Ø§ÙħÙĦÛĮ
ĠØ¨ØªÙĩ ÙĪÙĪÙĨ
ĠØ¨ ÙĨØ¯Ùĩ
ĠÙĦ ÙħØ³
ĠÚ©Ø§Ø± Ø®Ø§ÙĨ
ĠØ§ÙĦ Øº
ĠÙĦÛĮ ÙĦ
ĠÛ±Û° Û²
ĠØªØ¦ ÙĪØ¯ÙĪØ±
Ø§ÙĨØ¯Ø§Ø² Ø¯
ĠÙ¾ Ø³ØªÙĩ
ĠÙħØª Ø§Ø®Ø±
ĠÙħØ³ Ø§Ø¦ÙĦÛĮ
ĠÙħØ´Ùĩ ÙĪØ¯
ĠÙħÙģ ØµÙĦÛĮ
ĠÙħØ¬ÙħÙĪØ¹ Ø§
ĠØ±ÙĪØŃØ§ÙĨÛĮ Øª
ĠØ¨ÙĨÛĮØ§Ø¯ ÛĮÙĨ
ĠØ´ÙĦ ÙĪØ§Ø±
ĠØ¢ÙħÙĪ Ø®ØªÙĨ
Ø§ÙĨ Ø¬Ø§ÙħØ¯
Ø¨ Ø§ÛĮØ¯
ĠØ§Ø³Øª Ø¹Ø¯
ĠØ§Ø³Øª ÙģØ§ÙĨ
Ø¢ ÙĦÛĮ
ĠØ¯Ø§ÙĨ ÙĦÙĪØ¯
Ø§Ø¨Ø¯ ÛĮÙĨ
Ù¾Ø³ ÙĨØ¯
ĠØ¢Ú©Ø§Ø¯ ÙħÛĮÚ©
3 3
ĠÙģ Ø´Ø§Ø±ÛĮ
Ø§Ø±ÛĮ Ùħ
Ø§Ø¹ Ø¸
Ġ201 3
ĠÙģÛĮØ± ÙĪØ²Ùĩ
ĠÙĩÙħØ¬ ÙĪØ§Ø±
Ø³Ø±Ø² ÙħÛĮÙĨ
innes ota
ĠØ¬ Ø§ÙĨØ¯
Ú¯Ø± ÙĨ
ĠØ¢Ùħ Ø³ØªØ±Ø¯Ø§Ùħ
ĠÚ©Ø´ ÙĨØ¯Ùĩ
ĠØ¨ÛĮ Ø§Ø¨Ø§ÙĨÛĮ
ĠÙĨÛĮ Ø§ÛĮØ´
ĠØªØ¹ Ø§Ø±ÛĮÙģ
ĠØ¶Ø§ÛĮ Ø¹Ø§Øª
ĠÙĨÛĮØ§Ùħ Ø¯Ùĩ
ĠÙĤÙģ Ø³Ùĩ
Ġ tr
ÙĦ ÙĪØ¦
Ø² ÛĮÚ©ÛĮ
ĠØ§Ùħ Ø±Ø§ÛĮ
ĠÙģØ± Ø§Øª
ĠØ´Ú© Ø§Ø±ÛĮ
ÙĨÙĪ Ø¬
ĠØ³ÙĪÙħ Ø§ÙĦÛĮ
ĠØªØ® ÙĦ
m on
ĠØ¬ ÛĮÙĦ
ĠÙĤ Ø§Ø¦
ĠØ¨Ø§Ø± ÙĪÙĨ
ĠØ¨Ø¹ Ø¶Ø§
ĠØªØ´Ú© ÙĦ
ĠÚ©ÛĮ Ù¾
ĠØ®Ø± Ø§Ø¨ÛĮ
ĠØ²ØŃ ÙħØª
c a
Ú¯ ÙĪØª
ÛĮØ± Øª
ĠØ§Ùħ ÙĦ
ĠÙħØ¯Ø± ÙĨÛĮ
ĠØ´Ø¬ Ø§Ø¹Øª
ĠØ¬ÙĨØ¨ Ø´ÛĮ
ĠØ¯Ø§ÛĮÙĨ Ø§Ø³
l ic
ĠØ¨ Ø®ÙĪØ§ÙĩØ¯
ÙĨÛĮ Ø§Ø²
ĠØ¯ÙĪØ± Ø§ÙĨÛĮ
ĠØªÙĨ Ø¨
Ú©Ø± ÙħØ§ÙĨ
ĠÚ©ÙĪÙĩ Ù¾Ø§ÛĮÙĩ
ĠÚ¯ÙģØª Ú¯ÙĪÛĮ
Ø§ÙĪÛĮ Ø±ÛĮ
ess ional
ĠØºÛĮ Ø¨Øª
ĠØ¨ ÙĪØ±Ø¯
ĠØ¯ ÙĦØ¨
ĠØ³ ÙĪÙħÛĮ
ĠØ§Ø³Ú©ÙĦ Øª
ĠÙĩ ÙĪØ¯
ĠØ§ÛĮÙĨ Ø´ØªÛĮÙĨ
ĠÚ¯ Ø²ÛĮØ¯Ùĩ
Ø®Ø´ Ø§ÙĨ
ĠØ¢ÙħØ±ÛĮÚ© Ø§Ø³Øª
ĠØ¢Ø¨ Ø´Ø§Ø±ÛĮ
ĠÛ±Û° Û´
âĢ ı
ĠØ¨ÛĮ ÙĪÙĦÙĪÚĺÛĮÚ©ÛĮ
ĠØ³Ù¾ Ø±
ÙģÙĩ Ø§ÙĨ
ĠØ®Ø· Ø¨Ùĩ
ĠÙ¾Ø§Ø± Ø§Ø¯
ĠÙĨØ§Øª ÙĪ
ĠØ¨ÙĤ Ø§ÛĮ
P r
d i
ĠÙ¾ ÙĪÙ¾
ĠÙĤ Ø§Ø·Ø¹
Øµ Ø§Ø¯
ĠØ´Ø¯ Ùħ
ĠØ³ÛĮ Ø³ÛĮÙĦ
ĠØªÙħ Ø³
ĠØ±ÛĮ ÙĦÛĮ
ĠÙ¾Ø±ÙĪ ÛĮÙĨ
ĠØ¨Ø±Ø®ÙĪØ±Ø¯Ø§Ø± ÙĨØ¯
ĠØŃÛĮØ¯ Ø±ÛĮ
Ø§Ø³ Ùģ
ĠÙĨÙĤ Ø¯ÙĩØ§ÛĮ
ĠÙħØªØ± ÙħØ±Ø¨Ø¹
ĠÙħØªÙĨ Ø§Ø¸Ø±
ĠØ®ÙĪÛĮØ´ Ø§ÙĪÙĨØ¯
ĠØ±ÙħØ² Ú¯Ø°Ø§Ø±ÛĮ
Ø±ÛĮ ÙģÛĮ
ÙħÙĪ Ø«
ÙĦØ³ ÙĦ
ĠÙģÙĦ Ø´
ĠÙħÙĩÙħ Ø§Øª
ĠÙħØ§Ø¯ Ø§Ú¯Ø§Ø³Ú©Ø§Ø±
ĠÙģØ±ÙħØ§ÙĨØ±ÙĪ Ø§ÛĮØ§ÙĨ
ĠØ¹Ø¨Ø§Ø³ÛĮ Ø§ÙĨ
ĠØªØ·Ø¨ÛĮ ÙĤÛĮ
ã ĥ
ĠØ¢Ùħ ÛĮÙĨ
ĠÙħØ¯ ÙģÙĪÙĨ
ĠÙħØµ ÙĦØŃ
ĠÙħØ® Ø±Ø¨
ÙĤÛĮÙħ Øª
ĠÙħØ±Øª Ú©Ø¨
ĠÙħØŃÚ©ÙĪÙħ ÛĮØª
ĠÚ©Ø§Ø±ÙĪØ§ÙĨ Ø³Ø±Ø§
Ø® Ø·ÛĮ
ĠÙĦ Ø§ÛĮÙĨ
ĠÙħØ¹ Ø±Ùģ
ĠØ§Ø¬ Ùħ
ĠØ¬ÙĪ Ø§ÙĩØ±
ĠÙħØªÙĨ Ø§ÙĩÛĮ
ĠØ§Ø¨ÙĦ Ø§Øº
Ø¢ÙĪØ± Ø¯ÙĩØ§ÛĮ
em ent
ĠÚĺØ± ÙħÙĨ
Ú¯ÙĪØ¯ Ø±Ø²
Øª ÛĮÙĦ
ĠØ³ Ú©ÙĪ
ĠØª Ø§Ø´
ĠØ§ÛĮ ÙħÙ¾
ĠØ§Ø® ÙĪØ§ÙĨ
Ù¾Ø± Ø¯Ùĩ
ĠÚ¯Ø±Ùħ Ø§ÛĮØ´
ect ion
ĠÙħÛĮ Ø«
ĠØ¬Ùħ ÙĦØ§Øª
ĠÙħØ¹ Ø·
ĠØ¯Ø³Øª ÙĪØ±ÛĮ
ĠØŃØ¶ ÙĪØ±Ø´
ĠØ¯ ÙħÛĮ
ĠØ³ ÙħÛĮØ±
ĠÙĤ ÙĪ
ĠM an
Ø¬Ùħ Ø¹
Ø®ÙĪØ§Ø³Øª ÙĨØ¯
ÙĨØ¸ Ø±ÛĮÙĩ
ĠØ¢Ù¾ ÙĪÙĦÙĪ
ĠØ®Ø´ Ø§ÛĮ
ĠØ§ØªÙħØ³ ÙģØ±
Ø´ Ø´
Ġ( )ØĮ
ĠØ¢ÙĨ Ø§ÙĦÙĪÚ¯
ĠÚ©Ø´ ÙħÛĮØ±
ĠÛĮ ÙĪØ´ÛĮ
ĠÙĨÙĪ ØŃ
ĠE d
ĠÙĪØ§Ø± Ø¯Ùĩ
ĠØ§Ø³ØªÚ©Ùĩ ÙĦÙħ
Ø² ÙħÛĮ
Ø±Ø¯ Ø§Ø±ÛĮ
Ø§Ø¦ ÙĪÙĦ
ÛĮÙĨÛĮ ÙĪ
ĠØ¨Ø±ÛĮØª Ø§ÙĨÛĮØ§ÛĮ
Ø³ÙĪÛĮ ÙĦ
ĠÙħØ±ÙĪØ± Ú¯Ø±
n g
ĠØ³ ÙĪØ§ÙĨ
ĠÙĦ ÙĨÚ©
ĠØ¨ÛĮ ÙģØªØ¯
ĠÚ©ÙĦ Ø±ÛĮØ¯
ĠØªÙģ Ø±ÛĮØŃ
Ø®ÙĪØ±Ø´ ÛĮØ¯
ĠØ¨Ø± Ùħ
Ø· ÙĪÙĦ
ĠØªØ± ÙħØ²
ĠM innesota
Ø¨ÛĮÙĨ ÙĨØ¯
ĠÛ±Û³Û³Û ³
ÙĤ Ø´
ĠØ¨Ø§Ø´ Ú©ÙĪÙĩ
ĠØ±ÛĮ ÙĪÛĮ
ĠÙħØ¤Ø³ Ø³Ø§Øª
ĠO r
ĠØ§ÙħØªÛĮØ§Ø² Ø§Øª
r am
Ġ ÛĮØª
ĠÙĦ ÙĪØ²
Ø¢ ÙĪ
ĠØ§Ø³ØªÙĨ ÙĦÛĮ
ĠØ¬Ø§Ø¯ ÙĪÚ¯Ø±
ĠØ³Ø±ÙĨÚ¯ ÙĪÙĨ
ĠØ§ÙĨØ´Ø¹ Ø§Ø¨
Ġ Õ
ĠØ¨ Ø§ÛĮØª
ĠØ§Ø³Øª Ø§Ø±Ú©
Ø¢ ÙĦØ§Øª
ĠÙĤØ±Ø§Ø± Ú¯Ø§Ùĩ
ĠÙħØ¯ ÙĪÙĦ
Ø´ÙĨ Ø§
em ber
ĠØ´ Ú©Ø³
ĠØ§Ùħ ÛĮÙĨÛĮ
ĠÚ¯Ø± Ø³ÙĨÚ¯ÛĮ
la y
ĠÙħØ§ÙĪØ± Ø§Ø¡
ĠØ± Ø¬ÙĪ
Ø§Ø¯ Ø±Ø§ÙĨ
ĠØ¬ÙĨÛĮ ÙģØ±
a j
ĠÙħØ´ Ø§ÛĮ
ĠÚĺ ÙĪÙĦÛĮ
ĠØ±ÛĮ ÛĮØ³
ĠÙħÙĤØ¯ ÙĪÙĨÛĮ
ĠÚ©Ø±Ø¨ ÙĨØ§Øª
ĠØ³ÙĪØ¯ ÙħÙĨØ¯
ÙħÙĪØ¯ ÛĮÙĨ
Ø§Ø± ÛĮÚ©
Ú¯ ÛĮØ´
ÙĤ Ø±Ùĩ
ÛĮÙĨ Ø§ÙĦ
ĠÚ¯ Ø³ÛĮÙĦ
Ø§Ø¨ ÙĪØ±ÛĮ
ĠØ±Ø§ Ú¯
Ø§Ø® Ø§ÙĨÙĩ
ĠØ´Ø¹ Ø¨Ø§ÙĨ
ĠÙĨØ´Ø³Øª ÙĨ
ĠØªÙĪØ±ÛĮ Ø³ØªÛĮ
Ù¾Úĺ ÙĪÙĩ
ĠÙħ Ø£
ĠØª ÙĪÛĮÛĮ
ĠØ§Ø³Øª Ø®ÙĪØ§ÙĨÛĮ
Ø¯Ø± ØµØ¯
ĠÛ²Û°Û ¶
ig h
ĠÙ¾ÛĮØ§Ùħ Ø¯ÙĩØ§ÛĮ
ĠØªØ§Ú© ØªÛĮÚ©
ĠØ¨Ø´ Ø±ÛĮØª
ĠÙĩÙħÚ©Ø§Ø± Ø§ÙĨØ´
Ġ Ï
ĠÚ© ÙĪØ±Ø¯
ĠØª Ú©Ø§ÙĨ
Ø¹ Ø§ØªÛĮ
Ø§Ú¯ Ø§ÙĪØ§
ĠØ¬ÙĪØ§ÙĨ Ùĩ
ĠØ§ÙĨØªÙĤØ§Ø¯ Ø§Øª
B S
ĠÙħ ÙħØ§ÙĨ
ĠØ¢ Ø³ØªØ§ÙĨ
ĠÚ¯ ÙĪÛĮÙĨØ¯Ùĩ
Ø§ÙĦÛĮ Ø§ÙĨ
ĠØªØ¹Ø¯ ÛĮÙĦ
ĠÙħØº Ø§ÙĨ
un g
ĠÙ¾Ø§Ø±Ø³ÛĮ Ø§ÙĨ
arch ive
Ùħ Øº
Ø· ÛĮØ±
ĠØ¨Ø§Ø² Ú¯Ø±Ø¯Ø¯
ĠØ³Ø± Ø§Ø¬
ĠÙħØŃÙħØ¯ Ø¨Ø§ÙĤØ±
ĠG re
ĠÙħÙĨØ§Ø¸ Ø±Ùĩ
ĠØ¨Ø§Ø² Ú¯ÙĪ
ĠØ¯ÙĦ Ø§ÙĦØª
ĠÙħØ·Ø§ÙĦ Ø¨ÛĮ
ĠÛ±Û¸Û¹Û ·
Ø§ ÙĪÙĨÛĮ
ØªÛĮ Ùĩ
ĠØ§ÙĦ Ú©ØªØ±ÛĮ
ĠØ¨Ø§ÙĦ Ú©Ø§ÙĨ
ĠÚ¯Ø±Ø¯ÛĮØ¯ ÙĨØ¯
ĠÙ¾ÙĪØ´ Ø´ÛĮ
ĠÙĤØ´ ÙĪÙĨ
ĠÙĪØ§Ø¬ Ø¯
ĠØ³Ø±Ø³ Ø®Øª
ĠÚ¯Ø±Ø¯ÙĩÙħ Ø§ÛĮÛĮ
B A
ÙĦ Ø´Ú©Ø±
Ø® Ø§
ÙĪÙĦ ÙĪÙĨ
ĠÚ©Ø§Ø± ÙĦÙĪ
ĠØ§Ùĩ ÙĦÛĮ
ĠÙħÙĨØ· Ø¨ÙĤ
ĠØ¨Ø¹ ÙĦØª
ĠØ³ÙĪÛĮ Ø§
ov e
Ùħ Ø§Ú©
Ø§ÛĮ Ú©
ĠØ® Ø§Ø²ÙĨ
Ø§Øª ÙĪÙĨ
ĠÙ¾ÛĮ Ø±ÛĮ
ĠØ§ÙĪØ³ Ø§Ú©Ø§
ĠÚ¯ÙĪØ±Ø¯ ÙĪÙĨ
ĠØ¬ Ø§ÙħÙĩ
ĠØ³Ø§ÙĦ ÙĩØ§
ĠØµ ÙĩÛĮ
ĠØ¨ÙĦ ÙĪØ²
ĠØ´Ø¨ Ø³ØªØ§ÙĨ
ĠØ¹Ø± Ø¶ÛĮ
ĠØ¢ÙĨÚ¯ ÙĪÙĦØ§
ĠØ§ ÙĬ
ĠØ³Ø± Ø·Ø§ÙĨÛĮ
Ø´ÛĮ ÙĪ
ÙĨØ§Ùħ ÛĮØ¯ÙĨØ¯
ĠÙģÙĤÙĩ ÛĮ
ĠÙ¾ÙĪ Ø³ØªØ±
Ø©Ø§ÙĦ ÙħØ¹Ø§Ø±Ùģ
ĠÚ©ÙĪØ¦ÛĮÙĨØ² ÙĦÙĨØ¯
ĠÚ¯ ÙĨÚ¯
Ø´Ùħ Ø§ÙĦ
ĠØªÙĨ Ø¨ÛĮÙĩ
ĠÛ±Û° Û¶
is e
o de
ĠÙĤ ÙħÛĮ
ÛĮØ¯ ÙĨØª
ĠÙĩÙĪ Ø§Ùģ
ĠÚ©Ø§Ø±Ø®Ø§ÙĨ Ø¬Ø§Øª
w ard
ĠØ¨ Ú¯Ø°Ø§Ø±ÙĨØ¯
Ø³ ÙĪØ¯
ĠÙģ ÙĪÙħ
ĠØ³Ø± Ú¯Ø±Ùħ
Ø³Ú© Ø±ÛĮ
ĠÙģØ±ÙĪ Ø®Øª
ĠÙ¾Ø±ÙĪØª Ø¦ÛĮÙĨÛĮ
ÙħÙĪÙĨ ÛĮÚ©
ĠÙĦØ´Ú© Ø±ÛĮØ§ÙĨ
Ø¹ÙĤ Ø¯
ĠÙħÙĨØ§Ø² ÙĦ
ĠÙģ ÙħÛĮÙĨÛĮ
ĠÚĨÙĨØ¯ Ø¬ÙħÙĦÙĩ
ĠÚ©ÛĮ ÙĪ
ĠE x
ĠØ¯Ø§ ÙĪØ¯
ĠØ§ÙĨØ¹ Ú©Ø§Ø³
ĠÙħÙĨØªØ¸ Ø±ÛĮ
ĠØ§ØŃØ³ Ø§Ø³ÛĮ
ĠØ¬ ÙĪØ§Ø±
Ú©ÙĨ Ø¯Ùĩ
Ø§Ø³ÛĮ Ø§Ø¨
ĠÙħØ§Ø± ÛĮÙĨ
ĠØ³ÛĮÙĨ Ùħ
ĠØ±ÙĪÙħ ÙĨ
ĠØ®Ø´Ú© Ø³Ø§ÙĦÛĮ
ĠJ ul
ĠØ¢ÙĩÙĨÚ¯Ø³Ø§Ø² Ø§ÙĨ
ĠØ§Ø´ÛĮ Ø§ÛĮ
ĠÙģØ±Ø§ÙĨØ³ ÙĪØ§
Ø±ÛĮ Ø®Øª
ĠÙħÙĨ ÙĪ
ĠÙĤØ± Ø¶
ĠØ§ÙĦ ÙħØ§ÙĨ
ĠÙĩØ± ÙħØ§ÙĨ
ĠØªØµ ÙĪÙģ
ĠØ¨ÙħØ¨ Ø¦ÛĮ
Ñ ģ
ĠØª Ø§ÛĮØª
ĠØ¢ Ø´ÛĮ
ĠÚ¯ ÙĪØ²ÙĨ
ĠØ· ÙĦÙĪØ¹
ÙĨØª Ø²
ĠÚ¯Ø²ÛĮÙĨ Ø´
Ø¯ Ø¨ÙĦÛĮ
ĠØ¨ ÙĪØ§Ø³Ø·Ùĩ
ĠÚ© ÙģØ±
Øµ ØªÛĮ
ØªØ± Ø²
ĠÛĮØ§ ÙĤÙĪØª
ĠØ³Ùĩ ÙĪÙĦØª
ĠØ´Ø§Ùĩ Ø²Ø§Ø¯Ú¯Ø§ÙĨ
ÛĮÙĨÚ¯ ÙĪ
ĠÙħÙĪØ± ÙĪ
ĠØ¢Ø´ ÙĪØ±ÛĮØ§ÙĨ
ĠØ¨Ú¯ÛĮØ±ÛĮ Ùħ
Ú©Ø§Ø± ÙĦ
ĠØ¨ÙĦÙĪØ± ÛĮÙĨ
ĠÚ¯ÙĦÙĪÚ© Ø²
ĠÚ©Ø§ÙĦØ¨ Ø¯
ĠØ´Ú©Ø³ Ù¾ÛĮØ±
i y
ĠÙħØªØŃ ÙħÙĦ
ĠØ¢Ø¨ Ø±ÛĮØ²
an k
ÙĬ Ùħ
Ø®ÛĮ Ø§Ø¨Ø§ÙĨ
ĠØ¯Ø±ØµØ¯ Ø¯
ĠØ¯ÙħØ§ ÙĩØ§ÛĮ
ĠÙĪØ§Ú© Ø±
Ø¯ ÙĨØ¯Ø§ÙĨ
Ø§ÙĨ Ø³Ø§ÙĨ
Ø³ Ø±Ø§ÙĨ
ĠØ¨ÙĦ ÙĪÙħ
in o
ĠÛ±Û¸ Û°Û°
ĠÚ©ÙĪØ¦ ÛĮÙĨ
ĠØ§ÙĨØ³Øª ÛĮØªÙĪ
Ùħ Ø¹ÙĨÛĮ
Ú© Ø³Øª
ÙĪÙĨ ÛĮØª
ÙĪÙĦ ÙĪØ³
Ø¨Ø± Ø§Ø¨Ø±
ĠØ§Øµ ÙĪÙĦÛĮ
ĠØ¨Ø§Ø± ÙĪØ±ÛĮ
ÙĨØ´ Ø¯Ùĩ
ÙģØ±Ø§ÙĨ Ø³ÛĮØ³Ú©ÙĪ
ĠÚ©Ø§Ù¾ ÛĮØª
ĠÙĪ Ø§ÙĨÚ¯
Ø¨ Ø§ØªÛĮ
Ø® ÙĨ
ĠØµ ÙĪØ±
ĠÙħØª Ø¶
ĠØ§Ø± Ø§Ø¨Ùĩ
Ø³Ø¯ ÙĪØ±Ùģ
ÙģÙĨ ÙĪÙĨ
ÙĪØ¯ Ø§Ø±
ĠØ±Ø§ ÙĪ
ĠØªØ¬ Ø§Ø±
ĠÚ¯ÙĨØ¬ Ø§ÙĨØ¯Ùĩ
ĠØ§Ø³Ø±Ø§ÛĮ ÛĮÙĦ
ĠØªØ±ÙħÛĮÙĨ Ø§ÙĦ
Ø³ Ø³
Ø¨ ÙĪÙħ
ĠØ§ÙĪ Ù¾ÙĨ
ĠØ§Ø³ Ø¯ÛĮ
ĠØ¹Ùħ Ø±ÙĪ
ĠØªØ± Ø§Úĺ
ÙģÛĮ Ø¹ÛĮ
ĠØªØµ Ø§ÙĪÛĮØ±ÛĮ
ĠØ®Ø¯ Ø§Ø¨ÙĨØ¯Ùĩ
ĠÛ³Û±Û ¶
ĠÛĮØ§Ø²Ø¯Ùĩ ÙħÛĮÙĨ
ĠØ¨Ø± ØŃ
ĠØ³Ø· Ø±
ĠÙħØŃ ÙģÙĦ
ĠÙĪÛĮ ÙĪ
Ġ1 4
ĠØŃØ± Ø§Ùħ
ĠØ§ØŃØ§Ø¯ÛĮ Ø«
ĠØ¨ Ø³ØªØ§ÙĨ
ĠØ³ Ø¦ÙĪÙĦ
ĠØ¨Ùĩ Ø±ÙĪØ²
ĠÚ©Ø§Ø± ØªÙĪÙĨ
Ø¶Ø§ÛĮ ØªÛĮ
ĠÙħØ¤ Ø«Ø±ÛĮ
ĠØ±Ø¨ Ø§Ø¹ÛĮ
ĠÙħÛĮØ±ØŃ Ø³ÛĮÙĨ
ÙĨ ÛĮØ´
ĠÚĨ Ø±Ùħ
Ø§Ø¯Ùĩ Ø§ÛĮÛĮ
ĠØªØ® ÙĦÙģ
ĠØ§ØŃÙħØ¯ Ø¢Ø¨Ø§Ø¯
ĠMun icipality
ĠÙģ ÙĨØ¯
ĠØ³Ø± Ù¾ÙĪØ´
ĠÚ¯Ø± Ø§ÙħØ±
Ø¯ÙĨ Ø¨Ø§ÙĦ
Ø³Ø§ÙĦ Ú¯ÛĮ
Ø¯Ø±ÛĮ Ø¬
A F
ĠØ® Ø§Ø¯
ĠÙħØ¬ Ø§Ø±ÛĮ
ĠØ±Ø³ Ø¯
Ø²ÙħÛĮÙĨ Ùĩ
ĠØ§Ø³Ú© Ø±ÛĮ
ĠØ¨ÛĮØ³Øª ÙĪÙĨ
ĠØ¹Ø§Ø´ ÙĪØ±Ø§
I M
Ú© Ø±Ø§ÙĨ
Ø±ÛĮ ÚĨØ§Ø±Ø¯
Ø±ÙĪ Ø¦
ĠØ¢Ø± ØªØ³
ĠÙħÚ© Ø²ÛĮÚ©ÛĮ
ĠÛ±Û¸Û¹Û ¸
ĠÙĨØ§Øª ÙĪØ§ÙĨ
ĠØ§Ø¬Ø² Ø§Ø¡
ĠØ¯Ø± Ø¬Ø§Øª
Ø² ÙĩØ±Ø§
Ø§Ø¯ ÙĦÙģ
ĠØ±ÙĪ Ø¯ÙĩØ§ÛĮ
ÙģØ± ÙħØ§
ÙĦÙģ ÙĦ
ĠØµØ¯ Ø§ÛĮÛĮ
Ø§ÙĦ ÙħÙĨ
ÙģÙĩ ÙħØ¯
ÙĪÙĦÛĮ Ø³Ùħ
ĠØ¹Ø²Ø§Ø¯ Ø§Ø±ÛĮ
Ø¯ Úĺ
ÙĤ Ø§
ÙĪÙĦ Ø²
ĠÚ©ÙĦ ÙĨ
ĠÙħÙĦ Ú©ÛĮ
ĠÙĪ Ø§Ú¯
ĠØ§Ø³Øª ÙĪØ§ÛĮÛĮ
ĠÙħØª Ø®ÙĦ
ĠÙħØ¹ Ø±ÙĪÙģÛĮ
ĠØ¯ÙĪ Ø³
ĠØ³ÙĤ Ø²
ĠØ¯Ú© ÙħÙĩ
ĠØ´Ø§ÙĨÚ¯ ÙĩØ§ÛĮ
C H
S t
ĠÙħÛĮ ÙĨÙĪ
ĠÙħÙĦÛĮ Øª
ĠG u
ĠÙħÚ¯ Ø§ÙĪØ§Øª
ĠÙħÛĮØ® Ø§Ø¦ÛĮÙĦ
Ø§ÛĮ ÙĨÛĮ
ĠÙĨ Ú©ÙĨÙĨØ¯
ĠØ¢ Ø±ÙĪ
Ø¶ Ø±Ø¨
ĠÙħØ¹ Ø§Ùģ
ÙĪØ§Ø± Øª
ĠØ¯Ø³ØªÙĪØ± ÙĩØ§ÛĮ
Ø§ÙģØ²Ø§Ø± ÙĩØ§
ĠØµØ± Ø§ØŃØª
ĠØ¢ØªÙĦ Ø§ÙĨ
ĠØ¨ÙĪØ±Ú©ÛĮÙĨØ§Ùģ Ø§Ø³ÙĪÛĮ
Ø§ÙĨØ¯ÛĮÙĨ Ø§ÙĪÛĮ
Ø³ Ø§ÛĮØ¯
Ø¨ Ø§ÙģÛĮ
ĠÙ¾ ÙĪÛĮÙĨØª
ĠØ§Ø³ ÙĩØ§ÙĦ
ĠÚ©Ø§Ø± Ø§
ĠÛĮ ÙĪØ±ÛĮ
ĠØ³ÛĮ Ø±ÛĮ
ĠØªØ± ÙħÙĪØ¯ÛĮÙĨ
ĠÙ¾ÛĮ Ø§ÙħÛĮ
ĠI I
ĠØ¯Ø±ØŃØ§ÙĦ ÛĮÚ©Ùĩ
ĠØ¨ Ø¬ÙĨ
ĠÙħ Ø§ÛĮØ±
ĠÚ¯ Ø±ÛĮÙĩ
ĠÚ©Ø´ Ø´ÛĮ
Ø¯Ø± Ø§Ùħ
ĠÙħØ¬ Ø§ÙĦØ³
ĠÙ¾ÛĮØ´ Ø§ÙĨÛĮ
ĠÙĤØ¯Ø± ØªÛĮ
ĠÚ¯ÙĨØ¬ Ø´Ú©
ĠÙĨØ§ÙħØ² Ø¯ÙĩØ§ÛĮ
ÙħÙĪØª ÙĪØ±Ùĩ
ĠÙĪ Ø§ÛĮÙĨ
ĠÚ¯ Ø§ÙħØ§
ĠØªÙĦ Ø§Ø´ÛĮ
ĠØªØµ Ø±ÛĮØŃ
ĠÚ©ÙĪØ´ Ú©
ĠØ¢ÛĮØ¯ Ø§ÙĩÙĪ
ĠØªØ´ÛĮ ÛĮØ¹
ĠØ§Ø¯ Ø§ÛĮ
ĠØ¨ÙĦ ÙĪØ±ÙĩØ§ÛĮ
ĠÛ±Û¸Û ¸Û°
ĠÚ¯Ø°Ø±Ø§ÙĨ Ø¯Ùĩ
ĠÙĨØ§Ø¯ Ø±ÛĮ
Ã ¢
ÙĨ Ø§ÙĨÛĮ
ÙĪÙĦ ÛĮÚ©ÛĮ
ĠØ¨Ø¹Ø¯ ØªØ±
ÛĮÚ© Øª
ĠÙģ Ø§ÛĮÙĨ
ĠØ§ÙĪ Ø¨ÙĦØ§Ø³Øª
ĠÙħØŃ ØªØ±Ùħ
ÙħÙ¾ ØªÙĪÙĨ
ĠØ³ ÙħÙ¾
ĠÙ¾ ÙĨÚ¯
ĠÙħØ³Ø¬Ø¯ Ø³ÙĦÛĮÙħØ§ÙĨ
ĠØ·Ø§ÙĦ ÙĤØ§ÙĨÛĮ
2 8
Ø± Ø§ØªÛĮ
ĠÙħ Ø²Ùĩ
ĠØª Ø§ÙĦÛĮ
ĠØ§Ø³Øª Ø§Øª
ĠØ² ÙĩÛĮ
ĠÛĮ ÙĪÙģØ§
ĠÙħØ´ ÛĮ
Ø§ÙĪØ± Ø§ÙĨ
ĠØ§Ù¾ Ø±Ø§ØªÙĪØ±
ĠØªÙħØ§Ø´ Ø§
ĠØªÙĪØ±ÙĨ ÙħÙĨØª
Ø¨ ÙĪÛĮ
ÛĮÙĦ Øª
Ø§Ø® ØªØ±
ĠØ§Ø¨ ÙĪØ¹
ÙĪÙĦÛĮ Ø§
Ø³Ù¾ Ø§Ø±ÛĮ
ĠÛ±Û³Û² Û¶
ĠÛ±Û¸Û¹Û ¹
ĠÙĩÙħØ³Ø§ÛĮ Ú¯ÛĮ
ĠÙħ Ø³ØªØ±
ĠØ¨Ùĩ Ø¨ÙĪØ¯ÛĮ
ĠÙħØµ Ø§Ø¯Ø±Ùĩ
ĠØ¢Ø± Ø§Ø±Ø§Øª
ĠØ§ÙĨØªÙĤ Ø§ÙĦÛĮ
ĠØ³Ø±Ø¯ Ø±
ĠÚ¯Ø§Ø¨Ø±ÛĮ ÙĦ
" :
ĠÙħÙĪ Ø¬ÛĮ
ĠØ³Ø± Ú¯Ø°Ø´Øª
Ø§Ú©ÙĨ ÙĨØ¯Ùĩ
ĠØ®ÛĮ Ø¨Ø±
Ù¾ÛĮØ´ ÛĮÙĨ
ĠÚ©ÙħÙĪÙĨÛĮ Ø³Ùħ
ĠÙĪ ÛĮØ´
Ùģ Ø§Ø±ÛĮ
Ø§Ú© ÙĦ
ĠØ³ÛĮ ÙĦÛĮ
ÙĪÙ¾ Ø§ÛĮÛĮ
ĠØ¬ÙĦ Ø¯ÛĮ
ĠÙ¾Ø§ÙĦ Ø§ÛĮØ´
ĠÙħØŃØ¶ Ø±
ivers ity
ĠØ´ ÙĪØ±ÛĮ
ĠÙĨ Ø§ÛĮÙĦ
ĠÙģ Ø§ØµÙĦ
ĠÙħØ¬ Ø±Ø§ÛĮ
Ø´Øª Ú¯Ø§ÙĨ
ĠØªÙĪØ± Ø§Øª
ĠØ¢ÙħÙĪØ²Ø´ Ú¯Ø§Ùĩ
Ø§Ø³Øª ÙĪÙĨ
Øº ÙĦ
Ø¢ Ø°
ĠÙħØ¹ Ø§ÙĦ
ĠØ¬Ùĩ Ø§Øª
ĠÙħÙĩ ÙħØ§ÙĨÛĮ
er m
ĠS e
Ø¨Ø±ÛĮ Ø§
ĠØ¨Ø§Ø²Ú¯Ø´Øª ÙĨØ¯
ĠØ®ÙĪØ§Ø³Øª ÙĨØ¯
ĠÙĨØ§Ø± Ø§ØŃØª
ĠÛ±Û³Û³Û ±
ĠÙĪÛĮØ¯Ø¦ ÙĪÛĮ
ÙĨ Ø§ÙħÛĮ
ÙĪ ÙĪÛĮ
ĠØ´ ÙĪÙĨ
Ø¨ÛĮ ÙĪØªÛĮÚ©
ÙĪØ¨ ÛĮÙĦ
ĠØ¨ÙĨ Ø§Ø¯Ø±
ĠÛ´ Û°Û°Û°
ĠÛ±Û±Û ±Û
Ġâ Ī
ĠÚĺØ± Úĺ
ĠØ¯Ø± ÛĮÚ©
Ø¨ ÙĪØ±ÛĮ
Ø§Ø³ Ú©ÙĪ
ĠØ³ÛĮ Ø§Ø±Ø§Øª
ĠÙħØ´ ØªØ±Ú©ÛĮ
ĠÙģÙĦ Ú©
Ø¨Ø§Ø² Ø§Ø±
ĠØ¹ÙħÙĦÚ©Ø±Ø¯ ÛĮ
ĠÚ©ÙĦÛĮØ³Ø§ ÙĩØ§ÛĮ
ĠØ§ØŃØªØ± Ø§ÙĤ
ĠÙĩ Ø§ÙĨÛĮ
ĠØ¬ Ø¨ÙĦ
Ġ( Â°
ĠØŃ ÙĪØ²
ĠØ¨Ø§Ø² ÙĪÛĮ
ĠØº Ø¯Ø¯
ÙĪÙĨØ¯ Ø§ÛĮ
in s
ĠØ³ÙĨÚ¯ Ø±
ĠØ¢Ø±Ø² ÙĪÛĮ
ÙĨØ® Ø³ØªÛĮÙĨ
ĠÙĨØ³Øª Ø¹ÙĦÛĮÙĤ
ĠØ§ÙĦ Ø®
ĠØªÛĮÙħ ÙĪØ±ÛĮ
Ø´ÙĩØ± Ú©
ĠÙĨØ§Ø± Ø¶Ø§ÛĮØªÛĮ
ĠØªÙĪØ¶ÛĮØŃ Ø§Øª
ĠÚ©Ø§Ø¨ ÛĮÙĨ
ĠØ¹Ø´ Ø§ÛĮØ±ÛĮ
ĠØªØ±Ø§ÙĨ Ø²ÛĮØ³Øª
ĠØ¬Ø³ ÙħØ§ÙĨÛĮ
ĠØ¨ÙĩØ§Ø¦ÛĮ Ø§ÙĨ
ĠÚ¯ÙĪØ³Øª Ø§ÙĪ
ĠØ·Ø¹ ÙħÙĩ
7 5
ĠØ¬ Ø§Ø±
ĠØ¬ ÛĮÚ©
ÙĲ Ùĳ
ĠØ±ÛĮ Ø¨
ĠØ§Ø³Ø§Ø³ ÙĨØ§ÙħÙĩ
ĠØªØŃØª Ø§ÙĨÛĮ
ÙħØŃ ÙĦ
ĠØªÛĮ Øº
ĠØ²ÙĨØ¬ Ø§ÙĨÛĮ
ĠÚ©Ø§ÙħÙ¾ÛĮÙĪØªØ± ÙĩØ§ÛĮ
Ø¨ Ú¯Ø§ÙĨ
ĠÙĦ Ø¦ÙĪ
ĠØ¢Ùħ ÛĮÙĨÙĩ
ĠØ®ÙĪ Ø§ÙĨÛĮ
ĠÙĪØ¬ÙĪØ¯ ÛĮ
ĠÙ¾Ø§Ø± Ø§Ú¯ÙĪØ¦Ùĩ
ĠÚ©Ø±ÛĮ ÙħÙĩ
ĠÙĦØ¨ ÙĨÛĮ
ĠØ¢Ú© ÙĪØ±Ø¯
Ø§ÛĮ Ø¯Ùĩ
ĠÚ©Ø§Ø± Ø§ØªÙĩ
Ø¨Ø§ÙĨ ÙĪÛĮ
ĠØ¯Ø® ÛĮÙĦ
ĠØµÙĨ ÙģÛĮ
http s
ĠÙģØ³ ÙģØ±
ĠØ¬ÙĨØ¬ Ø§ÙĦ
ĠØºÙĪØ§Øµ ÛĮ
ĠØ¹ØªÛĮ ÙĤ
ĠØªØ§ÙĨØ² Ø§ÙĨÛĮØ§
ĠØ´ ÙĦÙĪ
Ø¬ ÙĦÙĩ
ĠÙĦ Ø§Ø³ØªÛĮÚ©
ĠS outh
ĠÙ¾Ø±ØªÙĪ ÙĩØ§ÛĮ
ĠØ¨Ø±Ú¯Ø±Ø¯Ø§ÙĨ Ø¯Ùĩ
Å Ĥ
ĠÙħÙĨ Ø¹ÙĤØ¯
ĠÙģØ± ØµØªÛĮ
ĠØ§Ø± Ú¯Ø§ÙĨÛĮØ³Ùħ
ĠÙħØ§Ø±Ú© ÙĪ
Ø§Ø¯ÙĦÙģ ÛĮØ§
ĠÚĨ ÙĤØ¯Ø±
ÙĨÙĩ Ø§Ùħ
ar s
ĠÙħÙĩØ§Ø¬ ÙħØ§ÙĨ
ĠØ§Ø³Ú© Ø§ÙĨØ¯ÛĮÙĨØ§ÙĪÛĮ
ÙħØ¬ Ø§Ø±Ø³ØªØ§ÙĨ
R I
Ø§ ÚĨÙĩ
ĠØ± Ø§Ø¨Ø±
ØĮ "
Ø§Øª Ø±ÛĮ
ĠØ¹ ÙĪØ¯
Ø§Ø¨ Ú©
ĠØ¨ÙĪØ¯ Ø§
ØªÛĮ Ø³Øª
Ø§Ùģ Ø²ÙĪÙĨ
ĠÛ±Û° Û±
ĠØªØ¹ Ø·ÛĮÙĦÛĮ
ĠÙ¾Ø§Ø³ Ú©Ø§ÙĦ
ĠÛ²Û´ Û°
ÙģÙĦ Ø²ÛĮ
Ú¯ Ø§Ø±Ø§ÙĨ
ĠÙĨ Ø§Øµ
ĠÙĩ ÙĪÙĨØ¯Ø§
ĠÙģ Ø±ÛĮØª
ĠÙħØ± Ø¬Ø§ÙĨ
ÙħÙĦ Ø§
ĠØ³ÙĪ Ø§ÙĦØ§Øª
ĠØ®ÙĪØ±Ø¯ ÙĨØ¯
ĠÙħØŃÙĤÙĤ ÛĮÙĨ
D P
ÙĨ ÛĮØª
ĠØ§Ø± Ø¶ÛĮ
Ġ" Â«
Ø¹Ø¯ Ø¯
ĠÛ²Û°Û ·
ĠÚ©ÙĦ Ø§ØªÙĩ
Ú¯Ø° Ø±Ø§ÙĨ
ĠØ¨Ø§Ø± Ø§ÙĨÛĮ
ĠØ¯ÛĮÙĨ Ø§Ø±
ØŃ Ø§Ø¨
ĠÙģØ±Ø§ÙĨ ØªØ³
ĠØ·Ø¨ Ø¹
ĠÙĩ Øª
ĠØ¹ Ø§ÙĤ
Ø¯Ø§ÙĨ Ùħ
ĠØµÙĪÙģ ÛĮÙĩ
Î ¿
ĠÙĪ ÙĪÙĦ
ĠÙĪ Ø§ÛĮÙĦ
ÙĪÙħ ÛĮÙĨ
ĠÙĨÙĪ Ø§Ø¨
ĠØ§Ø¯ Ø§Ø±Ø§Øª
ĠÙĤØ¨ Ø§Ø¯
ĠÙ¾ÛĮÚ© Ø³ÙĦ
ĠØ¯Ø§ÙĪØ·ÙĦØ¨ Ø§ÙĨÙĩ
ĠÙħØ³Ùħ ÙĪÙħÛĮØª
ĠØ¢ ÙĪØ§Ø±
Ø§Ø¨ ÙĪØ§ÙĦ
ĠS ch
ÙĨÙĪ Ø§Ø²ÛĮ
Ø³ÛĮØ³ Ùħ
ĠÙĤÛĮ Ø§Ø³
ĠØ§ÙĩØ¯ Ø§ÛĮ
ĠØ³Ø±ÙĨÚ¯ ÙĪÙĨÛĮ
ĠØ§Ø¹ Ø¶Ø§Ø¡
ĠØ§Ø¬ Ø¨Ø§Ø±
ĠØ¸ ÙĦÙħ
ĠØ±Ùĩ Ø³Ù¾Ø§Ø±
ĠÙ¾Ø°ÛĮØ± Ø§ÛĮÛĮ
ĠÚ©Ø§Øª Ø§ÙĦÛĮØ²
ĠÙĤØ±Ø§Ø±Ø¯ Ø§Ø¯ÙĩØ§ÛĮ
ĠØ¨Ø±ÙĪÚ© Ø³ÙĦ
Õ ¸
ĠÙĨÛĮ ÙĪÙĩ
ĠÚ©ÙĦ Ø§Øª
ĠÚ¯Ø±Ø¯ ÙĨÙĩ
ĠØ®ÙĪØ§Ùĩ Ø±Ø§ÙĨ
he l
S M
ĠÙĩÛĮ Ø¯Ùĩ
ĠÙĩÙħØ§ÙĨ Ø·ÙĪØ±
Ø®Ø± Ú¯
ĠØ±Ø® Ø¯
ĠØ¢ÙĨØ¯ Ø±ÛĮ
ĠÙģÙĦÙĪØ± Ø§ÙĨØ³
ĠØªÙħØ§Ø´ Ø§Ú¯Ø±
ĠÚĨØ±Ø®Ø´ ÛĮ
ĠØ§ÛĮØ²Ø¯ Ø§ÙĨ
Ġ z
Ùħ Ø§Ø¯Ø±
ĠÙĨ ÙĤÛĮ
Ø§ÙĦ ÙĤ
ĠÙ¾ Ø§Ø¨Ø±
ĠÚĨ ÛĮØ±
ĠØ¨Ø±Ø§ÛĮ Ø´Ø§ÙĨ
ĠØ¬ÙĪ Ø§ÙĩØ±Ø§Øª
ĠØŃÙĤ Ø§ÛĮÙĤ
ĠØ¹ÙħÙĦ Ú¯Ø±
ĠÙħØ§ÛĮ ÙĦÛĮ
ĠØ§Ø´Ø¹ Ø§Ø±ÛĮ
ĠInt ern
Ø¢Ø±Ø§Ùħ Ú¯Ø§Ùĩ
ĠGe org
ĠÙħØ±Ø¹ Ø´ÛĮ
ĠØ§ÙĦÚ©ØªØ±ÛĮ Ø³ÛĮØªÙĩ
ĠÙħØŃ ÙĪ
ĠÙĨØ§Ùħ ÛĮØ¯ÙĨØ¯
ĠÙĨØ§Ú¯ Ø²ÛĮØ±
ĠÙģÛĮØ²ÛĮ ÙĪÙĦÙĪÚĺÛĮ
ĠØ¬ ÙĦÛĮÙĦ
ØŃ ÙĦÙĩ
Ø§Ø¨ ÙĪÙĨ
ĠØ³Ø± Ú¯
ÙħØ§Øª ÛĮÚ©
ĠÙĨØ§Ø¯Ø± Ø´Ø§Ùĩ
Øª Ú©ÙĨ
ĠØ§ÛĮ Ú©
ĠÙ¾ Ø±Ø§ÙĨ
ÚĨ Ø§Ù¾
Ø§Ø² Ø§Ú©ÛĮ
ĠØ¨Ø§Ø² Ú¯Ø´Ø§ÛĮÛĮ
Ú©ÛĮ Ø¯Ùĩ
ĠØ¢Ø²Ø§Ø¯ Ø§ÙĨÙĩ
ĠØ¹ÙħØ± Ø§ÙĨÛĮ
ĠÙĪØ§Ø± ÙĨØ±
ĠÚĨÛĮØ² ÙĩØ§ÛĮ
ĠØ§Ø³ØªØ§Ø¯ÛĮ ÙĪÙħ
ĠÙģÛĮÙĦÛĮ Ù¾Ø³
ĠØ³ÙħØ± ÙĤÙĨØ¯
ĠÙĤØŃ Ø·ÛĮ
ĠÙħØ¹Ø· ÙĪÙģ
Ø³Øª Ø±Ø§ÙĨÚ¯
ĠÙħØ¹ Ø§Ø¨Ø¯
ĠÙĨØ§Øª ÙħØ§Ùħ
ĠÙĦÙĪØ¯ ÙĪÛĮÚ¯
ĠØ¨Ø§Ø²Ú¯ Ø´ØªÙĩ
ĠÙħÙĨØ§ÙĤ Ø´Ùĩ
l an
ĠÚ© ÙĪØ²Ùĩ
ĠØ§ÙĨ Ø¨Ø³
Ø²ÛĮ Ø³ØªÙĩ
ĠØ¢ÙĦ Ú©Ø³
Ø§Ù¾ Ø³Øª
ĠØ¬Ùĩ ÙĨÙħ
ĠÙħØ±Ø¨ ÛĮØ§ÙĨ
ĠØªÚ© ÙĪØ§ÙĨ
ĠØ¨Ø³ Ø²Ø§ÛĮÛĮ
Ġ200 8
ĠØ¬Ø§ÙĨØ¯ Ø§Ø±Ø§ÙĨ
ĠØ® ÙģÛĮÙģ
ĠØ§ÙĨ ØµØ§Ø±
ĠØ¨Ø§Ø² Ú¯Ø±Ø¯Ø§ÙĨØ¯
Ø±Ø§Ùĩ Ø§
ĠØ§Ø³Ù¾ ÙĨ
ĠÛĮØ§Ø¯ Ø´Ø¯Ùĩ
ĠØ¢ÙĤ Ø§ÛĮØ§ÙĨ
ĠØªÚ©Ø± Ø§Ø±ÛĮ
ĠÙĨØ² ÙĪÙĦ
ĠÚ¯ Ø§ÙĦÛĮ
Ø§Ø² Ø§
ĠØ· Ø§ÙĩØ±ÛĮ
Ø§Ø¦ Ø¨
ĠØ¯ÛĮØ¯ Ø§Ø±ÛĮ
ĠÙ¾ÙĪØ´ ÛĮØ¯ÙĨ
ĠØ¯ÛĮÙĨ Ø§ÙħÛĮÚ©
ĠÚ¯ÛĮØª Ø§Ø±ÛĮØ³Øª
3 6
S I
Ã ¨
ÙĤ Ø§Ùĩ
ĠÛĮ ÙĪØ²Ùģ
Ø®Øª Ú¯ÛĮ
ĠØªØŃ ÙĤÛĮÙĤÛĮ
ĠØªØŃ Ú©ÛĮÙħ
ĠÚ©ÙĪÙĩ Ø¯Ø´Øª
ĠØªÙħØ§Ùħ Ø§
Ø¢ÙĪØ±Ø¯ ÙĨØ¯
ĠØ§Ø¹ØªØ± Ø§Ø¶ÛĮ
ĠÚĨÛĮØ² ÙĩØ§ÛĮÛĮ
ĠØ³ ÙĤØ±Ø§Ø·
ĠØª Ø§ÙħÙ¾
Ø§ÙĤ ØªØµ
ĠÙĦ ÙĪÚ¯
ĠØ³Ø± Ø¹ØªÛĮ
ĠÚ¯Ø± Ø§ÙħÛĮ
Ø³Ø± ÙĪØ¯
ĠÙĦ Ø§ÙĦÛĮ
ĠØ´ÙĩØ± Ø¨Ø§Ø¨Ú©
ĠØ³Ø± ÙĪØ¯ÙĨ
ĠØ¹ÙĦÛĮ Ø²Ø§Ø¯Ùĩ
ĠØŃÚ© ÙħÛĮ
ĠØ§Ø³Ù¾ Ùĩ
ĠF or
ÙħØ¹ ÙĨØ§ÛĮ
Û±Û¸Û ²
ĠØ§ÙĨÚ¯Ø´Øª Ø§ÙĨ
ĠØ²ÛĮØ§Ø±Øª Ú¯Ø§Ùĩ
Ø§Ø¯ ÙĪØ±
ĠÚĨ Ø§ÙĨÚ¯
ĠÙ¾ÛĮ ØºØ§Ùħ
ĠØ¹Ø¨ ÛĮØ¯
ĠM w
ĠØªØ§ÛĮ ÛĮØ¯
ĠØ§ÙĨÙĪØ´ ÛĮØ±ÙĪØ§ÙĨ
8 8
ĠÙ¾ÛĮØ´ ÙĨÙĩØ§
ĠÚ©ÙĦ Ø§ÙħÛĮ
Ú©Ø± Ø§ÛĮØ³
it ion
ØªÙĪØ¬Ùĩ ÛĮ
ĠÙħÙĩÛĮ Ø¬
S T
ĠÚ© Ø¹
ĠØ± Ø§ÙĦ
ĠØ¹ Ø°
Ø§Ø³ ÙĪÙĨ
ĠÙħØª Øµ
ĠØ¹Ùħ ÙĪÛĮØ´
ĠÚ¯ÙĦ Ùģ
ĠM on
ĠÙħØ·Ø§ÙĦ Ø¹Ø§ØªÛĮ
ĠÙĨØ§Ø³ Ø§Ø²
ĠÙĪØ¬ ÙĪÙĩ
ĠØ§Ø³ÙģØ± Ø§ÛĮÙĨ
ĠØ· ØºÛĮØ§ÙĨ
ĠØ³Ø± ØªÛĮÙ¾
ĠØ« ÙĪØ±
ĠÛ²Û³ Û°
ĠÙ¾ÛĮÚ© Ø±Ø¨ÙĨØ¯ÛĮ
ĠÙ¾Ø¯ÛĮØ¯ Ø¢ÙĪØ±
ÛĮ ÛĮ
ĠØ¯Ø§Ø± Ø§ÙĨ
ĠØ§ÙĨØ¯ ÙĪÙĩ
Ø¨Ø±ÛĮ Øª
ĠÙĪØ± ÙĤÙĩ
ĠØ¯Ø± Ø¨Ø±Ø¯
ĠØ§ÛĮ Ø±Ø¨
Ø³Øª Ø¯
ÙĪØ´ Ø§ÙĨ
Ø§Ø³ÛĮ Ø§ÙĨ
ĠØŃØ³ ÙĨÛĮ
ĠØ¯Ø®ØªØ± Ø§ÙĨÙĩ
ĠØ¬ÛĮ ÙĪÙĩ
ĠÙĩØ§ÙĪ Ø§Ø±Ø¯
ĠØª ÛĮÙĨ
ĠØ¬ ÙĪÙĨÚ¯
ĠØ§Ø± Ùĩ
Ø¨ÛĮ ØŃ
ĠÙħØ§ÙĩÛĮ Ú¯ÛĮØ±ÛĮ
ÙĪØªÛĮ ÙĪ
ĠØ¯ÛĮØ± Ø¨Ø§Ø²
ĠØ¢ÛĮØ± Ø³
ÙĦ ÙĨÚ¯
Ù¾ Ø§Ø´
Ú©ÙĨ ØªØ±
ĠA g
Ø§Ø¸ Ùħ
at er
ĠH T
ĠØ¨Ø±Ø§Ø¯ Ø±Ø²Ø§Ø¯Ùĩ
ĠÚ¯Ø§Ø± Ø³ÛĮØ§
Û¸ Û°Û°
ĠÙĦØ´Ú© Ø±ÛĮ
ĠØ¶Ø± Ø±
qu e
ĠØ¬Ø°Ø§Ø¨ ÛĮØª
ĠÙħÙĪØ³ÛĮÙĤ ÛĮØ¯Ø§ÙĨ
________ ________
ĠØ±Ø§Ùģ Ø§Ø¦ÙĦ
y r
ĠØ¯ ÙĦÙĪ
ĠÙĨ Ø§ÙģØ±
ÙĪØ¦ ÛĮÙĨ
Ø§ÛĮØ¯ ÙĪ
ĠÙ¾ÙĨØ¬ Ø´ÙĨØ¨Ùĩ
ĠÙħÚ© Ø§ÙĦ
ĠÙĨÙĪØ± ÙĪØ²ÛĮ
ĠØ¯Ø§Ùħ ØºØ§ÙĨ
ing s
ĠÙĩÙĦ ÛĮÚ©ÙĪÙ¾
ĠÚ¯Ø±Ø§ÙĨ Ø¯
Ú©ÙĦÛĮ Ø³Ø§ÛĮ
ĠØª Ø²Ø§Ø±
ĠØ± Ø¨Ø¹
ØŃ Ø¯ÛĮ
ĠØ³ÛĮ ØªØ±
ĠØªØ¨ Ø¹ÛĮØª
is m
ĠØ·Ø±Ùģ Ùĩ
Ù¾ÛĮÙħ Ø§ÙĨ
ĠØªØ³ÙĦÛĮ ØŃØ§Øª
Ø´ ÙĪÛĮ
ĠØ¨Ø± Ø§Ú©
ĠØ³Ø± Ù¾ÙĦ
ĠØ¯Ø§ÙĨ Ø§
ĠÙħØ§ÙĨ ÙĪØ¦ÙĦ
ĠÙĨÙĩ ÙģØªÙĩ
ĠÙħÙģ Ø³Ø±
ÙĦØ² Ùħ
ĠØªØ±ÛĮ Ù¾ÙĦ
ĠÙħÛĮ Ø¯ÙĩØ¯
ĠÙ¾ ÙĪØ²Ùĩ
Ø¬ Ø§Ø³Øª
ĠÙĦ ÙĪÙĨ
ĠÂ »
ĠÙħØ³Øª Ø¹Ø¯
Ú¯ÛĮØ± Ø§ÙĨÙĩ
ĠØ§Ø®ØªØ± Ø´ÙĨØ§Ø³ÛĮ
ĠØªØ´ÙĨ Ø¬
Ø± ÙĪØ¯ÛĮ
ØªØ± ØªÛĮØ¨
ĠÙģÙĪØª ÙĪÙĨ
ÙĩÙĨÚ¯ Ø§Ùħ
ĠØ³ÙĪ ÚĺÙĩ
ÙĨÙħ Ø§ÛĮØ´
ĠØ¯Ø±Ø®Øª ÚĨÙĩ
ĠÚ©Ø´Øª Ú¯Ø§ÙĨ
Ø±ÙĪØ² ÙĨØ§ÙħÙĩ
ĠÙĦ Ù¾
ĠÙħÙĪ Ùģ
ĠÙħØ¨ ØŃ
ĠÙĪÛĮÙĦ Ø§
ĠÙĩÙĨØ±ÙħÙĨØ¯ Ø§ÙĨÛĮ
ĠØ§ÙĨÙģ Ø¬Ø§Ø±ÛĮ
ĠØ¯ÛĮÚ©Øª Ø§ØªÙĪØ±ÛĮ
Ø± Ø²ÛĮ
Ú© Ø§Ø±Øª
ĠØ²ÛĮØ± Ú¯ÙĪÙĨÙĩ
ĠØ¨Ø¯ ØªØ±
ĠÛ±Û² Û¶
Ø¯Ø§Ø¯ ÙĨ
ĠØ¨ÙĨÛĮØ§ÙĨ Ú¯Ø°Ø§Ø±Ø§ÙĨ
ĠØ¨Ø¯ÛĮ ÙĩÛĮ
ĠÙĩØ¬Ø± Øª
Ùħ Ø§Ø²
ĠØ¨ Ø·ÙĨ
Ø§ÙĦ Ø±
ĠØ¯ÛĮ Ú¯
ĠØ§ÙĦ ÛĮØ³
ĠÛ²Ûµ Û¶
ĠÙĩØ§ ÙĪÚ©
ĠØ§ÙħØªÛĮ Ø§Ø²ÛĮ
ĠØ³ÙĪØ³ÛĮØ§ÙĦÛĮ Ø³Ùħ
ĠØ³ÛĮÙĦÛĮÚ© ÙĪÙĨ
ĠÙĨ Ø¬Ùħ
Ù¾ Ø²ÛĮ
ĠØ¨Ø§Ø² ÙĨÚ¯Ø±ÛĮ
Ø¢ ÙĨØ§
ĠØŃØ³ Ú¯Ø±
in c
ĠÙħÙĨØª Ø³Ø¨
ĠÙĨÙħØ§ÛĮØ§ÙĨ Ú¯Ø±
olog y
Ø³ Ø¹ÛĮØ¯
Ø¨ Ø±ÙĪØ²
Ù¾ ÙĪØ³
ĠÚĨ Ø§Ø¨ÙĩØ§Ø±
ĠÙħØ³ Ø§ØŃØªÛĮ
ĠÙĩØ± Ø§Ø³
la m
ĠØ§ÛĮÙĨØªØ± ÙĨ
Ø·Ø±Ùģ Ø¯Ø§Ø±
ĠÙĨÙĪÛĮ Ø³ÛĮ
Ùģ ÛĮØ²ÛĮÚ©
ĠØ§ÛĮÙĨ Ø§ÙĨ
ĠØ² ÙĪØ§ÙĦ
ĠÛ² Û±Û´
ĠÙħØ³ ÙĨ
ĠØ¨ÛĮ Ø§ÙĨÛĮ
ÙħÙĨ Ùĩ
ĠØ±ÙĪÛĮ Ø´
ĠÛ²Û¶ Û°
ĠØ§ÙģØªØª Ø§ØŃÛĮÙĩ
ĠÚ©ÛĮÙĩ Ø§ÙĨÛĮ
ĠØ§Ø¹Øª Ø¯Ø§ÙĦ
ĠÚ© Ø§ÙĪÙĩ
ĠØ´ Ø¨ÛĮ
ĠØ§ÛĮ Ø±ÙĪ
ĠÛĮÚ© Ø³Ø§ÙĦ
Ø²ÛĮ ÛĮ
Ø¯Ø± ÙħØ§ÙĨÛĮ
ĠØ³Ùģ ÛĮÙĨÙĩ
ĠÙħØ§Ø¯ Ø±Ø¨Ø²Ø±Ú¯
Ú©Ø±ÛĮ Ø³Øª
ĠØ¨Ø§Ø· ÙĦ
ĠJul y
C D
Ú¯ ÙĪØ³
Ø¯Ùĩ Ùĩ
ĠØ¨Ùĩ Ø§ÛĮÛĮ
ĠØ® ÙĨØ¯Ùĩ
ĠÙĤØ± Ø¢ÙĨÛĮ
ĠÙ¾Ø§Ù¾ ÛĮ
ĠØ³Ø§ÛĮ Ù¾Ø§
ĠÙĪØ§ÛĮ ÙĪÙħÛĮÙĨÚ¯
ĠÙħØªØ®ØµØµ ÛĮÙĨ
ew s
j p
Ġ( ØĮ
ĠØ§Ùħ ØªÙĨ
ĠØº ÙĨØ§
Ú¯Ø§ÙĨ Ú¯
ĠØ®ÙĪ Ø§ÙĩÛĮ
ĠØ²ÙħØ§ÙĨ Ùĩ
ĠÙħØ³Øª ÙĦØ²Ùħ
en e
ĠÛ±Û· Ûµ
ĠÙĪÛĮØ± ÙĪØ³ÛĮ
Ġa ir
ĠØ¨ÙĦÙĪ ÚĨÛĮ
ĠÙħØŃØ±ÙĪÙħ ÛĮØª
ĠÙĪÚ© Ø§ÙĦØª
ĠÙħ ØªÛĮ
Ø§Ø± Ú¯Ø§Ø¯
ĠØ¨Ø± Ø§Ø²
ĠØ§Ø¯ ÙĪ
Ø´ÛĮ ÙĨØ¯
Ø¯ÙĨ ÛĮØ§
ĠÙħØŃÙħØ¯ ØŃØ³ÙĨ
ĠØªÚ©ÙĨ ÛĮÚ©ÛĮ
ĠØ±Ø¤ Ø³Ø§ÛĮ
yst em
Ùģ ÙĪØª
Ø® Ø¨Ø±
ĠÙĨÛĮØ± ÙĪÛĮÛĮ
ĠC omp
ĠØºÛĮØ± Ø·Ø¨ÛĮØ¹ÛĮ
ĠÛ±Û¹ Û°
ĠØ¢ÛĮ ÙĨØ¯
ĠØ¯Ø§Ø±ÛĮ Ø¯
ĠØ¨ÙĪØ¦ ÛĮÙĨ
ĠØ±Ø¤ ÛĮØ§
l ight
u al
ĠÙģ ÙĦÙģÙĦ
ÙģØ± ÙħØ§ÙĨ
ĠÙĨÙĪØ± ÙħÙĨ
ĠØ±Ø§Ø³Øª ÛĮ
ĠØ²ÙĨØ¯ Ú¯Ø§ÙĨÛĮ
ĠØ³Ø±ÛĮØ¹ ØªØ±
Ø§ÙħÛĮØ¯ ÙĨÛĮ
ĠØ¨ ÙĪÙģ
ĠÚ© Ø§Ø¦
ĠÙ¾ Ø§ÛĮØ´
ĠÙĨØ§Ùħ Ø¹ÙĦÙĪÙħ
ĠÙ¾Ø³ ÛĮÙĨ
ĠØªÙĩ ÙĪØ¹
ĠC D
ĠÙģÙĪÙĦ Ú©ÙĦ
ĠÙĨØ² Ø§Ø¹
Ú© Ø§ÛĮ
ĠØª Ø§Ø³ÛĮØ³
ĠØ¨Ø± Ø§ÙĨØ¯
ĠØ¢ÙĨ ÚĨÙĨØ§ÙĨ
ĠØ¢Ùħ ÛĮØ²ÛĮ
ĠÛĮ ÙĪØ³
ĠÙħØ´ Ú©ÛĮ
ĠØ´Ùħ ÛĮØ±Ø§ÙĨ
ĠØªÛĮÙħ ÙĪØ±ÛĮØ§ÙĨ
er e
ĠÙĤÙĦ Ø¹
ĠÙħØ§Ø± Ú¯Ø§Ø±Øª
Ø§ÙĨØª ÙģØ§Ø¹ÛĮ
ing ton
Ġ Ô
ĠØ³ ÙĪØ¨
ĠÙĨ ÙĪÛĮØ²
ĠØ¨Ùĩ Ø§ÛĮ
ÛĮÚ© ÙĪÙĦ
ĠØ¨ÙĪØ¯ Ø§Ù¾Ø³Øª
ĠÚ©Ø± ÙĨ
ĠB ar
ĠØ±ØŃ ÛĮÙħÛĮ
ĠÙģØ±Ø§Ùħ ÙĪØ´ÛĮ
ĠÙĩØ±Ú© ÙĪÙĦ
Ø§Ø´ Ø§ÙĨ
ĠÙģØ± Ø¬
ĠÙħØª Ø¯
ĠÙģÛĮÙĦ Ø§Ø¯ÙĦÙģÛĮØ§
ĠÙ¾Ø± Ø³ÛĮØ¯
ĠØ³ÙĦ Ø§Ø·ÛĮÙĨ
ĠØ¬Ø§ÙĨ Ø§ØªØ§ÙĨ
ĠÛ±Û² Û´
ĠÙħØ¯Ø§ÙģØ¹ Ø§ÙĨ
ĠØºØ²ÙĨ ÙĪÛĮ
ĠØ§ÙĨØ¹ÙĤ Ø§Ø¯
ĠÙĩ Ú©
ĠØ¬ Ø±Ø§ÛĮ
ØŃ Ø±
ÚĨ Ø±Ø²
ĠØ¨Ø±Ø¯ Ú¯Ø§ÙĨ
ĠÚ©ÛĮ ÙĪØªÙĪ
ĠÙħØ§Ø±ÛĮ ÙĪ
ĠØ´Ø§ÛĮ Ø¹Ùĩ
ĠØ·Ø§ÙĦ ÙĤØ§ÙĨ
ĠÙĨÚĺ Ø§Ø¯ÙĩØ§ÛĮ
) (
ĠÙĪ Ø¨Ø§
ĠØ³ Ø§Ú©Ø³
ĠØ´ Ø§ÛĮØ§ÙĨ
Ø§ÙĦ Ø¯ÙĪ
ĠÛ² Û±Ûµ
ĠØ· Ø±ÛĮ
ĠÙĨÙĩ Ø§ÙĨ
ÙĨØª ÙĪÙĨ
ĠÙħØ§Ø± ÚĨ
ĠØŃÛĮ Ø·Ùĩ
et h
ĠÚ¯ÙĨ Ø¬Ùĩ
Û²Û°Û±Û ±
ĠÙĦÙĪÚ© Ø§Ø³
ĠØ¹Ø² ÛĮÙħØª
ĠÙĨÛĮÙĪØ² ÙĦÙĨØ¯
ØºØ¯ ØºÙĩ
4 9
ĠÙħÙĤ ÙĪÙĦÙĩ
ĠÚ©Ø´Øª ÙĨØ¯
Ú¯ÛĮÙĨ Ø§ÙħÙĩ
Û±Û¸Û ±Û
ÙĨÙħÙĪØ¯ ÙĨØ¯
Ã³ w
ĠØºÛĮØ±Ø¹ Ø§Ø¯ÛĮ
A L
Ùħ Ø¨Ø±Ú¯
ĠÙĪ Ø¨Ø±
Ø¹ Ø¯ÛĮ
ĠØ¨Ø± ØªÙĪÙĨ
ĠØªÙĪ ÙģÛĮÙĤ
ĠÙĦ ÙĪØ±ÛĮ
ÙĪØ¯Ùĩ Ø§
ĠÚĺ ÛĮ
ĠØ¬ÙĨÚ¯ Ø¬ÙĪÛĮØ§ÙĨ
ĠÙģØ±Ø§ÙĨ Ú©ÙĪ
Ø´ÙĪ ÛĮÚ©
Ù¾ ÛĮÙĦ
ĠÚ¯ ÙĦÛĮÙħ
ĠØ¨Ø±Ø§ÛĮ ÙĨ
ĠÙĦ Ø§Ú¯
ĠÙĦ Ø·ÙģÛĮ
ĠÙħØ³ ÙĦØ³ÙĦ
ĠØ¯ÙĪ Ø²ÛĮ
ĠÙĨØ´ ÛĮÙĨÛĮ
ĠØ³Ùĩ Ø§ÙħÛĮ
ĠÙĨØ® Ø¨Ú¯Ø§ÙĨ
ĠØªØ¨ ÙĦÙĪØ±
ĠÚ©ÛĮÙģ Ø±ÛĮ
ĠÛ±Û³Û±Û ¶
ĠÚ©Ø§ÙħÙ¾ Ø§ÛĮÙĦ
Ø®ÙĪØ§ÙĨØ¯ ÙĨØ¯
Ùħ Ùħ
ĠØ§ÛĮ ÙĪØ¨ÛĮ
ĠØ§ÛĮ Ø°Ùĩ
ĠÙģ Ø¦ÙĪØ¯
ĠØ¬Ùħ Ø§Ø¯ÛĮ
ÙħÙĩ ÙĨØ¯
ÙĪÙģ ÛĮÙĦ
ĠØªØ³ ÙħÛĮÙĩ
ĠØ³ÛĮÙĨÙħØ§ ÙĩØ§ÛĮ
ĠCH NO
ĠÙħØŃØªÙĪÛĮ Ø§Øª
ĠØ§Ù¾ÛĮØ² ÙĪØ¯
ĠÚĺÙĪØ±ÙĨ Ø§ÙĦ
3 9
Ø§ ÙĪÚ©
ĠØª Ø¨Øª
Ù¾ Ø§Ù¾
Ø¢ Ø³
Ø« Ø§ÙĦ
ĠÚĺ ÙĦ
ĠØªÙĦ ÙģÛĮÙĤÛĮ
ĠÛ±Û° Û³
ĠÙħØ§Ùĩ ÙĪØ±
ĠØºÛĮØ± Ø§ÙĨØªÙģØ§Ø¹ÛĮ
ĠÙĩÙĨÚ¯Ø§Ùħ ÛĮÚ©Ùĩ
ĠØµØ¯Ø§ ÙĩØ§ÛĮ
ĠØ´Ø¬ Ø±ÛĮØ§ÙĨ
ĠØŃØ§Øª ÙħÛĮ
ĠØ§ÙħØªÙĨ Ø§Ø¹
ÙĨ ÛĮÙħ
ĠÙĪ Ø§Ø¯ÛĮ
ÛĮØ± ÙĪØ³
Ø§Ø¹ Ùĩ
ĠÚ¯Ø± Ø§ÙĩØ§Ùħ
ĠÙħØ§Ùĩ Ø§ÙĨÙĩ
es e
ĠÚ¯ÙĪØ§Ø± Ø´
ĠÚ© ÛĮØ¯
ĠØªØ¨ Ø¹
ĠØ®Ø± ÚĨÙĨÚ¯
ÚĨØ± Ø®
ĠØªÙĨØ¸ÛĮÙħ Ø§Øª
b y
i j
ÙĦ Ø¦
ĠØ¨ Ø²ÙĨ
ĠØ± ÙĤÛĮ
Ø§Øª ÙĪØ§Ø±
ĠØ¹ Ø°Ø±
ĠÙĤ Ø´Ùħ
ĠÛ² Û±Û¶
ĠØ¢ÙĦ ÙĪ
ÙĪØ§Ø± ØªØ²
ĠØ¨ÛĮØ´ Ùĩ
Ø¬ÛĮ ÙĪ
ĠØ¯Ø±ÛĮ Ø§ÙĩØ§
ĠØµØ¯ Ø¯
Ø¬Ø§Ùħ ÛĮÙĨ
ĠÙħÙĩÙĨØ¯ Ø³ÛĮÙĨ
ĠÛ²Û· Û°
ĠØ§ÙĦÛĮ Ú¯ÙĪØ¯Ø±Ø²
ĠÙĤØ±Ø¨ Ø§ÙĨ
Ġ Ùª
Ø±Ø¯ Ø§ÙĨ
Ø§ÛĮØ± Ø§ÙĨÛĮ
ĠØ´ÛĮØ± Ø§Ú©
ĠØªØ±Ø§ÙĨ Ø³Ùģ
ĠØ¨Ø± Ø´ÛĮ
ĠØ§Øª ÙĪ
ĠÙħØªØ± Ø¬
ĠØ§ØŃ Ø±Ø§Ø²
ÙĪÚ¯ Ø§
ĠØ§ÙħØ§Ùħ Ø§ÙĨ
ht m
ĠÛ±Û¸Û¹Û ²
ĠÛ±Û³Û±Û ´
ĠØ±ÙĪÛĮØ¯ Ø§Ø¯ÙĩØ§
ĠÙĩ Ø§ÙĨØª
Ø§Ùģ Ø³
ĠÙĩÙĪ Ú¯ÙĪ
ĠÙĨÛĮÙħ Ø§
ĠØ¢Ø´ Ø§ÙħÛĮØ¯ÙĨÛĮ
am a
ĠØ¹ÙħÛĮ ÙĤÛĮ
ĠØºØ´ Ø§ÛĮ
Ø§ÙĦÚ©Ø³ Ø§ÙĨØ¯Ø±
ĠÚ© Úĺ
ĠÙĦ Ø§ÙĨØ¯
ĠÙĦ Ø§ÛĮØª
Ø§Ú© ÙĪØ±Ø§
ĠØ¯Ø§ÙĨØ³Øª ÙĨØ¯
ĠØ§ÛĮØ² Ø§Ø¨ÙĦ
ĠÙħÙĤ Ø§ÙħÛĮ
Û¶ Û°Û°
ĠÙĨØ²Ø¯ÛĮÚ© Ø§ÙĨ
ĠØ¬ÙħØ¹ Ø§
Ù¾Ø°ÛĮØ± ÙĨØ¯
Ú©Ø±Ø¨ ÙĨ
ĠØ¢ÙģØ±ÛĮ Ø¯Ùĩ
u de
ĠØ¯Ø± Ø§ÛĮ
ÙĪØ± ÙĪØ¯
Ø§Ú©ÙĨ Ø´ÛĮ
ĠØŃÚ© Ø§Ùħ
ĠØ§Ø±Ø¯ Ú©
ĠØ¯ÙĪØ§Ø²Ø¯Ùĩ ÙħÛĮÙĨ
ĠØ±ÙģØ³ ÙĨØ¬Ø§ÙĨ
ĠÙħØ¹Ø¬ Ø²Ùĩ
ĠØ¨ Ø®ÙĪØ§ÙĨØ¯
ĠÙĩÙħ Ø§
Úĺ ÛĮØª
Ø¢ ÙĦÙĪ
ĠØ¨Ø¯ ÙĨØ´
ĠØ« Ø§ÙĦØ«
ĠÙħØ§ÙĨ Ú©ÙĨ
ĠØªÙĤ Ø§Ø¨ÙĦ
ĠØµØ¯ ÙĤ
ĠÙĪØ± Ø§ÙħÛĮÙĨ
ĠØ¯Ø§Ùħ Ù¾Ø±ÙĪØ±ÛĮ
ĠØ§ÛĮØ³Øª Ø§Ø¯
ĠØ¢Ø´ ÙģØªÚ¯ÛĮ
ĠÙ¾Ø§Ø±Ú© Ø±
ĠÚ©Ø§Ø±Ú¯Ø±Ø¯Ø§ÙĨ Ø§ÙĨ
ĠÙĤØ·Ø¹ Ø§ØªÛĮ
Ø¢ÙĤ Ø§ÛĮ
ĠÙħØ§Úĺ ÙĪÙĦ
ĠØ¬ÙģØ± Ø³ÙĪÙĨ
ĠÙĨ Ø¨Ø§Ø´ÙĨØ¯
ĠØªÙĪ ÙĩÙħ
Ú©ÙĨ Øª
ĠC P
ĠØ±ÙĪØ¯ Ø³Ø±
ĠØªØŃØµÛĮÙĦØ§Øª Ø´
l er
ÙĪ ÙĪÛĮØªØ³Ùĩ
ĠÙĨ ÙħØ§ÙĨØ¯
ĠØ¬ Ø§Ø´
ĠÙĦ Ú¯
ĠØ§Ùħ ÛĮÙĦ
ĠÙĨÙħ Ø§ÛĮÙĩ
ĠØ¯Ø³Øª Ø®ÙĪØ´
ĠÙĨØ´ Ø¯ÙĨ
ĠØ¨Ø§Ø´ ÛĮ
ĠØ´ÛĮ Ø·Ø§ÙĨÛĮ
ĠØ§ÙħÙ¾ Ø±ÛĮ
ĠN e
ÙħØ¬ ÙĦÙĩ
ĠÙħØ±Øº ÙĪØ¨
ĠØ³ÙĪØ¡ Ø§Ø³ØªÙģØ§Ø¯Ùĩ
o is
Ùģ ÛĮÚ©
ÙĪØ± ÛĮÙĨ
ĠÚ¯ Ø§Ø¯
Ø¢ Øª
Ø§Ø¦ ÙĪÙĦÙĪ
Ø²Ø¯ ÙĨØ¯
Ø¬ÛĮ Ø¨ÛĮ
ĠØ³ÙĪØ¦ ÛĮØ³ÛĮ
Û±Û³Û ³Û
ĠÙĪØ§Ø´ ÙĨÚ¯
ĠÛ±Û¸Û¸Û ¹
ĠÙĨÛĮØ§ Ú©Ø§ÙĨ
Ø¨ Ø§Ø³
ĠÚ¯ Ø§ÙĨÙĩ
Ø§Ø³ ÙģÙĩ
ÙĪÙĦ ÙĨØ¯
ĠØ¨Ø§Ø² ÙĨÙĪÛĮØ³ÛĮ
ĠÚ©Ø§Ø± ÙĨ
Ø§Ø²ÛĮ Ø§ÙĨ
ĠØ§Ø³Ù¾ Ø±Ùħ
ĠÙħØ§Ø¯ Ø±Ø§ÙĨ
ĠØªØ¸ Ø§ÙĩØ±
ĠØ´ÛĮÙħ ÛĮØ¯Ø§ÙĨ
ĠØ³ÙĪÙĦÙģ Ø§Øª
ĠØ¬ÙĨØ¬ Ø§ÙĦÛĮ
ĠÙħØ¹ÙĨ Ø§Ø³Øª
ĠØ¯ÙĪØª Ø§ÛĮÛĮ
d r
ĠÚ© ÙĪÙĦÛĮÙĨ
ĠØ± ÙĨØ¯ÛĮ
Ù¾ ØªØ±
ĠØ¨Ø± ÙģÛĮ
Øº Ø§Ø±
Ø§Ú¯ Ø±ÛĮ
ĠØ·Ø±ÛĮÙĤ Øª
ĠØ¨ÙĪØ± ÙĨ
Ġ ex
ĠÙħØŃØ¯ Ø«
ĠØ³ÛĮØ§Ø³Øª ÙħØ¯Ø§Ø±Ø§ÙĨ
ĠÙģØ±Ø§ÛĮ ÙĨØ¯ÙĩØ§
ØªÛĮÚ© Øª
ĠØ§ÛĮØ² Ø¯ÛĮ
ĠÙĨØ®ÙĪ Ø§ÙĩÙĨØ¯
ĠØ¨ÛĮÚ© Ø±
ĠÙĨØ§ÚĨ ÛĮØ²
ĠÙħØ±Ø§Øª Ø¹
ĠØ¢Ø±Ø² ÙĪ
ĠÙĩÙħØ³Ø§ÛĮ Ú¯Ø§ÙĨ
Ø± Ø§Ú©
ĠÙĦ Ø§ÙĦ
ÙģØ± Ø´
ÙĪØ² Ø¯
or f
ĠÚ¯ÙĦ Ø¨ÙĪÙĦ
ĠC om
ĠØ±ÙĪÙĨ Ø§ÙĦØ¯
ĠØ¯ÙĪØ´ ÛĮØ²Ùĩ
ĠØ´ Ú¯
ĠØ® Ø§ÚĨ
ĠØ±ÙĪ Ø¨Ø±Øª
Ø®ÙĪ Ø§Ø±ÛĮ
ØµØ± Ø§Ùģ
ĠÙĪÙĦ Ø§ÛĮØ§Øª
ĠÛ±Û±Û ¸Û
ĠÙĨØ§Ø± ÙĨØ¬
Ġ3 0
ĠØŃÛĮØ¯ Ø±ÛĮÙĩ
ĠØ®ÙĦÙģ Ø§ÛĮ
5 5
Ñ Ĥ
Ġ ÃĹ
Ùħ Ú©Ø§ÙĨ
Ú© ÛĮØ§
ĠØ¨ Ø²ÙĨÙĨØ¯
ĠØ¯ Ø§ÙĪÙĨ
ĠÙĨ ÛĮÙĨØª
ĠØ§ÛĮ Ø´
Ø¬ ÙĪÙĨ
ĠØŃ Ø±ÛĮ
ĠÙħØŃ Øµ
ĠÙĪØ¶Ø¹ÛĮØª ÛĮ
ĠÛ±Û¸Û¹Û ´
ĠÚ©Ø³Ø± ÙĪÛĮ
ĠØ³Ø±Ø§ ÙĪØ§ÙĨ
ĠÙģØ±Ø¯ÛĮÙĨ Ø§ÙĨØ¯
a ur
ĠØ¨ Ø§ÛĮÙĨ
Ø±ÙĪ Ø¹
ĠØ§Ø´ Ø±Ø§ÙģÛĮ
Ø§Øµ ØºØ±
Ø§Øº Øª
ĠÛ±Û² Û²
ĠÛ±Û² Û·
ĠØºÛĮØ± ÙħØ¹
ĠØ¬ÙĨÙĪØ¨ Ú¯Ø§ÙĨ
ĠÙĪØ² ÙĨÛĮ
ĠØ¯Ø±Ø¢ÙħØ¯ ÙĨØ¯
ĠÛ±Û¸Û· Û°
Ø¹ ÙĨ
ÙĪØ¨ ÙĪ
ĠÛ±Û° Û¸
ĠÙĨÛĮÚ© ÙĦØ§Ø³
ĠØ³Ø§Ø¹ ØªÙĩ
ĠØ¢Ø´Ú© Ø§Ø±Ø§
B M
Ø± Ø´
Ø§ÛĮ ÙĨØ¯Ùĩ
ĠØª Ø§ÙĤ
ĠØ§ÙĪ Øº
ĠØ¨Ø±Ø¯ Ø§Ø±Ø¯
ĠÚ¯Ø±ÛĮ Ø³
ĠØ±ÙĪÙĦ ÛĮÙĨÚ¯
y m
Ø¢ Ø±Ø§
ĠØ§ÙĦ Ø£
ĠØªØ¹ Ø§ÙĦÛĮÙħ
ĠÙĤØ³ Ùħ
ÙħØ¬ Ø§Ø²
ĠÙħÛĮÙĨ ÙĪØ±
ĠÙĨÛĮØ´ Ø§Ø¨ÙĪØ±ÛĮ
ĠÙģÙĪ Ø¬ÛĮ
Ø§Ø® ÛĮØ²
ĠØ¢Ùħ ÙĦÛĮ
ĠÙĩÛĮ Ø³Øª
ĠØªØ¬ Ø³Ùħ
ĠØ¯Ùħ Ø§ØºÙĩ
ĠÙĪÛĮØ± Ø§ÙĨÙĩ
ĠÙħÙĪÙĦ Ø±
ĠÙĨØ§ Ø§Ùħ
ĠØµØ¯Ø± Ø§Ø¹Ø¸Ùħ
ĠØµØ¯Ø§Ù¾ ÛĮØ´Ùĩ
ÙĦ Ø§ÙĪ
ĠØª ÛĮÚ©
ĠÙĨ Ø´Øª
ĠØ¢ Ú©ÙĪ
ĠÚĨ Ø§Ø±Ùĩ
ĠÙħØ¬ Ø±Ø¯
ĠØ§Øµ ØŃØ§Ø¨
ĠÙĨÙĪØ´ ÛĮØ¯ÙĨ
ÙĨØª ÛĮÙĨÙĪ
Ø´ÙĪ ÙĤÙĩ
ĠØ¹Ø¸ ÙħØª
ÙĪ ÙĪÛĮÚĨ
ĠØ¢ Ø±ÛĮØ§ÙĨ
ĠÙĤ Ø§Ø¹Ø¯
ĠØ®Ø¯ Ø§ÛĮÛĮ
ĠØ¢Ø´ ÙģØªÙĩ
Û±Û¸Û ¸Û
ĠÛĮÛĮÙĦ Ø§ÙĤ
ÙĨ Ø§Ú©ÛĮ
ĠØ¨ ÙģØª
Ø±ÛĮ Ø¹
ĠÚ©Ø´ ÛĮØ¯ÙĨØ¯
ĠÙħØŃ Ø¨Øª
an c
ĠØ¬Ø¯ÛĮØ¯ ØªØ±ÛĮÙĨ
ĠØ³ÛĮÙĨ Øª
ĠØ¯Ùħ Ø§ÛĮÛĮ
Ù¾ÙĪØ´ Ø§ÙĨØ¯
ĠÙħÛĮ ØªÙĪ
ĠØ¨Ø± ÛĮØ²
ĠØ§ÙĪÙĦ Ø§Ø¯
ĠÙĨÙħØ§ÛĮØ´ Ú¯Ø±
ĠÚ©Ø§Ø¨ ÙĦÛĮ
Ð »
ĠØ³ ÙħÙĨØ¯
ĠØª Ø§ÛĮØ±
ĠÙĨ ÙĪÙħ
ÙĪØ± ÙĪÙĨ
ĠØ¨Ø± ÙĪÙħ
Ø§Ø³Øª Ø§Ø¯
Ø¶ Ø§ØŃ
ÙħØ¯ ÙĦ
ĠØ±ÙĪØ² Ø§ÙģØ²ÙĪÙĨ
ĠØ®ÙĪØ§ÙĨ Ø³Ø§Ø±ÛĮ
ĠÙĩØ±Ø¨ Ø±Øª
ĠØªÙĪÛĮÛĮ ØªØ±
ĠØ¨ ÙĪÛĮÙĩ
ĠØ¯ ØºØ¯ØºÙĩ
Ø³ Ø§Ø¨ÙĤÙĩ
ĠØª ØªØ±
ÛĮÙĨ Ø³ÙĪÙĨ
ĠÙĩ Ø¯Ø±
ÛĮØ§ Ú©
ÙĪØ³ Ø§Ø²
ĠÙħØ§Ø± Ù¾ÛĮÚĨ
ĠÙģÛĮ Ø§Øª
le t
ĠØ§Ø¨Ø²Ø§Ø± ÙĩØ§
ĠÛ±Û¸Û¹Û ³
ĠÛ±Û¸Û¶ Û°
Ø§ÙĦØ§ ÙĪÙĦ
ĠØ§Ø° Ø¹Ø§ÙĨ
ĠÚĨØ´ ÙħÛĮ
ÛĮ Ø§Ø³ÙĪ
Ø§Ø± ÛĮÚ©Ø§
ĠØ§ ÙĪØ§ÙĨ
ĠØ² ÙĩØ±Ùĩ
ĠØ¨Ø§Ø²ÛĮ ÙĩØ§ÛĮ
ĠØ§Ø· ÙģØ§ÙĦ
ĠØ§Ø· Ø±Ø§ÙģÛĮ
ÙĤØ± ÙĨ
ĠÚ©Ø§ÙĦ ÛĮÙĨ
Ø¹Ø¨ Ø¯Ø§ÙĦÙĦÙĩ
ĠÙħØ¹ØªØ¨Ø± ØªØ±ÛĮÙĨ
6 4
ĠØ§Ø³Øª Ø±ÛĮØª
Ø® Ø±Ùħ
ØŃ ÙĪÙĨ
ĠØ´Ùħ Ø¹
ĠÙĨØ® Ø¬ÙĪØ§ÙĨ
Ú¯ÛĮØ± Ø§ÙĨ
ĠÚ¯ÙĨ Ø¨Ø¯ÛĮ
ĠØ±Ø² ÛĮÙĨ
ĠÛ±Û¸Û¸Û ¸
ĠÙĩØ§ÛĮÙĨ Ø±ÛĮØ´
ĠÙĪ Ø§Ú¯ÙĨ
Ø§Ø¨ Ø¹ÛĮ
Ø§Ø· ÙĤ
ĠØ§ÙĦÚ©ØªØ± ÙĪØ¯
ĠØ§ÙĪØ± ÚĺØ§ÙĨØ³
ĠØ³Ø§Ùħ Ø§ÙĨÛĮ
ĠØ³Ú© ÙĪÙĦØ§Ø±
Ġb y
ĠØ¨Ø³ Ø§ÙħØ¯
ĠØ³ÙĪØ§Ø± Ø§ÙĨ
ĠÙĨØµØ± Ø§ÙĦÙĦÙĩ
ĠØ¯Ø§Ø±Ø§ÙĦ ÙģÙĨÙĪÙĨ
ĠÙĪ Ø§Ø¹Ø¸
ĠÙ¾ Ø§ÙĩØ§
ÛĮÙħ Ø§ÙĨ
Ø§Ù¾ ÙĪ
ĠÙ¾Ø± ÙĦ
ĠÙ¾Ø± Ø·Ø±ÙģØ¯Ø§Ø±
ĠØ³Ùħ Ø¨ÙĦ
ĠØ´Ø§ÛĮ Ø³ØªÚ¯ÛĮ
ØŃÙħ Ø§Ùħ
ĠØ³ÙħÙģ ÙĪÙĨÛĮÚ©
ĠÙĦÛĮØ² Ø±ÛĮ
3 4
s tr
ĠÙĨ ÙĦØ³ÙĪÙĨ
ĠØ¨Ø§Ø² Ú¯Ø±Ø¯Ø§ÙĨ
Ġ) ØĮ
in ce
ĠÙħØªØ¹ Ø§Ø±Ùģ
ĠØ¹Ùģ ÙĪÙĨÛĮ
Ù¾Ø±ÙĪ Øª
Ø´ ÙĦ
ĠØ³ Ø§Ø¦ÙĪ
ÙĩÙĨ Ø±ÛĮ
ĠØªØ£Ø«ÛĮØ± Ú¯Ø°Ø§Ø±ÛĮ
Ø§ÙģØª Ø§Ø¯Ùĩ
ĠÛ±Û³Û² Û³
Ġf rom
ĠÙĨØªÙĪØ§ÙĨØ³Øª ÙĨØ¯
ĠÚ© Ø§Ø´ØªÙĩ
Ø¨ ÙĨØ§ÛĮ
Ø§ÛĮØª Ø³
ĠÛ±Û¸Û ¸Ûµ
Û±Û³Û ±Û
ĠÙħØ·ÙĦÙĪØ¨ ÛĮØª
ĠØ¯ÙħÚ©Ø±Ø§Øª ÛĮÚ©
ĠØ² ÙĪØ±ÛĮ
ĠØªÙĪ ØŃÛĮØ¯
ĠÙħØª Ø§ÙĨ
ĠØªØ± Ø§Ùħ
ĠØ¨ÙĦ ÚĺÛĮÚ©ÛĮ
ĠØ§ÛĮÙĦ Ø§ÙħÛĮ
ov er
ĠÙĨÚ©Ø±Ø¯ ÙĨ
ire ct
ĠØª ÙĤÙĦØ¨
Ø¬ Ø±Ùĩ
ĠØ¬ ÛĮÙĨÛĮ
ĠÙģ ÙĪÙħÙĨ
ĠØ§Ø³ Ú©ÙĪ
ĠÚ©Ø§Ø± ÙĩØ§ÛĮØ´
ĠÙ¾Ø± ÚĨ
ĠÙĩÙĪ Ø§Ø¯Ø§Ø±
ĠØ¨Ø±Ø® Ø§Ø³ØªÙĩ
ÙĢ ÙĢ
ĠÙĩÛĮØ¯Ø±ÙĪ Ú©
ĠÛĮÙĪÙĨÛĮ ÙĪØ±
ĠÙĩÙĦÛĮÚ©ÙĪÙ¾ ØªØ±
ĠØ¢ Ø³Ùħ
ĠÙħØ± ÙħÙĪØ²
Ġ1 7
ĠÙħØ¨Øª ÙĦ
ĠÙħÙħØ§ÙĨ Ø¹Øª
Ġ ÛĮØ´Øª
ĠØ ¥
Ø± Ø§Ø³ØªÙĩ
ÙĨÙĩ Ø§Ø¯
ĠI nd
ĠÙ¾Ø±Ø³Øª Ø§Ø±
ĠÙħØ¶ Ø±
ĠØ¬ÙĪØ´ Ú©Ø§Ø±ÛĮ
ĠØ¢ÙĪÛĮØ² Ø§ÙĨ
Ø¨ ÙĨØ²
ĠÙĩ ÛĮØ²
ØªØ± Ø³
ĠØ§ÙĨ ØµØ±Ø§Ùģ
ĠÙħØª ÛĮÙĦ
ĠØ±Ø³ ÙĦ
ĠØªØ´ Ø¨ÛĮÙĩ
Ø§Ø±Ø´ Ø§
ĠØ§Ø³ØªÙĨ ÙģÙĪØ±Ø¯
ĠØ¢Ø±Ùħ Ø³ØªØ±Ø§ÙĨÚ¯
ĠÙħØ¸ÙģØ± Ø§ÙĦØ¯ÛĮÙĨ
w e
ĠØ´ Ú©ÛĮ
Ø¢ ÛĮÙĨ
Ø¯Ø± Ø¬Ùĩ
ĠÚ©ÙĦ Ø§Øº
ĠÙĨØ® ÙĪØ¯
Ø®ÙĪ Ø§ÙĩÙħ
al i
ĠØ³Ø§ÙĨ Ø³Ú©Ø±ÛĮØª
ĠØ§ÙĦØ¬Ø² ÛĮØ±Ùĩ
ØªÛĮÙĨ ÙħÙĨØª
ĠØ¯Ø§ÙĦ Ø§Ø³
ÙĨ ØªÛĮØ¬Ùĩ
ĠÚ© ÛĮÙĨÙĩ
ĠØ¬ Ø²ÛĮÛĮ
ĠÚĺ ÙĪÙĦ
Ú©ÙĦ Ø±
ÙĨØ¬ Ø§Ø±
Ø§Ø¯Ø± Ø§Ùĩ
ĠØªØ¬ Ø³ÙħÛĮ
Ø±ÙĪØ¯ Ø®Ø§ÙĨÙĩ
ĠÚ©Ø§Ùħ Ø±Ø§ÙĨ
ĠÚ¯Ø² ÛĮØ¯
ĠØ¹ÛĮÙĨ Ú©
ĠØ¨Ø³Øª Ú©
ĠØ¯Ø±Ø§Ø² Ø§ÛĮ
Ġw ith
Ġ as
Ú¯ Øª
ĠØ² Ø§
Øº Ø¯ÛĮ
ĠÙĨÙģØ± ÛĮÙĨ
ÙĪÚ© Ø§Ø³Øª
ĠØ¨ÙĨ Ø¬Ø§ÙħÛĮÙĨ
ĠÙħØªØ± Ø§Ø¯Ùģ
ÙħØ¬ ÛĮØ¯
ĠÙ¾Ø§ÙĨ Ø§ÙħØ§
ĠQ u
Ð º
ÙĨ Ø³ÛĮØ§
Ø¨ Ø³ØªÙĩ
ĠØ¨Ø§ Ø¯ÙĩØ§ÛĮ
ĠØ±ÙĪ ØºÙĨÛĮ
ĠÚ©ÙĦ Ø³ØªØ±ÙĪÙĦ
Ø³Ú© ÙĪÙ¾ÛĮ
ÙĬ Øª
ĠÙħØ±Ú¯ Ø¨Ø§Ø±
ĠØ§ØŃØªÙħ Ø§ÙĦØ§Øª
ĠØ§Ø³ØªØ§ÙĨØ¯ Ø§Ø±ÛĮ
ĠÚ©ÙĪØ´ ÛĮØ¯
ĠØ®Ø§Øª Ùħ
f er
Ġ at
Ùħ ÙĪØ±Ø¯
Ø³ ÙĦØ§Ùħ
ĠØ² Ø±ÛĮ
ĠÙģØ± Ø´ØªÚ¯Ø§ÙĨ
ĠÙĨØ§Ùħ ÙĩØ§ÛĮ
ĠØ§Ø¯ ÙĪÛĮÙĩ
ĠÙĩÛĮ ÙĪØ³ØªÙĪÙĨ
ÙĦÙĪ ÙĦÛĮ
ĠÚ©Ø§ÙĨ ÙĪÙĨÛĮ
ĠØ²ÙĨ Ø§Ø´
ĠØ¨ÙĦÙĨØ¯ ØªØ±
et t
ĠÙĦÙĪØ¦ ÛĮØ²
Û²Û°Û±Û °
ĠÙģØªÙĪ ØŃØ§Øª
| |
ĠØŃ ÙĦÛĮ
ÙģØ± Ø§Øº
ĠØ¨Ø§Ø² Ø®ÙĪØ§ÙĨÛĮ
ĠØ¯ÛĮ ØªØ±
ĠØ±ÙĪØ² Ú¯Ø§Ø±ÛĮ
ĠÙħØŃÙħØ¯ Ø¢Ø¨Ø§Ø¯
ĠÚ©ÙĦÛĮ ÙĪÛĮ
es h
ĠÚ© Ø¨
ĠØ¨Ø± Ø¢ÙħØ¯Ùĩ
ĠØ¨Ø§Ø² Ú¯Ø±Ø¯Ø§ÙĨØ¯ÙĨ
ĠØ³Ø±ÛĮ Ø§ÙĨÛĮ
ÙĪÛĮØ± Ø§
ĠØ§Ø®ØªÛĮ Ø§Ø±ÛĮ
ad a
Û±Û±Û °
ĠÙħÙĪØ§Ø² Ø§Øª
ĠÙħØ§Ø¨ ÙĤÛĮ
ĠÙħÛĮ Ø³
Ø® ÙĦÛĮ
ĠÙħÙĨ Ø³
ÙĪØ´ Ú©ÙĨ
ĠÛ±Û° Û¹
ĠÚ©ÛĮ Ø®Ø³Ø±ÙĪ
Ø§ÙĪÛĮ Ø§
ĠÙħÙĩØ§Ø¬ Ø±ÛĮÙĨ
ĠÙĤØ¶ Ø§Ø¦ÛĮÙĩ
ĠØ§ÙĦÙĤ Ø§Ø¹Ø¯Ùĩ
ĠØ®ÙĪØ§Ø± Ø²ÙħÛĮ
ĠØ§Ø¬ ØªÙĩ
ĠØ¨Ø¹ ÙĦØ§ÙĪÙĩ
for m
ĠÛ±Û´ Ûµ
ĠØ§Ø±Ø¯ ÙĦØ§ÙĨ
ĠÚ¯ÛĮÙĦ Ø§Ø³
ĠØ±Ø¶ Ø§Ø®Ø§ÙĨ
ĠÙģØ±Ø§ Ú¯Ø±ÙģØª
ĠÙĤØ² ÙĦØ¨
Ø¨ÙĨØ¯ Ø¯
ĠÙħØ´Øª Ø§ÙĤ
ĠÚ¯Ø³Øª Ø±Ø¯Ú¯ÛĮ
3 2
E D
Ġ or
ÙĪ Ø§Ø¨
Ú© Ø§Ø²
Ú© ÙĪØ¨ÛĮ
ĠØµ Ø§ÙĦØŃÛĮ
ĠÙħØ¯ ØŃ
ĠØ¯Ø±ÛĮØ§ ÙģØªÛĮ
ĠØ´Ùĩ Ø¯Ø§ÛĮ
ÙĬ ÙĦ
ĠÚ©Ø§Ùħ Ø¨ÙĪØ¬
ĠÙĨÛĮØ§ ÙĪØ±Ø¯
ĠØ¨ÙĪÛĮ ÚĺÙĩ
ĠÙħÙĪØ±Ø® ÛĮÙĨ
Å į
ĠØ¨ Ø³Ø§Ø²ÙĨØ¯
ÛĮÙĨ Ø³Ú©ÛĮ
ĠØ® Ø³Ø±
ÙĪØ¨ ÙĦ
ĠØ¨Ø§Ø± Ø¨Ø§Ø±Ø§
ĠØŃØ³ Ø§Ùħ
ĠØ¢ÙĪ Ø§Ø²Ùĩ
ĠØ¹ÛĮ Ø¨
ĠÙĩ ÛĮÚ©
ĠÙģ Ø³ÛĮÙĦ
Ø§Ùģ Ø§Øª
ÙĤÛĮ ÙĤÙĩ
ĠC r
ĠÙĤØ§ÙĨ Ø¹
ĠØ®Ø±Ø¯ Ø³Ø§ÙĦ
ĠÚ©Ø±ÛĮØ³Øª Ø§ÙĦÛĮ
ĠĠ ĠĠĊ
ĠÛ±Û¸Û¸Û ·
ĠØºÛĮ Ø§Ø«
ĠÙħØ´ØªÙĤ Ø§Øª
ĠØ§ÙĨØ¨Ø³ Ø§Ø·
Ã §
ĠÙģ ÙĨØ¬Ø§ÙĨ
ÛĮØ± Ø§ÙĨÛĮ
Ø§ÛĮØ´ Ùĩ
ĠØªÚ© Ø§ÙĨÙĩ
ĠØ§ÙĤØ¯Ø§Ùħ Ø§ØªÛĮ
Ø¢ÙĦ ÙħØ§ÙĨ
ĠØ±ÛĮØ² Ø´Ú¯Ø§Ùĩ
ĠÙĦÙĪÚ© ÙĪÙħ
ĠØªÙĨØ¯ Ø±ÙĪ
ĠÙħØ¬ØªÙĩ Ø¯
ÙģØª Ø±ÛĮ
ĠØ§Ø± ÙĦ
ĠØ¢Ø¨ Ø´
er g
ĠC l
ĠÚ¯ÙĨ Ø§Ø¨Ø§Ø¯
ĠÙħØ´Ø§ÙĪØ± Ø§ÙĨ
ĠÙĨØµÛĮ Ø¨
ĠÙĪØ§Ø´ÙĨÚ¯ ØªÙĨ
S C
Ø§ÙĨ ÙĪØ±Ø¯ÛĮ
Ø§ÙĦ Ø²ÙħØ§ÙĨ
ÚĨ Ùģ
Ø§ÙĨØ¯ Ø§Ø²Ùĩ
ĠÙĨÛĮ ÙĪÚ©
ĠØ§ØŃ ÛĮ
ĠØ±Ø§Ùĩ ÙĨÙħØ§
ØºÛĮ ÛĮØ±
ĠÚ¯ÛĮ Ú¯
ĠÙħØ´Ùĩ ÙĪØ±ÛĮ
ĠÚĨØ§ÙĦ ÙĪØ³
Ø¶ÙĦ Ø¹ÛĮ
] .
Ùģ ÙĦØ³
ĠØ¢ÙĨ Ú©Ø§Ø±Ø§
ÙĨØª ÛĮÙĨ
ĠÛ±Û±Û ³Û
ĠØ¨Ø±ÛĮ Ø³ØªÙĪÙĦ
ĠØ¹Ø´ ÙĤÛĮ
ĠPr ov
ĠÚ©ÙĪØ² ÙĪÙĪ
ĠØª ÙĨØ¯ÛĮ
Ø§ÙĦ Ø§Ùħ
ØªØ± Ø§ÙĨ
ĠÙħØ± ÙĪØ¯Ø´Øª
ĠØ§Ùģ Ø´Ø§Ø±ÛĮ
Ø§Ø±Øª ÙĪ
ÙħÙĪ Ø¬
ĠA C
ĠÙĪØ§Ø± ÙĨ
ĠÙĪØ§Ø¬ Ø¨
) Â»
ĠÙĨ Ø§Ùģ
ÙĩØ± ÙħØ²
ÙĪÙĩ ÛĮØ¯
ĠÙ¾ÚĺÙĪÙĩØ´ Ú¯Ø§Ùĩ
ĠÙ ¢
ĠØ¢ÙĪ Ø§Ø²ÛĮ
ĠÛĮÛĮÙĦ Ø§ÙĤÛĮ
ĠØ³ÙĪØ¦ÛĮ ÚĨ
ĠÙħØ¨ØŃ Ø«
ĠÙĨÛĮÙĨØª ÙĨØ¯ÙĪ
ĠØ³ ÙħÛĮÙĨ
ĠØ¹ Ø¬Ùħ
ĠÚĨ Ø§ÙĦÙĩ
Ø®Ø´ ÛĮ
ĠÚ© ÙĪÙĨÚ¯
Ø® Ø±ÛĮ
ĠÛ² Û±Û·
ĠÙħØ« Ø§Ø¨Ùĩ
os e
ĠÚ©ÙĪÙħ Ø§Ø±
ĠØ² Ø§Ø¨
Ø§ØŃ ØªÙħ
ĠØ¨ÙĨ Ø§ÙĩØ§
ĠØ·Ø¨ Ø³
ĠØ¯ÛĮØ¯ ÙĨØ¯
ĠØ´Ø¹ Ø¨
ĠÚ©ÙĨØªØ± ÙĦÛĮ
ĠÛ²Û² Ûµ
c on
ĠÚ© Ø³Øª
Ú¯ ÙĪÙĩØ§ÛĮ
ĠØ´ ÙĪØª
ÛĮÙħ Ø´Ú©
Ø§Ú© ØªÛĮÙĪ
ĠÚ©ÙĨ Ø³Ø±ÙĪ
ĠØ« Ø§Ø¨ØªÛĮ
ĠÚĨÙĩ Ø§Ø±Ø¯
ĠØ§ÙħÛĮØ± Ø§ÙĨ
ĠØ±ÙĪÙĨ ÙĪÛĮØ³ÛĮ
ĠØ±ÙĤØµ ÙĨØ¯Ùĩ
uc k
Ø§ÙĦÙĨÙĩØ± ÛĮÙĨ
8 4
9 0
i en
Ùħ Ø§Ø¯Ùĩ
ÙĤ Ø§Ø±
Ø² ÛĮØª
Ø® Ø±ÙĪ
Ø§ÙĤ ÙĦÛĮ
ĠØ´ÙĩØ± Ú©Ø±Ø¯
ÙģÛĮ Ø§ÙĨ
Ø³ØªØ± ÙĪÙĨ
ĠØªØ¹ Ø§ÙĪÙĨÛĮ
ĠÙħÙĪØ¶ÙĪØ¹ Ø§ØªÛĮ
ÙĪØ§ØŃ Ø¯
ĠØµÙĪÙģÛĮ Ø§ÙĨ
! Â»
3 7
ĠØ¯ÛĮÚ¯Ø± Ø´
an y
ĠØ¬Ø± ÙĤÙĩ
ĠØ²ÙĨØ¯ Ú¯ÛĮÙĨØ§ÙħÙĩ
ĠØ±Ø§Ø¬ Ø±Ø²
ĠØ®Ø³ Ø§Ø±Ø§Øª
ĠÙģØ¶Ø§Ù¾ÛĮÙħ Ø§
Ø¨ ÙĨØ§
ĠØ§ÛĮÙĨ Ú©Ø§Ø±
ĠÙģØ± Ú¯Ø´Øª
ĠÚ©Ø±Ø¯Ùĩ Ø§ÛĮ
ĠÙħÙĦ Ø¨ÙĪØ±ÙĨ
ĠÙģÙĦ Ø§Ø³ÙģÙĩ
ĠÙħØ§Ø± Ù¾ÛĮÚĨÛĮ
ĠØ³Ø§ÙĨØª ÛĮØ§Ú¯ÙĪ
ĠØ§Ø¹Ùħ Ø§ÙĤ
ĠÙħØ§Úĺ ÙĪØ±
oh n
Ð ²
ĠÙĨ ØªÙĪØ§ÙĨØ³ØªÙĩ
ĠÚ©Ùĩ Ø±ÛĮØ²
ĠØ¨Ø§ Ú©Ø³
Ø§ÙĨØ¯ ÛĮØ´
ĠÙħØ¹ Ø´ÙĪÙĤÙĩ
Ø§Ø¨ÙĦ ÙĪ
ĠÛ· ÛµÛ°
ĠÙĪØ± ÙĨ
ĠÙĤØ·Ø¹ Ø§
ĠÙħÙĨØŃ Ø±Ùģ
ĠÚĨ Ø±Ú©
ĠÙģØ± ÙĪÛĮØ¯
Ø¦ ÙĪÙĨÚ¯
ĠÚ©Ùħ Ù¾ÙĦ
ĠØ³Ùĩ ÙĦ
ĠØ§ØªÙĦØªÛĮÚ© ÙĪ
ĠØ¨ÙĩØ§Ø¡ Ø§ÙĦÙĦÙĩ
ĠØ±Ø¬ÙĪ Ø¹
ĠØ¬Ø±Ø§ÛĮ Ùħ
Ùĩ Ø´Øª
Ø³ Ø§Ø®ØªÙĩ
ĠÚ© Ø§Ú©Ø§
ĠØ´ ÛĮØ±Ùĩ
ĠÙĨ Ø§Ø¦ÙĦ
ĠØ® ÛĮØ±Ùĩ
ÛĮØ§ Ø¯Ùĩ
ĠØ±ÙĪ Ú©Ø´
ĠØ° ÙĪÙĤ
ĠØ¯ÙĦ ØªØ§
Ø¨ÙĨ Ø§Ø¨Ø±
ĠØªØ±Ø§Úĺ Ø¯ÛĮ
c r
l u
ĠØ± ÙĨÙĩ
ĠØ± Ø¬Ø§ÛĮÛĮ
ÙĪÙħ ÙĪÙĨ
Ø®ÙĪ Ø¨ÛĮ
at es
ĠØ²ÙĨ Ø§ÙĨÛĮ
ĠØ·Ø¨ÙĤ Ø§ØªÛĮ
ØªØ³ Ø§Ø¨
ÙĨ ÙĩØ§ÛĮÙħ
ĠÙģ ÙĦØ§Ùħ
ĠØ¨Ø§ ÙĤÛĮÙħ
ĠÙĦ Ú¯Ø§Ø±ÛĮ
an ce
ĠØªØ¬ ÙĦÛĮÙĦ
ĠA k
ĠÙĩÙĪØ§Ù¾ÛĮÙħ Ø§ÙĩØ§
ĠÛ±Û¸Û¸Û ¶
Ù¾Ø§Ø¯ Ø´Ø§Ùĩ
ĠÙħØ³ØªØ¹Ùħ Ø±Ø§Øª
Ùħ Ø³Øª
ĠØ¨ Ø§ØªÛĮ
Ø¨ ÙĩØ±
Ø¨ ÛĮØ²
ĠØ§Ø³Øª Ø¨
ĠØ´ÙĩØ± ÙĩØ§ÛĮÛĮ
Ú¯Ø± ÛĮÙĨ
ĠØ³Ø± Ø®Ø±Ú¯
ĠØªØ¹ ÙĪÛĮÙĤ
ĠÙ¾ÛĮØ± Ø³
ĠÙ¾Ø§Ø³ Ø§Ø±Ú¯Ø§Ø¯
ĠÙģØ±Ø³ØªØ§Ø¯ ÙĨØ¯
ĠÙĤØ¯Ùħ ØªÛĮ
ĠØ§Ø³ØªØ¹Ùħ Ø§Ø±ÛĮ
ĠØ§Ø³Ù¾Ø± ÛĮÙĨÚ¯
ĠØ±Ø§Ø¨ÛĮÙĨ Ø³ÙĪÙĨ
ĠÙĦØ§Ø±ÛĮ Ø¬Ø§ÙĨÛĮ
ĠÙĨØ§Ø¢ Ø±Ø§ÙħÛĮ
ĠÚĨØ³ Ø¨ÛĮØ¯Ùĩ
ĠØ¢Ø±ÙĨ ÙĪÙĦØ¯
ĠÙĨ Øº
Ø§Ùħ Ø±ÙĪØ²Ùĩ
Ø³Ø± Ø§ÛĮÛĮ
ĠØ¬ÙĦ Ø§ÙĦÛĮ
ĠÙ¾Ø§Ú© Ø³ØªØ§ÙĨÛĮ
ĠÚ¯Ùħ Ø±Ú©
ĠØ±Ø³ÙĪØ¨ Ø§Øª
ĠØ±Ø§Ú¯ Ø¨ÛĮ
ĠØ®ÙĦ Ø£
ĠØ¨ÙĪØ± Ú¯
ĠØ§ÙĦÙħ ÙĪØª
ĠØ®Ø±ÛĮ Ø¯Ø§Ø±
ĠÚ¯Ùħ Ø§Ø´Øª
Ø¬ÙĨ ÙĪØ¨ÛĮ
ĠØ³ÙĪØ§Ø¯ Ú©ÙĪÙĩ
Ø¬Ø´ÙĨ ÙĪØ§Ø±Ùĩ
ĠØ¨Ø±ØŃ Ø³Ø¨
ĠØ§ÛĮØ±Ø¨ Ø§Ø³
Ø³ Ú©Ùĩ
ĠÙĪ Ø§Ú©ÙĨØ´ÛĮ
ĠÙĨ ØªÙĪØ§ÙĨØ¯
ĠØ¨Ø± ÛĮÙĨ
ØŃ Ø§Ú©
ĠØ§ÙĨØª ØŃ
ĠØ®Ø§ÙĨ ÙĤØ§Ùĩ
ĠÚĨÙĩØ§Ø± ÚĨÙĪØ¨
ĠÙħØµØ¯ ÙĪÙħÛĮØª
ĠÙħØªÙĤ Ø§Ø¶ÛĮ
ĠØ²ÙĨØ§Ø´ ÙĪÛĮÛĮ
ĠØª ÙĨØ¯Ø±
Ø§ÙĨØ¯ Ø²
Ø´ÛĮ Ù¾
Û²Û° Û°Û¸
ĠØ²ÛĮÙĨ ØªÛĮ
F A
Ú¯ Ùħ
ĠØ³ Ø§Ùģ
Úĺ Ø±
ĠØ¨ÛĮ Ú¯Ø§ÙĨ
ĠØ§Ùĩ ÙĪØ±
ĠØªÛĮÙħ Ø´
ĠÙħÙģ Ø§ØµÙĦ
ĠÙ¾Ø§Ø±Ú© ÛĮÙĨÚ¯
ĠÚ¯Ø´Øª ÙĨØ¯
Ġd el
Ø§ÙĦØªØŃ ØµÛĮÙĦÛĮ
ĠØ¯Ø¨ÙĦÛĮÙĪØ¯Ø¨ÙĦÛĮ ÙĪØ¦ÛĮ
ĠØ¯Ø± ÙħÛĮØ§ÙĨ
ĠØª Ø¨Ùĩ
Ù¾ ÛĮØ¯
ĠØ® ØªÙĨÙĩ
ĠÙĨØ® Ø§Ø¹ÛĮ
ĠØ¨Ø§Ø¯ ÙĨ
ĠÙħØ±ÛĮ ÙĪØ§ÙĨ
ĠÙĤÛĮ ØµØ±
ĠØ§Ø³ØªØ« ÙĨØ§ÛĮÛĮ
ĠÙħØ¹Øµ ÙĪÙħÙĩ
ĠØ¨Ø¬ÙĨ ÙĪØ±Ø¯
l ine
ĠØ¬ Ø§Øª
ĠØ¨Ø± Ø¨Ø±
ĠØµ ÙĦ
ĠÙģØ± ÙħÛĮ
ÙĨØª Ø§ÙĦ
ĠØªØ³ÙĩÛĮÙĦ Ø§Øª
Ø§ÙħØ§Ùħ Ø²Ø§Ø¯Ùĩ
ĠØ§Ø³Ù¾ÙĨ Ø³Ø±
ĠØ« Ø§ÙĨÛĮ
ÙĤÙĦ Ø§Ø¨
ar r
ĠØ²Ø¯ Ø§ÛĮÛĮ
Ø§Úĺ ÙĨØ²
ĠÛ±Û³Û±Û ³
ĠØ¬Ø§Ø³ ÙĪØ³
ĠÚ©ÙĪØ§Ø± Ú©
I n
f a
Ø¨ ÙĦÙĪ
ÙĪÙħ Ø§ÙĦÛĮ
ĠÙģÛĮÙĦÙħ Ø³Ø§Ø²ÛĮ
ĠØ³Øª ÙĪØ¯Ùĩ
Û²Û° Û°Û¶
ow er
ĠÙħØ² Ø§ØŃ
ĠÙĦØº Ø§Øª
ĠØŃØ¬ Ø§Ø²ÛĮ
ĠØ´Ø§Ø±ÙĦ ÙĪØª
Ùħ Ø§Ø³Ø¨
Ú© Ø§Ùĩ
ĠR eg
ÙĨØ³ Ø®Ùĩ
Ù¾ÙĪØ´ Ø§ÙĨ
ĠÛ±Û³Û±Û °
ĠØ¨ÙĨÚ¯ Ø§ÙĦ
ĠÙħØŃØª ÙħÙĦ
ĠÙĨÙĪÛĮ Ø³Ùĩ
ĠØªØ§Ø¨ÙĦ ÙĪÛĮ
ĠØ±ÛĮÙħ ÙĪÙĨØ¯
Ø³ Ø±Ùħ
Ø§Ø± Ø§ØªÛĮ
ĠØ§Ø³Øª ÙĪØ§
ĠÙĩÙħ Ø¯
ĠØ³ÛĮ Ø§ÙĦØ§Øª
Û²Û° Û°Ûµ
ÚĨØ§Ø± ÙĦØ²
ot t
ĠØ¯Ø±Ø§Ùħ Ø§ØªÛĮÚ©
ĠØ³ÙĪØ®Øª Ú¯ÛĮ
Ú© Ø§ÚĨ
Ø² ÙĪÙĨÛĮ
ĠØ¬ ÙģØ±ÛĮ
ÙĨÛĮ Ø§ÙĨ
en a
ĠÙ¾Ø§Ø³ Ø®ÛĮ
ĠÙ¾ÚĺÙĪÙĩ Ø´Ú©Ø¯Ùĩ
ĠÙ¾Ø´Øª Ú©ÙĪÙĩ
ĠÙ¾ÙĨØ§Ùĩ ÙĨØ¯Ú¯ÛĮ
ĠØ¶ÙħÙĨ Ø§
ĠØªØ±Ø¯ Ø¯
ĠØ§Ø³ØªØŃÚ©Ø§Ùħ Ø§Øª
ĠÙħØ¹Øµ ÙĪÙħ
ĠØ²ÙĪØ±ÛĮ Ø®
ĠØ³ ÛĮØ¯ÛĮ
ĠÙĩ Ø§ÙĦÙĩ
Ø§Ø¯ ÙĪØ§Ø±Ø¯
Ø§Ø² ÛĮØ±
ĠØªÙĪ Ø¨
ĠÙģØ± Ø§Ú©
ĠØ¨ÙĨ Ùĩ
ĠØ¨ÙĦ Ø§Ú©
ĠÛ±Û³Û±Û ¸
ĠØ§Ø¨ÙĪÙħ Ø³ÙĦÙħ
ĠØ³ Ø§ÙĨÚ¯
ĠÙ¾ Ø§Ùħ
ĠÙģ ÛĮØª
ĠÙĦ ÙĪØ±ÙĨ
Â» "
ÙħØª ÙĨ
ĠØ¨Ø§Ø± ÙĩØ§ÛĮ
ĠØ¨Ø§Ø± Ø§Ú©
ĠØªØ±Ø¨ ÛĮØªÛĮ
ĠØ³ÙĨØ¬ Ø§Ø¨
f r
o z
ÙĦ ÙĪØª
Ú© ÛĮØª
Ùģ ÙĦÙĪ
Ùģ ÙĪØ¹
ĠØ§Ø³Øª ÙģØ±Ø§Øº
ĠÙģ Ø§Ø³Ø¯
ĠØ¯Ø³Øª Ø§ÙĪØ±Ø¯
ĠÙ¾Ø± ÙĪØ±
Ø§ØªÛĮ ÙĪÙĨ
ĠÙ¾ÙĦ Ø§Øª
ĠØ³Ø±Ø¯ Ø±Ø¯
ÙĪØªØ± Ø§Ù¾ÛĮ
ĠÚ©Ø¹ Ø¨Ùĩ
Ġ op
ĠØ¨ Ú©Ø´
Ø§ÙĦ ÛĮÚ©
Ú©ÙĦ ÙĨØ¯
ĠØ´Ú©ÙĦ Ø§Øª
ĠÙħØ§Ø± Ø³ÛĮ
ĠÙ¾Ø§Ø± Ø§ÚĺÙĨØ²
ĠÙħÛĮÚ©Ø±ÙĪ Ø¨ÛĮ
ĠØ¨Ø§ÙĤ Ø±ÛĮ
ĠØ¯Ø± ÙĩØ§ÛĮ
ĠÙĤ Ø§Ø³ÙħÛĮ
la ss
ÙħØ± Ø§Ø¯
Ø§Ø¯ÙĦ Ø§Øª
Ø±ÛĮØ´ Ùĩ
ĠØ¯ÛĮÙĦ ÙħÛĮ
ĠØ¨Ø§ÙĤÛĮÙħ Ø§ÙĨØ¯Ùĩ
t he
ĠÙĪ Ú¯Ø§Ø³
Ù¾ ÛĮÚ©
ĠÙģ ÙĦÛĮ
ØªÛĮ Ø´
ĠÙĦ ÙĪØ§Ø³
ĠÙģØ± Ú¯
ĠØ³ÛĮ Ø³ØªØ§ÙĨÛĮ
Ø§Øµ Ø¨
ĠØªØ± ØªÛĮ
ĠÙħÛĮÚ©Ø±ÙĪ Ø¨
ĠÚ¯Ø±Ú¯ ÙĪØ±ÛĮ
ĠØ§Ø³ØªØ« ÙĨØ§ÛĮ
ĠÙĨØ§Ùĩ ÛĮØ¯
Ú© ÙĪÚ©
ÙĩØ§ ÙĬ
ĠÚĨ ÛĮØ¯
ĠÙģØ± Ø¢ÛĮÙĨØ¯
ĠÙ¾Ø³ ÙĨØ¯
Û· Û°Û°
ÙĪØ§Ø± ÙĪÙ¾Ø§ÛĮÛĮ
ĠS tr
ĠÙ¾ÙĦ Ø§ÙĨÚ©
ĠÚ©ÛĮ ÙĪØ§ÙĨ
ĠÙħØªØºÛĮØ± ÙĩØ§
ter n
ĠÙħØ®Ø±ÙĪ Ø·
ÙģÛĮØ± ÙĪØ²
ĠØ¯Ø§Ø¦Ø± Ø©Ø§ÙĦÙħØ¹Ø§Ø±Ùģ
ĠØ§Ø±ØªØ¯ Ú©Ø³
" >
ÙĪØ± ÛĮØ¯
ĠØ¨Ø± Ø¢ÙĪØ±Ø¯ÙĩØ§ÛĮ
ÙĩØ± ÙĨÚ¯
ĠØªØ¹ Ø¬Ø¨
ĠÛ±Û³ Û°Û´
ĠØªÙģ Ø§ÙĩÙħ
ĠØ±Ø§ÙĨ Ø´
ĠÛ±Û³Û±Û ²
ĠØ¨Ø§ÙĦØª ÛĮÚ©
Ø¬Ø¹ ÙģØ±
ĠÙĨ ÙĪÛĮØ¯
ĠØ¬ Ø§ÙħÛĮ
ĠØ¢ÙĨ Ø§Ùĩ
Ø§ÙĪ Ø¨ÛĮ
ĠØ¬Ø§ÛĮ Ú¯Ø§ÙĩÛĮ
ĠØªØ¬ Ùħ
Ø¨Ø±ÛĮ Ø¯
al d
ĠÚ©Ø§Ø´ Ùģ
ĠØ¨Ø§Ø±Ø³ÙĦ ÙĪÙĨ
ĠØ¹Ø§ÙĤ Ø¨Øª
Ù Į
ĠØª Ø§ÛĮÛĮ
Ø§Ùħ ÙĪØªÙĪ
ÙĨÚ¯ Ø§Ùĩ
Ø¶ ÛĮÙĩ
Ø¯Ø± ÙĨÚ¯
ĠÙħØ¯ Ø®ÙĦ
ĠØ¯Ø§ ÙĪÛĮØ¯
ĠÙĨØ§ ÙĪØ¨Ø±ÛĮ
ĠÙĨÛĮØ§ ÙģØªÙĩ
ĠÙĨÛĮÙĦ ÙĪÙģØ±
ĠØ¨ÙĩØ¨Ùĩ Ø§ÙĨ
ĠØ¯Ø± ÙĪØ¯
Ø¨ ÙĨØ¯Ø±
ĠØ³ Ø±Ø§ÙĨÙĩ
ĠØ¢ Ø¯ÙĦ
ĠÙĩ Ø§ÙĨØ§
Ø§Ùĩ ÙħÛĮØª
Ø¸ ÙħÛĮ
ĠÚ¯ÙĦ Ø²ÙĨÛĮ
Ø§Ø³Ùħ Ø§Ø¹ÛĮÙĦ
ĠØ¢Ùģ Ø±ÛĮØ¯
ĠÙħÙĪØ³ ÙĪÙĦÛĮÙĨÛĮ
ĠØ¢Ùĩ ÙĪ
ĠØ§Ø´Øª ÛĮØ§
ĠØ§ÙĨØ· Ø¨Ø§ÙĤ
bur g
ĠØºØ±ÛĮ Ø¨Ùĩ
Ø§ÙĦ Ø§Ø³ÙĦØ§Ùħ
ĠØµ Ø¨Ø±
ÙĪØ±Øª ÙħØ¨Ø±Ú¯
ĠÙĤÙĪØ§ÙĨ ÛĮÙĨÛĮ
ĠØ±ÙĪØ³ Ù¾ÛĮ
ĠØ¨ÛĮØ§ ÙĪØ±ÙĨØ¯
Ø´ÙĪØ± Ø§ÛĮ
Øª ÙĪÛĮ
ĠÙĩ ÙĦÙĪ
ĠÙĨÙħ Ø§ÙĩÙĨÚ¯
Ø¨Ø§ ÙģØª
ĠÚ©Ø§ÙĨ ØªÙĪÙĨ
ĠA P
ĠØ¹ÙĨ ØµØ±ÛĮ
ĠÙĦØ¨ ÙĨØ§ÙĨÛĮ
ĠÛ³Û² Û°
ĠÙĩÙħØ³ Ø±ÛĮ
ĠÙħÙĤØ§ÙĦØ§Øª ÛĮ
ÙģÙĪ Ø¸
ĠØ§ÙĨØ³ ÙĪÙĦÛĮÙĨ
Ï Ĥ
ĠÙħ Ø§Ø®
ĠØ¹ Ø¬ÛĮØ¨ÛĮ
ĠØ¢Ùħ Ø§ØªÙĪØ±
ĠÙĤØ± ÙĨÛĮÙĩ
ĠÛĮ Ø§Ø¨
ÙħØª ÛĮÙĦ
ĠØ§Øª Ø¨Ø§Ø¹
ĠØ³ÙĦ Ùģ
ĠØªØ±Ú© ÙħØ§ÙĨ
ĠÙħÙĦ Ø§Øª
ĠA nd
ĠÙħÙĪÙĤØ¹ÛĮØª ÛĮ
ĠÙħÙĪÙĨ Ø§Ú©ÙĪ
ĠÙ¾ÛĮÚ© ÚĨØ±Ø²
ĠØ¨Ø§ÛĮ Ú¯Ø§ÙĨÛĮ
ĠØªØ§Ú© Ø³ØªØ§ÙĨ
W ikipedia
ÙĨ Ø²Ø¯
ÙĪ ÙĤÙĩ
ÙĤ Ø§ÛĮ
ĠÙĩ Ø§Ø±Ø¯ÛĮ
ĠÚ¯ ÙĪØ³
ĠØ§Ùħ Ø¯Ø§Ø¯
ĠØ¨ÙĦ Ø´ÙĪÛĮÚ©
ĠS ant
ĠÙħØ¤Ø³ Ø³Ø§ÙĨ
ĠØŃØ§ØµÙĦ Ø®ÛĮØ²
ÙħØ³ Ø¦
Ø§Ø° Ø¨
ĠÙģØ¶Ø§Ù¾ÛĮÙħ Ø§ÛĮ
ĠØªØ±Ø§ÙĨØ³Ùģ ÙĪØ±Ùħ
ĠØ´ ÙĪÙĦ
ĠÙħÛĮ Ú©Ø³
ÙĪÙĨ ÛĮÙĨ
Ø§Ø³ Ø¨ÛĮ
ĠÚĺ Ø§ÙĨØ¯Ø§Ø±
ĠÚ©Ùħ Ø±ÙĨÚ¯
ĠÙĨØ´ ÙĪÙĨØ¯
ÙĪØ¦ ÙĪÚ©Ø§
ĠÙ¾Ø°ÛĮØ± Ø§ÛĮ
ĠÙħØ§Ø¯ Ø§Ùħ
Û²Û° Û°Û·
ĠÙħÙĪÙĨ Ø±ÙĪ
ĠØ³Ø§ÛĮ ÙĪØ²
ĠÚ¯ÚĨ Ø³Ø§Ø±Ø§ÙĨ
ĠÙģØ§Ú©ØªÙĪØ± ÙĩØ§ÛĮ
" )ØĮ
ĠÚ¯ ÙĪØ§ÙĨÚ¯
ĠØ² Ø¨Ø±
ĠÚ©Ø§Ø± Ø²Ø§Ø±
ĠØ¹ÙĦ Ø§Ø¡
ĠC ity
Ø§Ø¨ÛĮ Ø§ÙĨ
ĠØ§ÙģØ± Ø§Ø³ÛĮØ§Ø¨
ĠÚ¯ÛĮ Ø¬
ĠI SO
os s
ĠÛĮØ® Ø¨ÙĨØ¯Ø§ÙĨ
ĠÙħÙĨØ´ Ø¹Ø¨
ĠØ§ÙħØ§ÙĨ ÙĪØ¦ÙĦ
ÙħÙĪØª ÙĪØ±
ĠØ³Ú©Ø§ÙĨ Ø³
Ġ Ù¬
Øª ÙĦÙģ
ĠØ¨ Ú©ÙĨØ¯
ĠØ³ Ø§ÛĮÙĨ
ĠØ§ Ù¾ÛĮ
Ø§Ø² ÙĩØ§
ĠØªØŃ Ø±ÛĮÙģ
ĠÙĨÛĮ Ø³Ø§ÙĨ
ĠØ®ÙĪØ§Ùĩ Ùħ
Ġ1 00
ĠØ¯Ø±ÙħØ§ÙĨ Ú¯Ø§Ùĩ
ĠÙĩÙħØ³ Ø±Ø§ÙĨ
ĠÙ¾ÙĦØª ÙģØ±Ùħ
ĠÙħÙĨ Ø§Ø±
Ø§Ùģ ÛĮÙĦ
ĠÙ¾Ø± Ø§Ø¯Ø´
ĠØ²ÛĮØ± Ø±Ø§Ø³ØªÙĩ
ĠÙĩÛĮ ÙĪÙĨØ¯Ø§ÛĮ
ĠÙģØ±ÙĪ ØºÛĮ
ĠØ§Ø±ØªØ´ ÛĮ
ĠØ¹ÙĨ Ø§ØµØ±ÛĮ
ĠÙħØŃÙħ ÙĪØ¯ÛĮ
ĠØŃØ¬ Ø±Ùĩ
Û²Û°Û±Û ²
ĠØ§Ø³ØªØ¨ Ø¯Ø§Ø¯
o ch
ĠÙĪ Ú©ÙĦ
Ù¾ ÛĮØª
ĠØ¨Ø± ÙĪÛĮ
ĠÚ¯ Ø±ÛĮØª
ÙĪÙĦ Ø§ÛĮØª
Ø²ÛĮ ÙĨØ¯
ĠÙĩØ± Ø¬
ĠØ´ÛĮ ÙģØªÙĩ
ĠÚ©ÛĮ Ø§Ø±
ĠØ®ÙĦ Ø§Ø¡
ĠØŃØ§Ø¦ Ø±ÛĮ
ÙħØ¤ Ø³
ĠØ´ Ø±ÛĮØ§ÙĨ
Ø¹ Ø±
Ø¹ Ø´
ĠØ§Ø³Øª Ø§ÙĦ
ĠÚ¯ Ø§Ø³
ĠÙĤ Ø¯ÛĮ
ĠÙħÙĪ Ùĩ
ĠÚ©Ø§Ø± ÙĪÙĦ
Ø¨Ø§ÙĦ Ø§
Ø¨Ø§ÙĨ Ø§ÙĨ
ĠÙħØ±Ø¯ ÙħØ§ÙĨÛĮ
ĠØ´Ø± Ùħ
ĠØ¸ ÙĩÛĮØ±
ĠØ³Ú© ÙĨÛĮ
ĠØ¢Ø±ØªØ³ Ø§Ø®
ĠØ¨ÙĪØ¯ ÛĮÙħ
ĠÙĤØ± Ùħ
ĠØ§ÙĦ Ø¨ÙĦ
ĠÚ©ÙĨ Ø§Ø±ÛĮ
Ø§Ø¦ ÛĮÚ©
ĠØ§Ú© Ø³Øª
ÙĨÙĪ ÙĪ
ĠÙĩØ§ ÙĬ
Ø¢Ùħ Ø¯ÛĮ
ĠÙĨØ§Ø® ÙĪØ¯
ĠØ§Ø³ØªØ¹ ÙħØ§ÙĦ
ĠØ¬ÙĦØ¨ Ú©
ĠÙ¾ÛĮØ¯ Ø§Ø³Øª
ĠØªØµØ¯ÛĮ ÙĤ
ĠÚ© ÙħÛĮÙĨ
ĠØ· ÙĪØ·ÛĮ
Ú¯Ø± Ø¯ÙĩØ§ÛĮ
ĠÛĮ Ø§ÙĩÙĪ
Ø¨Ùĩ Ø§Ø±
ĠÚĨÙĩØ§Ø± Ú¯Ø§ÙĨÙĩ
ĠØ´Ú© ÙħÛĮ
ĠØ®Ø² ÙĨØ¯Ú¯Ø§ÙĨ
ĠÙģØ±Ø§Ùħ Ø±Ø²
ĠØ§Ú©ØªØ´ Ø§ÙģÛĮ
ĠØ¯ÙĦÙģ Ø§ÙĨ
ĠÙĪ Ø±Ø¯ÛĮ
Ø§Ùĩ ÙĦ
Ø§ÙĨØ¯ ÙĨØ¯
ĠÛĮ Ø®ÛĮ
Ú¯ÛĮØ±ÛĮ Ùħ
ĠÙĨÛĮÙħ Ú©Ø±Ùĩ
Ø¬ÙĨ ÙĪØ¨
ĠÙħØ¶ Ø§ÙħÛĮÙĨ
ĠØ¢ÙĦØ¨Ø± ØªØ§
F C
k i
ÙĦ Ø§ÛĮÙĩ
Ø§Ø¨ Ø§ÛĮØª
ĠØŃ ÙĪØ§Ø³
ĠÙħØ´ ÙħÙĪÙĦ
ÙĪÚ© ÛĮÙĨ
ĠÛ±Û¶ Û°Û°
Ø§ÙģØª Ø®Ø§Ø±
ĠØ·ÙĦ Ø§Ø¨
ØªØ±Ú©ÛĮ Ø¨
Ï ģ
Ú© Ø´Øª
ĠØ¢ Ø¬
ØŃ Ø¶
Ø³ÛĮ ÙħÛĮ
ĠØ¯ÛĮ Ú¯ÙĪ
ĠÛ±Û¶ Ûµ
Ø±Øª Ø¨Ùĩ
ĠØ¨ÙĪ Ø¬ÙĪØ¯
ĠÛĮÚ©Ù¾Ø§Ø± ÚĨÚ¯ÛĮ
M P
ĠØª Ø§ÙħÛĮ
Ø¹ Ø¶
Ø¹ Ø¨ÛĮ
ĠÙģ Ø§Ø²ÛĮ
Ø§Ø³Øª Ø§Ø±
ĠØ§ÙĨ Ø¶
ĠÙĦ ÙĪÛĮØ¯
ĠØ¨Ø§Ø² Ø¯ÙĩÛĮ
Ø¨Ø± Ø¢Ø¨Ø§Ø¯
ĠÚ©ÙĨ ØªÛĮÚ©Øª
ĠØ³ÛĮÙĦ ÙĪØ±
ĠÙĨØ§ Ø§ÙħÛĮØ¯
ĠâĢ ¢
ĠØ¨ÛĮÚ¯ Ùħ
ĠØ±Ùģ Ø§ÙĩÛĮ
Ø§Ø± ÙĨØ¯
ĠÙħÛĮ Ø§Ø¯ÛĮÙĨ
Û² Û°Û°Û°
ÙħØ¯ Ø§Ø±ÛĮ
ĠÙģÛĮÙĦÙħ Ø³Ø§Ø²
ĠØ¬Ø¯ÛĮØ¯ ØªØ±
Ú¯ÙĪÛĮ Ùħ
ĠØ®ÙĪØ´ ØŃØ§ÙĦ
ang u
ĠØ¯ÛĮÙĦ Ùħ
O R
o ol
ÙĨ ÛĮÙĦ
Ú© ÙĨÚ¯
ĠÙħ ØªÛĮÙĪ
ĠÙĨØ§Ùħ ØŃØ¯ÙĪØ¯
ĠØ§Ø¨ Ø¯ÛĮ
ĠØ±ÙĪÛĮ Ø§ÙĨ
ĠÚ¯Ø±ÙĪ Ø³
ĠÙ¾Ø´Øª ÙĪÙĨ
ĠÚ¯Ø±Ø§ÙĨ Øª
ĠØ³ÛĮØ± ÙĪØ³
ĠØ¢Ùĩ Ú©ÛĮ
ĠÙ¾Ø¯ Ø§Ùģ
ĠÙĨØ§Ùĩ ÙĨØ¬Ø§Ø±ÛĮ
ĠØ¢Ø´Ù¾Ø² Ø®Ø§ÙĨÙĩ
Î ½
ÙĪØ± Ú¯ÛĮ
ĠØ¨Ø± Ú¯Ø±Ø¯Ø§ÙĨØ¯
Ø¯Ø± Ø§
Ø¯ÛĮ ÙĪØ§ÙĨ
ĠÚ©Ùħ Ø§Ú©Ø§ÙĨ
ĠØ§Ø¯ ÙħÙĪÙĨØ¯
ĠÙĩÛĮ Ø¬
Ø³Ú© ÛĮÙĩ
ÙĨØ² ÙĪ
ĠØ§Ø¨Ø± ÙĤÙĩØ±ÙħØ§ÙĨ
ĠÙĨØ§Ø® ÙĨ
ØªÙĪÙħ Ø§Ø³
ðĲ ¬
I A
Øª Ú©Ùĩ
ĠÙĨ ÛĮØ¯
ĠÛ² Û³Ûµ
ĠØ§Ø± Ú©Ø§ÙĨ
Ø´Ø§Ùĩ ÙĨØ§ÙħÙĩ
ĠØ®ÙĦ Ø®Ø§ÙĦ
ÙĤØ· Ø¨ÛĮ
ĠØ§ÙĦÛĮ Ø§Ø³
ĠØ¯Ø§Ø¦Ø± Ø©
Ù ´
Ùħ Ø§ÙĤ
ĠÙĨ ÙĪØª
ĠÙĤ ÙĪØ§
ĠÙĦ Ø¦
ĠÙħÙĦ ÙĪÚ©
ĠØŃÙħ Ø§Ø³
Ù¾ÙĦ ÛĮÙĨ
Ġb e
ĠÛ±Û³Û±Û ·
Û²Û°Û±Û ´
ĠØ¯Ø§Ø¨ ÙĦÛĮÙĪ
ĠØ®Ø´Ø§ÛĮ Ø§Ø±Ø´Ø§
k in
ĠØ± ÛĮÙĨØ²
Ø§Ùħ Ú©
ĠÙģ Ø§Ø´ÛĮ
ĠØ¹ Ø³Ú©Ø±ÛĮ
Ø§Ùģ Ú©ÙĨ
an e
ĠØ³Ø¨ Ø¯
ÙħØ¹ Ø±ÙĪÙģ
ĠØ§Ø³Ú© ÙĪØ±
ĠØ§Ø´ØªØ± Ø§Ú©ÛĮ
ĠØ§ÙĪØ±Øª ÙĪÙĨ
ĠÙħØµÙĦØŃ Øª
Ø±Ø¯ Ø§Ø±
ĠØªÙĪ Ø¨Ùĩ
ĠØ§ÙĦÚ©ØªØ± ÙĪ
ÙĪØ²ÛĮ Ø³ÛĮÙĪÙĨ
ĠØ¹Ø±ÙĪ ÙĤÛĮ
ĠØ¯ÙĪÙĨ ÙĪØ±
ĠÙģØ§Ùħ ÛĮÙĦ
l or
Øª ÙħÛĮ
Ø¯Ùĩ ÛĮØ¯
Øµ Ø¯Ø§
ØªÛĮ ÙĪØ³
ÙĪØ¦ ÛĮÙĦ
ĠØ±ÙĪØ² Ø¨Ùĩ
Ø±Øª Ø²
of t
ĠØ¨ÙĨØ¯ Ø±ÛĮ
ation s
Ú©ÙĪØª Ø§Ùĩ
ĠØªÙĨØ¨ Ø§Ú©ÙĪ
ĠØŃÙĪØ² ÙĪÛĮ
ĠÙħØ¨ØªÙĦ Ø§ÛĮØ§ÙĨ
S L
Ø² ÙĨØ´
Ø· Ùģ
ĠØ· ÙĪÛĮÙĦ
ĠÛ±Û±Û ±
ĠÛ±Û¸Û¶ Û³
ĠÙĦØ¦ÙĪÙĨ Ø§Ø±Ø¯
D B
z e
Ú¯ ÙĪØ³Øª
Ø§Ø· ÙĦØ§Ø¹
er r
ĠÙħØ¯ÛĮ ÙĪÙĨ
ou p
ĠÙĨÛĮÚ© ÙĪ
ĠØ§ØµØ§ÙĦØª Ø§
Ø¨ÛĮÙħ Ø§Ø±Ø³ØªØ§ÙĨ
Ø§ÙħØ² Ø¯Ø§
ĠØ´Ú¯ ÙģØªÛĮ
Ú¯ Ø§ÙĪ
ĠØ¬ Ø§Ø³ØªÛĮÙĨ
ĠÙħØ± ÙĨØ¯
ĠØ¨ÛĮ Ø§Ø¨Ø¯
ĠÙĨÛĮ Ø³
ĠÙħØ§ÙĨ ÙĪØ±
ĠÚ©ÙĪ Ø¨Ùĩ
ĠÚ©Ø§ÙĨ ØªØ±ÛĮ
ĠØ³ÙĨÚ¯ ÙĪØ§Ø±Ùĩ
ĠÙĪÙĦ Ø¯
ĠÚ©ÙĪØ± ÛĮÙĨ
ĠØ´ÙĪ Ø®ÛĮ
Ø³Ø§Ø®Øª ÙħØ§ÙĨ
Ø·Ø±Ùģ Ùĩ
ÙĨ ÙħÛĮ
ĠÙĩ ÙĪÙĩ
Ø±ÙĪ Ø¶
ÙĪØ´ Ùĩ
ĠØ¯ÙĪØ± ØªØ±
ĠØºÛĮØ± ÙģÙĦØ²ÛĮ
ĠÛ±Ûµ Ûµ
ÙģØ±Ø§ÙĨ Ú©
ĠÙ¾ÛĮÚ© Ø§Ø±
ĠÙ¾ÛĮØ§Ùħ Ø¨Ø±Ø§ÙĨ
Û²Û°Û±Û ¶
ĠØ¨ Ø´Ø§Ø±
ĠØ¨ ÙĨØ¯ÙĩØ§ÛĮ
Ø´ ÙĪÛĮÙħ
ĠØ¯Ø± Ø¨Ø±Ø¯Ø§Ø±
ĠØ³ Ø§Ø¯
ĠÙĩ Ø§Ø³
ĠØ¨Ø± ÙħÙĩ
ĠØ² ÙĨÚ¯ÛĮ
ĠØ§Ùħ ÙĪÛĮ
ĠÙĨÙĪ ØªØ±ÙĪÙĨ
ĠØ¹ÙĦ ÙģÛĮ
ĠØ´Ùĩ Ø¯Ø§
Ú¯Ø±ÛĮ Ø²Ø¯
ĠÚ¯ÙģØª ÙħØ§ÙĨ
ĠÙħØŃÙħ ÙĪÙĦÙĩ
ĠÙ¾Ø§Ø³Ø® Ú¯ÙĪÛĮÛĮ
ĠÙĩØ§Ø± ÙĪÙĦØ¯
ĠØ°Ùĩ Ø§Ø¨
ĠØ¯ÛĮØ² ÙĦ
ØŃÙħ ÙĦÙĩ
ber g
ĠØ§Ø³ØªØ« ÙĨ
Ø±Ø³Ø§ÙĨ ÙĨØ¯
ĠØ¨Ø±Ø§ÙĨÚ¯ÛĮ Ø®ØªÙĩ
ĠÙĩ Ø§Ø¦
ĠÙĤ Ø§Ùģ
Ø« ÙĪØ±
ĠÙĨÙĪ Ø§Ø®ØªÙĩ
ĠØ¹Ùħ ÙĪ
ĠÙħÙĩ ÛĮØ§
ĠØ±ÛĮ Ø¬
ĠØ§ÙĦÛĮ ÙĪØª
Ġ201 2
eb ru
ÛĮÙħ ÙĪ
ĠÙħØ± Ø§Ø¯ÛĮ
ĠÚ©ÙĦÛĮ Ø³
ĠS aint
ĠØ±ÙĪØ´ ÙĩØ§ÛĮ
ÙĬ Ùĩ
ĠÙ¾Ø±Ø¯Ø§Ø®Øª ÙĨ
ĠÙĦØŃ Ø¸Ø§Øª
ĠÙģØ±Ùħ ÙĪØ¯
ĠØ¢Ø¨Ø§Ø¯ Ø§ÙĨÛĮ
ĠØ¶Ø±Ø¨ Ø§ÙĨ
ĠÙ¾ÙĪØ±Øª ÙĪ
Øª ÙĪØ±ÛĮ
ĠØ§Ø³Øª ÙĨØª
ĠØ¨Ø± Ø§Ùĩ
Ø§Øª ÙĪÙħ
Ø±ÛĮÚ© Ùĩ
ĠÛ¶ ÛµÛ°
ĠÙħÛĮØ§ÙĨ ÙħØ§Ø±
ar g
us h
ĠÙĦÙĪ ØªØ±
ĠØ§ÙģØ³ Ø±ÛĮ
ĠÛ±Û¸Û¹Û ±
ĠØ§Ø³Ø¨ ÙĤ
ra ph
ĠÙĨØ§ÙĨ ÙĪÙħØªØ±
Ú© Ø±Ú©
Ø§Ø± ÙĪØ¯
ÙĤ Ø³ÙħØª
ĠÚ¯ ÛĮØªÛĮ
Ø§Ø´ Ùħ
ĠÙħØ±Ú© Ø¨Ø§Øª
ĠÙĦÛĮ Ø¯ÛĮ
ÙĦØ§ ÙĪØ±
ĠÙħØº ÙĪÙĦÛĮ
ĠÙħÙģ Ø§Ø¯
Ø³Ø§Ø®Øª Ø§Ø±
ĠØ²ÛĮÙĨ Ø¨
ĠØ§ÙĨØ· Ø§Ú©ÛĮÙĩ
- %
6 3
Ø¨ Ø§Ø¯ÛĮ
ÙĤ Ø²
Ø§ÙĦ ÙħØª
Ø§Ø² ÙĪ
ĠØ¢ÙĨ Ø§Ø±Ø´ÛĮ
ØªÛĮ Ø²
ĠØªÙĪ ÙģØ§ÙĨ
ĠÙĤØ± Ø¹Ùĩ
Ø¨Ø± Ú¯Ø±
ĠØ¨Ø§Ø± Ø¨Ø±ÛĮ
ÙĪÛĮØ³ Ø±Ú©Ø§ÙĨ
ĠÚ¯ÙĪØ¯ Ø§ÙĦ
a ir
ÙĦ Øº
ĠØª Ø§Ø¦
Ø±ÛĮ Ø¨Ø§
Øµ Ø§Ùģ
ĠÙĩÙħØ§ÙĨ Ú¯ÙĪÙĨÙĩ
ĠÚ¯ÙĪ Ø§Øª
ĠØ¬Ø¹ ÙĦ
ĠØŃØ¬ Ø§Ø²
ÙħØ¤Ø³ Ø³Ùĩ
ĠÙĩÙħ Ø³Ø§ÙĨ
ĠØ³Ø± Ú¯ÛĮ
ĠÙħØ¯ Ø§Ùħ
ĠØ§Ùģ ØºØ§ÙĨÛĮ
ĠØ¢Ø¨ Ø²ÛĮ
ĠØ³ÙĦÙĪÙĦ ÙĩØ§ÛĮ
ĠØ¨Øª ÙĨÛĮ
all s
ĠØªÛĮØªØ± Ø§Úĺ
ĠÙĨØ§ÙħØ· ÙĦÙĪØ¨
ĠØ¯ Ø³ÛĮ
ĠØ¯ Ú©ÙĦ
Ø´ ÙĪØ´
ÙĨÚ¯ Ø§Ø±Ùĩ
ĠÙĦ Ø¬
ÙĪØ¨ Ø§Øª
ĠÙħØ¯ ÙģÙĪØ¹
ĠØŃØ³ Ø§Ø¨ÛĮ
ĠØ·Ø± ÙĤ
ĠÙħØŃØµÙĪÙĦ Ø§ØªÛĮ
ĠW h
ĠÛ±Û±Û ³
Ø¨Ø§Ø² Ø§ÙĨ
ĠØ¨ÙĨÛĮØ§ÙĨ Ú¯Ø°Ø§Ø±ÛĮ
ĠÛ±Û³Û² Û²
ĠÛ±Û³Û² Û±
ĠØ³ÛĮØ² Ø¯ÙĩÙħÛĮÙĨ
ĠÚ¯Ø´ ÙĪØ¯Ùĩ
ĠØ³Ù¾Ùĩ Ø³Ø§ÙĦØ§Ø±
4 7
ĠÚ¯ Ø§ÙĨØ¯ÛĮ
ĠÙĨØ§Ùħ Ø±
ĠÙĨÙģØ± Ø§Øª
ĠÙĨÙĪ Ø§Ø±ÛĮ
ĠØ¬ÙĨ Ø§ÛĮØ§Øª
ĠW orld
ĠØ¹Øµ Ø§Ø±Ùĩ
ĠâĢ Ŀ
ĠÛ±Û¸Û¸Û ´
ĠÛ±Û¸Ûµ Û°
ĠÙĨÛĮÙĪÙĩ ÙħÙ¾
ĠØ¢ÙĨ ÙĪÙħØ§ÙĦÛĮ
ĠÙħØ® Ø§Ø±Ø¬
ĠÛ±Û² Û³
at ch
ĠØ§ÙģØª Ø¯
ĠØ²Ø± ÙĨØ¯
ĠØ´Ø§Ø¹ Ø±Ø§ÙĨÙĩ
ĠÙħØªØ¹ Ø§ÙĤØ¨
ĠØ·ÙĦ Ø¨ÛĮ
ĠØ·ÙĦ Ø¨Ø§ÙĨ
ĠØ¨ÙĤ Ø§
ÙħÙĨØª Ø¸
ĠÙĨØ§Ø®Ø§ÙĦ ØµÛĮ
ĠØ§Ø³Ú©Ø±ÛĮ Ù¾Øª
ĠØªØ±Ø§ÙĨØ³ÙģÙĪØ±Ùħ Ø§ØªÙĪØ±
Ø¯ Ø¨ÛĮØ±
ĠØ³ Ø§ÙĨÛĮ
ĠØ± Ø®Øª
ØªÙħ ÙĨØ¯ÛĮ
ĠØ±Ø³ ÙĪØ§ÛĮÛĮ
Ø³Ú© ÛĮÙĨ
ĠØ±ØŃ ÙħØ§ÙĨÛĮ
ĠÙħØ³ØªÙĨØ¯ Ø§Øª
ĠÛ±Û¸Û¸Û ±
ĠÛ³Û±Û °
ĠØ§Ø¬ØªÙĩ Ø§Ø¯
ebru ary
w ay
Ø§Ø³ ÛĮØ±
ĠÙ¾ÛĮØ´ Ú¯ÙĪÛĮÛĮ
Ø²Ø¯ ÙĨ
er a
ĠL ake
id ge
Ø¨ÙĪØ¬ ÛĮÙĩ
ĠÙĨØ§Ø³ÛĮÙĪÙĨ Ø§ÙĦ
Ùĩ Ø¯
Ø¨ ÙĦÙĩ
ĠØ´ Ø§Ú©
ÙĦÛĮ Ø¸
Ø±Ø¯ Ø§ÙĨÛĮ
ĠÚ¯ ÙħØ§ÙĨÙĩ
ĠØŃ Ø´Ùħ
ĠØ³Ø± ØŃØ¯
ĠØ¢Ø¨ Ú¯Ø±Ùħ
ĠÙ¾ÙĦ Ø§Ø³Ùħ
ÙħØŃ ÙħØ¯ÛĮ
ĠÚ¯ÛĮÙĦ Ø§ÙĨÛĮ
op e
Ø³Ù¾ Ø³
ÙĨÙĤ Ø´
ĠÚĨØ§ÙĤ ÙĪ
Ú© Ø§ÙĪÛĮ
ĠÙĪ ÙĦÙĪ
ĠÙĤ Ø§Øª
Ø° Ú©Ø±
ĠØ¬ÙĨ ÙĪÙĨ
ĠÚ¯ÙĦ Ø²ÙĨ
Ġ1 1
ĠÛ±Û±Û ¸
ĠÚ¯ÛĮÙĦ Ú©ÛĮ
ĠØªØ£ÙĦÛĮÙģ Ø§Øª
ÙĪ Ø§Ú©
ĠØ´ Ø§ÙħÙ¾
ĠØ¬ Ø«Ùĩ
ĠØ¨Ø± Ø§ÙĤ
ÙĦÛĮ Ø´
ĠÚĨ Ú©Ø´
ĠÙĩØ± ØªØ²
ĠØ§ÙĨØ¯ ÙĦØ³
ĠÚ©ÙĦÛĮ Ø¯ÙĩØ§ÛĮ
ĠÚ©ÙĦÛĮ Ø³Ø§ÛĮÛĮ
ĠP C
Ġ2 5
ĠØªØ±ÛĮ ÙĦØ±
ĠÙħØ¸ ÙĨÙĪÙĨ
ĠÙĦÙĨÚ¯ Ùĩ
ĠÙĦØ¹ Ø§Ø¨
Ø§ÙĦ Ø¬Ø²Ø§ÛĮØ±
ĠØ§Ø² Ø¨
Ø´Ú© ÙĨÛĮ
ĠØ§Ø¯ Ú¯Ø§Ø±
ĠØ§Ø¬ Ø±Ø§Ùħ
Ø§Ø±Øª Ø§
ĠÙĦÛĮ Ø¯
ĠØºÛĮØ± ÙħØ¬Ø§Ø²
il m
ĠÚ©ÙħÙ¾ Ø±Ø³
ĠØ§ØªØ§Ø¨ Ú©
Ù¾ Ø²
ĠØ¨Ø± Ú©
ĠÚ¯ Ø§ÙĨÚ¯
Ø§ÙĤ Ø¨Ø§
ĠÙĦ Ø´
Ø° Ø¨
ĠØ§ÙĦ ÙĪØ§Ø±
ĠÛĮ ÙĪØª
ĠØ¬ÙĨÚ¯ ÛĮØ¯
ĠØ±Ùħ Ø²ÛĮ
ĠØŃÙģØ§Ø¸ ØªÛĮ
ĠÙħØ¨ÙĦ ØºÛĮ
S E
ĠÚ© Ø§Ø°Ø¨
Ø· Ø±ØŃ
ĠÙĨÛĮ Ø§ÛĮ
ĠÙĤÙĦ Ø§Ø¨
ĠÙĩÙħÛĮÙĨ Ø·ÙĪØ±
ĠØ¨Ø§Øº ÚĨÙĩ
am b
ĠØ±Ø² Ø±ÙĪ
Ġ201 4
i ed
n et
ĠÙĨ ÙĬ
ĠÚ¯ ÙħÙĨ
ĠØ² Ø´Øª
Øº ÙĦØ§Ùħ
ĠØº Ø§Ø²ÛĮ
ĠØ´Ø± Ø¹
ÙĪÚ¯ ÙĦÙĪØ¨
ĠÙ¾ÙĦÛĮ ÙħØ±ÛĮ
ĠØ¨Ø±Ø®ÙĪØ±Ø¯ Ø§Ø±ÛĮ
ĠØªØ§Ùħ Ø³ÙĪÙĨ
ĠØ¯Ø±Ø§Ø² Ø§
ĠÙĨ Ø±Ø¯
ĠØ§Ø³Øª Ø§ÛĮÙĦ
ĠØ¨Ø§Ø± ÙĪÚ©
ĠØ¨Ø§ÙĦ Ø§Ø³Øª
ĠÙħØ³Øª ÙĤÙĦÛĮ
ĠÙħØ§Ø¯ Ø±Ø²
ĠÙĩØ§Ø± ÙħÙĪÙĨÛĮ
ĠØ±ØŃ ÙħØ§ÙĨ
ĠÙĪÙģ ÙĪØ±
ĠÙħÙĪØª ÙĪØ±ÛĮ
ĠÛĮØª ÛĮÙħ
ĠØ¨ Ø³Ø±
ĠØ´ ÙĪÛĮØ¯
Ø¹ ÙħÙĦ
Ø§Ùħ ØŃÙħØ¯
ĠÙħØª ÙĪÙĦÛĮ
ĠØ§Ø¹ Ø²
ĠÛ±Û² Û±
ĠÙ¾Ø§Ø± ÛĮÙĨÙĩ
ĠÚ©ÙĪØ± ÙĨ
ĠÙ¾Ø´ Ùĩ
Û²Û° Û°Û¹
ĠÙħÙĨØµ ÙĪØ±ÛĮ
Ø¨Ø±ÙĪ Ú©
ĠØ¢ØªÙĦØ§ÙĨ ØªØ§
ĠÙĤ Ø¯ÛĮØ³
Ø§Ø³Øª ÙĨ
ĠÙĨØ§Ùħ Ø¨Ø±Ø¯Ùĩ
ĠØ§ÙĦ Ø§Ø³ÙĦØ§Ùħ
ĠÙģØ¹ ÙĦØ§
ĠR NA
ĠØ®Ø±ÙĪ Ø³
] ØĮ
ĠÙĪ Ø§ØªÛĮÚ©
ĠÚ© ÙĪØ±Ø´
ĠÙĨ Ø¯ÛĮØ¯Ùĩ
ÚĨ Ø²
ÚĨ ÙĩØ±Ùĩ
ĠØ³Ø± Ø§Ø²ÛĮØ±
ĠØ§Ø¬ Ø³Ø§Ø¯
ĠÙħØ§ÙĨ Ú¯Ø§
ĠÙĦÛĮ ØªÙĦ
ĠÙĨØ§Ø± Ø§Ø¶ÛĮ
ĠÙĨØ§Øª ÙĨÛĮ
Û²Û°Û±Û ³
ĠÙĪØ¬Ùĩ ÛĮ
ex as
ĠØ¨ÙĪØ¦ ÙĨÙĪØ³
ĠØ¨Ø· Ø±ÛĮ
ĠÚ©Ø§Ø±ÛĮÚ© Ø§ØªÙĪØ±
Ø³ ÙĪÙ¾Ø±
ĠÙĪ ØŃÛĮ
Ø§Ø± ØªØ´
ĠØ¯Ø± Ø²
ĠÙħÛĮ Ø®ÛĮ
ÛĮØª Ø³Ø§
ĠÙĩÙħ ÛĮ
ÙĨÚ¯ ØªØ³Ø§
ĠÙĦ ÙĪÙĦ
ĠØµ ÙĪØ±ÛĮ
ĠÙħØŃ ÙģÙĪØ¸
ĠÛµ ÛµÛ°
ĠØ¬ÙĦ ÙĪÛĮÛĮ
ÙĨÙĪÛĮØ³ ÙĨØ¯Ùĩ
ĠÙħÙĩØ¯ ÙĪÛĮ
m en
Ø§ Ú¯Ø±Ø¯
ĠÙħ Ø®ØµÙĪØµÛĮ
ĠØ¯ Ø§Ùģ
ĠØ¯Ø± Ø¯ÙĨ
ĠØ¨Ùĩ Ø§Ø±ÛĮ
Ø¹ ÙĪ
Ø§Ø¯ ÙĦÛĮ
ÙĩØ§ ÙĪØ³
ĠÙĩØ± ÙħÛĮ
Ø§ÙĪ Ø³ÛĮ
ÙħÙĩ Ùħ
Ø§Ø´Øª ÙĨØ¯
ĠØ³Ø±ÛĮ Ø§ÙĦÛĮ
it s
ĠØ®ÙĪØ´ ÙĨÙĪÛĮØ³Ø§ÙĨ
ĠØ§ØµØ· Ú©Ø§Ú©
ĠÙħØ² ÛĮÙĨ
ĠØ³ÙĦÛĮ ÙĤÙĩ
Ø³Øª Ø§ÙĦ
ĠÙĩ ÙĪÙ¾
Ø¬ ÙĪØ´
Ø´Ú© ÛĮ
ĠØ³Ù¾ ÛĮØ¯Ùĩ
ĠØ±ÙĪØ³ØªØ§ÛĮÛĮ Ø§ÙĨ
ĠØ§Ø±Øª Ø¹Ø§Ø´
ĠØªÙģ Ø§ÙĪØªÛĮ
ĠØ¨ÛĮØ± Ùħ
ĠÙĦØº Ø²Ø´
Ø´Ø¹ Ø±
ĠÙĨÙĪØ³Ø§ÙĨ Ø§Øª
v e
ĠØ³ ØºØ¯ÛĮ
ĠÙĨ Ø§Ø¬
Ø§Ø® ÛĮ
ĠÙĦ Ø§Ø¯
ĠÙħØ´ ÛĮØ±
Ø§Ø¬ Ø§ÙĨ
Ø®Øª ÙĨØ¯
ĠÚ©Ùħ Ø¨ÙĪØ¬ÛĮÙĩ
ĠÚĨÙĩØ§Ø± Ø¯ÙĩÙħÛĮÙĨ
Ø®Ø± Ø§Ø´
ĠÙĪØ±Ø² ÙĤØ§ÙĨ
ĠÙĤØ§Ø¹Ø¯ Ú¯ÛĮ
B r
ĠØ¨ Ø´Ø¯Øª
Ù¾ Ø±Ø³Ø¯
ĠØ§ÙĨ ÙĪØ±
ĠØ´ÙĩØ± Ø¨Ø§ÙĨÛĮ
ĠØ§Ø¹ ÛĮØ§ÙĨ
ÙĪÙ¾ Ø§ØªÛĮ
ĠØªÙĪØ§ÙĨ ÙĨØ¯
ĠÙħØ®Ø§ÙĦÙģ ÛĮÙĨ
ĠØªØ´Ø®ÛĮ ØµÛĮ
Ø¢Ø± ØªÙĪØ±
ĠÛ±Û¸Û¸Û ²
Ø¢ÙĤ Ø§
U n
Ø¢ ÙģØª
ĠÙĨÙĪ Ø§Ø±ÙĩØ§ÛĮ
ĠØ§Ùģ Ø´ÛĮÙĨ
Ø±Ùħ Ø§Ùĩ
ĠØ¢Ø± ÙĪÙĨ
ĠØ³ÙĪ Ø®ÙĪ
ĠF ebruary
ĠØ¹ÙĨ Ø§ÛĮØª
ĠØ§Ø³ØªÛĮ Ø¶Ø§ØŃ
ĠØªØ±Ø§ÙĨ Ø³
ĠÚ¯ÙĪØ§Ø± Ø´ÛĮ
ĠØ¢Ø´ØªÛĮ Ø§ÙĨÛĮ
ĠÙ¾Ø±ÛĮÙĨ Ø³ØªÙĪÙĨ
ĠÙģÙĪØªØ¨ Ø§ÙĦÛĮØ³Øª
Ú© Ø§ÙħÛĮ
Ùģ ÛĮØª
ĠØ¯Ø± ÙĪÛĮ
ĠÛ² Û³Û²
ĠØ¨ÛĮ ÙĪÙĩ
ĠÙĩÛĮ ÙĪ
ÙĦØ¨ Ø§ÙĨÛĮ
ĠÚ¯ÛĮ Ø¨
ĠÛ±Û³ Û°Û·
ĠÙħÙĪÙĤ ØªÛĮ
Ø¬Ø§Ùħ Ø¹Ùĩ
ÚĨØ± Ø®Ø¯
ĠÙĪÛĮØ±Ø§Ø³Øª Ø§Ø±
ĠØ±ÙĪØ¯Ø±ÛĮ Ú¯Ø²
ĠØºÛĮØ±ÙħØ¹ ÙħÙĪÙĦ
ĠØ§ÙĨØªØŃ Ø§Ø±ÛĮ
Õ ¥
Ø¯ ÙĪÙĨÚ¯
ĠÚ© ÙĪÙĦÙĩ
Ø¨ ÙĦÙĨØ¯
Ø· Ø±Ùĩ
ØªØ± Ø§Ø´
ĠØ¯Ø§Ø± ÙĨ
Ø¬Ùĩ Øª
ĠÚ©ÙĦ ÙĪ
ĠÚ©ØªØ§Ø¨ Øª
ĠØ¨Ø±Ø® Ø·
ÙĩÙħ Ø³Ø±
Ø±ÛĮØ² ÙĨØ¯
Ø¯Ø§Ø´Øª ÙĨ
ĠØ¯Ø±Ø¢ÙĪØ±Ø¯ ÙĨØ¯
ĠÙħØ¹Øª ÙħØ¯
ĠØ§ÙħØ±ÛĮÚ© ÙĨ
ĠØ´ÛĮÙĦ Ø¯
ĠØ¨Ø¨ÛĮÙĨ ÙĨØ¯
ĠØ§ØŃØªÛĮ Ø§Ø·
ĠØ¯ÙĨØ¯ Ø§ÙĨÙĩ
u ch
Ġ an
Ø¯ ÙĤÛĮÙĤÙĩ
ĠÙħ Ú©ÙĨ
ĠÚ© Ø«ÛĮ
ĠÛ² Û±Û²
ĠÙĦ Ø³ØªØ±
Ø§Ùģ ÙĪØ±Ø¯
ĠØ§Ø´ ÙĨ
ĠØ³Ø§Ø² ÙĪÚ©Ø§Ø±
ĠÙħØ§Ùĩ Ùĩ
ÙĨØ¸ Ø§ÙħÛĮØ§ÙĨ
ĠÙĪÛĮÙĨ Ø³ÙĨØª
ĠÙĤØ¶ Ø§Øª
ĠÛ±Û¸Û¶ Û¸
ĠÚ©ÙĦÛĮÙĨ ÛĮÚ©
ĠØ§ÙĤÛĮØ§ÙĨÙĪØ³ÛĮ Ùĩ
ĠÙĪØ§ØªÛĮÚ© Ø§ÙĨ
u lar
Ø´ ÛĮÙħÛĮ
ĠØ§ÛĮÙĨ ØªÙĦ
Ø¶ Ùħ
ĠÙħØ¯ Ø¯
ĠØ§Ø±Ø¯ Ø¨ÛĮÙĦÛĮ
ĠÚ¯Ø§Ø² ÙĩØ§
ĠØªÙĪØ§ÙģÙĤ ÙĨØ§ÙħÙĩ
ÙĨ Ø±Ùħ
ĠÙ¾ Ø±ÛĮØ´
ĠÙħØ¹ ÙĤÙĪÙĦ
ĠØ¨ÛĮ ÙĪØª
ĠÙ¾Ø§ÛĮ ØªÙĪÙĨ
ĠØ¨Ø¯ Ø®Ø´Ø§ÙĨ
Ø¯ÛĮØ¯ ÙĨØ¯
ĠÙħØ« Ø§ÙĦÛĮ
ĠØ¯Ø±Ø¢ ÙħØ¯ÛĮ
ĠÙģØµÙĦ ÙĨØ§ÙħÙĩ
ĠØ±Ø¶ ÙĪØ§ÙĨ
ĠØ¨Øº Ø¯Ø§Ø¯ÛĮ
ĠØµØ± Ø¹
Ø¹ÙħÙĦÛĮ Ø§Øª
Ø¯ ÙĪØ´
Øª ÙĪÙ¾
ĠØ¢ÙĨ ØªØ±
ÛĮØ¯ Ø§Ø¯
ĠØ±ÙĪ Ø§ÙĦ
ĠØ¯Ø§ÙĨ Ú¯
ĠØ§Ùģ ÙĪÙĦ
ĠØ±Ø³ Ø§ÙĦØª
ĠØ¢Ø² Ø§Ø¯Ø±Ø§Ùĩ
ĠÙ¾Ø±ÙĪ Ù¾
ÙĨÙĪ Ø§
ĠÙħÙĨØ¸ÙĪØ± Ùĩ
ĠØ§ØªÙģØ§ÙĤ Ø§ØªÛĮ
ĠÛ±Û¸Û¶ Û±
ĠØ¨Ø±ÛĮ Ø¬
ĠÙģÙĩÙħ ÛĮØ¯
ĠØ²Ø§Ú© Ø³ÙĨ
d a
Ø§ÙĨ ØªØ´Ø§Ø±
ĠØ¯ ÙĪØ±Ø¯
Ø§Ø± Ø«
ĠØ¹ Ø§ÛĮØ´Ùĩ
ĠÚ©Ø§Ø± ØªÙĪÙĨÛĮ
ĠØ¨Ø§ÙĦ Ø§Ø¯
Ø¯Ø§ÙĨ Ø´Ú©Ø¯Ùĩ
ĠÙĨÛĮØ§Ø² ÙħÙĨØ¯ÛĮ
ĠÙħØªØ¹ Ø§ÙĤØ¨Ø§
ĠÙħØ¹ÙĦ ÙĪÙĦ
ĠØ¨ÛĮØ¯ Ø§Ø±ÛĮ
ĠÙħÙģØ± Øº
ĠØ§ÙĩÙĪØ± Ø§ÙħØ²Ø¯Ø§
ĠÙħ Úĺ
ĠÚ© Ø§Ú¯
Ø¨ ÙĩØ§
ĠØ§Ø² Ø¢ÙĨ
ĠÙħÛĮ Ú©ÙĦ
ĠØ¬ Ø§ÙĦØ¨ÛĮ
Ø§Øª Ø³ÙĪ
Øµ Ø§ÙĦ
ĠØ´ÙĨ ÙĪØ¯
ĠÚ¯ÙĦ Ø§Ø¨
ĠØ¨Ø±Ø¯ Ú¯ÛĮ
Ø±Ø§ÛĮ Ø¨
ĠH ill
ĠØ³Ø±Ú© Ùĩ
ĠÙĩÙĪÙĦ ÙĪÚ©Ø§Ø³Øª
Øª ØºÛĮÛĮØ±
ÙĨØ¯ ÙĦ
Ø±ÙĪ Ø¨ÛĮ
ĠÛĮ ÙĪØ¨ÛĮ
ĠÚĺ ÙĨÛĮ
ĠØ¶ ÙħÙĨÛĮ
ĠÛ¶ Û°Û°Û°
ĠØªÙĤ ÙĪÛĮ
ĠÛ±Û¸Û¶ Û·
Ø±ÙĤ Øµ
ĠÙ¾Ø¯ Ø±Ø§ÙĨ
ĠØ¨Ø±ÙĪÙĨ ÙĪ
ĠÙģÙĨÙĦØ§ÙĨØ¯ ÛĮ
Ø·ÙĦ Ø¨ÛĮ
ĠØ¨Ø§Ùĩ ÙĪØ´
ĠØ¯ÙĩÙĤØ§ÙĨ Ø§ÙĨ
ĠØªØ±ØªÛĮ Ø¨ÛĮ
b e
u x
ĠÙ¾ ÙĪØ³ÛĮ
ĠØ¨Ø§Ø² ÙĪ
Ø¢ Ùģ
ĠØªÙĦ ÙħØ¨Ùĩ
Ø¬Ø± Ø¬
ĠØªØ§Ø¬ Ú¯Ø°Ø§Ø±ÛĮ
à ¥
ÙĨ Ú©ÙĪ
ĠÙĩ Ø§ÛĮØ´Ø§ÙĨ
ĠØ¬ Ø±Ø¯ÙĨ
ĠØ² Ú©Ø±ÛĮ
ÙģØª ÙĨ
ĠÙĦ Ø§Øº
ĠÚ©Ø§Ø± Ø§ÙĨ
ĠÛĮ Øº
ĠØ¬ÙĨ Ø§Ø¨
ĠØ§Ø¬ Ø²Ø§
ĠÙĨÙĩ Ø§Ø¯ÛĮ
ĠÚ©ÙĦÛĮ Ø¨Ø±
ĠØ¯Ø¨ÛĮØ± Ø®Ø§ÙĨÙĩ
ĠÚ©Ø±Ø¨ ÙĨÛĮ
ĠØ§Ø¯Ø¹ Ø§ÙĩØ§ÛĮ
ĠØ§Ø¹ØªÙĤ Ø§Ø¯ÛĮ
ĠØ¨Ø§Ø²ÛĮÚ© ÙĨÛĮ
ĠØªØ¹ÙĩØ¯ Ø§Øª
ĠØ¢ Ø±ÛĮØ§
ĠÙħÛĮ Ú¯ÛĮØ±Ø¯
ĠÚ¯Ø± Ø§Ùħ
Ø§ÙĪ ÙĪ
Ú©Ø±Ø¯ Ùħ
ĠÛ±Û¸Û· Û±
ĠØ±Ø³Øª Ø§Ø®ÛĮØ²
ĠØ¨ÙĪÚ© Ø³ÙĪØ±
ĠØªØ§Ø³ ÙħØ§ÙĨÛĮ
ĠÚ¯ÙĦÙ¾Ø§ÛĮ Ú¯Ø§ÙĨ
ĠÚĨÛĮØ± Ú¯ÛĮ
ĠÙĩ ÛĮÙĨ
ÛĮØ¯ ÛĮÙĨ
ĠÙĦ Ø§Ø±Ø³ØªØ§ÙĨ
Ø§Ú© Ø§Ø±ÛĮ
Ø« ÙĦ
ĠÙĨØ²Ø¯ÛĮÚ© ØªØ±ÛĮÙĨ
ĠÙħØ´Ø±ÙĪ Ø¹ÛĮØª
ĠØ¢Ø¯ Ø±ÛĮØ§ÙĨ
ĠØªØ¯ Ø¨ÛĮØ±
ĠÙħÙĨØ¬ ÙħØ¯
Ø¨ ÚĨÙĩ
ÙĤ Ø§Ø¯Ø±
ĠÙĤ Ø°
Ġ( (
ÙħØ¯ ÙĨ
Ø§ÙĪØ± Ùĩ
Ù¾Ø± ÚĨÙħ
ÙģØ±Ø§ÙĨ Ø³Ùĩ
ĠÙħÙĨØµ Ø±Ùģ
ĠØ¢Ú© ÙĪØ³Øª
ĠØªÙħØ§ÛĮÙĦ Ø§Øª
3 8
Ġ le
ĠØ¬ Ú©ÛĮ
ĠØ¨ÛĮ Ø³Ùħ
ÙģÛĮ ÙĦÛĮÙ¾
ĠØ³ÙĦ ÙħØ§Ø³
is c
ĠÚ¯Ø±Ø¯Ø´ Ú¯Ø±
ÙħÙĤ Ø§Ùħ
ÙħÛĮÙĦÛĮ ÙĪÙĨ
r on
Ġ å
ÛĮ Ø³Ùĩ
Ø´ ÙĪÙĨØ¯Ùĩ
Ú¯ Ø§ÛĮ
ĠØ± Ø§ÙħÛĮÙĨ
ĠØ¨Ø± Ú¯Ø±Ø¯Ø¯
ĠØ² ÙĪØ§ÛĮ
Úĺ Ø§Ú©
ĠÚ©Ø± ÙĨØ´
ĠØ¨ÙĨ Ùģ
ĠØ§Øª ÙĦØ§Ùģ
ĠØ¨Ø²Ø±Ú¯ Ø´
ĠØ§ÙĨØ¯ ÛĮÙħØ´Ú©
ĠØ³ÙĨ ØªÙĪØ±
ØªÙĤ Ø±ÛĮØ¨Ø§
ĠÛ±Û´ Û°Û°
ÙħØ§ÙĦ Ø§
ĠØŃÙĪ Ø§Ø±ÛĮ
Ø³Ùģ Ø§Øª
un e
ĠØ§ÙĪÚ©Ø± Ø§ÛĮÙĨÛĮ
ĠÙĨØ§Ø¦ ÛĮÙĨ
ĠâĨ Ĵ
Ø§Ø± ÙĤ
ĠØ¯Ø± Ø¨ÛĮ
ÙĨØ¯ ÙĨ
ØŃ Ø³Ø§Ø¨
Ø³ÛĮ ÙĪÙħ
ĠÙħÙĨ Ø¨
ĠÙĨØ¸ Ø§Ø±ØªÛĮ
ĠÙ¾ÛĮØ´ ÙĪÙĨØ¯
ĠØŃØ³ Ø§Ø¨Ø±
ĠØ±Ø§Ùĩ Ø±ÙĪ
an i
Ø®Ø§ÙĨ Ùħ
ĠØ®ÙĪØ§Ùĩ ÛĮØ¯
ch n
ĠÙħØ§Ú© Ø³ÛĮÙħ
ĠÛ±Û¸Û¸Û ³
ĠØºØ´ Ø§Ø¡
Ø§ÙĦØ« Ø§ÙĨÛĮ
ĠØ¨ÙĩØ¨Ùĩ Ø§ÙĨÛĮ
ĠØ³ ØªØ±
Úĺ ÛĮÙĨ
ĠØ§ÙĦ ÙħÙĨ
Ø§Ø¬ ØªÙħ
ĠÙħØ¯ ÙĪØ±
er b
ĠÙħÙĦ Ø²Ùħ
Ø®ÙĪ Ùģ
ĠØ³Ø§Ùħ Ø§ÙĨÛĮØ§ÙĨ
ØµÙģ ØŃÙĩ
ĠØ§Ø³Ø§Ø· ÛĮØ±ÛĮ
ĠÙħØ³Ø¬ Ø¯ÛĮ
o o
ÙĦ Ø±ÛĮ
ĠØ± Ú¯Ø±
ĠØ¢ÙĨ ØªÙĪØ§ÙĨ
ÛĮØª Ø±ÛĮ
ĠÙħØ³ Ø¤
ĠÚ©Ùħ Ø§
ĠØªÙĨ Ø§ÙĪØ¨ÛĮ
ĠÙĦÛĮ ÙħÙĪ
ĠØªØ¬ Ø§Ø±Ø¨
ĠÛ±Û² Û¹
ĠØ¸ ÙĦ
ĠØ®ÛĮ Ø§Ø±
ĠØ§ØŃÙħØ¯ Ø´Ø§Ùĩ
ĠÙħØªØ¹ Ø§Ø¯ÙĦ
ĠÙ¾Ø§Ù¾ ÙĪØ¢
ĠØ¯ÛĮØ± ÛĮÙĨ
ĠÛ±Û¸Û· Û¹
ĠØ±Ø¤ ÛĮ
ĠÙģØ±Ø§Ùĩ Ø§ÙĨÛĮ
ĠÙģØ±Ø§Ú© Ø³ÛĮÙĪÙĨ
ĠØŃ ÛĮØ±Øª
Ø¸ ÙĩØ±
ĠØ¨ÙĦ Ø§ÙĨ
ĠÙħØ³Øª ÙĨØ¯ÛĮ
ĠØªÚ© ÙĦÛĮÙģ
ĠM ich
ĠÙ¾ÛĮÙĪØ³Øª Ú¯ÛĮ
ĠÙħØ§Ø² Ø§Ø¯
ĠØ¬Ø§ ÙĪÛĮØ¯
ĠØ³Ø±ÛĮØ¹ Ø§
ĠÛ±Û³Û±Û µ
oc i
ĠØ¨Ø³Øª Ú¯Ø§ÙĨ
ĠÚ©Ø±Øª Ø§Ø³Ùĩ
ĠÚĨÙĪÙ¾ Ø§ÙĨ
ĠÙĦÙĪÚ©ÙĪÙħ ÙĪØªÛĮÙĪ
c c
Ú© ÙħÙ¾
Ø§ÛĮ Ø§ÙĦØª
ĠØ± Ø§ÙĨÛĮ
ĠÙĩ Ú¯Ø²
ĠØ® Ø¬
Ø· Ø±ÙģÛĮ
ÙĪÙĨØ¯ Ú¯Ø§ÙĨ
ĠÙħÙĪØ±Ø¯ ÛĮ
ĠØªÙĩ ÙħØ§Ø³Ø¨
ĠØ§Ú© ÙĪ
ØªØ§ ÙģØª
ĠØ§ÛĮØ³Øª Ø§
Ø·Ø± Ø§ØŃÛĮ
Ø®Ø¯ Ø§ÛĮ
ĠÚ©Ø§Ø±Ø¯ Ø§ÙĨÛĮ
Ø§ÙģØ² Ø§ÛĮØ¯
ÛĮ ÙĪØ´ÛĮ
ĠÙħ Ø¨Ø§ÙĦ
Ø¹ ÙħØ±
ĠÙ¾ Ø§Ùģ
ĠØ§ÙĦ ÙĪÙĨØ¯
ĠÙħØ¯ ÙĦÛĮ
ĠÙĤØ¨ ÙĦÙĩ
ĠØŃØ¶ ÙĪØ±ÛĮ
ĠÛĮÙĪÙĨ Ø³
ĠÙħØ§Ø¯ ÙĪÙĨ
ĠØ±Ø§ÙĨ ÙĨØ¯Ú¯Ø§ÙĨ
ĠÙħÙĨØ² ÙĦÙĩ
Ø±Ú©ÙĨ ÙĨØ¯Ùĩ
ĠØ³Ø±Ù¾ÙĪØ´ ÛĮØ¯Ùĩ
ĠØ±Ø®Ø¯ Ø§Ø¯ÙĩØ§ÛĮ
u ct
ĠØ¨ Ú©Ø´ÙĨØ¯
ĠØª Ø§ÙĨØ¯
ĠØª Ø²Ø§Ø±ÛĮ
ĠÙĨ Ú¯Ø±ÛĮ
ĠÙħÛĮ ÙĨÚ¯
ĠØ§Ø³Øª Ùĩ
ĠÙĤ Ø§Ø´
ĠÙĦ ÙĪÛĮÙĨ
ĠØ±ÙĪÛĮ Øª
ĠØ±ÛĮ Ø®ØªÙĨ
ĠÙĩÙħØ±Ø§Ùĩ Ø§ÙĨ
ĠÚ©Ø§ÙĨ ÙĨ
ĠÙĪÙĦ Ø§ÛĮØªÛĮ
ĠÛ±Û´ Û¶
Ø¢ÙĨ ÚĨÙĩ
ĠÙĤÙĪÙħ ÛĮØª
ĠØªØ¹ÙħÛĮØ± Ø§Øª
ĠØ¬Ø±ÛĮ Ø§ÙĨÛĮ
Ġ ïº
ÙĪ ÙĪØ±ØªÙħØ¨Ø±Ú¯
ĠØ¨ Ø·ÙĦ
Ø¨ Ø§Ø±Ø¯
ĠØ§ÛĮ Ú¯ÙĦ
ÚĨ ÛĮÚ©
ĠÙĤ ÙģØ³
Ø« ÙĤ
ĠÙħØ¬ Ø±Ùħ
ĠØ´Ø§Ùĩ Ú©Ø§Ø±
ĠÛ³Û ³Û°
ĠØ´ÙĪØ± Ø§ÙĩØ§ÛĮ
ĠÙĨÙħØ§ÛĮ ÛĮØ¯
ĠÙħØº Ø°ÛĮ
Ø¨ÙĪØ± ÙĪ
ĠØ¨Ø® Ø§Ø±ÛĮ
ĠØªÛĮØ± Ø§ÙĨØ¯Ø§Ø²
ĠØ³ÛĮÙĦ Ø§Ø¨
ĠÚĺÙĨ Ø±Ø§ØªÙĪØ±
ian a
ĠÙħØ¸ ÙĩØ±
Ø§ÙĨØ¯ÙĪ Ø¢Ø¨
ĠÛĮØ§Ø±Ø§ÙĨ Ø´
ÙĨÛĮØ± ÙĪÛĮ
Ú©Ø§ÚĨ ÙĪØ§ÙĨ
t t
Ø± Ø¬
ĠÙ¾ Ù¾
Ø¢ Ø«Ø§Ø±
ĠØ¯ÛĮ ÙĪØ¯
ĠÙ¾Ø± Ø±ÙĨÚ¯
ĠØ¨Ø±Ú¯ Ø´ØªÙĩ
ĠÙħØŃÙħØ¯ Ø®Ø§ÙĨ
at ed
ĠÛ±Û´ Û´
ĠØ¢Ø³ Ø§ÛĮØ´
ĠØªØ§Ø¨ÙĦ ÙĪÙĩØ§ÛĮ
ĠÙĪØ±Ø´Ú© Ø³ØªÚ¯ÛĮ
Î »
Ù¾ Ú©
ĠØ¨Ùĩ Ø±
ØŃ Ø³
ĠØ³ÛĮ Ùĩ
ĠÙĨØ¯ Ø§Ø±ÛĮÙħ
ĠÙĤØ¯ Ø±Ø¯Ø§ÙĨÛĮ
ĠÙĤØ§ÙĨÙĪÙĨ Ú¯Ø°Ø§Ø±ÛĮ
ÙĨØ§Ùħ Ø¯
ĠI l
ĠÙĦØº ÙĪÛĮ
ĠØ§ÙĦÙħ Ù¾ÛĮ
ĠÛ±Û¸Û· Û¶
ĠØ¨ÛĮØ² Ø§ÙĨØ³ÛĮ
ĠØ¹Ø· Ø§
ĠÚ©Ø§ÙĪØ´ Ú¯Ø±
ĠÙĨÚ¯ÙĩØ¨Ø§ÙĨ Ø§ÙĨ
ĠØªØ´Ø±ÛĮÙģ Ø§Øª
ĠØ§Ø¨ÙĪØ³ Ø¹ÛĮØ¯
ÙĤØ´ ÙĦØ§ÙĤ
ĠØ±Ø§ÙĦ ÛĮÙĨØ²
Å Ł
ĠÙĨ ÙĨÚ¯
ĠØ® ÙħÛĮÙĨ
ÙĪÙĨ Ø³
Øµ Ø¯Ø±
ĠØ¯ÙĪ Øº
ĠØ³Ùģ Ø§Ø±Ø´ÛĮ
ĠÙħØº Ø§ÛĮØ±
ĠP er
ĠØ³ÛĮØ¯ Ø¹ÙĦÛĮ
Ġd i
ĠÙħØ®ÙĦÙĪØ· ÛĮ
ĠÚ©Ø§ÙĪ ÙĪØ³
ĠØ¨ÙĩÙħ Ø¦ÛĮ
ĠÙĦØ±Ø² Ø´
ĠØªØ§ÛĮØª Ø§ÙĨ
ĠØ¯ Ø§ÙĦÛĮ
ÙĤ ÙĨØ§Øª
ĠÙħÛĮ Ø±Ø§ÙĨ
Ú©ÙĪ ÛĮÙĨ
ĠÛ±Û¸Û· Û³
ĠØ®Ø±ÛĮ Ø¯Ø§Ø±Ø§ÙĨ
ĠØ§ÙĤØ§ÙħØª Ú¯Ø§Ùĩ
ĠØ§ÙĨÙĤÙĦØ§Ø¨ÛĮ ÙĪÙĨ
Ø§ØªØŃ Ø§Ø¯
ĠØªØ° Ú©Ø±Ùĩ
ĠÙħÙĨÚ¯ ÙĨØ²
htm l
c ity
n ews
Ùĩ ÛĮÙĦ
Ø³Øª Ø§Ø±
ĠØ§Ø³Øª Ø§Ø±Øª
ĠÚĨ Ø§
ØªÛĮ ÙĪÙħ
ĠØ³Ø± Ø²ÙĨØ´
ĠÙĩØ³Øª ÛĮØ¯
ĠØ¨ÙĦ Ø®ÛĮ
ĠÚ©ÙĪ Ø¨ÛĮ
ĠÙħÙĦ Ø§Ú©
ĠØ±Ø¦ ÙĪØ³
ĠÙĦØŃ ÙĨ
ÙħØ§Ùĩ Ùĩ
Ù¾ÙĨ ÙĩØ§
ĠØ¨Ø±Ø§Ø¯Ø±Ø§ÙĨ Ø´
Ø§Ø³ØªØ± Ø§ÙĦÛĮØ§
ĠØ²Ø§Ùĩ Ø¯ÛĮ
ĠÙģØ±ÙĨ Ø§ÙĨØ¯ÙĪ
ĠÚ©ÙĪÙĩÙĨ ÙĪØ±Ø¯
Ø¢Ø³ÛĮ Ø§Ø¨
z a
ĠØµ ÙģØ§
ĠØ¯Ø§ÙĨØ´ ÛĮ
Ø¯Ø§Ø± Ùħ
ĠØ§ÛĮØ± ÙĪÛĮØ²
ÙĪØ³ÛĮ Ø³ØªÙħ
ĠØªØ§Ø¨ ÙĪØª
ĠØ³Ø¹ ÛĮØ¯ÛĮ
ĠØ³Ø®ÙĨ Ø±Ø§ÙĨ
ĠØ¨Ø§Øª ÙĦØ±
ĠÚ©ÙĨØ³ÙĪÙĦ Ú¯Ø±ÛĮ
ÙħØµ Ø±Ùģ
ĠØ§Ø¯Ø± Ø§Ø±ÛĮ
ØªØ¦ Ø§ØªØ±
Ġ mu
ÙĨ Ø³ÙĦ
ĠÙĩ ÛĮØ³
ĠÚ¯ ÙĪØ§ÙĨ
ĠØ¹ Ø§Ø±ÛĮ
ĠÙĤ Ø±ÙĪÙĩ
ÙĪÙħ ÙĪØ±Ùģ
Ø§Ùģ ØªÙĩ
ĠÙħØ± Ø®Øµ
ĠØ¨ÛĮ Ø§Ùħ
ĠÚ©ÙĦ ÙĩØ±
ĠÙħØ§Ø± Ø³ÙĦ
ĠÚĺØ§ÙĨ ÛĮØ±ÙĪ
ot h
Ø¨Ø§Ø¨ ÙĪÙĩ
ÙĪÚ©ÛĮ ÙĪ
ĠØªÚ©ÙĪØ§ÙĨ Ø¯ÙĪ
ĠÙĤØ²ÙĦØ¨ Ø§Ø´
ÙĦ ÙĪÙ¾
ĠØ³ ÛĮÙĨÛĮ
ĠÚĨ ÙĦÙĩ
ĠØº Ø§Ø²
ĠA er
ĠÛ²Û¸ Û°
ĠØ§Ø³ØªÙĤ Ø§ÙħØª
ĠÙĨØ§Ú© Ø§ÙħÛĮ
ÙĨÙĤ Ø·Ùĩ
ĠÙĩÙĪÙĦ ÙħØ²
ĠÚ¯Ø§Ø±Ø¯ ÛĮÙĨ
ĠÙĦÙĪØ¨ ÛĮØ§
ÙĤÙĩØ± ÙħØ§ÙĨÛĮ
ĠÙĨØ§Ù¾Ø§ÛĮØ¯ Ø§Ø±
Ø§ÙĤØªØµ Ø§Ø¯
3 1
Ùĩ ÙħÛĮÙĨ
Øª ÙĪÙĦØ¯
ĠØ² Ø¨ÛĮØ±
ĠØ· Ùĩ
Ø§Ø® ÙĪ
ÙĪØ´ Øª
Ø´Øª Ø¯Øª
ĠØ¹ÙĦ ÙĪÛĮØ§ÙĨ
ØªØ¨ Ø±ÛĮ
ĠØ·ÛĮ ÙģÛĮ
Ø±Øª ÛĮÚ©Ø±
ĠØ¨Ø±Ø¬ Ø³ØªÚ¯ÛĮ
ÙĪÛĮÚ© ØªÙĪØ±
ĠØ¢Ø¨Ø± Ø§ÙĩØ§Ùħ
ĠØ«Ø±ÙĪØªÙħÙĨØ¯ ØªØ±ÛĮÙĨ
ĠÙħÛĮÚ© Ø±ÙĪÙģ
ĠØŃÙĪØ¶ ÚĨÙĩ
ĠØ¨ÙĦÛĮ Ø·
ĠÙħØªØ§Ø¨ ÙĪÙĦÛĮØ³Ùħ
ĠÚĨØ±ÛĮÚ© ÛĮ
Ø§ ÙĪÙĨØ¯ÛĮ
Ø± Ø§Ø¯ÛĮ
Ø§ÙĨ ÙĦÙĪ
ĠÙĨ Ø±ÛĮ
Ø§ÙĦ Ú¯
ĠØªÙĪ Ùģ
Ú¯ÛĮ Ø§Ùĩ
ol e
ĠØ§ÛĮØ³Øª Ø§Ø¯Ú¯ÛĮ
ĠÛ±Û¸Û· Û¸
ĠÙĨÛĮÙĪÙĩÙħÙ¾ Ø´Ø§ÛĮØ±
ÙĪ Ø§ÙĦØ¯
ĠØ§ÛĮ ÙħÛĮ
ĠØ® ÙĨØ¬
ĠÚ¯ Ø±ÛĮÙħ
ĠÙħÙĪ ÙĪÙħØ§ÙĨ
ĠÙħØªØ± ÛĮÚ©
ĠØ¢Øº ÙĪØ´
ĠÚ¯ÙĨ Ø¨
ĠØ±Ø§Ùħ Ø³Ø±
ĠÚĨØ³Ø¨ ÙĨØ¯Ú¯ÛĮ
ĠÙħÛĮÙĩ ÙħØ§ÙĨ
Ø¢ÙħØ±ÛĮÚ© Ø§
Ġ #
Ú¯ ÙĪØ§Ø±
ÛĮÙĨ Ú¯Ø±
ĠÚĨ ÙĪÚ©
ĠØ· Ø§Ùĩ
Ø¢ Ø´Ø§Ùħ
ĠÙĪÛĮ Ø³Ú©
ĠØ¨Ø®Ø´ Ø´
ĠØ³Ø§Ø² ÙĨØ¯Ú¯ÛĮ
ĠÙģØ±ÙĪ Øº
Ù¾ÙĦ Ø±
ĠØ¹ÙĤ Ø±Ø¨
Ø¨ÛĮØª Ø§ÙĦ
ĠÙģØ±Ø§Ø®ÙĪØ§ÙĨ Ø¯
ĠØ§Ø¬Ùħ Ø§Ø¹
ĠØ¨Ø·ÙĦ ÙħÛĮ
( "
Ø¨ Ø§Ùħ
ĠØ² Ø§ÛĮÛĮ
Ø§ÙĨÛĮ Ø¯Ùĩ
ĠÙħØ¬ Ø§Ø±
ĠØ±Ø³ Ø§ÙĨØ§
ĠØ¹Ø± ÙĤ
ĠÙĩÙĪØ± ÙĨ
ĠØ¹Ø· Ø§Ø±
ĠÙĪØ§Øª Ø³ÙĪÙĨ
Ø§Ø³ÙĦ Ø§ÙħÛĮ
Ø´ ÙĪÙĤ
ÙĪÙĨ ÙĦÙĪ
ĠØ§Ùħ Ø§ÙĨØª
Ø¦ ÛĮØ¯
ĠØ§Ø¨ ÙĪØ·
ĠÙĨÛĮ ÚĨÙĩ
ĠÙħØ§ÙĨ ÙĪÛĮ
ĠC or
ĠØ¬Ø§ÙĨ Ø¨Ùĩ
ĠÚ¯ÙģØª Ø§Ø±ÛĮ
ĠØ¢Ùĩ ÙĨÛĮÙĨ
ĠØ¯Ø§ÙĦ Ø§ÙĨ
ĠØ§Ø³ØªÙĨ Ø¨Ø§Ø·
ĠØŃØ¨ÛĮ Ø¨ÛĮ
ĠØªØŃØ±ÛĮ Ø±ÛĮÙĩ
ĠÙģÙĪÙĦÚ©ÙĦ ÙĪØ±
ĠØ¯Ø±Ø¨Ø±Ø¯Ø§Ø± ÙĨØ¯Ùĩ
! "
ĠÙ¾ Ø°ÛĮ
Ø§Ø¨ ÛĮØ±
ÙĨÚ¯ Ø§
Ø¸ Ø±
Ø§Ø²ÛĮ Ø§Ø±
ĠØ¯Ø§Ø´Øª Ùħ
ĠØ®ÙĪØ§ÙĨ ÛĮÙĨ
Ø¬Ùħ ÙĨØ¯
ĠØŃØ³ÛĮÙĨ Ø¹ÙĦÛĮ
ĠØ§Ø³ØªØ§ÙĨØ¯Ø§Ø±Ø¯ Ø³Ø§Ø²ÛĮ
Ù¾Ø±ÙĪ Ø§Ø²
ĠØ¨Ø±ÙĪÚ© ÙĦÛĮÙĨ
ĠÙĨÛĮÚ©ÙĪÙĦ Ø§Ø³
ĠØ¹Ø§ÙĦ ÙħØ§ÙĨ
ĠØªØ±Ø§Ú©ØªÙĪØ± Ø³Ø§Ø²ÛĮ
ĠÙ¾Ø±ÙĪØ³Øª Ø§Øª
ĠØ§Ø´ØªÛĮØ§ ÙĤ
ĠÚ¯ ÙĪØªÛĮÚ©
ĠØ¹ ÙĨÙĪ
Ø§Ø² ÙĪÙĦ
ĠØ¨Ø§ ÙģØªÛĮ
Ø§Ø³ Ú©ÛĮ
ÙĪØ§ÙĨ Ø¯
ĠÚĨ Ø±Ø¯
ĠÙĦ Ø·ÛĮÙģ
Ø¢ ÙħÛĮÙĨ
ĠØ³Ø± ÙĦØ´Ú©Ø±
ĠØ§ÙĦ Ø·
ĠØ§ÙĦ Ø±ØŃ
ĠÙĨÙĤ Ø§Ø¨
Ø´ÙĨ ÙĪØ¯
ĠØªÙĨ Ø§ÙĪØ¨
ĠØ§Ø® Øª
ÛĮÚ©ÛĮ Ø§ÙĨ
ĠØ¯ÙĨ Ø§
ĠØ§Ø³Ù¾ Ø§ÙĨÛĮ
ĠØ´ÙĩØ±ÛĮ Ø§Ø±ÛĮ
Ø§ÙĦÙĦÙĩ ÛĮ
ĠØ±ÙħØ² Ú¯Ø´Ø§ÛĮÛĮ
ĠÙĤØ¯Ø±ØªÙħÙĨØ¯ ØªØ±ÛĮÙĨ
ĠÙģØª ÙĨÙĩ
ĠØ¯ Ú©ÙĪØ±
ĠÚ© Ø§Ø³ÛĮ
ĠÙĩ Ø±ÙĪ
ĠÙģ ÙĦÙĪ
ĠØ· ÙĦØ³
Ø¢ ÙĦÙģ
ĠÙħØ¬ ÙĨÙĪÙĨ
ĠØªÙĪØ§ÙĨ Ø§
ĠM ont
Ø§ÙģØª ÙĨØ¯
ĠØ§ÙĦÙģ Ø¨Ø§
Ø®ÙĪØ§Ø± Ø§ÙĨ
ĠØ§Ø¨ÙĪ Ø¹ÙĦÛĮ
ĠØ§Ø±ÛĮÚ© Ø³ÙĪÙĨ
4 4
ĠÙĪ Ø§ÙĤ
Ø§Ø± Ø²
Ù¾ Ø§Ø±Ùĩ
ÙģØ± ÙħØ§ÛĮ
ĠÚ©ÙĨ Ú©ÙĪØ±
ĠØ¨Ø¯ Ø§ÙĨØ¯
ĠÙĤØ¨ ÙĪÙĦÛĮ
ØªØµ ÙĪÛĮØ±
ĠÙĩÙĨØ¯ ÙĪØ§Ø±ÙĪÙ¾Ø§ÛĮÛĮ
ou n
ĠÚ©Ø§Ø³Øª Ø§Ø±ÛĮÚ©Ø§
ĠØ§Ú©Ø³Ù¾ Ø±Ø³
ĠØ¨ÙĨÙĪÛĮØ³ Ø¯
s ur
Î ¹
Ġ u
ĠØª ÙĨÚ¯ÛĮ
Ø§ÙĦ ÙħÙ¾
Ø§Ø¹ ÙĦÛĮ
ĠÙħØ¬ Ø°
ĠØ²ÛĮØ± Ø´Ø§Ø®Ùĩ
ĠØ²ÛĮ Ø±Ø¯
ĠÙģØ§Ø± Ø§Ø¨ÛĮ
ĠC a
ĠC o
ĠT ur
ou gh
ĠH ar
Ġs p
T S
Ø¯ Ø±Ø¯
ĠØ³ ØºØ¯
Ø¹ ÙĦÙħ
ĠÙ¾ Ø§ÙĨØª
ĠØ¬ Ø§ÙĪÙĩ
ĠØ¬ Ø§ÙĨØ¯Ø§Ø±
Ø§Ø±Ø¯ Ø§Ø±
ĠØ®ÙĪØ¯ Ú¯Ø±Ø¯Ø§ÙĨ
ÙĪØ±Ø¯ ÙĨ
ĠØ¨Ø¯ ÙĪÛĮ
ÙĪØ¦ ÛĮØ¯ÛĮ
ĠØ±Ø³ ÙĪØ¨ÛĮ
ÙĪÙģ ÙĪ
ĠØ³ÙĨÚ¯ Ø§ÙĦ
ĠÛ±Û¶ Û·
ĠÙ¾ÙĦÛĮ Ø³ÛĮ
ĠØ¯Ùģ Ø¹Ø§Øª
ĠE ast
ĠÙħÙĪØ± ÙģÛĮ
ĠÙħÛĮÙĨ Ø§Ø¨
ĠÙĨØ§Ø´ Ø±Ø§ÙĨ
ĠÛ±Û¸Û´ Û¸
ĠØ¯Ø±Ø¢ÙĪØ±Ø¯ ÙĨ
Ù¾ÛĮÙĪÙĨØ¯ ÙĨØ¯
ĠØ§ÙģØ´ Ø§ÛĮ
f ield
Ġ are
ÙĨ ØµÙģ
ĠÙĨ Øµ
ØªÛĮ Ùģ
ĠÙĦ Úĺ
ĠØ¢Ø± Ø´ÛĮÙĪ
is ion
ĠÙĨÚ¯Ùĩ Ø¯Ø§Ø±ÙĨØ¯Ùĩ
ĠÛĮØ§Ø± Ø§ÙĨÙĩ
ĠØ¹ØµØ¨ Ø§ÙĨÛĮ
ĠÙħÙħÙĦ ÙĪ
ĠÙĨÙģÛĮ Ø³
ĠÚ©Ø§ØªØ§ÙĦ ÙĪÙĨÛĮØ§
a il
b le
Ø¯Ø± ÛĮÚ©
Ø²Ø§Ø± ÙĩØ§ÛĮ
Ø§Ù¾ Ø§
ĠÙ¾Ø± ØªÙĤØ§ÙĦ
ĠØ§Øª Ø§ÙĨ
Ø¯Ø§ ÙĪÛĮ
ÙĪØ³Øª ÛĮ
en er
Ø¹ÙĦ Øª
ĠØ¢ÙĦÙĪÙħ ÛĮÙĨ
ĠØªØ¹ÙĦÛĮÙħ Ø§Øª
ĠÙħØ³Ùħ ÙĪÙħ
ĠÙħÚ©Ø§Øª Ø¨
ÙĦÙĪØ¦ ÛĮØ³
ØµØ§Ø¯ ÙĤ
R S
ĠØ¨ ÙģØ±Ø³ØªØ¯
ĠÙģ ÙĪØ¬
ĠØ· Ø±Ø¯
ĠÙĦ Ø¦ÙĪÙ¾
Ú¯Ø± Ø¨Ùĩ
ĠØ¯ÙĪ Ú¯Ø§ÙĨ
ĠØ¢ÙĦ Ø¨Ø±ØªÙĪ
ĠÛ±Û³ Û°Ûµ
ĠØ§Ø³Ùħ Ú©
Û²Û°Û±Û ·
ĠØ§ÙĩÙħ ÛĮØªÛĮ
ĠØ² ÙĦ
ĠØ±ÙĪ Ø¨Ø±ØªÙĪ
Ú©Ø§Ø± ÙĪØ§ÙĨ
ĠÚĨÙĩØ§Ø± Ø±Ø§Ùĩ
en tr
ĠÛ²Û² Û´
ow s
ĠØªØ±ÛĮ Ø§Ú©
ĠÚ¯Ø±ÛĮ Ú¯ÙĪØ±ÛĮ
ĠØªÙĪÙ¾ ÙĪÙĦÙĪÚĺÛĮ
ĠÙħØªÙħ Ø§Ø¯ÛĮ
ĠØ§ÙĦØ¹ Ø§Ø¯Ùĩ
ĠÙĦÙĨÚ¯ Ø±
ĠÙħÛĮØªÙĪ Ú©ÙĨØ¯
e in
ĠØ³ ÙĪØ³ÙĨ
ĠØ± Ø³ØªÙĩ
Ø® Ø·Ø±
ĠØµ Ø§ÙģÛĮ
ÙĪØ² Ø§Ø±Øª
ĠØ¶ ØŃØ§Ú©
ĠØ±Ø§Ùĩ Ø¨
ĠØ®Ø· Ø§ÙĩØ§ÛĮ
ĠÛ±Û· Û¶
ĠØ§ØªØ§ÙĤ Ú©
ĠÚ©ÛĮÙħ ÛĮØ§
ĠÙħØ·ÙĦ Ø¨ÛĮ
ĠØªØ§ÙħÙ¾ Ø³ÙĪÙĨ
ã Ĥ
ĠÚ© Ù¾ÙĨÙĩØ§
Ø´ ÙĨÛĮ
ĠØ§ÛĮÙĨ Ø·ÙĪØ±
ĠÙĩÙħ Ø®ÙĪØ§ÙĨÛĮ
ØªÛĮ Ø³Ùħ
Ø§ÙĦØª ÙĪÙĨ
ĠØ§ØŃ ØªØ³Ø§Ø¨
ĠØ§Ø·ÙĦØ§Ø¹ ÛĮÙĩ
Ø§ÙĦØ¯ Ø±Ø§ÙĨ
ĠÚ¯ÙĪØ´ ØªÛĮ
ĠØ®ØµÙĪØµ ÛĮØª
ĠÛ±Û³Û±Û ¹
Û²Û°Û±Û µ
ĠÚ©Ø§Ø³ Ù¾ÛĮÙĨ
ĠØ²Ø§ÛĮ ÙĨØ¯Ùĩ
ĠØ¹Ø§Ø¯ÙĦ Ø§ÙĨÙĩ
ĠØ²ÛĮÙħ Ø¨Ø§Ø¨ÙĪÙĩ
ĠÙ¾Ø°ÛĮ Ø±Ø¯
7 7
× Ļ
Ø³ Ø¯Ùĩ
ĠØ± Ø§ÙĦÙģ
ĠÚĨ ÛĮÙĨÙĩ
ĠÙģØ± Ø¢ÙĪØ±ÛĮ
Ø´Ùħ Ø§Ø±Ùĩ
ĠØ¯Ø§Ø¯ Ú¯Ø§ÙĩÛĮ
ÙĪÙ¾ Ø§
er y
ĠÙħÙĦ Ú©Ø´
ĠØ³ÛĮØ³ØªÙħ Ø§ØªÛĮÚ©
ĠØ¯ÛĮØ¯ Ùħ
ĠÛ²Ûµ Ûµ
ĠØ§Ø´ØªØ¨Ø§Ùĩ Ø§Øª
ĠÚ©Ø§Ø±Ø¢ Ú¯Ø§Ùĩ
ĠØºØ¶ Ø±ÙĪÙģ
ĠÚ©Ø§Ø±Ú¯Ø²Ø§Ø± Ø§ÙĨ
E M
Ú© ÙĪØ±Ø¯
Ø´ ÙĪÙĨ
Ú¯ ÙħØ§
ĠÛ² Û³Û·
ĠØªÙĪ Ú©ÙĦÛĮ
ÙĨÚ¯ Ø±ÙĪ
Ø±Ø¨ Ø§
ĠØ§ÙĦ ÙĪ
ĠÚ¯Ø± ÙĪÛĮØ¯
ĠØ±ÙĪØ² ÙĪÙĦØª
ĠØªÛĮØ± ÙĪØ¦ÛĮØ¯
ĠÛ±Û³Û±Û ±
ĠÙģÙĤ Ø±Ø§Øª
ĠØ¯Ø§ÙĪ Ø·ÙĦØ¨Ø§ÙĨ
av e
ĠÙĤÙĦÛĮ Ø§ÛĮÛĮ
ĠØ§ÙĪÚ¯ Ø§ÙĨØ¯Ø§
ĠÙĦØ§Ø´ Ùĩ
ÙħØ´Ùĩ Ø¯
ĠØ¯ Ø¬ÙĦÙĩ
Ø§ÛĮ Ø¨
ĠØ´ ÙģØª
ĠØ¬ ÙĦÙģØ§
ĠØ¨Ø§ ÙģØ±
Ø³ÛĮ Ø§Ø³Øª
Øµ Ø±Ùĩ
Ø§Ùģ ÙĤÛĮ
ĠÙ¾ÛĮØ´ Ø±Ø§ÙĨÙĩ
ĠÛ±Û³ Û°Û¸
Ø¯Ø±ÛĮ Ø§ÚĨÙĩ
ĠÙģÙĪÙĦ Ú©Ø³
ĠØ¢ÙĨØ¯ Ø±ØªÛĮÚ©Ø±
ĠØ®ÙĪØ§ÙĨØ¯ ÙĨØ¯
ĠÙħØ±Ø¬ Ø§ÙĨÛĮ
ĠÙ¾Ø°ÛĮØ±ÙģØª ÙĨØ¯
sh ire
ĠØ§ÙģØ²ÙĪØ¯ ÙĨÛĮ
ĠØ¢ØªÙĦ Ø§ÙĨØªÛĮÚ©
k e
ĠØ¯ ÙĦØ³
Ø³ Ø§ÛĮÙĩ
Ø§ÙĦ ÛĮØª
ÙĪÙĦ Ø§Øª
ĠÙħØª ÙĦ
ĠÚ©Ø§Ø± ÙĨØ§Øª
Ø§Ø¹ ÙĪÙĨ
ĠÛĮ ÙĤÛĮÙĨ
ĠÙħØ± Ø´Ø¯
ĠØªØ± ÙĨ
ĠÙĤØ· Ø¹ÛĮØª
ĠØ¢Ø° Ø±ÙħØ§Ùĩ
ĠÚ©Ø¯ Ú¯Ø°Ø§Ø±ÛĮ
ĠØ§ÛĮÙĦ Ø®Ø§ÙĨ
ĠÙħØªÙħ Ùħ
ĠÙħØªÙģ Ú©Ø±
ĠØ±ÙĪÛĮÚ© Ø±
Ø¨Ø³ÛĮ Ø§Ø±ÛĮ
ĠØ«ÙĦ Ø§Ø«
u z
ĠØ¨ Ù¾Ø°ÛĮØ±Ø¯
Ø¨ ÙĪØ²
ĠØ¢ ÛĮØ³
ĠÙĩ ÙĦØ³
ĠÙģ Ø³ÛĮÙĦÛĮ
ĠÚ¯ ÙĪÙĦØ¯
ØªØ± Ø¬ÙħÙĩ
ÙĨÛĮ ÙĪÙħ
ĠØªØ§ ÙĪ
Ø§ÙħÛĮ ÙĦÛĮ
ĠØ§Ø¨ Ø±ÛĮØ´
ĠØªØ± ÙħÙĪ
ĠØ¨Ø¯ Ø§ÙĨÛĮÙħ
ĠØ§ØŃ ÙħÙĤ
ĠÙħÙħ Ø§ÙĦÚ©
ĠØ³Ø§Ø³ Ú©Ø§ÚĨÙĪØ§ÙĨ
ÙħØ¯ÛĮ Ø±ÛĮØª
ĠØ§Ø´Øª Ø§ÛĮÙĨ
ĠØ´Ø±Ø¨ Øª
ĠØ¯Ø±Ø¨Ø§Ø±ÛĮ Ø§ÙĨ
c es
Ùĩ Ø¯Ùģ
Ø§Ø± Ø§Ú©
ĠØ´ Ø§ÙĪ
ØĮ âĢĮ
ĠØ§ÛĮ ÙĪÙĦ
ĠÙħÛĮ ÙĪØ²
ĠÙģØ± ÙĪÙħ
Ø§Ú© Ø§Ø±
Ø§ÙĨÚ© Øª
ĠÛ±Û³ Û°Û¶
ĠØ¬Ø§ ÙĪØ¯Ø§ÙĨ
ĠØ²ÙĨÚ¯ ÙĨÙĩ
ÙģØ±Ø³Øª ÙĨØ¯
ÙĩÙĨØ± Ù¾ÛĮØ´Ùĩ
ĠØ¨ÙĪÙĩ Ùħ
ĠÙ¾ÙĨÚ¯ ÙĪØ¦ÙĨ
ĠØ§ÛĮÙĨØªØ±ÙĨ Ø´ÙĨØ§ÙĦ
ÙĪØ± ÛĮÚ©ÙĪ
Ø® Ø²
ĠØ³Ø± Ú¯Ø±Ø¯Ø§ÙĨ
ÙĪØ´ Ø§
ØªÙĪØ§ÙĨ Ùĩ
ĠÙ¾Ø± Ø§ÙģØªØ®Ø§Ø±
ĠÙ¾ÛĮ Ø¬
ĠÚ©ÙĪ Ø«Ø±
ĠØ³ÙĨ ÙĤØ±
ar m
ĠN ov
ĠØªØ³ Ø±ÛĮØ¹
ĠÙħØ§Ú© ÙĪ
ĠØ¢ ÙĪØ§
ĠØ§ÛĮ Ú¯
ĠÙħØ³ Ø§Ø¹Ø¯
Ø¨ÛĮ Ø³
ĠØªØ± ÙĨØ±
Ù¾ÙĦ ÙĨÚ¯
ĠF r
ĠØŃØ¬ ÙħÛĮ
ĠØ±ÙĪÙĦ Ø²
ĠÙħÙĨØ² ÙĪÛĮ
. [
u la
ĠØ¯Ø± ÛĮÙĨ
ĠØ± Ø§ÙĨØ¯ÙĨ
ĠÚĨ Ø·ÙĪØ±
ĠÛ±Û³Û ¸
ÙħØ¯ ÛĮØ±
ĠØ§ÙĨØª Ø³Ø§Ø¨
ĠØ¨ÙĦ Ø§Ø¯
in i
ĠØªØ¹ ØµØ¨
ĠØ§Ø³ÙĦ Ø§ÙĪ
ĠØ·Ø±Ùģ Ø¯Ø§Ø±ÛĮ
ĠØ¨Ø® ÙĪØ±Ø¯
ĠÙħØ¨Ø§Ø± Ø²Ø§ÙĨ
ÙģØ¹ ÙĦ
Ø¢ÙĦ ÙĪØ¯
ĠØ§ÙĨØ³ Ø¯Ø§Ø¯
Ø¢Ø±Ú© Ø§ÙĨØ²Ø§Ø³
6 5
v el
Ú© Ø§Ø¸Ùħ
ĠØ´ ÙĪØ§ÙĦ
ĠØ® ÛĮÙĦ
ÙĪÙĦ ÙĪØ´ÙĨ
Ø° Ø±Ø§Øª
ĠÙħÙĪ ØªØ³
ØªØ±ÛĮÙĨ Ú¯
ĠØ§Ø¯ Ø±ÛĮØ³
ĠØ¹Ø¨ ÙĪØ±ÛĮ
ĠF ran
ĠØªØ´ Ø§Ø¨Ùĩ
Û²Û° Û°Û´
ÙģÙĦ ÛĮÚ©Ø³
ĠØ¹ÙĤ ÙĦÛĮ
ĠÙĪØ§Øª Ø±Ø²
ĠÙĦØ¦ÙĪÙĨ Ø§Ø±Ø¯ÙĪ
ĠØ²Ø§Ùħ Ø¨ÛĮ
ĠØ¹ÙĨÙĪ Ø§ÙĨÛĮ
Ġ q
ÙĨ ÙĨÙĩ
ĠÙģ ÙĪØ±Ø§
ĠØ¨Ø± ÚĨ
ĠØ¨Ø± Ú©Øª
ĠØ¯Ø³Øª Ø´
ĠØ¹ÙĦ Ø§Ø¡Ø§ÙĦØ¯ÛĮÙĨ
ÙħÙĪ Ø²ÛĮ
ĠÙħØ±Ø¨ Ø¹ÛĮ
ĠÛ±Û³ Û°Û¹
ĠÙħÙĨØ§Ø³Ø¨ Ø§Øª
ĠØ¨Ø·ÙĪØ± ÛĮÚ©Ùĩ
ĠÙħÙĪÙĨØª Ú¯
II I
ØŃÙĦ ÙĤÙĩ
Ø§ÙģØ³ Ø§ÙĨÙĩ
Ø³Øª Ø§Ø¯
ĠÙģ Ø§ÙĨÛĮ
ĠÙģ ÙĪÙĨØª
ĠØ® Ø´ØªÛĮ
Ø¨Ø± Ø§Ø¯Ø±
ØªÙĪØ§ÙĨ Ùħ
ĠÙħÙĤ Ø§Ø±ÙĨ
Ø§Ø±Øª ÙģØ§Ø¹
ĠP ol
ia m
ĠÙĨØ± ÙĩØ§
ab le
ĠÙģÙĦØ§ÙĨØ¯ Ø±ÛĮ
ĠÙħØ´Ø§ÛĮ Ø®
ĠÛĮÙĪÙĨÛĮÙĪØ± Ø³Ø§ÙĦ
Ø§ÛĮ ÙĪØ§ÙĨ
ĠØ³ ÙħØ¨
ØŃ Ø§Ø¬
ÛĮÙĦ ÛĮÙĨ
Ø§Ú© Ø³ÙĨ
ĠØªÙĦ Ø§ÙĤÛĮ
ĠØªØ¬ ÙĦÛĮ
ĠÚ©ÙĦÛĮ Ù¾
ĠÚ¯ÙģØª ÙĨÛĮ
ĠÛ±Û¸Û¶ Ûµ
ĠÙħÙĨØ³ÙĪ Ø®
ĠGeorg ia
ÙħÙĨØªØ¸ Ø±Ùĩ
ĠÙĤØ° Ø§ÙģÛĮ
ÙĨ ÛĮÙħÙĩ
Ùĩ ÙĪÙĨ
ÙĦ Ø¦ÙĪÙĨ
Ø§ÙĦ Ø¬
ĠØ® ÙĦØ¨Ø§ÙĨÛĮ
ĠÚ¯ ÙĪØ±ÛĮ
ĠØ±ÙĪ Ø§ÛĮÛĮ
ĠØªÙĪ Ø§Ø²ÙĨ
Û¹ Û°Û°
ĠØªÙĤ ÙĦÛĮÙĦ
ĠÙħØ§Ùĩ Ø§ÙĨ
ĠØŃÚ© Ø§Ú©ÛĮ
ĠØ³Ú© ÙĪÙĨ
Ø´ÙĨØ§Ø³ Ø§ÙĨÙĩ
of f
ĠÛ±Û¸Û¶ Û´
ĠÛ±Û¸Û· Ûµ
ĠÚ©ÙĦØ§Ùĩ Ú©
ÙħÙĪÙĦ Ú©
ĠØ§ÙĦØ² Ø§ÙħÛĮ
ĠÙĦÙĪØ§Ø³ Ø§ÙĨ
Ø¨Ø§ÙĦ Ø§ÙĨ
ÙĦÙĪ Ø¨ÛĮ
ĠØ¢Ø± Ú¯
ĠØ³Ùģ Ø§ÙĦÛĮ
ĠÙĤÙħ Ø§Ø±
ĠØ§Ø±ÙĪÙ¾Ø§ÛĮÛĮ Ø§ÙĨ
ĠÛ±Û¸Û¶ Û²
Ø¬ÙĪØ± Ø¬
ĠØ¨Ø§Ø²Ú¯Ø±Ø¯Ø§ÙĨ Ø¯Ùĩ
L A
© Ù
ĠØ´ ØªÙħ
ĠÙħØ± ÙĪØ§ÙĨ
ĠØ¨ÛĮ Ø¶ÙĪÛĮ
ĠØ§Ùģ Ú©ÙĨ
ĠØ§ÙĨØ¨ Ø§Ø´ØªÙĩ
Ø®Ø¯ Ø§ÛĮÛĮ
Ø¨ÙĨÛĮ Ø§Ø¯
Ø¯Ùģ ØªØ±
ĠÙĪØ²Ø± Ø§ÛĮ
ĠÙħØ¹Ø§ÛĮ ÙĨÙĩ
T C
p en
ĠÙħ Ø§ÙĨÙĩ
ĠÙĪ Ø«
Ø® ÙĪÙĨÛĮ
ÙĪÛĮ Ø¯ÛĮ
Ø§Ø³ ÙĨ
ĠØ±ÙĪ Ø¦
Øº Ø±ÛĮ
Ø®Øª Ú¯Ø§ÙĨ
Ø§Øµ ÙĪÙĦ
ĠÚ©ÙĪ Ø®Ø±Ø¯
ÙħØ± Øª
ĠÙĪØ§ÙĦ Ø§Ø³
ĠÚ¯ÛĮÙĦØ§ÙĨ ØºØ±Ø¨
ĠØ¯Ø±Ø¢Ùħ Ø¯ÙĩØ§ÛĮ
ĠØªØ²ÛĮÛĮÙĨ Ø§Øª
ĠÙħÙĪÙģ ÙĤÛĮ
l ing
Ø± ÙħÙĪ
ĠØ¨ Ø§Ø³Øª
ĠØ¨ Ø®ÙĪØ§ÙĩÛĮÙħ
ĠØ§Ø³Øª Ù¾
ĠØ¬ ÙĦÛĮ
ĠØ² ÛĮÙĨØª
Ø° Ø§
ĠØªØ§ Ù¾
ĠÙħØ· ÛĮØ¹
ĠØªÙĤ Ø·ÛĮØ±
ĠÚ¯ÙĦ Ø§Ø¨ÛĮ
ĠØ³Ø¨ Ø§Ø³ØªÛĮÙĨ
ĠØ±ÙĪØ¯ Ú©ÛĮ
ĠÚ©ÛĮ Ø§ÙĨÛĮ
ĠÙĨÙĪØ± Ø§ÙĦØ¯ÛĮÙĨ
ĠÛ±Û´ Û²
ĠØªØ® ÙģÛĮÙģ
ĠØ²ÙĨØ¯ ÛĮÙĩ
ĠÙĨÙĪØ´Øª ÙĨØ¯
ĠÙħØ§Øª Ø±ÛĮ
ĠÙ¾Ø±Ú©Ø§Ø± Ø¨Ø±Ø¯
W E
ÙĨ ÛĮØ²
ĠÙĪ ÙĪÙĦÙģ
ĠÙħÛĮ Ø´Ø¯
ĠØ³Ø± Ø§ÙħÛĮÚ©ÛĮ
ĠØ³Ø± Ø¢ØºØ§Ø²
Ø¹Ùĩ Ø¯ÛĮ
Ø§Ø¦ Ø¯
Ø§Øµ ÙģÙĩØ§ÙĨ
ĠØªØ¹ Ø±ÛĮÙģÛĮ
ĠØªØ® ØªÛĮ
ĠØ¢ÛĮ ÛĮÙĨÛĮ
ĠÙĨÛĮÚ© ÙĦØ§ÛĮ
Ú¯ÙĦ Ø§ÙĨ
ĠØªÙĪØµÛĮ ÙģÛĮ
ĠØ§ÙģØªØ§Ø¯ ÙĨØ¯
ĠØªÙģØ± Ø´
ĠØ³Ø§Ø¦ ÙĪÙ¾
ĠÙħØ¹Ø§ÙĦ Ø¬Ùĩ
ĠØ¹Ø° Ø§Ø¨
Ġ $
Ø§ÙĦ Ø³ÙĦØ·Ø§ÙĨ
ĠÙ¾ Ú©
ĠØ¹ Ø§Øµ
ĠÙħÙĨ Ø§Ùģ
ĠÙĨØ§Ùħ ØªÙĨ
ĠÙħØ±Ú© ÙĪØ±ÛĮ
ĠØ§Ø¨ Ø±ÙĪ
ĠØ¨ÙĨ Ú©
ĠØ²ÙħØ§ÙĨ ÛĮÚ©Ùĩ
la s
ĠÙĨÚ¯ Ø§Ø±Ø§ÙĨ
ĠØ´Ø¹ Ø±Ø§ÛĮ
ĠÙĨØ± Ú¯Ø³
ĠØ¯Ø±Ø®Ø´ Ø§ÙĨÛĮ
ĠÙĩØ§Ùģ ÙħÙĨ
ĠÙ¾Ø§ÙĨØ²Ø¯Ùĩ ÙħÛĮÙĨ
ĠPar k
ÙĪØ¬Ùĩ ÛĮ
âĪ Ĵ
ĠÙ¾ÛĮØ±Ø§ÙĨ Ø´ÙĩØ±
ĠØ¢Ø¨Ø® ÙĪØ³Øª
ĠÙħÙĦÚ©Ø´ Ø§ÙĩÛĮ
Õ «
Øª ÙĪØª
ĠØ± Ø¬ÛĮ
ĠÙģ Ø§Ø±ÛĮ
ĠØ¨Ø± Ø¢ÙĨ
ĠÚĨ Ø§Ø¯
ĠÙħØ¬ Ø§ÙħØ¹
ÙĪÚ© Ø³ÛĮÙĦ
ĠÚ¯Ø±ÙģØª Ú¯ÛĮ
ÙħØŃ ØµÙĪÙĦ
ĠÚ©Ø§Ø±ÛĮ Ø²
ĠØ´ÙĨØ§Ø®Øª ÙĨ
ĠĠĠĠ ĠĠĠĠ
Ø§ÙĨØªØ®Ø§Ø¨ Ø§Øª
ĠØ§ÙĩØ±ÛĮ ÙħÙĨ
ÙĪÙĩÛĮØ¯ Ø±Ø§Øª
Ø¯ ÙĪØ±Ø§ÙĨ
Ú© Ø§Ø³Øª
Ø´ Ø§Øª
ĠÙĨ Ø¦ÙĪ
ĠØ¬ ÙĪÙĦØ§ÛĮ
ÙĪÙĦ ÙĪÚ¯
ĠØ§Ø´ ÙħÛĮØª
ĠÙħØ³Øª ÙĤ
ar n
ĠÚ¯ÙģØª Ú¯ÙĪÛĮÛĮ
ĠØªØ® ÙħÛĮØ±
ĠE r
Û²Û° Û°Û±
ĠØ§Ù¾ ÛĮØ¯
ĠØ´Ú©Ø§Ø± ÚĨÛĮØ§ÙĨ
ĠÙĨÚ¯Ø§Ø± Ø®Ø§ÙĨÙĩ
j ect
ĠÙĤ Ø±ÛĮØ´
ĠØ¢ÙĨ Ùĩ
ĠØ¨Ø§Ø± Ú¯ÛĮØ±ÛĮ
ĠÙħØµ Ø±ÛĮØ§ÙĨ
ĠÙģØ±ÙĪ ÙĩØ±
Û²Û° Û°Û³
ĠØªØ§Ú© ØªÛĮÚ©ÛĮ
Û²Û°Û±Û ¸
ĠÚ¯Ø°Ø± ÙĨØ§ÙħÙĩ
ÙģØ§Ø± Ø³ÛĮ
ĠØ§Ø³ÙħØ§Ø¹ÛĮ ÙĦÛĮØ§ÙĨ
ĠÚ©Ø±ÛĮÚ© Øª
ĠÙħØ§Ø±Ú©Ø³ÛĮ Ø³Øª
ĠÙĨÙħ Ú©ÛĮ
ĠØ¹Ùħ Ø§Ø±
ĠØ¹Ùħ Ø¯ÛĮ
ĠØ§Ø¯ ÛĮÙĨ
ĠÙħØ±Ø¯ Ø§ÙĨÛĮ
ĠØ¶ Ø±Ø§ÛĮØ¨
ĠØºÛĮØ± ÙħÙĨØªØ¸Ø±Ùĩ
ĠÚ¯ÙģØª Ùħ
ĠØ¨Ø§Ø²Ø§Ø± ÚĨÙĩ
ĠØ§Ø®ØªØµ Ø§Ø±ÛĮ
ĠØ¨Ø§Ø²Ø¯Ø§Ø´Øª Ú¯Ø§Ùĩ
Û±Û±Û ´
ĠØ®ÙĦØ¨Ø§ÙĨ Ø§ÙĨ
ĠØ§ÙĪØ±Øª ÙĨ
ans as
ÙħØ§Ø±Øª ÛĮÙĨ
ĠØ³Ø±Ú¯ Ø¦ÛĮ
ĠØ¢ÙĨØ§Ùĩ ÛĮØªØ§
R NA
ÙĤ ÙģÛĮ
ĠØ´ ÛĮÙĦØ§
ĠÙ¾ ÙĪÚĨ
ĠÚ©Ø± Ø§Ú©
ĠÚ©ÙĦ ÛĮÚ©
ĠØªÙĦ ÙħÙĪØ¯
ĠØªØ¹ Ø²ÛĮÙĩ
ÙĪØ³Øª ÛĮÙĨ
ĠØªÚ© Ø§Ø¨
le x
ĠØ®ÙĪÛĮØ´ Ø§ÙĪÙĨØ¯ÛĮ
ĠÙ¾ÛĮÙħ Ø§ÙĨÙĩ
ÚĨÙĩØ§Ø± Ùħ
ĠÚĨÛĮØ¯ ÙħØ§ÙĨ
ĠÚ©ÙĦÛĮØ³ Ø§ÙĩØ§
b di
s ch
Ùħ Ø§ÙĦÛĮ
Ø¯ ÛĮÚ©
ĠÙħ ÙĪÙħÛĮ
ĠØª Ø§Ø®
ĠÙĨ Ø¯ÙĩØ¯
ĠØ® ÙĦÙĪ
ĠØ® Ø§ÙĦÙĩ
ĠÙĩÙħ Ø´ÙĩØ±ÛĮ
ĠÙħØª Ø§Ùģ
ĠÙĤØ± Ø¶Ùĩ
ĠØ¨Ø§Ø± ÛĮÚ©Ùĩ
Ø§Ø¯Ø± Øª
Ø¬ÛĮ Ø§ÙĨ
ĠØªØ´Ú© Ø±
ĠØ±Ø¦ ÛĮØ³Ùĩ
ĠP e
ĠÙģØ±ÙĪØ´ ÙĨØ¯Ú¯Ø§ÙĨ
ÙħØ¹ ÙħØ§Ø±ÛĮ
Û²Û° Û°Û²
ĠØ±Ú© ÙĪØ±Ø¯ÙĩØ§ÛĮ
ĠØ§ÙĦÙĤ Ø§Ø¨
ĠÙ¾Ø°ÛĮØ±ÙģØª ÙĨ
ĠÙĩØ§ÙĨ ØªØ±
ÙħÚ© Ø¹Ø¨
Ø§ØªØŃ Ø§Ø¯ÛĮÙĩ
ĠÙģØ§ÙĨ ÙĪØ³
ĠØºØ± ÙĪØ±
9 5
ĠÙĪ ÛĮÙħ
ĠØ± Ø§Ø´Ø¯
ĠØ¢ ÙĪØ§ÛĮ
ĠØ¬ ÙĦØ§
ĠÚ¯ ÛĮØ´Ùĩ
ĠØªÙĪ Ø§ÙĦØª
ĠØµ ÙħØ¯
ĠØ§Ø± ÙĪ
ÙĪØ±Ø¯ Ú¯ÛĮ
ĠÛ±Û³Û ³
ĠÙħØ´ ØªØ±
ic o
at or
ÙħØŃ Ø³ÙĨ
ĠØ¬ÙĪØ± Ø§Ø¨
ĠÚ©Ø§ÙĨØ¯ ÛĮØ¯Ø§
ĠØ±Ø´ ÙĪÙĩ
ĠIntern ational
ĠØ¹Ø°Ø± Ø®ÙĪØ§ÙĩÛĮ
V D
Ú© Ø´ÙĨ
ĠÙħ ÙģÙĤ
Ú¯ Ø§Ø²
ĠØ³ ÙĪØ´ÛĮ
ĠÙħÛĮ Ø±Ø§
ĠÙĩ Ù¾Ø§Øª
ĠØ§ÙĦ Ø§Ùĩ
ĠÚ©ÙĨ Ùĩ
ĠØ¨ÛĮ Ø¶Ùĩ
ĠÚ©ÙĦ ÙĪÙ¾
ĠÛ±Û· Û·
ĠØ§ÙĦÚ©ØªØ± ÙĪÙĦÛĮØª
Ø§ÙĨØª Ø³
ÙħØ³ ÛĮØ±
ĠØ¢Ù¾ Ø§Ø±Øª
ul l
Û±Û±Û ²
ĠØ§Ø´Ø®Ø§Øµ ÛĮ
ĠÙĩÙĪÛĮ Ø¯Ø§
ĠØ§Ø³ÙħØ§Ø¹ÛĮ ÙĦÛĮÙĩ
ĠØ¨ÙģØª Ø§
ÙĦ ØªÙĪÙĨ
Ø¨ Ø§Ø±Øª
ĠÙĩ Ø§Ø¬
Ø§Ø´ ØªÛĮ
ĠØ±ÙĪ Ø§ÙĤ
ĠØ±ÙĪ Ø³ÙĪ
Ø¨Ùĩ Ø§Ø¡
ĠÙħØ±Ø¯ Ø§Ø¨
ÙĩÙĨÚ¯ Ø§ÙħÛĮ
ĠÙģØ¹Ø§ÙĦÛĮØª ÙĩØ§ÛĮ
ĠÚ©ÛĮ Ø³Øª
ĠØ±ÙĨÚ¯ Ø§Ø±
ĠØ³Ú© Ø§ÙĩØ§
ĠØ¬Ø§ ÙĪØ¯
ent er
ĠAir port
ĠÙĨØº ÙħÙĩ
ÙĨ Ø³ÛĮ
ĠØ¨ Ø¬Ø§
ĠØ¢ ÙĪØ§ÙĨ
ĠÚ¯Ø± ÙĪÛĮ
ĠØ¨ÛĮÙĨ ÙĨØ¯Ú¯Ø§ÙĨ
ĠM us
ĠÙħØŃØ¯ Ø¨
ĠØ¢ÛĮ ÙģÙĪÙĨ
ÙĨØ´ÛĮÙĨ Ø§ÙĨ
ĠÙĪØ§Ø± ÙĪÙĨ
ĠØ³ÙĪØ² Ø§ÙĨØ¯ÙĨ
ĠÙĦØ§Ú© ÙĩÛĮØ¯
ĠY ou
ĠØ§Ø·Ø±Ø§ÙģÛĮ Ø§ÙĨ
s ection
Ú© Ø§Ø´
ĠÙĪ Ø®
ĠÙĨ ÙĪÙĨ
Ø§Ø³ ÛĮØ¯
ĠØ³Ø± ÙģÙĩ
Ø´Øª Ø§Øª
ÙħØ§ÙĨÛĮ Ø§
ØªØ±ÛĮ Øª
Âł Âł
ĠÙ¾Ø±Øª ÙĪÛĮ
ĠØ¯Ø±Ø¯ÙĨ Ø§Ú©
O N
b a
Ø§Ø¨ ÛĮØ´
Ø§Ø² ÙħØ§ÙĨ
ÙĪÙħ ÛĮØ±
ĠÙħÙĤ ØµØ±
ĠØªØ± Ùĩ
ĠØ¨Ø§Ø´ Ùħ
ĠÙħØ±Ú©Ø² ÙĪØ§Ø±
ĠØ§ØªØ§ÙĤ ÛĮ
ØŁ "
ĠÚ©Ø±ÛĮØ³Øª ÛĮÙĨØ§
ĠÙħÙĨÙģ Ø¬Ø±Ùĩ
Ú©ÙĨØªØ± ÙĦ
o int
ĠØ¨ Ø§ÙħÛĮØ§ÙĨ
Ù¾ ÙĪØ´ÛĮ
ĠØ¬ ÙĪØ¯ÙĪ
ĠØ§ ÚĺÙĩ
ĠØ® Ø§ÙħÙĩ
ĠÚ¯ ÛĮØ³
ÚĨ Ø´
Ø§Øª Ø§ÙĤ
Ø§Ø´ Ø±
ĠØ§Ø´ Ø§Ø¹Ùĩ
Ø§Ø¦ ÛĮÚ©Ø§
ĠØªØ± Ø§Ø¨
ĠØ´Ø± ÙĦÙĪÚ©
ĠØ§Øª ÛĮÙĦÙĨ
ĠØ§ÙĤ ÙĦØ§Ùħ
Ø§Ø¨ÙĦ Ø³
ĠÙħØµ ÙħÙħ
al s
ĠÙĪØ§ÛĮ Ú©ÛĮÙĨÚ¯
ĠÙĪÛĮØ¯ÛĮ ÙĪ
ĠØ³ÙĦÛĮÙħØ§ÙĨÛĮ Ùĩ
ĠØ¶ÛĮ Ø§Ø¡
ĠÙĦÙĨÙģ ÙĪØ³ÛĮØª
ĠØ§Ø¹Ø² Ø§ÙħÛĮ
/ >
Ùĩ ÙĪØ´
Ú© ØªÛĮ
ĠØª Ø³ÙĨ
ĠØª Ø§ÙħÛĮÙĨ
Ù¾ ÛĮÚ©Ø±
ĠØ® Ø¶Ø±
ĠÚ¯ ÚĨÛĮ
ĠØ² ÙħØ²
ĠÙĩÙħ Ú¯ÙĨ
Ø¢ Ø®
ĠØ¹Ùħ Ùĩ
ĠÛ±Û² Û¹Û¹
ĠÙģÙĦ ÛĮÚ©Ø³
he m
ĠF e
ĠF alls
id a
ĠØ§Ù¾ ÙĪØ²ÛĮØ³ÛĮÙĪÙĨ
ĠØ²Ø±Ø¯ Ø¢ÙĦÙĪ
ĠØ¨Ø§Ø²ØªØ§Ø¨ ÛĮ
ĠØ¯Ø±ÙĪØº ÛĮÙĨ
ĠØ§Ø±Ú¯Ø§ÙĨ ÛĮÚ©
ĠÚ¯ÙĪØ±Ú© Ø§ÙĨÛĮ
Ġ !
Ù¾ Ø´
Ø¹ Ø§ÙĦÛĮ
ĠÙĦ Ø§ÙĪØ±
ĠÚ¯Ø± Ø§Ø²
ĠÛ±Ûµ Û¶
ĠÙħØ¨ Ø§Ø¯Ø±Øª
Ø¬Ùħ Ø¹ÛĮ
ĠØªÛĮ Ø±ÛĮ
ĠÚ¯ÛĮÙĦ Ø¨Ø±Øª
ĠØºÙĦ Ø§Ùģ
E G
O H
w ood
ĠØ¨ Ù¾ÛĮÙĪÙĨØ¯Ø¯
ĠÚ© Ø§ÙĪÛĮ
ĠØ´ Ú¯Ø±
ĠØ§Ø³Øª ÛĮØ´ÙĨ
ÙĪÙĩ Ø±ÛĮ
ĠØ¢Ø¨ ÙĩØ§ÛĮ
Ø³ÛĮÙĨ ÙħØ§
ĠÛ±Û±Û ¹
ĠØ³ÙĪØ®Øª ÙĨ
ĠÙħØ§Ø¯Ø±Ø² Ø§Ø¯ÛĮ
ĠØ¯ Ø§Ø¹ÛĮ
Ø§ÛĮ Ø§ÙħØ§
ĠØ§Ø² ÛĮÙĨ
ĠØ¨Ø± ÛĮØ¯ÙĨ
Ø³ÛĮ Ø²
Ø¢ Ø±Ø§ÛĮÛĮ
ÙĪØª ÛĮØ¯
ĠÙĨÛĮÙħ Ø±ÙĪØ²
Ø³ÙĪØ¨ ÛĮØ´ÛĮ
ĠV ir
ĠÙħÙĨØµ Ùģ
ĠÙĩØ§ÙĨ Ø±ÛĮ
ĠÙ¾Ø¯ Ø±ÙĪ
ĠÙħØªØ¶ Ø§Ø¯
ĠØª Ú©ÛĮ
ØŃ Ø§ØªÛĮ
ĠÙĤ ÙĪØ´
ĠØ¢ÙĨ ÙĩØ§ÛĮÛĮ
ĠØ§ÙĨ Ùĩ
ĠØ¨Ø§Ø² Ø±Ø³
ĠÙħØ³ ÙĨØ¯
ĠØ³ÙĦ Ø¨
ÙĤØ± Ø¢ÙĨ
ĠØ±ÙĪØŃ Ø§ÙĨÛĮØ§ÙĨ
ĠØ§ÙĦÛĮ ÙĪØ±
ĠØªØ§Ùħ ÛĮÙĦ
ĠØ¨Ø§Ú©ØªØ±ÛĮ Ø§ÛĮÛĮ
Ú©ÙĪØ´ Ø¯
ĠØªÛĮØ³ ÙģÙĪÙĨ
Ø¹Ø¶ ÙĪÛĮØª
ĠÚ©Ø§Ø±ÙĨØ§Øª Ø§Ú©Ø§
Ø§ÛĮ Ø§ÛĮÛĮ
ĠØ´ Ø§Øª
ĠØ´ ÙĪÙĤ
ĠØ± Ø¨Ø§ÙĨÛĮ
ĠÙħÛĮ Ø¯ÙĦ
ĠØ¹ ÛĮØ§Ø±
ĠÛ² Û³Û´
ĠÙĩØ± Ø³Ø§ÙĦÙĩ
ĠØ¬ÙĨ Øª
ĠÙĦÛĮ ØªØ±ÛĮ
ĠØ¢Ø± Ø§ÛĮØ´ÛĮ
ÙĪÙĦÛĮ ØªÛĮ
Ø§ÙĨÚ¯ Ø§
ĠØ§Ø³ØªØ± Ø¢Ø¨Ø§Ø¯
le c
ĠÚĨØ§Ù¾ Ø®Ø§ÙĨÙĩ
ĠØ§Øº ØªØ´
iv er
ĠÙĨØ§ÙĨ Ø³ÛĮ
ĠÙħØ±Ø§Ø¬ Ø¹Øª
ĠØ¯Ø² Ø¯ÛĮØ¯Ùĩ
ĠØªØ±Ø§ÙĨØ²ÛĮØ³Øª ÙĪØ±
ĠØ³Ø§Ø¦ÙĪÙ¾ Ø§Ø¦ÙĪÙĦÙĪ
4 6
Ù °
Ùģ Ø§ØµÙĦÙĩ
ĠØ³ Ø§ÙģØª
ĠÙĩ Ø§ÚĨ
Ú©ÙĦ Ø§Ø³
Ø§ÙĪ Øº
ĠØ´Ø± ÙĪØ±
ĠÚ¯Ø±ÙĪ ÙĪ
ĠØ¹Ø¨ Ø§Ø¯ÛĮ
Ø²ÙħÛĮÙĨ ÛĮ
ĠH IV
ĠØ§Ø±Ø² ÙĨØ¯Ùĩ
ĠØ³ÙĪØ² ÙĨÛĮ
Ú¯Ø²Ø§Ø± Ø´
ĠØ®ÙĪØ¯ÙħØ®Øª Ø§Ø±ÛĮ
ĠÙĦÙĪÛĮ ÛĮØ³
ĠØ§Ø±Øº ÙĪØ§ÙĨÛĮ
ĠØ§ÙĦÙħÙĦ ÙĦÛĮ
ĠØ± ÙģÛĮØ¹
ĠØ¹ Ø±ÛĮ
Ø´Ùħ Ø³
ĠÙģÙĦ ÙĪØ¦
ĠÙ¾Ø´Øª ÙĪ
ĠÙħØŃÙħÙĪØ¯ Ø¢Ø¨Ø§Ø¯
ĠÙħÛĮÙĨ ÛĮÙħ
Ú©ØªØ§Ø¨ Ø®Ø§ÙĨÙĩ
ĠÚ¯Ùĩ ÙĪØ§Ø±Ùĩ
ĠÙĩÙĪØ§Ùģ Ø¶Ø§
ĠØ¢Ø´ÛĮ Ø§ÙĨÙĩ
ĠØ®Ø§Ø¯ Ùħ
ĠÙħØªØµ Ø±Ùģ
ÙĨ Ø³Ø¨
ĠØª ÙĪÛĮØ³Ø±Ú©Ø§ÙĨ
ĠØ± Ú¯Ùĩ
ĠÙĦ Ú¯ÙĨ
Ø¢ ÛĮØ§
ĠØ¯ÛĮ Ø±ÛĮ
Ø§Ø³ÛĮ ÙĦÛĮ
ÙĤÙĦ Ùħ
ĠØ§Ú© ÙĪØ³ÛĮØ³ØªÙħ
ĠÙĩÛĮ ÙĪÙĨ
ĠÚ¯ÙģØª Ú¯ÙĪÙĩØ§ÛĮ
âĢ¦ Â»
ĠØ¨ÛĮØ³Øª ÙħÛĮÙĨ
ĠÙħÙĤØ¯ Ø³ÛĮ
ĠÙĪ Ø«ÛĮ
ĠØ´ ÙģØ§
ĠÚ¯ Ø±ÛĮÙģ
ĠØ´ÙĩØ± Ùĩ
Ø§Ø¹ ØªÛĮ
ĠØ¯ÛĮ Ø¨Ø§
ĠÙħØªØŃ Ø¯Ø§ÙĨ
Ú©Ø§Ø± Ú¯Ø±Ø¯Ø§ÙĨ
ĠÛ±Û° Û°Û°Û°
ÙĨØª Ø§
ĠÙħØ° Ú©Ø±
ĠØ§Ø±Ø¯ Ú©Ø§ÙĨ
ĠØŃÙĦ Ø²ÙĪÙĨ
ĠÙħØ§Ø³ ÙĪÙĦÙĩ
ĠÙĨØ§Ø® ÙĪØ´
ĠØ¨Ø¯Ø§ÙĨ ÙĨØ¯
ĠØ³Ø§Ø¹ ØªÛĮ
ĠØ³Ù¾Ø±Ø¯ ÙĨØ¯
ĠØ²Ø¨ Ø§ÙĨÙĩ
ĠÙħÙĨØ¨ Ø¹ÛĮ
ĠÙħÙĪØªØ³ Ø§Ø±Øª
Ùĩ ÙħÙ¾ØªÙĪÙĨ
Ø¨ ÙĪØ´
Ø¶ Ø¯
ÙģØ± Ø²ÙĨØ¯
ĠØ§Ú© Ø¨Ø±ÛĮ
ĠÙģÛĮ Ø«
ĠÚ©ÙĪØ± Ù¾ÙĪØ±
ĠØ®ÙĪØ§Ø¨ Ú¯Ø§Ùĩ
ĠØ¢Ú¯Ø§Ùĩ Ø§ÙĨÙĩ
ĠØ¯Ø¨ÛĮ Ø±ÛĮ
ĠÙħÙĪÙĨØªØ± Ø§ÙĦ
Ø¢ÙĪ Ø§Ø²Ùĩ
ĠØ¨ÛĮÚ¯Ø§ÙĨ Ú¯Ø§ÙĨ
ĠÚĨØ±Ø¯ Ø§ÙĪÙĦ
Ø¯ ÙĪØ¨
ĠØ± ÙĤÛĮÙĤ
ĠØ¢ Ø¯ÛĮ
ÛĮÙĨ ÙĪØ³
ĠÙ¾ ÙĪØ±Ø´
Ø¬ ÛĮØ¯
Ø§Ùĩ Ø¯Ø§ÙĨ
ÙĪÙħ Ø§ØªÛĮÚ©
ĠØ§ÙĪ Ø§Ø¦ÙĦ
ĠÙĦ Ø§Ùģ
ĠÚ¯Ø± Ø§Ø¯ÛĮØ§ÙĨ
ĠØ¢Ø± Ø§Ø³ØªÙĩ
ĠS i
ĠÙħØ§ÙĦ Ú©Ø§ÙĨ
ĠØ§ÙĦÚ¯ÙĪØ±ÛĮØª ÙħÛĮ
T A
Ø³ ÙĪØ¦
Ø³ Ø¨Ø±Ú¯
ĠÚ© Ø²
ÚĨ Ø³Ú©ÙĪ
ĠØ±Ø§ Ú©ÛĮ
ĠÙĤ Ø§ÛĮ
ĠÛĮÚ© ØªØ§
ĠÚĨ ÛĮÙĦ
ĠÙģØ± Ø§ØºØª
ĠÚ©Ø´ Ú©
Ø¢ Ùĩ
Ø¯Ø± Ø§ÛĮÙĨ
ĠØº Ø²ÙĨÛĮ
ĠÙħØ´ Ø¹ÙĦ
ĠÙ¾Ø§ÛĮ Ø¨ÙĨØ¯
ĠØ¯ÙĪÙĦ ØªØ´
ĠA v
ĠØ§ÙħÚ©Ø§ÙĨ Ø§ØªÛĮ
Û±Û±Û ·
ex t
ĠØ§ÙĦØªÙĩ Ø§Ø¨ÛĮ
ĠØ´Ø§ÙĨØ²Ø¯Ùĩ ÙħÛĮÙĨ
ĠØºØ² Ø§ÙĦÛĮ
ĠÚ¯Ø¦ ÙĪØ±Ú¯
ÙĨ ØµØ±
ĠØª Øº
ĠÙ¾ Ø§ÚĨ
Ø±ÛĮ Ø¬
ĠØ±ÙĪ Ø¨ÙĨ
ĠØº ÙĦÛĮØ¸
ĠÙħØ¬ Ø±
ĠÚ©ÙĨ Ø±Ø§Ø¯
ĠØ±ÙĪØ² ÙĨÙĩ
ĠØ®Ø· Ø±ÛĮ
Ø³Ø¨ ÙĪÙĨ
ĠT exas
ĠÙħØ¨ Ø§Ø¯ÙĦØ§Øª
ĠØ³Ø¹ ÙĪØ¯
ĠØ§ÙĤØªØµØ§Ø¯ Ø¯Ø§ÙĨØ§ÙĨ
ĠÙħÙĤØ± ÙĪÙĨ
Ø¬Ø§ÛĮ Ø¨
ĠÛ±Û¸Û· Û·
Û±Û±Û ¶
ĠÙħØ¶ Ø§Ø¹
ĠÙĩØ±ÛĮ Ø³ÙĪÙĨ
ĠÛ±Û±Û° Û°
ĠØ§ÙħØ±ÛĮÚ© Ø§ÛĮÛĮ
ĠØ§ÙĨØ¯ÛĮØ´ ÙħÙĨØ¯Ø§ÙĨ
ĠÙ¾Ø¯Ø±Ø¨Ø²Ø±Ú¯ Ø´
ĠØ¨ÙĪÙĨØ¯ Ø³
Î µ
Øª ÙĨÛĮ
ĠÙģ Ø§Ø¦
ÙĪÙħ Ø§ÛĮ
ĠØ§Ø¨ ØªÙĦ
ĠØªØ± Ø§Ú©ÙĨØ´
ĠÙĨÛĮ Ø§ÙħØ¯
Ø§ÙĪ Ø³Øª
ĠÙĩÛĮ ÙĪÙĦØ§
ĠØ²ÙĨ Ø¨ÙĤ
ĠÛ²Û² Û¶
ĠÙħØ¯ÛĮØ± Ú©ÙĦ
ĠØ¢ÙģØª Ø§Ø¨ÛĮ
ĠÙģØ±Ú© Ø§ÙĨØ³ÛĮ
ÙģØ±ÙĪ Ø´Ø¯
ĠÚ©ÙĪÙĩÙĨ ÙĪØ±Ø¯ÛĮ
ĠØ®ÙĨØ¯ ÙĤ
7 9
Ùħ Ø³ÛĮ
ĠÙħ Ø§Ø²ÛĮØ§Ø±
ĠÙ¾Ø± ÙĪØ±Ø¯
ĠØ¯Ø±ÛĮ Ø§ÙĨÙĪØ±Ø¯
ĠØ±ÙĤ ÙħÛĮ
ĠØ¨Ø§Ø²Ø¯ÛĮØ¯ Ú©ÙĨÙĨØ¯Ú¯Ø§ÙĨ
ĠÙ¾ÙĪØ±Øª ÙĪØ±ÛĮÚ©ÙĪ
Ġ5 0
ĠØ¯ÛĮØª Ø§ÙĦÛĮØ§
ÙĤØ±Ùħ Ø²
ÙĨØ²Ø¯ ÛĮÚ©
: Â«
N S
Ø¯ ÛĮÙĨÚ¯
Ú© ÙħØ§ÙĨ
ĠÙħ Ú©ÛĮ
ĠØ¯ ÙĪÙĨÚ¯
Ø³ ÙĨÙĩ
ĠØ³ Ø³Øª
Ø§ÙĦ Ø§Ø±
Ø§ÙĦ ÙħØ¹
ĠÙħØŃ Ø§ÙĦ
Ø¢ Ø°Ø±
Ø¯Ø± Ø¢ÙħØ¯
ĠØ¯Ùĩ ÙĦ
ĠØ¯Ø§ÙĨØ´ Ø³Ø±Ø§ÛĮ
ĠØ¢Ø¨ Ø¬ÙĪ
ĠØ¹Ø¨ Ø¯ÛĮ
ÙĦÙĪ Ø§
ĠÙ¾Ø´ ØªÙĪØ§ÙĨÙĩ
ĠÚ©Ø§ÙĦÛĮ Ø¨Ø±
ĠV o
ĠÙĩØ§Ø± ÙĪÛĮ
ĠØ²Ø® ÙħÛĮØ§ÙĨ
Ġ201 1
ĠØ¢Ø´Ú©Ø§Ø± Ø³Ø§Ø²
ĠØ±Ø¤ ÛĮØ§ÛĮ
ĠØ¨Ø±Ú¯Ø² ÛĮØ¯ÙĨØ¯
ĠÙ¾ÙĩÙĦÙĪ Ø§ÙĨÛĮ
ĠÚ©Ø«ÛĮ Ùģ
ĠØ¨ Ø·ÙĪØ±ÛĮ
Ø¨ Ø¯ÙĨ
ĠØ¬ Ø¯Ø§ÙĦ
ĠØ§ÙĪ Ùĩ
ĠÙħÙĨ Ø§ØµØ¨
ĠÙħØ¬ ÙĦØ¯
ĠØ´ÛĮ ÙĪØ§
ĠÙģØ§Ø± Ø³Øª
ĠØªÙĪØ§ÙĨ ÙħÙĨØ¯
ĠÙ¾ÙĦ Ú©Ø§ÙĨ
ĠØ¹ÙħÙĦ Ú©Ø±Ø¯ÙĩØ§ÛĮ
ic an
ĠÚ©Ø§Øª Ø¨
ĠØ¨Ø§Ø¯ Ú¯ÛĮØ±
ĠØ®Ø±Ø¯ ÙħÙĨØ¯
ĠØªØ¹Ø§ÙħÙĦ Ø§Øª
ĠÂłĠÂłĠÂłĠÂł ĠÂłĠÂłĠÂłĠÂł
ĠÙ¾Ø¯Ø§Ùģ ÙĨØ¯
ĠØ±Ú¯Ø± Ø³ÛĮÙĪÙĨ
A n
m p
Ø³ Ø±Ùĩ
ĠÙĪ ÙĦÛĮØ¯
ÙĤ Ø§Ø¨
ĠØ´ ÙĪÛĮÙħ
Ø¹ Ø±Ø¨
ĠÙ¾ ÙĪÙĦÛĮØª
ĠØ¨Ø± ÛĮÚ©
ĠÛ² Û³Û¶
Ø¢ ÙģØ±ÛĮÙĨ
ĠÛĮ ÙĪÙĩ
ĠØº Ø§Ø±ÙĩØ§ÛĮ
ÙĪØ² ÙĪ
ĠØ¨ÛĮ Ú¯ÛĮ
ĠØ§Ø³ØªØ§ÙĨ ÙĩØ§ÛĮ
ĠÙħÛĮÙĦ Ø²
ÙĪÙĦÛĮ Ø²
ĠØªÙĪØ§ÙĨ ÙħÙĨØ¯ÛĮ
ĠØ¨Ø§Ø¨ Ú©Ø§ÙĨ
ĠÙĩÙĨØ±Ùħ ÙĨØ¯ÛĮ
ĠÙĨÛĮÚ© Ø§Ø±
ĠÚ¯Ø±ÛĮ Ø®ØªÙĩ
ĠØ¹ÙĤÙĦ Ø§ÙĨÛĮ
ĠØ±Ø´ Ø¯ÛĮ
ÙĨØ¨ Ø´ØªÙĩ
Ø¢ÙģØª Ø§Ø¨
R P
h y
Ø¯ Ø²Ø¯
ĠØª Ø§Ø²ÛĮ
ÚĨ Ø§Ú©
Ø§Ø±Ø¯ ÙĨ
ĠØ§Ùħ ÙĪÛĮØ§ÙĨ
ĠØ¨Ø®Ø´ Ø¯
ĠÙĨÙĪ ØªØ±
ĠA nt
ĠØ§Ø·ÙĦØ§Ø¹ ÛĮ
ĠÚ©ÛĮ ÙģØ±
ĠØ´Ø¹ Ø§Ø¹ÛĮ
ÙħØŃ ÙħØ¯Ø±Ø¶Ø§
ĠØ¨Ø±Ø§Ø¯ Ø±ÛĮ
ÙĪÙħØ± Ø«
Ø¢Ø² Ø§Ø¯ÛĮ
ĠÙĩÙĪÚ© Ø§ÛĮØ¯ÙĪ
Ø®ÙĪØ±Ø´ÛĮØ¯ Ú¯Ø±ÙģØªÚ¯ÛĮ
Ø§ÙĦÙħÙ¾ ÛĮÚ©
ĠØ³ ØªÙĪØ§ÙĨ
ĠØ§ÛĮ ÙĪØ¨
ĠÙħÛĮ ÚĨÙĦ
ĠÚ¯ Ø§Ø¦
ÙģØ± Ø§Ø²
ĠØ§Ùħ Ø«Ø§ÙĦ
ĠØ§Ø³ Ú©Ø±
Ø§Ø²ÛĮ Ø³
ĠØªØ¹ Ø§ÙħÙĦÛĮ
ĠÙ¾ÙĦ Ú©
ĠÙ¾ÙĦ Ø§ØªÛĮÙĨ
Ġ2 4
Ú©Ø±ÛĮ Ø³
ĠØ§Ø´Ø¹ Ø§Ø±Ø´
ĠØ³ÙĪØ§Ø± Ú©Ø§Ø±ÛĮ
ĠØ¯ÛĮÙĦ ÙħØ§ÙĨ
ĠÙģØ±Ø§Ø®ÙĪØ§ÙĨ Ø¯Ùĩ
ĠØ¬ Ø²Ø±
ĠÚĨ ÛĮÙĨÚ¯
ÛĮØ² ÙĪ
ĠØ¨Ø¹Ø¯ Ø§Ø²
ĠØŃÙħ Ø§ÛĮØªÛĮ
ĠÛ±Û´ Û±
ĠØ¹Ø¯ ÙĦ
ĠÚ©Ø±Ø¨ ÙĪÙĩÛĮØ¯Ø±Ø§Øª
ĠÙģØ±Ø§Ùħ Ø§Ø³ÙĪÙĨ
ĠØªØ¨Ø± Ø¦Ùĩ
Ø¯ÙĪÙħ ÛĮÙĨ
ĠØ§Ø³Ù¾Ùĩ Ø¨Ø¯
ĠØ®Ø³Ø± ÙĪÛĮ
Øª Ø³ÙĪ
Ú© Ø§Ø±Ùĩ
ĠØ¯ Ø§ÙĨØ¯
ĠÚ© ÙĪÙĨÛĮ
ĠØ´ ØªØ§ÙģØª
ĠÙĨ Ø³ÛĮÙħ
ĠÙħÛĮ Ø±ÛĮ
ĠÚĨ Ø§ÙĤÛĮ
Ø§Ú© Ø´
ĠÙħØ³ Ø¹ÙĪØ¯ÛĮ
ĠÙħÙĩ ØªØ§Ø¨
ĠÚ©ÙĦ Ø§Ø¨
ĠØ´Ø¨ ØŃ
ĠÚ©Ø§Ùħ ÛĮÙĨ
ĠÙĪØ± Ø§Ø«
ĠØŃÙĪ Ø§Ø´ÛĮ
Ø§Ú¯Ø± Ø§Ùħ
ĠÚĨÛĮØ² ÙĩØ§
Ø¯Ø³Øª Ú¯Ø§Ùĩ
Ø¯ÙĪÙĨ Ø§ÙĦØ¯
ĠØ§Úĺ Ø¯ÙĩØ§ÛĮ
ĠØ®ÙĦØ§ÙĤ Ø§ÙĨÙĩ
ĠÙĪØ±ÛĮ Ø¯ÛĮ
ÙģÙĦÙĪ Ø¢
ĠÙĨØ§Ø®ÙĪØ¯ Ø¢Ú¯Ø§Ùĩ
S h
ĠØ¨ ÙĦÙĩ
ĠØ¨ Ø§ÙĨÙĩ
ĠØª ÙħÙĦÚ©
ĠÙħÛĮ ÙĨØ§Ùħ
Ø¢ Ø²Ø§Ø¯
ĠÙĨØ® ÙĪØ±Ø¯Ùĩ
ĠØ´Ø¨ Ú©ÛĮÙĩ
ĠÙĨÙĪØ´ ÙĩØ±
ĠØ¬Ø§Ùħ Ø§Ø¦ÛĮÚ©Ø§
ĠÚ©ÙĦÛĮ Ø´Ùĩ
ĠØ®ÙĦ ÙĪØª
ĠØ§Ø³ØªØ± ÙĦÛĮÙĨÚ¯
ĠÚ©Ø´Øª ÛĮØ±Ø§ÙĨÛĮ
Ú©ÙĪÙĩ ÛĮ
ĠÙħÙĦÚ© Ø´Ø§Ùĩ
ĠØ¯Ø±Ø¯ Ø³Ø±
ĠØ®ÙĪØ§Ø± Ø¬
ĠØ¯Ø§ÙĨÛĮ Ø§ÙĦ
16 6
ĠÙħÙĤØª Ø¯Ø±
. <
Ùħ Ø±Ú©
Ùģ ÙĪØ³
Ù¾ Ø³Øª
Ø§Ùħ ÙĪØ³
ÙĪØ± Ø³Ú©ÛĮ
ĠØ² ÛĮØ¯ÛĮ
ĠÙĪÛĮ Ø³ØªØ§
ĠÚ©ÙĨ Ø§ÛĮÙĩ
ĠØ´Ø± ÙĪØ§ÙĨ
ĠØ®Ø§ÙĨ Ø§Øª
ĠØ¨Ø²Ø±Ú¯ ØªØ±ÛĮ
ĠÙĦÛĮ Ø³Ùĩ
ĠÙħØ® ÙĦÙĪ
ĠÛ±Û· Û°Û°
ĠÛ±Û¶ Û¸
ÙĨØ´ Ø§ÙĨÛĮ
ÙĦÛĮÙĨ Ø§
ĠØ¬Ø± Ú¯Ùĩ
ĠØ³ÙģÛĮØ¯ Ù¾ÙĪØ³Øª
ĠØ¹ÙĪ Ø§ÙĤØ¨
ĠØ¢ÛĮØª Ùħ
ĠAl l
ÙģØ§ÙĦ ÙĨ
ĠØ¯ÛĮØªØ± ÙĪÛĮØª
a ul
Ø¨ Ø¯Ø§ÙĦÙĦÙĩ
ĠÙģ Ø§ØŃ
ĠØ· Ø§Ø¹ÙĪÙĨ
ĠÙĤØ· Ø±ÛĮ
ĠÛ±Û´ Û·
Ø§ÙĨÚ© ÙĪÙĩ
ĠØ±ÙĤ Ø¨Ø§ÛĮ
ÙĪØ¬ ÛĮÙĨ
ĠØ¢ØªØ´ ÛĮÙĨ
Ġs erv
ĠÙģÛĮÙĨ ÛĮÚ©Ø³
ĠØ§Ø³ØªØ¹ Ø§Ø±Ùĩ
ĠØ§ÙĨØ¯Ø§Ø®Øª ÙĨØ¯
ĠØ³Ù¾Ùĩ Ø¨Ø¯
ĠØ§Ø¨Ø±ÛĮØ´ ÙħÛĮ
ĠÚ©ÙĪØ±Ù¾ÙĪØ± ÛĮØ´ÙĨ
Ø¯ ÙĪÙĦ
ĠÙ¾ Ø§ÙĨØ¯
ĠÙħÙĪ Ø¹ÙĪØ¯
ĠØ¢ÙĦ Ø§ÛĮÙĨØ¯Ùĩ
ĠÙĨÛĮ Ø³ØªÙħ
er o
ĠØ®ÙĪØ´ Ø¨Ø®Øª
ĠØ´ÙĨØ§Ø³ ÙĨØ§ÙħÙĩ
ĠØ¯ÙĪØ¨ÙĦ ÛĮÙĨ
ĠÚ¯ÙĪØ§Øª ÙħØ§ÙĦØ§
b or
Ø±ÙĪ Ø´ÙĨ
Úĺ ÙĦ
ĠÛ±Û³Û ±
ĠÚ©ÙĦ Ø¨Ùĩ
ĠÚ©ÙĦ ÙĪÛĮÙĨ
Ú©Ø§Ø± ØªÛĮ
ĠÙħØ¤ ÙħÙĨ
ĠÛ±Û³ Û°Û²
Ú©ÙĦÛĮ Ùģ
ÙĪØŃ Ø´
ĠÙĪØ§ÙĦØ¯ÛĮÙĨ Ø´
ĠÚ¯ÙĪÙħ Ø²
ĠØ¯ÙĪØ±Ø¯ Ø³Øª
ĠÙħ Ú©ÙĦ
Ú¯ Ø§Øª
Ù¾ Ø§Ø±Ø§ÙĨ
ĠÙ¾ Ø§Ø³ÛĮ
ØªØ± ÙĩØ§
Ø§ØŃ ÙħØ¯ÛĮ
ÙħÙĨ Ø´
ĠÚ¯ÙĦ Ø¯Ø§ÙĨ
ĠÙ¾Ø±Ø¯ Ø§Ø²ÛĮ
ĠØ§Ø³Ú© ÙĦÙĩ
ĠÙħØ² Ø§ÛĮØ¯Ùĩ
ĠØ´Ø§ÛĮ Ø¹Ø§Øª
Ø¬ÙĨ Ø¨Ø´
ĠÙģÙĪØ± Ø¨Ø²
ĠÚ¯Ø°Ø§Ø± Ø¯Ùĩ
ĠÙħØ²Ø¯ Ú©
ĠÚ¯ÙħÙĨ Ø§Ùħ
7 8
c ol
Ø ¥
Ùģ Ø³Øª
ĠÙĩ Ø§ÛĮØªØ³
ĠÙģ ÛĮØ¯
ÙħØ§ÙĨ Ø¯ÛĮ
ĠÚ¯Ø± ÙĨ
ĠÙĩØ± ØªØ³
ĠØ§ÙĤ Ø§ÙħÙĩ
Ø®ÙĪ Ø§
ĠÙĨÛĮØ±ÙĪÙĩØ§ÛĮ Ø´
ĠØ¨Ø§Øº Ø¯Ø§Ø±ÛĮ
ĠÙĦÙĨÚ¯ Ø±ÙĪØ¯
ĠØªÙģÚ© Ø±Ø§Øª
ĠÙģØ¶Ø§ÙĨÙĪØ±Ø¯ Ø§ÙĨ
S D
d en
Ùħ Ú©Ø³
Øª Ø¯Ø±ÛĮØ¬
ÙĦ ÙĪÙĦ
ĠÙħÛĮ Ø§
ĠÚ¯ Ø¯Ø§Ø±
Ø±ÙĪ Ø§
ĠÛĮ Ø§Ø´
Ġ" "ØĮ
ÙĪÙĩ Ø§ÙħØ§
ĠØ§Ø¨ ÙĩØ±
ĠÙĨÛĮ ÙĪØªÙĪÙĨ
ĠØ§Ùģ ÙĨØ¯ÛĮ
ÙĪØ¯ÛĮ ÙĪ
ĠÚ¯ÙĦ Ø´ÙĨ
ĠØ¢Ø± ÙĨØ§
ĠØ®Ø§Ú© Ø³Ù¾Ø§Ø±ÛĮ
ÚĨØ± Ø§Øº
Ú©Ø§ ÙĪÚ©
ĠÙħØ§Ø±Ú© Ø³ÛĮØ³Ùħ
ĠÚ¯Ø°Ø´Øª ÙĨ
ĠØªØ¯ Ø§Ø¹ÛĮ
Ġ201 8
ĠÙĨØ§Ú© Ø§Ø±
Ø§Ø¨ÙĨ ÙģØ´
ĠØ¨ÙĪØª Ø§ÙĨ
ĠØ§Ù¾ÙĦ ÛĮÚ©
ĠÚ©ÙĪØ§Ø± ØªØ²
ĠØ«ÙĦ Ø«
ĠÚĺØ§ÙĨØ¯Ø§Ø± ÙħØ±ÛĮ
+ +
6 6
Ø¯ Ø§Ø¨
ÙĪÙĨ Ø¯ÙĩØ§
ÙĪØª ÙĪÙħÛĮ
ĠÚ©Ùħ Ø±ÛĮ
ĠØªØ¨ ÙĦØª
ĠÚ©ÙĪ ÙĩØ±ÙĨÚ¯
ĠØªØ¹ Ø§ÙĦÛĮ
ÙģÙĤ Ø·
ĠÙģØ±Ø¯ Ø§ÛĮ
ĠØµØŃ Ø§Ø¨Ùĩ
ĠØ±Ø§ÛĮ Ø§ÙĨØ´
ĠÚ©Ø§ÙĦ ÛĮÙĨØ²
Û±Û² Û°
Û±Ûµ Û°
ĠØ§ÙĨØ¨ Ø§Ø´Øª
Ø²ÛĮØ³Øª ÙĨØ¯
ÙģØ§Ø± Ø³
ĠÙģÛĮØ¨Ø± ÙĩØ§ÛĮ
ĠÙħØªØ±ÙĪ Ú©Ùĩ
ĠÛ³Û±Û¶ Û¶
ĠÙħÙĨØ³ Ø¬Ùħ
ĠProv ince
ĠØ´ Øª
ĠØ§ÛĮÙĨ ØµÙĪØ±Øª
Ø¯Ø± ÙĪÙĨ
ĠØ¨Ø®Ø´ ÙĩØ§ÛĮ
ĠÚĺ ÙĪ
Ø²Ø± Ø³Ø§ÙĨÛĮ
ĠØ¨ÙĦ Ø¹
ĠØªÙħ Ø±
ĠÚ©ÙĪÚĨ ÙĪÙĦÙĪ
ĠÚ¯Ø²Ø§Ø±Ø´ Ú¯Ø±
ĠÙĦÛĮÙĨ ÚĨ
ĠÚ¯ÙĪÛĮØ´ ÙĪØ±Ø§ÙĨ
ĠÙĪØ«ÛĮ ÙĤÙĩ
o e
ĠØ¯Ø± Ø³Ø§ÙĦ
Ø§ÙĦ Ø²
ĠÙ¾ ÙĪÚ©
Ø§Ø³ ÛĮÙĨ
ĠÙħØŃ Ø³ÙĨÛĮ
ÙĪØ±ÛĮ Ø³Ùħ
ĠÙĩØ± Ø§Ø²
ĠÙ¾ÛĮØ´ ÛĮ
ĠØªØ¹ Ø§Ø±Ø¶
ĠØªØ¬ Ø§Ø±ØªÛĮ
ĠØ¢Ø±ÚĺØ§ÙĨØª ÛĮÙĨÛĮ
ĠÙĩÙģ Ø¯ÙĩÙħÛĮÙĨ
ĠØ§Ø¬ØªÙħØ§Ø¹ Ø§Øª
ĠÙħÙĨÙĤ Ø§Ø±
ĠØªØ®ÙĦ Øµ
Ú¯Ø°Ø±Ø§ÙĨ ÙĨØ¯
ĠØ§ØŃÛĮ Ø§Ø¡
A A
Ùħ ÙĨÛĮÙĨ
ĠØ´ ÙĨÚ¯
ĠØ¬ Ø§Ø¨Ø±
ĠÚ¯ Ø§Ø¨
ÙĨÚ¯ Ø±Ø¯
ĠØµ ÙħÛĮÙħ
ĠØ¯ÙĪ ÙĤØ·Ø¨ÛĮ
ĠÙħØ´ Ú¯ÛĮÙĨ
ĠÙĦÛĮ Øª
ĠØ´ÛĮ Ø§Ø±
la ck
Ø«Ø± Øª
ĠØ±ÙĪÙħ Ø¦ÙĪ
ÙħØ¬ ÙĦØ³
Ø§ÙĦÙħ ÙĤØ¯Ø³
ĠØµØ§Ø¯Ø± Ø§ØªÛĮ
Û±Û±Û µ
ĠØ³Ø§ÙħØ§ÙĨ Ø¯ÙĩÛĮ
ĠØ®ÙĪØ§Ø±Ø²Ùħ Ø´Ø§Ùĩ
ÙĦØ¦ Ø§ÙĨ
- )
y le
Ø± ÚĺÛĮÚ©
ĠØ® ÛĮØ³
ĠÙħØ³ Ø§ÙĦÙħØª
ĠÙĤØ±Ø§Ø± ÙĨØ¯
ĠÙħØ± Ø¦ÛĮ
ĠØ¢ÙĦ Ùħ
ĠÚ©ÙĦ ÙĪØ¨
ĠÚ©ÙĦ ÙħÙĨ
ĠØ¬Ø§ÙĨ Ú¯
it ed
ĠØ³ÛĮØ§Ùĩ Ú©ÙĦ
Ø¢ÙĨ ÙĩØ§
ĠÛ±Û¸Û¶ Û¹
ĠÙħØ§Ùģ ÙĪÙĤ
ĠÙĤØ§Ø´ ÙĤ
ÙĪ ÚĨÛĮ
Ùħ Ø°Ùĩ
ĠØ¯ Ø¯
ĠÙ¾ Ø±ÛĮÙħ
ĠØ¨Ø§ Ø§ÛĮÙĨ
ĠÙģØ± ÙĪÙĨ
ĠÙģÛĮÙĦÙħ ÙĩØ§ÛĮ
ĠØ¨Ø¯ ÙĦÛĮÙĦ
ĠØ¶ Ø¹ÛĮ
Ø³ØªØ± ÙĪÙħ
ĠØ¨Ø±Ø¯ Ø³ÛĮØ±
ig an
ĠØ³Ø§Ú© Øª
ĠÙĤÛĮ ÚĨÛĮ
ÙģØ±Ø¯ ÛĮ
Ø¨ÙĨØ¯ ÙĨØ¯
ĠØŃÙħÛĮØ¯ Ø±Ø¶Ø§
ĠØ§ÙĨØ³Øª ÛĮØª
ĠÙĪØ§Ø±ÛĮ Ø§ÙĨØ³
ĠÚ¯Ø±Ø§ÛĮ Ø§ÙĨÙĩ
ĠÙĦÚ¯Ø§Ø±ÛĮ ØªÙħ
g in
Ø¨ Øº
Ø§ÙĦ ØŃÙĩ
ĠØ§Ø² Ø¯ÛĮ
ĠÙĩ Ø¶Ùħ
ĠÙ¾ ÙĦØ§
Ø¢ Ú¯Ø§ÙĩÛĮ
Ø¸ Ø¨ÛĮ
ĠØ§ÙĦ ØªÙĪ
ĠÙĤØ±Ø§Ø± Ú¯Ø±ÙģØªÙĩ
ĠÙ¾ÛĮØ´ Ú©Ø³
ĠÚ©ÙĦ ÙĪÙĨ
on a
ĠÙħØ§ÛĮ Ø§
ĠG o
ÙĨØ³ Ø¨Øª
Ú¯ÙĨ Ø§Ùĩ
ĠÙħØ±ÛĮ Ø¯Ø§ÙĨ
ĠÙĦÙĪÚ© Ø§
ĠÚ©Øª Ú©
ĠØ°ÙĪØ§ÙĦ ÙģÙĤ
c i
h r
ĠØ¯Ø± Ú¯Ø²
ĠØ¨Ø± ÙĨØª
ĠØ¢ÙĨ ÙģÙĦÙĪØ¢
ĠÙĩÙħ Ø¨ÙĨØ¯
ĠØ§Ùħ Ú¯Ø§
ĠØ¬Ùħ ÙĦ
ĠØ§ÙĦ Ø±Ø¶Ø§
ÙĪØ¦ ÛĮÚ©
ĠÙģØ¹ Ø§ÙĦÛĮ
ĠÙĦÛĮ Ø³Ø¨ÙĪÙĨ
ĠØ±ÛĮ ÚĨ
ĠØ¯ÙĪÙĦ ØªÙħ
ĠS pr
Ù¾Ø± ÙĪÛĮØ²
Ø§ÙĪÛĮ ÙħØ§ÙĤ
ĠØªØ±ÛĮ ÙĦ
ÙħØ§Ø±ÛĮ Ø§
ĠÙĨØ§ÙħØ² Ø¯ÙĩØ§
ĠÚĨÙħ Ø±Ø§ÙĨ
ĠÙħÛĮÚ©Ø± ÙĪÙĨØ²ÛĮ
ĠØ¢ÙĪÛĮ Ø®ØªÙĩ
£ Ù
ÙĤ Ø§ÙĤ
ĠØ¨Ùĩ Ø§Ø±Ø³ØªØ§ÙĨ
ÚĨ ÛĮØ²ÛĮ
Ġ( Â«
ĠÙħØ¹ Ø´ÙĪÙĤ
ĠØ¯ÛĮ Ø³Øª
ĠØ¨ÛĮÙĨ Ø´
ĠÙħØªØ± ÙĪÙ¾
ĠØ³Ø§Ø² Ø´
ÙħØ¹ Ø§Ø¯ÙĦ
ĠÙħØ«ÙĦ Ø«ÛĮ
Ø¨Ø§Ø² Ú¯Ø´Øª
ĠØ¯ÙĪØ³Øª Ø¯Ø§Ø±Ø§ÙĨ
Û±Û¸Û ³Û
ĠØ§Ø¦ ÙħÙĩ
ĠUn iversity
Ø¯Ø±Ø¨ Ø§Ø±Ùĩ
ĠÙĪØ§Ú¯ ÙĨØ±
ĠÙĪÚ©ÙĦ Ø§ÛĮ
Ø§ÙĨ ÙĤÙĦØ§Ø¨
ÙĪØ± Ø§Øª
ĠÙħÙĨ Ø§Ø¨Ø¹ÛĮ
ĠØªÙĪ Ø£Ùħ
ÙģØ± Ø§Ú¯
ĠÙħØ¹ Ø²
he im
ĠÙģØ±ÛĮ Ø²Ø±
ĠØ¹Ø±ÙĪ Ø³Ú©ÛĮ
ĠØ³Ø§ÛĮ ÙħÙĪÙĨ
ĠÙ¾Ø³Ø±Ø§ÙĨ Ø´
ĠØ´ÙĦÙĪ Øº
ĠÙĨÛĮÙĪÚ© Ø§Ø³ÙĦ
ĠÚ©ÙĨØ³Ø±ÙĪ Ø§ØªÙĪØ§Ø±
i la
ĠØ¯ Ø§ÙħÛĮ
ĠÙĤ Ø¶Ø§ÛĮ
ĠÙħØª Ø¬Ø§
ĠØ±ÙĪØ´ ÙĨÚ¯Ø±ÛĮ
ĠÙĨÚ¯Ùĩ Ø¨Ø§ÙĨÛĮ
ØªØ³ Ú©ÛĮ
ĠØªÙģÙĨÚ¯ Ø¯Ø§Ø±Ø§ÙĨ
ĠØ¹Ø¨Ø¯Ø§ÙĦØ±ØŃ ÙħØ§ÙĨ
Ø·Ø¨ ÙĤÙĩ
ĠØ®ÙĪÛĮØ´Ø§ÙĪÙĨØ¯ Ø§ÙĨ
O L
ĠØ¨ ÙĪØ±ÛĮØ³
ĠÙĪ Ø¯Ø±
ĠÙ¾ ÙĦÙĪ
ĠØ¢ÙĨ ÚĺÛĮ
ĠØ¢Ùħ Ø¨Ø±
ĠØº Ø³ÙĦ
ĠØ¯Ùĩ Ø§ÙĨÛĮ
ĠØ¨ÛĮ Ø¶Ø§
ĠØ´Ùħ Ø´
ĠÚĺ ÛĮØ²
ĠÙ¾ÛĮ Ø³ØªÙĪÙĨ
ĠÛ±Û· Û´
ÙĪØ§ Úĺ
ĠØ¯Ø±Ø¢ ÛĮØ¯
ĠÙĪØ± ÙĨØ±
ĠØ¢ÙĤ Ø§Ø®Ø§ÙĨ
ĠØ¨ÙĪØ± Ø³ÛĮÙĩ
4 8
ĠÚ© ÛĮÙħÛĮ
ĠÚ© Ø§ÙĦØ¯
ĠØ³ ÙĪØ±Ø§ÙĨ
ĠØ´ Ø§Ø³ÛĮ
ÙĪÙĨ ÙĪØ³
ĠØ¢ÙĦ Ø§ÙĨ
ĠØ¨ÛĮ ÙĪØ´ÛĮÙħÛĮ
ĠÙ¾Ø± Ø¢Ø¨
ĠÛ±Ûµ Û²
ĠØ¹Ø¨Ø¯Ø§ÙĦ ØŃÙħÛĮØ¯
ĠØ®ÙĪØ´ ÛĮ
ĠÙ¾ÛĮÙħ Ø§ÛĮØ´
ĠØ¨ÛĮÙħØ§Ø± Ø§ÙĨÛĮ
ĠÛ±Û¸Û· Û²
ĠÚ¯Ø±ÛĮÙĨ ÙĦÙĨØ¯
ĠØ¹Ø¨Ø¯ Ø§ÙĦÙħÙĦÚ©
Ø±ÙĪØª Ø¦ÛĮÙĨ
Ø§ÙĨ ØªÙĤ
ĠØ± Ø§ÙĦÛĮ
ĠØ¢ ØªØ±
Ø³Øª ÛĮØ²ÛĮ
ØŃ Ø§ÙĦÛĮ
ĠØ² Ø±Ø§Ùģ
ĠÙĩÙħ Ú¯Ø±Ø§ÛĮÛĮ
ĠÙģØ± ÙĨÚ¯
ĠØ¯ÛĮ ÙĦÛĮ
ĠØ§ÙĦ Ø§
ĠÙħØ´ Ø§Ø±Ú©
ĠÚ©ÙĦ Ø§Ø¯
ĠØ§ÙĨØ¯ ÙĪ
ÙĪÙĤ ÙĪØ¹
ÙĪØ³Øª Ø§
ĠB l
ol k
ĠÙ¾ÙĪÙĦ Ú©
Ġd es
ĠÙħÙĩÙħØ§ÙĨ Ø§ÙĨ
ĠÙģØ§ÛĮ Ø¯Ùĩ
ĠØ§Ø±Ø²Ø´Ùħ ÙĨØ¯ÛĮ
ĠØ´Ø§ÙĦ ÙĪØ¯Ùĩ
ĠØ§Ø³ØªØ¹Ø¯ Ø§Ø¯ÙĩØ§ÛĮ
ÙĪÚ¯ÙĦÙĪØ¨ ÛĮÙĨ
Ġ he
ĠÙĪ Ø±Ø§ÛĮ
ĠÙħØ¯ ÛĮØ§
ĠÙĩÛĮ Ø£Øª
ĠÙ¾ÙĨ ÙĦ
Ø´Ùĩ ÛĮØ¯
ut e
ĠJ an
ĠØ§Ø´Øª ÙĪØª
ĠÙĨÚ¯Ø§Ø± Ú¯Ø±ÛĮ
ĠØ¢ØªÙĨ Ø§
ĠÚ©ÙĨÛĮ Ø³Ùĩ
ĠØ·ÙĦØ³ Ùħ
ĠÙħØ³ØªÙĤ ÛĮÙħÛĮ
ÙĪ Ø§Ø´
ĠÙĪ ÙĨØª
ĠÚ© Ø¨Ø§Ø¨
ĠØ± ÙģÛĮÙĤ
Ø¬ Ø§Ø¨
ĠØ¢ÙĨ Ø²
ÛĮÙħ ÙĪØ±
ĠØ¯ÛĮ ÙĪØ§ÙĨÛĮ
ĠØ¯Ø§Ø¯ Ø±Ø³ÛĮ
Ø¯Ø§ÙĨ Ø³ØªÙĩ
ĠØŃØ³ Ø§Ø¯Øª
ĠÙħØŃÙħØ¯ Ø¬ÙĪØ§Ø¯
ĠÙħØ« Ø§ÙĨÙĩ
Ø§Ø³Ø± Ø§Ø¦ÛĮÙĦ
ĠÙĪØ§ÙĦ Ø§
ĠØ¯Ø¨ÛĮØ± Ø³ØªØ§ÙĨÛĮ
ĠÙĨÙĤØ§Ø· ÛĮ
ĠØ¢ÙĨØ¯ Ø±Ø³
ĠØ§ÙĦÙĤ Ø§ÛĮÛĮ
ĠÚ¯ÙĪÚ¯ ÙĪØ±ÛĮÙĪ
ĠØ¢ÙħÛĮ Ú¯Ø§
ĠØ±ÙĨÚ¯Ø§Ø± ÙĨÚ¯
i us
Ä į
ĠÙĪ Ø®ÛĮÙħ
ĠØ¢ Ø±Ø¨
ĠØ¬ Ø§ÙĪÛĮ
ĠØ¨Ø± Ø§Øª
ĠØ® ÙħÛĮØ¯Ùĩ
ĠÚ¯ Ø§Ø±ÛĮ
ĠØ³ÛĮ Ø§ÙħÚ©
ÙħÛĮÙĨ ÛĮØ³Ùħ
ĠA s
ĠÙģÙĦ ÙĪØª
ĠÙĤØ¯ Ø§ÙħÛĮ
ĠÙħÙĪØªÙĪØ± ÙĩØ§
ĠØ§ÙĦÙĤ Ø§
ĠÚ©Ø§Ø±Ø¯ ÛĮÙĨØ§ÙĦ
ĠØ§ÙģØ´ Ø§
ĠÚ©Ø±ÛĮØ³ØªÛĮ Ø§ÙĨ
ĠÚ© ÚĨ
ÙĪØ± Ø§ÛĮ
ĠØ§ÛĮ ÚĨ
ĠÙĩ Ú©Ø±
ĠØ¹ Ø¬
ĠØ² Ø§ÛĮØ¯
Ø§Ø±ÛĮ ÙĪÙħ
ĠØªÙĪ Ø§ÙģÙĤÛĮ
ĠØªØ± Ø´ÛĮ
ĠÙĨÛĮ Ø§Ø¨Øª
ĠØ³ÙĦ Ø³ÛĮÙĪØ³
Ú©Ø§Ø± Ø§ÙĨÙĩ
Ù¾Ø± ÙĪÙħ
ĠØªÙģ Ø³ÛĮØ±ÛĮ
Ú©Ø´ Ø§ÙĨÛĮ
ĠØ®Ø§ÙĦ ÙĤÛĮ
ĠØ´Ø±ÛĮ ÙģÛĮ
if ic
ĠØ§Ú©ØªØ´Ø§Ùģ Ø§Øª
ĠØŃØ´Ùħ Øª
ĠÙħ Ø§Ø¯ÙĦ
Ø´ Ø§ÛĮØ¯
ĠÙģ Ø³Ø§
Ø³ÛĮ Ø¨
ĠÙģØ± ÙħØ§ÙĨÛĮ
ĠÚ©Ø§Ø± Ø´Ø§ÙĨ
ĠÂ« ...
ĠØº ÙĪØ±
ØªÙħ ÙĨØ¯Ø§ÙĨ
ĠØ¶ ÙĪ
ĠØ®ÙĪØ§Ùĩ Ø±Ø²Ø§Ø¯Ùĩ
Ø¨Ø§Ø± Ø²
ĠØ³ÙĪÙħ Ø±ÛĮ
ĠÛ±Û¶ Û²
ÙĪØ±ÛĮØª Ùħ
ĠØ§ÙħÛĮØ± Ø¢Ø¨Ø§Ø¯
Ø¸Ùĩ ÙĪØ±
ĠØ¹Ú© Ø³ÛĮ
ĠÙĢ ÙĢ
ĠØºÛĮ Ø§Ø¨
our n
ĠÙ¾ÙĩÙĨ Ø§ÙĪØ±
ĠØ¢ÙĨØ§Øª ÙĪÙħÛĮ
ĠÛĮÙĪÚ© ÙĪÙĩØ§ÙħØ§
ĠØ§ÙĦØ²Ø§Ùħ Ø§Øª
ĠØŃØ³Ø§Ø¨Ø± Ø³ÛĮ
P C
Ø³ Ø·ØŃ
ØŃ Ø§ÙģØ¸
ĠÙħÙĨ Ø¨Ø±
ÙĪØ¨ ÛĮÙĨ
Ø²Ø§Ø± ÙĩØ§
Ø§Ù¾ Ø³
ĠÙ¾Ø§ÛĮ ÙĨ
ĠØ¯Ø§Ø¯ Ø³ØªØ§ÙĨÛĮ
ĠØ§Ø¬ Ø§ÙĤ
ÙħØª Ø¹
Ø±ÙĪØ¯ Ø´Øª
ĠØ³ÙĪ ÙģÛĮ
ÙģØ§ ÙĪÛĮ
Ø´ÛĮØ± ÛĮÙĨ
ĠØ®Ø² ÙĨØ¯Ùĩ
ĠÙĦØ§Øª ÛĮÙĨÛĮ
ĠÙ¾Ø®Øª ÙĪÙĨ
ĠØ¨ÛĮÙĨØ¯ Ø§Ø²Ø¯
ĠÚ©ÙĦØ§ÛĮÙĨ Øª
ĠÙ¾Ø§Ø¨Ø± Ø¬Ø§
m in
Ø¯ Ú¯ÛĮ
ĠØ³ Ø§Ø±Ú©
ĠØ® ÛĮÙħÙĩ
ĠØ§ÛĮÙĨ ÚĨÛĮ
ØŃ ØªÛĮ
Ø§ÙĪ Ø§ÛĮ
ĠØ³Ù¾ Ø§Ø³
Ú¯Ø±ÛĮ Ø¯
ĠØ§Ø³Ù¾ ÛĮ
ĠÛ±Ûµ Û´
ĠØ¢Ø° ÙĪÙĤÙĩ
ĠÙħØ§ÙĦ Ú©ÛĮ
ĠØ¨ÙĦÙĨØ¯ Ù¾Ø§ÛĮÙĩ
ĠÙħØ±Ø² ÙĩØ§
ĠØ§ÙħØ± Ø§Ø±
ĠÚ¯Ùħ Ø§Ø´ØªÙĩ
ĠØªØ§ÛĮÙĦ Ø±
ĠAm er
ĠØ¨ ÙĬ
ĠØ¯Ø± Ø§
ĠÙĨ Ø¨Ø§Øª
Ø§ÙĦ ÙĪØ³
ØªØ± ÛĮÚ©
Ú¯Ø§Ùĩ Ø±ØªØ²
ĠÙħØ¹ Ø·Ø±
Ø§ÙĦÛĮ Ø³
Ú©ÙĦ Ø§ÙĨ
ĠØªÙħ Ø¨Ø±
Ø§Ø´Øª Ø§ÛĮÙĨ
ĠØªØ¦ ÙĪØ¯
ĠØ¯Ø³ØªÙĪØ± Ø§Øª
ĠÙħÛĮØ±Ø² Ø§ÛĮ
ĠÙĨÙĩØ§ Ø¯ÙĩØ§
Ġf light
Ø¢ÙħÙĪ Ø²ÛĮ
ĠØ§Ø¦ØªÙĦ Ø§ÙģÛĮ
ĠØªØ¯Ø§Ø±Ú© Ø§Øª
ĠØ³ØªÛĮ Ø²
R C
ĠÙħ Ø§ÙģÛĮ
ĠØ§Ø³Øª ÛĮÚ©
ĠØ¨Ø± ÙĪÙħÙĨØ¯
ĠØ¨ÙĦ Ø§Øº
ĠÛ±Û¸Û ³Û°
ĠØ¬ÙĪ Ø§Ø¯ÛĮ
ĠØ§ÙĪØ± Ø³Øª
ĠÛ²Û² Û·
il d
Ø³Ø§Ø®Øª ÙĨØ¯
ĠØ¬Ø§Ø³ Ú©
Ø¬ÙĨÚ¯ ÙĦ
ĠÚĨÚ¯ Ø§ÙĦ
ÙħØµ Ø·ÙģÛĮ
ØªÙĪØ³ Ø·
ĠØ±ÙĪØ´ÙĨÙģ Ú©Ø±
N T
× ķ
Ø¯ ÙĪØ²
ĠÙĪ ÛĮÙĨÛĮ
ĠÚ© ÛĮØªÛĮ
ÙĤ Ø¹
ĠÙĨ Ø¯Ø§Ø±Ùħ
Ø® Ø§Ø·
ØŃ Ø³ÙĪØ³
ÛĮØ´ Ø§
ĠÙģØ± Ø§Ø¨ÙĨÙģØ´
Ø¢ ÙĨÙĩ
Ø¢ Ø²Ùħ
ĠÛ±Û³Û ¹
Ø§Ø· Ø¨ÛĮ
Ø±Ø§ ÙĩØ§ÛĮ
ĠØ§Ú© Ø¯ÛĮ
ĠØ¬ÙĩØ§ÙĨ Ú¯ÛĮØ±ÛĮ
Ø³ÙĪ Ø§ÙĦÛĮ
ĠØ¨ÛĮØ± Ø§ÙĨ
ĠÚ¯Ø±Ùħ Ø³Ø§Ø±
Ú©Ø±ÛĮ Ù¾Øª
ĠØ¨Ø§Ø³ ÛĮÙĦ
ĠØ±ÙĪÛĮÚ© Ø±Ø¯ÛĮ
Ø®Ø¯ ÙħØª
ĠÙħØ§ÙĨÛĮ ØªÙĪØ±
Ú©ÙħÛĮ ØªÙĩ
ĠØ§Ø³ØªÙĨØª Ø§Ø¬
P D
ÙĨ Ø«
Ú© Ø§Ø®
ĠØ´ ØºØ§ÙĦ
Ù¾ ÙĪÙĦÛĮ
Ø§Ø² ÛĮØ§
ÙĪÛĮ ÙĦÙĩ
ĠØ³Ø± Ø®Ùĩ
Ø¨Ø§ÙĦ ÙĪ
ĠÛ²Û°Û ¹
ÙĪÙģ Ø§Øª
ĠÛ±Û¶ Û¶
ĠB ur
el le
ĠN a
ĠN et
ĠÚ¯ÛĮÙĦ ÙħÙĪØ±
ĠØ®ÙĦÛĮ ÙĦÛĮ
ĠÙħØ±Ø² Ø¨Ø§ÙĨ
ĠÚ©ÙĦØ§ÙĨ ØªØ±
ĠÙĨØ¹ ÙħØ§ÙĨ
ĠØ§Ø¨ÙĪ Ø¸Ø¨ÛĮ
ĠØ§Ø³ØªØ« ÙĨØ§
ĠÙĩØ§Ù¾ Ú©ÛĮÙĨØ²
ĠÚ© Ø§ÙģØ±
ĠÙĩ Ø§ÙħÙĪÙĨ
ĠØ§Ø³ Ø¹Ø¯
ĠØŃÚ© ÙĪÙħ
ÙĨØ§ÛĮ Ø¯Ø±
ĠØ³ÛĮØ§Ùĩ ÚĨØ§ÙĦÙĩ
ĠÙĨØ§Ø¨ ÛĮÙĨ
ĠÙħØ¯Ø±Ú© ÛĮ
ĠØ´ÙĪØ´ ØªØ±ÛĮ
ĠÚ¯Ø±ÛĮØ®Øª ÙĨØ¯
Ú¯Ø°Ø§Ø´Øª ÙĨØ¯
ĠØ³ÙĪÙģ ÛĮØ§
ĠØªØ´Ø±ÛĮÙģ Ø§ØªÛĮ
ĠÛĮÙĪØ³ ÙģÛĮ
ĠØ§Ù¾ÙĦÛĮÚ© ÛĮØ´ÙĨ
ĠØ± Ù¾Ø±
Ù¾ Ø³ÙĪÙĨ
ĠÙĤ ÛĮØ³
ØªØ± Ø´
ĠØ³ÛĮ ÙĦÛĮØ³
ÙĪØ±Øª ÙĪÙĨ
ĠÙ¾Ø± Ø®Ø§Ø´
Ø¨Ø±ÛĮ Ùħ
ØªÙĤ Ø§Ø±ÙĨ
ĠM or
ÙħØ± ØŃÙĦÙĩ
ĠÛ±Û´ Û¸
ĠÚ©Ø±ÛĮ Ú¯
as p
ĠØ¬ÙĦÙĪ ØªØ±
ĠÙħÙĤØ§ ÙĪÙħØªÛĮ
ĠØ³ÙĪØ± Ø¨ÙĨ
ĠØªØ§ÛĮ Ø±Ø§
ĠØ³ÙĨØ¬ Ø±
ĠØ§Ø¯ÛĮ Ø³ÙĪÙĨ
ĠÙĤÙĦÙħØ±ÙĪ ÙĩØ§ÛĮ
ĠÛ±Û¸Û´ Û°
ĠØ¬ÙĪÙĦÛĮ Ø§
ĠØµØ¯ÛĮ ÙĤ
ĠØŃØ¨ ÙĪØ¨Ø§Øª
ĠØ¹Ø¨ÛĮØ¯ Ø§ÙĦÙĦÙĩ
ĠØ³ ÙĪÙĦÛĮ
ĠØ¹ Ø¬Ø§ÛĮØ¨
Ø§Ø² Ø§Ø¯Ùĩ
ĠØŃ Øµ
ĠÚĨ ÛĮØ³
ĠÙħÙĨ Ú©Ø±
ÙĨÚ¯ ÙĪ
ĠØ§Ø³ ÛĮØ¯ÙĩØ§
ĠØ§Ø± Ø§ÛĮÙĩ
Ø¨ÛĮ Ø§Øª
ÙĨÛĮ Ø§ÛĮ
ĠØ³ÛĮ Ø§ØªÙĦ
ĠÚ¯Ø± Ø§ÙģÛĮ
Ø§Øº ÙĦØ¨
as k
ÙĪÙĪ Ø§Øª
ĠØ¬Ø¯ Ø§ÛĮ
ĠÛ²Û¶ Ûµ
ĠØªÙĪÙħ Ø§ÙĨÛĮ
Ø¢ÙĦ ÙĨ
ĠÚ©ÙĪØ¯Ú© Ø§ÙĨÛĮ
ĠÙĦØ² ÙĨØ±
Ø´ÙĨØ§Ø®Øª ÙĨØ¯
ĠÙħØ¹Ø§ÛĮ Ø¨
Ø±Ø§Ø³Øª Ø§
ĠÙħÙģÙĤ ÙĪØ¯
Ùħ Ø§Ø´ÛĮÙĨ
ĠÙħ Ø§ÚĨ
Ø§ÙĨ Ø±ÚĺÛĮ
ĠÙĪ Ø§ÙĨØ¯Ø±
ÙĦÛĮ ØªÛĮ
Ø§Ø´ Ø¯Ùĩ
in k
ĠÛ±Ûµ Û·
ĠÙģØ±ÙĪ Ø³Ø±Ø®
ĠP ort
us es
ĠÙĨØ§Ø¨ Ø¬Ø§ÛĮÛĮ
Ġ3 166
ĠÙħØ´Ø±ÙĪ Ø¨
ĠØ±ÛĮØ³ ÙħØ§ÙĨ
ĠÙĪØ§Úĺ Ú¯ÙĪÙĨ
ĠÙħÙħÙĨÙĪ Ø¹Ùĩ
ĠØ¯ÙĦØ§ ÙĪØ±
ØŃØ´ Ø±Ùĩ
ĠÙħÚ©Ø§ÙĦ ÙħÙĩ
P A
Ø± ÙĪØ±
ĠÚ© Ø«Ø±Øª
ÙĤ Ø¨ÙĦ
ĠØ¨Ø± Ø§ÙĨÚ¯ÛĮØ²
Ø§Ùĩ ÛĮÙħÛĮ
Ø§ÙĨÛĮ Ø³Øª
ĠÚ©Ø± Ø§Øª
ĠØªØ± Ø§Ú©
ĠØ¨Ø¹ ÛĮØ¯
ĠÙ¾Ø§Ø¯ ØªÙĨ
ĠÙĨÙģ ÙĪ
ĠÛ±Û³ Û°Û³
ion s
Ø§ÙģØª Ø§Ø¯
ĠØ´Ø§ÙĩØ¯ Ø®Øª
ĠØ¯Ø§Ø¦ ÙħØ§
ĠÙĤØ¶Ø§ÛĮÛĮ Ùĩ
ĠÚ©Ø±Ø§ÛĮ Ø³ÙĦØ±
ĠØ§Ø´ØªÙĪØª Ú¯Ø§Ø±Øª
l og
Ø± ÙĨÚ¯ÛĮ
Ø¯ Ø¨
ĠÙĪ Ø¹
ĠØ³Ø± ÙĪØ§ÙĨ
ĠÙħØ¬ ÙĩÙĪÙĦ
ĠØ§Ø¨ ÙĪØŃ
ĠØ±Ø§Ùĩ Ú©Ø§Ø±
Ø§ÛĮØ± ÙĨ
ĠØ§Ø±Øª Ú©Ø§Ø¨
ĠÙĨÛĮÙħ Ú©Øª
ĠÙħØ³ÙĦ ÙħÛĮÙĨ
ĠÛ²Û´ Ûµ
Ø§ØªÙĪØ± Ùĩ
ĠÛ±Û¸Û¶ Û¶
ĠØ§ÙħÙĦ Ø´
ĠØ¨ Ø³ÙĪÛĮ
ĠØ´ ÙĦÛĮ
ĠØ´ ÙģÙĤ
ĠØ´ Ø§ØºÙĦ
ĠØ§ÛĮ Ø§ÙĨ
ĠÙĩ Ø§ÙĨÙĪ
ĠØ¯ÛĮ Ø§ÙĦÙĪÚ¯
Ø³Ø¨ Ú©
ĠØªÙħØ§Ùħ ÛĮØª
ĠØ¨ÙĨÛĮ Ø§ÙħÛĮÙĨ
ĠÚ©Ø§ÙĦ Ø±ÛĮ
ĠØ®ÙĦÙĤ Øª
ĠÚ¯ÙĪÛĮ ÙĨØ¯Ú¯ÛĮ
ĠÙģØ´ ÙĨÚ¯
Ø§Ø¬ØªÙħ Ø§Ø¹ÛĮ
Ù¾ Ø®Ø´
ĠØ§Ø³Øª ÙĪÚ©
ĠØŃ Ø¬Ø±
Ø§Ø´ Ú©
[...]
