{"<s>":0,"<pad>":1,"</s>":2,"<unk>":3,"<mask>":4,"!":5,"\"":6,"#":7,"$":8,"%":9,"&":10,"'":11,"(":12,")":13,"*":14,"+":15,",":16,"-":17,".":18,"/":19,"0":20,"1":21,"2":22,"3":23,"4":24,"5":25,"6":26,"7":27,"8":28,"9":29,":":30,";":31,"<":32,"=":33,">":34,"?":35,"@":36,"A":37,"B":38,"C":39,"D":40,"E":41,"F":42,"G":43,"H":44,"I":45,"J":46,"K":47,"L":48,"M":49,"N":50,"O":51,"P":52,"Q":53,"R":54,"S":55,"T":56,"U":57,"V":58,"W":59,"X":60,"Y":61,"Z":62,"[":63,"\\":64,"]":65,"^":66,"_":67,"`":68,"a":69,"b":70,"c":71,"d":72,"e":73,"f":74,"g":75,"h":76,"i":77,"j":78,"k":79,"l":80,"m":81,"n":82,"o":83,"p":84,"q":85,"r":86,"s":87,"t":88,"u":89,"v":90,"w":91,"x":92,"y":93,"z":94,"{":95,"|":96,"}":97,"~":98,"¡":99,"¢":100,"£":101,"¤":102,"¥":103,"¦":104,"§":105,"¨":106,"©":107,"ª":108,"«":109,"¬":110,"®":111,"¯":112,"°":113,"±":114,"²":115,"³":116,"´":117,"µ":118,"¶":119,"·":120,"¸":121,"¹":122,"º":123,"»":124,"¼":125,"½":126,"¾":127,"¿":128,"À":129,"Á":130,"Â":131,"Ã":132,"Ä":133,"Å":134,"Æ":135,"Ç":136,"È":137,"É":138,"Ê":139,"Ë":140,"Ì":141,"Í":142,"Î":143,"Ï":144,"Ð":145,"Ñ":146,"Ò":147,"Ó":148,"Ô":149,"Õ":150,"Ö":151,"×":152,"Ø":153,"Ù":154,"Ú":155,"Û":156,"Ü":157,"Ý":158,"Þ":159,"ß":160,"à":161,"á":162,"â":163,"ã":164,"ä":165,"å":166,"æ":167,"ç":168,"è":169,"é":170,"ê":171,"ë":172,"ì":173,"í":174,"î":175,"ï":176,"ð":177,"ñ":178,"ò":179,"ó":180,"ô":181,"õ":182,"ö":183,"÷":184,"ø":185,"ù":186,"ú":187,"û":188,"ü":189,"ý":190,"þ":191,"ÿ":192,"Ā":193,"ā":194,"Ă":195,"ă":196,"Ą":197,"ą":198,"Ć":199,"ć":200,"Ĉ":201,"ĉ":202,"Ċ":203,"ċ":204,"Č":205,"č":206,"Ď":207,"ď":208,"Đ":209,"đ":210,"Ē":211,"ē":212,"Ĕ":213,"ĕ":214,"Ė":215,"ė":216,"Ę":217,"ę":218,"Ě":219,"ě":220,"Ĝ":221,"ĝ":222,"Ğ":223,"ğ":224,"Ġ":225,"ġ":226,"Ģ":227,"ģ":228,"Ĥ":229,"ĥ":230,"Ħ":231,"ħ":232,"Ĩ":233,"ĩ":234,"Ī":235,"ī":236,"Ĭ":237,"ĭ":238,"Į":239,"į":240,"İ":241,"ı":242,"Ĳ":243,"ĳ":244,"Ĵ":245,"ĵ":246,"Ķ":247,"ķ":248,"ĸ":249,"Ĺ":250,"ĺ":251,"Ļ":252,"ļ":253,"Ľ":254,"ľ":255,"Ŀ":256,"ŀ":257,"Ł":258,"ł":259,"Ń":260,"Ø§":261,"ĠØ":262,"ÛĮ":263,"Ø±":264,"ÙĨ":265,"ÙĪ":266,"Ùĩ":267,"Ùħ":268,"Ø¯":269,"Øª":270,"Ø§Ø":271,"ÙĦ":272,"Ú©":273,"ĠØ¨":274,"ĠÙħ":275,"Ø§ÙĨ":276,"ĠØ¯":277,"Ø§ÛĮ":278,"Ø³":279,"âĢ":280,"âĢĮ":281,"ĠØ§Ø":282,"ĠÙĪ":283,"Ø§Ø±":284,"ĠÚ©":285,"Ø´":286,"Ùģ":287,"Ú¯":288,"ĠØ¯Ø±":289,"Ø¨":290,"ÙĤ":291,"ĠØ³":292,"ĠØ´":293,"ĠØª":294,"ĠÙĨ":295,"ĠØ±":296,"Ø²":297,"Ø§ÙĦ":298,"³Øª":299,"ØĮ":300,"Ù¾":301,"Ø¯Ùĩ":302,"ĠØ¨Ùĩ":303,"Ø¹":304,"ĠØ¢":305,"ĠØ§Ø²":306,"ÙĨØ¯":307,"Ø§Ùħ":308,"ÙĪØ±":309,"ĠÛ":310,"ĠØ§ÛĮ":311,"ĠÙħÛĮ":312,"Ø³Øª":313,"ÙĪØ¯":314,"ÛĮÙĨ":315,"ĠØ§Ø³Øª":316,"ĠÙĩ":317,"ĠÙ¾":318,"Ø¬":319,"ĠÚ©Ùĩ":320,"ÛĮÚ©":321,"Ø®":322,"Ø§Ø¯":323,"ĠØ¬":324,"ĠÙģ":325,"ĠØ¨Ø±":326,"ÙĩØ§ÛĮ":327,"ĠØ§":328,"ĠØ®":329,"ÙĦÛĮ":330,"±Û":331,"ĠØ§ÛĮÙĨ":332,"ØŃ":333,"Ø§Ùĩ":334,"Ø±Ø¯":335,"ĠÚ¯":336,"ÙĪÙĨ":337,"ÚĨ":338,"Ø±ÛĮ":339,"Ø§Øª":340,"ĠØ¹":341,"Ø·":342,"Ø§Ø¨":343,"Ø§Ø²":344,"ĠØ±Ø§":345,"ĠÙĤ":346,"ÛĮØ±":347,"ĠØ²":348,"ĠÛ±Û":349,"ÙĪÛĮ":350,"ĠÛĮÚ©":351,"Ġ(":352,"ĠØŃ":353,"Û°":354,"ĠØ¨Ø§":355,"Ø§Ø³Øª":356,"Ø³ÛĮ":357,"Ø§Ø´":358,"ĠØ¢ÙĨ":359,"Ø§Ø³":360,"Øµ":361,"ØªØ±":362,"ÙĪÙĦ":363,"Ø§ÙĨÛĮ":364,"ÙĩØ§":365,"Ø§Ø±ÛĮ":366,"ĠØ³Ø§ÙĦ":367,"ÛĮÙĦ":368,"ØªÙĩ":369,"ÙĪØ§ÙĨ":370,"ÛĮØª":371,"Ø±Ø§ÙĨ":372,"ĠØ´Ø¯Ùĩ":373,"ÙĪÙħ":374,"ÛĮØ§":375,"ĠÙĩÙħ":376,"ĠØ§ÙĨ":377,"ÙĶ":378,"Ø§Ø±Ø¯":379,"ÛĮØ¯":380,"ÙĩØ±":381,"ĠØ´Ø¯":382,"ĠÚĨ":383,"Ø±ÙĪ":384,"ĠØ±ÙĪ":385,"ÛĮÙħ":386,"ĠØ¨ÙĪØ¯":387,"¹Û":388,"Ø³ØªØ§ÙĨ":389,"ĠØ§ÙĪ":390,"ØªÛĮ":391,"Ø§Ø¯Ùĩ":392,"Ø§ÛĮÛĮ":393,"ĠÛ²":394,"ÙħØ§ÙĨ":395,"Ø§ÙĤ":396,"ÙģØª":397,"Ø±Ú©":398,"ĠÙħÙĨ":399,"Úĺ":400,"ĠĊ":401,"ĠØªÙĪ":402,"ÙĨÚ¯":403,"ĠØ¨Ø±Ø§ÛĮ":404,"ĠÚ©Ø±Ø¯":405,"³Û":406,"ĠØ·":407,"Ø¶":408,"Ø§Ø®":409,"ĠÙĦ":410,"ĠØµ":411,"Ú¯Ø§Ùĩ":412,"ÙģØ±":413,"ĠØ´ÙĩØ±":414,"ÛĮØ´":415,"Øº":416,"Ø°":417,"ĠÙħÙĪ":418,"Ú¯Ø±":419,"Ø±Ø¨":420,"ÛĮØ²":421,"ĠØ¢Ùħ":422,"ĠØ§Ùħ":423,"ĠÙģØ±":424,"ĠØ¯Ø§Ø±Ø¯":425,"Ú¯ÛĮ":426,"Ø§Ú©":427,"ĠÚ©Ø´":428,"ĠÙħØŃ":429,"ĠØ¨Ø§Ø²":430,"ĠØ§Ø³":431,"Ø¢":432,"ĠØ¬Ùħ":433,"ĠØ®ÙĪØ¯":434,"ĠÛĮØ§":435,"ĠÙħØª":436,"ÙħÛĮ":437,"Ø«":438,"ĠÙħØ³":439,"ĠØ³Ø±":440,"Ø¸":441,"ĠÚ©Ø§Ø±":442,"Ø¦":443,"Û°Û":444,"Ø§Ø¯ÛĮ":445,"ĠÙĤØ±":446,"ÙĦÙĩ":447,"ĠÛ±Û¹Û":448,"Ø§ØŃ":449,"ĠØ§Ø±":450,"ĠØ§ÛĮØ±Ø§ÙĨ":451,"Ø§Ø±Ùĩ":452,"Ø§ÙĨØ¯":453,"Ø´ÙĪØ¯":454,"ĠÙħØ¹":455,"Ø¨ÛĮ":456,"ĠÙĨØ§Ùħ":457,"ÙĨÛĮ":458,"Ø§Ø¹":459,"ÙĪØª":460,"ĠØ¯ÛĮ":461,"Ø§ÙĤØ¹":462,"¸Û":463,"Ø²ÛĮ":464,"ĠÙĪØ§ÙĤØ¹":465,"ĠØ¯ÙĪ":466,"ĠÂ":467,"Ø§ÙĨÙĩ":468,"ĠÙĪÛĮ":469,"ĠØ§ÙĦ":470,"ĠÛĮ":471,"Ø§Ùģ":472,"Ø¨Ø±":473,"Â»":474,"ĠØªØ§":475,"Ø¨Ùĩ":476,"ĠÂ«":477,"ĠØ³ÛĮ":478,"Ú©ÙĨ":479,"Ø¯Ø±":480,"ÙĤÛĮ":481,"ĠÚ¯Ø±":482,"ÙĪØ±ÛĮ":483,"ÙĪØ±Ø¯":484,"ÙĪØ´":485,"Ø§ÙĦÛĮ":486,"Ø¯ÛĮ":487,"ÙĨØ¯Ùĩ":488,"ĠÚ©Ø±":489,"ĠÙĤØ±Ø§Ø±":490,"Ø¹ÛĮØª":491,"Ø§Ø´Ø¯":492,"ÙĪØ¯Ùĩ":493,"ÙħÛĮÙĨ":494,"Ø®Ø´":495,"ĠØ¯Ø§Ø´":496,"ĠÛ±Û³Û":497,"ĠØº":498,"ÙĪØ²":499,"ĠÙĨÙģØ±":500,"ĠØ±ÙĪØ³Øª":501,"ĠØ¯Ùĩ":502,"ĠÙĨÛĮØ²":503,"ÙĤÙĩ":504,"Ø¹Ùĩ":505,"ĠÙħØ¬":506,"ĠÙĨÙħ":507,"Ġ\"":508,"ĠÙ¾Ø³":509,"ÙĨÙĪØ§ÙĨ":510,"ĠØ¯Ø³Øª":511,"ĠÙħØ´":512,"ÙĪÙĨÛĮ":513,"Ø±ÛĮÚ©":514,"Ø§ÙħÙĩ":515,"ØªÙĪØ§ÙĨ":516,"Û²":517,"ĠÙħØ±":518,"ÙĪØ³":519,"ĠØ¬ÙħØ¹ÛĮØª":520,"ĠÙģÛĮÙĦ":521,"ÙģØªÙĩ":522,"ĠØ¯Ø§Ø±":523,"Ø´Ùħ":524,"ÙĪØ¨":525,"ĠÚ©ÙĨ":526,"Ø§Ø¬":527,"ÛĮÙĩ":528,"ÙĪÙĩ":529,"ĠØ¨ÙĪØ¯Ùĩ":530,"Ûµ":531,"ĠØ§Ø´":532,"ĠØ¨Ø®Ø´":533,"ĠÙħØ¯":534,"ĠØ¯ÙĪØ±":535,"Ø´Øª":536,"ĠØ¯Ø§ÙĨ":537,"Ùĭ":538,"ĠØ¢ÙħØ±ÛĮÚ©":539,"Ø§ÙĦØ§Øª":540,"ĠÙħÙĤ":541,"ĠÛĮÚ©ÛĮ":542,"Û±Û":543,"Ø²Ø§Ø±":544,"ØĽ":545,"ĠØ¨Ø§Ø²ÛĮ":546,"ĠØªÙĪØ³":547,"Ø´Ú©":548,"ĠÙĨÙĤ":549,"Ú©ÙĨØ¯":550,"ĠØ³Ø§Ø®":551,"ĠØ´ÙĩØ±Ø³ØªØ§ÙĨ":552,"ĠÚ©Ø´ÙĪØ±":553,"ÙĨÛĮÙĨ":554,"ĠÙħØ±Ú©":555,"ĠØ¹ÙĨÙĪØ§ÙĨ":556,"ÙħØ¯":557,"Ø§Ø·":558,"Ø¬Ùĩ":559,"ĠÙĩØ±":560,"ĠØ¢ÙĦ":561,"Ø¹Ø¯":562,"Ø§Ù¾":563,"Ú©Ùĩ":564,"Û´":565,"Ø¨Ø§ÙĦ":566,"ĠÙĨØ¸":567,"ØªØ±ÛĮÙĨ":568,"Ø®Øª":569,"ĠÙģÛĮÙĦÙħ":570,"ĠØ¨ÛĮ":571,"Ø±Ùģ":572,"Ø´ÙĨ":573,"ĠÙĨÙĪ":574,"Ø§ÙħÛĮ":575,"ĠØ´Ùħ":576,"ÙģØ§Ø¯Ùĩ":577,"ÙĪÙĨØ¯":578,"ĠØ¹ÙĦ":579,"ĠØ§Ùĩ":580,"ĠÚĺ":581,"ĠØ¹Ùħ":582,"ĠØ§Ø³ØªÙģØ§Ø¯Ùĩ":583,"ĠØ§Ø¹":584,"ØªØ´":585,"Ø§Ø¦":586,"ĠØ§Ø³ØªØ§ÙĨ":587,"ĠÙĩÙħÚĨ":588,"Û·":589,"Û¶":590,"Ø¨Øª":591,"Ø¨Ø§ÙĨ":592,"Ø§Ø³ÛĮ":593,"ĠÚ©Ø±Ø¯Ùĩ":594,"ÙĪØ±Øª":595,"ĠÙ¾Ø±":596,"Ø§Øµ":597,"ĠØ§Øµ":598,"Ø¬ÙĪØ¯":599,"ÙĪØ§Ø±":600,"ÙĨØ§ÙħÙĩ":601,"ĠÙ¾ÛĮØ´":602,"ĠØ¬Ùĩ":603,"Û°Û°":604,"ĠÙħÙĩ":605,"Ø²Ø±":606,"ĠÚ©Ùħ":607,"ÙĩØ§ÛĮÛĮ":608,"Ø§Ø±ÛĮØ®":609,"Ø£":610,"ĠØ§Ø¨":611,"ĠÙħÛĮÙĦ":612,"Ø§ÛĮØ´":613,"ĠØªØŃ":614,"ĠØªÙĪØ³Ø·":615,"ĠÙ¾Ø§ÛĮ":616,"ĠØ¢ÙħØ±ÛĮÚ©Ø§":617,"ĠØ¬ÙĨ":618,"ÙĪÚ©":619,"Ø§ÙħÙĦ":620,"ĠØ¨ÛĮÙĨ":621,"Ú¯Ø§ÙĨ":622,"ĠØ¯Ø§Ø¯":623,"ĠØ¨ÛĮØ´":624,"ĠØªØ§Ø±ÛĮØ®":625,"ĠØªØ±":626,"Ø±Ú©Øª":627,"ĠÛ²Û°Û":628,"ĠÙĩØ³Øª":629,"ĠÙħÙĨØ·":630,"ĠÙĨÛĮ":631,"ĠØ¯ÛĮÚ¯Ø±":632,"Ø§Ø²ÛĮ":633,"ĠØ²ÛĮØ±":634,"Ø¹ÛĮ":635,"ÙĲ":636,"Ú©ÙĦ":637,"Ø¨Ø§Ø´Ø¯":638,"Ø§Ø±Ú©":639,"Ø³Ùĩ":640,"ĠØ§ÙĪÙĦ":641,"Ú¯Ø±Ø¯":642,"ĠØ§Ø¯":643,"ĠÚ©ÙĦ":644,"ĠÙħÙĨØ·ÙĤÙĩ":645,"ĠØ§ÙĨÚ¯":646,"ÙħÙĨ":647,"ĠØ¯Ø§Ø´Øª":648,"ĠÛ²Û°Û±Û":649,"ĠØ¨ÙĨ":650,"ØªØ§Ø¨":651,"ĠÙĨØ´":652,"ÙĨØ¬":653,"ĠÙħØªØŃ":654,"ÙĪÙĨÙĩ":655,"ĠØ§Ø¬":656,"ĠØ¯Ø§ÙĨØ´":657,"ĠØ¨Ø³ÛĮ":658,"ĠØ§ÙĨØª":659,"ĠØ§Ùģ":660,"ĠÙģÙĪØª":661,"ĠÙħÙĦÛĮ":662,"Ø±Ùĩ":663,"ĠÙħØ±Ø¯":664,"ĠØ²ÛĮ":665,"ÙħØª":666,"ĠÙ¾ÛĮ":667,"ĠØ¨Ø²Ø±":668,"ĠÛ²Û°":669,"ÙħØ§ÙĨÛĮ":670,"ĠØªÙĨ":671,"ĠØ±ÙĪØ³ØªØ§":672,"ĠØ±ÙĪÛĮ":673,"ĠÙĩÙħÚĨÙĨÛĮÙĨ":674,"ĠØ§ÙħØ§":675,"Ø§Ø±Øª":676,"ĠØ¨Ø¯":677,"ĠØ«":678,"Ú¯Ø°":679,"Ù«":680,"ĠØ¨ÙĦ":681,"ĠØ®ÙĪ":682,"Ø§ÙĪ":683,"ĠØ´Ø±":684,"ĠØ§ÙĩÙĦ":685,"ĠÙħÛĮÙĦØ§Ø¯ÛĮ":686,"ĠØ´Ø±Ú©Øª":687,"Ù¬":688,"ĠÙĪØ¬ÙĪØ¯":689,"Ø´ÛĮ":690,"ÙĪØ¦":691,"ĠÙģÙĪØªØ¨Ø§ÙĦ":692,"Ø®Øµ":693,"ĠØ±ÙĪØ²":694,"ĠØ§Øª":695,"ĠÛ´":696,"ĠØµÙĪØ±Øª":697,"ĠÙħÙĪØ±Ø¯":698,"Ø´Ø¯":699,"ĠØ¢Ø¨":700,"ĠØ¯Ø§Ø´ØªÙĩ":701,"ÙħÙĪ":702,"ĠØ¨Ø§Ø´Ø¯":703,"Ø§Ø¨Ø±":704,"Û³":705,"ĠØ¯Ø±ÛĮØ§":706,"ĠÙĩÙĨ":707,"Ø§ÙĦØª":708,"ĠØ§ÛĮØ§ÙĦØ§Øª":709,"ĠÙħØªØŃØ¯Ùĩ":710,"ĠØ§ÙĨØ¬":711,"Ø§ÙĩÛĮ":712,"ĠÙĩØ³ØªÙĨØ¯":713,"Ø²Ùĩ":714,"ĠØ¨Ø§Ø±":715,"ĠÚ©ÛĮÙĦ":716,"ĠØªÙĩ":717,"Û¸":718,"ĠÚ¯Ø±ÙĪ":719,"ĠÚ©ØªØ§Ø¨":720,"ĠÚĨÙĩ":721,"ĠØ®Ø§ÙĨ":722,"ÙĪÙ¾":723,"ÛĮÙĨÛĮ":724,"Û±":725,"ĠØ³Ø§Ø®Øª":726,"ĠÛµ":727,"ĠØ³Ø·":728,"ĠÙħØ±Ø¨":729,"ĠØ¨Ø§Ø´":730,"ĠØªÙĦ":731,"ÙģÛĮ":732,"Ø§ÛĮØª":733,"Ø§ÛĮØ¯":734,"Ú©ÛĮ":735,"ĠØ³Ù¾":736,"ĠØªØ£":737,"Ø¯Ø§":738,"ĠØ§Ø´Ø§Ø±Ùĩ":739,"ĠØ¨Ø²Ø±Ú¯":740,"ĠØªÛĮÙħ":741,"ÙĨÙĩ":742,"ÙħÙĩ":743,"ĠØ³ÙĦ":744,"ĠÙħØªØ±":745,"ĠÚ¯Ø±ÙĪÙĩ":746,"ĠØ³Ø§Ø²":747,"ĠØ¬ÙĨÚ¯":748,"ĠØ§ØŃ":749,"ĠÙħØ±Ú©Ø²":750,"ĠÛ²Û°Û°Û":751,"ĠØ¹Ø¨":752,"ĠÙģØ¹":753,"ĠØ²Ø¨Ø§ÙĨ":754,"Ø²Ø¯":755,"ÙħÙĦ":756,"ĠØ³Ø·ØŃ":757,"ĠÚĨÙĨØ¯":758,"ĠØ³Ùĩ":759,"or":760,"ĠØ§Ø®":761,"ĠØ²ÙħØ§ÙĨ":762,"ĠØªØµ":763,"ĠØªÙħ":764,"Ø¯Ø§Ø±":765,"Ø§Ø¨Ø¹":766,"ÙĩÙĨÚ¯":767,"Û¹":768,"ĠØ²ÙħÛĮÙĨ":769,"ĠÙĨØ³":770,"ĠÙħØ§ÙĨ":771,"ÛĮØ³":772,"ĠÚ©ÛĮÙĦÙĪÙħ":773,"ÚĨÙĩ":774,"ĠØ¯ÙĪØ±Ùĩ":775,"ĠÚ©ÙĨØ¯":776,"Ø±Ùħ":777,"ĠØ¬Ø§ÛĮ":778,"Ú©Ø§ÙĨ":779,"ĠØ´ÙĨ":780,"ĠØ±Ø³ÛĮ":781,"Ø§ÛĮÙĨ":782,"Ø´ÙħØ§Ø±ÛĮ":783,"Ú©ÙĨÙĨØ¯":784,"ĠÙĩÙĪ":785,"ĠÙĦÛĮ":786,"ĠØ¨Ø§ÙĦ":787,"ĠØ¨Ø±Ø®":788,"Ú©Ø±Ø¯":789,"ĠØ§ÙĤ":790,"Ø¯Ø§ÙĨ":791,"Ø§Ø¨ÙĦ":792,"ĠØ¨Ø¹Ø¯":793,"Ø§ØªÛĮ":794,"ĠØ§ÙĨÚ¯ÙĦÛĮ":795,"Ø´ØªÙĩ":796,"ØªÙħ":797,"ĠØªØ±Ú©":798,"ĠÚ¯Ø±ÙģØª":799,"ĠÚ¯Ø±Ø¯":800,"ĠØ¯Ø§Ø¯Ùĩ":801,"ÙĤÙĦ":802,"Ø±Ø²":803,"ĠØ¶":804,"Ø±Ø§":805,"Ø³ØªÙĩ":806,"ÙĪØ·":807,"ĠØ§Ø«":808,"ĠØ·ÙĪÙĦ":809,"ÙĨØ¯Ú¯ÛĮ":810,"Ġ)":811,"ĠÙħØ·":812,"ĠØ³Ø±Ø´ÙħØ§Ø±ÛĮ":813,"ÙĦÛĮØ¯":814,"ĠØ±Ø³":815,"ĠÙģØ¹Ø§ÙĦ":816,"ĠØ¯Ø§ÙĨØ´Ú¯Ø§Ùĩ":817,"ĠØ¯ÙĩØ³ØªØ§ÙĨ":818,"Ø±Ø§Øª":819,"ÙĦØ§Ùħ":820,"ÙĦØ³":821,"ĠÙĨØ®":822,"ÙģÙĩ":823,"ĠØ§Ú©":824,"ÙĪÛĮØ³":825,"ÙĨØ¯ÛĮ":826,"ĠØ´ÙĪØ¯":827,"Ø§Ø¶":828,"ĠØ§ÙĨØ¯":829,"ĠÛ¶":830,"ĠØ§ÙĨØ¬Ø§Ùħ":831,")ØĮ":832,"ØªØ¨":833,"âĢĵ":834,"ĠØŃØ¯":835,"ĠÙħØµ":836,"ĠØ§ÙĨÚ¯ÙĦÛĮØ³ÛĮ":837,"ÛĮÚ©ÛĮ":838,"¸Ûµ":839,"Ø¯ÛĮØ¯":840,"Ú©Ø±":841,"ĠØ¯ÙĪÙħ":842,"ĠØ´Ùĩ":843,"Ú¯ÛĮØ±ÛĮ":844,"ØªØ±ÛĮ":845,"Ø±Ø¨ÛĮ":846,"ĠÙĨÙĤØ´":847,"ĠÛ³":848,"ĠØ¹ÙĦÛĮ":849,"ĠÙģØ±Ø§ÙĨ":850,"ÙĦØ§":851,"ĠØ±ÛĮ":852,"Ø¨Ø±Ø¯":853,"ĠØ¯Ø§Ø±Ø§ÛĮ":854,"ÙĨØ§ÙĨ":855,"ĠØªØ¨":856,"ÚĺÙĩ":857,"Ú©Ø§Ø±":858,"ĠÚ©ÙĪ":859,"ĠØŃØ³":860,"Ø§Ø¯Ø±":861,"ĠØªÙĤ":862,"ĠØ§Ø·":863,"ĠØ±Ø§Ùĩ":864,"ĠØ³ÙĨ":865,"an":866,"ĠØ´Ø§Ùĩ":867,"ĠÙĩÛĮ":868,"Ø±Ø§Ùĩ":869,"ÙĦÙĪ":870,"ĠØ¢Ø²":871,"er":872,"ĠÚ©ÛĮÙĦÙĪÙħØªØ±":873,"ĠÛ³Û":874,"ÙĦÛĮÙĦ":875,"ÙĪÙħÛĮ":876,"ĠØ¯ÙĪÙĦ":877,"ĠÙĨØ¸Ø±":878,"ĠØ²Ø§Ø¯Ùĩ":879,"ĠÚ¯Ø°":880,"ÙĪØ¯ÛĮ":881,"ÛĮØ±Ùĩ":882,"Ø³Ø§ÙĨ":883,"ĠÙħØ¬ÙħÙĪ":884,"ĠÚĨÙĩØ§Ø±":885,"ĠØŃØ§ÙĦ":886,"ĠØ§Ø«Ø±":887,"ĠÛ±":888,"Ġ(ØĽ":889,"ĠÙħÛĮØ§ÙĨ":890,"ĠÙħÙĦ":891,"in":892,"ĠÛ·":893,"ĠØ³Ø§Ø®ØªÙĩ":894,"ĠØ¨ÙĪØ¯ÙĨØ¯":895,"ĠÙħØ³Ú©":896,"ĠÙħØ±Ú©Ø²ÛĮ":897,"on":898,"ÛĮÙħÛĮ":899,"Ø¯ÙĩØ¯":900,"Ø§Ú¯":901,"Ø¬ÛĮ":902,"ĠØ´ÛĮ":903,"ĠØªÙĪÙĦÛĮØ¯":904,"Ø§Ø²Ùĩ":905,"ĠÙĤØ¨":906,"ĠÚ¯ÙĦ":907,"ĠÙĨÛĮØ±":908,"ĠØ¨ÛĮØ´ØªØ±":909,"ĠÚ¯Ø±ÙģØªÙĩ":910,"Ø¢Ø¨":911,"ĠØ¨Ø§Ø´Ú¯Ø§Ùĩ":912,"ĠØ¢Ø±":913,"Ú¯Ø±ÛĮ":914,"ĠØ¨Ø±ÙĨØ§ÙħÙĩ":915,"ĠØ¢Ø«":916,"Ø³ØªØ±":917,"Ø³Ø±":918,"Ø³ØªÙħ":919,"Ø§ØŃØª":920,"ĠØ§ÛĮØ±":921,"Ø´ÙĪÙĨØ¯":922,"Ø·ÙĪØ±":923,"ĠØ«Ø¨Øª":924,"ÛĮÙĨÚ¯":925,"ĠØ´ÙĪØ±":926,"Ø§ÙĪØ±":927,"ĠÛ±Û°":928,"ĠØªØ¹":929,"ĠØ®Ø·":930,"Ø®Ø§ÙĨ":931,"ĠÙĨØ®Ø³Øª":932,"ĠÙħØ®Øª":933,"Ø®Ø§Ø¨":934,"ĠØ¨Ø³ÛĮØ§Ø±":935,"ĠÙ¾Ø±ÙĪ":936,"ĠÙħØ§Ùĩ":937,"ĠÙģØ¹Ø§ÙĦÛĮØª":938,"Ø§Ø´Øª":939,"Ø´Ø§ÙĨ":940,"ĠØ¨Ø±Ú¯":941,"ĠØªØ¬":942,"Ġ-":943,"ĠØ·Ø±":944,"ĠØ¢Ø«Ø§Ø±":945,"Ø§ÛĮÙĦ":946,"ĠØ´Ø¨":947,"ØµØ¯":948,"ĠØ§ØµÙĦÛĮ":949,"ĠÙħØ³Ú©ÙĪÙĨÛĮ":950,"Ø§Øº":951,"ÙĦÙģ":952,"ĠÙĨÙĪØ´":953,"ĠØ§ÙĨØªØ®Ø§Ø¨":954,"ÛĮÙĨÙĩ":955,"ĠØŃÙħ":956,"ĠØ§ÙĪÙĦÛĮÙĨ":957,"ĠÙħØ§ÙĨÙĨØ¯":958,"ÙĪÙĦÛĮ":959,"ĠÙĨÙħÛĮ":960,"ØºÛĮ":961,"Ø®Ø§ÙĨÙĩ":962,"ÛĮØ´Ùĩ":963,"ĠÙģØ§Ø±":964,"la":965,"Û³Û":966,"ĠÙħØ¹Ùħ":967,"ĠØ±ÙĪØ³ØªØ§ÛĮÛĮ":968,"Ú©ØªØ±":969,"Ø±Ø³":970,"Ú©Ø³":971,"ØªØ´Ø±":972,"ĠØ³Ø¨":973,"ĠÙħØ±Ø¯Ùħ":974,"ĠÙħØ³Øª":975,"ĠØ¢Øº":976,"ĠØ®ÙĪØ§Ùĩ":977,"ĠÙħÙĨØªØ´Ø±":978,"ĠØ°":979,"ĠØ¯Ø§Ø±ÙĨØ¯":980,"Ø§ÙħØ¨Ø±":981,"ĠØ¬Ø§Ùħ":982,"Ø§Ú©ÙĨ":983,"Ø§ÛĮØ±":984,"ĠÙĤØ·":985,"Ø§Ø®Øª":986,"Ùİ":987,"Ø¶ÙĪ":988,"ĠØªÙĪØ§Ø¨Ø¹":989,"ĠØ¢ÙħØ§Ø±":990,"ĠÙħØ³Ø§ØŃØª":991,"ÛĮØ¯Ùĩ":992,"Ø§Ø³ØªØ§ÙĨ":993,"ĠØ´Ø§ÙħÙĦ":994,"Ø§ÙĨÛĮØ§":995,"Ø§Ø³Ø§Ø³":996,"ØªÙĪØ§ÙĨØ¯":997,"Ø¯ÙĨ":998,"ĠØªÙĩØ±Ø§ÙĨ":999,"ĠÙħØŃÙħØ¯":1000,"ĠØŃÚ©":1001,"ĠÙħØ®":1002,"Ø§Ø¨ÙĤ":1003,"ĠC":1004,"ÙĪÙĤ":1005,"ĠÙħØ«":1006,"ĠØ¬Ø²":1007,"ĠØ¬ÙĩØ§ÙĨ":1008,"ĠØ¨Ø±Ø§Ø³Ø§Ø³":1009,"Ø¨Ø§Ø±":1010,"ĠØ¨Ø±Ø®ÛĮ":1011,"ĠØ¨Ø±Ø§Ø¨Ø±":1012,"ĠÛ±Û¹Û¹Û":1013,"ĠØ³Ø§Ø²ÙħØ§ÙĨ":1014,"ĠØ¬Ø§ÙĨ":1015,"ĠÙĪÙĦÛĮ":1016,"ĠÙħÙĪØ³ÛĮ":1017,"ĠØ¨Ø§ÙĦØ§Øª":1018,"ĠØ¢ØºØ§Ø²":1019,"ØªÙĦ":1020,"ĠØ²ÙĨØ¯Ú¯ÛĮ":1021,"Ø·Ùĩ":1022,"ĠØ¨ÛĮÙħ":1023,"ĠÙħØ¬ÙħÙĪØ¹Ùĩ":1024,"ĠØ¯ÙĨ":1025,"ĠÛ±Û²":1026,"Ø§Ø®ØªÙĩ":1027,"ÙĪÛĮÛĮ":1028,"ĠÙĨØ´Ø§ÙĨ":1029,"ØªØµ":1030,"ĠÙħÙħ":1031,"ĠÙĩÙħØ±Ø§Ùĩ":1032,"ĠØ¨Ø§ÙĦØ§ØªØ±":1033,"ĠÙģØ±ÙĪØ¯":1034,"ĠØ¨Ø¹":1035,"Ø¹Øª":1036,"ÙĪØ³Øª":1037,"Ø¯Ùħ":1038,"Ø¨Ø§":1039,"Ø±ÙĪØ¯":1040,"Ø¢Ø¨Ø§Ø¯":1041,"ĠØ´Ú©":1042,"ĠÚ¯ÙĪÙĨÙĩ":1043,"ĠÛ±Û³Û¸Ûµ":1044,"ĠÙĨÙĩ":1045,"ĠÚ©Ø±Ø¯ÙĨØ¯":1046,"ĠØ´Ú©ÙĦ":1047,"Ø§ÛĮÙĩ":1048,"ÙħØ§":1049,"ĠÚ©ÙĦÛĮ":1050,"ĠÙĩÙħØ§ÙĨ":1051,"Ø¬Ø§Ø¯":1052,"Ø®ÙĪ":1053,"Ø²Ø§Ø¯Ùĩ":1054,"ĠÙĤÙĦ":1055,"ĠØ±ÙģØª":1056,"ĠØĮ":1057,"ĠÙĨØ²Ø¯":1058,"ĠØ¬ÙħÙĩ":1059,"ĠØ¯ÙĪÙĦØª":1060,"ĠØºÛĮØ±":1061,"ĠØªØºÛĮ":1062,"ĠØ¯ÙĦÛĮÙĦ":1063,"ĠÛĮØ§ÙģØª":1064,"Û¹Û":1065,"ĠØªØ´Ú©":1066,"ĠØ§Ø³Ù¾":1067,"en":1068,"ĠØ¹Ø±":1069,"ÙĨØª":1070,"Ø±ÛĮÙĤ":1071,"ĠØªÙĨÙĩØ§":1072,"ĠØ§ÛĮØ¬Ø§Ø¯":1073,"ĠØ¨Ø³ÛĮØ§Ø±ÛĮ":1074,"ĠÚ©Ø±Ø¯ÙĨ":1075,"ĠÙĨÙħÙĪØ¯":1076,"Ø³Ø§Ø²ÛĮ":1077,"ĠØªØºÛĮÛĮØ±":1078,"Ø§ØŃÛĮ":1079,"ÙĪØ±Ø´":1080,"ĠØ³ÛĮØ§Ø±Ú©":1081,"Ø¨Ø§Ø±Ùĩ":1082,"Ø±Ø³ÛĮ":1083,"ĠÙĩÙĨØ±":1084,"ĠØ¬ÙħÙĦÙĩ":1085,"ĠÙħÙħÚ©ÙĨ":1086,"ÙĪÙģ":1087,"ĠÙĤØ¯Ø±":1088,"ĠÛ±Û¸Û":1089,"ĠÚ©Ø´ØªÛĮ":1090,"ĠØªØ´Ú©ÛĮÙĦ":1091,"ĠÚ©Ø´Ùģ":1092,"ĠÙ¾ÛĮØ±":1093,"ĠÚ©Ø§ÙĨ":1094,"ĠØ³ÛĮØ³ØªÙħ":1095,"ĠØ¢ÙĦÙħØ§ÙĨ":1096,"ĠÙ¾ÙĨØ¬":1097,"ÙĦÙĤ":1098,"ĠØ¬ÙħÙĩÙĪØ±ÛĮ":1099,"Ø¯Ø§Ùħ":1100,"ĠØ§Ú¯Ø±":1101,"ĠÙħØ±Ø¨ÙĪØ·":1102,"Ù¾ÛĮ":1103,"ÙĨØ¯Ø§ÙĨ":1104,"ÙĪØ¨ÛĮ":1105,"ĠØ´Ø¯ÙĨØ¯":1106,"ÚĺÛĮ":1107,"ĠØ§Ø³ÙĦ":1108,"ĠØªÙĪØ§ÙĨ":1109,"ar":1110,"ĠØªØ¹Ø¯":1111,"ĠØ´Ø¯ÙĨ":1112,"ĠØ¯ÙĪØ±Ø§ÙĨ":1113,"ÙģØ§Ø¹":1114,"ĠA":1115,"Ø¬Ø§":1116,"Ø§Ø¨ÛĮ":1117,"ĠØ®Ø§Ø±":1118,"ĠÙħÙĪØ³ÛĮÙĤÛĮ":1119,"ĠS":1120,"ĠÙĨØ¯":1121,"ĠØŃØ¯ÙĪØ¯":1122,"ĠÙĩÙħÛĮÙĨ":1123,"ĠÙĩØ²Ø§Ø±":1124,"Ø¨Ø±ÛĮ":1125,"ØµÙĦ":1126,"ĠÚ©Ø§Ø±Ú¯Ø±Ø¯":1127,"Ùı":1128,"ĠØ³ÙĪ":1129,"ĠÚ©ÙĪÚĨ":1130,"ĠØ§ÙģØ²":1131,"ĠØ´Ø®Øµ":1132,"ĠØ§Ø·ÙĦ":1133,"ĠÙħÚ©":1134,"Ø®Ùĩ":1135,"ĠØªÙĪØ¬Ùĩ":1136,"ĠØ±ÙĪØ´":1137,"ĠÙģØ±ÙĩÙĨÚ¯":1138,"Ø§ÙĦÛĮØ§":1139,"Ø®Ø±":1140,"ÙĦØ¨":1141,"ĠÙģÙĦ":1142,"ĠØ¬Ø¯ÛĮØ¯":1143,"ØªÙĨ":1144,"ÙĪÙĦØ§":1145,"ÙĪÛĮÙĩ":1146,"Ġ()":1147,"ĠÙ¾Ø±Ø¯":1148,"Ø³ØªÛĮ":1149,"ĠØ§ÛĮØ±Ø§ÙĨÛĮ":1150,"ĠØ¬ÙĩØ§ÙĨÛĮ":1151,"Ø¯ÙĪ":1152,"ĠØ¸":1153,"Ø§ÛĮØ¬":1154,"ĠØ¨Ø§ÛĮØ¯":1155,"ĠØŃØ¶":1156,"ĠØªÚ©":1157,"ĠØ³Ø±ÛĮ":1158,"ĠÙĨØ®Ø³ØªÛĮÙĨ":1159,"ĠÚ©ÙĪÙĩ":1160,"Ø§ÙĦÙħÙĦ":1161,"ĠØ®ÙĪØ§ÙĨ":1162,"ĠØ³ÙĨÚ¯":1163,"ØªØ§":1164,"ÙģÙĤ":1165,"Ø¯Ø§Ø¯":1166,"ĠØ§ÛĮØª":1167,"ÙĨØ¯Ú¯Ø§ÙĨ":1168,"ØªÙĤ":1169,"ØªÙĪ":1170,"ĠÙĩÙħÙĩ":1171,"ĠØ¯ÙĦ":1172,"Ú¯ÛĮØ±":1173,"Ø´Ø§Ùĩ":1174,"Ø§ØŃÛĮÙĩ":1175,"Û¸Û":1176,"ĠÙĨÙħØ§ÛĮ":1177,"ØªÙĪØ±":1178,"ĠØ§ÙģØ±":1179,"ØµÛĮ":1180,"ĠÙĪÙĤ":1181,"ĠØ´ÙĩØ±ÛĮ":1182,"ÛĮÚ©ÙĨ":1183,"Ø¯Ø§Ø±ÛĮ":1184,"ĠÙħÛĮÙĦÛĮ":1185,"ÙĨÙĪ":1186,"Ø¨ÙĪØ¯":1187,"ÙĪÙħØª":1188,"Ø¶Ø§":1189,"ĠÙħØ§Ø±":1190,"Ø³Ú©":1191,"ÙģØ§":1192,"ĠØ±ÙĪØ¯":1193,"ÙĨØ§":1194,"ÙĤÛĮÙĤ":1195,"ĠÙħØ®ØªÙĦÙģ":1196,"ĠÙĨÙĪØ¹":1197,"ĠÚ¯ÛĮ":1198,"Ø´ÙĨØ§Ø³ÛĮ":1199,"ĠÚ¯ÙģØªÙĩ":1200,"ĠÙĨÛĮØ³Øª":1201,"ĠÛ±Ûµ":1202,"ĠØ³Ùģ":1203,"ÙĬ":1204,"Ø¤":1205,"ĠÙĩÙĨÚ¯":1206,"ÙĪÛĮØ²ÛĮ":1207,"Ø§ÙģÛĮ":1208,"for":1209,"ĠØ±Ø¦":1210,"Ø³Ø¨":1211,"ĠØªØ±Ú©ÛĮ":1212,"es":1213,"ĠÙħÙĩÙħ":1214,"ĠØ¬ÙĪ":1215,"ĠØ§Ø·ÙĦØ§Ø¹":1216,"Ø¯ÙĩØ§ÛĮ":1217,"ĠØ®ÛĮ":1218,"ĠØªÙĦÙĪÛĮØ²ÛĮ":1219,"ĠØ§Ø³Ø§Ø³":1220,"ĠÙģØ±ÙĪ":1221,"ĠØ§Ø³ÙĦØ§ÙħÛĮ":1222,"ÙĪÛĮØ¯":1223,"ĠØ³ÙĪÙħ":1224,"ĠØ·Ø¨":1225,"Ø®Ø§ÙĨÙĪØ§Ø±":1226,"mu":1227,"ĠâĢĵ":1228,"ĠÙģØ±ÙĪØ¯Ú¯Ø§Ùĩ":1229,"Ø²Ø¨":1230,"ĠØ¨Ø±ÛĮØª":1231,"al":1232,"Ø±ÛĮØ§ÙĨ":1233,"ĠÙĤØ¯":1234,"ĠØªØŃØª":1235,"ĠÙħØ±Ø¨Ø¹":1236,"ĠØ³Øª":1237,"ĠØŃÙĤ":1238,"ÙĪÙĩØ§ÛĮ":1239,"ĠØ³ÛĮÙĨ":1240,"ĠØ¬ÙĨÙĪØ¨":1241,"ĠÙģØ±Ø§ÙĨØ³Ùĩ":1242,"Ø¶Ø§ÛĮ":1243,"ĠÙĨÚ¯":1244,"Ú¯ÛĮØ±Ø¯":1245,"ĠÙĨØ³Ø¨Øª":1246,"ĠM":1247,"ĠØ§Ø±ÙĪÙ¾":1248,"ĠØ±Ø³ÛĮØ¯":1249,"ÛĮØ¯Ø§":1250,"ĠØ®Ø§ÙĨÙĪ":1251,"ĠÛ±Û¹Û·":1252,"ĠØ´ÙħØ§ÙĦ":1253,"ĠØŃØ¶ÙĪØ±":1254,"Ø±ÙĪÙģ":1255,"ĠÚ©ÙĨÙĨØ¯":1256,"Ø³ÛĮØ³":1257,"ĠÙ¾Ø§ÛĮØ§ÙĨ":1258,"ĠØ¯ÛĮØ¯":1259,"ĠØ¨Ø§Ø¹":1260,"Ø§ÙĦØ¯":1261,"Ú¯Ø²":1262,"ĠØ´ÙħØ§Ø±Ùĩ":1263,"ĠØ¨Ø§Ø¹Ø«":1264,"ĠÙĨÙĪÛĮØ³":1265,"ÙĨØ§ÛĮ":1266,"ĠÙħÙĪØ§Ø±Ø¯":1267,"ĠÙģØ±Ø¯":1268,"Ø¶ÛĮ":1269,"Ø§Ø´ÛĮ":1270,"ĠÙģØ±ÙħØ§ÙĨ":1271,"Ø³ÙĦ":1272,"Ø§Ø¹ÛĮ":1273,"ĠÙĨÙħØ§ÛĮØ´":1274,"ĠØ¢ÙħÙĪØ²":1275,"ĠÙĤØ³":1276,"ĠÙ¾ÙĦ":1277,"Ġ.":1278,"ĠÙĩÙĨØ¯":1279,"ĠØºØ±Ø¨ÛĮ":1280,"ĠÚ¯ÙģØª":1281,"ĠØ´ÙĨØ§Ø®ØªÙĩ":1282,"ĠÙĪØ§Ø±Ø¯":1283,"ed":1284,"ĠØ§ÛĮØ§ÙĦØª":1285,"ĠØ³Ù¾Ø³":1286,"ĠØ²ÛĮØ§Ø¯ÛĮ":1287,"Û°Û°Û°":1288,"ĠØ±Ø´ØªÙĩ":1289,"ĠØ¹ÙħÙĦ":1290,"Ø±ÛĮÙĩ":1291,"ĠØ·ÛĮ":1292,"Ø§ÙĦÙĩ":1293,"Ø§ÙĦÙħÙĦÙĦÛĮ":1294,"ĠØ¯Ø§Ø®":1295,"mula":1296,"ĠÙĨØ§ØŃÛĮÙĩ":1297,"Ø³ÙĨ":1298,"ØµØ±":1299,"ĠØ¨Ø±Ø¯":1300,"formula":1301,"ĠÙ¾Ø§Ø¯":1302,"ĠÚ©ÛĮ":1303,"ĠØ§Ø¨Øª":1304,"ĠØ¢Ø°":1305,"ĠØªÙħØ§Ùħ":1306,"ĠÙĩØ§ÛĮ":1307,"ĠÛ±Û³Û¹Û":1308,"ĠØ§Ø¹ÙĦØ§Ùħ":1309,"ÙĪÙĨØª":1310,"Ú©ÙĨÙĨØ¯Ùĩ":1311,"ĠÙĪØ±Ø²":1312,"ĠÙĤØ§ÙĨ":1313,"Ùĳ":1314,"ĠØ±Ø¦ÛĮØ³":1315,"ĠØ¨Ø§Ø²ÛĮÚ©ÙĨ":1316,"ĠÙ¾Ø§Ø±":1317,"ĠÙĨÙĪØ´ØªÙĩ":1318,"ĠØ±ÙĪØ³ØªØ§ÛĮ":1319,"ĠØ¢Ø³ÛĮ":1320,"ĠÛ±Û·":1321,"ÙħØ±":1322,"ÛĮØ¯ÛĮ":1323,"Ø§Ø¨Øª":1324,"ĠØ¢ÙĨÙĩØ§":1325,"ĠØ§ÛĮÙĨÚ©Ùĩ":1326,"ĠØ±Ø³ÛĮØ¯Ùĩ":1327,"ĠØ®Ø§ÙĨÙĩ":1328,"ĠØ§Ø¯Ø§ÙħÙĩ":1329,"ĠØ´ÛĮØ±":1330,"ĠÙĪØ²":1331,"Ø±ÛĮØª":1332,"Ø§Ø±Ø§ÙĨ":1333,"ØŃÛĮ":1334,"ØµÙĪÙĦ":1335,"ĠÛĮÙĪÙĨ":1336,"ÙĪØ§Ø±Ùĩ":1337,"ĠÙĩØ¯":1338,"ĠØ±ÙĨÚ¯":1339,"ĠÚ©Ø§ÙħÙĦ":1340,"ÙĪÛĮØª":1341,"ĠØµÙģ":1342,"ĠØ¬ÙĨÙĪØ¨ÛĮ":1343,"Ø¹ÙĨÙĪØ§ÙĨ":1344,"ĠÙĪÙĦ":1345,"ĠÛ±Û¹Û¸Û":1346,"ĠØ¬Ø§ÛĮØ²Ùĩ":1347,"ĠÙħØ¯Ø±":1348,"ĠÛ±Û¹Û¶":1349,"Ú¯Ø°Ø§Ø±ÛĮ":1350,"ĠØ¢ÙĦØ¨":1351,"ĠØ®Ø§ÙĨÙĪØ§Ø¯Ùĩ":1352,"Ù¾Ùĩ":1353,"ic":1354,"ĠÛ¸":1355,"ÙħØ§ÛĮ":1356,"ĠÙĤØ§Ø¨ÙĦ":1357,"ĠÙ¾Ø¯Ø±":1358,"ĠØªØ¹Ø¯Ø§Ø¯":1359,"ĠÚĺØ§Ù¾":1360,"Ø¬ÙħÙĩ":1361,"ĠØ§ÙĤØªØµ":1362,"Ù¾Ø±":1363,"ĠÙĩÛĮÚĨ":1364,"ĠØ§ÙģØ²Ø§ÛĮØ´":1365,"ĠØ´Ø±ÙĤÛĮ":1366,"Ú¯Ø±Ø§ÙĨ":1367,"ĠÙħÙĪÙģÙĤ":1368,"ĠÙħÛĮØ²":1369,"ĠÙĩÙģØª":1370,"ĠÙĨÙĪØ±":1371,"ĠÙĤÙĩØ±":1372,"ĠØ³ÙĪÛĮ":1373,"Ø³ÙĪÙĨ":1374,"ĠØ³ÛĮØ§Ø³ÛĮ":1375,"Ø³ÛĮÙħ":1376,"ĠØ´Ø¨Ú©Ùĩ":1377,"ĠÚĺØ§ÙĨ":1378,"ĠØ§Ø±Øª":1379,"ØµÛĮÙĦ":1380,"ÙĪØ§":1381,"ĠT":1382,"Ø§Ø¨Ùĩ":1383,"Ø°ÛĮØ±":1384,"ĠØ²ÙħÛĮÙĨÙĩ":1385,"ÙĤØ±":1386,"ÙĪÙĦØ¯":1387,"ĠØ®Ø±":1388,"ĠÛ±Û¶":1389,"is":1390,"ĠÙħØº":1391,"Ø§Ø¸":1392,"ĠØ´Ø¹":1393,"Ø¯ÙĩØ§":1394,"ØªÛĮØ¬Ùĩ":1395,"ĠØ±Ùĩ":1396,"Ø¯ÛĮÙĦ":1397,"ĠØªØ£Ø³ÛĮØ³":1398,"ĠØ¯Ø±Ø¨Ø§Ø±Ùĩ":1399,"ĠØ·Ø¨ÛĮ":1400,"ĠÚ©ÙħÚ©":1401,"at":1402,"ĠÚ¯Ø³ØªØ±":1403,"ĠÙħØŃØµÙĪÙĦ":1404,"ĠØ¯Ø§Ø³ØªØ§ÙĨ":1405,"ĠP":1406,"ĠØ®Ø§Øµ":1407,"ĠÚ¯Ø±Ø¯ÛĮØ¯":1408,"ĠØ´Ø±ÙĪ":1409,"ĠÙħÙĪØ¬ÙĪØ¯":1410,"ĠÛ±Û´":1411,"Ġformula":1412,"ĠØ·Ø±Ùģ":1413,"Ø¯Ø§ÙĦ":1414,"ĠØ¢ÙĪØ±":1415,"ĠÛ±Û¹Û´":1416,"ĠØ¯ÛĮÚ¯Ø±ÛĮ":1417,"ĠÚ©Ø§Ø±Ú¯Ø±Ø¯Ø§ÙĨÛĮ":1418,"ÙĦÙĨØ¯":1419,"Ø±Ø§ÛĮ":1420,"ĠØ§ÙĦÚ©ØªØ±":1421,"ĠÙĨØªÛĮØ¬Ùĩ":1422,"ĠÙħØ±Ú¯":1423,"ĠÚĨÙĪÙĨ":1424,"ĠØ²ÙħØ§ÙĨÛĮ":1425,"ĠØ¯Ø±ÛĮ":1426,"Ú©Ø§Ø±ÛĮ":1427,"ĠÚ©ÙĪØ¯":1428,"ĠÙĤØ¨ÙĦ":1429,"ÙĨØ´":1430,"ĠÛĮØ§Ø¯":1431,"Ø§ÙĨØª":1432,"ĠØ®ÙĪØ§ÙĩØ¯":1433,"ÙĪØ²Ùĩ":1434,"ĠØ¨Ø±ÛĮØªØ§ÙĨÛĮØ§":1435,"Ø³ØªØ§ÙĨÛĮ":1436,"ĠÙħØŃÙĦ":1437,"Ø§ÚĨ":1438,"Ø¹ÙĨÛĮ":1439,"ĠØ§ÙģØ±Ø§Ø¯":1440,"ĠÙħØ¬ÙĦØ³":1441,"ĠÙħØ¨":1442,"ĠØ¬ÙĩØª":1443,"ĠB":1444,"ĠØªØ¨Ø¯ÛĮÙĦ":1445,"ĠÚ©ÙĪÚĨÚ©":1446,"Ø³Ùħ":1447,"ĠØ¯Ø±ÛĮØ§ÙģØª":1448,"ĠØ¯ÙĩÙĩ":1449,"ĠØ´Ø±ÙĪØ¹":1450,"Ø§ÙĨÚ©":1451,"ØªÛĮØ¨":1452,"ĠÙĪØ§":1453,"ĠØ·Ø±Ø§ØŃÛĮ":1454,"ĠÙħØ³Ø¦":1455,"ĠÙħØ¹ÙħÙĪÙĦØ§":1456,"ÛĮØªÛĮ":1457,"ĠØ¯Ø®":1458,"ĠØ·Ø±ÛĮÙĤ":1459,"ĠØµØ¯":1460,"ĠØªØ§Ø±ÛĮØ®ÛĮ":1461,"Ø§Ø¨ÙĤØ§Øª":1462,"ĠØ§ÙģØª":1463,"ĠÚĨØ´Ùħ":1464,"ĠÚ©Ø§Ùĩ":1465,"Ø±ÛĮÙģ":1466,"ĠØ§ÙĨØªÙĤ":1467,"ĠÚĺÙĪØ¦":1468,"ĠØ¹ÙĦÙħÛĮ":1469,"ĠÙĨÛĮØ§Ø²":1470,"ĠØ³ÙħØª":1471,"ÙĪÚ¯":1472,"ĠÙħØ°":1473,"ĠØ¢ÙĪØ±Ø¯":1474,"ĠØªÙĦÙĪÛĮØ²ÛĮÙĪÙĨÛĮ":1475,"ĠØ¯Ø±Ú¯Ø°":1476,"ĠØ¯Ø±Ø¢":1477,"ĠÙĤØ±ÙĨ":1478,"ĠÙ¾ÛĮØ¯Ø§":1479,"Ø§ÙĨÚ¯":1480,"ĠÙĤØ³ÙħØª":1481,"ĠÛ¹Û":1482,"ĠÙħØ¤":1483,"ĠØ´ÙħØ§ÙĦÛĮ":1484,"ĠØ¨Ø§ÙĦØ§":1485,"ĠØŃØ²Ø¨":1486,"ia":1487,"ĠØ²ÙĨ":1488,"ĠÚ©Ø§Ùħ":1489,"ĠØªØ®":1490,"ĠØ±ÙĪØ³ÛĮ":1491,"ĠØ§ÙħØ±ÙĪ":1492,"ĠØŃÚ©ÙĪÙħØª":1493,"ĠØ¹Ø¶ÙĪ":1494,"ÙħØ²":1495,"ĠØ¢ÙħØ¯Ùĩ":1496,"ĠØ¨ÙĨÛĮ":1497,"ĠØ¨Ø¯ÙĪÙĨ":1498,"ĠØ¹Ø¨Ø§Ø±Øª":1499,"ĠÙħØ³Ø§Ø¨ÙĤØ§Øª":1500,"Ø§Ø¡":1501,"ĠÙģØ±Ø²":1502,"ĠØ§ÙĨØ³Ø§ÙĨ":1503,"Ø¬Ø±":1504,"ĠÛ¹":1505,"ĠØ®ÙĪØ±Ø´":1506,"ĠÙħØ¯Øª":1507,"ĠÙħØ¹Ø±ÙĪÙģ":1508,"ĠÙģØ§Ø±Ø³ÛĮ":1509,"ĠØ¬ÙĦ":1510,"ĠØ¢Ø®Ø±":1511,"ĠØ¢ÙĦØ¨ÙĪÙħ":1512,"Ø§ÙĦØ¨":1513,"ÙĪØ³ÛĮ":1514,"ĠØ±ÙĤ":1515,"ĠÙħØ´Ùĩ":1516,"Ø§ØªØ±":1517,"ĠØ¢ÙħØ±ÛĮÚ©Ø§ÛĮÛĮ":1518,"Ø§Ø¨ÙĤÙĩ":1519,"ĠØ§Ø±ØªØ¨":1520,"ĠØ§Ø±Ø¯":1521,"ĠØ§Ø±ØªØ¨Ø§Ø·":1522,"Ø´Ø§Ø±":1523,"ĠØªÙĪØ³Ø¹Ùĩ":1524,"it":1525,"ĠÙħÙĨØ§Ø·":1526,"Ø§Ø¦Ùĩ":1527,"ÙĪØ±ÛĮÙĩ":1528,"ĠØ§Ø±ØªÙģØ§Ø¹":1529,"ĠØ§Ø·ÙĦØ§Ø¹Ø§Øª":1530,"ØªÙĪÙĨ":1531,"Ø§Ú©ÙĨÙĪÙĨ":1532,"Ø§ØªÛĮÙĨ":1533,"ĠÛ±Û¹":1534,"ĠØ§Ø¬ØªÙħ":1535,"ĠÚ©ÙħÛĮ":1536,"Ø²Ø´Ú©":1537,"ĠÙ¾Ø§ÛĮÙĩ":1538,"ÙĦØ§ØŃ":1539,"Ú¯Ø±Ø¯Ø¯":1540,"ĠØ¢Ø²Ø§Ø¯":1541,"Ø³ÛĮÙĨ":1542,"ĠÙĨÛĮÙħ":1543,"ĠÙħØŃØ¯":1544,"Ø§Ø³Ø¨":1545,"ĠØ¨Ø±Ú¯Ø²Ø§Ø±":1546,"ĠØ³ÙĦØ·":1547,"ĠØ¬Ø±ÛĮØ§ÙĨ":1548,"ĠØ§ÙĨÙĤÙĦ":1549,"ĠØµØŃ":1550,"ĠØªØ§Ø¨":1551,"ĠØªØ±Ú©ÛĮØ¨":1552,"Ø¹Ø§Øª":1553,"ĠÙħØ§":1554,"ĠÙħÙĪØ§Ø¯":1555,"ÙĦÛĮÙĩ":1556,"ĠÛĮØ¹ÙĨÛĮ":1557,"Ø«ÛĮØ±":1558,"ĠØªÙĪØ±":1559,"ĠD":1560,").":1561,"Ø³Ø§Ø²":1562,"Ġ1":1563,"ĠÛ±Û¹Ûµ":1564,"Ø³Ø§ÙĦ":1565,"ĠÙĪØ³ÛĮ":1566,"Ø´Ø¯Ùĩ":1567,"Ø«Ø±":1568,"ÙĪÙĦÙĩ":1569,"Ø´ÙĩØ±":1570,"ĠÙĦÙĩ":1571,"ĠÙĨÙģ":1572,"ĠÚ©Ø§ÙĩØ´":1573,"ĠØ´ÙĪØ±Ø§ÛĮ":1574,"ĠÚ©ÙĨØ§Ø±":1575,"ÙĪÙĦÙĪ":1576,"ĠØ³ÛĮØ¯":1577,"ĠØ¢ÙĩÙĨÚ¯":1578,"ĠØ§ÛĮØªØ§ÙĦÛĮØ§":1579,"ĠÙĪÛĮÚĺÙĩ":1580,"ĠØ´Ú©Ø³Øª":1581,"Ú©ÙĪ":1582,"Ø§Ø¹Øª":1583,"ĠØ¢ÙħØ¯":1584,"ĠÙĤØ¯Ø±Øª":1585,"ĠØ¹ÙħÙĪÙħÛĮ":1586,"ÙħÙ¾":1587,"ĠØ§Ø±Ø§Ø¦Ùĩ":1588,"ĠØ¨ÛĮÙħØ§Ø±ÛĮ":1589,"ĠØ´ÛĮÙħÛĮ":1590,"ĠÙĪØ±":1591,"ĠĠĊ":1592,"ĠØ§Ø±ÙĪÙ¾Ø§":1593,"ĠØµÙĨ":1594,"ĠÛ±Û³":1595,"ĠØ¨ÙĩØªØ±ÛĮÙĨ":1596,"ĠÙĨØ¸Ø§ÙħÛĮ":1597,"ĠÙħÚ©Ø§ÙĨ":1598,"ĠÙħØ´Ø®Øµ":1599,"ØºØ§ÙĨ":1600,"..":1601,"ĠÚ©ÙĪØª":1602,"ĠÙĤØ§ÙĨÙĪÙĨ":1603,"ĠÙģØµÙĦ":1604,"ÙĩÙĨ":1605,"Ø³ÙĪÛĮ":1606,"ĠØ²ÙĨØ§ÙĨ":1607,"ĠØ®ÙĦ":1608,"ĠÙĨØ²Ø¯ÛĮÚ©":1609,"ĠÙĨÛĮØ±ÙĪÙĩØ§ÛĮ":1610,"Ø§Ø·Ø±":1611,"ØŃÙĩ":1612,"ĠÛ²Û°Û±Û°":1613,"Ø±Ø§ÙĨÙĩ":1614,"Ø¨ÙĪØ±":1615,"ĠÙħÙĨØ§Ø·ÙĤ":1616,"ĠØªÙģ":1617,"ĠØ®Øµ":1618,"ĠØ®Ø¯":1619,"ĠÚĺØ§Ù¾ÙĨ":1620,"Ø³Ø§":1621,"ĠØ±Ø§ÛĮ":1622,"ĠÙħÙĨØ¸":1623,"Ø¬ÙĪ":1624,"ÙĪØ§ÙĦ":1625,"ÙĪØµ":1626,"ĠØŃÙħÙĦÙĩ":1627,"ÙĤØ·":1628,"ĠÙħÛĮÙĦÛĮÙĪÙĨ":1629,"ĠØ¯ÙĨÛĮØ§":1630,"ĠÚ©Ø±ÛĮ":1631,"ĠØ±Ø§Ø¨":1632,"ÙĪØ§Ø³":1633,"ĠÙ¾Ø³Ø±":1634,"ol":1635,"Ø±Ø¨Ø§ÛĮØ¬":1636,"ĠØ§Ø³ØªØ±":1637,"Ø§Ø±Ø³ØªØ§ÙĨ":1638,"ÙħÛĮØª":1639,"ÙģØ§ÙĪØª":1640,"ĠØ§ÙĨØ¯Ø§Ø²Ùĩ":1641,"ĠØªØŃØµÛĮÙĦ":1642,"ĠÛ²Ûµ":1643,"Ø®ÛĮ":1644,"Ø¬Ùħ":1645,"Ø§Ù¾ÛĮÙħ":1646,"Ø§Ú©ÛĮ":1647,"ĠÙħØ¯ÛĮ":1648,"Ø¨ÛĮØ±":1649,"Ø§ÙĪÙĩ":1650,"Ø±Øª":1651,"ĠØ¢Ø°Ø±Ø¨Ø§ÛĮØ¬":1652,"ĠØ¯Ø±Ø¬Ùĩ":1653,"ĠØ§Ø³ÙĦØ§Ùħ":1654,"ĠÙ¾Ø±Ø¯Ø§Ø®Øª":1655,"ĠÙĩØ´Øª":1656,"Ø²ÙħÛĮÙĨ":1657,"ĠÚĨÙĨÛĮÙĨ":1658,"ĠØ§Ø¬ØªÙħØ§Ø¹ÛĮ":1659,"ĠØ³Ø®":1660,"ĠØ§ÙħÙ¾":1661,"ĠÙħØ§ÛĮ":1662,"ĠÙĦØ§ØªÛĮÙĨ":1663,"ÚĨÛĮ":1664,"Ú¯ÙĪ":1665,"Ø§Ø¶ÛĮ":1666,"ĠØ³ÛĮØ§Ø³Øª":1667,"ĠÙħØ³ÙĦ":1668,"ĠØŃÙĦ":1669,"re":1670,"ÛĮØ²ÛĮ":1671,"ĠØŃØ§ÙĦØª":1672,"ĠÙħÙĪØ¶ÙĪ":1673,"ĠÙĨØ³Ø®Ùĩ":1674,"Ø³Ø§ÙĨÛĮ":1675,"ĠØ¨ÙĨØ§":1676,"ÙĪÛĮØ±":1677,"ĠÙģÛĮ":1678,"Ø§Ø³Ùħ":1679,"le":1680,"ĠØ¢ÙĨØ¬Ø§":1681,"ĠØŃØªÛĮ":1682,"Ø§Ø³Ø§ÙĨ":1683,"ĠÚ©ÙĨØªØ±":1684,"ĠØ¢ÛĮ":1685,"Û±Û¹Û":1686,"Ø±ÙģÛĮ":1687,"ĠØ¯Ùħ":1688,"ĠØºØ±Ø¨":1689,"ĠØ¯Ø®ØªØ±":1690,"ĠÙħÙĪØ¬":1691,"ĠÙ¾Ø§Ø³":1692,"ĠÙĪÛĮØ±":1693,"ĠÛ¸Û":1694,"Ø±ÛĮØ¯":1695,"ĠØªÙĩÛĮÙĩ":1696,"ÙħÛĮÙħ":1697,"ĠØªØ£Ø«ÛĮØ±":1698,"ĠÙħØ§Ø¯Ùĩ":1699,"ØªØ´Ø§Ø±":1700,"Ø§ÙĨØ³":1701,"ĠÙ¾Ø²Ø´Ú©":1702,"Ø¹ÙĦÛĮ":1703,"ĠØ¹Ùĩ":1704,"Ù¾Ø±Ø¯":1705,"he":1706,"ĠØ¨Ø§Ø²Ø§Ø±":1707,"\"ØĮ":1708,"ĠØ¹ÙħÙĦÛĮ":1709,"Ø§Ø´ØªÙĩ":1710,"ĠÙĨÙħÙĪÙĨÙĩ":1711,"Ø¯ÙĩÙħ":1712,"ĠÚĨØ§Ù¾":1713,"Ø§ØµÙĦÙĩ":1714,"ĠÙĨÛĮØ±ÙĪÛĮ":1715,"Ø®ÙĪØ§ÙĨ":1716,"ĠØŃØ§Ø¶":1717,"ĠÙĩÙħÚĨÙĪÙĨ":1718,"ĠØ§Ø±ØªØ´":1719,"ĠÚ©Ø³Ø¨":1720,"ÙħÙĨÛĮ":1721,"ĠÙħØ¯ÙĦ":1722,"ÙĩÙħ":1723,"ĠØ¨Ø±Ø¬":1724,"Ø¯ÙĩÙĨØ¯":1725,"ĠØ¯Ø³ØªÚ¯Ø§Ùĩ":1726,"ÙĨØ§Ùħ":1727,"ÙħØŃ":1728,"ĠÙ¾ÙĪØ´":1729,"ĠØ¹ÙĦÙĪÙħ":1730,"ĠÚ©Ø±ÙħØ§ÙĨ":1731,"Ø¨ÙĨØ¯ÛĮ":1732,"ĠØ¯Ø±ØµØ¯":1733,"Ø³ÙĪ":1734,"ÙĨÙħ":1735,"ĠØ§ÙĨØªØ´Ø§Ø±":1736,"ĠØŃÛĮ":1737,"Ø±Ø§Ùģ":1738,"ĠØ§ÙĪØ±":1739,"ĠØ³Ø§Ùħ":1740,"ĠØ§Ø¯Ø¨ÛĮ":1741,"ĠØ¹Ø±Ø§ÙĤ":1742,"ĠØŃØ§Ø¶Ø±":1743,"ĠÙĩØ¬":1744,"ÙģÛĮÙĦ":1745,"ĠØŃÙģ":1746,"ĠØ§ÙĨÚ¯ÙĦ":1747,"ĠÙ¾ÙĦÛĮ":1748,"ĠÙ¾Úĺ":1749,"ĠÚ©Ø´ÙĪØ±ÙĩØ§ÛĮ":1750,"Ø§ÙħØª":1751,"ĠØ¨Ø±ÙĨØ¯Ùĩ":1752,"ÙĨØ²":1753,"ĠÙħØ§ÙĦÛĮ":1754,"ĠØ·Ø¨ÛĮØ¹ÛĮ":1755,"ĠÙĩÙĪØ§Ù¾ÛĮÙħ":1756,"ĠØ±ÙĪØ³ÛĮÙĩ":1757,"ĠØ§ÙĨÙĤÙĦØ§Ø¨":1758,"ÙĪÛĮØ´":1759,"Ø§ØµØ±":1760,"ĠÙĩÙĨÚ¯Ø§Ùħ":1761,"Ø±ÛĮØ²":1762,"Ù¾ÙĦ":1763,"ĠØ¢Ø²Ùħ":1764,"Ø´Ø±":1765,"ØªØ¨Ø±":1766,"ĠW":1767,"ĠØ³Ø¨Ú©":1768,"ĠÛ±Û³Û¸Û":1769,"ĠØ¨Ø§Ø²ÛĮÚ¯Ø±":1770,"ØºÙĪÙĦ":1771,"ĠØ¬Ø´ÙĨ":1772,"ĠÚ¯Ø²Ø§Ø±":1773,"ĠÚĨÛĮÙĨ":1774,"ĠL":1775,"ĠØ§ÙħÙ¾Ø±Ø§Øª":1776,"ĠÙħØ·Ø§ÙĦ":1777,"ĠØ§ÙħÙĨ":1778,"ĠØ¨ÙĪØ¯ÙĨ":1779,"ĠÚ©ÙĨØªØ±ÙĦ":1780,"ĠØ³Ø±Ø¯":1781,"Â»ØĮ":1782,"ÙĪØ±Ú©":1783,"ĠØ§ØŃØªÙħ":1784,"ĠF":1785,"ĠÙĩØ¯Ùģ":1786,"ÙħØ±Ø¨":1787,"ĠØ¨Ø±Ø±Ø³ÛĮ":1788,"Ø¨Ø§Ø´":1789,"ĠØ¯Ùģ":1790,"ÙĨÙĪÛĮØ³":1791,"ĠØ¹Ø¨Ø¯Ø§ÙĦ":1792,"ĠR":1793,"Ø¨ÙĦ":1794,"ĠÙħØ§ÙĦ":1795,"ĠØ³Ø§Ø®ØªÙħØ§ÙĨ":1796,"ou":1797,"ĠØ®Ø§Ú©":1798,"ĠÙĤÙĦØ¹Ùĩ":1799,"ĠØ¢ÙħÙĪØ²Ø´":1800,"ĠÙħÙĪÙĤ":1801,"ĠØŃØ±Ú©Øª":1802,"ĠÙħØ´ØºÙĪÙĦ":1803,"ĠØªÙĤØ³ÛĮÙħ":1804,"ĠÙ¾ÙĨ":1805,"ĠÙħÙĤØ§Ùħ":1806,"ĠØ¬ÙĪØ§ÙĨ":1807,"Ø±ÚĺÛĮ":1808,"ĠØ¢ÙĨØ§ÙĨ":1809,"ĠÛĮØ§ÙģØªÙĩ":1810,"ĠG":1811,"Ø§Ø¨Ø§ÙĨ":1812,"ĠØ¨Ø§Ø´ÙĨØ¯":1813,"ĠH":1814,"ĠØ¨ÛĮØ§ÙĨ":1815,"ÙħØ±Ø¨Ø¹":1816,"Ø§Ø¯Ø§":1817,"ĠØ¨Ø§ÙĨØ¯":1818,"ĠØ³Ø±Ùħ":1819,"ĠØªØ´":1820,"Ø§ÙĪÛĮ":1821,"Ø¬Ø¯":1822,"ĠØ¢Ø°Ø±Ø¨Ø§ÛĮØ¬Ø§ÙĨ":1823,"ĠI":1824,"ĠÚ©Ø§ÙĦ":1825,"ĠØ§Ø¬Ø±Ø§":1826,"ĠØ§ÙĨÚ¯ÙĦØ³ØªØ§ÙĨ":1827,"ĠØ¬Ø§ÙħØ¹Ùĩ":1828,"Ø·ÛĮ":1829,"ĠØ§ÙħÚ©Ø§ÙĨ":1830,"Ø§Ø¦ÛĮ":1831,"ĠÛ±Û³Ûµ":1832,"ĠØ¨ÛĮØ±":1833,"ĠØŃÙĤÙĪÙĤ":1834,"Ù¾ÛĮØ´Ùĩ":1835,"ĠÙĨÙĪÛĮØ³ÙĨØ¯Ùĩ":1836,"ĠØ¯Ø§Ùħ":1837,"ĠE":1838,"ĠØŃÙĪØ²Ùĩ":1839,"ĠØ³Ú©":1840,"ĠØªÛĮ":1841,"Ø§ÙģØ¸":1842,"ĠØŃØ³ÛĮÙĨ":1843,"ĠØ³Ø§ÛĮØ±":1844,"ĠØ¹ÙĨ":1845,"Ú©Ø±Ø¯ÙĨØ¯":1846,"ĠØ¯ÙĩØ¯":1847,"ĠØ®Ø§Ø±Ø¬":1848,"Ø¯ÙĪØ§Ø¬":1849,"ÙħÙĨØ¯":1850,"ĠÛ±Û¸":1851,"ØªÙĪØ§ÙĨÙĨØ¯":1852,"ik":1853,"Ú¯Ø´Øª":1854,"ĠØ§ØªØŃ":1855,"Ġ2":1856,"ĠØ§Ø±Ø²":1857,"ĠÙħØŃÙħ":1858,"ĠÙħØ±ØŃ":1859,"Ú¯Ø§ÙĨÛĮ":1860,"Ø±Ø³Ø¯":1861,"ĠØ§Øº":1862,"ĠØ¯Ø§Ø´ØªÙĨØ¯":1863,"Ø§Ø¯ÙĦ":1864,"ÙĪØ²ÛĮ":1865,"ĠØ±Ø³ÙħÛĮ":1866,"ĠÙĨØ¯Ø§Ø±Ø¯":1867,"ĠÙħÙĩØ§Ø¬":1868,"Ø¯Ø±ÛĮ":1869,"ĠØªØŃÙĤÛĮÙĤ":1870,"ÙĩØ±Ø³Øª":1871,"Ø¢ÛĮØ¯":1872,"ĠÙħØ³ÛĮ":1873,"Ø§ÙĦØ¯ÛĮÙĨ":1874,"Ø§ÙĨÛĮØ§ÙĨ":1875,"ĠÙ¾ÚĺÙĪÙĩ":1876,"ĠØ¨ØŃ":1877,"ĠØ§Ø²Ø¯ÙĪØ§Ø¬":1878,"ĠÚĨØ±":1879,"Ø§Ø¨Ø¯":1880,"Ø§Ø«":1881,"ĠÙĤÙħ":1882,"Ø±Ø¨Ùĩ":1883,"ĠÚ¯Ø²Ø§Ø±Ø´":1884,"ĠØ§ÙĨØ±ÚĺÛĮ":1885,"ĠÙĩØ²":1886,"ĠÙģÙĦØ³":1887,"ĠÚ©ÛĮÙĦÙĪÙħØªØ±ÙħØ±Ø¨Ø¹":1888,"ĠØ´Ø´":1889,"ĠÙĩÙĨØ±Ù¾ÛĮØ´Ùĩ":1890,"ĠØ¨Ø®":1891,"ĠÙģÛĮÙĦÙħÛĮ":1892,"ÙĪØ¹":1893,"ĠÙħØŃÛĮ":1894,"ĠØ·Ø±ØŃ":1895,"as":1896,"ĠØ³Ø§ÙĨ":1897,"ÙĨØ±":1898,"ĠÙħØ´Ú©ÙĦ":1899,"ÙĤØ¨":1900,"ĠØ¯ÛĮØ¯Ùĩ":1901,"ĠØ´Ø§Ø®":1902,"ĠÙħÙĪØ±":1903,"ĠØ³ÛĮØ§Ùĩ":1904,"ĠÙģØ±ÙĪØ´":1905,"ĠØ´Ø±ÙĤ":1906,"ĠÙĩØ§":1907,"ĠØ§ÙģØºØ§ÙĨ":1908,"ÙħØ¹":1909,"ĠÙĨØ±Ùħ":1910,"ĠØ§Ø¹Ø¶Ø§ÛĮ":1911,"ĠØ¯ÙĨØ¨Ø§ÙĦ":1912,"ĠØ¨Ø®Ø´ÛĮ":1913,"Ø²Ø§Ø±Øª":1914,"ĠÙħÙĤØ§Ø¨ÙĦ":1915,"ĠØ¨ÙĨØ§Ø¨Ø±":1916,"ĠÛ±Û¹Û²":1917,"ĠØ´ÛĮÙħÛĮØ§ÛĮÛĮ":1918,"ĠÛ²Û²":1919,"ĠÙħÛĮØ¯Ø§ÙĨ":1920,"ĠÙĪØ§ØŃ":1921,"ĠØ®ÙĪØ¯Ø±ÙĪ":1922,"ĠÙħØ§Ø¯Ø±":1923,"Ø¬Ø§Ùħ":1924,"ĠØ´ÙĪÙĨØ¯":1925,"ĠÚ¯Ø±Ùħ":1926,"ĠØ±ÙĪØ²ÙĨØ§ÙħÙĩ":1927,"ĠÙĪØ²Ø§Ø±Øª":1928,"ĠØ¹Ø±Ø¨ÛĮ":1929,"ĠØ³Ø±Ø¹Øª":1930,"ĠØ§Ø³Ú©":1931,"ĠÚĨÙĨØ¯ÛĮÙĨ":1932,"Ø§ÙĦÙĦÙĩ":1933,"Ø¢ÙĨ":1934,"ĠÚ¯ÙĪØ´":1935,"ÚĺÙĨ":1936,"ĠØ´Ø®ØµÛĮØª":1937,"ip":1938,"ĠÙħØ«Ø§ÙĦ":1939,"ĠÙģØ±Ø§ÛĮ":1940,"ÙĨØ¯Ø±":1941,"ĠÙħØ¯Ø±Ø³Ùĩ":1942,"ĠØ´Ø±Ø§ÛĮ":1943,"ĠÛ²Û´":1944,"ĠØ¯Ø³ØªÙĩ":1945,".Â»":1946,"ĠØ¹ÙĦØ§ÙĪÙĩ":1947,"ĠÙģØ±ÙĩÙĨÚ¯ÛĮ":1948,"ĠÛ±Û¹Û³Û":1949,"ĠØŃØ±Ùģ":1950,"Ø¨ÛĮÙĨ":1951,"ÙĪØ±ÛĮØª":1952,"el":1953,"Ø³ÙĪØ¨":1954,"ĠØªØ±ØªÛĮØ¨":1955,"ĠØ³Ø¯Ùĩ":1956,"Ú¯ÙĪÙĨÙĩ":1957,"Ú¯ÙĪÛĮ":1958,"Ø§ÙĩØ¯":1959,"ĠØ§Ø¨ØªØ¯Ø§":1960,"ĠÙĨÚ¯Ùĩ":1961,"ÙĦÛĮÙĨ":1962,"Ø¬Ø§ÙĨ":1963,"ĠÙ¾Ø§ÛĮÛĮÙĨ":1964,"ĠÙĪØ³":1965,"ĠÙĦØ¨":1966,"ĠÙ¾Ø°ÛĮØ±":1967,"ĠÚ©ÙĦØ§Ø³":1968,"Ùª":1969,"ÙĪØ§Ø¹":1970,"tr":1971,"ÙĪÙĪ":1972,"ĠÙħØ¹Ø±ÙģÛĮ":1973,"ĠØ¨Ø±Ø®ÙĪØ±Ø¯":1974,"ĠÙģØ§ØµÙĦÙĩ":1975,"ĠÙħÛĮØ²Ø§ÙĨ":1976,"ĠN":1977,"ĠÙĩÙħÚ©Ø§Ø±ÛĮ":1978,"ĠØªØ¦":1979,"ĠØ®Ø§Ø·Ø±":1980,"ĠÙħÙĨØ§Ø¨Ø¹":1981,"ĠØ®Ø§ÙĨÙĪØ§Ø±":1982,"ĠÛĮÙĩ":1983,"ÙĪÛĮÙĦ":1984,"Ø±ØŃ":1985,"ĠÙħØ®Ø§ÙĦ":1986,"ĠØ³Ø§Ø¹Øª":1987,"ĠØ¹Ø¯":1988,"ĠØ§Ø³ØªØ§Ø¯":1989,"ĠÙĦÙĩØ³ØªØ§ÙĨ":1990,"ĠØ³ÙĪØ¦":1991,"ĠÙģØ±Ø²ÙĨØ¯":1992,"ĠØ§ÙĤØªØµØ§Ø¯ÛĮ":1993,"ÙĨØ³":1994,"ĠÙħØ¯ÛĮØ±":1995,"Ø¨Ø¯":1996,"ÙĪÚĨ":1997,"ĠØ®Ø¨Ø±":1998,"ĠÙħÙĪØ¶ÙĪØ¹":1999,"ĠÙĪØ³ÛĮÙĦÙĩ":2000,"ĠØ¢Ø®Ø±ÛĮÙĨ":2001,"ĠÚ©Ø´ØªÙĩ":2002,"ĠØ§ÙĪÙĦÛĮÙĩ":2003,"ĠÚ¯Ø°Ø´ØªÙĩ":2004,"ĠØ³Ù¾Øª":2005,"ĠØ§ØµÙģÙĩ":2006,"ĠØ±Ø§Ø¨Ø·Ùĩ":2007,"ĠØ±ÙĪØŃ":2008,"ĠØ§ØŃØªÙħØ§ÙĦ":2009,"ĠÛ±Û¹Û±Û":2010,"ÙĪØ¬":2011,"ĠØªÙĦØ§Ø´":2012,"ĠÙħØ±ØŃÙĦÙĩ":2013,"ĠØ¨ÙĩØ±Ùĩ":2014,"ĠØ§Ø®ØªÙĦ":2015,"ĠÙģÙĤØ·":2016,"ĠØ§Ø³Ùħ":2017,"ĠØ¢Ø³":2018,"ĠØªØ±Ø§ÙĨÙĩ":2019,"Ø§ØµÙĦ":2020,"ĠØ¹ÙĩØ¯Ùĩ":2021,"Ø§ÙĨØ§":2022,"ĠØ¬Ø±":2023,"ĠÙĪØ§ÚĺÙĩ":2024,"ĠØ³Ù¾ØªØ§ÙħØ¨Ø±":2025,"ĠÙĤØ¯ÛĮÙħÛĮ":2026,"Ø±ÙģØª":2027,"ĠØ±Ø§Ø³Øª":2028,"ÙĪÛĮÙĨ":2029,"ĠØ¯Ø³ØªÙĪØ±":2030,"ÙħÛĮÙĦ":2031,"ĠØ¨Ø§Øº":2032,"ĠØºØ°":2033,"ĠØ¬Ø¯":2034,"ĠØ§ÙĤØ¯Ø§Ùħ":2035,"ĠØ¢ØªØ´":2036,"ĠÛ±Û±Û":2037,"ĠØ¹ÙĦØª":2038,"ĠØ³ÛĮÙħ":2039,"ĠØ¸Ø§Ùĩ":2040,"ĠÙħÙĪØªÙĪØ±":2041,"ĠØ±ÛĮØ§Ø³Øª":2042,"ĠÙĦÛĮÚ¯":2043,"ĠÙħØ¯ÛĮØ±ÛĮØª":2044,"ĠØ³ÙģØ±":2045,"ĠØ¹Ø±Ø¶":2046,"ĠÙħØ³ÛĮØ±":2047,"ĠØ¨Ø§ÙĤÛĮ":2048,"ĠØ±Ø´Ø¯":2049,"ĠØ¯Ú©ØªØ±":2050,"ĠÙħØŃÙĦÛĮ":2051,"Ø¢Ùħ":2052,"ĠÙħØ¯Ø§ÙĦ":2053,"ĠØªÙ¾Ùĩ":2054,"ĠÙħÙĩÙĨØ¯":2055,"ĠØªØµÙħÛĮÙħ":2056,"ĠÚ©Ø´Ø§ÙĪØ±":2057,"Û±Û°":2058,"ĠØ§ÙĨØªØ®Ø§Ø¨Ø§Øª":2059,"ion":2060,"Ø§ÙĨÙĪ":2061,"ĠÛ±Û±":2062,"ĠØ¢Ùģ":2063,"ĠÙħØ´ÙĩÙĪØ±":2064,"âĢ¦":2065,"ĠÙħØ¹ÙĨÛĮ":2066,"ĠØ¨Ø¯ÙĨ":2067,"ĠØ¹Ø±Ø¨":2068,"ĠØ§ØºÙĦØ¨":2069,"Ú©Ø´":2070,"ĠØ±ÙĪÙħ":2071,"Ú¯Ø°Ø§Ø±":2072,"Ú¯ÙĨ":2073,"ĠÙĩÙĪØ§":2074,"ĠØ¯Ø§Ø®ÙĦÛĮ":2075,"ĠÙ¾Ùĩ":2076,"ÙĦÛĮØª":2077,"Ø±ÛĮØ¨":2078,"ĠÙ¾Ø®Ø´":2079,"Ø¯Ø§Ø´Øª":2080,"ĠØ§ÙĦØ¨":2081,"Ø²ÙĨ":2082,"ĠØ§ÛĮØ³Øª":2083,"Ø§Ø²Ùħ":2084,"ĠØªÙĪØ§ÙĨØ³Øª":2085,"ĠÚ©ÙĪØ±":2086,"ĠØ¯Ø§Ø¯ÙĨ":2087,"Ø§ÛĮØ§ÙĨ":2088,"ÙĪÛĮØ§ÙĨ":2089,"ch":2090,"ÚĨØ±":2091,"¹Û°":2092,"ĠØ·Ø¨ÙĤ":2093,"ĠØ§ÙħØ§Ùħ":2094,"Ú¯Ø§Ø±":2095,"ĠØŃØ§ÙĦÛĮ":2096,"ĠÙģØ±Ø§ÙĨØ³ÙĪÛĮ":2097,"Ø¯ÙĩÛĮ":2098,"ĠÙĩÙĪØ§ÛĮÛĮ":2099,"Ø±ÛĮØ´":2100,"Ø§ÙĩÙħ":2101,"ĠÛ±Û³Û·":2102,"ĠÚ©Ø§Ø±Ø¨Ø±Ø¯":2103,"ĠÙĪØ±Ø²Ø´":2104,"ĠÙħØ§Ø±Ø³":2105,"Ø®ØªÙĩ":2106,"il":2107,"ĠÙ¾Ø§Ú©":2108,"om":2109,"ÙĪØ±Ø§ÙĨ":2110,"ĠØ³Ø±Ø¯Ùĩ":2111,"ĠÙĪØ¶":2112,"ĠØ¬Ø¯Ø§":2113,"ĠØŃØ³ÙĨ":2114,"ĠÙħÙģ":2115,"ĠØ³Ø±Ø²ÙħÛĮÙĨ":2116,"ĠÙħÙĨØª":2117,"ĠÙĩÙĨØ±ÛĮ":2118,"ĠÙĪØ²ÛĮØ±":2119,"ĠØ§Ú©ØªØ¨Ø±":2120,"Ú©Ø§":2121,"ØºØ±":2122,"ĠØ®ÙĪÙĨ":2123,"ĠÙĪÛĮÚĺ":2124,"Û±Û³Û":2125,"ĠØ¨Ø§Ø¨":2126,"Ø´Ú©Ø¯Ùĩ":2127,"ĠØ¯Ø§Ø®ÙĦ":2128,"ĠÙĨÙĩØ§ÛĮ":2129,"ĠØ§Ø¶":2130,"ÙĦØ±":2131,"ĠØ¯Ø±Ú¯Ø°Ø´Øª":2132,"Ø§ÙĩØ§":2133,"ĠÙħØŃØ¯ÙĪØ¯":2134,"ÙħÛĮÙĨØ§":2135,"ĠØ§ÙģØºØ§ÙĨØ³ØªØ§ÙĨ":2136,"ĠÙħØ°Ùĩ":2137,"ĠÙħÙĩØ±":2138,"ĠÛ³Û°":2139,"ĠØ¬ÙĦÙĪ":2140,"ĠÙĦØŃ":2141,"ĠØ§ÙĨØªÙĤØ§ÙĦ":2142,"ĠÙħØŃÙĦÙĩ":2143,"ĠÚ¯ÛĮØ§Ùĩ":2144,"ĠØ¬Ø²ÛĮØ±Ùĩ":2145,"ĠÙħØ«ÙĦ":2146,"ĠÙĤÙĩØ±ÙħØ§ÙĨÛĮ":2147,"ÙģØ§ÙĤ":2148,"ĠØ¢ÙĦÙħØ§ÙĨÛĮ":2149,"Ú¯ÙĪÛĮØ¯":2150,"ĠÙģØ±Ùħ":2151,"ĠØªØ¹Ø±ÛĮÙģ":2152,"ĠØ³ÙģÛĮØ¯":2153,"ĠÚ©ÙĪØªØ§Ùĩ":2154,"ĠÙħØªÙĨ":2155,"ĠØ§ØŃÙħØ¯":2156,"ĠØ´Ø±Ø§ÛĮØ·":2157,"ĠØ±Ø®":2158,"de":2159,"ĠØ¯ÛĮÙĨ":2160,"ĠØ¢Ø²ÙħØ§ÛĮØ´":2161,"ĠÚĺØ§ÙĨÙĪÛĮÙĩ":2162,"ÙħØ¨":2163,"ÙĤÛĮÙħ":2164,"ĠÚ©Ø¯":2165,"ĠØ¨Ø§Ø²Ú¯Ø´Øª":2166,"edia":2167,"ĠÙħØµØ±Ùģ":2168,"Ø§ÙĨÛĮØ§ÛĮÛĮ":2169,"ĠÙĪÛĮÚĺÚ¯ÛĮ":2170,"ØªØ¨Ùĩ":2171,"ĠØ¬ÛĮ":2172,"ĠØŃÙħØ§ÛĮØª":2173,"ĠØ§ÙĨÙĪØ§Ø¹":2174,"Ø¨Ø§Ø´ÙĨØ¯":2175,"ĠÙĨØ¸Ø±ÛĮÙĩ":2176,"Ù¾Ø±Ø¯Ø§Ø²":2177,"ĠØ§ÙĪØª":2178,"ĠØ¬ÙħØ¹":2179,"ĠÙħÙĨØ¸ÙĪØ±":2180,"ĠØ¢ÙĤ":2181,"ĠÙħÛĮØ±Ø²":2182,"ĠØ®ÙĪØ´":2183,"ĠÙ¾Ø§Ø¯Ø´Ø§Ùĩ":2184,"ĠÙħØŃÛĮØ·":2185,"ĠÙ¾Ø²Ø´Ú©ÛĮ":2186,"ĠÙħØ³Ø§Ø¨ÙĤÙĩ":2187,"ĠØ´ÙĨØ§Ø³":2188,"ĠØ³Ø§ÙĦÚ¯ÛĮ":2189,"Ø§Ø±Ø§Øª":2190,"ĠØ§Ø¬Ø±Ø§ÛĮ":2191,"ĠØªØ±Ø¬ÙħÙĩ":2192,"ĠØªÛĮØ±":2193,"ĠØ¯Ø±Ø¢ÙħØ¯":2194,"ĠÙħØ³Ø¬Ø¯":2195,"ĠØ¨Ø¹Ø¶ÛĮ":2196,"ĠÙħØ·ÙĦÙĤ":2197,"ĠÙħÙĪÙĦ":2198,"Ø©":2199,"ÙģÛĮÙĦÙħ":2200,"ĠÙħØŃØ³ÙĪØ¨":2201,"ĠÚ©ÛĮÙĦÙĪÙħØªØ±ÛĮ":2202,"ÙħØ§ÙĦ":2203,"ĠÙħÙĤØ¯Ø§Ø±":2204,"ĠØªÙĤØ±ÛĮ":2205,"ĠÙĩØ¬Ø±ÛĮ":2206,"ĠØ³Ø±Ø¨":2207,"Ø¯ÛĮÚ¯Ø±":2208,"ĠØ¹ÙĦÛĮÙĩ":2209,"ĠØ¯Ø±Ø®Øª":2210,"ĠØªØ§Ú©ÙĨÙĪÙĨ":2211,"ĠØ´ÙĩØ±ÙĩØ§ÛĮ":2212,"ĠØ¨ÙĦÙĨØ¯":2213,"ĠÙģØ¶":2214,"ĠÙ¾Ø±ÙĪÚĺÙĩ":2215,"ĠØ®ÛĮØ§Ø¨Ø§ÙĨ":2216,"Ø¨ÛĮÙĩ":2217,"ĠØ¯ÙĪÙħÛĮÙĨ":2218,"ĠØ¨ÙĨØ§Ø¨Ø±Ø§ÛĮÙĨ":2219,"ĠØ§ØªÙģØ§ÙĤ":2220,"Ø´ÙĨØ§Ø³":2221,"ĠØªØµÙĪÛĮØ±":2222,"ĠØ¢Ø´":2223,"ĠØ¨Ø±Ø§Ø¯Ø±":2224,"ĠØ§Ø³Ù¾Ø§ÙĨÛĮØ§":2225,"ĠØªØµÙĪÛĮ":2226,"ĠÙĪØ¨":2227,"ĠØ¯Ø³":2228,"ĠÚ¯ÛĮÙĦ":2229,"ĠØ²ÛĮØ±Ø§":2230,"ĠØ¹ÙħÙĦÛĮØ§Øª":2231,"am":2232,"ĠÙĨØ¬":2233,"Ø¨Ø§Øª":2234,"Ø§Ø®Ø±":2235,"ĠØ¨Ø§ÙĨÚ©":2236,"ĠØ§ØµÙģÙĩØ§ÙĨ":2237,"Ø¯ÙħØ§Øª":2238,"ĠØ¨Ø§Ø³ØªØ§ÙĨ":2239,"Ø´ÙħØ§Ø±":2240,"Ø§Ø³ÛĮÙĪÙĨ":2241,"Ø§ÙĦÛĮØ§ÛĮÛĮ":2242,"ĠÙĩÙħØ³Ø±":2243,"ØºØ§ÙĦ":2244,"ĠØ³Ø§Ø¨ÙĤ":2245,"ĠÛ²Û¶":2246,"Ø¦ÛĮ":2247,"ĠØ®Ø§Ø±Ø¬ÛĮ":2248,"Ú¯Ø±ÙģØª":2249,"ĠÙĨÙĤØ·Ùĩ":2250,"ÙĪÙĨÚ¯":2251,"ĠØ§Ø³ØªØ§ÙĨØ¯":2252,"ĠÚ©Ø§ÙĨØ§Ø¯Ø§":2253,"ĠØ§ÙĨØ¬ÙħÙĨ":2254,"ĠØ³Ø§Ø®ØªØ§Ø±":2255,"ĠØ§Ø·Ø±Ø§Ùģ":2256,"Ø§ÙĤÙĩ":2257,"ing":2258,"ĠØ¯Ø±ÙĪÙĨ":2259,"ÙĦÛĮÙħ":2260,"Ø§ÙħØ§":2261,"ØªÙĤØ¯":2262,"Ġc":2263,"Ø¦Øª":2264,"ĠØ´ÙĪØ±ÙĪÛĮ":2265,"ÙĨÙĪÛĮ":2266,"ĠÙģØ´Ø§Ø±":2267,"ĠÚ©Ø±Ùĩ":2268,"ĠØ¨ÛĮØ³Øª":2269,"ht":2270,"ĠØ¹ÙĪ":2271,"ĠÚ¯Ø³ØªØ±Ø´":2272,"ĠØ¢ÙĪØ±ÛĮÙĦ":2273,"ĠÙģØ§Ø±Ø³":2274,"ĠØ¯Ø±ÙħØ§ÙĨ":2275,"ÙĨÛĮØ§":2276,"ÙħÙĨØ³ØªØ§ÙĨ":2277,"ĠÚ¯Ø³ØªØ±Ø¯Ùĩ":2278,"ĠØ§ÙħÙĪØ±":2279,"Ø´Ø§ÙĩÛĮ":2280,"Ø¨Ø±Ø§ÙĨ":2281,"ĠØ¹Ø§ÙĦÛĮ":2282,"ĠØ³Ø¹":2283,"ĠÙ¾Ø´Øª":2284,"of":2285,"ĠØ¨ÙĪØ±":2286,"Ú¯Ø§ÙĩÛĮ":2287,"ĠÛ±Û³Û¶":2288,"Ø¹ÛĮÛĮÙĨ":2289,"ĠÙĨÙĪØ§ÙħØ¨Ø±":2290,"ĠØ®ÙĪØ±Ø´ÛĮØ¯ÛĮ":2291,"ÙĨÚ¯ÛĮ":2292,"Ø°ÛĮ":2293,"Ø§Ø³Ø±":2294,"ĠØªØ§Ø¬":2295,"ĠÙĪÙĤØªÛĮ":2296,"ĠÙħØµØ±":2297,"ĠÙħÙĪØ¬Ø¨":2298,"ĠØ³Ø±ÛĮØ§ÙĦ":2299,"ÙĩÛĮ":2300,"ĠØ¨Ø³ØªÙĩ":2301,"ĠØªØ¹ÛĮÛĮÙĨ":2302,"ĠØ±ÙĪØ¯Ø®Ø§ÙĨÙĩ":2303,"ĠØ±ÙħØ§ÙĨ":2304,"Ø§ÙĨØ²":2305,"ĠØŃÙĪ":2306,"ĠØ¯ÙģØ§Ø¹":2307,"ĠØ§ÙĦÙħÙ¾":2308,"Ø²ÙħØ§ÙĨ":2309,"ĠØ²ÛĮØ³Øª":2310,"Ø¨Ø±Ø¯Ø§Ø±ÛĮ":2311,"ĠØ§Ø±ÙħÙĨÛĮ":2312,"ĠÚ©Ø´Ø§ÙĪØ±Ø²ÛĮ":2313,"ĠÙĤÙĩØ±ÙħØ§ÙĨ":2314,"ØªØ±Ú©":2315,"ĠØ¯Ø³Ø§ÙħØ¨Ø±":2316,"Ú¯Ø§ÙĨÙĩ":2317,"ĠÙĨÛĮÙħÙĩ":2318,"ĠÙģÛĮØ²":2319,"ĠÙħØ§ÙĩÛĮ":2320,"ĠØ±ÙģØªÙĩ":2321,"ĠØ´Ø¹Ø±":2322,"ĠÚ©ÙħØªØ±":2323,"ĠÚ¯ÙĪÙĨ":2324,"ĠØ³Ø±Ø§ÙĨ":2325,"ĠØ²ÛĮØ§Ø¯":2326,"Ø¹ØªÛĮ":2327,"ĠØ§Ø¯Ø§Ø±Ùĩ":2328,"ÛĮØ¯ÙĨ":2329,"ĠØªÛĮØ±Ùĩ":2330,"ĠØ³Ø±ÙħØ§ÛĮÙĩ":2331,"Ø§ÙĩØ¯Ùĩ":2332,"ĠØ§Ø³Ø±":2333,"ĠØµÙģØŃÙĩ":2334,"Ø¨Ø±Ú¯":2335,"ĠØ§ÙĦØ¨ØªÙĩ":2336,"Ø®ÙĪØ§Ø³Øª":2337,"us":2338,"ÙĪÙĦÛĮÙĨ":2339,"ĠÛ²Û·":2340,"Ø§Ø¦ÙĦ":2341,"ĠÙħÛĮÙĦØ§Ø¯":2342,"ĠÙħÙĤØ¯":2343,"Ø¸ÛĮÙħ":2344,"ĠÛ°":2345,"ĠÙħØªØ±ÛĮ":2346,"ĠÙģÙĩØ±Ø³Øª":2347,"ĠÙĩÛĮØ¦Øª":2348,"ĠØ³ÙĨØª":2349,"ĠÙĨØ¨Ø±Ø¯":2350,"ĠØ¯ÙĪØ¨Ø§Ø±Ùĩ":2351,"ĠØ³ØªØ§Ø±Ùĩ":2352,"00":2353,"ĠÚ¯Ø§Ø²":2354,"ĠÙħØ§Ø¯":2355,"Ø§ÙĩØ§ÛĮ":2356,"Ú©Øª":2357,"ØªØŃ":2358,"Ø§ÙģØ²Ø§Ø±":2359,"ĠØ³ÙĦÙĪÙĦ":2360,"ĠØ¢Ø²Ø§Ø¯ÛĮ":2361,"ĠÚĺÙĪØ¦ÛĮÙĩ":2362,"ÙĨØ¸":2363,"ĠØ´ÙĪ":2364,"Ø±ÛĮÙħ":2365,"Ø¯Ø§Ø±Ø§ÙĨ":2366,"ĠØ±ÙĪØ§ÙĨ":2367,"ĠÙģÙĪØ±ÛĮÙĩ":2368,"ĠØªØ±Ú©ÛĮÙĩ":2369,"ĠÙħØ§ÙĨØ¯":2370,"ĠØ®ÙĪØ§Ø³Øª":2371,"Ġt":2372,"ĠÙĨØ§ÙħÛĮØ¯Ùĩ":2373,"ĠÙĨØ§ÙħÙĩ":2374,"ĠÙ¾ÚĺÙĪÙĩØ´":2375,"ĠÙ¾Ø´":2376,"ĠÙĩÙĨÙĪØ²":2377,"ĠÙĨÙģØª":2378,"ĠÚ©Ø§ÙĦÛĮ":2379,"ĠÚĺÙĪØ¦ÙĨ":2380,"Ø³ØªÚ¯ÛĮ":2381,"Ø¯ÙĦ":2382,"ĠØ³Ø§ÙĦÙĩ":2383,"ĠÙ":2384,"ĠÙħØ¬ÙħÙĪØ¹":2385,"ĠÚ¯ÙĪ":2386,"Ø´ÙĤ":2387,"ĠÙĩÙĨØ±Ùħ":2388,"ac":2389,"ĠÚ¯ÙħÛĮÙĨØ§":2390,"ĠØ®Ø±Ø§Ø³Ø§ÙĨ":2391,"ĠØ¬Ø´ÙĨÙĪØ§Ø±Ùĩ":2392,"ĠÙħÛĮØ±Ø²Ø§":2393,"Ú©Ùħ":2394,"ĠÙħØ§Ø´":2395,"ĠÙĩØ²ÛĮÙĨÙĩ":2396,"ĠÙ¾Ø±ÙĪØª":2397,"Ø¨Ø´":2398,"ĠØªØ³":2399,"Ø§ØŃÙĦ":2400,"Ø§Ú©ÙĨØ´":2401,"ĠØ¢ÙģØ±ÛĮÙĤ":2402,"ĠÙħÙĨØ¬Ø±":2403,"ĠØ¨Ø¯Ø³Øª":2404,"Û±Û²":2405,"ĠØ§ÙħÙĨÛĮØª":2406,"Ø¢ÙĪØ±":2407,"ĠØ¢Ø¨ÛĮ":2408,"ĠØ§ÙĦÙħÙ¾ÛĮÚ©":2409,"ĠØ²Ø±":2410,"ÙĦØ§ÙĤ":2411,"Ø§ÙĪÙĨ":2412,"ĠÙħØ¤Ø³":2413,"ÙĤØ§ÙĨ":2414,"ĠV":2415,"ĠÙĨØ¨ÙĪØ¯":2416,"ĠØ´Ø§Ø¹":2417,"ĠØ§ÛĮÙĨØªØ±":2418,"ĠØŃÙħÙĦ":2419,"ĠØ§ÙħÛĮØ±":2420,"ØµØ¨":2421,"ĠÙħØªÙģØ§ÙĪØª":2422,"ĠÙħØ¹ÙħØ§Ø±ÛĮ":2423,"ĠÙ¾Ø§Ø±Ú©":2424,"ĠØ§Ø¯Ø¨ÛĮØ§Øª":2425,"ĠÙĨÛĮÚ©":2426,"ĠÛ±Û³Û´":2427,"ĠØ¢Ø¨Ø§Ø¯":2428,"ĠÙĪØ§ØŃØ¯":2429,"ĠØ¯Ø§ÙĨØ´Ú©Ø¯Ùĩ":2430,"ĠÙħØªØ¹":2431,"ÙħÛĮØ±":2432,"ĠÙĨÙĪØ¹ÛĮ":2433,"ĠÙ¾ÙĪÙĦ":2434,"Ø§Ú©Ùħ":2435,"Ø³Ø§ÛĮ":2436,"Ø¨Ø¹":2437,"ĠØ®Ø¯ÙħØ§Øª":2438,"ĠØ§ÛĮØªØ§ÙĦÛĮØ§ÛĮÛĮ":2439,"ĠÚ©Ø§Ø±Ú¯Ø±Ø¯Ø§ÙĨ":2440,"Ø§ÙģÙĩ":2441,"ĠØ§ÙħØ±ÙĪØ²Ùĩ":2442,"Ø²Ø§Ø±ÛĮ":2443,"ĠØ±Ø¶":2444,"ĠØ§ØµØ·":2445,"ĠØ¨Ø²Ø±Ú¯ØªØ±ÛĮÙĨ":2446,"ĠØªÙĤØ±ÛĮØ¨Ø§":2447,"ĠÙĨØ¸Ø§Ùħ":2448,"ĠØ´Ø±ØŃ":2449,"ĠÙĨØ±":2450,"ĠÙĩÙĨÚ¯Ø§ÙħÛĮ":2451,"ĠÙħØ³ÙĦÙħØ§ÙĨ":2452,"Ú¯ÛĮØ±ÙĨØ¯":2453,"ĠÛ²Û°Û±Û±":2454,"ĠÙ¾ÛĮØ´ÙĨÙĩ":2455,"ĠÙħØ¨Ø§Ø±":2456,"Ø¨ÙĪ":2457,"ĠÙĤØ§Ø¬":2458,"ĠÙĨÙħØ§ÛĮÙĨØ¯Ùĩ":2459,"Ø£Ùħ":2460,"ĠÙ¾ÛĮÙĪØ³Øª":2461,"ĠØªÚ©ÙĨ":2462,"Ø§Ø±Ø§":2463,"Ø§Ø¦ÛĮÙĦ":2464,"ĠØ¶Ø¯":2465,"ĠØ±Ø§Ø¯ÛĮ":2466,"ĠÛĮÙĩÙĪØ¯ÛĮ":2467,"ÙĦØ²":2468,"ĠØ§Ø®ØªÛĮ":2469,"Ø§ÙģÙĤ":2470,"ĠØ¯Ø±ÛĮØ§ÛĮÛĮ":2471,"ur":2472,"op":2473,"ĠØ§Ø±ÙħÙĨØ³ØªØ§ÙĨ":2474,"ĠØªØ¯Ø±ÛĮ":2475,"ĠÚ©Ø§Ø±ÛĮ":2476,"ĠØ³ÙĤ":2477,"ĠØ¯Ø§Ø¯ÙĨØ¯":2478,"ĠÙħÛĮØ±":2479,"ĠÙħØ³Ø¦ÙĦÙĩ":2480,"ĠÙĪØ§ÙĦ":2481,"ĠÙħØ±Ø§Ø³Ùħ":2482,"ĠÛĮÚ©Ø¯ÛĮÚ¯Ø±":2483,"ĠÙĪÙĤØª":2484,"ĠØ®ÙĦÛĮ":2485,"ĠØ³Ù¾Ø§Ùĩ":2486,"ĠØ³Ø§Ø¯Ùĩ":2487,"ĠØ§ÙħÙ¾Ø±Ø§ØªÙĪØ±ÛĮ":2488,"ĠØ¹ÙħØ±":2489,"ĠÙĤØ·Ø¹":2490,"ĠØ§ÙĤØªØµØ§Ø¯":2491,"Ø¦ÛĮÙĨ":2492,"ĠØªÙĦÙģ":2493,"ÙĪÛĮÙĪØ±Ú©":2494,"Ø§Ø±Ø´":2495,"et":2496,"ĠÙħÙĤØ§":2497,"ĠÙħÙĨØ§Ø³Ø¨":2498,"ĠÙĦÙĨØ¯":2499,"ĠÙĩØ³ØªÙĩ":2500,"ĠØ§Ø®ØªØµ":2501,"ĠØ®ÙĪØ§ÙĨÙĨØ¯Ùĩ":2502,"Ø³Ù¾":2503,"Ø¢ÛĮ":2504,"ĠØ¬ÙĨØ³ÛĮ":2505,"ĠÙħØ±ØªØ¨":2506,"ĠØ§Ø¬Ø§Ø²Ùĩ":2507,"ĠÙħØ³ØªÙĤÛĮÙħ":2508,"ĠÙ¾Ø¯Ø±Ø´":2509,"Ø¢ÙĪØ±Ø¯":2510,"ĠØ§ÙĪØ§Ø®Ø±":2511,"ĠÙħØ¹ÙĨØ§ÛĮ":2512,"ĠÙĦÙĪ":2513,"ĠÙĨÙĩØ§ÛĮØª":2514,"ĠØ¢Ø±Ø§Ùħ":2515,"ĠÙĨØ´Ø¯Ùĩ":2516,"ĠÙģØ±Ø§ÛĮÙĨØ¯":2517,"ĠØ´ÛĮØ®":2518,"ĠØ¨Ø¹Ø¯ÙĩØ§":2519,"id":2520,"Ø¨Ø§Ø²":2521,"and":2522,"ĠÙģØ±Ø§":2523,"ĠÙ¾ÛĮÚĨ":2524,"ÙĪØµÛĮ":2525,"ĠØ¯ÙĦØ§Ø±":2526,"ĠÚ©Ø§Øª":2527,"Ø¢ÙĪØ±ÛĮ":2528,"Âł":2529,"ĠØ³ÛĮÙĨÙħØ§":2530,"Û²Û°":2531,"ĠØªÙħØ§ÙħÛĮ":2532,"ÙĤÙĦØ§ÙĦ":2533,"ĠØ¯ÙĪÙĦØªÛĮ":2534,"ĠÚĨÙĩØ§Ø±Ùħ":2535,"Ø¬Ø²":2536,"Ú¯ÙĦ":2537,"ĠØ·Ø¨ÙĤÙĩ":2538,"ĠÙĪÛĮÙĦ":2539,"ĠÙħÙĪÙĤØ¹ÛĮØª":2540,"ĠØ´Ø®ØµÛĮ":2541,"ĠÙģØ±Ø³Øª":2542,"ĠØ§Ø³ØªØ±Ø§ÙĦÛĮØ§":2543,"ĠÙ¾Ø§Ø³Ø®":2544,"ĠÙĤØªÙĦ":2545,"ĠÙĨÛĮÙĪÛĮÙĪØ±Ú©":2546,"ĠÙħØ¯ØªÛĮ":2547,"ĠÚ©Ø´Øª":2548,"ĠÙħØ±Ø²":2549,"ĠØŃØ§ØµÙĦ":2550,"os":2551,"ĠØ§Ø³ØªÙĤÙĦØ§ÙĦ":2552,"ĠÙĪØ¶Ø¹ÛĮØª":2553,"ĠØ³ÙĪØ±":2554,"ĠÙĨÙĤÙĦ":2555,"ĠØ²ÙĨØ¯":2556,"ĠÙĨØ²Ø¯ÛĮÚ©ÛĮ":2557,"ĠØ¹ÙĦÙħ":2558,"ĠØ¹Ø§ÙħÙĦ":2559,"ĠØ¨Ø§Ø¯":2560,"ĠØ³ÛĮÙĦ":2561,"ĠÙħØ´ØªØ±Ú©":2562,"ĠØ§ÙħØ±":2563,"ĠÚ©Ø³ÛĮ":2564,"ow":2565,"ĠØ¨Ø±Ø¯Ùĩ":2566,"ĠØ³Ø¨Ø¨":2567,"ĠØŃØ±ÙģÙĩ":2568,"ĠÙħÙĪÙĨ":2569,"ĠØ§ÙĦÚ©ØªØ±ÙĪÙĨ":2570,"ĠØ¹Ø¶":2571,"ĠÛ²Û±":2572,"ĠØ®ÙĪØ¯Ø´":2573,"ĠÙĪØ§Ú©ÙĨØ´":2574,"ĠØ§ØµÙĦ":2575,"ĠÙ¾Ø§Ø¯Ø´Ø§ÙĩÛĮ":2576,"ĠØ®Ø¯Ø§":2577,"ĠÙĪØŃ":2578,"ÙĪÙĦÙĪÚĺÛĮ":2579,"ĠØ³Ø®Øª":2580,"ĠØ±ÙĤØ§Ø¨Øª":2581,"¸Û°":2582,"Ø§Ø³ØªØ§ÙĨÛĮ":2583,"ĠÙħØªÙĪÙĦØ¯":2584,"ĠØŃØ°":2585,"ĠÙħØ´Ø§ÙĩØ¯Ùĩ":2586,"ĠØ¹ÙĦØ§ÙĤÙĩ":2587,"ØªØ³":2588,"ĠØ¨Ø¹Ø¯ÛĮ":2589,"ĠØ¬Ø±Ùħ":2590,"ĠØ±ØªØ¨Ùĩ":2591,"ir":2592,"ĠÙħØ£Ùħ":2593,"ĠÛ²Û°Û±Û²":2594,"ĠÙħØ³ØªÙĤÙĦ":2595,"ĠØ¯ÙģØªØ±":2596,"ĠK":2597,"Ø¨Ú©":2598,"ĠÙĨØª":2599,"ØºØ±Ø§ÙģÛĮ":2600,"ĠÛ²Û³":2601,"Ø±ÛĮØ§ÛĮÛĮ":2602,"ĠØ¨ÙĦÚ©Ùĩ":2603,"ĠÙģØ¶Ø§ÛĮ":2604,"ĠÙĤØ±Ø§Ø±Ø¯":2605,"ĠØ²ÙĨØ¯Ø§ÙĨ":2606,"ĠÙ¾ÛĮØ±ÙĪØ²ÛĮ":2607,"Ø§Ø±ÙĩØ§ÛĮ":2608,"Ø§Ø¨Ø·":2609,"ĠÚ¯Ø±ÙģØªÙĨ":2610,"ikip":2611,"Ġs":2612,"ÛĮØ³ÛĮ":2613,"ĠÚ¯ÙĪÙĨØ§Ú¯":2614,"ĠÛ²Û°Û°Û¸":2615,"Ø§ÙģØª":2616,"ikipedia":2617,"ÙģØ±Ø§ÙĨ":2618,"ĠØ¯Ø¨ÛĮØ±":2619,"ĠÙħØ®Ø§ÙĦÙģ":2620,"ĠÙģØ±Ø§ÙĩÙħ":2621,"Ø¨Ø®Ø´":2622,"Ø§Ú¯Ø±":2623,"ĠÚ©Ø§ÙĦÛĮÙģØ±":2624,"ĠÙĩÙĦ":2625,"ÛĮÙĨØ§":2626,"ĠÙħØ·Ø±ØŃ":2627,"ĠØ§ÙĦÚ¯":2628,"ĠØ±ÙĩØ¨Ø±ÛĮ":2629,"ĠØ±ÙĪØ´ÙĨ":2630,"Ø§ØŃØ¨":2631,"ÙĪØ§Ø²":2632,"ĠÙħÙĨØµ":2633,"ĠØ¯ÙĤÛĮ":2634,"ĠØªØµÙĪÛĮØ¨":2635,"ĠØ§Ø´Ú©":2636,"ĠØ¬Ø°":2637,"Ø§Ø¬Ùĩ":2638,"ĠÙĨØ¯Ø§Ø´Øª":2639,"Ø³ÛĮØ§Ø±Ú©":2640,"ĠØ²ÛĮØ¨":2641,"ĠÙħØ§Ø´ÛĮÙĨ":2642,"ĠØ°Ú©Ø±":2643,"ĠØŃÙģØ¸":2644,"ĠÙģØ¯Ø±":2645,"Ø§ØªÙĪØ±":2646,"Ø·Ø§ÙĨ":2647,"ĠÙħØ®ØªÙĦ":2648,"ĠÛ²Û°Û°Û¹":2649,"ĠØ³Ø±Ø§ÙĨØ¬Ø§Ùħ":2650,"ĠÙĤØ²":2651,"ĠØ¯Ø§Ø±ÛĮ":2652,"ÙģÙĦ":2653,"ĠØ¬ØºØ±Ø§ÙģÛĮ":2654,"ĠØ³Ø¨Ø²":2655,"Ø´ÛĮØ±":2656,"ÙħØ¬":2657,"ÙĩØ±Ùĩ":2658,"ÙĨØ§ÙĪØ±ÛĮ":2659,"ĠØ®Ø¯ÙħØª":2660,"ĠØ®ØµÙĪØµÛĮ":2661,"Ø´Ùĩ":2662,"ĠÙħØ´Ø§Ø¨Ùĩ":2663,"ĠØ®ÙĪØ±Ø´ÛĮØ¯":2664,"Ø±Ú©Ø²":2665,"ĠØ®ØµÙĪØµ":2666,"ÚĨØ§Ø±":2667,"Ø±ÙĪØ²":2668,"ĠÚ©ÙĪÙħ":2669,"Ø¹Ø¨":2670,"Ù¾Ø³":2671,"ĠØ´ÙĩØ±Ø¯":2672,"ĠØªØ¬Ø§Ø±ÛĮ":2673,"ĠØ§Ø¨ØªØ¯":2674,"ÙĦÙĪÛĮ":2675,"ÙħØ§ÛĮÛĮ":2676,"Ø§ØªØ§":2677,"Ø®ØµÙĪØµ":2678,"ĠÙ¾ÛĮÚ©":2679,"ÙĪÙĨØ§":2680,"Ø§Ø¯ÛĮÙĩ":2681,"ĠØ§Ø³Ø§Ø³ÛĮ":2682,"ĠØ¨Ø±ØªØ±":2683,"ĠØ³Ø§Ø³":2684,"ĠØ¹Ø¨Ø§Ø±ØªÙĨØ¯":2685,"ĠÙĪØ±ÙĪØ¯":2686,"ĠÙ¾ÛĮØ´ÙĨÙĩØ§Ø¯":2687,"ĠÚ¯ÙĨ":2688,"Ø§ÛĮØ²":2689,"ĠØ±ÛĮØ´Ùĩ":2690,"ĠØ¨ÙĨÛĮØ§ÙĨ":2691,"ÙĪØ´ÛĮ":2692,"ĠÙħØ¬ÙĦÙĩ":2693,"ĠÚ¯Ø§ÙĩÛĮ":2694,"ÙĩØ§ÛĮØ´":2695,"ĠØ¹Ø«":2696,"ĠÙĨÙĪØ´Øª":2697,"Ø²ÛĮÚ©":2698,"ĠØŃØ±":2699,"ĠØ¹Ø¯Ùħ":2700,"ĠØ®Ø±ÙĪ":2701,"Ø±ÛĮØ²ÛĮ":2702,"Ø§Ø±ÛĮØ³":2703,"ĠØ²Ùħ":2704,"ĠÙĦÙĨØ¯ÙĨ":2705,"ĠÛ²Û°Û°Û°":2706,"ĠÙĨÙĤØ§Ø´ÛĮ":2707,"ĠØ¨ÛĮØ´ØªØ±ÛĮ":2708,"ĠÚ©Ø§ÙĦÛĮÙģØ±ÙĨÛĮØ§":2709,"Ġof":2710,"ĠÚ¯Ø±ÙĪÙĩÛĮ":2711,"ĠÙħÙĩÙĨØ¯Ø³ÛĮ":2712,"Ø§ÙĨÛĮÙĩ":2713,"ĠÚ©Ø±Ø¨":2714,"ĠÙħÙĪØ²Ùĩ":2715,"ĠØ¨Ø§ÙĦØ§ÛĮ":2716,"ÙĪÙĨØ¯Ùĩ":2717,"ĠØµÙĨØ¹Øª":2718,"ĠØ¬Ø§Ø¯Ùĩ":2719,"ĠÙĤÛĮÙħ":2720,"ĠØ³ÙĪØ±ÛĮÙĩ":2721,"Ø¹Ùħ":2722,"ĠØ«Ø§Ø¨Øª":2723,"ĠØ·ÙĦ":2724,"ĠØ±ÛĮØ§Ø¶ÛĮ":2725,"ĠØ®ÙĪØ§ÙĩØ±":2726,"Û±Û·":2727,"ĠØ¯ÙĪØ³Øª":2728,"ĠÙ¾Ø§":2729,"ĠØ¨Ø²Ø±Ú¯ÛĮ":2730,"ĠÙĪØ²ÙĨ":2731,"ĠØ²ÙĨØ¯Ùĩ":2732,"Ø§Ú©Ø³":2733,"ĠÙĪØ§Ø¨":2734,"Ø®ÙĪØ§Ùĩ":2735,"ĠÙĨØ§Ø¨":2736,"ĠØ§ÙĪØ§ÛĮÙĦ":2737,"ĠÙĦØ§Ø²Ùħ":2738,"ĠÙħØ§Ø²":2739,"ĠØ®Ø´Ú©":2740,"ĠØ´Ø§Ø®Ùĩ":2741,"ĠØµÙĨØ¹ØªÛĮ":2742,"Û±Ûµ":2743,"ĠØ§ÚĨ":2744,"ĠØ¯Ø³ØªÛĮ":2745,"ĠØ³Ø±Ø®":2746,"Ø§Ø¬ÛĮ":2747,"ĠØ¢Ú©":2748,"ĠÙĤØ§Ø¬Ø§Ø±":2749,"ĠØ¨Ø¯ÛĮÙĨ":2750,"ĠÙ¾Ø±ÙĪØ§Ø²":2751,"ÙĪØ§ÛĮ":2752,"ĠÙĤÙħØ±ÛĮ":2753,"ÙĨØªÛĮ":2754,"ĠØ¯Ø±Ú¯Ø°Ø´ØªÙĩ":2755,"ĠÙħØªØ¹Ø¯":2756,"ÚĨØ±Ø®Ùĩ":2757,"ĠÛ²Û¸":2758,"ĠÙģÙĨØ§ÙĪØ±ÛĮ":2759,"ĠØ§Ø¹ØªØ±":2760,"ĠØ±Ø³Ø§ÙĨØ¯":2761,"ÙĪØªÛĮ":2762,"ĠØ®ÙĪØ±":2763,"ĠØªÙĪØµÛĮ":2764,"ÙħØ³":2765,"ĠÚ©ÙħÙ¾":2766,"ĠØ®ÙĦÙĤ":2767,"ĠÚ©Ø§ÙħÙĦØ§":2768,"ĠØ§Ø±Ø²Ø´":2769,"ĠÚ©ÙĪØ¯Ú©Ø§ÙĨ":2770,"ĠÙĩÙģØªÙĩ":2771,"ĠØªØ£ÙħÛĮÙĨ":2772,"ĠØªØ±ÛĮ":2773,"ĠØ³ÙĦØ·Ø§ÙĨ":2774,"ĠØ·ÙĦØ§":2775,"ĠÙĤØ§Ø¨":2776,"ÙħÙĪÙĨ":2777,"Ø³ÛĮØ¯":2778,"ĠØ®ÙĪØ±Ø¯":2779,"ĠØ¢ÙĪØ±Ø¯Ùĩ":2780,"ĠÙħØ¨Øª":2781,"ĠÛ²Û°Û°Û¶":2782,"Ø±Ø§ÛĮÛĮ":2783,"ĠØ§Ø®ØªÛĮØ§Ø±":2784,"ĠØ¯ÙĤÛĮÙĤ":2785,"ĠO":2786,"ĠÙħØ·Ø§ÙĦØ¹Ùĩ":2787,"ĠØ±Ú©":2788,"//":2789,"ĠÙĨÙħÙĪØ¯Ùĩ":2790,"ĠÙħØ°ÙĩØ¨ÛĮ":2791,"ĠØªÙĪÙħ":2792,"ĠÚ¯ÙĪØ±":2793,"ØºÛĮØ±":2794,"ĠØ®Ø±Ø¯":2795,"ĠØ³ÙĨØªÛĮ":2796,"ĠØ¨Ø§ÙĪØ±":2797,"ĠÙħÙĤØ§ÙĦÙĩ":2798,"ĠØ¹ÙħØ¯Ùĩ":2799,"ĠØ¨Ø±Ø²":2800,"ĠØ¹Ø±Ø¶Ùĩ":2801,"ĠÙħØ²":2802,"ÙħØ§ÙĨØ¯":2803,"ĠÙħØ§Ø±Ú©":2804,"ĠÙĨØ¨":2805,"ĠÙħØ¹ØªÙĤØ¯":2806,"ĠØŃØ³Ø§Ø¨":2807,"ĠÙħØŃØµÙĪÙĦØ§Øª":2808,"ĠÚ¯ÛĮØ±":2809,"ĠØ´ÛĮÙĪÙĩ":2810,"ĠØ±Ø²":2811,"tp":2812,"ĠØ±ÙĪØ§Ø¨Ø·":2813,"ĠÚ¯Ø§Ùĩ":2814,"ÙĦÙħ":2815,"ĠØ¨Ø±Ø¬Ø³ØªÙĩ":2816,"Ú©Ø±ÙĪ":2817,"ĠØ§Ø¨Ø²Ø§Ø±":2818,"ĠØ§Ø¶Ø§ÙģÙĩ":2819,"Ø³ÛĮÙĪÙĨ":2820,"ĠÛ±Û°Û°":2821,"ĠØªØ´Ø®ÛĮ":2822,"ĠÙħØ¯Ø§Ø±":2823,"ĠØ¬Ø¹":2824,"Ġ[":2825,"ĠØ§ÛĮÙĦ":2826,"ĠØ§Ø³Ø±Ø§Ø¦ÛĮÙĦ":2827,"ĠÛ²Û°Û±Û´":2828,"ÙĪÚ¯Ø±":2829,"ĠØªØ§ÛĮ":2830,"ĠÛ±Û³Û¹Ûµ":2831,"ÚĺØ§Ø¯":2832,"ĠØ§ØµÙĦØ§ØŃ":2833,"ĠØªØ¹Ø¯Ø§Ø¯ÛĮ":2834,"ĠØµØŃÙĨÙĩ":2835,"nt":2836,"Ø³Ø¯":2837,"ĠÛ±Û¹Û°Û":2838,"ĠÚĨÚ©":2839,"ĠØ§ØµØ·ÙĦØ§ØŃ":2840,"ĠØ´Ø¨ÛĮÙĩ":2841,"ĠØ§Ø¨ÙĨ":2842,"ĠØ±Ø¯Ùĩ":2843,"ĠØ±Ø¯":2844,"ĠÙħØªØŃØ¯":2845,"Ú©ÙĪÙĩ":2846,"Ø³Ú©ÛĮ":2847,"ĠÙĪØ¸":2848,"ĠØ¬ÙĨØ¨Ø´":2849,"ĠØ¹ØµØ±":2850,"http":2851,"ĠØ§ÙĩÙħÛĮØª":2852,"ĠØ¬Ø§":2853,"ĠØ³ÙĪØ¯":2854,"ÙĪÙĦÛĮØª":2855,"âĢį":2856,"ĠØ¨ÛĮØ±ÙĪÙĨ":2857,"ÙĪØ±Ø§":2858,"://":2859,"ĠØ§Ø®ÛĮØ±":2860,"Ø¡":2861,"ÙģØ±ÙĪØ¯":2862,"Ø±ÙĪÛĮ":2863,"ĠÚĨØ§Ø±":2864,"ĠØ¢Ø³ÛĮØ§":2865,"ĠÙħØ¬Ø¯":2866,"ĠØ§ÙģØ³":2867,"ĠÙħÙĦÙĦ":2868,"ĠÛ²Û°Û±Û³":2869,"ĠØªÙĪØµÛĮÙģ":2870,"ĠØ¯Ø¹":2871,"ĠØ¬Ø§ÛĮÚ¯Ø²":2872,"Ú¯ÛĮÙĨ":2873,"ĠÛ²Û°Û°Û·":2874,"ĠØ¯Ø§ÙĨØ´Ø¬":2875,"ĠÙħÛĮØ§ÙĨÙĩ":2876,"ĠÙĦØŃØ§Ø¸":2877,"Ú¯ÙĪÛĮÙĨØ¯":2878,"ĠØ²Ø¯":2879,"ĠØ®Ø·Ø±":2880,"Ø±Ø¯Ùĩ":2881,"Û±Û¶":2882,"ĠÙħØ±Ø¯Ø§ÙĨ":2883,"ÚĺÛĮÚ©":2884,"ĠØ¯ÙĤÛĮÙĤÙĩ":2885,"ÙģØ§ÛĮ":2886,"ĠÚ¯Ø±ÛĮ":2887,"ĠØ¯ÙĪÚĨØ±Ø®Ùĩ":2888,"ĠÙ¾ÙĪØ´Ø´":2889,"Ø±ÛĮÙĨ":2890,"ĠØ¬ÙĦÙĪÚ¯ÛĮØ±ÛĮ":2891,"ĠØªØ¦Ø§ØªØ±":2892,"Ø¢ÙħØ¯":2893,"ĠÙħØ§Ø³":2894,"ĠØ´ÙĩØ±Ú©":2895,"ot":2896,"ĠØªØ§ÙĦ":2897,"ĠÛ±Û³Û²":2898,"ĠÚ¯Ø°Ø§Ø´Øª":2899,"Ù¾ÙĪØ±":2900,"ĠÚ¯Ø±Ø¯Ø´":2901,"ĠØ¨ÙĪÙħÛĮ":2902,"ĠÙħÙĪØ³":2903,"Ø²ÛĮØ¹":2904,"ĠØ±Ø³Ø§ÙĨÙĩ":2905,"Ø§ÙħÛĮÙĨ":2906,"ĠÙħØ±Ø§Ú©":2907,"ĠØ¯ÙĨÛĮ":2908,"ĠÚ¯Ø´Øª":2909,"ĠØªØ§Ø±":2910,"ĠØ§ØªØŃØ§Ø¯ÛĮÙĩ":2911,"ĠÙģÙĪÙĤ":2912,"ĠØªØŃÙĤÛĮÙĤØ§Øª":2913,"Â».":2914,"Ú¯Ø±Ø¯Ø§ÙĨ":2915,"ĠÙĤÙĪØ§ÙĨ":2916,"ĠØ·ÙĪØ±":2917,"ig":2918,"ĠÙģÙĪÙĦ":2919,"ĠÙħÙģÙĩ":2920,"ÙģØ±ÙĪØ¯Ú¯Ø§Ùĩ":2921,"ĠØ´ÙĩØ±Øª":2922,"Ø§ÙĪØ§":2923,"ÙħØ§Øª":2924,"ĠØ§Ø³ØªØ§ÙĨØ¯Ø§Ø±Ø¯":2925,"Ø¨ÛĮÙĦ":2926,"Ġp":2927,"ÛĮÚ©Ø§":2928,"\")":2929,"ĠØªØ´Ø®ÛĮØµ":2930,"ÙĴ":2931,"ĠØ§ØªØ§ÙĤ":2932,"Ø´ØªÛĮ":2933,"ĠÙ¾Ø§ÙĦ":2934,"ĠØ²ÙĨØ¬":2935,"ĠØŃØ§ÙģØ¸":2936,"ĠØ¹Ø¨Ø§Ø³":2937,"ĠÙĦØ§ÛĮÙĩ":2938,"ĠØ¹Ø¯Ø¯":2939,"ĠÚ©Ø§Ø±Ø¨Ø±":2940,"Ø§ÙĨØ¯Ø§ÙĨ":2941,"ĠØ§Ø®ØªØµØ§Øµ":2942,"ĠØ¢Ø´ÙĨ":2943,"ĠÙħØ§ÙĨØ¯Ùĩ":2944,"ĠØ´Ø¯Øª":2945,"Û±Û´":2946,"ĠØ³Ø±Ø¨Ø§Ø²":2947,"ĠØªÙĦÙĪÛĮØ²ÛĮÙĪÙĨ":2948,"Ú©ÙĨÙĪÙĨ":2949,"ut":2950,"ĠÙħØªÙĪØ³":2951,"Ø³Ùģ":2952,"ĠÙħÙĤØ§ÙĪÙħØª":2953,"ĠÛ²Û°Û±Û¶":2954,"ĠÛµÛ°":2955,"ĠØµØ§ØŃØ¨":2956,"ĠØªØ¨Ø±ÛĮØ²":2957,"ĠÙģÙĨ":2958,"ĠÙ¾Ø§Ù¾":2959,"ĠØ§ÛĮØ³ØªÚ¯Ø§Ùĩ":2960,"ØŁ":2961,"ad":2962,"ÙĦØŃ":2963,"ĠØªÙģØ§ÙĪØª":2964,"ĠÚ©ØªØ§Ø¨Ø®Ø§ÙĨÙĩ":2965,"ĠJ":2966,"Ø²Ø§":2967,"ĠØ°Ø®":2968,"ĠØ·ÙĪÙĦØ§ÙĨÛĮ":2969,"ĠØªØ§Ø²Ùĩ":2970,"ĠØªÙĪØ²ÛĮØ¹":2971,"ĠØªØ§Ø¨Ø¹":2972,"ĠØ®ÙĪÛĮØ´":2973,"ĠÙ¾ÛĮØ§Ùħ":2974,"ĠØ§Ø®ØªÙĦØ§Ùģ":2975,"ĠØ§Ø±Ø´Ø¯":2976,"ĠØ¨Ø§ÙģØª":2977,"ĠØ¢ÙĨÚ©Ùĩ":2978,"ĠÙ¾ÛĮØ§":2979,"ĠÙĩØ§Ø±":2980,"ĠØ®ÙĪØ¨ÛĮ":2981,"ĠÙģÙĦØ³ÙģÙĩ":2982,"ĠØ³Ø±Ø§Ø³Ø±":2983,"Ø±Ø¯Ø±ÛĮØ§ÛĮÛĮ":2984,"ĠÙħÙĪÙģÙĤÛĮØª":2985,"ĠÙ¾Ø§Ø±ÛĮØ³":2986,"ĠÙĨÙĤØ§Ø·":2987,"ĠÚ©ÙĨÚ¯":2988,"ĠØ§ÙĨØ³Ø§ÙĨÛĮ":2989,"Ú¯ÙĪÙĨ":2990,"Ø´Ú©Ø§Ø±":2991,"ĠØ¯Ø±ÙĪ":2992,"ÙĪÙħÙĩ":2993,"ĠØ¢Ø³ÛĮØ¨":2994,"ĠØ±Ø£":2995,"ĠØ¹ÙĤ":2996,"ĠØ¯Ø§Ø´ØªÙĨ":2997,"ĠÙħØ®ØªÙĦÙģÛĮ":2998,"Ø·Ø±":2999,"ĠÚ©Ø§Ø±ÙĩØ§ÛĮ":3000,"ĠØªÙĪØ§ÙĨØ§ÛĮÛĮ":3001,"ĠÙĨÛĮØ±ÙĪ":3002,"ĠÙĪÛĮÙĦÛĮ":3003,"Û±Û¸Û":3004,"ĠÙĪÛĮØ¯":3005,"ĠØ§Ú©ÙĨÙĪÙĨ":3006,"ĠÙĩÛĮØ¯":3007,"ĠØ¯Ø±Ùĩ":3008,"ĠØ¬Ø§ÛĮÛĮ":3009,"ÛĮÚ©Ø³":3010,"ĠÙĤØ·Ø¹Ùĩ":3011,"ĠØ§Ø³Ù¾Ø§ÙĨÛĮØ§ÛĮÛĮ":3012,"ĠØ¯Ø±Ø³Øª":3013,"ĠÙĨØ§Ø±":3014,"ĠÙĪØ§ÙĤØ¹ÛĮ":3015,"ÙĨØ§ÛĮØ¹":3016,"ÙĪØªØ±":3017,"ĠÚ¯Ø±Ø§ÙĨ":3018,"ÙĤÛĮØ§ÙĨ":3019,"Ø¬ÙħÙĩÙĪØ±":3020,"ĠÙħÙĩØ§Ø¬Ø±Øª":3021,"ĠØ´ÙħØ§Ø±":3022,"Ù¾Ø±Ø¯Ø§Ø²Ø¯":3023,"Ø³Ø§Ø³":3024,"ĠØ§Ø¨Ø±":3025,"ĠÙĤÛĮÙħØª":3026,"ĠØ¨ÛĮØª":3027,"ĠÙ¾ÙĩÙĦÙĪÛĮ":3028,"ÛĮØ§Ø¨Ø¯":3029,"ĠÙĪÙĦØ§ÛĮØª":3030,"ĠØ¯ÚĨØ§Ø±":3031,"ØªØ®Øª":3032,"Ø¨Ø§Ø¨":3033,"ĠØ¢ÛĮÙĨ":3034,"ĠØµØ±Ùģ":3035,"Ø§Ø¯Ú¯ÛĮ":3036,"ÙĪØ±ØªÛĮ":3037,"ĠÙĨØ³ÙĦ":3038,"Ġ:":3039,"ĠÛĮØ²":3040,"ĠØ¹ÙħÙĦÚ©Ø±Ø¯":3041,"ĠÛ±Û³Û³Û":3042,"ĠØ¯Ø§Ø¯Ú¯Ø§Ùĩ":3043,"Ø³ÛĮÙĦ":3044,"Ø³ÛĮØ±":3045,"ĠØ¬Ø³Øª":3046,"ĠÙĪÛĮÙĨ":3047,"ĠÙħÙĨØªÙĤÙĦ":3048,"ÙĪØ°":3049,"ĠÙĪØ±ÙĪØ¯ÛĮ":3050,"ØªÙ¾Ùĩ":3051,"ĠØ±Ø§ÙĨ":3052,"ĠØ³Ú©ÙĪÙĨØª":3053,"ĠØ´ÙĩØ±Ø¯Ø§Ø±ÛĮ":3054,"Ø²ÙĦ":3055,"ĠØ§Ø¯Ø¹":3056,"ĠØ¨Ø§Ø²ÛĮÚ¯Ø±Ø§ÙĨ":3057,"ĠÙĨÙĩØ§ÛĮÛĮ":3058,"ĠØ®Ø§ÙĨØ¯Ø§ÙĨ":3059,"ent":3060,"ĠØªÙĨØ¸ÛĮÙħ":3061,"ĠØ§Ù¾":3062,"ĠÙħØ¤Ø³Ø³Ùĩ":3063,"ĠØ³Ø§ÛĮØª":3064,"Ø¢Ø±":3065,"ĠÙĤÙĦÙħ":3066,"ĠÙ¾ÛĮÙħ":3067,"ĠÛ³Ûµ":3068,"ĠØµÙĨØ§ÛĮØ¹":3069,"ĠØ³Ø±ÙĪ":3070,"ÙĤÛĮÙĩ":3071,"Ø§ÙģØ±":3072,"ĠÙĤÙĪØ§ÙĨÛĮÙĨ":3073,"ĠÙħØŃÙħÙĪØ¯":3074,"ĠØ§ÛĮØ´Ø§ÙĨ":3075,"ĠØ¯ÛĮÙĪØ§Ø±":3076,"ĠØ¨Ø±ÙĤ":3077,"ĠÛ²Û°Û±Ûµ":3078,"ĠØ¯Ø§ÙĨØ´Ùħ":3079,"ĠØ³Ø§Ú©":3080,"ĠÙ¾Ø±Øª":3081,"ÙĦØ§Øª":3082,"ĠØ¸Ø§ÙĩØ±":3083,"Ø§Ø¯Ø«":3084,"ĠØ§ØªØŃØ§Ø¯":3085,"ĠØ±Ø³ÛĮØ¯ÙĨ":3086,"ĠØ¯Ø±Ø®ÙĪØ§Ø³Øª":3087,"Ø§ÙĨÛĮÙħ":3088,"ĠØ³Ø§Ø¨ÙĤÙĩ":3089,"ĠØ±ÙĪØ³ØªØ§ÙĩØ§ÛĮ":3090,"ĠØ¸Ø±Ùģ":3091,"ĠÛ²Û°Û°Ûµ":3092,"Ġd":3093,"ĠÚĨÛĮØ²ÛĮ":3094,"ĠÚ¯Ø±Ø§Ùģ":3095,"ÙĪÛĮØ²":3096,"Ø³ÙĪØ±":3097,"Ø´ÛĮÙĨ":3098,"ĠÙ¾Ø³Øª":3099,"ĠØŃÚ©Ùħ":3100,"ĠØ§Ø³Ùģ":3101,"ĠÙħÙĨØŃ":3102,"ĠÙĦØ±":3103,"ÙĪØªØ§":3104,"ĠØ®Ø§ØµÛĮ":3105,"ĠØªÙĪÙ¾":3106,"ĠÙ¾Ø§Ú©Ø³ØªØ§ÙĨ":3107,"ĠÚ©ÛĮÙģ":3108,"ĠØ®ÙĪØ§ÙĨØ¯Ùĩ":3109,"ÙħØ¯Ø§Ø±":3110,"ĠØ´Ø¯ÛĮØ¯":3111,"ĠÙĪÙĨ":3112,"ĠØ³Ùħ":3113,"ĠÙĪØ±Ø²Ø´ÛĮ":3114,"ĠÙħØªÙĪ":3115,"ĠÙĦØ¨Ø§Ø³":3116,"ĠØ¹Ø¨ÙĪØ±":3117,"ĠØ§ÙĦÚ¯ÙĪØ±ÛĮØª":3118,"ĠÚĨØ±Ø§":3119,"ØªÙĪØ§ÙĨØ³Øª":3120,"ĠÙĦØ´Ú©":3121,"ÛĮÚ©Ùĩ":3122,"Ø¨ÛĮÙĨÛĮ":3123,"Ø¯ÛĮØ¯Ùĩ":3124,"ĠÙĪÛĮØª":3125,"ĠØªØ¬Ø±Ø¨Ùĩ":3126,"ĠØ¹Ø«ÙħØ§ÙĨÛĮ":3127,"ĠØ¬ØºØ±Ø§ÙģÛĮØ§ÛĮÛĮ":3128,"ĠØ±ÙģØªØ§Ø±":3129,"ÙħØªØ±":3130,"ÙĪÙħØ§":3131,"ĠØªØŃØµÛĮÙĦØ§Øª":3132,"ĠÛ²Û¹":3133,"ĠØ±Ø§ÛĮØ§ÙĨÙĩ":3134,"Ú©ÙĪØ±":3135,"ĠÚ¯ÛĮÙĦØ§ÙĨ":3136,"ÙĨÙĪÛĮØ³ÛĮ":3137,"ĠØ¨ÙĦÙĪÚĨ":3138,"ĠÙ¾ÙĦÛĮØ³":3139,"Ú©Ø±ÛĮ":3140,"ĠÛĮÙĪÙĨØ§ÙĨÛĮ":3141,"Ø¨Ø§ÙĨÛĮ":3142,"ÛĮØ§ÙĨ":3143,"ĠÚĺØ§ÙĨØ±":3144,"ĠÛĮÙĪØ§Ø³":3145,"ĠÚ¯Ø²":3146,"ĠÙħØŃØ¨":3147,"ÛĮÙĨÙĪ":3148,"un":3149,"ĠØªØ®Øª":3150,"ĠÚ©Ø§Ø±Ø®Ø§ÙĨÙĩ":3151,"Ø§Ø¦Ùħ":3152,"ĠØ³Ø±ÛĮØ¹":3153,"Ø§ÛĮØ³Ùĩ":3154,"ĠØªØŃÙĦÛĮÙĦ":3155,"Ø§ÙĤÙĦ":3156,"Ú©Ø´ÛĮ":3157,"ĠÙĤØ§ÙĦØ¨":3158,"ÙĨØ´ÛĮÙĨ":3159,"Ø§Úĺ":3160,"ĠÙ¾ÙĪØ³Øª":3161,"ĠÙħØ´Ú©ÙĦØ§Øª":3162,"Ù¾Ø°ÛĮØ±":3163,"ĠÙĨØ¸ÛĮØ±":3164,"ĠØ®ÛĮÙĦÛĮ":3165,"ĠÙĨÙĪØ²":3166,"ĠØ§ÙģØªØ®":3167,"Ú©ÙĪÙħ":3168,"ĠØ¨ÙĨØ¯":3169,"Ø§Ø²Ø¯Ùĩ":3170,"ĠØ¢ÙĨÚĨÙĩ":3171,"ØµÙĩ":3172,"ĠÙģØ±ÙħÙĪÙĦ":3173,"Ø¹ÙĪØ¯":3174,"ĠÙħØªØ¹ÙĦÙĤ":3175,"Ġ(;":3176,"ĠÙ¾Ø§ÛĮØªØ®Øª":3177,"ĠØ¨ØŃØ«":3178,"ag":3179,"ÙĪØ³ØªÙĩ":3180,"ĠÙģØªØŃ":3181,"ÙĪÛĮÙħ":3182,"ÙĤØ±Ø§Ø±":3183,"ĠØ¯Ø³ØªØ±Ø³ÛĮ":3184,"ÙħÛĮÙĨÛĮ":3185,"Ú©ØªØ±ÛĮ":3186,"ĠØ¢ÙĦÛĮ":3187,"ĠØ§Ú©Ø«Ø±":3188,"ĠÙĪØ§Ø±":3189,"ĠØ¢ÛĮÙĨØ¯Ùĩ":3190,"ĠÙħØ¨Ø§Ø±Ø²Ùĩ":3191,"ĠØ³ÙĪÙħÛĮÙĨ":3192,"Ø³Ø±ÙĪ":3193,"ØµØª":3194,"ĠØ¨Ø±Ø®ÙĪØ±Ø¯Ø§Ø±":3195,"Ú©Ø§Ùħ":3196,"ĠÙĤØ§Ø¨ÙĦÛĮØª":3197,"ĠØµØ¯Ø§":3198,"ĠØ³ÛĮØ±":3199,"ĠØ¯Ø±ÛĮØ§ÛĮ":3200,"ÛĮØ´ÙĨ":3201,"ĠØ³Ø§Ú©ÙĨ":3202,"ÛµÛ°":3203,"ĠØ§Ø¹ÙħØ§ÙĦ":3204,"ĠØ¨Ø±Ø²ÛĮÙĦ":3205,"ĠØ±ÙĩØ¨Ø±":3206,"ĠØ¯ÙħÙĪÚ©":3207,"ĠÙ¾Ø§ÛĮÚ¯Ø§Ùĩ":3208,"ĠØ²Ø¯Ùĩ":3209,"ĠØªØ£ÛĮ":3210,"Ø¦ÙĪ":3211,"iv":3212,"ĠØµØ§Ø¯":3213,"ÙĩØ§Ùħ":3214,"ĠÙħÙĤØ§ÛĮØ³Ùĩ":3215,"ÙģØ¹":3216,"01":3217,"Ú¯Ø²Ø§Ø³":3218,"ĠØ¨ÛĮÙħØ§Ø±Ø³ØªØ§ÙĨ":3219,"ÚĨÙĨÛĮÙĨ":3220,"ĠÙĤØ¨ÛĮÙĦ":3221,"ĠÙħØ§Ø±ÛĮ":3222,"Ø§ÙĦÙħ":3223,"ĠÙĨØ§Ù¾":3224,"ĠÙĪØ±Ø²Ø´Ú¯Ø§Ùĩ":3225,"ÛĮÙĪØ§Ø³":3226,"Û°Ûµ":3227,"ÙħØ¯ÛĮ":3228,"ĠØ®ÙĪØ²":3229,"ÙĪØ§Ø±Ø¯":3230,"ĠØ¯ÙĩÙĨØ¯":3231,"ĠÙĤØ¶":3232,"ĠÙģØ±ÙħØ§ÙĨØ¯Ùĩ":3233,"ĠÙģØ±Ø§Ø±":3234,"ĠØ§ÙĦÚ¯ÙĪØ±ÛĮØªÙħ":3235,"ĠØ¢ÙħÙĪØ²Ø´ÛĮ":3236,"ĠÙĪØ§Ø¨Ø³ØªÙĩ":3237,"ĠØ¯Ø´Ùħ":3238,"ĠØ§ØªÙħ":3239,"ĠÙĤØ¯ÛĮÙħ":3240,"ĠÙħØ±ØªØ¨Ø·":3241,"ĠØªØ£ÛĮÛĮØ¯":3242,"ĠÙĨÚ¯ÙĩØ¯Ø§Ø±ÛĮ":3243,"ĠØªØºÛĮÛĮØ±Ø§Øª":3244,"ĠÙħØ±ÛĮ":3245,"ĠØ§Ø¨Ø±Ø§Ùĩ":3246,"Ú©Ø±Ø¯Ùĩ":3247,"ĠØ§Ø±ÙĪÙ¾Ø§ÛĮÛĮ":3248,"ĠØ´Ø§Ø¹Ø±":3249,"ĠØªÚ¯Ø²Ø§Ø³":3250,"ØªÛĮØ¨Ø§ÙĨÛĮ":3251,"ĠÚ©Ø§ÙħÙ¾ÛĮ":3252,"ĠØ³Ø®ÙĨ":3253,"...":3254,"ĠÙħÙĨØ¨Ø¹":3255,"ĠÙ¾ÙĨØ¬Ùħ":3256,"ĠÚ©Ø±ÙħØ§ÙĨØ´Ø§Ùĩ":3257,"ĠØŃØ°Ùģ":3258,"ÙĨØ§Øª":3259,"ĠÙĦØº":3260,"Ø³ØªØ±ÛĮ":3261,"ĠÙĨØŃ":3262,"ĠØ±ÙĪØŃØ§ÙĨÛĮ":3263,"ĠÙĩØ¯Ø§ÛĮØª":3264,"ĠØ´ÙħØ§":3265,"ĠÙĨØ§Ø´ÛĮ":3266,"ĠØ³Ø§Ø²ÛĮ":3267,"ĠU":3268,"od":3269,"Ú¯Ø§":3270,"Ø«ÛĮ":3271,"ĠØ§ØŃØ³Ø§Ø³":3272,"ĠØ¯Ø§ÛĮ":3273,"ÙĨØ§Ø¯":3274,"ĠØ§ÙħØªÛĮ":3275,"Ġm":3276,"ĠÙ¾Ø´ØªÛĮØ¨Ø§ÙĨÛĮ":3277,"Ø¯ÛĮÙĨ":3278,"ĠØ´ÙĨØ§Ø³Ø§ÛĮÛĮ":3279,"Ø´ÙĩØ±Ø³ØªØ§ÙĨ":3280,"ÛĮÙħØ²":3281,"ĠØ±Ø§ÛĮØ¬":3282,"ĠÛ²Û°Û±Û·":3283,"ĠÙ¾ÙĪØ±":3284,"ĠØ²ÛĮØ±Ø¯Ø±ÛĮØ§ÛĮÛĮ":3285,"ĠØ®ÙĪØ²Ø³ØªØ§ÙĨ":3286,"ĠÙħØ§Ø¬":3287,"ĠÙĩÙĦÙĨØ¯":3288,"Ø¢ÙĦ":3289,"ĠØ¯ÛĮØ±":3290,"ĠÚ©ÙĦÙħÙĩ":3291,"ĠØ¯Ø´Øª":3292,"ĠÙĩÙħÚĨÙĨØ§ÙĨ":3293,"ĠØ°Ø®ÛĮØ±Ùĩ":3294,"ĠØ¨Ø§ÙĨ":3295,"Û²Û°Û":3296,"ĠÚĨØ´ÙħÙĩ":3297,"ĠØ¬Ø§ÛĮÚ¯Ø²ÛĮÙĨ":3298,"ĠØ±Ùħ":3299,"ĠÙĨÙħØ§ÛĮÙĨØ¯Ú¯Ø§ÙĨ":3300,"ĠÙ¾ÛĮÙĪÙĨØ¯":3301,"ĠØ³Ø§ÙħØ§ÙĨÙĩ":3302,"ĠØŃØ§Ú©Ùħ":3303,"ĠØ¯Ø±ÛĮØ§ÚĨÙĩ":3304,"Ú©ÙĪÙĦ":3305,"ĠÙĤØ§Ø¯Ø±":3306,"ĠØ²Ø±Ø¯":3307,"ĠÙħØ¹Ø§Ø¯ÙĦ":3308,"ĠÚ©Ø´ÙĪØ±ÛĮ":3309,"ĠÙħØ¯Ø±ÙĨ":3310,"ĠÙĩÙħØ§ÙĨÙĨØ¯":3311,"ĠØ¯Ø±Ø§Ùħ":3312,"Ø¸Ùĩ":3313,"ĠØªØ®Øµ":3314,"ĠÛ´Û°":3315,"ĠÙħØ³ÛĮØŃÛĮ":3316,"ĠÚ©Ø§Ù¾":3317,"ĠØ¨ÙĪ":3318,"ĠÚ¯Ø°Ø§Ø´ØªÙĩ":3319,"ĠÙĤÛĮ":3320,"ØºÙĨ":3321,"ĠØ¨ÙĨÛĮØ§Ø¯":3322,"ĠØ§Ø¹ØªØ±Ø§Ø¶":3323,"Ø´Ø¯ÙĨØ¯":3324,"ĠÚ©Ø§Ø±Ø´ÙĨØ§Ø³ÛĮ":3325,"ĠØ¬Ø°Ø¨":3326,"ĠÙ¾Ø¯ÛĮØ¯":3327,"ĠÚ¯ÙĪÛĮ":3328,"ĠÛ³Û²":3329,"ĠÙ¾ÛĮØ´Ø±ÙģØª":3330,"Ø§ÙĨØ¯Ø§Ø²ÛĮ":3331,"ĠØ±ÙĪÙĨ":3332,"ĠÛ²Û°Û°Û´":3333,"ĠØ¨Ú©Ø§Ø±":3334,"Ø§Ø¯ÙĩØ§ÛĮ":3335,"ĠÙħØ·Ø§ÙĦØ¹Ø§Øª":3336,"ĠÙħÙģÙĩÙĪÙħ":3337,"ĠÙĨÙĤØ±Ùĩ":3338,"ØªØ¨Ø§Ø±":3339,"ÙĨØ¯Ø±Ø§ÙĨ":3340,"ĠØ§ØªØ±ÛĮØ´":3341,"ĠÙ¾Ø±Ø¯Ø§Ø²":3342,"ĠÙģÛĮØ²ÛĮÚ©":3343,"Ø§ÙĦØŃ":3344,"ĠÙĩÙħÚ¯Ø§ÙĨÛĮ":3345,"ĠÙĦÛĮÙĨ":3346,"ĠÙģØ±Ø¶":3347,"ĠÙĩÙħÛĮØ´Ùĩ":3348,"ĠØ§ÙĦÛĮ":3349,"ĠÚ©ÙĨÛĮØ¯":3350,"ÙĪØ±ÙĪ":3351,"ĠÙĪÛĮÙĦÛĮØ§Ùħ":3352,"ĠÚ¯ÙĪÙĨØ§Ú¯ÙĪÙĨ":3353,"ØªÛĮÚ©":3354,"ĠØ¬Ø§ÛĮÚ¯Ø§Ùĩ":3355,"ÙĪØ·Ùĩ":3356,"ĠÙĨÙĩØ§Ø¯":3357,"ĠØ´ÛĮØ±Ø§Ø²":3358,"ĠÙħÙĤØ¯Ø³":3359,"ĠÙħØªØµÙĦ":3360,"ĠÛĮÚ©Ùħ":3361,"ĠÙħØ¹Ø¯":3362,"ĠÙģØ±ÛĮ":3363,"ÙĪØ§ÙĨÛĮ":3364,"ĠÙĪØ§ÙĦÛĮ":3365,"ĠÙĨÙģÙĪØ°":3366,"ĠØ³ÛĮØ³ØªØ§ÙĨ":3367,"Ø¬Ø§ÛĮÛĮ":3368,"ĠÙĨØ´Ø§ÙĨÙĩ":3369,"ĠØ¯ÙĪØ¯":3370,"ĠØ¯ÙĩÙĨØ¯Ùĩ":3371,"ÙħØ§Ø±":3372,"ĠØªØ¯Ø±ÛĮØ³":3373,"ĠØµÙĦØŃ":3374,"ĠØ¨Ø´Ø±":3375,"ĠØ®Ø§Ùħ":3376,"ÙĪØ§ÙĨÙĩ":3377,"Ø¨Ø±ÙĪ":3378,"ĠÚ©Ùģ":3379,"ĠÙħØŃØ¨ÙĪØ¨":3380,"ĠÚĨÙĨØ§ÙĨ":3381,"ĠÙĨØ´Ø¯":3382,"ĠØ±ÛĮØ²":3383,"ĠØ¹Ú©Ø³":3384,"Û°Û´":3385,"ĠÙĨØ§ÙħØ²Ø¯":3386,"ĠØ¨Ø§Ø³ØªØ§ÙĨÛĮ":3387,"ĠØ§ÙĦÚ©ØªØ±ÛĮÚ©ÛĮ":3388,"Ø§ÙħÙ¾":3389,"ĠÙħØ§ÙĦÚ©":3390,"ĠØŃØ¬":3391,"ĠÚ©Ø±ÛĮØ³Øª":3392,"ĠØ¹Ø±Ø¨Ø³ØªØ§ÙĨ":3393,"³Û°":3394,"Ú©ÙĦÛĮ":3395,"Ø³Ú©ÙĪ":3396,"ĠÙĨÙĪØ§Ø²":3397,"ÙħÛĮÙĦØ§Ø¯ÛĮ":3398,"ĠØ±Ø¶Ø§":3399,"ĠÙĨÙĤØ´Ùĩ":3400,"org":3401,"Ú¯Ø±ÙģØªÙĩ":3402,"ĠÚĨÙĩØ±Ùĩ":3403,"ÙħØ§ÙĨÙĨØ¯":3404,"ĠÙģØ±Ø¯ÛĮ":3405,"ess":3406,"__":3407,"ÙĪÚ©Ø³":3408,"ĠÙĤÙĪÛĮ":3409,"ÛĮÙĨØ²":3410,"Ø±ÛĮØ³":3411,"Ø§ÙĦØ¹":3412,"ĠØ§Ø¬Ø±Ø§ÛĮÛĮ":3413,"ĠØ¨ÙĩØ¨ÙĪØ¯":3414,"ĠØ§ÙĩØ¯":3415,"ĠØŃÛĮÙĪØ§ÙĨ":3416,"Ø§Ø±ØªÛĮ":3417,"Ø¨Ø·":3418,"ĠÙħØ³Ø§Ø¦ÙĦ":3419,"ĠØŃÙĦÙĤÙĩ":3420,"ĠØ¹ÙĤØ¨":3421,"Û°Û·":3422,"ĠÚĨÙ¾":3423,"ĠÛĮÙĪ":3424,"ĠØ¬ÙĪØ±":3425,"Ø§Ø°":3426,"Ø¨Ø§ÛĮ":3427,"Ø¦ÙĪÙĨ":3428,"ĠØ¹Ø´ÙĤ":3429,"ĠØ§ÙħØ±ÙĪØ²":3430,"ĠØ¬ÙĨÚ¯ÙĦ":3431,"Û°Û²":3432,"ĠÙħØŃØ§ÙģØ¸":3433,"Ø¯Ø§Ø±ÙĨØ¯":3434,"ĠÙ¾ÛĮØ§Ø¯Ùĩ":3435,"ĠØ§ÛĮØ¯Ùĩ":3436,"ĠØ³Ø±Ú©":3437,"ĠÚ©Ø³Ø§ÙĨÛĮ":3438,"ĠÙħÙĩØ¯ÛĮ":3439,"ĠØ§ÙĦÙħ":3440,"ĠÙĨÙĪØ¨":3441,"ĠÚ©Ø§Ø®":3442,"ĠØ¯Ø§Ø±ÙĪ":3443,"ĠÚ©ÙħÛĮØªÙĩ":3444,"ĠÚ©ÙĨÙĪÙĨÛĮ":3445,"ĠÙĤØµØ¯":3446,"ĠØ¹Ø±ÙĪ":3447,"ĠÚ©Ø´ÛĮØ¯Ùĩ":3448,"ĠÙĩÙĪØ§ÛĮ":3449,"ĠØ®ÙĪØ¨":3450,"ÙģØ±Ø¯":3451,"Ø§Ø¦ÙĪ":3452,"Ø§Ø±Ùģ":3453,"ÚĨÙĨØ¯":3454,"ÙĢ":3455,"ĠØ§ÙĪØ³Øª":3456,"ĠÙĩÙĪØ´":3457,"ÙħØ§ÙĨØ¯Ùĩ":3458,"ĠØªØ§Ø¨Ø³ØªØ§ÙĨÛĮ":3459,"ĠØ¨ÙĨØ¯Ø±":3460,"Ú¯Ø±Ø§ÛĮÛĮ":3461,"ĠØ¨ÙĩÙħÙĨ":3462,"ĠØ±ÙĪØ§ÛĮØª":3463,"ĠØ¶Ø±Ø¨":3464,"ĠÙħØ§Øª":3465,"ÙĦÛĮÙ¾":3466,"ĠØ³Ø¯":3467,"ĠØ´Ø¨Ùĩ":3468,"im":3469,"Ø¯ÛĮØ³":3470,"ĠÚ©Ø§ÙģÛĮ":3471,"ÙĪØ³Ùģ":3472,"Ø²Ø§Ø¯":3473,"ĠÙĪØ§Ø³":3474,"ĠÚĺÙĨ":3475,"Ø¯Ø§ÙĨØ¯":3476,"ĠØ¨ÙĩØªØ±":3477,"ĠØ§ÙĨØªØ¸":3478,"Ø´ÙĨØ§ÙħÙĩ":3479,"ĠØ¨ÙĦÙĪÚĨØ³ØªØ§ÙĨ":3480,"Û°Û¶":3481,"ĠØ³ÙĨØ¯":3482,"ĠØ¹ÙĪØ§ÙħÙĦ":3483,"ĠØ§ØµÙĪÙĦ":3484,"ĠÙħØ®ØµÙĪØµ":3485,"ĠÙĤØ±ÙħØ²":3486,"ĠØ±Ø§Ú©":3487,"ÙĪÚ©ÛĮ":3488,"ĠØµÙģØ±":3489,"ĠÙ¾ÙĨØ§Ùĩ":3490,"ĠØ³ÛĮÙĨÙħØ§ÛĮÛĮ":3491,"ĠÙ¾ÛĮØ´ÛĮÙĨ":3492,"ĠÛ±Û¸Û¹Û":3493,"ĠØŃØ¯Ø§ÙĤÙĦ":3494,"ĠÙĩÙĨØ±ÙħÙĨØ¯":3495,"Ú¯Ùĩ":3496,"ĠØ¯Ø±Ú¯ÛĮØ±ÛĮ":3497,"ØŃØ³ÛĮÙĨ":3498,"ĠØ§ÙħØªÛĮØ§Ø²":3499,"ĠÙħØ§Ø²ÙĨØ¯Ø±Ø§ÙĨ":3500,"ĠØ§Ø³ÛĮØ¯":3501,"ĠØ´Ø§ÛĮ":3502,"st":3503,"ĠØ¯ÛĮÙĨÛĮ":3504,"ĠÙħÛĮÙĨ":3505,"ĠÙħØ¬Ø¨ÙĪØ±":3506,"Ø´Ú©ÙĦ":3507,"ĠÙħØ¹ÙħÙĪÙĦ":3508,"Ø¯Ø§ÙĨÙĨØ¯":3509,"ĠÙĨØ´Ø³Øª":3510,"Ø§Ø¯Ø§Ø±":3511,"ĠØ¯ÛĮØ¯Ú¯Ø§Ùĩ":3512,"ĠÙħÙĩÙħÛĮ":3513,"ĠÙħØ³Ø¦ÙĪÙĦ":3514,"em":3515,"ĠÙĤØ§ÙĨÙĪÙĨÛĮ":3516,"ĠÙħØªØºÛĮØ±":3517,"Ø§ÛĮÙĤ":3518,"ĠÙĤØ±Ø¢ÙĨ":3519,"ĠÙ¾Ø§ÙĨ":3520,"ĠØ§ÙĩØ§ÙĦÛĮ":3521,"ÙħØ±Ø¯":3522,"ĠØªØ²":3523,"ÛĮÙħÙĨ":3524,"ĠØ¹Ø¨Ø¯Ø§ÙĦÙĦÙĩ":3525,"ĠØªÙĪØ¶ÛĮ":3526,"Ø³ÙĦÙĩ":3527,"ĠÙĨØ§Øª":3528,"Ġ/":3529,"ÙĪÙĦÙģ":3530,"ĠÙģÙĨÛĮ":3531,"Ø§ÙħÙĪÙĨ":3532,"ĠÚ¯Ø±ÙģØªÙĨØ¯":3533,"ĠØ¬Ø¯ÙĪÙĦ":3534,"ĠÙħØŃØ§Ø³":3535,"ÙĨÚ¯Ø§Ø±":3536,"ĠØ§Ú¯Ø±ÚĨÙĩ":3537,"Ø§Ø¯ÙĪ":3538,"ĠÙħØ±Øª":3539,"ÙĨØ¬ÛĮ":3540,"ĠĠ":3541,"ĠÙħÛĮÙĦÛĮØ§Ø±Ø¯":3542,"ĠØ¢ÙĨØ¯":3543,"ĠØ§Ø¨Ø±Ø§ÙĩÛĮÙħ":3544,"ĠØ®ÙĦÛĮØ¬":3545,"ÙģÙĪØ±Ø¯":3546,"Ø§ÙĨØ¯Ø±":3547,"ĠØ§ÙģØªØ§Ø¯":3548,"Ø³ÙĪØ§Ø±":3549,"ĠÙĨÙĪØ±ÛĮ":3550,"ĠØ¯Ø§ÙħÙĨÙĩ":3551,"ĠØ¯Ø§ÙĨØ³Øª":3552,"ĠØŃÙģØ§Ø¸":3553,"ĠØ§Ø³Ø¨":3554,"ĠØµØ¯Ø§ÛĮ":3555,"ĠØ®Ø§ÙĦ":3556,"ĠØ§ÙħÙ¾Ø±Ø§ØªÙĪØ±":3557,"ĠØªØ¨ÙĦÛĮ":3558,"um":3559,"ww":3560,"Ø¢ÙĩÙĨÚ¯":3561,"ĠØ¯ÙħØ§ÛĮ":3562,"ĠÙħØ¯ÙĨÛĮ":3563,"ĠØ§ØŃØªÙħØ§ÙĦØ§":3564,"ÙĨÙĪØ´":3565,"Û°Û±":3566,"Ø±Ø¶Ø§":3567,"ĠÛ³Û¶":3568,"ĠØ§ÙĤÛĮØ§ÙĨ":3569,"ĠØ§ÛĮØ²":3570,"ĠÙĩÙĪØ§Ù¾ÛĮÙħØ§":3571,"ĠÙħÙĤØ±":3572,"Ġb":3573,"ĠØ¨ÛĮÙħØ§Ø±":3574,"th":3575,"Ù¾Ø°ÛĮ":3576,"ĠØ§Ø¹ØªÙĤ":3577,"Ø¨ÙĪØ±Ú¯":3578,"ĠÙĨØ§Ú¯":3579,"ĠÙģØ§Ø±Øº":3580,"ĠØ§ÛĮÙģØ§ÛĮ":3581,"ĠØ³ÙĪØ¦Ø¯":3582,"ĠØ¢ÙħØ§Ø¯Ùĩ":3583,"ĠØºÙĦ":3584,"Ø²ÛĮÙĩ":3585,"Ú¯ÙģØª":3586,"ĠØ±ØŃ":3587,"ĠØ¨ÛĮØ´ØªØ±ÛĮÙĨ":3588,"Ù¾Ø§":3589,"Ø´ÙĪ":3590,"ĠØ¨Ø§ÛĮ":3591,"ĠØªØ§Ú©":3592,"Û²Ûµ":3593,"ĠÙħØŃØ§Ø³Ø¨Ùĩ":3594,"Ġg":3595,"ĠØ³ÙĦÛĮ":3596,"ĠÙģØ¶Ø§ÛĮÛĮ":3597,"ĠÙ¾Ø±ÙĪØ±Ø´":3598,"ĠØ³ÙĦØ³ÙĦÙĩ":3599,"Ø¨ÙĨ":3600,"ĠØªØ±Ø¨":3601,"ĠØ¢ÙĩÙĨ":3602,"ĠÛ±Û¹Û¹Û°":3603,"ĠÛ¶Û°":3604,"ĠÙħØ³ÛĮØŃ":3605,"ĠÙĨØªØ§ÛĮØ¬":3606,"ĠÛ²Û°Û±Û¸":3607,"ĠÙĤØ±Ø§Ø±Ø¯Ø§Ø¯":3608,"ĠØ§Ø³Ú©Ø§Ø±":3609,"Ø²ÛĮØ¯Ùĩ":3610,"ÙĪØ±Ùĩ":3611,"ÙĪÙĦØª":3612,"ÙħØ§Ùĩ":3613,"ĠÚ©ÙĦÛĮØ³Ø§ÛĮ":3614,"ĠØ¨Ø±Ø§Ø¯":3615,"ÙĪÛĮÚĨ":3616,"Ø§ÙģØ¹":3617,"Ø³ØªÙĪÙĨ":3618,"ec":3619,"ĠÙĨÙĩØ§":3620,"ĠØ´ÙĦ":3621,"ĠØ³Ø§ÙĨØªÛĮ":3622,"ĠØªÙĨÚ¯":3623,"ĠØ¯ÙĪØ³ØªØ§ÙĨ":3624,"ĠÛĮÙĪÙĨØ§ÙĨ":3625,"ĠØµÙĪØ±ØªÛĮ":3626,"Ø¨Ø±Øª":3627,"ĠØ±Ø£ÛĮ":3628,"ĠÙħØªÙĪØ³Ø·":3629,"ĠÚ©ÙĪØ´":3630,"Ø§ÙĨØ¯Ùĩ":3631,"ĠÚ¯Ø±Ø¯ÛĮØ¯Ùĩ":3632,"ĠÛ²Û°Û°Û³":3633,"ĠÚĨÛĮØ²":3634,"ÛĮÙģÙĩ":3635,"ĠÙĨÙĪØ§ØŃÛĮ":3636,"ĠÛ²Û°Û°Û²":3637,"ÛĮØ¯ÙĨØ¯":3638,"ĠØ§Ø´Ø¹":3639,"ĠÚ¯Ø±Ø¯Ø¯":3640,"ĠØ®Ø±ÛĮØ¯":3641,"ĠØªØ§Ø¨Ø³ØªØ§ÙĨ":3642,"Ø§Ø¹ÛĮÙĦ":3643,"ĠÙħØ³ÙĦÙħØ§ÙĨØ§ÙĨ":3644,"ĠÙĨÚ©":3645,"ĠÙħØ¯Ø±Ú©":3646,"ĠØªØ¬Ø§Ø±Øª":3647,"Ġn":3648,"ĠØ§ÙģØ±Ø§Ø¯ÛĮ":3649,"ĠÙģØ¶Ø§":3650,"ĠØªÙĪØ¶ÛĮØŃ":3651,"ĠÚĺØ§Ù¾ÙĨÛĮ":3652,"ĠÙĨØµØ¨":3653,"Ġ3":3654,"ĠØ¢Ùĩ":3655,"ĠÙħØ´Ø±ÙĪ":3656,"Ġhttp":3657,"ĠÚ©ÙĨÛĮÙħ":3658,"ĠØ¢ÙħØ±ÛĮÚ©Ø§ÛĮ":3659,"ĠØ¬Ø¯ÛĮØ¯ÛĮ":3660,"ĠØ®Ø·ÛĮ":3661,"ĠÚ©ÙĪØ¯Ú©":3662,"ĠØ¨ÙĤ":3663,"Ø´ÙĨØ¨Ùĩ":3664,"Ø§ÙĪÛĮØ±":3665,"ĠØ¢Ø¯":3666,"ĠØªØ¨ÙĦÛĮØº":3667,"Ø²Ùħ":3668,"ĠÙĨØ§Ø¯Ø±":3669,"ĠØ³Ø¹ÛĮ":3670,"Ø²Ø¯Ø§ÛĮÛĮ":3671,"ĠÙĦÙĪØ¦":3672,"ĠØ®Ø±Ùħ":3673,"ĠØ¹Øµ":3674,"ĠÙĨÚ¯Ø§Ùĩ":3675,"Ø±Ø§Ùħ":3676,"Û²Û´":3677,"ÙħØ§Ø±Ú©":3678,"ĠÙħØ§Ø¯Ø±Ø´":3679,"Ø¯Ø³Øª":3680,"ĠÙĨÙħØ§ÛĮØ¯":3681,"ĠÙģØ±ÙħØ§ÙĨØ¯ÙĩÛĮ":3682,"ÙĦÙĪØ¨":3683,"ĠØ¨Ø³":3684,"ĠÚ©ÛĮÙģÛĮØª":3685,"ÙĤØª":3686,"ĠØ³Ø§ÛĮ":3687,"ĠÙħØ´ÙĩØ¯":3688,"Ġf":3689,"Ø¬ÙĪØ§ÙĨ":3690,"ĠÙħÙĪØ§ÙģÙĤ":3691,"ĠØ¢Ù¾":3692,"Ø¨ÙĨØ¯":3693,"ra":3694,"ĠÙĪØ¸ÛĮÙģÙĩ":3695,"ĠØ³ÙĪØ®Øª":3696,"ĠØ²ÙħÛĮÙĨÛĮ":3697,"ĠØ§Ø´Øª":3698,"ĠØ¯Ø¹ÙĪØª":3699,"ÙĤÛĮÙĤØª":3700,"ÙĨÚ©":3701,"ĠØ§ØªØµ":3702,"ĠØ±Ø§Ø¯ÛĮÙĪ":3703,"ĠØ¨Ø§Ø²Ø±":3704,"Ø¨ÙĦÛĮ":3705,"ĠØ§Ø¨ÙĪØ§ÙĦ":3706,"ĠÙħØ±Ø§Ú©Ø²":3707,"ĠØ²ÛĮØ¨Ø§":3708,"Ø§Ø¯Øª":3709,"Ø§Ø¨Ø±ÛĮ":3710,"ĠØ¹Ø§Ø´":3711,"ĠÙħÙĪØ´Ú©":3712,"ĠÙĪØ§Ø´":3713,"ĠØ§Ø³Ú©Ø§Øª":3714,"ÛĮØ²Ùĩ":3715,"ĠÙĩÙĪØ§Ú¯Ø±Ø¯":3716,"ĠØ¨Øº":3717,"Ù¾ÙĪØ´":3718,"ĠÙģÛĮÙĨ":3719,"ĠØ¶Ø±":3720,"Ø¬ÙĩÛĮØ²":3721,"ÚĨÙħ":3722,"ĠÚĨÛĮÙĨÛĮ":3723,"ĠØ·Ø¨ÛĮØ¹Øª":3724,"ĠØ³ÙĤÙĪØ·":3725,"ov":3726,"Û³Û°":3727,"ĠÛ±Û¹Û¹Û¹":3728,"ĠØ´Ø§Ø±":3729,"Ø²ÙĨØ¯":3730,"ĠØ¯Ø§":3731,"Ø¨ÙĩÙĩ":3732,"ĠØ´ÛĮØ¹Ùĩ":3733,"Ú¯Ø§Ø±ÛĮ":3734,"ĠØ¯ÛĮØ¯Ø§Ø±":3735,"ĠÚ©ÙĨÙĨØ¯Ùĩ":3736,"ĠÛ±Û³Û±Û":3737,"ĠÙĨØ§ØµØ±":3738,"ĠØ±ÙĪØ³":3739,"ĠÙħØŃÙĤ":3740,"Ø±ÙĪØ´":3741,"Ø§ÙĪÛĮÙĩ":3742,"ĠÙ¾Ø¯ÛĮØ¯Ùĩ":3743,"ĠÙħØ³ØªÙĨØ¯":3744,"ĠÙħÙĪØ§Ø¬Ùĩ":3745,"ĠØ¬Ø§ÙħØ¹":3746,"ØªØ§ÙĨ":3747,"ĠÙ¾Ø±ÙĪØªØ¦ÛĮÙĨ":3748,"ĠÛ±Û¹Û¹Û¸":3749,"ĠÚ¯ÛĮØ§ÙĩØ§ÙĨ":3750,"ĠØ§ÙĦÙģ":3751,"ĠÚ©ÙĪÙħÙĪÙĨÙĩ":3752,"ĠØ³ÙĦØ·ÙĨØª":3753,"ĠÚ©Ø§Ø´":3754,"ĠÙħØŃØ¯ÙĪØ¯Ùĩ":3755,"ĠÙĦÙĪÙĦÙĩ":3756,"ph":3757,"ĠÙħØ¹Ø§ØµØ±":3758,"Ø§Ø¨Ø±Øª":3759,"ÙĪØŃ":3760,"ĠØªØ¬ÙĩÛĮØ²":3761,"ĠÚ©ÙĩÙĨ":3762,"ĠÙģÙĦØ²":3763,"ÙĩØ§Ø±":3764,"ĠÙĪÛĮØ±Ø¬":3765,"ĠØ¶ÙħÙĨ":3766,"ant":3767,"ĠØ¬Ø²Ø¦ÛĮ":3768,"ĠÛ²Û°Û°Û±":3769,"Ø³ÙĦØ·":3770,"ĠØºØ°Ø§ÛĮÛĮ":3771,"ĠØ¹ÛĮÙĨ":3772,"ĠØ¯Ø§ÙĨØ³ØªÙĩ":3773,"Ø®ÛĮØ±":3774,"ĠØ¶Ø¨Ø·":3775,"ĠÚ©Ø±Ø¯Ø³ØªØ§ÙĨ":3776,"ĠØ¨Ø±ÙĪØ²":3777,"ĠÙģØ±Ø§ÙĪ":3778,"ĠØ¬ÙĨÚ¯ÛĮ":3779,"Ù¾Ø§Ø±":3780,"ĠÚ©Ø§Ø¨":3781,"ĠÚ¯Ø°Ø´Øª":3782,"ĠÙĩÙħÙĪØ§Ø±Ùĩ":3783,"ĠØ§Ø¹ØªÙĤØ§Ø¯":3784,"ib":3785,"Û³Ûµ":3786,"ĠØ¹Ú©":3787,"ĠÚ¯ÛĮØ±Ø¯":3788,"ĠÙħØ§Ø±Øª":3789,"ĠÙĤØ·Ø±":3790,"ĠØ®Ø§ÙĪØ±":3791,"ĠØ¨Ú¯ÛĮØ±Ø¯":3792,"ĠØ³ÙĪØ³ÛĮ":3793,"ĠØ¨Ø§Ø²Ø³Ø§Ø²ÛĮ":3794,"ÙħØŃÙħØ¯":3795,"ĠØ´Ø§":3796,"ĠØ³ÙĩØ§Ùħ":3797,"ĠÙĩÛĮØ¯Ø±ÙĪ":3798,"ĠØ±ÙĪÙĨØ¯":3799,"ĠÚĨÙĩÙĦ":3800,"Ø¨Ø§Ø²ÛĮ":3801,"ĠØ¢Ú¯":3802,"ĠØ¨Ø±Ú¯Ø²Ø§Ø±ÛĮ":3803,"ĠØ´Ú©Ø§Ø±":3804,"ĠØ¨Ø±ÙħÛĮ":3805,"ĠØ¹ÙħØ¯":3806,"ĠØ±ÙģØªÙĨ":3807,"ul":3808,"Ø§Ø±Ú©Øª":3809,"ĠØ¢ÙģØ±ÛĮÙĤØ§":3810,"ĠØ¯ÙħÙĪÚ©Ø±Ø§Øª":3811,"ĠÙħØªÙħ":3812,"ĠThe":3813,"ĠØ¹ÙĨØ§ØµØ±":3814,"ĠÙģÙĦØ²ÛĮ":3815,"ĠÙħØºØ²":3816,"ĠØ§Ø®ÙĦØ§ÙĤ":3817,"ĠÚ©Ø±ÙĪ":3818,"ĠÙħØŃÚ©ÙĪÙħ":3819,"ĠÙħØ´Ø§ÙĪØ±":3820,"oc":3821,"ÙĨÙħØ§ÛĮØ¯":3822,"ĠÚĨÙĪØ¨":3823,"Ø¬Ø§ÛĮ":3824,"ĠÙĨØ§":3825,"ĠØ±ÙĤØµ":3826,"ØŃÛĮØŃ":3827,"ĠØ¨ÛĮÙĦ":3828,"Ø§ÙĤÛĮ":3829,"ĠÙ¾ÛĮÙħØ§ÙĨ":3830,"ĠØ³Ø±ÙĪÛĮØ³":3831,"ĠØ§Ø³ØªÛĮ":3832,"ĠØ¯Ø³ØªÚ¯ÛĮØ±":3833,"ĠÛ±Û¸Û¶":3834,"ĠÙħØ§ÛĮÚ©ÙĦ":3835,"ĠÙĨÙħØ§Ø¯":3836,"ĠÚ¯ÙĪÛĮØ´":3837,"ĠØŃØ§ÙģØ¸Ùĩ":3838,"ÙħØ§ÙĩÛĮ":3839,"ĠÙĨÙĪØ´ØªÙĨ":3840,"ØªÙĪÙĨÛĮ":3841,"ĠØ¬ÛĮÙħØ²":3842,"ĠØªÙĪÙĨ":3843,"Û³Û²":3844,"ĠØ´ÙĩØ±ÙĩØ§":3845,"ĠÙģØ±Ø§ÙĪØ§ÙĨÛĮ":3846,"Û²Û²":3847,"ĠØ¯ÙĨÛĮØ§ÛĮ":3848,"ĠØ´Ø´Ùħ":3849,"ĠÙģÙĦÙĪØ±":3850,"ĠÙħØ¤Ø«Ø±":3851,"ĠØ¸Ø±ÙģÛĮØª":3852,"ĠÙĨØ¸Ø§Ø±Øª":3853,"ĠØ¬Ø¨ÙĩÙĩ":3854,"ation":3855,"ĠØ¨Ø³Øª":3856,"ĠØŃÙĤÛĮÙĤØª":3857,"ÙģØ§ÙĦØª":3858,"ĠÚ¯Ø°Ø±Ø§ÙĨ":3859,"ĠâĢ":3860,"ĠÛ±Û¸Û·":3861,"ØµÙģ":3862,"ĠØ³Ø±Ø·Ø§ÙĨ":3863,"ĠØŃÙģØ§Ø¸Øª":3864,"ĠÙħÙĦÚ©":3865,"Ú©ÛĮØ¯":3866,"ĠÙĨØ§Ø®":3867,"ĠÛĮØ§ØªØ§":3868,"ĠØ§Ø¸":3869,"ĠÚ©ÙĦØ§Ø³ÛĮÚ©":3870,"ĠÙĤØ¨Ø±":3871,"ĠØ±ÙħØ²":3872,"ĠØ§ÙĨØŃ":3873,"ĠÂł":3874,"ÙĦÛĮÙģ":3875,"ĠÙħÙĦØª":3876,"Ù¾ÛĮØ´":3877,"ĠÚ©ÙħÙĪÙĨÛĮ":3878,"ÙĪØ±Ú¯":3879,"ĠWikipedia":3880,"ĠÙĨØ§Ø´":3881,"Ø§Ø®ØªÛĮ":3882,"ĠØ®Ø´":3883,"ĠÛĮØ®":3884,"ĠÚ©Ø´ÙĪØ±ÙĩØ§":3885,"ĠØµØŃØ¨Øª":3886,"ĠÙĤØ¨ÙĦÛĮ":3887,"ÙħØ±ÛĮ":3888,"ers":3889,"ĠØ¬ÙĨØ³":3890,"ĠÙħØ§Ú©":3891,"Ø±ÙģØªÙĩ":3892,"ĠÙħØ±Ø¨ÛĮ":3893,"ĠØ´ÙĩÛĮØ¯":3894,"ĠÙĨØ¬Ø§Øª":3895,"Ø¨Ø§Ø±ÛĮ":3896,"ĠÙħØ¬Ø§Ø±Ø³ØªØ§ÙĨ":3897,"ĠÙ¾Ø±ÛĮ":3898,"ĠØµÙĦÛĮ":3899,"ĠÙĨÙĪÛĮØ³ÙĨØ¯Ú¯ÛĮ":3900,"ÙĨÙĪÛĮØ³Ø¯":3901,"ĠØ®Ø±ÛĮ":3902,"ĠØ§Ø³ÙħØ§Ø¹ÛĮÙĦ":3903,"ĠÙĨØ¯Ø§Ø±ÙĨØ¯":3904,"ĠÙħØ³Ú©ÙĨ":3905,"ĠØ§Ø´ØªØ¨":3906,"ÙĪØ§Ùħ":3907,"ĠÛĮÙĩÙĪØ¯ÛĮØ§ÙĨ":3908,"ĠÛ²Û°Û°":3909,"ĠÙ¾ÛĮÚĨÛĮØ¯Ùĩ":3910,"ÙĪÙ¾Ø±":3911,"ĠØªÚ©Ø±":3912,"ĠØ±Ø§Ø³":3913,"ÙĪØªÙĪ":3914,"Ø¨ÙĪÙĦ":3915,"ĠØ®Ø§Øª":3916,"ĠØ´Øº":3917,"ĠØ§Ø³ØªÙĪØ¯ÛĮ":3918,"ĠÛ´Ûµ":3919,"ĠØ¨Ø§Øª":3920,"Ø±ÙĪÙĨØ¯":3921,"ĠÚ¯ÙĨØ¬":3922,"ĠØ§Ø®ØªØ±":3923,"ĠÙģØ±Ø³ØªØ§Ø¯":3924,"ĠÙħÙĨÙģÛĮ":3925,"ĠØ¹Ø¶ÙĪÛĮØª":3926,"ĠÙħØ¹Ø§Ø¯":3927,"ĠÚ¯Ùħ":3928,"Ø³Ø§Ø²Ø¯":3929,"Ø§Ù¾ÙĪØ±":3930,"ĠØªÙĤÙĪÛĮÙħ":3931,"Ø´ÛĮØ¯":3932,"ÙĨÙĪØ¹ÛĮ":3933,"Û²Û°Û±Û":3934,"ĠØ¯ÛĮÚ¯Ø±Ø§ÙĨ":3935,"ĠØ¬ÙĪØ§ÙĨØ§ÙĨ":3936,"ĠÙĨØ§ÙĨ":3937,"ĠÙģØ±Ø§ÙĪØ§ÙĨ":3938,"ĠÚ©ÙħÙ¾Ø§ÙĨÛĮ":3939,"ĠØ³ØªÙĪÙĨ":3940,"ĠÙ¾Ø±ÙĨØ¯Ùĩ":3941,"ĠØ³ÙĪØ²":3942,"ĠÙħÚ©Ø§ÙĨÛĮ":3943,"ĠØ§ÙĦØ¬Ø²":3944,"ĠØªØµØ±Ùģ":3945,"ĠÛ±Û¹Û¸Û°":3946,"ĠØ³Ø§Ø±":3947,"ĠÙħÙĨØ´":3948,"ĠØµØ§Ø¯Ø±":3949,"ĠÙĤØ·Ø¨":3950,"ĠÚ©Ø§Ø³Øª":3951,"ĠÙħØ®Ø§ÙĦÙģØª":3952,"ÙģØ±ÛĮÙĨ":3953,"Ø¹ÛĮÙģ":3954,"ÙĦØ§ÙĨ":3955,"Ø§ÙħÙĨ":3956,"ĠØ¬Ø²ÙĪ":3957,"ĠÙĪÛĮÚ©":3958,"ĠØ§Ø¹Ø¯Ø§Ùħ":3959,"ÙĦØ±Ø²Ùĩ":3960,"ĠØ³ÙĦØ·ÙĨØªÛĮ":3961,"ĠØ¯Ø§ÙĨØ´Ø¬ÙĪÛĮØ§ÙĨ":3962,"ĠØ³ÙĨØ¬":3963,"ĠØ®ÙĪØ§Ø¨":3964,"ĠØ´Ø§ÛĮØ¯":3965,"ĠØŃØ§Ø¬":3966,"Ú¯ÛĮÙĦ":3967,"Û±Û³":3968,"Ø±Ø¶":3969,"ĠÛ³Û±":3970,"Ø§ØŃØªÛĮ":3971,"ĠØªØ§Ùħ":3972,"ount":3973,"og":3974,"ĠØ¢ÙĤØ§ÛĮ":3975,"ĠØ¢Ø°Ø±":3976,"ÙģØ±ÛĮ":3977,"ĠØªØ®Ø±ÛĮØ¨":3978,"Ø²Ø§ÛĮ":3979,"ĠÙĨØ§ÛĮ":3980,"ĠÚ©Ø§ÙħÙ¾ÛĮÙĪØªØ±":3981,"ĠØŃØ¬Ùħ":3982,"ĠØªØµØ§Ø¯":3983,"ĠØ¬ÙĦØ¯":3984,"ĠØªØ¯":3985,"ĠØ®Ø·ÙĪØ·":3986,"ĠÙĨÙĪÛĮØ³ÙĨØ¯Ú¯Ø§ÙĨ":3987,"ĠÙĩÙĨØ¯ÛĮ":3988,"ĠØªÙħØ¯":3989,"ĠØ§ÙħÛĮØ¯":3990,"ĠÙħØªØ¹Ø¯Ø¯ÛĮ":3991,"ĠÙħØ¹Ø¯ÙĨÛĮ":3992,"ĠâĢ¦":3993,"ĠÙĨÛĮØ´":3994,"Ø§Ø¨ÙĩØ§Ùħ":3995,"ĠÙĦÙĪÚ©":3996,"ĠÚ¯Ø°Ø±":3997,"ĠØ´ÙĩØ±ÙĪÙĨØ¯":3998,"ĠØ§ÙħØ±ÙĪØ²ÛĮ":3999,"ĠØ¨Ø®ØªÛĮ":4000,"Ø¨Ø±Ø§ÛĮ":4001,"ĠÚĨØ§Ùĩ":4002,"ĠØ¯Ø±Ú©":4003,"ĠÙĩÙģØªÙħ":4004,"Ø²Ø¨Ø§ÙĨ":4005,"Û±Û¹":4006,"ĠØ¯Ø±ÙĪØ§Ø²Ùĩ":4007,"ĠØ®ÙħÛĮÙĨÛĮ":4008,"ÙĪØ±Ø¯ÛĮ":4009,"ĠØ¨Ø±Ø¯Ø§Ø´Øª":4010,"ĠØ§ÙĩØ¯Ø§Ùģ":4011,"ĠÙħÛĮÚ©Ø±ÙĪ":4012,"ÙħÙĪÙĦÛĮ":4013,"ĠØ³ÙĨÚ¯ÛĮÙĨ":4014,"ĠØ§ÛĮØ±Ø§ÙĨÛĮØ§ÙĨ":4015,"ĠØ¨Ø§Ø²Ø¯Ø§Ø´Øª":4016,"ØªÙħÙĨØ¯":4017,"ĠÙħÙĨØµÙĪØ¨":4018,"ay":4019,"ĠÙħØªÙĪØ¬Ùĩ":4020,"ĠÙħØ¹ÙĦ":4021,"ĠÙĪÛĮÚ©ÛĮ":4022,"ĠØ¹ÙĦÛĮØ§":4023,"ĠÙĩÙħØ²ÙħØ§ÙĨ":4024,"ĠØ§ÙĤÛĮØ§ÙĨÙĪØ³":4025,"ĠØ®Ø±Ø¯Ø§Ø¯":4026,"ĠØ¯ÛĮÙĪÛĮØ¯":4027,"ÙĪØ±Ùģ":4028,"Ø¹ÙĦ":4029,"ĠÙħØ¹Ø§ÙĪÙĨ":4030,"ĠÙģÛĮØ²ÛĮÚ©ÛĮ":4031,"ÙĦÛĮØ³":4032,"ÙĦØ§ÙĨØ¯":4033,"ĠÙĦØ°":4034,"Û²Û·":4035,"ĠÙĩÛĮÙĦ":4036,"ĠÙĤØ·Ø¹Ø§Øª":4037,"ĠÙĩÙĨØ±ÙĩØ§ÛĮ":4038,"ĠØ¯Ø¨ÛĮØ±Ø³ØªØ§ÙĨ":4039,"ÙĨÙħØ§ÛĮ":4040,"Û±Û¸":4041,"ÙħØ¬ÙħÙĪ":4042,"ĠØ§Ø¯ÛĮ":4043,"Ø¹ÛĮØ¯":4044,"ĠÙĩØ±ÚĨÙĨØ¯":4045,"ĠÙĨÛĮØ³ØªÙĨØ¯":4046,"ĠÛĮØ²Ø¯":4047,"ĠØ´ÛĮØ´Ùĩ":4048,"ĠÚ©Ø§ÙĨØ§ÙĦ":4049,"ÚĨØ§Ø±Ø¯":4050,"ĠØ§Ø³ØªØ®ÙĪØ§ÙĨ":4051,"Ø¬ÙĨ":4052,"ĠØ§ÛĮÙĨØªØ±ÙĨØª":4053,"Ø§ÙĨÛĮØ¯":4054,"ĠØ³ÙĦØ§ØŃ":4055,"ĠØ§Ø±Ø³Ø§ÙĦ":4056,"Ø§ÛĮÙħ":4057,"ĠÛ³Û´":4058,"ÙĦØ§Ùģ":4059,"ĠØ«Ø±ÙĪ":4060,"ĠØ¹Ø²":4061,"ĠÙħÛĮØ²Ø¨Ø§ÙĨ":4062,"ÛĮÙĨÚ¯ØªÙĨ":4063,"ĠÙĤØ±Ø¨":4064,"ĠÚ¯Ø§ÙĦ":4065,"ĠÙģØ±ÙħØ§ÙĨØ±ÙĪ":4066,"Û±Û±":4067,"ĠÙħØ´Ø§Ø±Ú©Øª":4068,"ĠØ´ÙĪØ±Ø´":4069,"ĠØ¨ÙĨØ§Ùħ":4070,"ĠÙ¾ÛĮØ±Ø§ÙħÙĪÙĨ":4071,"ĠØ¨Ø§ÙĦØ§ÛĮÛĮ":4072,"Û³Û·":4073,"ĠØ¨ÙĩØ§Ø±":4074,"ĠÚ©Ø¯Ø§Ùħ":4075,"Ú¯ÙĪØ±":4076,"ĠÙĦÙĤØ¨":4077,"ĠÙ¾Ø±Ø§Ú©":4078,"Ġthe":4079,"ĠÚ©Ø§Ø±ÙĦ":4080,"Ø¹ÙĩØ¯Ùĩ":4081,"Ø¨Ø³":4082,"Ø§ÙĨØ´":4083,"Ø§ÙĩØ±":4084,"ĠØ¹ÙħØ¯ØªØ§":4085,"ĠØªØ¬Ø²ÛĮÙĩ":4086,"Û²Û¶":4087,"ĠØŃØ¯ÛĮ":4088,"Û³Û¶":4089,"Ø§ØªÛĮÚ©":4090,"Ø¬ÙĪÛĮ":4091,"ĠØ§ÙĦÙĦÙĩ":4092,"ak":4093,"ĠØ¢Ø´ÙĨØ§":4094,"ĠÚ¯ÛĮØª":4095,"ĠØ§Ø·ÙĦØ§Ø¹Ø§ØªÛĮ":4096,"ĠÙĨØ±Ø®":4097,"ĠØ²ÛĮØ¨Ø§ÛĮÛĮ":4098,"ĠÙģÙĦØ³Ø·":4099,"Ø±Ø§Ø¨":4100,"ĠÙĤÙĩ":4101,"ĠØŃÛĮØ§Øª":4102,"ĠØ§ÙĨÚ¯ÙĦÛĮØ³":4103,"ĠÙ¾Ø±Ø¯Ø§Ø®ØªÙĩ":4104,"Ø¯ÙĪÛĮÙĨ":4105,"ĠØ²ÙħØ³ØªØ§ÙĨ":4106,"ĠÙħØ¬Ø§Ø²":4107,"ĠÙģØ±Ø²ÙĨØ¯Ø§ÙĨ":4108,"ĠØ¢Ø³ÙģØ§ÙĦØª":4109,"ĠØ¨ÙĦØº":4110,"ÙĨÚ¯Ø§Ø±ÛĮ":4111,"ĠØ¯Ø±Ø¯":4112,"ÙĩÙĪØ±":4113,"ĠÙĩÙħØ³Ø±Ø´":4114,"ĠØ¯ÙĪÛĮ":4115,"Ú¯Ø±ÙĪ":4116,"Ø¶Ùĩ":4117,"ĠÙĩÙħØ¯Ø§ÙĨ":4118,"ÚĨØ´Ùħ":4119,"ĠÛ³Û·":4120,"Ø§ØŃÙħØ¯":4121,"ĠØ¯Ø±Ø¨Ø§Ø±":4122,"ĠØ®ÙĦØ§Ùģ":4123,"ØµÙĪØ±Øª":4124,"ĠÚ©ÙħØ¯ÛĮ":4125,"ĠØªØ£Ú©ÛĮØ¯":4126,"Ø§ÙĦØªØŃ":4127,"ÙĤØ§Ø¨ÙĦ":4128,"Û°Û¸":4129,"Û³Û´":4130,"ÙĤØ§Øª":4131,"ĠÙħØ³Ø¦ÙĪÙĦÛĮØª":4132,"ĠØ±ÙĪÙħÛĮ":4133,"ĠØ¨ÙĪØ´":4134,"ĠÙħØ³Ø§ÙģØ±":4135,"ĠÙħÙħÙĨ":4136,"ĠÙĥ":4137,"ĠØªØ¬ÙĩÛĮØ²Ø§Øª":4138,"Ø¨ØŃ":4139,"ĠØ§ØªÙĪÙħ":4140,"Ø¯Ø§ÙĨØ³Øª":4141,"ĠÙħØ«Ø¨Øª":4142,"ĠØ²Ø®":4143,"Ġa":4144,"ĠØ¨Ø±ÛĮ":4145,"Ø¨ÙĩØ´Øª":4146,"ĠØªØ±Ú©ÛĮØ¨ÛĮ":4147,"ĠÙģÚ©Ø±":4148,"ÙĪØ³ØªØ§ÙĨ":4149,"ĠØ¨ÛĮØ³ØªÙħ":4150,"ĠØ§Ø´ØªØ¨Ø§Ùĩ":4151,"ĠØ¢ÙĪØ§Ø²":4152,"ĠØ³ÙģÙĦÛĮ":4153,"ĠØ¬Ø²Ø§ÛĮØ±":4154,"ĠÙħØŃÙĪØ±":4155,"ĠÙħØ´ØªØ±ÛĮ":4156,"ĠØªÙĦÙģÙĨ":4157,"ĠØ¨Ø±ÙĨØ²":4158,"ÙĦØ§Ø³":4159,"ĠÚ©ÙĪÙĦ":4160,"ÛĮØ±ÙĪ":4161,"Û±Û±Û":4162,"Ø¬ÛĮØª":4163,"ĠÙ¾Ø±ÙĪÙĨØ¯Ùĩ":4164,"ĠØŃØ§ÙĪÛĮ":4165,"ĠÙ¾ÙĨØ¬Ø§Ùĩ":4166,"ĠÚĨÙĩØ§Ø±ÙħÛĮÙĨ":4167,"ĠÙĩÙĪØ±":4168,"Ø®ÙĪØ§ÙĨØ¯Ùĩ":4169,"ĠØ¨ÙħØ¨":4170,"ĠØ§Ú©Ø«":4171,"ĠØ³Ø§ÙĦÙĨ":4172,"Ø¢ÛĮÙĨØ¯":4173,"Ø®ÙĪØ§ÙĩØ¯":4174,"ĠØ¨Ø±Ú¯Ø²ÛĮØ¯Ùĩ":4175,"ÛĢ":4176,"Ú¯Ø°Ø§Ø±Ø¯":4177,"Û¸Ûµ":4178,"ĠÙħØ±Øº":4179,"Ø¬Ø§Ø±":4180,"ĠØ¹Ø¯Ùĩ":4181,"ĠØ§Ø³ÙģÙĨØ¯":4182,"Ø±Ø§Ø¬":4183,"ĠÙ¾ØªØ±":4184,"ĠØ§ÙĦØŃ":4185,"ĠÚ¯Ø±Ùĩ":4186,"ĠØ§ØªØµØ§ÙĦ":4187,"Ø³ÙĨÚ¯":4188,"Ú¯Ø±Ø§":4189,"Û°Û³":4190,"ĠÛ±Û³Û¹Û°":4191,"ĠØ§ÙģØ³Ø§ÙĨÙĩ":4192,"ÙĨÙģØ±":4193,"ĠØ§ÙĨØªØ´Ø§Ø±Ø§Øª":4194,"ĠØ§Ø´ØºØ§ÙĦ":4195,"ĠÙħÛĮØ±Ø§Ø«":4196,"ĠØ±Ø§Ùħ":4197,"ĠØ¬ÙĪØ±Ø¬":4198,"ĠØ¯ÛĮÙĪØ§ÙĨ":4199,"ĠÙģØ¹ÙĦÛĮ":4200,"ĠØ¬Ø§ÙĨØ´ÛĮÙĨ":4201,"ĠØ¢ÙħØ¯ÙĨ":4202,"ĠØ¯ÙĩØ§ÙĨÙĩ":4203,"ÙħØ¬ÙħÙĪØ¹Ùĩ":4204,"ie":4205,"ĠÙĪÛĮØ¯Ø¦":4206,"Ø¯Ø±Ø¶Ø§":4207,"ĠÛ²Û°Û±Û¹":4208,"ĠØ±Ø¯ÛĮ":4209,"ĠÙħÙĤÛĮ":4210,"âĢį.":4211,"ĠÚ©ØªØ§Ø¨ÛĮ":4212,"ĠÙģÛĮÙĦÛĮÙ¾":4213,"ĠØ§ÙĨØ¯ÛĮØ³":4214,"Ø¢ÙħÛĮØ²":4215,"ĠØ³ÛĮØªÛĮ":4216,"ĠÙģÙĤ":4217,"Ø³Ø§ÙĨØ³":4218,"ĠØ§ÙĪØ¬":4219,"ÙĤÛĮØ¨":4220,"Ø¨ÛĮØª":4221,"ÚĺØ§ÙĨØª":4222,"Ø§ØŃØ¨Ùĩ":4223,"ĠØ®ÙĪØ§ÙĩÙĨØ¯":4224,"ØªÛĮÙĨ":4225,"Ø§Ø·ÛĮØ³ÛĮ":4226,"ĠÙħØ«ÙĦØ§":4227,"ĠÛ±Û¹Û¹Û²":4228,"ĠÙħÛĮÙĪÙĩ":4229,"ĠØ¨ØªÙĪØ§ÙĨØ¯":4230,"ØŃØ§Øª":4231,"ĠÙĨØ¯Ø§Ø´ØªÙĩ":4232,"ĠØ´ÙĩØ±ÛĮÙĪØ±":4233,"ĠØºØ°Ø§":4234,"ĠØ§Ø¨ØªØ¯Ø§ÛĮÛĮ":4235,"ĠÚ©ÙĪØ¯Ú©ÛĮ":4236,"Ø§ÙĨØ¯ÙĨ":4237,"ÙĪÛĮØ§":4238,"ĠÚĨÛĮ":4239,"ĠÛ±Û¹Û·Û°":4240,"ĠØ§Ø±Ø²ÛĮ":4241,"ĠØ±Ø¨":4242,"ĠØµÙģÙĪÛĮ":4243,"ĠØ³ÙĪØ§Ø±":4244,"ĠÙĤÙĦØ¨":4245,"ĠÙĦØ´Ú©Ø±":4246,"ĠØ¯Ø³ØªØ±Ø³":4247,"ĠØµØ¯Ø±":4248,"ĠØ¨Ø±ÙĤØ±Ø§Ø±":4249,"ĠØ±Ú©ÙĪØ±Ø¯":4250,"ĠØ¹Ùģ":4251,"ĠÙĨÚĺØ§Ø¯":4252,"ĠÙĤØ§Ø±Ùĩ":4253,"ĠÙħØ§ÛĮØ¹":4254,"ĠÙĩÙĪØ§Ù¾ÛĮÙħØ§ÛĮÛĮ":4255,"ĠØ§ÙĨØ¯ÛĮØ´Ùĩ":4256,"ĠØ§ÙħÙĨÛĮØªÛĮ":4257,"ĠØ¹ÙĨØµØ±":4258,"Ø§Ø¯Ø«Ùĩ":4259,"ĠÙħÙĨØ§Ø³":4260,"ĠÙĦØ§":4261,"Û°Û¹":4262,"ĠÙħÙĤØ§ÙħØ§Øª":4263,"Ø²Ø§Ùħ":4264,"Ú©ÛĮÙĨ":4265,"ĠÛ±Û¸Û¸Û":4266,"Ġ201":4267,"ĠÙĩÙĨØ±ÙħÙĨØ¯Ø§ÙĨ":4268,"ĠØ§ÙĨØªÙĤØ§Ø¯":4269,"ĠÛ±Û¹Û¹Û¶":4270,"ĠÙĤØ²ÙĪÛĮÙĨ":4271,"Ú©ÙĨÙĨØ¯Ú¯Ø§ÙĨ":4272,"ict":4273,"ĠØªÚ©ÙĨÛĮÚ©":4274,"ĠØ±Ø§Ø¨Ø±Øª":4275,"ĠØ¢ÛĮÛĮÙĨ":4276,"ĠØ§ØŃØ¯":4277,"Ú©ÛĮÙĦ":4278,"ĠØ¯ÙĪØ±Ø¨ÛĮÙĨ":4279,"Ø´ÙĨØ§Ø³Ø§ÙĨ":4280,"ĠÛ±Û¹Û¶Û°":4281,"ĠØ§Ø³ØªØ±Ø§Øª":4282,"ĠÚ©ÙĦÙħØ¨":4283,"Û´Û°":4284,"ĠÙ¾ÛĮÙĪØ³ØªÙĩ":4285,"ĠÙĤÙĦÙħØ±ÙĪ":4286,"ĠÙĤØ·Ø¹ÙĨØ§ÙħÙĩ":4287,"ÛĮØ¯Ø§ÙĨ":4288,"ÙģØ³":4289,"ĠØ¯Ø±ÙħØ§ÙĨÛĮ":4290,"ĠØ±Ø§Ø¬":4291,"ĠÙģÛĮØ±":4292,"ÙĪØ¦ÙĦ":4293,"ĠÙħØ¹ÙħÙĪÙĦÛĮ":4294,"ĠØµÙĨØ¯":4295,"ĠÙħØŃÙĪØ·Ùĩ":4296,"ĠÙ¾Ø±Ø³Øª":4297,"ĠÙģØ¯Ø±Ø§Ø³ÛĮÙĪÙĨ":4298,"ĠØ§Ø¨ØªØ¯Ø§ÛĮ":4299,"ĠØªÙĪØ§ÙģÙĤ":4300,"Ú©ÙĨÛĮÙħ":4301,"ĠÙħØµØ§ØŃØ¨Ùĩ":4302,"ĠÙĪØ§ÛĮ":4303,"Ø§Ø±ÙĨ":4304,"ĠØ³Ø§ØŃÙĦ":4305,"ĠÙĦØ±Ø³ØªØ§ÙĨ":4306,"ĠÙħÚ©Ø²ÛĮÚ©":4307,"ĠØ¬Ø±Ø§ØŃÛĮ":4308,"Ġ=":4309,"ounty":4310,"Ø±ÙĤ":4311,"ÙĪÙĦÛĮÚ©":4312,"ĠØªÙĪÙĦØ¯":4313,"Ø§ÙĨØ¯Ø§Ø²":4314,"ĠØ¯ÙĪÙĨ":4315,"ĠÙĪØ§Ø´ÛĮÙĨÚ¯ØªÙĨ":4316,"ĠÙĩØ§Ø´":4317,"ĠØ¨Ø§Ø²ÛĮÚ©":4318,"ĠØ¯Ø§ÙĪ":4319,"ĠØ¨Ø²Ø±Ú¯ØªØ±":4320,"ĠØªÙĩØ¯ÛĮØ¯":4321,"ÙħØªÛĮ":4322,"Ú©Ø´Ø¯":4323,"ĠÛ¸Û°":4324,"ĠÙħØªÙĩ":4325,"ĠØ¢Ú©Ø§Ø¯":4326,"ce":4327,"ĠÛ¹Û°":4328,"ĠÚ©Ø§Ø¨ÙĦ":4329,"Û¸Û°":4330,"ĠÚ©Ø§Ø±Ø¨Ø±Ø§ÙĨ":4331,"ĠØªÙħØ§Ø³":4332,"ÙĨØ±Ø§ÙĨÛĮ":4333,"ĠØ±Ø§ÙĩÛĮ":4334,"ĠÚ©ÙĨØ³Ø±":4335,"ĠØ³Ø§ÙĨØª":4336,"ĠØ¨Ø§ÙĦØº":4337,"Û¹Ûµ":4338,"ĠÛ±Û¹Û¹Û·":4339,"ĠÙħØ³ÙĦØŃ":4340,"ĠÚ¯Ø±Ø§ÛĮØ´":4341,"Ø¬ÙĨØ³":4342,"ĠÙĩÙħØ§Ùĩ":4343,"ĠØ¯Ø§ÙĨÙĩ":4344,"ĠØ§ÙĦÙĤ":4345,"ĠÙĪØ§ÙĦÛĮØ¨Ø§ÙĦ":4346,"ĠØ«Ø§ÙĨÛĮÙĩ":4347,"ĠÛ·Û°":4348,"Ù¾ÙĨ":4349,"ĠØ¢ÙĪØ±Ø¯ÙĨ":4350,"Ø§ÛĮÙģ":4351,"ĠÛĮØ§ÙģØªÙĨ":4352,"ĠÚ¯Ø§Ùħ":4353,"ĠØ¨ÙĨØ§ÛĮ":4354,"ÛĮØ¨ÙĩØ´Øª":4355,"Ġ19":4356,"ĠØ²Ø¯ÙĨ":4357,"ĠØ³ÛĮÙĨÙħØ§ÛĮ":4358,"ĠØ§Ø³ØªØ®Ø±":4359,"ĠÙĨÙħØ§ÛĮØ´Ú¯Ø§Ùĩ":4360,"ØºØ°":4361,"ĠÙħØºÙĪÙĦ":4362,"ĠØ¨ÙĦÚĺÛĮÚ©":4363,"ĠÚ©ÙĦÛĮØ³Ø§":4364,"ĠÙħÙĤÛĮØ§Ø³":4365,"Ø³Ø§Ø®Øª":4366,"ĠØ·Ø±Ø§ØŃ":4367,"ĠÙħÙĪÙĦÛĮ":4368,"ĠÙħØ°ÙĩØ¨":4369,"Ø³Ø§Ùħ":4370,"ĠØ¬Ø¯ÛĮ":4371,"ÙĪÙĨÛĮÚ©":4372,"ĠØ³Ø®ÙĨØ±Ø§ÙĨÛĮ":4373,"ØµØ§Ø±":4374,"ĠÙĨØ³Ø¨ØªØ§":4375,"ĠØ¢Ø±ÚĺØ§ÙĨØª":4376,"ĠØŃØ§Ø¯Ø«Ùĩ":4377,"ĠØªÙģØ³ÛĮØ±":4378,"ÙĩØ§ÙĨ":4379,"ĠÚ©ÛĮÙĦÙĪÚ¯Ø±":4380,"Ø±ÙĪÙħ":4381,"ØªØ²":4382,"ĠØ§ØŃÙħØ¯ÛĮ":4383,"Ø¸Ùħ":4384,"ĠÙĤÙĪÙħ":4385,"ĠCounty":4386,"ØºØ§Ùħ":4387,"ĠÙĦÛĮØ³Øª":4388,"ĠØªÙĨØ¯":4389,"ĠÚ©ÙĨÚ¯Ø±Ùĩ":4390,"ĠØ³Ú©ÙĪÙĨØªÚ¯Ø§Ùĩ":4391,"ĠÚ©Ø±Ø¨ÙĨ":4392,"ĠÙ¾Ø§Ø±Ø³ÛĮ":4393,"ĠØ³Ø±Ù¾Ø±":4394,"ĠÙħØ±Ø¯Ø§Ø¯":4395,"ĠÛ±Û¹Û¹Û±":4396,"ter":4397,"ĠÚ©ÙĦÛĮÙĩ":4398,"Ø§ÙĦØªÛĮ":4399,"ĠØ®Ø±ÙĪØ¬ÛĮ":4400,"Ø§ÛĮÙģÙĩ":4401,"Ø§ÙĦØ§":4402,"ĠØªØ¶":4403,"ĠÚ¯ÙĪÚ¯":4404,"Ø§ØµØ±Ùĩ":4405,"ĠØ³ÙĪØ³ÛĮØ§ÙĦÛĮ":4406,"Ø´Ú¯Ø§Ùĩ":4407,"ÙĨØ§Ú©":4408,"ØªØ§ÛĮ":4409,"ĠÙĪÙģ":4410,"istr":4411,"ĠØ¨Ø±Ø¹ÙĩØ¯Ùĩ":4412,"ĠØ±Ø¶ÙĪÛĮ":4413,"ĠÛĮØ§Ø¨Ø¯":4414,"Ù¾Ø§ÛĮ":4415,"ØºÙħ":4416,"ØªØ§Úĺ":4417,"ĠØ¯ÛĮÙ¾ÙĦ":4418,"ĠÙĨÛĮØ§":4419,"Ø®ÙĪØ§Ø±":4420,"ĠØ§ÙĦØ¹":4421,"Ø¨Ø±ÙĨØ¯":4422,"ap":4423,"ĠÙĤØ¨ÙĪÙĦ":4424,"ĠØ§ÙĦØ¯ÛĮÙĨ":4425,"ĠÙĨØ±ÙĪ":4426,"ĠÙ¾Ø±ØªØ§Ø¨":4427,"ĠÙĨØ§Ø²":4428,"ĠÚ©Ø§Ø³":4429,"ĠØ§ØŃØ¯Ø§Ø«":4430,"ĠØ±ÙĪØºÙĨ":4431,"ĠØ§Ø¹Ø¯Ø§Ø¯":4432,"ÛĮÚ©ÙĪ":4433,"ĠÚĨØ§ÙĦ":4434,"ĠØ§Ø¯Ø¹Ø§":4435,"ab":4436,"Ø±ÙĨÚ¯":4437,"ĠØ¨ÚĨÙĩ":4438,"ĠØ¯Ø±Ø³":4439,"ĠÙħØ·Ø§Ø¨ÙĤ":4440,"Û¸Û¶":4441,"Ø²Ø§ÙĨ":4442,"ĠÙħØ¬Ø¯Ø¯":4443,"ĠØ¯ÛĮØ¬ÛĮØª":4444,"ĠØ§Ø«Ø¨Ø§Øª":4445,"ĠØ®Ø³Ø±ÙĪ":4446,"ĠØ¨ÙĨÚ¯":4447,"ity":4448,"ĠØºÛĮØ±Ùĩ":4449,"ĠÙħØ®ÙģÛĮ":4450,"ĠØ§Ø´Ø¹Ø§Ø±":4451,"Û¹Û²":4452,"Ø®ØªÛĮ":4453,"ĠØ´ÛĮØ±ÛĮÙĨ":4454,"Ø·ÙģÛĮ":4455,"ĠÚ©ÙĪØ¨":4456,"ĠØªÙħØ±Ú©Ø²":4457,"Ø®ØµØµ":4458,"ÙĪØ±Ø¯ÛĮÙĨ":4459,"ĠØ³Ø§ÙĦØ§ÙĨÙĩ":4460,"ĠØªÙĤÙĪÛĮØª":4461,"ĠØŃÛĮÙĪØ§ÙĨØ§Øª":4462,"ĠÚ©ÙĨØª":4463,"ĠÙĢ":4464,"ĠÙģØ§Ø²":4465,"ĠØŃØ³Ø§Ø³":4466,"Û¹Û¶":4467,"Ø§Ø´ÛĮÙĩ":4468,"ĠØ¨ÛĮØ¯":4469,"Ø§Ú©Ø«Ø±":4470,"ĠÙĨØ®ÙĪ":4471,"ĠØ§Ø±Ø¯ÛĮØ¨ÙĩØ´Øª":4472,"ĠÛ±Û¹Û¹Û´":4473,"Ø®ÙĪØ±Ø¯":4474,"ĠØ§Ø¸ÙĩØ§Ø±":4475,"ĠÙħØ³ØªÙĤØ±":4476,"ĠØªÙĪØ¬ÙĩÛĮ":4477,"ĠÙħØ£ÙħÙĪØ±ÛĮØª":4478,"ĠØ¨ÙĤÛĮÙĩ":4479,"ĠØ´Ø§ÙĩØ¯":4480,"ĠÙĩÙħØ³":4481,"ĠØ§Ø±ØªØ¨Ø§Ø·Ø§Øª":4482,"ĠØªÚ©Ø±Ø§Ø±":4483,"ĠØ¹Ø§Ùħ":4484,"ĠÙħØ¶":4485,"ĠØ¹Ø§Ø´ÙĤ":4486,"ĠÙ¾ÙĨÙĩ":4487,"ÙĪÙĨØ²":4488,"ĠÙħØªÙģ":4489,"ĠØ¯ÙĪØ§Ø²Ø¯Ùĩ":4490,"ĠÙĩØ±Ú¯Ø²":4491,"ĠÚ©Ø§ÙħÙ¾":4492,"ĠØ²Ø§ÙĪÛĮÙĩ":4493,"ĠØ³Ø¹ÙĪØ¯ÛĮ":4494,"ĠØŃÙĪÙħÙĩ":4495,"ĠØ¸Ø§ÙĩØ±ÛĮ":4496,"ĠØ«ÙħØ±":4497,"Ø§ÙĪØªÛĮ":4498,"Ø¹ÙĤ":4499,"Ø±ÛĮØŃ":4500,"ĠØ¨Ø·ÙĪØ±":4501,"ĠØ¢Øª":4502,"ĠØ´ÙĨØ§Ø³Ùĩ":4503,"ĠØªÙħØ§Ø´":4504,"ĠÙ¾Ø±ÚĨÙħ":4505,"ĠÙħØ±Ø§Ø¬":4506,"ĠÙħÙĤØ·":4507,"ĠØ¯ÙħØ§":4508,"ĠÙĨØ´Ø±ÛĮÙĩ":4509,"Û´Ûµ":4510,"ĠØ³Ø§Ø®ØªÙĨ":4511,"Ø¨Ø§Øº":4512,"ĠØ¨ØºØ¯Ø§Ø¯":4513,"ĠÙģØ¯Ø±Ø§ÙĦ":4514,"ĠØ§Ø¨ÛĮ":4515,"ĠØ§ÙģØªØª":4516,"Û¶Û°":4517,"ĠØ§ÙĤØ§ÙħØª":4518,"ĠØªØµØ§ÙĪÛĮØ±":4519,"Û¹Û·":4520,"ĠØªÚ©ÙĨÙĪÙĦÙĪÚĺÛĮ":4521,"Ø§ÙĦØªØŃØµÛĮÙĦ":4522,"ĠÙģØ±ÛĮØ¯":4523,"ĠÚ©ÛĮÙĦÙĪÚ¯Ø±Ùħ":4524,"ĠØ·ÙĦØ§ÛĮÛĮ":4525,"ĠÙĨÙĤØ§Ø´":4526,"ĠØ§ÙĦØ¬Ø²Ø§ÛĮØ±":4527,"Ġin":4528,"Ġand":4529,"ØŃØ³ÙĨ":4530,"ĠÙ¾Ø§Ø±ÙĦ":4531,"ĠÙĩØ´ØªÙħ":4532,"ĠØªØ®Ùħ":4533,"ĠÙĤØ±Ùĩ":4534,"ĠØ§ÙĨØ¯Ø±":4535,"ĠØ§Ø¹ØªÙħ":4536,"ĠÙĨØ´Ø±":4537,"ĠØ§ÙĦÚ©Ø³":4538,"ĠØªØ®ØµØµÛĮ":4539,"Û¸Û·":4540,"ĠØ´Ø§ÙĨ":4541,"Ù¾Øª":4542,"ĠÛ±Û¹Û¹Ûµ":4543,"ĠØ¯ÙĦØ§ÛĮÙĦ":4544,"ĠØ¢ÛĮØ¯":4545,"ĠØ§Ø³ØªØ¹":4546,"Ø§Ú©Ø§":4547,"ĠÙ¾Ø°ÛĮØ±ÙģØªÙĩ":4548,"ĠØ§ÛĮÙĪØ§ÙĨ":4549,"ØŃØ§ÙĦ":4550,"ĠØ´Ø§ÙĩØ²Ø§Ø¯Ùĩ":4551,"ĠØŃØ±Ú©":4552,"ĠÙĨÙĪØ¬ÙĪØ§ÙĨ":4553,"ĠØ´Ùģ":4554,"ĠÙħØ±Ø§ØŃÙĦ":4555,"ĠØ§Ø³Ú©ÙĨØ¯":4556,"ĠØ´Ø§Ø®Øµ":4557,"ĠØ´ÙħØ³ÛĮ":4558,"Ø§Ú©ÙĪ":4559,"ĠØ¨Ø®ØªÛĮØ§Ø±ÛĮ":4560,"ĠÙĪÛĮÙĨØ¯":4561,"ĠÙĩØ²Ø§Ø±Ùĩ":4562,"ĠØ³ÛĮÚ¯ÙĨ":4563,"ÙģØ±Ø§ÙĨØ³":4564,"Ø§ÙĤØ§Øª":4565,"ĠÙĦØ§ÛĮ":4566,"ĠØ¯Ø±Ø§Ø²":4567,"ĠØ¢Ø´Ú©Ø§Ø±":4568,"ĠØ¨ÙĨØ¯ÛĮ":4569,"ĠØ³ÙĪØ¦ÛĮØ³":4570,"Û´Û·":4571,"Ġ,":4572,"ĠÙħØªØ®ØµØµ":4573,"ĠÙħØ§ÙĦÛĮØ§Øª":4574,"ÙĦØ§ÛĮÙĨ":4575,"ĠØ¬ÙĦØ¨":4576,"ÙģÙĩØ±Ø³Øª":4577,"ĠØ¢ÙĩÙĨÚ¯Ø³Ø§Ø²":4578,"ĠØ¨Ø±ÙĨ":4579,"Û¹Û´":4580,"ĠØ¹ÙħÛĮ":4581,"Ø¢ÙĩÙĨ":4582,"ĠÚ©Ø§":4583,"ĠØ³ÛĮÙĨÙĩ":4584,"ĠÙħØ¨ØªÙĨÛĮ":4585,"ĠØ¯Ø±Ú¯ÛĮØ±":4586,"ĠØ·Ø§ÛĮÙģÙĩ":4587,"ÙĦØª":4588,"ĠÙħØŃØ§ØµØ±Ùĩ":4589,"ĠØ¯ÙĨØ¨Ø§ÙĦÙĩ":4590,"ĠÙ¾Ø±Ø³":4591,"ĠÙħÚ©ØªØ¨":4592,"ÙĨÚĺØ§Ø¯":4593,"ĠØ¯Ø±Ø®Ø´":4594,"ĠÚ¯ÙĨØ¯":4595,"Ø¹ÙĩØ¯":4596,"ĠØ¯Ø§Ø¦":4597,"ĠØ®Ø§ÙĦÛĮ":4598,"ĠØ²ÙĨÛĮ":4599,"ĠØ³Ø§Ø³Ø§ÙĨÛĮ":4600,"Ùĥ":4601,"ĠØ¨ÙĩØ¯Ø§Ø´Øª":4602,"ÙĪØ²ÛĮØ±":4603,"ĠÙĨÙĤØ¯":4604,"ĠØ®ÙĪØ§ÙĨØ¯":4605,"ÙĪÚ©Ø§":4606,"ÙĪÙĤÛĮ":4607,"ĠØ±Úĺ":4608,"ĠØ®Ø§Ø±Ø¬Ùĩ":4609,"ĠØ§ÙĨØªÙĩØ§ÛĮ":4610,"ĠÙħÙĤØ¯Ùħ":4611,"ĠØ§Ø³ÙĨØ§Ø¯":4612,"ĠØ®Ø²":4613,"ÙĪÙ¾ÛĮ":4614,"ĠØ±ÛĮÚĨØ§Ø±Ø¯":4615,"ĠØ¹ØµØ¨ÛĮ":4616,"ĠØ¨ÙĦØºØ§Ø±Ø³ØªØ§ÙĨ":4617,"ĠØ§Ø¯Ø§Ø±ÛĮ":4618,"ĠØªØ¯ÙĪÛĮÙĨ":4619,"ĠØ§ØªÙĩ":4620,"ĠØ¢Ø³ÙħØ§ÙĨ":4621,"ĠØ°Ø±Ø§Øª":4622,"av":4623,"Ø§ÛĮØ§ÛĮ":4624,"Â«":4625,"ÙĪÙĪØ§":4626,"ĠØ¹ÙĤÛĮ":4627,"ĠØ³ÙĨØ§ØªÙĪØ±":4628,"ĠØ¹Ø§Ø¯ÛĮ":4629,"ĠÛ±Û¸Ûµ":4630,"ĠØ±ÙĪÛĮØ¯Ø§Ø¯":4631,"ĠÛµÛ°Û°":4632,"ĠØ¬Ø²Ø¡":4633,"ĠÙ¾Ø§Øª":4634,"ĠÙħØªØ¹Ø¯Ø¯":4635,"ĠØ§Ø±Ø²ÛĮØ§Ø¨ÛĮ":4636,"Ø§ÙĪØª":4637,"Ġcon":4638,"ĠØ¯Ø§ÙĨØ´ÙħÙĨØ¯Ø§ÙĨ":4639,"ÙĨØ¯ÙĩØ§ÛĮ":4640,"ĠÛ±Û¹Û¹Û³":4641,"ĠØ¯ÙĨØ¯Ø§ÙĨ":4642,"wikipedia":4643,"ĠØ¢Ø¨Ø§ÙĨ":4644,"ÙĪØ§ÛĮÛĮ":4645,"ĠØ®Ø§ÙĨÙħ":4646,"ĠÙħØºÙĨ":4647,"ĠØ³ÙĨÚ¯ÛĮ":4648,"ØºØ°ÛĮÙĩ":4649,"ĠÙ¾Ø§ÛĮØ§ÙĨÛĮ":4650,"ĠØŃØ§Ø´ÛĮÙĩ":4651,"ĠØ§Ø´ØªØ±":4652,"ree":4653,"ĠÚ©ØªÛĮ":4654,"ĠÙħØ±Ø¬":4655,"ĠØ¨Ø±ÛĮØªØ§ÙĨÛĮØ§ÛĮÛĮ":4656,"ĠØ§Ø³ØªÙĤ":4657,"ÙĪÙģÛĮ":4658,"ĠEn":4659,"ĠÚ¯ÙĪØ´Ùĩ":4660,"istrict":4661,"ÙĪÙĪØ¯":4662,"ĠØŃÙĪØ§ÙĦÛĮ":4663,"ĠÙĩÙĪØ§Ù¾ÛĮÙħØ§ÛĮ":4664,"Û¸Û´":4665,"ĠØ®Ø§ÙĨÚ¯ÛĮ":4666,"ĠÙĦØ¨ÙĨØ§ÙĨ":4667,"ĠØ¢ÙħÙĪ":4668,"ĠØ¨Ø´":4669,"Ø¯ÙĪØ¯":4670,"cl":4671,"ĠÙģØ§ÛĮÙĦ":4672,"Ø±Ø§ÙĨÛĮ":4673,"Ø§ÙĩÛĮØ±":4674,"ĠØ³Ø¹ÛĮØ¯":4675,"ĠØ¨Ø±Ø§Ø¯Ø±Ø´":4676,"ĠØ¢Ø±ÚĺØ§ÙĨØªÛĮÙĨ":4677,"Û¸Û²":4678,"ĠÙĪÙĤÙĪØ¹":4679,"ĠÚ¯ÙĪØ´Øª":4680,"Ú©Ø³ØªØ±":4681,"ĠØŃÙħÙĦØ§Øª":4682,"ĠÙĤÙĩÙĪÙĩ":4683,"ĠÙħØ¨ÙĦ":4684,"ian":4685,"ĠÚ¯ÛĮØ§ÙĩÛĮ":4686,"Ø§Ø²Ø¯ÙĩÙħ":4687,"ĠØ§ÙģØªØ®Ø§Ø±":4688,"ĠÙĨÚ©Ø±Ø¯":4689,"ĠØ³ÛĮØ²":4690,"ĠÙħÛĮØ§ÙĨÚ¯ÛĮÙĨ":4691,"ĠÚ©Ø§Ø±Øª":4692,"ĠØ³Ø§Ø³Ø§ÙĨÛĮØ§ÙĨ":4693,"ĠØ³Ú¯":4694,"Ø§Ø³ØªÛĮÚ©":4695,"ĠØ¯Ø§ÙĨÙħØ§Ø±Ú©":4696,"ÛĮÙĨØª":4697,"ĠØ±Ø§Ø¯":4698,"ĠÙ¾ÙĨØ¬ÙħÛĮÙĨ":4699,"ĠÙ¾Ø°ÛĮØ±Ø´":4700,"Ġ4":4701,"ĠØ¬ÙĪØ§ÛĮØ²":4702,"Û¹Û°":4703,"ĠØ§ØŃØªØ±":4704,"ĠØ¯Ú¯Ø±":4705,"ĠØ§ÙĨØªØ¸Ø§Ø±":4706,"eb":4707,"ĠÙ¾ÛĮØªØ±":4708,"Ø§ÙĨØ²Ø¯Ùĩ":4709,"ĠØ¸ÙĩÙĪØ±":4710,"ÙĪØ²Ùģ":4711,"ĠØ¨Ø§Ø²ÛĮÚ©ÙĨØ§ÙĨ":4712,"ÙĪÙĤÙģ":4713,"ĠØªØ±ÙĪØ±ÛĮ":4714,"ĠØ¯Ø´ÙħÙĨ":4715,"ĠØ¨Ø¹Ø¯Ø§":4716,"ÙĦØ¹":4717,"ÙĪØ²ÙĨ":4718,"ĠÙģØ±ÙĪØ±Ø¯ÛĮÙĨ":4719,"ĠØ¯Ø§Ø±Ø§ÛĮÛĮ":4720,"ĠØ³Ù¾Ø±Ø¯Ùĩ":4721,"ĠØªØ±Ø¨ÛĮØª":4722,"iki":4723,"ÙĪØ¯Ø±":4724,"ĠÙĨØ¸Ø±ÛĮ":4725,"ĠØ´ÙĨØ§Ø®Øª":4726,"ĠØ®Ø§Ø·":4727,"ĠØ¯Ø§ÙĨØ´Ú¯Ø§ÙĩÛĮ":4728,"ĠÚ©ÙĦÛĮØ¯":4729,"ĠÙ¾Ø§Ø¨":4730,"ĠØ§ÙĤØ¯Ø§ÙħØ§Øª":4731,"ĠØªÙħØ¯ÙĨ":4732,"ĠØ§Ø¹ØªÙħØ§Ø¯":4733,"ĠÚĨØ±Ø®":4734,"ĠØ³ÛĮÚ¯ÙĨØ§ÙĦ":4735,"ĠØ¯Ø§ÙĦ":4736,"ĠØ¬ÙĨØ¨Ùĩ":4737,"Ø®ÙĪØ±":4738,"ĠØ±Ø³Øª":4739,"ĠÚ¯Ø±Ø¯Ø´Ú¯Ø±ÛĮ":4740,"ĠØ§ÙħÚ©Ø§ÙĨØ§Øª":4741,"ĠÙħØ¸":4742,"ĠØ³Ø§Ø²Ùĩ":4743,"ĠØ¨ÛĮÙħØ§Ø±Ø§ÙĨ":4744,"ĠÙħÚ¯":4745,"ĠØ¢ÙĨØ¬":4746,"Ø¯ÙĩÙĨØ¯Ùĩ":4747,"ĠØ¨Ø§Ú©ØªØ±ÛĮ":4748,"ĠÛ¶Ûµ":4749,"ĠØ¨Øª":4750,"ÛĮØ±ÛĮ":4751,"ĠØ¹Ø±ØµÙĩ":4752,"ĠØ¶Ø¹ÛĮÙģ":4753,"ĠØ§ÙĨØ¯Ú©ÛĮ":4754,"ĠÙĨÙĪØ³":4755,"Ø±Ø¯ÛĮ":4756,"Ø·ÙĪØ±ÛĮ":4757,"ĠÙĦØ§Ú©":4758,"ĠÙĨÙħÙĪØ¯ÙĨØ¯":4759,"ĠÙĨÚ¯Ø±":4760,"ĠØ§Ú©Ø³ÛĮ":4761,"all":4762,"ÙĪØ¯ÙĨ":4763,"ĠÙĩØ§ÙĦ":4764,"ĠÙ¾Ø±Ø¯Ùĩ":4765,"ĠØ®ÙĪØ§ÙĨØ¯ÙĨ":4766,"ĠØ§Ø®ØªÙĦØ§ÙĦ":4767,"ĠØ³Ú©Ùĩ":4768,"ĠØ¹Ø´":4769,"ĠØ¯ÙĩÙħ":4770,"ĠÙĩØ±ÙħØ²":4771,"ĠØ´ØºÙĦ":4772,"ĠØ¨Ø§Ø²ÙħÛĮ":4773,"ĠØ¨ÙĪÙĦ":4774,"ĠÙħØŃÙħØ¯Ø±Ø¶Ø§":4775,"ĠØ±ÛĮØ³":4776,"ĠØ¨Ø±Ø³":4777,"ĠØ³Ø®ØªÛĮ":4778,"ÙĪØ§Ø±ÛĮ":4779,"ĠØ§ØªÙĩØ§Ùħ":4780,"ĠÙĦØ³":4781,"ĠÛ±Û¹Û¸Û¹":4782,"ist":4783,"Ġw":4784,"Ø§Ø¨ÙĪØ±":4785,"ĠÙĨÙĩÙħ":4786,"ÙĨÙħØ§ÛĮÛĮ":4787,"Û·Ûµ":4788,"ĠÙĩÙģØªØ§Ø¯":4789,"ĠÚ©ÙĦÙħØ¨ÛĮØ§":4790,"ĠÙħØ®Ø§Ø·":4791,"ĠÛ±Û³ÛµÛ·":4792,"ĠØ±ÚĺÛĮÙħ":4793,"ĠØ¹ÙĩØ¯":4794,"ĠØ²ÙĨØ¯Ø§ÙĨÛĮ":4795,"ĠØŃØ±Ø§Ø±Øª":4796,"Ø§ÙĦØ¯ÙĪÙĦÙĩ":4797,"ĠØªØºØ°ÛĮÙĩ":4798,"ĠÙĤØ³ÙħØªÛĮ":4799,"ĠØ¢Ø¨Ø§Ø¯ÛĮ":4800,"ĠØ®ÙĪØ§ÙĩØ±Ø®ÙĪØ§ÙĨØ¯Ùĩ":4801,"ĠØ¢ÙĨØªÛĮ":4802,"ĠØ§Ø¯ÙĪØ§Ø±Ø¯":4803,"ĠÙħØŃØ¯ÙĪØ¯ÛĮØª":4804,"ĠØ§Ø±ØªÙĤ":4805,"ĠØªÙĪØ¯Ùĩ":4806,"ĠÙĨÙĪÚ©":4807,"ÙĪÚ©ÙĪ":4808,"ĠØŃØ¯Ø§Ú©Ø«Ø±":4809,"Ġde":4810,"Ø²Ø±Ú¯":4811,"ÚĨØ´ÙħÙĩ":4812,"ĠÙģØ±Ø³ØªØ§Ø¯Ùĩ":4813,"ĠÙģØ±Ø§ÙĨÚ©":4814,"]]":4815,"ĠØ§ÛĮÙĨØ¬Ø§":4816,"ĠØ¨Ø®Ø§Ø±":4817,"ĠØŃØ§Ø¬ÛĮ":4818,"ĠY":4819,"ĠØ·ÙĪØ±ÛĮ":4820,"ĠÙħØ°Ø§Ú©":4821,"ØªØ±Ø§ÙĨÙĩ":4822,"ĠÛµÛµ":4823,"ÙħØªÙĪÙĦØ¯":4824,"ĠÂłĠÂł":4825,"ĠÙħØªÙĪÙĤÙģ":4826,"ĠÙħÙĩÙħØªØ±ÛĮÙĨ":4827,"ĠØ§Ø¦":4828,"ĠØ´ÛĮØ¹ÛĮ":4829,"Ø§Ø¨ÙĦÙĩ":4830,"ÙħÛĮØ§ÙĨ":4831,"ĠÙħØŃØªÙĪ":4832,"ĠÙĨØ§ÙĪ":4833,"ĠØºÛĮ":4834,"Ø§ÛĮØ§Øª":4835,"Ø²ÙĨÛĮ":4836,"ĠØ¨Ø§Ø²ÙĨØ´":4837,"ĠÙħÙĦØ§ÙĤØ§Øª":4838,"old":4839,"ĠÙ¾ÛĮØ´Ø±ÙģØªÙĩ":4840,"ÙĤÙģ":4841,"ĠÙħÙĤØ·Ø¹":4842,"ÙĨØ§ØŃÛĮÙĩ":4843,"ØªÙĤØ¯Ø§ÙĨ":4844,"ĠØ¨Ø§Ø®":4845,"ĠØ¨Ø§Ø¨ÙĦ":4846,"ĠØ®Ø´ÙĪÙĨØª":4847,"ĠØ§ÙĪÙĤØ§Øª":4848,"ĠØ®ÙĪØ¯Ú©Ø´ÛĮ":4849,"ĠØ¨Ø§Ùħ":4850,"ĠØ¨Ø±Ø³Ø¯":4851,"ĠÚ©Ø§Ø±ÙĪÙĦÛĮÙĨ":4852,"Ø³ÙĪÙģ":4853,"ÙĪØ±ÙĨ":4854,"ĠSt":4855,"ĠØ²ÙĪØ¯":4856,"ĠÙħØ§ÛĮÙĦ":4857,"ÛĮØ§Ø±":4858,"ĠØ¢ÛĮØª":4859,"ĠAl":4860,"Ø³ÙĪÙĦ":4861,"ors":4862,"Ġ13":4863,"ĠØ®Ø±ÙĪØ¬":4864,"ĠÙ¾ÛĮØ§ÙħØ¨Ø±":4865,"ĠÙħØ¯Ø§Ø±Ø³":4866,"ĠØ§Ø¨Ø¹":4867,"Ø§Ø¯ÛĮØ±":4868,"ÙħÙĤ":4869,"ĠØ¨ÙĩÛĮÙĨÙĩ":4870,"ĠØ¢Ø³ÛĮØ§ÛĮ":4871,"ĠØ¬ÙĪØ§ÙĨÛĮ":4872,"ĠØŃØ§Ú©":4873,"ĠØµØŃÛĮØŃ":4874,"ĠØ®ÙĪØ§Øµ":4875,"ĠØ§ÛĮØ±ÙĦÙĨØ¯":4876,"ob":4877,"ĠØ²ÙĦØ²":4878,"ĠØµØ¨ØŃ":4879,"ĠØ®ÙĦÛĮÙģÙĩ":4880,"Ø±ÙĪÙĨ":4881,"ĠØ¯ÛĮØ¯ÙĨ":4882,"ĠÙĤÙĦÙĩ":4883,"ĠØ§ÙĨÙģ":4884,"ĠØµÙĦÛĮØ¨ÛĮ":4885,"ĠØ³Ø±Ø¨Ø§Ø²Ø§ÙĨ":4886,"ĠØ¨Ø±Ø¯ÙĨ":4887,"ÙĪÙĦÛĮØ³":4888,"ĠÙĩÙĪÛĮØª":4889,"ĠÙĪØ§Ø³Ø·Ùĩ":4890,"ÛĮØªØ§":4891,"ĠÙħØ¨ØªÙĦØ§":4892,"ĠÛ³Û°Û°":4893,"Ù¾ÙĪÙĦ":4894,"Ú©ÙĪØ³":4895,"ĠÛ±Û¹Û¸Û¸":4896,"ĠØªÚ©ÙħÛĮÙĦ":4897,"ĠØ´ØµØª":4898,"Ø·ÛĮÙĦ":4899,"ĠØºÙĦØ§Ùħ":4900,"ÙĨÛĮÚ©":4901,"Ø¹Ø§ÙħÙĦ":4902,"Ø±Ø³ÛĮØ¯":4903,"ĠØ§Ú©Ø¨Ø±":4904,"Ø§ÙĩÛĮÙħ":4905,"Ø·Ø±Ùģ":4906,"ĠØ¨ÙĪØ±Ø³":4907,"ÙģØ´":4908,"ĠØªØµÙĪØ±":4909,"ĠØ¨Ø±Ú¯Ø´Øª":4910,"ĠÙĪÛĮØ±ÙĪØ³":4911,"ĠÙ¾Ø§ÛĮØ¯Ø§Ø±":4912,"Ø³ÙħÙĩ":4913,"ĠÚ©ÙĪÙĩØ³ØªØ§ÙĨÛĮ":4914,"ĠÚ©ÙĪÚĨÚ©ÛĮ":4915,"ĠØ³ÛĮØ§Ø±Ùĩ":4916,"Ø®ÙĪØ§ÙĨØ¯":4917,"ĠÚ©Ø§Ø±Ø¢":4918,"ĠØ²ÙĦØ²ÙĦÙĩ":4919,"Ø§Ø³ØªÙĩ":4920,"ĠÙĨÙħØ§ÛĮØ´ÙĨØ§ÙħÙĩ":4921,"ÙĨÙĪØ´Øª":4922,"ĠØ¢Ø²ÙħÙĪÙĨ":4923,"ĠÙĪØ§ÙĨ":4924,"ĠÙĩØ®":4925,"Û¶Ûµ":4926,"est":4927,"ĠØ¹Ø±Ùģ":4928,"ÙĨØ±Ø§ÙĦ":4929,"ĠØ±ÙĪØ²ÙĩØ§ÛĮ":4930,"ĠØ¯Ø±Ø®ØªØ§ÙĨ":4931,"ĠÙĨÙĪØ§Ø²ÙĨØ¯Ùĩ":4932,"ĠØªØ£ÙĦÛĮÙģ":4933,"ĠÚ©Ø§Øº":4934,"ĠØ§Ø±Ø¯ÙĪ":4935,"ĠØ·ÛĮÙģ":4936,"ĠÚ¯Ø±ÚĨÙĩ":4937,"ĠØ¹ÙħÙĪÙħØ§":4938,"ÙħØ§Ø±ÛĮ":4939,"ĠØ¬ÙħØ¹ÛĮ":4940,"ĠÙĪØ³Ø§ÛĮÙĦ":4941,"ĠÙĪØ³Øª":4942,"ĠÚ©ÙħÛĮØ³ÛĮÙĪÙĨ":4943,"ĠÚ©ÙĪØªØ§ÙĩÛĮ":4944,"ĠÙ¾Ø³Ø±Ø´":4945,"ĠØ®Ø§ÙĨÙĪØ§Ø¯Ú¯ÛĮ":4946,"ĠÚ©Ø§ÙĦØ¬":4947,"ÙĤÛĮÙĤÛĮ":4948,"ĠØ¨Ø±ÙĦÛĮÙĨ":4949,"ĠØ§ÙĦÙĩØ§Ùħ":4950,"ĠX":4951,"ĠÙħÙĤØ§ÙĦØ§Øª":4952,"Ø§Ú¯ÙĪ":4953,"ĠØ¯Ø²":4954,"ĠÙħÙĨØªÙĤØ¯Ø§ÙĨ":4955,"ĠØªØ¦ÙĪØ±ÛĮ":4956,"ĠÙ¾Ø°ÛĮØ±ÙģØª":4957,"cy":4958,"ĠÙĪÛĮØ¯Ø¦ÙĪÛĮÛĮ":4959,"ĠØ¢Ú©Ø§Ø¯ÙħÛĮ":4960,"ĠØ¬Ø¹ÙģØ±":4961,"ĠÙĨÙģØªÛĮ":4962,"ĠÙħØ¹ØªØ¨Ø±":4963,"Û·Û°":4964,"ÙĪØ¦ÛĮ":4965,"Ø§ÙħÛĮØ§ÙĨ":4966,"ĠÙħÙĪÙĦÚ©ÙĪÙĦ":4967,"Ø·ÙĪØ¨":4968,"ĠÙģØ±Ø§Ùħ":4969,"ÙĪÙħÙĨ":4970,"ang":4971,"Ġ+":4972,"Ø¨Ø±Ùĩ":4973,"Û²Û±":4974,"ĠÙħØ¬Ø¯Ø¯Ø§":4975,"ĠØ±ÙĩØ§":4976,"ĠÙģÙĪÙĦØ§Ø¯":4977,"Ø¯Ø§ÙĨÛĮ":4978,"ĠØ¶Ø±Ø¨Ùĩ":4979,"ĠØºØ§Ø±":4980,"ĠÛ³Û±Û":4981,"Ø§ÛĮØ§":4982,"ĠÙħØªØ´Ú©ÙĦ":4983,"ĠÚ©ØªÛĮØ¨Ùĩ":4984,"ĠØ¨ÛĮÚ©":4985,"ĠØ§Ø·ÙĦØ§ÙĤ":4986,"ĠØ¨Ø§Ø²Ø¯ÛĮØ¯":4987,"ĠÚ©ÙħÙĪÙĨÛĮØ³Øª":4988,"ĠØ¢ÛĮØ§":4989,"ÙĨÛĮØ³":4990,"ĠØ´Ø±ÛĮ":4991,"Ø§ÙħÙĨØ´ÛĮ":4992,"Ø´Ø§Ø¯":4993,"ĠØ¨Ø§Ø²ÛĮÚ¯Ø±ÛĮ":4994,"ĠÚ©Ø³":4995,"ĠØªØŃØ±ÛĮÚ©":4996,"ĠÙħÙĤØ§Ø¨ÙĦÙĩ":4997,"ĠÙĤØ¨ÛĮÙĦÙĩ":4998,"ÙĤØ¯Ø±":4999,"ĠØ¨ÙĪØ¯Ø¬Ùĩ":5000,"ĠÙ¾ÙĪØ±Øª":5001,"ÙĪÛĮÙĤ":5002,"ĠÚ¯ÙĨØ¨Ø¯":5003,"ĠÙĪÙĦØ²":5004,"ĠØ¬ÙĦØ³Ùĩ":5005,"ĠÚ¯Ø±ÛĮÙĨ":5006,"ĠØ³Ø§ÙĦÙĩØ§ÛĮ":5007,"ÙģÛĮÙĦØ¯":5008,"ĠØ§Ø¨Ø¯":5009,"Ø¯Ø§Ø´":5010,"ĠØ¨ÛĮØ²":5011,"ĠÙĤØ§Ø¶ÛĮ":5012,"ĠÙħØŃØ§Ø³Ø¨":5013,"ØµÛĮÙĩ":5014,"ĠØ¹ÙĤÛĮØ¯Ùĩ":5015,"ĠØŃÛĮÙĨ":5016,"ĠØ¯ÙĤØª":5017,"ÙĪØ¦Ùĩ":5018,"ĠÙĪØ¬Ùĩ":5019,"ĠÙĨØ§Ø²ÛĮ":5020,"Ø§Ø·Ø¹":5021,"ĠÙĨØ§ÙħÚ¯Ø°Ø§Ø±ÛĮ":5022,"ĠÙĩØ®Ø§ÙħÙĨØ´ÛĮ":5023,"ĠØ®ÙĪØ¯Ø±ÙĪÙĩØ§ÛĮ":5024,"ĠØ³ÙĦÛĮÙħØ§ÙĨ":5025,"ĠØ¯Ø§ÛĮØ±Ùĩ":5026,"ĠÙħÙħØª":5027,"ĠØ§ÛĮÚ©Ø³":5028,"ĠÙħØºÙĨØ§Ø·ÛĮØ³ÛĮ":5029,"ĠØ§ÛĮÙģØ§":5030,"ĠÚ©Ø§Ø±Ú¯Ø±Ø§ÙĨ":5031,"ĠÙģÙĦÚ©ÛĮ":5032,"ĠØ§ÙģØªØªØ§ØŃ":5033,"ÙĨÛĮÙĩ":5034,"ĠØ°ÙĩÙĨ":5035,"ĠØµØ§Ø¯ÙĤ":5036,"ĠØ§ÛĮÙħÙĨÛĮ":5037,"ĠÙħØ¨ÙĨÛĮ":5038,"ĠÙħØ¬Ø³ÙħÙĩ":5039,"ĠØ¢Ø³ÛĮØ§ÛĮÛĮ":5040,"ĠØ¢ÙģØª":5041,"ĠØ¬ÙģØª":5042,"ĠÙ¾ÚĺÙĪÙĩØ´ÛĮ":5043,"ĠÙ¾Ø§Ø´":5044,"Ø·ÙĨ":5045,"Ø§ÙĩØª":5046,"ĠØªÙĤØ§Ø¶":5047,"ĠÙħØµÙĨÙĪØ¹ÛĮ":5048,"ĠÚ¯ÛĮØ±ÙĨØ¯Ùĩ":5049,"ĠÚ©Ø§Ø±Ø¨Ø±Ø¯ÛĮ":5050,"ĠÙĪÛĮÙĨØ¯ÙĪØ²":5051,"Ø³Ø±Ø§ÛĮ":5052,"ĠÚ©Ø§Ø²":5053,"ĠØªÙħØ§ÛĮÙĦ":5054,"Ø¯Ø§Ø¯ÙĨØ¯":5055,"Ø³Ø§Ø±":5056,"ĠØ³Ø¤":5057,"ĠØ§ØªÙħØ§Ùħ":5058,"Ú©Ø§ÙĦ":5059,"ĠØ´Ø¬":5060,"ÙĪØ±ÛĮØ§ÙĨ":5061,"ÙĩØ²":5062,"ĠÙħÙĦÚ©Ùĩ":5063,"ĠÚ©ÙĪÚ©":5064,"Ø®ÙĦ":5065,"ĠØªÙĪØµÛĮÙĩ":5066,"ĠÙĨÛĮØ±ÙĪÚ¯Ø§Ùĩ":5067,"Ø§ØªÙĦ":5068,"ĠÙħØ§Ø±ØªÛĮÙĨ":5069,"ĠØ³Ø§Ú©ÙĨØ§ÙĨ":5070,"Ø§ÙĦÛĮØ²":5071,"ĠØ³Ø§ÙĦÛĮ":5072,"ĠØ¨Ø±Ø®ÙĦØ§Ùģ":5073,"ĠÛ·Ûµ":5074,"ĠØ±ÙĪØ¨Ø±ÙĪ":5075,"ĠØ§ÙħØ§ÙħØ²Ø§Ø¯Ùĩ":5076,"ĠØ§Ø¨Ø¹Ø§Ø¯":5077,"ĠÙģÙĪØ±":5078,"ĠÛ±Û¸Û´":5079,"ort":5080,"ĠÙĨØŃÙĪÙĩ":5081,"ĠÛĮÚ©Ø³Ø§ÙĨ":5082,"Ù¾Ø°ÛĮØ±ÛĮ":5083,"ĠØ§ÙĦÙĩÛĮ":5084,"ĠØŃÛĮØ¯":5085,"Ø§Ø³Ù¾":5086,"ĠÙĪØ±Ø²Ø´Ú©Ø§Ø±":5087,"ĠÙħØ¬ÙħØ¹":5088,"ĠÙĨÚ©ØªÙĩ":5089,"ĠÙĨØ§Ú©":5090,"ĠÙ¾ÛĮØ¯":5091,"ÙĪÙĨØ²ÛĮ":5092,"Ù¾Ø§ÛĮÙĩ":5093,"ĠÙĨÙĪØ²Ø¯ÙĩÙħ":5094,"ÚĺØ§ÙĨØ³":5095,"Ġ5":5096,"Ø±ÛĮØ§":5097,"ĠØ¯Ø±Ø¢ÙĪØ±Ø¯":5098,"ĠÚ©ÙĨÙĪÙĨ":5099,"Û´Û´":5100,"ĠØ±Ø´Øª":5101,"ĠÙģØ§Ø·":5102,"ĠÙĨÛĮÙĪ":5103,"ĠÙ¾Ø±Ø¯Ø§Ø²Ø´":5104,"ĠÙħØ§ÙĨØ¹":5105,"ÚĨÙĪØ¨":5106,"ĠÚ©Ø§Ø±ÙĨØ§ÙħÙĩ":5107,"ĠØªØ®ÙħÛĮÙĨ":5108,"Ø±Ø§Ø±":5109,"ĠÙħØ³Ú©ÙĪ":5110,"ĠØ±ÙĩØ¨Ø±Ø§ÙĨ":5111,"ĠÙħØªÙĩÙħ":5112,"ĠÙĩØ§ÙĨ":5113,"ĠØ¢Ø±Ø§ÙħÚ¯Ø§Ùĩ":5114,"ÛĮÙħØ§":5115,"ĠØ§ÙĦÚ©ØªØ±ÙĪÙĨÛĮÚ©ÛĮ":5116,"ĠØ®Ø¯Ø§ÙĪÙĨØ¯":5117,"ĠØ¯Ø§ÙĪØ±":5118,"ĠØ³Ø·ÙĪØŃ":5119,"Ø³Ø±Ø§":5120,"ĠÙĩØªÙĦ":5121,"ĠÙħÙĤØ§Ø¯ÛĮØ±":5122,"ĠÙħØµØ¯":5123,"ÙħÛĮØ§ÙĨÙĩ":5124,"Ø¯Øª":5125,"ĠØ¨ÛĮÚ¯":5126,"Ġ200":5127,"ĠÙħØ±Ø¯ÙħØ§ÙĨ":5128,"ĠÙĨÙĪØ¯":5129,"ĠØ±ÙĨØ¬":5130,"ĠÙĪØ§Ú©":5131,"ĠÙĨÙģÙĪØ³":5132,"Ú¯Ø±Ø§Ø¯":5133,"ĠÙħØ±ÙĪØ±":5134,"ĠÙĪØ§ÙĤØ¹ÛĮØª":5135,"ĠÙ¾Ø¯":5136,"ĠØ¹ÙħÛĮÙĤ":5137,"Ø¬Ø³ØªØ§ÙĨ":5138,"ĠÙģØ±ØµØª":5139,"ĠÙħØ±Ø¯ÛĮ":5140,"ĠØ²ÛĮÙĨ":5141,"ĠØ³Ø§ÙĦÙħ":5142,"ĠØ³ÙĦØ§ÙħØª":5143,"ĠØ®Ø¨Ø±ÛĮ":5144,"ĠØ§Ø¹ØªØ¨Ø§Ø±":5145,"Ú©Ø³ÙĪÙĨ":5146,"ĠØ±ÛĮØ§Ø¶ÛĮØ§Øª":5147,"ĠØ®ÙĪØ§Ø±":5148,"ĠÙĨÚ¯Ø§Ø±Ø´":5149,"ÙĪØ³ÛĮÙĦÙĩ":5150,"ĠØ¨ØŃØ±Ø§ÙĨ":5151,"sh":5152,"ĠØ¬ÙĪØ´":5153,"ĠÙħØ±Ø§ÙĤ":5154,"ĠÙ¾Ø§Ø¦":5155,"ard":5156,"ĠØŃÙĤÙĪÙĤÛĮ":5157,"Ø³ØªØ§":5158,"ĠØ¬Ø§Ø¨":5159,"ĠØ¯Ø§ÙĨØ´ÙħÙĨØ¯":5160,"ĠCh":5161,"ĠØ¢ÙģØ±ÛĮÙĤØ§ÛĮ":5162,"ĠØ¹Ø¨Ø§Ø³ÛĮ":5163,"ĠÙħÙģÛĮØ¯":5164,"ĠØ¢Ú¯Ø§ÙĩÛĮ":5165,"ĠÚ©Ø§Ø±ÙĪØ§ÙĨ":5166,"ĠÙħØ±Ø¯ÙħÛĮ":5167,"ĠØ¢Ø¯Ùħ":5168,"ĠÙħØ¹Ø±Ø¶":5169,"ĠØ§ÙĨÙĤÙĦØ§Ø¨ÛĮ":5170,"ĠØ²Ø§Ø¯":5171,"Ø·Ø¨ÛĮ":5172,"Û²Û³":5173,"ĠÙĪØ§Ú¯Ø°Ø§Ø±":5174,"ĠÙ¾ÛĮØ±ÙĪØ²":5175,"ĠØ§Ø¯ØºØ§Ùħ":5176,"ĠÙħØ§ÙĩÙĪØ§Ø±Ùĩ":5177,"ĠØ§Ø±ØªØ¨Ø§Ø·ÛĮ":5178,"ÙĪØ¯Ø§":5179,"ĠØ¯Ø§Ø±Ø§":5180,"Ú©ÛĮÙĪ":5181,"ĠÙħØ§Ùħ":5182,"ew":5183,"ĠÙĨÙĪÛĮÙĨ":5184,"ĠÛ±Û¹Û¸Û¶":5185,"ĠØ·Ø§ÙĦ":5186,"Ù¾ÛĮØ±":5187,"ĠØ¨Ø§Ø±ÙĩØ§":5188,"ĠÙĤØµ":5189,"Ø³ÛĮØ§":5190,"ĠÚ©ÙĨÙģØ±Ø§ÙĨØ³":5191,"Ø²ÛĮÙħ":5192,"ĠÚ©ÙĨØ³Ø±Øª":5193,"ĠØªØµØ§Ø¯ÙģÛĮ":5194,"ÙĤÙĦÛĮ":5195,"ĠØªØ±Ø§ÙĨ":5196,"ĠØ¬ÙħØ¹Ùĩ":5197,"Ø§ÛĮØ²ÛĮ":5198,"Ø§ØªÙĩ":5199,"ĠØ¯ÙĪØ¯ÙħØ§ÙĨ":5200,".\"":5201,"ĠÚ©ÙĦØ§Ùĩ":5202,"ĠØ§Ø±Ú©Ø³ØªØ±":5203,"ĠÚ©ÙĪÚĨÚ©ØªØ±":5204,"ĠØ®Ø±ÛĮØ¯Ø§Ø±ÛĮ":5205,"ĠØ¹ÙħÙĤ":5206,"Ø§Ø³Ú©Ø§":5207,"ĠØ§Ø³ØªØ®":5208,"ĠØ³ÙĤÙģ":5209,"ĠØ¨Ø±ÙĪÙĨ":5210,"ĠØ§ÙħØª":5211,"Ø¹Ùģ":5212,"Ø§ÙĨØ²Ø¯ÙĩÙħ":5213,"ĠØ§ÙģØ²ÙĪØ¯Ùĩ":5214,"Ã©":5215,"ÙħÙĨØª":5216,"ĠÚ©ÙĨÙĨØ¯Ú¯Ø§ÙĨ":5217,"ĠÙĨØ¨Ø§ÛĮØ¯":5218,"ĠØ³Ø±Ú©ÙĪØ¨":5219,"Û³Û±":5220,"ĠÚ©ÙĪØ§ÙĨ":5221,"ĠØ¨Ø±ÙĪØ¯":5222,"ĠØ§Ø³ØªÙĤØ¨Ø§ÙĦ":5223,"Ø§Ú©ØªÙĪØ±":5224,"ĠÙħØªÙĪÙĨ":5225,"ĠÙģØ³":5226,"ĠÙĩØ±ÛĮ":5227,"ĠØ³Ø§ØŃ":5228,"ĠÙĨÙħØ§ÛĮÙĨØ¯Ú¯ÛĮ":5229,"Ø§ÙĪØ²":5230,"ĠØ¢ÙĪ":5231,"ÛĮÙĨÛĮØ§":5232,"ĠÙħÙĪÙĨØª":5233,"ÙħØ«":5234,"ĠÙĨØ±ÙĪÚĺ":5235,"Û·Û¶":5236,"ĠØ§ÙĪÚ©Ø±":5237,"Ø§Ø±ÙĪ":5238,"Û´Û¶":5239,"ØªÛĮÙħ":5240,"ĠÙĩØ´ØªØ§Ø¯":5241,"Ø§ÙģØªØ¯":5242,"ĠÛ±Û¹Û¸Û´":5243,"Û²Û¸":5244,"ĠÚĺÙĨØª":5245,"ĠØ§Ú©Ø«Ø±ÛĮØª":5246,"Ø³ÛĮÙĦÙĪ":5247,"ĠØ¨Ø§Ø±Ø§ÙĨ":5248,"ÛĮÙĦÛĮ":5249,"ĠØ¨Ø§Ø³":5250,"ĠØªØ¸":5251,"Ø¨Ø§Ø¯":5252,"Ø¬Ø§Øª":5253,"ĠØ¯ÛĮØ¬ÛĮØªØ§ÙĦ":5254,"ÙģÙĨ":5255,"ĠÙĨÛĮÙĦ":5256,"nd":5257,"ĠÚĺÙĨØ±Ø§ÙĦ":5258,"Ø³ØªÛĮÙĨ":5259,"ÚĨÛĮÙĨ":5260,"Ø®ÙĪØ§ÙĨÛĮ":5261,"ØºÙĩ":5262,"ĠÙħØªÙģØ§ÙĪØªÛĮ":5263,"ĠÙĩÙħØ¬ÙĨØ³":5264,"ÙĨØ¸Ø±":5265,"ĠØ±Ø§Ø³ØªÙĩ":5266,"Ø§ÙĪÙĦ":5267,"ĠØ§Ø³ØªØ¯ÙĦ":5268,"ÙģØ±Ùĩ":5269,"ĠÚ©Ø±ÙĪÙħ":5270,"Ø±Ø§ÙĩÛĮ":5271,"ÙĩØ§Ø³Øª":5272,"ĠØ±ÙĪÛĮØ¯":5273,"Ø¯ÛĮÙĩ":5274,"ĠÛ±Û³Û¸Û¸":5275,"ĠØ§ÙħØ¶Ø§":5276,"ĠØ´Ø´ÙħÛĮÙĨ":5277,"ĠÚ©Øª":5278,"ĠÙĩÙħÚ©Ø§Ø±":5279,"Ø³Ú©Øª":5280,"ĠÙĪØ¶Ø¹":5281,"ĠÙħØ®ØªØµ":5282,"Û³Û¸":5283,"ĠØ¨ÙĪÚ©":5284,"ok":5285,"ĠØ¯ÛĮÙĦ":5286,"Ø¬ÛĮØ¨":5287,"Û¹Û¹":5288,"ĠÙģÛĮÙĨØ§ÙĦ":5289,"ĠØ§Ø´Ú©Ø§ÙĦ":5290,"ĠØ§Ø¹Ø·":5291,"ub":5292,"ĠÙħØ¹Ø¨Ø¯":5293,"Ø¬ÙħÙĩÙĪØ±ÛĮ":5294,"ĠØªÙĤØ¯":5295,"ĠÚ©Ø§Ø±ÙĪÙĦÛĮÙĨØ§ÛĮ":5296,"Ø§ÛĮØ¹":5297,"ĠÙĨØ§Ø¨ÙĪØ¯":5298,"Ú©Ø³ÛĮ":5299,"ĠÙĩÙħÚ¯ÛĮ":5300,"ĠØ±ÙĪÛĮÚ©":5301,"ĠÛĮÙĪØ³Ùģ":5302,"ĠÙĤÙĩØ±ÙħØ§ÙĨØ§ÙĨ":5303,"ĠÙħÛĮØ§ÙĨÛĮ":5304,"ĠØ±ÙĤÙħ":5305,"ĠÙĪÛĮÚ©ØªÙĪØ±":5306,"ØµÛĮÙĦÛĮ":5307,"ĠÙĨØ¨ÙĪØ¯Ùĩ":5308,"ĠÙ¾ÙĨÙĩØ§ÙĨ":5309,"ill":5310,"NA":5311,"Ø§ÙħØ¯":5312,"ĠØ§ÙĤÙĪØ§Ùħ":5313,"ĠØªØ¨Ø¹ÛĮØ¯":5314,"ĠØ§Ø³ØªØŃ":5315,"ĠØ®ÛĮØ±":5316,"ÙĪØ±ÙĩØ§ÛĮ":5317,"ĠØ§ÛĮÙĦÛĮÙĨ":5318,"ine":5319,"ĠÛ±Û¹Û¸Û²":5320,"ĠÙħØŃØ§ÙģØ¸Øª":5321,"Ù¾Ø¯ÛĮ":5322,"ĠÛ¸Ûµ":5323,"ĠØªØ§Ø¬ÛĮÚ©":5324,"ĠÚ©Ø§ØªÙĪÙĦÛĮÚ©":5325,"ĠØ¢Ø³Ø§ÙĨ":5326,"Û¹Û¸":5327,"ĠÚ©Ø´ÛĮØ¯":5328,"ĠØ¬Ø§Ø³":5329,"ĠÙĨØµØ±":5330,"ĠÙĨØ§ÙħÛĮ":5331,"ĠØŃÙħØ§Ùħ":5332,"Ø±Ø³Ø§ÙĨØ¯":5333,"ĠÙĨÙħØ§Ø²":5334,"ĠÙħÙĩØ§Ø±Øª":5335,"ĠÙĤØ¨ÙĦØ§":5336,"ĠØ§Ø®ÙĦØ§ÙĤÛĮ":5337,"ĠÙĨÙħØ§ÛĮÙĨØ¯":5338,"ĠØ³ÛĮØ¨":5339,"ÙĩÙħÚĨÙĨÛĮÙĨ":5340,"ĠØ¹Ú©Ø§Ø³ÛĮ":5341,"ĠÙģÙĪ":5342,"ĠØ´ÙĪØ´":5343,"ĠÚ©ÙħØ§ÙĦ":5344,"ĠØ³Ù¾Ø§ÙĩÛĮ":5345,"Ø®Ø±Ùĩ":5346,"ĠØ§ÛĮØ¯":5347,"ĠØ§Ø´ÛĮ":5348,"Ġ...":5349,"ĠØ¬Ø³ØªØ¬ÙĪ":5350,"ÙĪÙħÛĮÙĩ":5351,"ĠÙĨÙĪØ§Ø±":5352,"ĠÙħØ³Ø¹ÙĪØ¯":5353,"ĠØ§ÙħÛĮÙĨ":5354,"Ø§Ø¨ÙĨØ¯":5355,"ĠØ±ÙĪØ²Ø§ÙĨÙĩ":5356,"Ø´Ø¨":5357,"ĠÚ¯ÙĦÛĮ":5358,"ĠÙĨÚ©Ø±Ø¯Ùĩ":5359,"ĠÙħÙĨØ²ÙĦ":5360,"Ġ(\"":5361,"ĠØ§ÙĦÚ©ØªØ±ÙĪÙĨÛĮÚ©":5362,"ĠØ§Ø®ØªØ±Ø§Ø¹":5363,"Ø¦ÙĪØ³":5364,"ĠÚĨØ§ÛĮ":5365,"Ú¯ÙĪØ´":5366,"ĠØ±ÙĪØ§Ø¬":5367,"ĠØ¹ÙĦØ§ÙħØª":5368,"ĠÙħÙĨØªÙĤØ¯":5369,"ĠØ®Ø§ÙĪØ±ÙħÛĮØ§ÙĨÙĩ":5370,"ĠØ¨Ø±Ø§Ø¯Ø±Ø§ÙĨ":5371,"ĠÛ±Û¹ÛµÛ°":5372,"ĠÙħÙħÙĨÙĪØ¹":5373,"ĠÚ©ÙĪØ¦":5374,"ĠØ§Ø³ØªØ§ÙĨØ¯Ø§Ø±":5375,"ÙģØªÛĮ":5376,"ĠØ¢Ø±Ú©":5377,"ĠÙħØ¬ÙĪØ²":5378,"ĠØ¬Ø±Ø¬":5379,"ĠØ¯Ø§Ø±ÛĮÙĪØ´":5380,"ĠÛ±Û³Û¹Û²":5381,"Ú¯Ø±Ø¯ÙĨØ¯":5382,"ĠÙģÙĦÙĪØ±ÛĮØ¯Ø§":5383,"ĠÙħÛĮÙĨÙĩ":5384,"ĠÙ¾ÛĮÙĨ":5385,"ĠØ§Ø³Ú©Ø§ØªÙĦÙĨØ¯":5386,"ĠÙĤØ¯ÙħØª":5387,"ĠÙħØŃÙĤÙĤ":5388,"ĠØ¬Ø³Ùħ":5389,"Ú¯Ø²Ø§Ø±ÛĮ":5390,"ĠØªØŃÙĪÙĦ":5391,"ĠØ¨Ø®Ø§Ø·Ø±":5392,"Ø°Ø±":5393,"ĠØ¨Ø²":5394,"Û¸Û¸":5395,"ÙĬÙĨ":5396,"ĠØ´Ø¨Ø§ÙĩØª":5397,"ĠÙģÙĦØ³Ø·ÛĮÙĨ":5398,"ÙĤÙĦØ¹Ùĩ":5399,"ĠÚĨÚ¯ÙĪÙĨÙĩ":5400,"ĠÚ¯ÙĪÙĨØ§Ú¯ÙĪÙĨÛĮ":5401,"ĠØ¨ÛĮØ§":5402,"ĠØ¨Ùħ":5403,"Ø§Ø¹Ø¯Ùĩ":5404,"ĠØ¨Ø¯Ø§ÙĨ":5405,"Ú¯Ø±Ùħ":5406,"Ø¬ÙĨÚ¯":5407,"ĠØ·Ø±ÙģØ¯Ø§Ø±Ø§ÙĨ":5408,"ĠØ¯Ø§Øº":5409,"ĠØ¨Ø³ØªÚ¯ÛĮ":5410,"ĠØ¬ÙĪØ§ÛĮØ²ÛĮ":5411,"ct":5412,"ĠØ¨ÙĩØ±Ø§Ùħ":5413,"ĠØ±Ø¯ÛĮÙģ":5414,"ĠÙħØªÙħØ±Ú©Ø²":5415,"ÙĦØ§Ú©":5416,"ĠÙģØ±Ú©":5417,"ĠØ¨Ø§Ø±Ø¯":5418,"ĠÙĩÚ©Øª":5419,"ĠØ¬Ø³ØªØ¬ÙĪÛĮ":5420,"ĠØ§ÙĨØ¨":5421,"Ù¾Ø±ÙĪ":5422,"Ø·ÙĦØ¨":5423,"ĠØ¬ÛĮÙĨ":5424,"inde":5425,"ĠØªÙħØ±ÛĮÙĨ":5426,"Ø´Ø§Ø±ÛĮ":5427,"ĠPr":5428,"ÙħÙĪØ¯":5429,"ÚĨØ³ØªØ±":5430,"ĠÚ©ÙĨØ§Ø±Ùĩ":5431,"ĠÙħÙĪØ²ÛĮÚ©":5432,"ÙĨÙĤ":5433,"ĠØµØ¹ÙĪØ¯":5434,"ĠÙģÛĮÙĦØ³ÙĪÙģ":5435,"ĠØ®ÙĪØ§Ø¬Ùĩ":5436,"ĠÙĦÛĮÚ©":5437,"ĠØ±ÙĪØ§ÙĨÛĮ":5438,"ĠØªØ±Ø³":5439,"ĠÙħØ¹Øª":5440,"ĠÙĪØ³Ø·":5441,"ĠØ´Ø§Ú¯Ø±Ø¯Ø§ÙĨ":5442,"ĠØ´Ø§Ùħ":5443,"ĠØ²ÙĨØ¬ÛĮØ±Ùĩ":5444,"Ú©ÙĨØ§ÙĨ":5445,"ĠÚ©ÙĪÛĮ":5446,"ÙĪØ±ÛĮØ³":5447,"cycl":5448,"ĠØ¨Ø±Ø¢ÙĪØ±Ø¯":5449,"ĠÚ©Ø±ÛĮÙħ":5450,"ĠÚ©ÙħØ±Ø¨":5451,"ĠÙħØ¯Ø§ÙģØ¹":5452,"com":5453,"ĠÙĪØ³ÛĮØ¹":5454,"ĠØ§ÙģØªØ§Ø¯Ùĩ":5455,"ĠÙ¾Ø§Ø±ÙĦÙħØ§ÙĨ":5456,"Ø§ÙĩØ±Ø§Øª":5457,"ĠØ§ÙħÙĪ":5458,"ÙħÛĮÙĨØ§ÙĨ":5459,"ĠÛ±Û¹Û¸Û·":5460,"ĠÚ©ÙĦØ±":5461,"Ú¯Ø±ÙģØªÚ¯ÛĮ":5462,"Ú¯Ø§Ùħ":5463,"ĠÙĨÛĮÙĪØ²":5464,"ĠÙĨØ§ÛĮØ¨":5465,"cyclop":5466,"ĠØ¨Ø§ÙĦØ§ØªØ±ÛĮÙĨ":5467,"Ø³ÙĪÙħ":5468,"ĠÙħØ§ÙĦÚ©ÛĮØª":5469,"ĠØ³Ø§Ø²ÙĨØ¯Ùĩ":5470,"ĠØªØ§ÙĦØ§Ø±":5471,"ĠØ§ÛĮÙĦÛĮÙĨÙĪÛĮ":5472,"art":5473,"Ø¹Ø¨Ø§Ø³":5474,"ĠØ§ÙĨØªØ®Ø§Ø¨ÛĮÙĩ":5475,"ĠØ±Ø§ØŃØªÛĮ":5476,"ĠÙĨØ®ÙĪØ§ÙĩØ¯":5477,"ĠÙħØ§Ø¬Ø±Ø§":5478,"Ú¯Ø±ÙĪÙĩ":5479,"ĠØ¹Ø¸ÛĮÙħ":5480,"ĠØ§ØªÙħÛĮ":5481,"ĠÙĩÙģ":5482,"ĠØªØ¬Ø¯ÛĮØ¯":5483,"ĠØ¨Ø±ÙĨØ¯":5484,"ĠÛ´Û¶":5485,"ĠÙĩÙĪÙĦ":5486,"ĠÙģÙĤÙĩ":5487,"ĠØ´Ø±Ø·":5488,"ĠØ¨ÙĪÛĮ":5489,"ĠØ§ÙĪØ§Ø³":5490,"ĠFree":5491,"ĠØ¯Ø±Ø¢Ùħ":5492,"ÙĪØ±Ø²":5493,"ĠØ¬Ø³":5494,"ĠÙģØ±ÙĪÙĨØ¯":5495,"ĠÙħØ¨ÙĨØ§ÛĮ":5496,"ĠÙĤÙĦØ¨ÛĮ":5497,"ell":5498,"ĠØ§Ú©Ø±Ø§ÙĨ":5499,"ĠÚ¯Ø§ÙĪ":5500,"ĠÙħØ®ÙĦ":5501,"ĠÙħØŃÙĦÙĪÙĦ":5502,"Ø§ÙħØ¹":5503,"ĠÙħØªØ£":5504,"Ø§Ø¸Ø±":5505,"ĠØ¬ÙĪØ§Ø¨":5506,"ĠØ¨Ø±Ú¯Ø±ÙģØªÙĩ":5507,"ĠÙ¾Ø§Ø±Ø§Ùħ":5508,"ĠØ¯Ø§Ø³ØªØ§ÙĨÛĮ":5509,"ĠÙĨÙħÚ©":5510,"ÙĦÛĮØ§ÙĨ":5511,"ĠØ¨Ø²Ø±Ú¯Ø§ÙĨ":5512,"Û³Û³":5513,"ĠØ§Ø±Ø¯Ø¨ÛĮÙĦ":5514,"ĠØªÙĪÙħØ§Ø³":5515,"ĠÙ¾Ø±Ø§Ú©ÙĨØ¯Ùĩ":5516,"ĠÚĨÙĨÚ¯":5517,"ĠÙĪØ§ØŃØ¯ÙĩØ§ÛĮ":5518,"ĠÙĩÙħØ±Ø§ÙĩÛĮ":5519,"Ø§ØªÙĪ":5520,"ĠÙĤØ±ÙĪÙĨ":5521,"ĠØ§Ú©Ø³ÛĮØ¯":5522,"ĠÚ©ÙĦØ§ÙĨ":5523,"ĠØ³ÙĩÙħ":5524,"ĠØ¹ÛĮØ³ÛĮ":5525,"ĠØªØ¬Ø±Ø¨ÛĮ":5526,"ĠÙĩÙģØªÙħÛĮÙĨ":5527,"ĠØ¹ÙĪØ¶":5528,"Ú¯ÙĪÛĮÛĮ":5529,"ĠÛ¹Ûµ":5530,"ĠØ®Ùħ":5531,"ĠÙħØªÙĤ":5532,"ÙĪÙĨÛĮØ§":5533,"Û²Û¹":5534,"ĠØ§Ø³ØªØ®Ø±Ø§Ø¬":5535,"ĠØ³ÙģÛĮØ±":5536,"Ø³ØªØ§ÙĨÙĩ":5537,"ĠØªØŃÙĪÛĮÙĦ":5538,"ĠÚ©Ø§Ø±Ø¨Ø±Ø¯ÙĩØ§ÛĮ":5539,"ibut":5540,"php":5541,"ĠÛµÛ·":5542,"Ø§ÛĮØªØ¯":5543,"Ø§ØªØ±ÛĮÙĨ":5544,"Ø¨ÛĮÙĨØ¯":5545,"Ø¬ÙħÙĦÙĩ":5546,"ĠÙĨÛĮØ´Ø§Ø¨ÙĪØ±":5547,"ÙĦÛĮØ¯ÛĮ":5548,"ÙģÙĪÙĨ":5549,"Ø´Ø¯ÙĨ":5550,"ĠØ°Ùĩ":5551,"ÙĦØ§ÙĦ":5552,"ĠØ¨ÙĪØ³":5553,"Ø³ÛĮÙĦÙĪØ§ÙĨÛĮØ§":5554,"Ù¾Ø¯ÛĮØ§ÛĮ":5555,"ĠÙħØ¯Ø¹ÛĮ":5556,"Ġl":5557,"ĠØªØ³Øª":5558,"ĠÚ©ÛĮÙĨ":5559,"ĠÙĤØ§Ø±":5560,"ÛĮÙĪ":5561,"ĠEncyclop":5562,"ĠÙħØ°Ú©ÙĪØ±":5563,"ĠÙĨØ¨Ø±":5564,"ĠØ¢ÙĤØ§":5565,"ĠÙħÙĩÙĨØ¯Ø³":5566,"mol":5567,"ĠØ¨ÛĮØ±ÙĪÙĨÛĮ":5568,"Ø§ÛĮØªÛĮ":5569,"ĠØ§Ø®Ø°":5570,"ĠØ±Ø³Ø§ÙĦÙĩ":5571,"qu":5572,"ĠÙĩÛĮØª":5573,"ĠØµÙĦØ§ØŃ":5574,"ĠØ¬Ú©Ø³ÙĪÙĨ":5575,"ĠÚ©ÙħØªØ±ÛĮ":5576,"tit":5577,"ÛĮØ¯Ú¯ÛĮ":5578,"www":5579,"ĠØ¬ÙĦØ§ÙĦ":5580,"ĠÙĦØ°Ø§":5581,"Ø§Ø¢":5582,"ĠÙĨØ¹":5583,"ĠØ²ÙĪØ¬":5584,"ĠØ¬Ø§ÙħØ¯":5585,"ĠÙĤÙĨØ§Øª":5586,"ĠÛ±Û¹Û¸Ûµ":5587,"ĠØ§ÙĨÛĮÙħ":5588,"ĠØ¯Ø§Ø±ÙĪÛĮÛĮ":5589,"ĠØ³ØªØ§Ø±":5590,"Ø³ÙĪØªØ§":5591,"ĠÛ±Û¹Û·Û¹":5592,"ĠØ§Ø³ØªØ¯ÙĦØ§ÙĦ":5593,"ĠØ¯ÛĮØ²":5594,"ĠÚ©Ø§ÙĨØ¯":5595,"ÙĪÙĨØ¯ÛĮ":5596,"ĠØ±Ø³ÙħØ§":5597,"ÙĪÛĮØªØ³Ùĩ":5598,"ĠØ¢ÙĦØ§Ø¨":5599,"ĠÚĨØ§Ø±ÙĦØ²":5600,"Ø´Ø¹":5601,"ĠÙħØ¹ÛĮÙĨ":5602,"Ù¾Ø±Ø¯Ø§Ø®Øª":5603,"ĠÛ´Û´":5604,"eg":5605,"ĠÚ¯Ø±Ú¯":5606,"ĠÙħØ¹Ø§Ø¯ÙĦÙĩ":5607,"ĠÙĨØ§Ø³":5608,"ĠØ¢ÙĨØªÙĪÙĨÛĮ":5609,"ĠÂ«\"":5610,"ĠØ®ÙĪØ¯Ú©Ø§Ø±":5611,"ĠÙħØ£ÙħÙĪØ±":5612,"ĠØ¯ÛĮÚ©":5613,"ĠØ±Ø³ØªÙħ":5614,"ĠÙħØŃØ³ÙĨ":5615,"Ġcontr":5616,"ĠØ§ØŃØªØ±Ø§Ùħ":5617,"ØŃÙħ":5618,"ĠÛ±Û¹Û¸Û±":5619,"Ø¯Ø§Ø±Ø¯":5620,"ĠÛ´Û·":5621,"ÙģØ±ÙĪ":5622,"ĠØ®ÙĪØ§Ø³ØªÙĩ":5623,"ĠØ¯Ø§Ø±ÛĮÙħ":5624,"ĠØ¹Ø·":5625,"ÙĨØ¬Ø§ÙĨ":5626,"ĠØ¬Ø¯Ø§Ú¯Ø§ÙĨÙĩ":5627,"ÙĪÙħØªÛĮ":5628,"ĠØ§Ú©Ø³":5629,"Ú©ØªØ§Ø¨":5630,"index":5631,"ĠØ§ÙĩÙĪØ§Ø²":5632,"ĠØ§ÛĮÙĨØ¯ÛĮ":5633,"ĠÚ©Ø±Ø¯ÛĮ":5634,"Ġ<":5635,"ĠÙħØ´Øª":5636,"ĠÛ±Û³Û¹Û¶":5637,"ĠEncyclopedia":5638,"ĠÙħØ®ÙĦÙĪØ·":5639,"ĠÙĤÙģÙĤ":5640,"ĠØªÙĨØ´":5641,"ĠÙħÙĪØ³ÙĪÙħ":5642,"Ø®ØªÙĨ":5643,"ĠØ§Ø·ÙħÛĮÙĨØ§ÙĨ":5644,"ĠØ§Ø³ØªÙĪØ§Ø±":5645,"Ø§ÙĤØ¯":5646,"ĠØ¨ØªÙĨ":5647,"Ø§Ø¨ÛĮÙĨ":5648,"ÛĮÙĦØ§":5649,"ĠÙħØŃÙħØ¯Ø¹ÙĦÛĮ":5650,"Û¸Û¹":5651,"ÙĪÙħØ±":5652,"ĠÙĩÚ©ØªØ§Ø±":5653,"ĠÛ±Û¹Û´Ûµ":5654,"Ø³Ú©ØªØ¨Ø§ÙĦ":5655,"ĠØ¬ÙħØ§ÙĩÛĮØ±":5656,"ĠÙ¾Ø±ÙĨØ¯Ú¯Ø§ÙĨ":5657,"ĠÙĨØªÙĪØ§ÙĨØ³Øª":5658,"ĠÚ©ÙĪÚĨÙĩ":5659,"ĠØªÚ©Ø§ÙħÙĦ":5660,"ĠÙ¾Ø±Ùģ":5661,"Ø¨Ø±Ø²":5662,"ĠÛĮØ§Ø¯Ú¯ÛĮØ±ÛĮ":5663,"ĠØ±Ø¬":5664,"ĠÚ¯Ø±Ø¯ÙĨ":5665,"ĠØ³ÛĮÙĨØ§":5666,"ĠØ®ÙĪØ§Ø³ØªØ§Ø±":5667,"ĠÚ¯Ø°Ø±Ø§ÙĨØ¯":5668,"ĠØ³Ø§ÛĮÙĩ":5669,"ĠÚ©Ø§ÙĨÙĪÙĨ":5670,"ĠØŃØ´":5671,"ice":5672,"ĠÚ¯Ø±Ø¬Ø³ØªØ§ÙĨ":5673,"ĠØ¢Ø¨Ø´Ø§Ø±":5674,"ĠØ¨ÛĮØ§ÙĨÛĮÙĩ":5675,"ĠÚ¯ÙĪØ¯":5676,"ĠØ³ÙģØ§Ø±Øª":5677,"ĠØªØ±Ú©ÛĮØ¨Ø§Øª":5678,"ĠÙģØ±Ø¯ÙĪØ³ÛĮ":5679,"ĠÙĨÙĩØ§ÛĮØªØ§":5680,"ĠÙĩÙĦÙĨØ¯ÛĮ":5681,"ĠÙĪØ§Ùħ":5682,"ĠÙĪØ§Øª":5683,"ĠØ²Ø¨Ø§ÙĨÛĮ":5684,"ĠØ¯Úĺ":5685,"ĠÙĦÙĨÚ¯":5686,"ĠÙĤÛĮØ§Ùħ":5687,"ĠØ¨Ø¯ÙĨÙĩ":5688,"ĠÙĪØŃØ´ÛĮ":5689,"ĠØ³Ø·ØŃÛĮ":5690,"ĠØ¬Ø§ÙĨØ¨":5691,"ĠÙħÙĪÙĤØª":5692,"ĠÚ¯ÙĦØ³ØªØ§ÙĨ":5693,"ĠÛĮÙĪÙĨØ§ÛĮØªØ¯":5694,"ĠØ¨Ø§Ø²Ø±Ú¯Ø§ÙĨÛĮ":5695,"ÙģØ§ÙĨ":5696,"ĠØ²ÛĮØ³ØªÛĮ":5697,"ĠØŃØ±Ø§Ø±ØªÛĮ":5698,"ĠÚ©Ø§ÙĨÛĮ":5699,"ĠÙĦØ§Ø±":5700,"ÙħÙĨØ¯Ø§ÙĨ":5701,"ĠØ´Ø±ÛĮÙģ":5702,"ĠÛĮÙĪØ±ÙĪ":5703,"ÙĩØ§ÛĮÙħ":5704,"ĠÚĨÙĨØ¯Ø§ÙĨ":5705,"ÛµÛµ":5706,"____":5707,"Ġv":5708,"ĠØ¨Øµ":5709,"ĠØ³ÙĦØ¬ÙĪ":5710,"Ø®Ø¯":5711,"ĠØŃØ°ÙģÛĮ":5712,"Ø³Ø§ÙģØª":5713,"ĠØ´Ø¹Ø¨Ùĩ":5714,"ĠÙģØ±Ø§Ø®":5715,"ĠØ±Ø¹":5716,"ĠÙĦØŃØ¸Ùĩ":5717,"Ú¯Ø°Ø±Ø¯":5718,"ĠØ¨Ø§ÛĮØ±":5719,"ĠÙħØ±ÙĪ":5720,"ĠÙĦÛĮØ³Ø§ÙĨØ³":5721,"Û³Û¹":5722,"Û¶Û¶":5723,"ĠÚ©ÙĪÙĨ":5724,"ĠØ§Ø±Ø³":5725,"ĠØ§ÙĪÙĨ":5726,"ĠÙħØ¯ÛĮØ±Ùĩ":5727,"ÙĨÙĪØ¹":5728,"ĠÛ´Û°Û°":5729,"Ø¶Ø§ÙĨ":5730,"Ø¦Ùĩ":5731,"ĠÙħØ¹Ø¯ÙĨ":5732,"acc":5733,"ĠÛ±Û¹Û·Û¶":5734,"Ø´Ø±Ø¯Ùĩ":5735,"ĠÙ¾ÙĨØ³ÛĮÙĦÙĪØ§ÙĨÛĮØ§":5736,"Ú¯ÛĮÙĦÙĪÛĮÙĩ":5737,"ĠÚĨØ±Ø®Ùĩ":5738,"ibutors":5739,"ĠÛĮØ§Ø±ÛĮ":5740,"ĠØ¶Ø®":5741,"Ø§ÙĦÙĪ":5742,"Ú¯Ø±Ø§Ùĩ":5743,"ĠÙĦØ²":5744,"ĠÙĩØ§Ø´ÙħÛĮ":5745,"ĠÙĪÙĦØªØ§Úĺ":5746,"ĠØ´ÛĮØ¹ÛĮØ§ÙĨ":5747,"Ġcontributors":5748,"Ø§Ø¹Ø¯":5749,"ĠÙħÙĪØ§Ø±Ø¯ÛĮ":5750,"ĠÙħØ¹ØªÙĤØ¯ÙĨØ¯":5751,"ĠØ¨Ø³Ú©ØªØ¨Ø§ÙĦ":5752,"ØµØ§Ø±ÛĮ":5753,"ĠØŃÙĤÛĮÙĤÛĮ":5754,"now":5755,"ĠØ§ÙĪÙĦÛĮ":5756,"ĠØŃÙĪØ§Ø¯Ø«":5757,"ĠÙ¾Ø±ØªØºØ§ÙĦ":5758,"ÙĪØ¯Ú¯ÛĮ":5759,"ĠØ¬Ø§Ø°":5760,"ĠØ§ÛĮÙĨØªØ±ÙĨØªÛĮ":5761,"ĠØ³Ø§ØŃÙĦÛĮ":5762,"ĠØ¨ÙĪØ´ÙĩØ±":5763,"ĠØ±Ø§Ø¯ÛĮÙĪÛĮÛĮ":5764,"ĠÛ±Û¹Û´Û´":5765,"ĠØªØ¹ÙĦÙĤ":5766,"ĠØªØµÙĪÛĮØ±ÛĮ":5767,"ĠØ³Ø¤Ø§ÙĦ":5768,"ĠØ¢ÙĦØ§Ø¨Ø§ÙħØ§":5769,"Ú©Ø´Ø§ÙĨ":5770,"ĠØ®Ø´Ùħ":5771,"ĠÙĪÛĮØ³":5772,"ĠØªØ³ÙĦÛĮÙħ":5773,"ĠÙĤØ¯Ø±ØªÙħÙĨØ¯":5774,"ĠØ¯Ø§Ú©":5775,"ĠØ§ÙħØ§Ø±Ø§Øª":5776,"ĠÙĪÙĤØ§ÛĮØ¹":5777,"ĠÙģÛĮØ±ÙĪØ²":5778,"ÙħØ§ÙĨÙĩ":5779,"ĠØ¬ÙĦÙĪÛĮ":5780,"ĠØ¬Ø¹Ø¨Ùĩ":5781,"ĠØ³Ø±ÙħØ±Ø¨ÛĮ":5782,"ĠØ§ÙħØªØ¯Ø§Ø¯":5783,"ĠØ³ØªØ§Ø¯":5784,"ÙĪØ§ÙĦÛĮ":5785,"Ø§ÙĪØ±ÛĮ":5786,"ĠÙħØ´ØªÙĤ":5787,"Ø¬ÙħØ¹ÛĮØª":5788,"Ø§ÙĦØ¨Ø§":5789,"ĠÙĤÙĪÙĦ":5790,"ĠØ¯Ø®ØªØ±Ø§ÙĨ":5791,"ev":5792,"ĠÛ±Û¹Û·Û¸":5793,"ĠØ³ÙĪÙ¾Ø±":5794,"ĠØ¨Ø±ÙĪØ¬":5795,"ĠØ§Ø¨ÙĪ":5796,"ĠÙħØ§ÛĮÚ©Ø±ÙĪ":5797,"ĠÙ¾Ø±ÙĪØ§ÙĨÙĩ":5798,"ĠØ§ÙĨØ¬Ø§ÙħÛĮØ¯":5799,"Ø²ÛĮÙĨ":5800,"ĠØ¢ÙĦÙĪÙħ":5801,"ĠÚĨÙĨØ¯ÛĮ":5802,"ĠÚĨØ±Ø®Ø´":5803,"ĠÚ©Ø§Ø±Ø¯":5804,"Ø¹Ø¯Ø§Ø¯":5805,"Û¹Û³":5806,"ĠÙ¾Ø±ØªÙĪ":5807,"ĠÚ©ÙĨØ³ÙĪÙĦ":5808,"ĠAr":5809,"ĠØ²ÙĨØ¬Ø§ÙĨ":5810,"ØªØ§Ø±ÛĮØ®":5811,"ĠÚ©Ø§ØºØ°":5812,"ĠÛ±Û¹Û·Û³":5813,"ĠØ§ÙĨØ¯Ø§Ùħ":5814,"ĠÛ±Û¸Û²":5815,"ĠØ§Ø±ÙĪÙħÛĮÙĩ":5816,"ĠØ¨ÙĦÙĪ":5817,"Ú¯ÙĪÙĨÚ¯ÛĮ":5818,"Ġâ":5819,"Ø®Ø§Øµ":5820,"ĠØ³Ø±Ø¯Ø§Ø±":5821,"ĠØ¬Ø¯Ø§ÛĮÛĮ":5822,"title":5823,"ĠØ¢Ú¯Ø§Ùĩ":5824,"Ø±ØºÙħ":5825,"ÙģÙĪØ±":5826,"ĠÙ¾ÛĮØ±ÙĪØ§ÙĨ":5827,"ĠØ®Ø¯Ø§ÛĮ":5828,"Û¹Û±":5829,"ÙĤÙħØ±ÛĮ":5830,"ĠÛ±Û¹Û¸Û³":5831,"ĠØ¬Ø§ÙĨÙĪØ±Ø§ÙĨ":5832,"ĠØ¯ÙĪÛĮØ³Øª":5833,"ĠÙģØ´Ø±Ø¯Ùĩ":5834,"ĠØ¶Ø±ÙĪØ±ÛĮ":5835,"ĠØ§Ú©Ø³ÛĮÚĺÙĨ":5836,"ÛĮØ§ÙģØª":5837,"ĠÚ©Ø§Ø¸":5838,"ĠÙħÛĮØ´":5839,"ĠØ´ÙĩØ±ÙĪÙĨØ¯Ø§ÙĨ":5840,"ĠØŃØ±ÙĪÙģ":5841,"Ø§ÙĦÛĮØ³Ùħ":5842,"ĠØªØ´ÙĪÛĮÙĤ":5843,"ĠÚ¯ÙĨØ¯Ùħ":5844,"ĠØ§Ø³ØªØ®Ø¯Ø§Ùħ":5845,"ĠÚ¯ÙģØªÚ¯ÙĪ":5846,"ĠÙĤØ¶ÛĮÙĩ":5847,"ĠÚ©ÙħØ¨ÙĪØ¯":5848,"ĠØ¯ÛĮØ³Ú©":5849,"ÙĪØ³Ú©":5850,"Ø³ÙĪØ§Ø±ÛĮ":5851,"ØªØ´ØªÛĮ":5852,"ĠÙħØµØ·ÙģÛĮ":5853,"Ø§ÙħÙĦÙĩ":5854,"ĠÙħØ¹ÙĦÙħ":5855,"ĠÚ©Ø¨Ú©":5856,"ĠÙĤØ¶Ø§ÛĮÛĮ":5857,"ĠÙħÙĨØ·ÙĤ":5858,"ĠÚ©ÙĪÙĩØ³ØªØ§ÙĨ":5859,"Ø§Ú¯Ø§":5860,"ĠÙħØ¬Ø§Ø²ÛĮ":5861,"ĠÛ±Û¹Û¶Û¸":5862,"ĠÙħÚ©Ø§ÙĨÛĮÚ©ÛĮ":5863,"ex":5864,"ĠZ":5865,"ĠØ¢Ú¯ÙĪØ³Øª":5866,"Ø§ÙħÛĮÚ©":5867,"ĠÙĩÛĮØ±":5868,"ĠØªØ¹Ø§Ø¯ÙĦ":5869,"Ú¯Ø´":5870,"ĠÙĤØ¯Ùħ":5871,"ĠØªØ±ÙĪØ±":5872,"ĠØ¯ÙģÙĨ":5873,"ĠØªØ¯Ø±ÛĮØ¬":5874,"Ġ6":5875,"ĠØ®ÙĪØ¯Ø´Ø§ÙĨ":5876,"ĠØ±ÙĪØ²Ú¯Ø§Ø±":5877,"Ø§ÙĨÚ¯ÛĮØ²":5878,"ĠØ¨ÙĪØ¦":5879,"Ù¾Ø§ÙĦ":5880,"ĠÛ±Û³Û¹Û´":5881,"Ø¯ÙĩØ³ØªØ§ÙĨ":5882,"ĠØ§ÛĮØ²Ø¯":5883,"ĠÚ©ÙħÙĪÙĨ":5884,"ÛĮÙĨÚ¯ÙĨ":5885,"ÙĨÙħÙĪØ¯":5886,"ĠØ¯Ø±Ø¨Ø±":5887,"Ø³Ø§Øª":5888,"ĠØ¯ÙģØ§Ø¹ÛĮ":5889,"ÙħÙĪØ±":5890,"ĠÙħÙĤØµØ¯":5891,"ĠÛ±Û¹Û´Û³":5892,"ĠÙħÙĨØ¹":5893,"ĠØ®ÙĪØ±Ø¯ÙĨ":5894,"oldid":5895,"ĠÙĤØ±Ø¨Ø§ÙĨÛĮ":5896,"ĠÛ±Û¹Û·Û²":5897,"ĠØªØŃÙĤÛĮÙĤØ§ØªÛĮ":5898,"ĠØ¬ÙĪÛĮ":5899,"Ø§Ø¨ÙĨ":5900,"ĠÙĤØ´":5901,"Ú¯Ø±Ø§ÛĮ":5902,"Ø§Ú©Øª":5903,"ĠØ§ÙĨØ¯Ø§Ø®Øª":5904,"ĠÙĪØ³Ø¹Øª":5905,"ĠÙĨØ§ÙħØ´":5906,"ĠØ§ÙĨØ¯ÙĪÙĨØ²ÛĮ":5907,"ĠÛ¶Û´":5908,"ĠØ¬Ø§ÙĨØ¨ÛĮ":5909,"ĠØ¯Ø§Ø±ÙĪÙĩØ§ÛĮ":5910,"ĠØºÛĮØ±ÙĤØ§Ø¨ÙĦ":5911,"ĠCH":5912,"ĠØ¢Ø²ÙħØ§ÛĮØ´Ú¯Ø§Ùĩ":5913,"ĠÙħØ±Ø²ÙĩØ§ÛĮ":5914,"ĠØ¨ÛĮÙĩ":5915,"ĠØ´ÛĮØ¨":5916,"11":5917,"ÙĪÛĮÚ©":5918,"ĠÙģØ§ÙĤØ¯":5919,"ØµØ§Ø¨":5920,"ĠÙĨØ¨Ø§Ø´Ø¯":5921,"ÙħÛĮÙĩ":5922,"ĠÛ³Û³":5923,"ĠÛ±Û³Û¹Û³":5924,"ĠÙĩØ±Ú©":5925,"ĠØºØ§ÙĦØ¨Ø§":5926,"ØªÚ©":5927,"Ù¾Ø±Ø¯Ø§Ø²ÙĨØ¯":5928,"ĠÙģÙĪÙĨ":5929,"ĠØ§ÙħÙĪØ§Ø¬":5930,"ĠØ³ÙĪØ¡":5931,"ĠØ®Ø§Ø·Ø±Ø§Øª":5932,"ĠØ§ÙĪÚ©Ø±Ø§ÛĮÙĨ":5933,"ĠÚ¯ÚĨ":5934,"ĠØ§Ø¹Ø±Ø§Ø¨":5935,"ĠØ¯Ú©ØªØ±Ø§ÛĮ":5936,"ĠÙħØ±ØªØ¨Ùĩ":5937,"ĠÛ±Û¹Û·Û´":5938,"ÙħÛĮÙĦÛĮ":5939,"ĠÙħÙĪØ§ÙģÙĤØª":5940,"ĠÛĮÙħÙĨ":5941,"ĠÙħÛĮØ´ÙĪØ¯":5942,"ĠØºÙĨÛĮ":5943,"ĠÙħÙĪØ¶ÙĪØ¹Ø§Øª":5944,"ĠÙĨÙĪØ¨ÙĦ":5945,"ĠØ¹ÙģÙĪÙĨØª":5946,"ĠØ¨Ø§Ø±Ùĩ":5947,"ÙħÚ©":5948,"ĠØ³ÙĪØ±Ùĩ":5949,"ĠØ´Ú©ÙĨ":5950,"io":5951,"ÙĨØ§ÙħÙĨØ¯":5952,"ĠØ¯Ø±ÙĪÙĨÛĮ":5953,"ĠØ¨ÛĮÙħÙĩ":5954,"ĠØ§Ø³ØªÙĨ":5955,"ĠØ§ÙĪØ§Ø³Ø·":5956,"ĠØ§ÙĦÙĩ":5957,"ĠØ§ØªÙĪÙħØ¨ÛĮÙĦ":5958,"ÙĨÙĪØ±":5959,"Ø¯Ø§Ø´ØªÛĮ":5960,"Ø§ÙĪÙħ":5961,"ĠØ¨ÙĦÙĪÚ©":5962,"ĠÚ¯Ø°Ø§Ø±ÛĮ":5963,"Û¸Û³":5964,"ÙĨØ´ÛĮÙĨÛĮ":5965,"ber":5966,"ĠØ®ÙĦØ§Øµ":5967,"ĠÙĩØ´ØªÙħÛĮÙĨ":5968,"ĠÎ":5969,"ĠØ®ÙĪØ¯Ùħ":5970,"ĠÚĨÚ¯ÙĪÙĨÚ¯ÛĮ":5971,"ĠØ±ÛĮØ´":5972,"ĠÙ¾Ø§Ø±Ø³":5973,"ĠØ§ÙĨÚ¯Ø´Øª":5974,"ĠÙ¾Ø³ØªØ§ÙĨ":5975,"ĠØ§Ø¹Ø¸Ùħ":5976,"ĠÙĪÛĮØ±Ø¬ÛĮÙĨÛĮØ§":5977,"ĠØªÙĪÚ©ÛĮÙĪ":5978,"ĠÙħØ±Ø§ÙĤØ¨Øª":5979,"ĠÙģØ±Ùĩ":5980,"ĠØŃÙħÛĮØ¯":5981,"Ø§ÙĨØ¯ÛĮØ³":5982,"ĠØ§ÙĩØ¯Ø§":5983,"ĠØ¢Ø±Ø§":5984,"ĠÛ±Û³Û¸Û¹":5985,"ĠÙħØŃÛĮØ·ÛĮ":5986,"ĠØ§ØµÙĦØ§ØŃØ§Øª":5987,"Ø¯Ø§ÙĪÙĦ":5988,"ĠØµØ±Ø¨":5989,"ĠÙħØ·ÙĦÙĪØ¨":5990,"ĠØ¢Ø¯Ø±":5991,"ĠØ²Ø±ØªØ´ØªÛĮ":5992,"ĠÚ©ÛĮÙħ":5993,"Û±Û¹Û¹Û":5994,"ĠÛ±Û¹Û²Û°":5995,"ĠÙ¾ÙĨØ¬Ø±Ùĩ":5996,"ĠØ®ÙĪØ¯Ø±ÙĪÛĮ":5997,"ĠÙħØ±Ø²ÛĮ":5998,"ĠØ¨ÛĮÙĨÛĮ":5999,"ĠÛĮÚ©Ù¾Ø§Ø±":6000,"ĠØ±Ø³ÙħÛĮØª":6001,"Ø¨ÙĤ":6002,"ĠÚ©Ø±Ø³ÛĮ":6003,"ÙĦÛĮÙĦÛĮ":6004,"ĠÙĨØ§Ø¯":6005,"ĠÙĨØ§ÙħØ²":6006,"ĠÙħØ³ÛĮØŃÛĮØª":6007,"ĠØ¨Ø¯ÛĮ":6008,"if":6009,"ĠØªØ¹Ø·ÛĮÙĦ":6010,"Ġr":6011,"Ø³ÙĦØ·ÙĨÙĩ":6012,"ĠÛ±Û¹Û·Ûµ":6013,"ĠÙħÙĪØ±Ø®":6014,"ĠØ³ÛĮÚ©":6015,"ĠÛ±Û¹Û·Û·":6016,"ĠØ§Ø±Ø¯Ø´ÛĮØ±":6017,"Ġk":6018,"ÙħÙĨØ¯ÛĮ":6019,"ĠØ±ÙĨÚ¯ÛĮ":6020,"ĠÙĪØ§Úĺ":6021,"Ø§ÙĦÙħÙĦÙĦ":6022,"ĠØªØ±Ø¯":6023,"ĠÚ¯Ø§Ø±":6024,"ĠØ¨Ø±ØªØ±ÛĮ":6025,"Ø§Ø²ÙĨ":6026,"ĠDistrict":6027,"ĠÙħØ²Ø§Ø±":6028,"Û·Û·":6029,"ĠÚ©Ø´ØªØ§Ø±":6030,"ĠØµÙĨØ¯ÙĪÙĤ":6031,"ĠÙĪÚ©ÛĮÙĦ":6032,"Ú©ÙĨÙĩ":6033,"ĠØ¨Ø¯ÙĩØ¯":6034,"ĠÙħÙĪØ³ÙĪÛĮ":6035,"ĠØ®Ø§ÙĦØµ":6036,"ĠØ³ÙĨÛĮ":6037,"ĠØ³Ø§Ø®ØªÙħØ§ÙĨÛĮ":6038,"ĠØ¢Ø°Ø±Ø¨Ø§ÛĮØ¬Ø§ÙĨÛĮ":6039,"ĠØ§Ø³Ú©ÙĨØ¯Ø±":6040,"ĠØ¨ÙĪÛĮØ±":6041,"ĠØ±Ø³ÛĮØ¯ÙĨØ¯":6042,"ĠÚĨÚ¯":6043,"ÛĮØ±Ø§":6044,"Ø³ÛĮØ±ÛĮ":6045,"ĠØºÛĮØ±Ùħ":6046,"ĠÙĪØ³ÛĮØ¹ÛĮ":6047,"ĠØ¹ÙĪØ§Ø±":6048,"ĠÚĨÙĪØ¨ÛĮ":6049,"ĠÙĪØ¸Ø§ÛĮÙģ":6050,"ĠÚ¯ÛĮØªØ§Ø±":6051,"ĠØ§Ø®Ø±Ø§Ø¬":6052,"ĠØªÛĮÙĦ":6053,"ĠØ®ÙĪØ±Ø¯Ùĩ":6054,",\"":6055,"ĠØ§Ø«Ø±Ø§Øª":6056,"ĠÛĮØ§ÙģØªÙĨØ¯":6057,"ĠØªØ§ÛĮÙĦ":6058,"ĠØ´Ø§Ø¹Ø±Ø§ÙĨ":6059,"ive":6060,"ĠÛ¹Û¶":6061,"ĠÙħØ·Ø§ÙĦØ¨":6062,"ĠÙģÙĨÙĦØ§ÙĨØ¯":6063,"ĠÙħØ´Ø±ÙĪØ·Ùĩ":6064,"ĠØ±ÙĪÙĦ":6065,"ĠÛĮØ§Ø²Ø¯Ùĩ":6066,"ĠÙħØ¨ÙĦØº":6067,"ĠÚ©ÙĩÚ¯ÛĮÙĦÙĪÛĮÙĩ":6068,"ĠÛ±Û³Û¹Û·":6069,"ĠØ¨Ø§Ø²ÛĮÚ¯Ø±Ø§ÙĨÛĮ":6070,"ĠÛ±Û³Û¹Û±":6071,"Ø§ÙĦÛĮØ³Øª":6072,"Ú©ÙĨÙĨØ¯Ú¯ÛĮ":6073,"ĠÚ©ÙĪØ§ÙĨØª":6074,"ĠØ§Ø³ÙĦÙĪ":6075,"ĠØ¢Ø´ÙĨØ§ÛĮÛĮ":6076,"ĠØ¹ÙĦØ§Ø¦Ùħ":6077,"ĠÙħØºØ²ÛĮ":6078,"ĠÙĨØ§ÚĨ":6079,"ĠØ¨Ø±Ø¯Ø§Ø±ÛĮ":6080,"19":6081,"ĠÚ©Ø±Ùħ":6082,"ĠØªØ±ÙĪ":6083,"ØŃÙĤ":6084,"ĠÙĨÙĩÙħÛĮÙĨ":6085,"ĠØ´Ø§Ù¾ÙĪØ±":6086,"ĠÙĩØ±Ø§Øª":6087,"ĠØªØ±Ø´":6088,"access":6089,"ÙĪØªÙĨ":6090,"ĠÙ¾Ø±ÙĪØªÚ©ÙĦ":6091,"ĠØ³Ø±ÙĪØ¯Ùĩ":6092,"ĠÙĨØ§Ø´ÙĨ":6093,"ĠØ¯Ø´":6094,"Ø§ØºÙĩ":6095,"ĠÙ¾ÙĪØ´ÛĮØ¯Ùĩ":6096,"ĠÛ±Û¹Û³Û°":6097,"ĠÚ¯ÙĦÙĪÙĦÙĩ":6098,"ÙĪØªØ±ÛĮ":6099,"ĠØ´ÙĦÛĮÚ©":6100,"ĠÙģØ§ÙĦ":6101,"ĠÛ±Û¹Û·Û±":6102,"ĠØ´ÛĮÙĦÛĮ":6103,"ĠÙĤØµØ±":6104,"ĠÛ¹Û²":6105,"ĠÙħØ¹ÙĦÙĪÙħ":6106,"Ø§Ø³ØªØ±":6107,"ĠØ³ÙĦÙĪÙĦÛĮ":6108,"ĠÙ¾Ø±Ø³Ù¾":6109,"ĠÛ³Û³Û":6110,"ÙħÙĪÙĦ":6111,"ĠÙģØ±ÙĤÙĩ":6112,"ÙĪØ¢":6113,"ĠÚ©Ø§ÙĪØ´":6114,"Ø±Ø¯Ú¯ÛĮ":6115,"ĠØ³ÙĪÙĨ":6116,"ĠØ®ÙĦØ§":6117,"ĠÙĤÙĪÙħÛĮ":6118,"ĠØ§ÙĨØ¹":6119,"ĠÙģÙĦØ³ÙģÛĮ":6120,"Ġh":6121,"ĠØªØ±Ø¬ÛĮ":6122,"ĠØ´ÙĪÙĩØ±":6123,"ĠÛĮÙĪÙĨÛĮ":6124,"ĠØ´ÛĮØ±Ø§Ø²ÛĮ":6125,"ĠÙĩØ§Ùģ":6126,"ĠØ¯ÙĪÚ©":6127,"Ø§ÙħÙĦÛĮ":6128,"ĠØªÙĪÙĦÛĮØ¯ÛĮ":6129,"ÚĺÛĮÚ©ÛĮ":6130,"ĠÙĩØ±ÙħØ²Ú¯Ø§ÙĨ":6131,"Ø¯Ø±Ùĩ":6132,"ĠØ§Ø³ØªØ±Ø§ØªÚĺÛĮ":6133,"ĠÛµÛ¶":6134,"ÙĪÙĩØ§":6135,"ĠØ³Ø±ÚĨØ´ÙħÙĩ":6136,"Ú¯Ø°Ø§Ø±Ø§ÙĨ":6137,"Ø²ÛĮØ³Øª":6138,"ĠÛ±Û¹Û´Û°":6139,"ĠÙĨØ¬Ùģ":6140,"Ø²Ø§Ø¨":6141,"Ø·ÙĦ":6142,"ĠØ´ÙģØ§Ùģ":6143,"Ø²Ø§ÛĮÛĮ":6144,"ĠØªÙĨÙĩØ§ÛĮÛĮ":6145,"ĠÙĨØ¸Ùħ":6146,"ÙħÙĦÚ©":6147,"ĠØ¯ÙĩÛĮ":6148,"ĠÙħØªØ§ÙĦ":6149,"ĠÙħÚ©Ø§ÙĨÛĮÚ©":6150,"ĠØ§Ø´Ú©Ø§ÙĨÛĮØ§ÙĨ":6151,"\".":6152,"ĠØ¨Ø§Ø±ÛĮ":6153,"ĠÙħÙĪØ¶":6154,"ĠÙ¾Ø§Ø±ÚĨÙĩ":6155,"ĠØªÙģÚ©":6156,"Ø¨ÙĪØ¯Ùĩ":6157,"ĠÚ©Ø§Ø±Ú©ÙĨØ§ÙĨ":6158,"ÙĪÙĩØ§ÙĨ":6159,"Ø¨Ø§Ø±Ø§ÙĨ":6160,"ĠÚ©Ø§ÙĦØ§":6161,"ĠØ¹ÙħÙĪÙħ":6162,"ĠÚ©Ø§Ø±Ú¯Ø±":6163,"ĠÙħØ¬Ø±ÛĮ":6164,"Ø²Ø§Ø³":6165,"ĠØªØ¬Ø§ÙĪØ²":6166,"ÚĨØ§ÙĦ":6167,"ĠÛĮØ§Ø±":6168,"Û¸Û±":6169,"Ø¢ÙħÙĪØ²":6170,"ĠÚ¯Ø³Øª":6171,"ĠÙĩÙĨØ¯ÙĪØ³ØªØ§ÙĨ":6172,"Ø§Ø³Ø±ÛĮ":6173,"Ø§ÙģØ²Ø§Ø±ÛĮ":6174,"ĠÙĪØ§ÙĤØ¹Ùĩ":6175,"ĠØ±ÙĪØ²ÛĮ":6176,"ĠÙħØ¬Ø§Ø²Ø§Øª":6177,"ĠÛ±ÛµÛ°":6178,"ĠØ²ÛĮØ¨Ø§ÛĮ":6179,"Ù¾Ø²Ø´Ú©":6180,"ĠØ´ÙĪØ§ÙĩØ¯":6181,"ĠÙĤÙģÙĤØ§Ø²":6182,"ĠØ¬Ø§Ø±ÛĮ":6183,"ÛĮØ³Ùħ":6184,"ĠØ§Ø¨Ø²Ø§Ø±ÙĩØ§ÛĮ":6185,"ĠÙĨØ³Ø¨ÛĮ":6186,"Ø§ÛĮÙĦÛĮ":6187,"ĠÛ±Û¹Û¶Û¹":6188,"ĠÙħØ§ÙĨÛĮ":6189,"ĠØ±Ø¤":6190,"ĠÙģØ±Ú©Ø§ÙĨØ³":6191,"ĠØ²ÙĨÚ¯":6192,"Ø§Ø¯ÙĩØ§":6193,"ĠÛ±Û¹Û¶Û´":6194,"ĠÚ©ÙħØ±Ø¨ÙĨØ¯":6195,"ĠØ¨Ø§Ø²Ø±Ú¯Ø§ÙĨ":6196,"ĠØ¯Ø§ÙĨØ´Ø¬ÙĪ":6197,"ĠÙħÙĩØ§Ø¬Ùħ":6198,"Ø§Ø¯Ø§Øª":6199,"):":6200,"ĠØ¢ÙĦÙĨ":6201,"ĠØªØŃÙħÙĦ":6202,"ĠØªÙĩØ§Ø¬":6203,"ain":6204,"Ø§Ø·ÛĮ":6205,"10":6206,"ĠØªÙĪØ§ÙĨØ³ØªÙĩ":6207,"ĠØ¢ÙĨØ²ÛĮÙħ":6208,"ØµÙĦÛĮ":6209,"ĠØ·Ø§ÙĤ":6210,"ĠØ¬Ø§Ø°Ø¨Ùĩ":6211,"ĠÙĪÛĮØ±Ø§ÛĮØ´":6212,"ĠÙħØ®Ø§ÙĦÙģØ§ÙĨ":6213,"Ø§Ø¨Ø§Ø¯":6214,"ĠÙħÛĮÙĦØ§ÙĨ":6215,"our":6216,"ÛĮÙĦÙĨØ¯":6217,"Ø·ÙĪØ±Ùĩ":6218,"accessed":6219,"ĠØªØ³ÙĦØ·":6220,"ÙĪÙģØ±":6221,"ĠÙħØ¹Ø§ÙĨÛĮ":6222,"ĠÙħØ±Ø§Øª":6223,"ĠÚ©ÛĮÙĩ":6224,"ĠØªÚ©ÛĮÙĩ":6225,"Ø§Ø±ÙĩØ§":6226,"ĠÙħØ®Ø§Ø¨Ø±":6227,"ÙĩØ±Ø§":6228,"ĠØ§ÛĮÙĦØ§Ùħ":6229,"ÙĪÛĮØ¬":6230,"ĠØ¨ÙĦØ§Ùģ":6231,"Ù¾ÛĮÙħ":6232,"ĠÙĨÙĩØ§Ø¯Ùĩ":6233,"Ø§ÚĨÛĮ":6234,"ĠØ´ÛĮÚ©":6235,"ĠØ¢ÚĺØ§ÙĨØ³":6236,"ĠÛ±Û±Û°":6237,"ĠÙħØ¨Ø§Ø±Ø²":6238,"ÙĩØ§ÛĮØ´Ø§ÙĨ":6239,"ĠØ§ØªÙĪØ¨":6240,"Ø§ÙĩÙĪ":6241,"ĠÙħÙĩØ§Ø±":6242,"ĠØ¨Ø±Ùĩ":6243,"ĠØ¹Ø§ÙĦÙħ":6244,"ĠØ¬Ú©":6245,"Ø§Ø³Ùĩ":6246,"ĠÙĦÙĨ":6247,"ĠØ§ÙĦÚ©Ø³Ø§ÙĨØ¯Ø±":6248,"ton":6249,"ĠØ³Ø±ÙĪØ±":6250,"ÙĦØ¯":6251,"ÙģØ§Ø±":6252,"ĠÙĪÛĮØ±Ø¬ÛĮÙĨÛĮ":6253,"ĠØ¢ÙģØªØ§Ø¨":6254,"ĠÚ©ÛĮØª":6255,"ĠØªÙģÙĨÚ¯":6256,"ĠØ¨ÙĩØ´Øª":6257,"ĠØ¯Ú©ØªØ±ÛĮ":6258,"ĠØ¢Ø¨Ø±":6259,"ĠØ¯Ø®Ø§ÙĦØª":6260,"ĠØ¶ÙĦØ¹":6261,"ĠÛ±Û¹Û¶Û·":6262,"ĠØªØ¨ÙĦÛĮØºØ§Øª":6263,"Ø§Ø´ÙĨ":6264,"ĠÙģÚ©Ø±ÛĮ":6265,"ĠÙħÙĨØŃØµØ±":6266,"ĠÙĩØ§ÙĦÛĮ":6267,"ĠÙħØŃØª":6268,"ĠÙĦÛĮØ¨Ø±":6269,"ĠÙĩÙĪØ´ÙħÙĨØ¯":6270,"ÙĪØ§Ø¯":6271,"ĠÙħØŃØ±Ùħ":6272,"ĠÙĦÙĩØ¬Ùĩ":6273,"ĠØ®ÙĦØ§ÙģØª":6274,"ĠØµØ®Ø±Ùĩ":6275,"ĠÚ©ÛĮÙĨÚ¯":6276,"ĠØŃØ¨ÛĮ":6277,"ĠÙħÙĪØ´":6278,"ÙĦØ§ÛĮ":6279,"Ø²ÙĪÙĨ":6280,"Ø±ÙĪØ³":6281,"ĠÙħØ¹Ø§ÙħÙĦÙĩ":6282,"ĠÚ©Ø¨ÛĮØ±":6283,"ÛĮØªØ§ÙĨ":6284,"ĠÙħÙĨØ¸Ùħ":6285,"ĠÚĨÙħ":6286,"Ú©Ø±Ùĩ":6287,"ĠÛ±Û¸Û±Û":6288,"ĠØ¢ÙĪØ±Ø¯ÙĨØ¯":6289,"ĠÙħØ±ØªØ¶ÛĮ":6290,"ĠØªÙĨÙĪØ¹":6291,"ĠÙĦØºØª":6292,"ĠØ¬ÙĨÚ¯ÙĨØ¯Ùĩ":6293,"ĠØ§ÙĨÛĮÙħÛĮØ´ÙĨ":6294,"ĠØ³ÛĮØ§Ø³ØªÙħØ¯Ø§Ø±":6295,"ĠØ¨Ø²Ø±Ú¯Ø±Ø§Ùĩ":6296,"ĠØ§Ø³ØªØŃÚ©Ø§Ùħ":6297,"ĠÚ¯ÙĪÚ¯ÙĦ":6298,"ĠØªØ±Ø§Ú©Ùħ":6299,"ĠØ³ÙĪÙĦ":6300,"Ø¢ÙħÙĪ":6301,"ÛĮÙĨÚ¯ØªÙĪÙĨ":6302,"Ø¨Ø§ÛĮÛĮ":6303,"ĠÙħØ¬ÙĩØ²":6304,"ĠÙħÙĤØ¯ÙħØ§ØªÛĮ":6305,"ĠÚ¯Ø§Ø±Ø¯":6306,"ĠØĽ":6307,"ĠÚ©Ø´ØªÙĨ":6308,"ĠØŃØ§ÙĦÛĮÚ©Ùĩ":6309,"ĠØ¨Ø±Ø§ÙĨ":6310,"ĠÙħÙĤØ¨Ø±Ùĩ":6311,"ĠÚ©ÙĦÙħØ§Øª":6312,"</":6313,"Ø³ØªÙĨ":6314,"Ø´ÙĪØ±":6315,"ĠØ¯ÙĪØ³ØªÛĮ":6316,"ĠØªØ§Ø¬ÛĮÚ©Ø³ØªØ§ÙĨ":6317,")\"":6318,"ĠØ´Ø·Ø±":6319,"Ø§ÙĦÛĮÙĨ":6320,"ĠØ¯Ø¨ÙĦÛĮ":6321,"ĠØ¹ÙĤÙĦ":6322,"Ú¯Ø±Ø§ÛĮØ§ÙĨ":6323,"ran":6324,"ĠØ¨Ø§Ø²ØªØ§Ø¨":6325,"ÙĪØ³ÙĨ":6326,"ĠØ³Ø±Ù¾Ø±Ø³ØªÛĮ":6327,"ĠØ¹ÙĪØ§Ø±Ø¶":6328,"Ø¨Ø§Ø´Ú¯Ø§Ùĩ":6329,"ah":6330,"ĠØ¨Ø±Ø³Ø§ÙĨØ¯":6331,"ĠØ¦":6332,"ĠØ§Ø³ÙħÛĮØª":6333,"ĠØ¹ÙħÙĦÛĮØ§ØªÛĮ":6334,"ØªÙĩÛĮ":6335,"ĠØ³ÙĨØ¯ÛĮ":6336,"ĠØŃÚ©ÙĪÙħØªÛĮ":6337,"Ø§Ø±ÛĮØ§ÙĨ":6338,"ĠÙħØªØ¯Ø§ÙĪÙĦ":6339,"ĠÙħØ§ÛĮÚ©Ø±ÙĪØ³Ø§ÙģØª":6340,"ĠØ´ÙħØ´ÛĮØ±":6341,"ĠØ¨ÙĪØª":6342,"ÙĪÛĮÙĪ":6343,"ÙĪÚ©Ø§Ø±":6344,"ong":6345,"ĠØ§Ø³ØªØ§ÙĨØ¨ÙĪÙĦ":6346,"ĠØ®ÙĪØ±Ø´ÛĮØ¯Ú¯Ø±ÙģØªÚ¯ÛĮ":6347,"Ù¾Ø°ÛĮØ±Ø¯":6348,"ĠØ§Ø¨Ø¯Ø§Ø¹":6349,"ĠÙħØ±Ø¯Ùĩ":6350,"ĠÛ¸Û²":6351,"ĠÙħÙģØ§ÙĩÛĮÙħ":6352,"Ø¶ÙĦ":6353,"ĠØ¨Ø³ØªØ±":6354,"ÙĪØªØ§ÛĮ":6355,"ĠØ¨ØªÙĪØ§ÙĨÙĨØ¯":6356,"ĠÙħÙĨØ·ÙĤÛĮ":6357,"nowiki":6358,"Ø§ÛĮØ³Øª":6359,"ĠØµÙĪØªÛĮ":6360,"ØªØ±ÙĪ":6361,"ĠØ¢ÛĮÙĪÙĪØ§":6362,"ĠÙĩÙħØ³Ø§ÛĮÙĩ":6363,"ĠØªÙĪÙĦÛĮØ¯Ú©ÙĨÙĨØ¯Ùĩ":6364,"ĠÙĪÛĮØ±Ø¬ÛĮÙĨÛĮØ§ÛĮ":6365,"ÙĦÛĮÚ©":6366,"ĠØ¬ÙĪØ§ÙħØ¹":6367,"ĠÙĨØµÙģ":6368,"ĠØ±ÙĪÙħØ§ÙĨÛĮ":6369,"ĠÙĩØ§Ùħ":6370,"ĠØ²ÛĮØ§Ø±Øª":6371,"ĠØ§Ø®Ø¨Ø§Ø±":6372,"ĠÙ¾ÙĪÙĦÛĮ":6373,"ĠØ±ÙĨ":6374,"ĠÙħÙĨØµÙĪØ±":6375,"ĠÚ©ØªØ¨":6376,"ĠØ¹ØµØ¨":6377,"Ø³Ø§ÙĨØ§ÙĨ":6378,"ro":6379,"Ùī":6380,"te":6381,"ĠÚ©ÙĩÚ©Ø´Ø§ÙĨ":6382,"Ø±Ø¯ÙĨ":6383,"Ġ\"\"":6384,"ĠÙħØ³ÛĮØŃÛĮØ§ÙĨ":6385,"ĠØŃØ³ÛĮÙĨÛĮ":6386,"ÙĨØ¹":6387,"ĠØ´Ú©ÙĦÛĮ":6388,"ĠØ¬ÙħÙĩÙĪØ±":6389,"ĠÙĨÛĮØ§Ø²ÙħÙĨØ¯":6390,"ĠÚ¯ÙĪÛĮÙĨØ¯":6391,"ĠØ¨Ø±ÙĨØ¬":6392,"ØªÙħØ¹":6393,"ĠØ±ÙģØ¹":6394,"ĠÙ¾Ø³Ø±Ø§ÙĨ":6395,"ĠÛµÛ´":6396,"ĠØ¢ÙĨÚ¯Ø§Ùĩ":6397,"ĠØ§Ø¬Ø¨Ø§Ø±ÛĮ":6398,"ĠØ§Ø²Ø§ÛĮ":6399,"\"Â»":6400,"ud":6401,"ÙĨØ§ÛĮÛĮ":6402,"Ø¯ÙĪÙĨ":6403,"Ø§ÙħØªÛĮ":6404,"ĠÙĩÙĪØ§Ø¯":6405,"ĠØ´Ú©ÙĨØ¬Ùĩ":6406,"ĠØ²Ø®ÙħÛĮ":6407,"ne":6408,"ĠÙģØ±ÙħØ§ÙĨØ±ÙĪØ§ÛĮÛĮ":6409,"Ø±ÙĪÛĮÛĮ":6410,"ĠØ³Ø§ÙĪØª":6411,"ĠØ³Ø§Ø¹":6412,"Ø§Ø³ÙĪ":6413,"Ø®ØªØ±ÛĮ":6414,"ĠØ¯Ø³ØªÚ¯ÛĮØ±ÛĮ":6415,"ÙĪØ³Ø§":6416,"Û¶Û·":6417,"ĠÙħØ§ÙĩÛĮÚĨÙĩ":6418,"ĠØ¯Ø±Ø¢ÙħØ¯Ùĩ":6419,"ĠÚ¯ÙĪØ±Ø³ØªØ§ÙĨ":6420,"ĠÚ¯Ø±Ø¨Ùĩ":6421,"ĠØ§Ø´ØªØ±Ø§Ú©":6422,"ÙĩØ§ÛĮÙĪ":6423,"ĠÙĨÚ¯Ø§Ø±":6424,"ĠÛ¹Û·":6425,"ĠÙģØ±ÙĪØ´Ú¯Ø§Ùĩ":6426,"Ø§ÛĮÙĨØ¯":6427,"ĠÙģØ±Ø´":6428,"ĠØªØŃØµÛĮÙĦÛĮ":6429,"ĠØ§Ø³ÙĦØŃÙĩ":6430,"Ø§ÙĨØ²Ø§Ø³":6431,"Ø§ÙģÙĦ":6432,"ĠØ®ÙĦØ¨Ø§ÙĨ":6433,"ĠÙħØŃØ¨ÙĪØ¨ÛĮØª":6434,"ĠØ¯Ø´ÙĪØ§Ø±":6435,"ĠÙħØŃØªÙĪØ§ÛĮ":6436,"ĠØ¬ÙħØ´ÛĮØ¯":6437,"ĠÙĨÚĺ":6438,"ĠØ§Ø³ØªØ«":6439,"ĠÙĦØ¦ÙĪÙĨ":6440,"ĠØ¯ÙĩØ§ÙĨ":6441,"ĠØ§Ø°":6442,"ÛĮÙħÙĩ":6443,"ĠØ³ÙĪØ³ÛĮØ§ÙĦÛĮØ³ØªÛĮ":6444,"ĠÙ¾Ø§Ø¯Ø´Ø§ÙĩØ§ÙĨ":6445,"ĠÛ±Û¹Û´Û²":6446,"ĠØ¢ÙĨØ¬ÙĦØ³":6447,"ĠØ³Ø§Ø²ÙħØ§ÙĨÛĮ":6448,"ĠÙħÙĩÙħØ§ÙĨ":6449,"ĠØ§ØŃØ²Ø§Ø¨":6450,"ĠØ¸Ø§ÙĩØ±Ø§":6451,"ĠÙĨÙĪÛĮ":6452,"ÛĮÙĦÙĩ":6453,"ĠÙħÙĬ":6454,"ĠÙ¾Ø§Ø±Ø§ÙħØªØ±":6455,"ĠØ¨Ø§ÙĦØ§Ø®":6456,"ĠØ°ÙĪØ¨":6457,"ĠÚ©Ø§ÙħÛĮ":6458,"ĠÙĨØ´ÙĪØ¯":6459,"ĠÛ±Û¹Û´Û±":6460,"ĠÙħØ±Ø¬Ø¹":6461,"ĠØ¶Ø¹Ùģ":6462,"ĠÙħØ¯ÛĮØ±Ø§ÙĨ":6463,"ĠØ§ÙĨÙģØ¬Ø§Ø±":6464,"ĠÙĦØºÙĪ":6465,"ect":6466,"ÙĪØ³Ùĩ":6467,"ĠÙĩØ§ÙĪ":6468,"ĠÙħØŃØ±ÙĪÙħ":6469,"ĠØ¹Ø¯Ø§ÙĦØª":6470,"ĠÙ¾Ø±Ø³Ù¾ÙĪÙĦÛĮØ³":6471,"ĠØªØŃØ±ÛĮÙħ":6472,"ĠÛ±Û°Û°Û°":6473,"ĠÚ©ÙħØ§ÙĨ":6474,"Ø¯ÙĩÙħÛĮÙĨ":6475,"ĠÙĤØ§ÙĦÛĮ":6476,"13":6477,"Ú©ÙĪÙĦÛĮ":6478,"ÙĨØ§Ø±":6479,"ĠÚ©ÙĪÙ¾":6480,"ĠØ³ÛĮØ§":6481,"ĠØ³ÙĪØ±Ø§Ø®":6482,"ĠØ¯Ø±ØŃ":6483,"ĠØ§Ø³ØªØ§Ø¯Ø§ÙĨ":6484,"Ø§ÙĦÛĮÙĩ":6485,"ĠÚĨØ§ÙĦØ´":6486,"ĠØ§Ø³Ø·ÙĪØ±Ùĩ":6487,"ĠÛĮÙĪØªÛĮ":6488,"ĠØªØ¹ÙĤÛĮØ¨":6489,"ÙģØ§ÙĦ":6490,"Û±Û¹Û·":6491,"ĠØªØ²Ø±ÛĮÙĤ":6492,"Ø§Ø¶ÙĦ":6493,"ĠÙ¾ÛĮØ¯Ø§ÛĮØ´":6494,"ĠØ±Ø§Ø²":6495,"ĠØ²ÛĮØ±Ø²ÙħÛĮÙĨ":6496,"ĠÙĨØ§ÙĨÙĪ":6497,"ĠØ¢Ø«Ø§Ø±ÛĮ":6498,"ĠØ¯ÛĮÙ¾ÙĦÙħØ§Øª":6499,"ĠÙĩÛĮÙ¾":6500,"ĠÙħØ±Ø§Ú©Ø´":6501,"ĠÙ¾Ø±ÙĪÛĮØ²":6502,"ĠÙħÙĩØ±Ùĩ":6503,"ĠÙĩÛĮØ¯Ø±ÙĪÚĺÙĨ":6504,"Ø¨Ø±Ø¯Ø§Ø±":6505,"ĠØ¨Ú¯ÛĮØ±ÙĨØ¯":6506,"Ú©ÙĦØ§Ùĩ":6507,"ĠÙ¾ÛĮØ±ÙĪÛĮ":6508,"ÛĮØªØ³Ùĩ":6509,"Ø¯Ø´Øª":6510,"Ø²ÙĦÛĮ":6511,"ĠØ±ÙĪÙĨÙĤ":6512,"ĠØ®ÙĦØ§ØµÙĩ":6513,"ĠØªØ³Ø®ÛĮØ±":6514,"ĠØ¨ÙĪÛĮØ±Ø§ØŃÙħØ¯":6515,"ĠØ¨ÙĦØ§ÙģØ§ØµÙĦÙĩ":6516,"ÚĺØ§ÙĨ":6517,"ĠØ¢ÙĦÙĪØ¯Ú¯ÛĮ":6518,"ĠØªØ±Ø§Ø´":6519,"ĠÛ¸Û¶":6520,"ĠØ®Ø¨Ø±Ú¯Ø²Ø§Ø±ÛĮ":6521,"ĠØªÙĪÙĦ":6522,"ĠÛ±Û³Û¸Û·":6523,"ĠØ±Ùģ":6524,"ĠÚĨÙĦ":6525,"ĠÙħÙĪØ¬ÙĪØ¯Ø§Øª":6526,"12":6527,"ÛĮÙĪÙĨ":6528,"ĠØ´ØªØ§Ø¨":6529,"ĠÙĤØ²Ø§ÙĤ":6530,"Û¶Û´":6531,"ĠÚ©Ø§Ø±Ø§ÛĮÛĮ":6532,"ĠØ¯Ø³ØªÛĮØ§Ø¨ÛĮ":6533,"ĠØªØ¸Ø§ÙĩØ±Ø§Øª":6534,"ĠØ§Ø±ÙħÙĨÛĮØ§ÙĨ":6535,"ĠÙ¾Ø±ÙģØ±ÙĪØ´":6536,"Ø³Ú©ÙĪÙ¾":6537,"ĠØ§ÛĮØ§ÙĦØªÛĮ":6538,"ĠÛ´Û²":6539,"ĠØ§ÙĨØ¨Ø§Ø±":6540,"ĠØ³Ø±Ø§Ø³Ø±ÛĮ":6541,"ĠØªØ±ÛĮÙĨ":6542,"ĠÙ¾Ø§ÙĨØµØ¯":6543,"ĠØ³Ø§Ø±ÛĮ":6544,"ĠÙĨÚ¯ÙĩØ¨Ø§ÙĨ":6545,"ĠØªÚ©Ùĩ":6546,"ĠÛ±Û¹Û´Û¸":6547,"ÙĪÛĮÚĺÙĩ":6548,"ĠØ´Ø·Ø±ÙĨØ¬":6549,"ĠØ¨Ø±Ú©ÙĨ":6550,"ĠØ®Ø§Ú©Ø³ØªØ±ÛĮ":6551,"ÙħÛĮÚ©":6552,"ĠØ²ÛĮØ±ÙħØ¬ÙħÙĪØ¹Ùĩ":6553,"ĠÙħÙĨØ§Ø³Ø¨ÛĮ":6554,"Ø§Ø³Ø§Ø²ÛĮ":6555,"ĠØ±ÙģØªÙĨØ¯":6556,"Ú¯Ø°Ø§Ø±ÙĨØ¯":6557,"ĠÙĨÙģØ±Ùĩ":6558,"Ø±Ø³Ø§ÙĨÛĮ":6559,"ĠØ´Ú©Ø³ØªÙĩ":6560,"anton":6561,"ÙħØ´":6562,"ĠØ§Ø¨Ø±ÛĮ":6563,"ĠÙħØªØ±Ø¬Ùħ":6564,"ĠÙħØ§ØªØ±ÛĮØ³":6565,"ÙģØ±Ø³Øª":6566,"ĠØ§Ø±Ø¯ÙĪÚ¯Ø§Ùĩ":6567,"ĠÙģÙĩÙħ":6568,"ĠÙĩØ²Ø§Ø±Ø§ÙĨ":6569,"ĠÛ¸Û´":6570,"Ø§ÙĦØ¹ÙħÙĦ":6571,"ÛĮØ±Ø§ÙĨ":6572,"ĠØ³ÛĮØµØ¯":6573,"Ø²Ø±Ø¹Ùĩ":6574,"ĠØ·ÙĦØ¨":6575,"ĠÙ¾ÙĪ":6576,"ĠØ§Ø´ØªØºØ§ÙĦ":6577,"ĠØ¶Ø±ÛĮØ¨":6578,"ĠØ®Ø²Ø±":6579,"ÛĮØªÙĪ":6580,"ĠÙĦÙĪØ±":6581,"ĠÚĨÙħÙĨ":6582,"ĠØ±ÙĪÛĮÚ©Ø±Ø¯":6583,"ĠØ§ÙĦÙĨ":6584,"ĠØªÙĪÛĮ":6585,"ĠØ¨Ø±Ø´":6586,"Ø®Ø§ÙĨÛĮ":6587,"ĠØªÙĦÙģØ¸":6588,"ĠÚĨØ§Ø±ÚĨÙĪØ¨":6589,"ĠÙħÙĨØ¯":6590,"ĠÙ¾Ø§ÛĮÛĮ":6591,"ĠØ²Ø±Ùĩ":6592,"ĠØ¯ÛĮÙĪØ§Ø±Ùĩ":6593,"Ġx":6594,"ĠÙģØ±Ø§Ø²":6595,"ĠØªØ¹ÙħÛĮØ±":6596,"ÙĤØ±Ø§Ø±ÛĮ":6597,"Ù¾Ø´Øª":6598,"ĠÙģÛĮÙĦØªØ±":6599,"ÙĪÚ©Ø±":6600,"ĠØ¬ÙĨÚ¯ÙĦÛĮ":6601,"ĠÙĨØ§ØµØ±Ø§ÙĦØ¯ÛĮÙĨ":6602,"ĠØ§ÙĪÙĩØ§ÛĮÙĪ":6603,"ĠÙħÚ©ÙħÙĦ":6604,"ĠÙħØ´ÙĩÙĪØ±ØªØ±ÛĮÙĨ":6605,"se":6606,"ÙĨÙħØ§":6607,"Ø®Ø¯Ø§":6608,"ĠØ´Ø¨Ø§ÙĨÙĩ":6609,"ĠÙģØ§Ø·ÙħÙĩ":6610,"ate":6611,"ĠÙħØŃÙĤÙĤØ§ÙĨ":6612,"ĠĠĠĊ":6613,"ĠØ´Ø§Ø¯":6614,"ĠØ§ÙħØ§ÙĨ":6615,"ĠÛ±Û¸Û³Û":6616,"ĠÙ¾ÛĮÚ©Ø±":6617,"ÙĩØ±ÛĮ":6618,"ĠÙħØªÙħØ§ÛĮ":6619,"Ø§ÙĨÚ©Ø§":6620,"Ø§ÛĮØ³":6621,"ĠØ´Ø§ÛĮØ¹":6622,"ĠØ±ÙĪØ´ÛĮ":6623,"ĠØ¯ÙĩØ³ØªØ§ÙĨÛĮ":6624,"ĠØ§ÛĮÙĨØ¯ÛĮØ§ÙĨØ§":6625,"ĠØ¬Ø§Ø¯":6626,"ÙĪÙħØªØ±":6627,"ĠÚ¯ÛĮØ±ÛĮ":6628,"ĠÙĦØ¨Ùĩ":6629,"ÙĪØ¬Ø±Ø³ÛĮ":6630,"Ø¢Ø¨Ø§Ø¯ÛĮ":6631,"ĠÙģØ±Ø§ÛĮÙĨØ¯ÙĩØ§ÛĮ":6632,"ĠØ§ÙĨØªÙĤØ§Ùħ":6633,"ĠØ¢ÙģØ±ÛĮÙĤØ§ÛĮÛĮ":6634,"ĠÙĤØ·Ø§Ø±":6635,"ĠÙĦÙĪØ¦ÛĮØ³":6636,"ĠØ§Ø³ØªØ§Ø¯ÛĮ":6637,"Ø§ÛĮØ´Ú¯Ø§Ùĩ":6638,"ĠÙħØµØ§ÙĦØŃ":6639,"Ø§ÙĦÙħÙĦÚ©":6640,"ĠÙħÙĨØ´Ø£":6641,"ĠØ§Ø²Ø¨Ú©":6642,"ĠÚ©Ø§Ø±Ø¨Ø±ÛĮ":6643,"ĠØ¨Ø±Ú¯Ø²":6644,"ĠØ¢Ø±ÛĮØ²":6645,"ĠÙħØ¬ØªÙħØ¹":6646,"ĠØµÙģØŃØ§Øª":6647,"ĠØ®Ø¯Ø§ÛĮØ§ÙĨ":6648,"Ø¯ÙĪØ±":6649,"ĠÙħÛĮØ´ÛĮ":6650,"ĠØ±Ø§Ø³ØªØ§ÛĮ":6651,"ĠØ¯Ø¨ÛĮ":6652,"ĠØ§ÙĪØ±Ø§ÙĤ":6653,"ĠÙĪØŃØ¯Øª":6654,"ĠØ³ØŃ":6655,"ĠØ§ÙĪØ±Ø´":6656,"ĠØ§ÙĨØ¯Ø§Ø²ÛĮ":6657,"ĠÙħÙĨØªÙĩÛĮ":6658,"ĠQ":6659,"ĠÙĪÙĦØ³":6660,"Ø³Ø§ÙĦÙĩ":6661,"ĠÙĨØ§Ø¨ÙĪØ¯ÛĮ":6662,"ĠØ§ÙĤØªØ¨":6663,"ĠØ¨Ø¹ÙĨÙĪØ§ÙĨ":6664,"ĠÛ¸Û·":6665,"ĠØ§Ø¯Ø¹Ø§ÛĮ":6666,"Ø³ÙĪØ³":6667,"ĠØ®ÙĨÚ©":6668,"ĠØ§Ø¦ØªÙĦ":6669,"Ø³ÙĨØ¬ÛĮ":6670,"ĠØ¢Ø²Ø§Ø±":6671,"ĠØ¬Ø±ÛĮ":6672,"ĠØ¨Ø§Ø²Ø§Ø±ÛĮ":6673,"Ø®ÙĪØ¯":6674,"ĠÙ¾Ø§Ø±Ùĩ":6675,"Ø§ÙĪÙĨØª":6676,"ina":6677,"ĠÙħØ¹ÙħØ§Ø±":6678,"ĠØ¹Ø±Ø§ÙĤÛĮ":6679,"pr":6680,"ĠÙħØ¯Ø§Ø±Ú©":6681,"ĠØ±ÙĪØ²Ùĩ":6682,"ĠÛ±Û¹Û¶Û³":6683,"ĠÛĮÙĩÙĪØ¯":6684,"ĠØ¬ÙĪØ±Ø¬ÛĮØ§":6685,"ĠØªØ§ÙĨÚ©":6686,"ĠÙģØ±Ø³":6687,"ĠØ§Ø´Ø®Ø§Øµ":6688,"ast":6689,"ĠØ±Ø¹Ø§ÛĮØª":6690,"ÙĪØ±Ø¯Ùĩ":6691,"ĠÙģÛĮÙĦÙħØ¨Ø±Ø¯Ø§Ø±ÛĮ":6692,"Ø¯Ø§ÙĨØ´Ú¯Ø§Ùĩ":6693,"ĠØ±Ø³Ùħ":6694,"ĠÙĨØ¯Ø§Ø´ØªÙĨØ¯":6695,"ĠÚ©Ø±Ú©":6696,"ĠØ³ÙĪØ§ØŃÙĦ":6697,"ĠÚ©ÙĪÙĩÛĮ":6698,"Ø§ÚĨÙĪØ³Øª":6699,"ĠÛ¹Û´":6700,"ĠØ§Ø¹ØªØ±Ø§Ø¶Ø§Øª":6701,"ĠÙħØ¨Ø§ØŃ":6702,"ĠÙ¾Ø§ÙĨØ²Ø¯Ùĩ":6703,"ĠÙĩÙħØ§ÙĩÙĨÚ¯":6704,"ĠØ¨Ú©":6705,"ĠØ¯ÙĤÛĮÙĤØ§":6706,"ÛĮØ´ÛĮ":6707,"ĠÙħØŃØ¶":6708,"ĠØŃØ¨Ø³":6709,"ĠÙĨÛĮÙĪØ¬Ø±Ø³ÛĮ":6710,"Ø§ÙĦØ³":6711,"ĠÙ¾Ø±ÙĪÙģ":6712,"ĠÙĤØ§Ø³Ùħ":6713,"ĠÙĪÛĮØ±Ø§ÙĨ":6714,"ĠØªØŃÙĤ":6715,"ĠÙ¾ØªØ§ÙĨ":6716,"ÙĤØ§ÙĨÙĪÙĨÛĮ":6717,"ĠØŃØ§Ú©ÙħÛĮØª":6718,"ĠÙĨÙħØ§ÛĮØ´ÛĮ":6719,"ĠØ«Ø±ÙĪØª":6720,"ĠØ¢Ø±Ùħ":6721,"ĠØ³Ø§ÙĪ":6722,"ĠÛ±Û³Û¸Û¶":6723,"ĠÙħØ§Ø¯Ø±ÛĮØ¯":6724,"ĠÙĨÙĪØ²Ø§Ø¯":6725,"Ú©ÙĪÙĨ":6726,"ĠÙĤØ§ÛĮÙĤ":6727,"ĠØ¨ÙĨØ§ÙĩØ§ÛĮ":6728,"Ú¯Ø±Ø§ÙģÛĮ":6729,"ĠØ´Ø§ÙĩÙĨØ§ÙħÙĩ":6730,"Ġ[[":6731,"ĠØ¬Ø§ÙĦØ¨":6732,"ĠÚ©Ø´ÛĮØ¯ÙĨ":6733,"ĠÙħØ¯Ø±Ø³":6734,"ĠØªØ§Ø¨Ø´":6735,"ĠÙ¾ÙħÙ¾":6736,"ĠÙ¾ÛĮØ§ÙĨÙĪ":6737,"ĠÙ¾ÙĩÙĨ":6738,"ĠØ´ÙħØ³":6739,"ĠØªÙĪÙħØ§ÙĨ":6740,"ĠÙĩØ§Ø¯ÛĮ":6741,"ern":6742,"ĠØµØ¯ÙĪØ±":6743,"ĠØ¢ÙħØ¯ÙĨØ¯":6744,"ĠØ¢Ø¯Ø§Ùħ":6745,"ĠÙħÙĦØ§ØŃ":6746,"ĠÚ©ÙĦÛĮØ¯ÛĮ":6747,"Ġ7":6748,"Ø§ÙģØ²Ø§Ø±ÙĩØ§ÛĮ":6749,"ĠØ¹ÙĦÙħÛĮÙĩ":6750,"Ø§ØªØ³":6751,"ÙģØ±ÛĮÙĨÛĮ":6752,"ĠØªÙĦÙĤÛĮ":6753,"ĠØ¯Ø®ØªØ±ÛĮ":6754,"Ø¨ÙĪØª":6755,"ĠÛ±Û¹Û¶Û¶":6756,"ØºØ§ÙĦÛĮ":6757,"ĠÛ±Û¹Û¶Û²":6758,"ĠØ®Ø·Ø±ÙĨØ§Ú©":6759,"ĠØ³ØªØ§Ø±Ú¯Ø§ÙĨ":6760,"ĠØºØ§ÙĦØ¨":6761,"ĠØ³ÙĨØ§ÛĮ":6762,"ĠØ§ØµÙģÙĩØ§ÙĨÛĮ":6763,"ĠÙħÛĮØ´ÛĮÚ¯Ø§ÙĨ":6764,"ĠÙħØ±ÛĮÙħ":6765,"Ù¾ÙĪØ³Øª":6766,"ĠÙĪÛĮØªÙĨØ§Ùħ":6767,"ĠÙĤØ§Ø¹Ø¯Ùĩ":6768,"ĠØ§Ø®ØªØµØ§ØµÛĮ":6769,"ĠÙħÙĤØ¯ÙħÙĩ":6770,"ĠÙħØ§Ø³Ø§ÚĨÙĪØ³Øª":6771,"ĠØ¢ÙĦÛĮØ§Úĺ":6772,"ĠØ¢Ø³ØªØ§ÙĨÙĩ":6773,"ĠØŃØ±Ú©Ø§Øª":6774,"ÙĦÙĨØ¯ÛĮ":6775,"ĠÛ³Û¸":6776,"ĠØªØ§Ø¨ÙĦ":6777,"ĠØ¬ÙħØ¹ÛĮØªÛĮ":6778,"ĠØ·ÙĨØ²":6779,"ĠÙģØ±Ø§ÙĨØ³":6780,"ĠÙ¾Øª":6781,"ĠÙĩÙħØ§ÙĩÙĨÚ¯ÛĮ":6782,"ĠØ§Ø¹Ø²Ø§Ùħ":6783,"ĠØ®Ø§ØµÛĮØª":6784,"ĠÚ©ÙĪØ±ÙĪØ´":6785,"ĠÙ¾Ø±Ø¯Ø§Ø²ÙĨØ¯Ùĩ":6786,"Ġ9":6787,"ĠÙĩØ±Ú¯ÙĪÙĨÙĩ":6788,"ĠØ¢ÙħÛĮ":6789,"ĠÙħØŃØ±Ú©":6790,"ĠÙħØ¬Ø§ÙĪØ±":6791,"ĠÙĪØ§ÛĮØª":6792,"Ø±ÙĪØŃ":6793,"Ø¨Ø§Ø®":6794,"ØªÛĮÙĪ":6795,"ĠÙħÙĤØ¯Ø§Ø±ÛĮ":6796,"Ø¢ÙĪØ±ÙĨØ¯":6797,"ĠØ¨Ø±Ø§ÙĪÙĨ":6798,"ĠÙħÙĦØ§":6799,"ĠØ§ÙĪØ±Ø´ÙĦÛĮÙħ":6800,"ĠØªÙĪØ±ÛĮ":6801,"ĠØ¨Ø±ÙĪÚ©":6802,"ĠÙħÙĨÚĨØ³ØªØ±":6803,"ÙĪÚ¯Ø±Ø§ÙģÛĮ":6804,"Ø¶Ø§Ø¹":6805,"ĠØµØ§ÙĦØŃ":6806,"ĠØ§Ø¬Ø²Ø§ÛĮ":6807,"Ú©Ø¯Ùĩ":6808,"ĠÙĪØ§Ø¬":6809,"end":6810,"ĠÙħÙĪØ§Ø²ÛĮ":6811,"Ø§Ø¨Ø§ÙĨÛĮ":6812,"ĠÙĩÙĪØ§Ø¯Ø§Ø±Ø§ÙĨ":6813,"ÛµÛ·":6814,"own":6815,"Ú©ØªÙĪØ±":6816,"ÙĦÛĮØ§":6817,"ĠØ´ÙĨØ§Ú¯Ø±":6818,"Ø¨Ø±ÛĮØ¬":6819,"ĠÚ¯Ø±ÙħØ§":6820,"Û±Û¹Û¶":6821,"ĠØ³ÛĮÙħØ§":6822,"ĠØ¨Ø§Ø±ÛĮÚ©":6823,"ĠØ¨Ø§Ø²ÙĨØ´Ø³ØªÙĩ":6824,"Ø±Ø®":6825,"Ú©Ø±Ø¯ÙĨ":6826,"ĠÙĨØ§Ùĩ":6827,"Ø§ÙĦØ¹Ø§Ø¯Ùĩ":6828,"ĠÙģØª":6829,"ĠØªØ¬ÙħØ¹":6830,"Ø§ÙħÛĮØ¯":6831,"ĠØ´ÙĪØ±Ø´ÛĮ":6832,"ĠØªÛĮÙ¾":6833,"ĠÚ©Ø§Ø±Ú¯Ø§Ùĩ":6834,"Ø¹Ø¯Ùĩ":6835,"ĠÚĺØ±Ùģ":6836,"ĠØ±ÛĮØ®ØªÙĩ":6837,"ÙħÙĨØ·":6838,"ĠÚĺÙĨØªÛĮÚ©ÛĮ":6839,"ĠØ¨ÙĩØ¯Ø§Ø´ØªÛĮ":6840,"ĠÙĪØ¨Ú¯Ø§Ùĩ":6841,"ĠÛ±Û²Û°":6842,"ĠØ§Ø¬ØªÙħØ§Ø¹":6843,"ĠÙ¾Ø±Ø¯Ø§Ø®ØªÙĨØ¯":6844,"ĠÙĨÙģØ³":6845,"ĠØ¢Ø±ÛĮØ²ÙĪÙĨØ§":6846,"ÙĪØ¦ÛĮØ¯":6847,"ĠØ±ÛĮÚ©":6848,"ĠØ¬ÙĦÙĪÙĩ":6849,"ÙģÙĪÙĦ":6850,"ĠØ³ÙħÛĮ":6851,"ĠØ¨ÙĦÚ©":6852,"ĠØ¬Ø²Ø¦ÛĮØ§Øª":6853,"ĠØ¯Ø§Ø¦ÙħÛĮ":6854,"ĠØ¬ÙĨÛĮÙĨ":6855,"ĠÙģÛĮÙĦÙħÙĨØ§ÙħÙĩ":6856,"ĠØªÛĮÙħÛĮ":6857,"Ø±Ø¨Ø²Ø±Ú¯":6858,"ĠØ§ÙĨÚ¯ÛĮØ²Ùĩ":6859,"ÙĦÙĨ":6860,"ĠØ§Ø³ØªÙĪÙĨ":6861,"ÛµÛ¶":6862,"ĠØªØ¨Ø§Ø±":6863,"ĠÙĨÙĪØ¬ÙĪØ§ÙĨØ§ÙĨ":6864,"ĠØ³Ø±Øª":6865,"Ø¢ÙĪØ±Ø¯Ùĩ":6866,"ĠÛ±Û¹Û¶Ûµ":6867,"ĠâĢĶ":6868,"ĠÙħØŃØ§Ø³Ø¨Ø§Øª":6869,"ire":6870,"Ú©ÙĪØ¨":6871,"ĠØ¨Ø±Ùģ":6872,"ĠÙĤØ¨Ø§ÛĮÙĦ":6873,"ĠØªØ¹Ø§ÙħÙĦ":6874,"ĠØ¯Ø¨":6875,"ĠØ¹Ø¸":6876,"ÙģÛĮÙĤ":6877,"ĠÚ©Ø§ÙĪ":6878,"ĠÙħÙĨØªØ¸":6879,"ĠØ¬Ø§ÙĨÙĪØ±":6880,"ĠØªØ±Ø¬ÛĮØŃ":6881,"ĠÛ²Û°Û²":6882,"ĠÛ¶Û·":6883,"ĠØ§Ø±Ø§Ø¶ÛĮ":6884,"ĠÙħØ±Ø§Ø¬Ø¹Ùĩ":6885,"ØªØ±Ùĩ":6886,"ĠÚ¯Ø±ÙħÛĮ":6887,"Ø§ØªØŃ":6888,"ĠÙħØªÙħØ§ÛĮØ²":6889,"ich":6890,"Ø¬ÙĪÛĮÛĮ":6891,"ĠØ³Ø±ÙĪØ¯":6892,"ĠØ§Ø«Ø±ÛĮ":6893,"ĠÙĨØ²":6894,"Ø±Ø§ÙĨØ¯":6895,"ĠÙħØ¹ÙĨØ§":6896,"ĠÙ¾Ø´ØªÛĮ":6897,"ĠÙĪÛĮØ¯Ø¦ÙĪ":6898,"ĠØ§Ø³ØªÙĤØ±Ø§Ø±":6899,"ĠÙħÙĪØªÙĪØ±ÙĩØ§ÛĮ":6900,"ight":6901,"ĠØ¢Ø±ÛĮ":6902,"ĠØ§Ø¹Ùħ":6903,"ÙĪØ¬ÙĪØ¯":6904,"Ø¯ÙĩØ§ÙĨÙĩ":6905,"ĠØŃØ§ÙħÙĦ":6906,"ĠÛ´Û¸":6907,"ÙĪÙĦÙĨ":6908,"ĠØ§ÙģØ³Ø±":6909,"ĠÚ©Ø§ÙĨØ²Ø§Ø³":6910,"ĠÛĮÚ©Ù¾Ø§Ø±ÚĨÙĩ":6911,"ĠØ¢ÙĨØ¬Ø§ÛĮÛĮ":6912,"ĠØ§ÙĦÚ¯ÙĪÛĮ":6913,"ĠØ±Ø³ÛĮØ¯Ú¯ÛĮ":6914,"ĠØ¢Ø¬Ø±":6915,"ĠÚ©Ø§Ø¨ÛĮÙĨÙĩ":6916,"Ø¬ÛĮÙĨ":6917,"ĠØ§ÙĪØ¶Ø§Ø¹":6918,"ĠÛ±Û¹ÛµÛ¶":6919,"ĠØ®Ø§ÙħÙĨÙĩ":6920,"Ø¨Ø¯ÛĮ":6921,"ĠØªÙĪØ§ÙĨØ³ØªÙĨØ¯":6922,"ĠÙĤØ±Ø§Ø±Ø¯Ø§Ø¯ÛĮ":6923,"ĠØ¢Ø¯Ø±Ø³":6924,"ĠØ¢Ø¦":6925,"ĠÙ¾ØªØ§ÙĨØ³ÛĮÙĦ":6926,"ĠØ§ÙĪØ¯":6927,"ĠØ§Úĺ":6928,"Ø¯Ø®":6929,"ĠØ²Ø§ÛĮ":6930,"ĠØ±Ø§ÙĩÙĨÙħØ§ÛĮÛĮ":6931,"ont":6932,"ĠØ®ÙĪØ¯Ø±ÙĪÛĮÛĮ":6933,"ĠØºÛĮØ±ÙĤØ§ÙĨÙĪÙĨÛĮ":6934,"Ø³ÛĮØ§ÙĨ":6935,"Ù¾Ø§ÙĨ":6936,"ĠØ§ÛĮÙħØ§ÙĨ":6937,"ĠÙĦÙĪØ¨":6938,"ĠØµØ±ÙģØ§":6939,"ÙĪÙħÛĮØª":6940,"ĠÙħØ¹Ø§ÙĪÙĨØª":6941,"ĠØ´ÙĨÛĮ":6942,"Ø¶Øª":6943,"ĠØ°ÙĩÙĨÛĮ":6944,"ĠØ¨Ø¯ÙĦ":6945,"ĠÙĩØ§ÛĮØ¯":6946,"ĠÛ±Û¹ÛµÛ¸":6947,"ĠÛ±Û³Û¸Û´":6948,"ĠØ´Ø§ÙĩÛĮÙĨ":6949,"ÙħØ±Ùĩ":6950,"Ú¯Ø²Ø§Ø±":6951,"ĠÚ©ÙĨØ¯ÛĮ":6952,"Ø§ÙĦÙģ":6953,"ĠÙħØ¬Ø§ÙĩØ¯":6954,"ary":6955,"20":6956,"ĠÙĪØ§Ù¾":6957,"ĠØ±Ø²ÙħÛĮ":6958,"))":6959,"ĠÙģÙĦØ²Ø§Øª":6960,"ĠØ¨Ø±ÙĤØ±Ø§Ø±ÛĮ":6961,"ĠÛĮÙĪÙĨØ³Ú©ÙĪ":6962,"ĠØªÙĪØ§ÙĦÛĮ":6963,"ĠØ³Ù¾Ø±ÛĮ":6964,"ĠØ§Ø¶Ø§ÙģÛĮ":6965,"Ø¨Ø§ÛĮØ³Øª":6966,"ĠÙĪØµÙĦ":6967,"Ø§Ø±Ø¯ÛĮ":6968,"ĠÙĨØ§Ù¾ÙĦ":6969,"ĠÙħØ·Ø¨ÙĪ":6970,"ĠØªØ§Øª":6971,"ÙĪØªÛĮÚ©":6972,"ĠÙĩÛĮØªÙĦØ±":6973,"ĠØ¢Ø±Ø²":6974,"ĠÙ¾ÙĪØ³ØªÙĩ":6975,"ĠØ²Ø±ÛĮÙĨ":6976,"ĠØªÙĨÛĮØ³":6977,"ĠÛ±Û¹Û±Û¸":6978,"ĠÙħØ§ÙĦØ²ÛĮ":6979,"ÙĤØ·Ø¹":6980,"ep":6981,"ĠØ£":6982,"ĠØŃØ±Ùħ":6983,"ØªØ±Ø§":6984,"Ø®ÙĪØ§ÙĩÛĮ":6985,"ĠØ¬ÙĪØ§Ø¯":6986,"ĠÙħÙĨØ§ÙģØ¹":6987,"ĠØ³ÙĪØ¦Ø¯ÛĮ":6988,"ĠØ²Ø§Ø¯Ú¯Ø§Ùĩ":6989,"Ø³ÙĨØª":6990,"Ġ8":6991,"ĠØ¨ØªÙĪØ§ÙĨ":6992,"ĠÚ©ÙĪÛĮØª":6993,"ĠÛ¶Û¶":6994,"Ù¾ÛĮÙĨ":6995,"ĠØ§Ø³ØªÙĪÙĨÛĮ":6996,"ĠØ§ÙģÚ©Ø§Ø±":6997,"ĠÙĨÙĪØ±ÙĪØ²":6998,"ÚĨØ³Ø¨":6999,"Ø§Ù¾ÛĮ":7000,"ĠØ´Ø§Ø±ÙĦ":7001,"Ø§Ø³Ú©":7002,"ÛµÛ´":7003,"ÙħÙĪØª":7004,"ĠØ§Ù¾ÙĦ":7005,"ĠÚ©ÛĮØ´":7006,"ĠØ§ÙĨØªØ®Ø§Ø¨Ø§ØªÛĮ":7007,"ĠÙħÛĮØ²ÙĪØ±ÛĮ":7008,"ĠØ¨ÙĦÙĪØ±":7009,"II":7010,"ĠÙħØ§Ø±ÛĮØ§":7011,"Ø®Ø·":7012,"ĠÚ¯ÙħØ§ÙĨ":7013,"ĠØ§Ø±Ø¯ÙĨ":7014,"ĠØ§ÙģØ´Ø§Ø±":7015,"ĠÙħÙĩØ§Ø¬Ø±":7016,"ĠØ¹ÙĦÛĮØ±Ø¶Ø§":7017,"ĠÙĪÛĮÚ©ØªÙĪØ±ÛĮØ§":7018,"ĠÙħÛĮØ¨Ø§Ø´Ø¯":7019,"ĠØ¯ÙĪØ´":7020,"ĠØ¯ÙħÙĪÚ©Ø±Ø§ØªÛĮÚ©":7021,"ĠÙĪÙĪØ¯":7022,"ĠÙĩÙħØª":7023,"Ú¯Ø°Ø´Øª":7024,"ĠØ³Ø§Ø®ØªØ§Ø±ÛĮ":7025,"ĠÚ©ÙĨØªØ§Ú©ÛĮ":7026,"ĠØªØ¹ÙĦÛĮÙħ":7027,"ÙĨØªÙĪ":7028,"ĠØ§Ø¨Ø±Ø§Ø²":7029,"Ø³ÙĦÛĮ":7030,"ĠØ´Ø±Ú©":7031,"ĠØ®ØµÙĪØµÛĮØ§Øª":7032,"ĠØ¯Ø±ÙĪØº":7033,"ĠÚ¯Ø´":7034,"ĠÙħÙĪÙĨÛĮ":7035,"ĠØ§Ø³Ø§Ø·":7036,"ĠÙĪØ§ÙĦØ¯ÛĮÙĨ":7037,"Ø§Ø±Ø¯ÙĪ":7038,"ĠÚ©Ø§Ø±Ø¢ÙģØ±ÛĮÙĨ":7039,"ĠØ¢ÙħÙĪØ®Øª":7040,"ĠÙĨÚ¯Ø±Ø§ÙĨÛĮ":7041,"ĠØ¨Ø§ÙĦÙĩ":7042,"ĠØªÙģÚ©Ø±":7043,"ĠÚĨØ±Ø¨ÛĮ":7044,"ĠÙĨÛĮØ§Ø²ÙĩØ§ÛĮ":7045,"ĠØ§Ø´ÛĮØ§Ø¡":7046,"à¤":7047,"ĠÛĮØ§ÙĨ":7048,"ïº":7049,"ĠØªØ§Ø²":7050,"ĠÙĩÙĪÛĮ":7051,"ĠÙģØ±ÙħØ§ÙĨØ¯Ø§Ø±":7052,"Ø¨ÙĪØ±Ø¯":7053,"ĠØ¹ÙĤØ§ÛĮØ¯":7054,"ĠÙĪÙĦØ³ÙĪØ§ÙĦÛĮ":7055,"ÙħÙĨØ§ÙĨ":7056,"ĠÙĪØ³Ø·ÛĮ":7057,"iz":7058,"ĠÛĮØ§Ø²Ø¯ÙĩÙħ":7059,"Û±Û³Û¹Û":7060,"up":7061,"Ø³Ú©Ø§":7062,"ĠÙħØ³Ø§Ùģ":7063,"Ú©Ø§ÙĨØ³ÛĮÙĨ":7064,"ĠÙħÙĪÙĤØ¹":7065,"ĠÙħØ¹ÙĨÙĪÛĮ":7066,"Ø§Ø³ØªÙģØ§Ø¯Ùĩ":7067,"ĠØ¨Ø²Ø±Ú¯Ø³Ø§ÙĦ":7068,"ĠØ·Ø¨Ø§Ø·":7069,"ĠØ¬Ø°Ø§Ø¨":7070,"ÙĨØ´Ø§ÙĩÛĮ":7071,"ĠCanton":7072,"ĠØ¨ÙĩØ§Ø¦ÛĮ":7073,"Ø§Ú©Ùĩ":7074,"ĠØ§ÙĨØ¯Ú©":7075,"ĠØ¢ÛĮÙĩ":7076,"Ø³Ø§Ø²ÙĨØ¯":7077,"ĠØ§ØŃØªÙħØ§ÙĦÛĮ":7078,"ĠØªÙģÚ©ÛĮÚ©":7079,"ĠÙħØ§Ø¯ÛĮ":7080,"ĠØ®ÙĪØ§ÙĩØ§ÙĨ":7081,"ĠÛ±Û¹Û¶Û±":7082,"ĠÚ©ÙĪØ§ÙĨØªÙĪÙħÛĮ":7083,"ge":7084,"ĠØ³Ø±ÙĨÙĪØ´Øª":7085,"ĠØ§Ø±ØªÙģØ§Ø¹Ø§Øª":7086,"ĠØ³ÙĪÙ¾":7087,"ĠØ§Ø±Ø¬":7088,"ĠØ§Ú©Ø´ÙĨ":7089,"ØŃÛĮÛĮ":7090,"ÙĤØ¯":7091,"ĠØªØ£Ø«ÛĮØ±Ú¯Ø°Ø§Ø±":7092,"ĠØ¨Ø®ØµÙĪØµ":7093,"ĠÙģÙĤÛĮÙĩ":7094,"ĠØ§ÙģØ²ÙĪØ¯":7095,"ĠÚ©Ø±Ø§ÙĨÙĩ":7096,"ĠØ§ÙĦÛĮØ²":7097,"ĠØªÙĤÙĦÛĮØ¯":7098,"ĠÙĪÛĮØ³Ú©Ø§ÙĨØ³ÛĮÙĨ":7099,"ĠØªÙĪÙĤÙģ":7100,"ÙĤØ§Ø³Ùħ":7101,"ĠØ®Ø·Ø§Ø¨":7102,"ĠÚ¯ÙĪØ´ÛĮ":7103,"ĠÙħØ·Ø¨ÙĪØ¹Ø§Øª":7104,"ĠÚ©Ø§Ø´ÛĮ":7105,"ĠØ±ÙĪØ§ÛĮØ§Øª":7106,"ĠØºØ´":7107,"ĠÙģØ§ÛĮ":7108,"Ø¬ÙĪØ§ÙĨÛĮ":7109,"Ú¯ÙĪÙĨÛĮ":7110,"ĠÚĨØ±Ø§Øº":7111,"ĠØ§ÙĨÛĮ":7112,"ĠØ¯ÛĮÙħ":7113,"Ø§ÙĩØ±Ùĩ":7114,"ĠØ¢ÙĦÙĪÙħÛĮÙĨÛĮ":7115,"ÚĨÙĩØ§Ø±":7116,"Ø§Ø¯Ø´":7117,"ĠØªØ«":7118,"ĠÙĨÙħØ§ÛĮØ§ÙĨ":7119,"Ù¾Ø¯":7120,"ĠØ·ÙĦØ§ÛĮ":7121,"ĠØ¢ØªÙĨ":7122,"ĠØ§ÛĮØ±ÙĪØ§ÙĨ":7123,"ĠÙĤÙĦÛĮ":7124,"ĠØ§Ø±Ø§Ú©":7125,"ØªÙĪØ§ÙĨÛĮÙħ":7126,"ĠÙĨÛĮÙħÛĮ":7127,"ĠÙģØ¬Ø±":7128,"ĠØ§Ú©ØªØ´":7129,"ĠØ´Ø§ÙĩÙĨØ´Ø§ÙĩÛĮ":7130,"ĠØ®ÙĪØ§ÙĨÙĨØ¯Ú¯Ø§ÙĨ":7131,"ĠØ¨Ø±Ø¯ÙĨØ¯":7132,"ĠÚ¯Ø±Ø¯Ø¢ÙĪØ±ÛĮ":7133,"ĠØ§ÙħÙĪØ§ÙĦ":7134,"Ø®ÙĪØ±Ø´":7135,"ĠØ·Ø¨Ø±":7136,"ĠÙĦÛĮÙĪØ±":7137,"Ø²ÙĨÙĨØ¯":7138,"ĠØ±ÙĪØ¨":7139,"ĠØ¯Ø§ÙĨÛĮ":7140,"ĠÙĤÙĨØ¯":7141,"ĠÙ¾Ø±Ùĩ":7142,"ĠØ¨Ø§Ø±Ø³ÙĦ":7143,"ĠØ´Ø§ÙĩØ§ÙĨ":7144,"ĠØªÙĦÙģØ§Øª":7145,"ÙģÚ©":7146,"ĠÙ¾ÛĮÙĪØ³ØªÙĨ":7147,"ĠØµØ±Ø¨Ø³ØªØ§ÙĨ":7148,"ĠÙĩØ´Ø¯":7149,"ĠØ¢ÙĨØ§Øª":7150,"ĠØ¢ÙĨÙĦØ§ÛĮÙĨ":7151,"ÙĦØ§ÙĪÛĮ":7152,"ÙĩØ²Ø§Ø±":7153,"ĠÙħØ¹Ú©ÙĪØ³":7154,"ĠØ¨Ø§ÛĮØ±ÙĨ":7155,"ĠÚ©ÙĦÛĮÙĨ":7156,"Ø¯Ø§ÙĦÙĦÙĩ":7157,"ĠÙ¾ÚĺÙĪÙĩØ´Ú¯Ø±Ø§ÙĨ":7158,"ĠØ¨ÙħØ§ÙĨØ¯":7159,"Ø±Ø³Ø§ÙĨ":7160,"ĠÙ¾Ø±Ú©":7161,"ĠØ´Ø§Ú¯Ø±Ø¯":7162,"uc":7163,"ĠØ®Ø³":7164,"ĠÛ±Û¹Û³Û¹":7165,"ĠØ´ÙĨØ¨Ùĩ":7166,"ĠØ§ÙħØ±ÛĮÚ©":7167,"ĠÙĨÙĩØ¶Øª":7168,"ĠÙĤØ§Ø¦Ùħ":7169,"Ù¾ÛĮÙĪÙĨØ¯":7170,"ĠØ¹Ø²ÛĮØ²":7171,"ÙĦÛĮÙĪ":7172,"ÚĨÙĪÙĨ":7173,"ĠØŃÙģØ±Ùĩ":7174,"Ø§Ú©ÙħÙĩ":7175,"ĠÙĨØ§ÙħÛĮØ¯":7176,"ĠØ¹ÙħØ§Ø±Øª":7177,"ĠÚ¯ÙĨØ§Ùĩ":7178,"ĠØ§ØªÙĪØ¨ÙĪØ³":7179,"ĠØ¢Ø®":7180,"ĠÙħØ§Ø¯Ø±ÛĮ":7181,"ĠØ®ÙĪØ¯ÙħØ®Øª":7182,"ĠØ³Ú©ÙĨÙĩ":7183,"Ø§ÙģÛĮÚ©":7184,"ĠÙĨØ®ÙĦ":7185,"ĠØ´Ú©Ø±":7186,"ĠØ¨Ø±Ù¾Ø§":7187,"ĠØªØ³Ùĩ":7188,"ĠØ±ÙĪØ¯Ùĩ":7189,"ĠØ³Ø§ÙħØ§ÙĨ":7190,"ĠØ®Ø±Ø³":7191,"ĠÙĦØ§Ùħ":7192,"ĠØ§ÙĨØ¨ÙĪÙĩ":7193,"ĠÙģØ±Ø¹ÛĮ":7194,"ĠÙĨÙĪÙĩ":7195,"ĠØªØ§Ø±ÛĮÚ©":7196,"Ø³Ø±ÛĮ":7197,"ĠÚĨÙĩØ§Ø±ØµØ¯":7198,"ĠÙģÛĮØ¨Ø±":7199,"ĠÙħØ²Ø±Ø¹Ùĩ":7200,"ĠÚ¯Ø§Ø²ÛĮ":7201,"ĠÛĮÚ©ÙħÛĮÙĨ":7202,"ĠØªØ®ÙĦÛĮÙĩ":7203,"Ø§Ø¨ØªÛĮ":7204,"ĠÙĪØŃØ´Øª":7205,"Ġ'":7206,"Ø³Ø§ÛĮØª":7207,"ĠÛĮÙĪÚ¯":7208,"ĠØ±Ø§ÛĮÚ¯Ø§ÙĨ":7209,"ĠÛ²ÛµÛ°":7210,"ĠØ¯Ø±Ø³ØªÛĮ":7211,"ĠØ§Ø±ÛĮÚ©":7212,"ĠÙħØ§ÙĩÛĮØª":7213,"ĠÙħØ´ØªØ±ÛĮØ§ÙĨ":7214,"ĠØ¯ÙĪØ¨":7215,"ÂŃ":7216,"ĠÙħÙĪØ§ÙĤØ¹":7217,"ÙĪÙħØ§ÙĨ":7218,"ĠÚ©Ø§Ø±Ø´ÙĨØ§Ø³Ø§ÙĨ":7219,"ĠØ´ÙĨØ§Ø®ØªÛĮ":7220,"Ø§ÙĪØ±Øª":7221,"ĠÙĪÙĩ":7222,"ÙĦÛĮÙĨÚ¯":7223,"ÙĪØ¯ÙĪØ±":7224,"ĠÚ¯Ø´ØªÙĩ":7225,"ÙĪØ´ÛĮÙħÛĮ":7226,"ĠØ«Ø±ÙĪØªÙħÙĨØ¯":7227,"ĠÙħØ¹ØªØ±":7228,"ĠÛµÛ²":7229,"ĠØ¢ÙħØ§Ø±ÛĮ":7230,"ĠØ§ÙĦØ¨Ø±Ø²":7231,"ĠØ§Ø³ØªÙĪØ¯ÛĮÙĪ":7232,"ĠØ§Ø¹Ø·Ø§":7233,"16":7234,"ĠØ§Ø±ÙĪÙ¾Ø§ÛĮ":7235,"ĠØ´Ú¯ÙģØª":7236,"ĠÙħØµØ±ÛĮ":7237,"ĠØ®Ø´Ú©ÛĮ":7238,"ĠÚ¯Ø²ÛĮÙĨÙĩ":7239,"ĠÙ¾Ø§ÛĮØ¯Ø§Ø±ÛĮ":7240,"ĠØ´Ø±Ø§ÛĮØ·ÛĮ":7241,"ĠØ®ÙĪØ´Ùĩ":7242,"ĠÙĨØ´Ø±ÛĮ":7243,"ĠØŃØ±ÛĮÙģ":7244,"ĠØ¬Øº":7245,"ĠÙ¾ÛĮØ´Ú¯ÛĮØ±ÛĮ":7246,"ĠØ´ÛĮÙħ":7247,"ÙĪØ¦ÙĨ":7248,"ĠØ¯Ø±ÙħÛĮ":7249,"Ø±Ø¯Ø§Ø¯":7250,"ĠØ±ÛĮÙĪ":7251,"ĠØ¨Ø§Ø¯ÛĮ":7252,"ĠØµØ¯ÙĩØ§":7253,"ĠÙħØªØŃØ±Ú©":7254,"ĠØ´ÛĮÙĨ":7255,"ĠÙħØ±Ú©Ø¨":7256,"ĠØ¢Ø±Ø§ÛĮÙĩ":7257,"Û³Û±Û":7258,"ĠÙħØ¨Ø§ØŃØ«":7259,"ĠØ´ÛĮÚ©Ø§Ú¯ÙĪ":7260,"ĠÚ©ÙĪØ´Ø´":7261,"ĠØ¯ÙģØ¹":7262,"ĠØ±ÙĪÛĮØ¯Ø§Ø¯ÙĩØ§ÛĮ":7263,"ĠÛ±Û¹Û´Û·":7264,"ĠÙģØ±ÙĨÚ¯ÛĮ":7265,"ĠÛ±Û¹ÛµÛ´":7266,"Û·Û´":7267,"ĠØ¹Ø§Ø±Ùģ":7268,"ĠØ´Ø§ÙĩÛĮ":7269,"ĠÙĤÙĪÙĩ":7270,"ĠØ²ÛĮØ³ØªÚ¯Ø§Ùĩ":7271,"ĠØ±ÛĮØª":7272,"ĠØ³Ø§Ø²ÙħØ§ÙĨØ¯ÙĩÛĮ":7273,"ĠØ¨Ø¯Ø±":7274,"ĠÙħÚ©Ø±":7275,"Ú¯Ø³":7276,"ĠØ³ÙħÙģ":7277,"ÙģØ±Ùħ":7278,"ĠØ±Ø£Ø³":7279,"ÙĪÙĦØ§ÙĨ":7280,"ĠØ§Ø³Ø¯":7281,"ĠÙħØ®Ø¯Ø±":7282,"ĠÚĨØ´":7283,"Ġto":7284,"ÙĨÛĮÙģ":7285,"Ø§ÛĮØ´ÛĮ":7286,"ÙĨØ¸Ø§ÙħÛĮ":7287,"ĠÙħÙĨØ§Ø³Ø¨Øª":7288,"Ø¶Ø§Ø¡":7289,"ĠØªÙĪØ±Ùħ":7290,"ĠØ³Ø±Ø´ÙĨØ§Ø³":7291,"ĠÙ¾Ø±Ø³Ø´":7292,"ĠØ§ÙĦØ¯":7293,"ĠÙħØ¯Ø§ÙĪÙħ":7294,"ĠØ³ÙģØ§Ø±Ø´":7295,"ĠÛĮØ§Ø³":7296,"ĠØ´Ú©Ø§ÛĮØª":7297,"ĠÛ±Û¹Û³Û¶":7298,"ĠØ±Ø·ÙĪØ¨":7299,"ĠØ±ÙĪØ¨Ùĩ":7300,"ĠØ³ÙĦØ·Ùĩ":7301,"ĠØ¨ÙĦÙĨØ¯ÛĮ":7302,"ĠÛ¶Û°Û°":7303,"ĠÙģØ³Ø§Ø¯":7304,"ĠØ´ÛĮÙĦ":7305,"Ø§ÙĨØ¯ÙĪ":7306,"ĠÚ¯Ø±Ø¯Ø§ÙĨ":7307,"ĠØ¯Ø´ÙħÙĨØ§ÙĨ":7308,"ĠØ¨Ø±Ø¯Ø§Ø±":7309,"ĠØ¨Ø§Ø²Ùĩ":7310,"ĠÙĨÙĩØ§Ø¯ÙĩØ§ÛĮ":7311,"ĠØ§Ø³ØªØ¹Ùħ":7312,"ĠØ¢Ø³Øª":7313,"ĠÙħØ®Ø²ÙĨ":7314,"ÙĪÙħÙĨØ¯":7315,"Ø²Ø¨Ø§ÙĨÛĮ":7316,"ĠØ±ÛĮØ³Ú©":7317,"ĠØ¯Ø±Ø¨":7318,"ÙĪØ²ÙĪÙħ":7319,"ĠÚĨÚ¯Ø§ÙĦÛĮ":7320,"ĠØ¨Ø§Ø®Øª":7321,"ĠØ±Ø³Ø§ÙĨØ¯Ùĩ":7322,"Ù¾ÛĮÚĨ":7323,"ÙħØ§Ø³":7324,"ĠÙģØ§Ú©ØªÙĪØ±":7325,"ĠØµØ§Ø¯Ø±Ø§Øª":7326,"ĠÙħÛĮÚ©":7327,"Û±Û³Û¸Û":7328,"Ø¯Ø§ÙĨØ§ÙĨ":7329,"ĠØ¯Ø§Ú©ÙĪØªØ§ÛĮ":7330,"Ø¯Ø®ØªØ±":7331,"ĠÙħØ®ØªØµØ§Øª":7332,"ĠØ±ÙĤÛĮØ¨":7333,"ĠØ®ÙĪØ¯Ø¯Ø§Ø±ÛĮ":7334,"ĠØ¯Ø§ÙĨØ´ÙĨØ§ÙħÙĩ":7335,"ÙĪÙĪÙĨ":7336,"ÙĩØ§ÙĨÛĮ":7337,"ĠØ³ÙĪÙĦÙģ":7338,"ÛĮØ§Ùģ":7339,"ĠØ§ÙĦÚ©ÙĦ":7340,"ĠÙħØªØ±ÙĪÛĮ":7341,"ĠØ¬Ø§ÙĨØ´":7342,"ĠØ¯ÙĨØ¯Ùĩ":7343,"ĠÛ±Û¹ÛµÛ²":7344,"ĠÙĦÙĪØ¯":7345,"ĠÛ³Û¹Û":7346,"ĠØ¨ÙĪÙĨ":7347,"ĠØŃØ¯ÛĮØ«":7348,"ĠÙħÙĪÙĦÚ©ÙĪÙĦÛĮ":7349,"ĠÚ©Ø§ÙħÙ¾ÛĮÙĪØªØ±ÛĮ":7350,"ĠØ¬Ø§Ø¨Ø¬Ø§ÛĮÛĮ":7351,"ĠØ¹Ø¬ÛĮØ¨":7352,"Ø¦ÛĮÙĨÛĮ":7353,"ĠÙħØ¬ÛĮØ¯":7354,"ĠÙ¾Ø²Ø´Ú©Ø§ÙĨ":7355,"ĠØ²ÙĨØ¯Ø§ÙĨÛĮØ§ÙĨ":7356,"ĠØ±Ø§ÙĨÙĨØ¯Ùĩ":7357,"ri":7358,"ĠØ§Ø¶Ø·Ø±":7359,"ÙĨÙĩØ§Ø±":7360,"ĠØ¯ÙĦÙģ":7361,"ĠØ¢ÙĨØ±Ø§":7362,"ĠÙ¾ÛĮÚ¯ÛĮØ±ÛĮ":7363,"ĠØ¨Ø§Ú©ÙĪ":7364,"ĠÙħØµØ¯ÙĤ":7365,"ĠØ§Ø³ØªÛĮÙĪÙĨ":7366,"Ø§Ø¯ÙĨ":7367,"ĠÛ±Û¹ÛµÛ¹":7368,"ĠÚ©Ø§Ú©":7369,"Ø¬ÙĪÛĮØ§ÙĨ":7370,"ĠØªØŃØ±ÛĮ":7371,"ĠÙ¾ÙĦÙĩ":7372,"ĠØ¢Ø´Ù¾":7373,"ĠØ³Ø§Ø¯Ú¯ÛĮ":7374,"ĠÛ±Û¹Û´Û¶":7375,"ĠØ§Ø³Ú©ÙĨ":7376,"ĠØ¢Ø±ØªÙĪØ±":7377,"ĠÙģØ±ÛĮØ¯ÙĪÙĨ":7378,"ĠØ§ÙĪÛĮ":7379,"ĠØ¹Ø«ÙħØ§ÙĨ":7380,"Ø°Ùĩ":7381,"ÙĪØ³ØªÙĪÙĨ":7382,"ĠØ®ÙĪÛĮ":7383,"ĠÛ·Û¶":7384,"ĠÙħØ¹Ø§Ø¯ÙĨ":7385,"ĠØ´Ú©Ùħ":7386,"ĠÚ¯Ø±Ø¬ÛĮ":7387,"ĠÙħØ³ØªÙĤÛĮÙħØ§":7388,"ĠØ¨ÙĨÛĮØ§Ø¯ÛĮ":7389,"ĠØ´Ø§ÙĨØ²Ø¯ÙĩÙħ":7390,"ĠÙĨÙĤØ´ÛĮ":7391,"ĠÙħØ´Ø®ØµØ§Øª":7392,"ĠØ¨ÛĮØ²Ø§ÙĨØ³":7393,"Ù¾Ø§Ø¯":7394,"ĠØ¦ÛĮ":7395,"ĠØ±Ø´":7396,"ĠØ³Ù¾Ø§ÙĩÛĮØ§ÙĨ":7397,"Ø§ÙĦÙĨ":7398,"ÙģÙĪ":7399,"ĠØ¢Ø±Ú©Ø§ÙĨØ²Ø§Ø³":7400,"ĠÙĤØ§Ø±ÚĨ":7401,"Ø²ÛĮØ±":7402,"ĠØªÛĮÙħÙĪØ±":7403,"ĠÙģØ§ÙĨ":7404,"ĠÙħØŃØ§Ú©ÙħÙĩ":7405,"ĠÙħØ±Ø§":7406,"ĠØ¹Ø¨Ø¯":7407,"ĠÙĦÙĩØ³ØªØ§ÙĨÛĮ":7408,"ĠIn":7409,"ĠÙħØ«ÙĦØ«":7410,"ĠÚĨØ³Ø¨":7411,"ĠØ¯Ø§Ø¦Ùħ":7412,"ĠØ¬Ø³Ø¯":7413,"ĠØªØ±Ø³ÙĨ":7414,"ĠØºØ°Ø§ÛĮ":7415,"Ú©ÙĦØ§ÙĩÙħØ§":7416,"ĠÚ©Ù¾ÛĮ":7417,"ĠÚ©Ø§Ø±Ø§Ú©":7418,"ĠØŃØ¨ÛĮØ¨":7419,"Ø§ØªÙĪØ±ÛĮ":7420,"ĠØ¢ÙħÛĮØ²":7421,"ĠØªØŃØ³ÛĮÙĨ":7422,"ÙĪÙģØ§ÙĨ":7423,"ĠÙħØªÙĨÙĪØ¹":7424,"ĠØªØ§ÙĨ":7425,"ĠÙħÙĨÙģ":7426,"ĠÙģØ±Ø§ØªØ±":7427,"ĠÛ±Û¹ÛµÛ·":7428,"ĠØ¨ÙĪÙħ":7429,"ĠÙħØ¨Ø¯ÙĦ":7430,"ÙĨÙħØ§ÛĮÙĨØ¯":7431,"ÙĨØ§Ø¨":7432,"ĠØ¯Ø§Ú¯":7433,"Ø§Ø±ÛĮÙĪ":7434,"Ø§Ø¯Ø§ÛĮÛĮ":7435,"ĠØ´ÙĪØ±Ø§":7436,"ĠØ¯Ú©":7437,"Ø¨ÛĮØ´":7438,"ĠÙ¾ÛĮØ±ÙĪ":7439,"ĠÙģÛĮÙĦÛĮÙ¾ÛĮÙĨ":7440,"ÚĨÙĪ":7441,"ÙĪÛĮÙĦÛĮ":7442,"ĠÛĮÛĮÙĦ":7443,"ĠØªÙĪÙĨØ³":7444,"ÛĮÙĨÚ¯Ø²":7445,"ĠØ¨ÛĮØ³":7446,"ĠÙħØ¯ÛĮØªØ±Ø§ÙĨÙĩ":7447,"Ø¬Ø§ÙĨÛĮ":7448,"ĠÙĨÙĪØ¬ÙĪØ§ÙĨÛĮ":7449,"ĠØ®ÙĦØ§ÙĦ":7450,"ey":7451,"ÚĨÙĦ":7452,"ĠÙħØ¤Ø³Ø³":7453,"ĠÙ¾ÛĮØª":7454,"ĠÙ¾Ø§ÛĮÛĮØ²":7455,"Ø§Ø®Ø§ÙĨ":7456,"ĠÛĮØ§ÙĦ":7457,"ÙĨØ´Ø§ÙĨ":7458,"ĠØ¢ÙĦÙĪØ¯Ùĩ":7459,"ĠØ°Ø±Ùĩ":7460,"ĠØ¨ØŃØ±ÛĮÙĨ":7461,"ĠÙ¾ÙĪØ±ÙĨÙĪ":7462,"Ø¨Ø³Øª":7463,"ĠØ±Ú¯":7464,"ĠÛ·Û´":7465,"ĠØ³Ø§ÙĨØªÛĮÙħ":7466,"ĠØ´ÙħØ§Ø±ÛĮ":7467,"ĠÙħØŃÙħØ¯ÛĮ":7468,"ĠØ¬ÙĪÙĨØ²":7469,"ĠØªÙĤØ§Ø¶Ø§ÛĮ":7470,"ĠÙĩØ§Ø³Øª":7471,"Ø§Ø³ÙĦØ§Ùħ":7472,"ĠØ¨Ø¯ÙĨÛĮ":7473,"Ø±Ø³ÙĨØ¯":7474,"ĠÙĤÙĪØ§ÛĮ":7475,"Ø¯Ø§ÛĮ":7476,"ĠØªØ´ÛĮ":7477,"ĠÙĤÙĨ":7478,"ĠØªÙĪØ¬":7479,"ĠØªØ·Ø¨ÛĮ":7480,"ĠÙĨÙĤØ¶":7481,"ØŃØ¯ÙĪØ¯":7482,"ÙĩØ§ÛĮØª":7483,"ĠÚ¯Ø±Ú¯Ø§ÙĨ":7484,"Ø´ÙĨØ§Ø®ØªÛĮ":7485,"Ø¬Ø²ÛĮØ±Ùĩ":7486,"ĠØ±ÛĮÙħ":7487,"ĠÙħØ³Ø§ÙĪÛĮ":7488,"ĠÚ©ÙħØªØ±ÛĮÙĨ":7489,"ĠSh":7490,"Ø®ÛĮØ²":7491,"Ø¯Ø§ÙĨØ³ØªÙĨØ¯":7492,"ĠÙħØ§Ø¨ÛĮÙĨ":7493,"Ø®Ø§Ø±":7494,"ĠÙĤØ·Ø¹ÛĮ":7495,"ĠÙĪØµ":7496,"ĠÙħÙħØªÙĨØ¹":7497,"Ø§ÙĨØ¨Ø§Ø±":7498,"ØªØ±Ú©ÛĮ":7499,"ĠÙ¾Ø±ÙĪÙģØ³ÙĪØ±":7500,"ĠØ¨Ú¯ÛĮØ±ÛĮ":7501,"ÙħØµ":7502,"ĠØ·Ø±Ø²":7503,"ĠÚ©ÛĮØ³Ùĩ":7504,"ĠØ¯Ø²Ø¯":7505,"ĠÚ©Ø±ÛĮØ³":7506,"ĠØ§Ø¦ØªÙĦØ§Ùģ":7507,"ĠÙħÚ©Ùĩ":7508,"ĠØ§Ø±Ø²Ø´Ùħ":7509,"ĠØ§ÙĪØ±Øª":7510,"ĠØ§Ø±Ø´Ø§Ø¯":7511,"ĠØ¢ÙģØ±ÛĮÙĨ":7512,"ĠØ±Ø·ÙĪØ¨Øª":7513,"ĠÚ©Ø±Ø¬":7514,"ØŃØ¯":7515,"ĠÙħØ¬Ø²Ø§":7516,"ĠÛ±Û¹ÛµÛ³":7517,"Ø®Ø§ÙĨÙĪ":7518,"ĠÙĨØ§Ø²Ú©":7519,"Ù¾Ø§Ø´ÛĮ":7520,"ĠØªØ¨Ø§Ø¯ÙĦ":7521,"ĠÙ¾ÙĦØ§Ø³":7522,"ĠØ±Ø§Ø¨Ø·":7523,"ĠØ¯Ø±Ø®Ø´Ø§ÙĨ":7524,"ÙħØ¯Øª":7525,"Ú©Ø§Ø±Ø§ÙĨ":7526,"ĠØ§ÙĨØ³":7527,"ĠÚĺØ±":7528,"ĠØ´Ú©Ø§Ùģ":7529,"ĠØ®ÙĦØ§ÙĤ":7530,"ĠÚ©ÙĨÛĮ":7531,"ĠÙģØªÙĪ":7532,"Ø§ÙĨØ¯Ø§":7533,"ĠØ§ÙĤÙĦÛĮØª":7534,"ĠÛ±Û³Û¹Û¸":7535,"ĠØ§Ø³ÙħØ§Ø¹ÛĮ":7536,"ÙģÛĮÙĩ":7537,"Ø§ÙĨØ¯ÛĮ":7538,"Û±Û¹Ûµ":7539,"ĠØ®Ø±Ø§Ø¨":7540,"ĠÙħØªØ±ÙĪ":7541,"Ø§ÛĮÙĦØ±":7542,"ÙħÙĨØ·ÙĤÙĩ":7543,"ĠÂ°":7544,"ĠÙħÙĤØ±Ø±Ø§Øª":7545,"ĠÙĦÛĮØ²Ø±":7546,"ĠÚĺÛĮÙħÙĨ":7547,"ĠØ²ÛĮØ±Ø²ÙħÛĮÙĨÛĮ":7548,"Û±Û¹Û´":7549,"ĠØªØ±Ø³ÙĨØ§Ú©":7550,"ĠØ³Ø§Ø²Ø¯":7551,"ĠØ¢ÛĮÙĨÙĩ":7552,"ĠÛ³Û¹":7553,"ĠÙģØ±ÙħØ§ÙĨØ¯ÙĩØ§ÙĨ":7554,"ĠÛ±Û¹ÛµÛµ":7555,"ĠÚ©Ø§Ø´Ø§ÙĨ":7556,"Ø§ÙĨØ¬":7557,"ĠØ§ÙħØ¶Ø§ÛĮ":7558,"ĠÙħÙĦÙĤØ¨":7559,"ĠØ¯Ø³ØªÙĪØ±Ø§ÙĦØ¹ÙħÙĦ":7560,"ae":7561,"ĠÚ©ÙĪØ±Ùĩ":7562,"ÙĨÙĪÙĨ":7563,"Ø§ÙħØ±":7564,"ĠØ¹ÙħÙĪØ¯ÛĮ":7565,"Ú¯Ø±ÙĩØ§ÛĮ":7566,"ÚĨÙĨ":7567,"ĠØªÛĮØ±Ø§ÙĨØ¯Ø§Ø²ÛĮ":7568,"ĠØ§Ø³Ø§ÙħÛĮ":7569,"Ø§ÙĪÛĮÙĨ":7570,"Ø§ÙĪØ³":7571,"ĠÙĤØ·Ø¨ÛĮ":7572,"ĠØ³ÙģØ§ÙĦ":7573,"Ø·ØŃ":7574,"ĠBr":7575,"Ú¯Ø±Ø¯Ø§ÙĨØ¯":7576,"ĠØ±Ø¶Ø§ÛĮØª":7577,"ĠÙĪÛĮØªØ§ÙħÛĮÙĨ":7578,"ĠÙ¾ÛĮÚĨÛĮØ¯Ú¯ÛĮ":7579,"ĠØ§Ø·ÙĦØ³":7580,"ĠØ§Ø®ØªØµØ§Ø±":7581,"ÙģØ¯Ø±":7582,"Ø¨ØªÛĮ":7583,"Ú¯ÙħÛĮÙĨØ§":7584,"ĠØ¢ÛĮØ±":7585,"ug":7586,"ĠÙ¾ÙĪØ¯Ø±":7587,"ĠÛ³Û¸Û":7588,"ÙĪÚ¯ÙĪ":7589,"az":7590,"ĠÙĦØ·":7591,"Ø§Ø®ØªÙĨ":7592,"ĠÙĤØ¨Ø±Ø³ØªØ§ÙĨ":7593,"ÛĮØ§ÙģØªÙĩ":7594,"ĠÙħØ±Ú¯Ø´":7595,"ĠØ¹ÙħØ§ÙĨ":7596,"Ø§Ø³ÙĦ":7597,"ĠØªØ¶ÙħÛĮÙĨ":7598,"ĠØ¹Ø§Ø´ÙĤØ§ÙĨÙĩ":7599,"Ø´Ø§Ø®":7600,"ÙĪØ§ÙĨÚ¯":7601,"ĠÙħØ°Ø§Ú©Ø±Ùĩ":7602,"ÛĮØ§ÛĮ":7603,"Ø³Ø§ÙĦÛĮ":7604,"ÙĪØ§ÙĨØ§":7605,"ĠØ¹ÙħÙĦØ§":7606,"ĠÙħÚ©Ø¹Ø¨":7607,"Ø§ÚĨØ§ÙĤ":7608,"ĠØªØ±ÙĪÛĮØ¬":7609,"ĠAm":7610,"ĠØ¯ÛĮÙ¾ÙĦÙħ":7611,"'s":7612,"ĠØªÙĤÛĮ":7613,"ĠØ§ØŃØ³Ø§Ø³Ø§Øª":7614,"ĠÙħØ§Ø¬Ø±Ø§ÛĮ":7615,"ĠØªÙģØ±ÛĮ":7616,"ĠMar":7617,"Û±Û°Û°":7618,"ĠØ¢Ø´ÙĪØ±":7619,"ĠØ³Ø±Ù¾Ø±Ø³Øª":7620,"ĠÚ©ÙĪØ§Ø±":7621,"ĠÙ¾Ø§Ø³Ø¯Ø§Ø±Ø§ÙĨ":7622,"ĠÙħÙģØµÙĦ":7623,"ĠÙ¾ÚĺÙĪÙĩØ´Ú¯Ø±":7624,"ĠÙĦØ°Øª":7625,"ÙĨÚ¯Ø§Ø±Ø§ÙĨ":7626,"ĠÛĮØŃÛĮÛĮ":7627,"ĠÙĦÛĮÙĪØ±Ù¾ÙĪÙĦ":7628,"ĠØ¯ÙĪØ§Ø²Ø¯ÙĩÙħ":7629,"ĠÙĦÛĮØ¨ÛĮ":7630,"ĠÙħØ§Ø±Ø´":7631,"ĠÛ±Û¹Û´Û¹":7632,"ĠØ¬ÙĩØ´":7633,"ĠØ§Ø±Ùħ":7634,"Ø§Ú¯Ø±Ø§ÙĨ":7635,"ĠØ¬ÛĮØ±":7636,"ĠØ±Ø¦Ø§ÙĦ":7637,"ĠØ¬ÙĨØ§ØŃ":7638,"ĠÛ±Û¹Û±Û·":7639,"ĠØªØ§ÙĪÙĨ":7640,"ert":7641,"ÙģÛĮÙĨ":7642,"Ú©ÙĨÙħ":7643,"ĠØ°ÛĮÙĦ":7644,"ÙĦØ§ÙĨÛĮ":7645,"ĠØ®ÙĪØ±Ø§Ú©ÛĮ":7646,"ly":7647,"ĠØ¯Ø±ÙĩÙħ":7648,"ĠØªØ±Ú©Ø§ÙĨ":7649,"ĠÛ·Û·":7650,"Ø³Ø¨ÙĪØ±Ú¯":7651,"ĠØ§ÙģØªØ®Ø§Ø±Ø§Øª":7652,"ĠØ¨Ø§Ø²Ú¯":7653,"ĠÙħØ±Ø§Ø¯":7654,"ĠÙħØ¤ÙĦÙģ":7655,"ĠØ²Ø®Ùħ":7656,"ĠØ¨ÙĪÙĦÛĮ":7657,"ĠÙĩÙĪØ§Ù¾ÛĮÙħØ§ÙĩØ§ÛĮ":7658,"Ø§ÙħØ§ÙĨ":7659,"ĠØ¬ÙĪÙĨ":7660,"Ø§ÙĨÛĮÙĪÙħ":7661,"ĠÛĮØ§ÙĨÚ¯":7662,"Û±Û¹Û±Û":7663,"ies":7664,"ĠÙħØ¹ÛĮØ§Ø±":7665,"Õ¡":7666,"ĠÛ±Û¹Û±Û¹":7667,"ach":7668,"ĠØ³ØªØ§ÛĮØ´":7669,"ĠØŃÛĮØ§Ø·":7670,"ĠÙħÙĪÙĨÛĮØ®":7671,"ĠØ§ÙĦØªÙĩ":7672,"Ú©ÛĮÙħ":7673,"ØªÙĪÙħ":7674,"ĠØ¨Ø¨ÛĮÙĨ":7675,"ĠØ²Ø§Ùĩ":7676,"ĠÚ©Ø§Ø±Ú©Ø±Ø¯":7677,"Ø²ÙĪ":7678,"ÙĦÛĮØ³ÛĮ":7679,"ĠØ´Ø¹Ø§Ø±":7680,"ĠØ¯ÙħØ´ÙĤ":7681,"ĠÚ¯ÙĪØ§Ø±":7682,"Ø°ÛĮØ±ÛĮ":7683,"ĠÙĨØŃÙĪÛĮ":7684,"ĠØ¬ÙĩØ§Ø¯":7685,"ĠÙĩØ´Ø¯Ø§Ø±":7686,"ĠÙĪØ§Ø¨Ø³ØªÚ¯ÛĮ":7687,"ĠÙĨØ§Ú¯ÙĩØ§ÙĨÛĮ":7688,"ĠÙħØ°Ø§Ú©Ø±Ø§Øª":7689,"Ø§ÛĮØ±ÛĮ":7690,"ĠÙ¾ÛĮØ´ØªØ±":7691,"ĠÙħØ®ØµÙĪØµØ§":7692,"ĠÙģØ§ÙĨØª":7693,"ĠØŃÛĮØ¯Ø±":7694,"ĠØ³Ù¾Ùĩ":7695,"ĠÙĩÙģØªØµØ¯":7696,"ÙĪÚĨÙĩØ±":7697,"ÙĨØ§Ù¾":7698,"ĠØ®ÙĪÙĨÛĮ":7699,"ĠÙħØ¯ÛĮÙĨÙĩ":7700,"ĠØ´ÛĮØ·Ø§ÙĨ":7701,"Ø§ÙĨÙĪØ±Ø¯":7702,"Ø´ÙĩØ±ÛĮ":7703,"ĠØªØ§ÛĮÙĦÙĨØ¯":7704,"ĠÙħØ¬Ø§ÙĩØ¯ÛĮÙĨ":7705,"ĠØ§Ú©ÙĦØ§ÙĩÙħØ§":7706,"ĠØ¨Ø§ÙĦØ§Ø®Ø±Ùĩ":7707,"ĠÛ±Û³Û¸Û°":7708,"ĠÛ´Û³":7709,"ĠÙĨÙģØ¹":7710,"ÙĪØ§ØŃ":7711,"Ø¨ÙĪÙĨ":7712,"ĠØŃØ³Ø§Ø³ÛĮØª":7713,"Ø§ÙĦØ³ÙĦØ·ÙĨÙĩ":7714,"ĠØ±ÙģØ³":7715,"ÙĪÙĨÛĮÙĩ":7716,"ĠØ¨ÛĮÙĦÛĮ":7717,"ĠÙħÙĤØ§ÙĪÙħ":7718,"ÙģÙĦØ¯":7719,"ĠØ§ÛĮØ§Ùħ":7720,"ØµÙĪØ±":7721,"ĠØ§ÙģØ´":7722,"ĠØªØ¹ÙĩØ¯":7723,"ĠØ§Ø´Ø±Ø§Ùģ":7724,"Ø§ØºÛĮ":7725,"Ø§Ø«ÛĮØ±":7726,"ĠØ§Ø³ØªØ§ÙĨØ¯Ø§Ø±Ø¯ÙĩØ§ÛĮ":7727,"ĠÙģØ§Ø¶ÙĦ":7728,"ĠØ§Ø³ÛĮØ±":7729,"ĠØªÙĤØ³ÛĮÙħØ§Øª":7730,"ĠØªÙĨÚ¯Ùĩ":7731,"Ú©Ø§Ú©":7732,"ĠØ¨Ø§Ø²Ø§Ø±ÙĩØ§ÛĮ":7733,"ĠØ§Ø¯ÛĮØ§ÙĨ":7734,"ĠÙģØ±ÙĩØ§Ø¯":7735,"Ù¾Ø§Øª":7736,"Û±Û¹Û¸Û":7737,"ĠØŃÙģØ§Ø±ÛĮ":7738,"Ø¨ÙĪØ¹":7739,"Ø§Ø¯ÙĦÙĩ":7740,"ĠØ®ÙĨ":7741,"ĠØ³Ø§Ø²Ú¯Ø§Ø±":7742,"ans":7743,"ĠÙĩÙĨØ¯Ø³Ùĩ":7744,"Ø§Ø±ØªÙħØ§ÙĨ":7745,"ĠØ¯Ø§ÙĪØ±ÛĮ":7746,"ĠØ±ÙħØ§ÙĨØªÛĮÚ©":7747,"ĠØ§ÛĮØ¯Ø¦":7748,"ĠØ²ÙĪØ±":7749,"ĠÙĦØ§Øª":7750,"ĠÛ±Û¹Û³Û¸":7751,"ala":7752,"ÃĹ":7753,"ĠØ¬ÙħØ§ÙĦ":7754,"ĠÙħÛĮØ®":7755,"Ø¦ÙĨ":7756,"ĠØ¨ÛĮØ§Ø¨Ø§ÙĨ":7757,"ĠØ±ÛĮØ§Ø¶":7758,"Ø·Ø¦Ùĩ":7759,"Ø±Ø§ÙģÛĮ":7760,"ĠĠĠĠ":7761,"ÙģØ±Ø§Ø¯ÛĮ":7762,"ĠÙħØ·ÙĦØ¨":7763,"ĠØµÙģÙĪÛĮÙĩ":7764,"ĠØ¢Ú©Ø³":7765,"ĠØ·Ø±ÙģØ¯Ø§Ø±":7766,"ĠØ¨ÙĪØ³ÛĮÙĦÙĩ":7767,"Ø§Ø³ÙħÛĮ":7768,"ĠÙģØ¹Ø§ÙĦØ§ÙĨ":7769,"ĠØ·Ø¨Ø§Ø·Ø¨Ø§ÛĮÛĮ":7770,"ĠÚ©Ø§Ø¸Ùħ":7771,"Ø±Ú¯":7772,"Ø¯Ø§Ø¯ÛĮ":7773,"ĠÛ¸Û°Û°":7774,"ĠØ¯Ø±ØŃØ§ÙĦÛĮ":7775,"Ø³ÙĨÛĮ":7776,"ĠØ¯Ø®ØªØ±Ø´":7777,"ĠÚ©Ø§Ø±Ø´":7778,"Ø±Ø§Ø³ÛĮ":7779,"ĠØ§ÛĮÙĨÚ¯ÙĪÙĨÙĩ":7780,"Ø¸Øª":7781,"ĠÙħØ³ØªØ¹":7782,"ÙĤØ·Ø¹ÙĨØ§ÙħÙĩ":7783,"ĠØ¶Ø®Ø§ÙħØª":7784,"ĠÙģÙĪØ±Ø¯":7785,"ĠÙ¾Ø±ØªØºØ§ÙĦÛĮ":7786,"Ã³":7787,"ĠÙħØ´Ø®ØµÛĮ":7788,"ĠØ¯ÛĮÙĪØ§Ø±ÙĩØ§ÛĮ":7789,"ĠÚ©Ø§ÙĨØ¯ÛĮØ¯":7790,"Ø®Ø§ÙĨÙĪØ§Ø¯Ùĩ":7791,"ĠØ®Ø§ØªÙħÙĩ":7792,"Ø§Ø²Ø§ÙĨ":7793,"ĠÚ©ÙĪØ¨Ø§":7794,"Ø§ÙĦÙĨÙĩØ§Ø±":7795,"ĠØ³Ø§ÙĨØªÛĮÙħØªØ±":7796,"ĠØ¬ÙĦØ³":7797,"ĠÙĦØ§ÙĨÚ¯":7798,"ĠÚ©ÙĨØ´":7799,"ÙĪÚ©ÙĦ":7800,"ĠØ§Ø¯Ø¨":7801,"Ø¨Ø§Ø¹":7802,"ĠÙģØ±Ø¶ÛĮÙĩ":7803,"ĠÚ©ÛĮÚ©":7804,"ĠØ§Ø³ÙĨ":7805,"ĠØ±Ø§ÙĨØ¯":7806,"ĠØ§Ø®ØªÙĦØ§ÙĦØ§Øª":7807,"Ø³ÙĨÚ¯ÛĮ":7808,"ĠØ¹ÙĨÚ©":7809,"ĠØ¨Ø±Ø§ÙĨÚ¯ÛĮ":7810,"ĠÙ¾ÛĮØ´ÛĮÙĨÙĩ":7811,"ĠÙģØ¹ÙĦ":7812,"Ø´Ø§Ùħ":7813,"ĠØ¹ÙĦÙħØ§ÛĮ":7814,"ĠÙĩØ³ØªÛĮ":7815,"ĠÙħØªÙĪØ§ÙĦÛĮ":7816,"ÙħÙĩØ±":7817,"ĠØŃØ³Ø¨":7818,"ĠØ¨ÙĦÙĨØ¯ØªØ±ÛĮÙĨ":7819,"ÙĦÛĮØ²":7820,"ĠÙħÛĮÙĩ":7821,"ĠÙĩØ±ÚĨÙĩ":7822,"Ú©ÙĦÛĮÙĨ":7823,"ĠØŃØ§ÙħÛĮ":7824,"ĠÛ±Û³ÛµÛ¸":7825,"ĠÙħÛĮÙĨÛĮ":7826,"ĠØ³Ø§Ø²ÙĩØ§ÛĮ":7827,"ĠØªÙĪØ·Ø¦Ùĩ":7828,"Û°Û±Û":7829,"ĠÐ":7830,"ĠØ¬Ø§ÛĮÚ¯Ø²ÛĮÙĨÛĮ":7831,"Ø¯ÙĩØ§ÛĮÛĮ":7832,"ĠÙģÙĤØ±":7833,"ĠØ§ÙħÙĦØ§Ú©":7834,"Ø¨ÙĪØ±ÙĨ":7835,"land":7836,"Ø¨Ø§ÙĦÙĩ":7837,"ĠÙħØªÙĪØ³Ø·Ùĩ":7838,"ĠÚ¯Ø±Ø§ÙģÛĮÚ©":7839,"Ø§ÙĦØ§ÙĨ":7840,"ĠÚ©ÙĦØ§Ùħ":7841,"ÙħÚ©ÙĨ":7842,"ĠÙģØ±ÙĩÙĨÚ¯Ø³ØªØ§ÙĨ":7843,"ÛĮÙĨÚ¯ÛĮ":7844,"ĠÛĮØ¹ÙĤ":7845,"ÚĨÛĮØ§ÙĨ":7846,"ĠØªØ§ÛĮÙħØ²":7847,"ĠØªÙĤØ±ÛĮØ¨ÛĮ":7848,"ĠØªØ³ÙĩÛĮÙĦ":7849,"ĠØ¹Ø³ÙĦ":7850,"ĠÙĨÚ¯Ø§Ø´ØªÙĩ":7851,"ĠÚ¯ÙĪØ§ÙĩÛĮ":7852,"Ø¹Ú©Ø³":7853,"aw":7854,"ĠÙģØ¯":7855,"ĠØ§ÙĨÙģØ±Ø§Ø¯ÛĮ":7856,"ĠÙĦØ§ÙĦÙĩ":7857,"ĠØ¯ÙĩÚ©Ø¯Ùĩ":7858,"ens":7859,"ĠØ¨Ø±Ø¯Ø§Ø´ØªÙĩ":7860,"ĠÛĮØ¯":7861,"ÙİÙĳ":7862,"Ø§Ø³ØªÛĮÙĨ":7863,"ĠÙħÙĩØ§Ø¬Ø±Ø§ÙĨ":7864,"ĠØ§Ø±ÛĮ":7865,"ĠØŃØ§ÙĦØ§":7866,"ÙĪÙĦÙĪÚĺÛĮÚ©ÛĮ":7867,"ĠÙĤØ§ÚĨØ§ÙĤ":7868,"ĠØ±Ø³ÙĪØ¨":7869,"ĠÙĩØ¬ÙĪÙħ":7870,"Ø³ÛĮØ³Ú©ÙĪ":7871,"ĠÛ±Û³Û¸Û³":7872,"ĠØ§Ø±Ø²Ø§ÙĨ":7873,"ĠÙĨØ´Ø±ÛĮØ§Øª":7874,"ĠØ³Ø¹Ø¯":7875,"ĠÙĩØ±Ø¯":7876,"Ø¢ÙĤ":7877,"ĠØ¨Ø§Ø¨Ø§":7878,"Ù¾Ø²Ø´Ú©ÛĮ":7879,"ÙħØ²Ø¯":7880,"ĠØ§ÙĤÙĦÛĮÙħ":7881,"man":7882,"ĠÚĨÙĨØ¯Ø§ÙĨÛĮ":7883,"Ø¬Ø±ÛĮ":7884,"ĠØ¯Ø§ÙĨØ´Ø¬ÙĪÛĮ":7885,"ÙĤÙĩØ±":7886,"ØµÛĮØ±":7887,"ĠØ§Ø³ØªØ¹ÙģØ§":7888,"ĠØ¨Ø±Ø§ÛĮØ´":7889,"ĠÙĪÙĨØ²":7890,"ĠÛ±Û³ÛµÛ°":7891,"ĠÙħØ±ÛĮÙĦÙĨØ¯":7892,"ĠÙģÙĦØ³Ø·ÛĮÙĨÛĮ":7893,"ĠÙģØ±ÙĨ":7894,"ĠØ´Ø´ØµØ¯":7895,"ĠØ±Ú©Ø§Ø¨":7896,"ĠØ§ÙĨØªØ®Ø§Ø¨ÛĮ":7897,"Û±Û¸Û¶":7898,"ĠØºÙĦØ¸Øª":7899,"ĠØ§ÙĦÛĮØ²Ø§Ø¨Øª":7900,"ĠÚ©Ø§ÙĨØ§Ø¯Ø§ÛĮÛĮ":7901,"ĠÙħØ´Ø®ØµÙĩ":7902,"ĠÙĪØ¬":7903,"Ø§ÙħÛĮØ±":7904,"ĠØŃØ±Ú©ØªÛĮ":7905,"ĠØ«Ø¨Ø§Øª":7906,"Ø±Ú©Ø´ÛĮ":7907,"ĠØ§Ø¯Ø±":7908,"ĠÚ©ÙĦØ±Ø§Ø¯ÙĪ":7909,"ĠÚ©ÙĩÙĨÙĩ":7910,"ĠØ±Ø³ÙĪÙĦ":7911,"ond":7912,"ĠØ¬Ø§ÙĨØ³ÙĪÙĨ":7913,"ÙĪØ¦ÙĦØ§":7914,"ĠØ¹Ø¯Ø¯ÛĮ":7915,"=\"":7916,"ĠØ¬ÙĪØ²Ùģ":7917,"ĠØ¯Ø§Ø¯Ú¯":7918,"ĠÙħØ³ØªØ¹Ùħ":7919,"ĠÙĨÙħÙĪØ¯Ø§Ø±":7920,"ĠÙħÙĨØŃÙĨÛĮ":7921,"ĠØªØ±ÙĪØ±ÛĮØ³ØªÛĮ":7922,"ØªÛĮØ³":7923,"ĠØªÛĮØª":7924,"ĠÚ©Ø±ÛĮÚ©":7925,"ĠØ¨Ø§Ø²Ø§Ø±ÛĮØ§Ø¨ÛĮ":7926,"ĠØ¨ÙĩØ´ØªÛĮ":7927,"ĠØºØ§Ø±Øª":7928,"ĠÙĩØ´ØªØµØ¯":7929,"ĠØ¬ÙĨØ¨":7930,"ĠØ®Ø§ÙħÙĪØ´":7931,"ĠÚĨØ§Ø±Øª":7932,"ĠØ§ØµØ§ÙĦØª":7933,"ĠÙħØ¨Ø¯":7934,"ÙĨÙĪØ³":7935,"ĠÙ¾ÛĮØ³Øª":7936,"ish":7937,"ĠÙħØ§Ø³Ùĩ":7938,"ÙĦÙĪÚ©":7939,"ĠÙĨØ§Ø¦":7940,"ĠÙĤØ±ÙĤ":7941,"ÙĦØ§ÙĪÙĩ":7942,"ĠÚ©ÙĪØ±Øª":7943,"ĠÙĩÙħØ§ÛĮ":7944,"ĠÙĤØµÙĩ":7945,"Ø§ÛĮØ±Ø§ÙĨ":7946,"ĠÙĨÙĤØµ":7947,"ĠÛ±Û¹Û³Û·":7948,"ĠØ¢Ø¨Ø§Ø¯Ø§ÙĨ":7949,"ĠØ¢Ø±Ø§ÙħØ´":7950,"15":7951,"ĠØ¨Ø´Ú©":7952,"âĢĮâĢĮ":7953,"ĠØ§ÙĦÙģØ¨Ø§ÛĮ":7954,"ĠÙĦÙĪØ§Ø²Ùħ":7955,"ĠØ·Ø§ÙĩØ±":7956,"Û±Û³Û·":7957,"ĠØ¨ÙĤØ§ÛĮØ§ÛĮ":7958,"ĠØªÙĨØ¯ÛĮØ³":7959,"ĠØ³Ø±ØªØ§Ø³Ø±":7960,"ÛĮØªØ³":7961,"ĠØ§Ø¹ØªØµ":7962,"ĠØªÙĨØ³ÛĮ":7963,"ĠØ¯Ø§ÙĨØ´Ø¬ÙĪÛĮÛĮ":7964,"ĠÙħØ¹ØªØ¯ÙĦ":7965,"ĠØ§Ø²Ø¨Ú©Ø³ØªØ§ÙĨ":7966,"ĠÙĦÙģ":7967,"ĠØªØ«Ø¨ÛĮØª":7968,"Ø·Ø§Ùģ":7969,"Ø±ØªØ´Øª":7970,"ĠÙĩØ§ÙģØ¨Ú©":7971,"ĠÙ¾ÛĮØ´Ú¯Ø§Ùħ":7972,"ĠÙģØ±Ø²ÙĨØ¯Ø´":7973,"ĠÙĤØ¶Ø§":7974,"ĠÛ±Û¹Û³Û³":7975,"Ø¢ÙĦØ¨":7976,"Û´Û²":7977,"Ø±Ø§ØªÙĪØ±":7978,"ĠØªÙĪÙĦÛĮØ¯Ø§Øª":7979,"ĠØ¯Ø§ÙħØ¯Ø§Ø±ÛĮ":7980,"ĠØ¯ÙħÙĪÚ©Ø±Ø§Ø³ÛĮ":7981,"18":7982,"ĠØ¨Ù¾Ø±Ø¯Ø§Ø²Ø¯":7983,"Ø¦ÙĪÙ¾":7984,"ĠØ¬ÙĨØ§ÛĮØª":7985,"ĠÙħØ±Ú©Ø²ÛĮØª":7986,"ĠØ§Ø³ØªÙĨØ§Ø¯":7987,"ĠØ¯ÙĪØ²":7988,"Ø§Ø¯Ùģ":7989,"Ø§ØªØ§ÙĨ":7990,"ĠÙħØ¬Ø§ÙĪØ±Øª":7991,"ĠÚ©Ø§Ù¾ÛĮØªØ§ÙĨ":7992,"Ø±ÙĪØ¨":7993,"ĠØ¯Ø§Ø¯Ú¯Ø³ØªØ±ÛĮ":7994,"The":7995,"ĠØ¯ÛĮØ¯ÙĨÛĮ":7996,"ĠØµÛĮ":7997,"ĠÙĩØ³ØªÛĮÙħ":7998,"ĠØ±ÙĪØ§ÙĨÙĩ":7999,"ĠØ¯Ø§Ø±ÙĪÛĮ":8000,"ĠÚ©ÙĪÙĩÙĨ":8001,"ÙħØŃÙĪØ·Ùĩ":8002,"ĠØ¨Ø±ÙĪØ¬Ø±Ø¯":8003,"ĠÙ¾ÛĮØ´Ø±ÙĪÛĮ":8004,"ĠÛ´Û±":8005,"ĠØ§Ø³ØªØ¹Ø¯Ø§Ø¯":8006,"ĠØ³Ø±ÙĨÚ¯":8007,"Ø§ØµØ±ÛĮ":8008,"ĠØ±Ø§ÛĮÙĨ":8009,"ĠØ³ÙħÙĨØ§ÙĨ":8010,"br":8011,"Ġre":8012,"Ø²Ø´":8013,"Ú©ÙĦØ§":8014,"ĠØŃØ¶Ø±Øª":8015,"ĠÛ±Û¹ÛµÛ±":8016,"ĠØ¹Ø¨Ø¯Ø§ÙĦØ±ØŃ":8017,"Ø¢ÙħØ±ÛĮÚ©":8018,"ÙħØ±Ú©Ø²":8019,"ĠØ§Ø¹Ø¶Ø§":8020,"ĠÚ¯Ø°Ø§Ø±":8021,"ĠÙħØ§Úĺ":8022,"ĠÙħØ¹ÛĮ":8023,"ÙĪÙĪÙĪ":8024,"Ø¨Ø§ÙĤ":8025,"ĠÙģØªØŃØ¹ÙĦÛĮ":8026,"ĠØµÙĦØ§ØŃÛĮØª":8027,"ĠÙħØŃØ§ÙģØ¸Ùĩ":8028,"ĠØ³ÛĮØ§ÙĦ":8029,"Ø¨ÙĪÚ©":8030,"ĠÙħØ´Ú©":8031,"ĠØŃØ§ÙĦØªÛĮ":8032,"ĠØ±Ø³ØªÙĪØ±Ø§ÙĨ":8033,"Ð°":8034,"ĠØ²Ø±ØªØ´Øª":8035,"ĠØ®Ø§ØªÙħÛĮ":8036,"ĠØ®Ø§Ú©ÛĮ":8037,"ĠÙĨÛĮØ§Ø²ÛĮ":8038,"ĠØ§ÙĦØ²":8039,"Ø´ØªØ§ÛĮÙĨ":8040,"Ø³Ø¨Ø²":8041,"ĠÙģØ±ÙĪÙ¾Ø§Ø´ÛĮ":8042,"ĠÙħØ£ÙħÙĪØ±Ø§ÙĨ":8043,"Ú¯Ø±ÙħÛĮ":8044,"ĠÛ±Û¹Û³Ûµ":8045,"ÙħØ³Ø¬Ø¯":8046,"ÉĻ":8047,"ĠÙĩØ§ÛĮÛĮ":8048,"ĠØ§ØŃØªÛĮ":8049,"ĠØ¨Ø§ÙĦÛĮÙĨÛĮ":8050,"ĠÚ¯ÙĦÙĪØ¨":8051,"ĠÛ±Û³Û¶Û°":8052,"ĠÚ©ÛĮÙĩØ§ÙĨ":8053,"ille":8054,"ĠÛ±Û³Û¸Û²":8055,"ĠØ¢ÙĦÙĪÙħÛĮÙĨÛĮÙĪÙħ":8056,"Ø³Ø±Ø®":8057,"ØªÙĪØ§ÙĨÛĮØ¯":8058,"Ø²Ø¨ÙĪØ±":8059,"ĠØ§Ø®ÛĮØ±Ø§":8060,"ĠØ¨ÙĨØª":8061,"Ø§Ø¯Ú¯Ø§ÙĨ":8062,"ĠØ¹Ø¨Ø±ÛĮ":8063,"ĠØ§Ø³Ù¾Ø±":8064,"ÙĪÙģØ³Ú©ÛĮ":8065,"ĠØ¨ÙĪØ³ÙĨÛĮ":8066,"ÙģØ¯Ø±Ø§Ø³ÛĮÙĪÙĨ":8067,"Ø³Ø§ÙĪÛĮ":8068,"ĠØ¬ÙĪÙĦÛĮ":8069,"ĠØ·Ø±ÙģÛĮ":8070,"ĠÙģØ¶Ø§ÙĩØ§ÛĮ":8071,"OS":8072,"ĠÙĦØ§Ø³":8073,"ĠØ§Ø±Ú¯":8074,"ĠØ·Ø±ÙģÛĮÙĨ":8075,"ĠØ¹Ø§Ø²Ùħ":8076,"ĠÙĨØ§Ø®Ø§ÙĦ":8077,"ĠØ·Ø¨Ø±Ø³ØªØ§ÙĨ":8078,"ĠØ§Ø®ØªÙĦØ§ÙģØ§Øª":8079,"ĠÚĨÙĨØ§ÙĨÚĨÙĩ":8080,"ĠØªØ²Ø¦ÛĮÙĨ":8081,"ÙĪÙĦØ§ÛĮ":8082,"ÙĦØ§Ú¯":8083,"ĠÙħØ®Ø±ÙĪ":8084,"ĠØ¨Ø±ÙĩÙħ":8085,"ĠØ¯Ø³ØªÛĮØ§Ø±":8086,"ĠÚ©Ø±ÛĮØ³ØªØ§ÙĦ":8087,"ĠÙħØ±Ø§ØªØ¨":8088,"ÚĺÙĪ":8089,"ĠØ³Ø§Ø®ØªØ§Ø±ÙĩØ§ÛĮ":8090,"ĠØ¨Ø§Ø±Øª":8091,"ĠØ¯ÙĪØ±ÛĮ":8092,"ord":8093,"ĠØ§ÙģØ³Ø±Ø§ÙĨ":8094,"ĠØ¨Ø²Ø±Ú¯Ø³Ø§ÙĦØ§ÙĨ":8095,"ĠÙħÚ¯Ø±":8096,"ĠØ¯Ø±Ø¬":8097,"ĠÙĦÙĪØª":8098,"ĠØµØ§Ùģ":8099,"ĠÚ©ÙĨØ³ØªØ§ÙĨ":8100,"ĠÛ·Û²":8101,"ĠØ³Ø¨Ø²ÛĮ":8102,"ĠØ§Ø¹ØªØ±Ø§Ùģ":8103,"ure":8104,"ĠØ³Ø¹Ø¯ÛĮ":8105,"ĠØ¬Ø§ÙĨØ´ÛĮÙĨÛĮ":8106,"ØŃÙĦ":8107,"ĠÙħØ§ÙĨØ¯ÙĨ":8108,"ĠØ§ÙģÙĤÛĮ":8109,"Û³Û³Û":8110,"Ø´ØªØ±":8111,"ĠØŃÚ©ÛĮÙħ":8112,"IS":8113,"ØªØ§ÙĦ":8114,"Ú¯Ø±Ø§Ùģ":8115,"ĠÙĤØ²Ø§ÙĤØ³ØªØ§ÙĨ":8116,"ĠØ¨Ø¨Ø±Ø¯":8117,"ĠØ´Ø§ÙĨØ²Ø¯Ùĩ":8118,"ÙĪØ¯ÙĪ":8119,"ĠÛ´Û¹":8120,"ĠØªÙĪÙĨÙĦ":8121,"ĠÙħØ¹Øµ":8122,"ĠÛĮØ§Ø±Ø§ÙĨ":8123,"ĠØ¢Ø«Ø§Ø±Ø´":8124,"ĠØ§Ø¨Ø±ÛĮØ´Ùħ":8125,"Ø³ÛĮÙĩ":8126,"Ø³Ø§Ø¨":8127,"Ø³Ø§ÛĮÛĮ":8128,"ĠÙħØªÙĤØ§Ø¨ÙĦ":8129,"ÛĮÚ©Ø±":8130,"ĠØ¨Ø§Ø±Ø´":8131,"ÛĮØªÙĪÙĨ":8132,"ĠÙĨØ§ÙĤ":8133,"Ø¬ÙĪØ±":8134,"ĠØ·ÙĪØ§ÛĮ":8135,"ĠØŃÙĪØ¶Ùĩ":8136,"ĠØµÙĨØ¯ÙĦÛĮ":8137,"ĠØ³Ø§ÙĤÙĩ":8138,"ĠØ¢Ø³ÛĮØ§Ø¨":8139,"ĠØ´ÙĨØ§ÙĪØ±":8140,"ÙĪØ§Øª":8141,"ÙģÙĪØ±Øª":8142,"ĠØ¯ÛĮÙĪ":8143,"ĠÙħØŃÚ©Ùħ":8144,"ĠÚ©Ø±ÙĪØ§Ø³ÛĮ":8145,"ÛĮØ¹ÙĨÛĮ":8146,"Ú©ÙĪØª":8147,"ĠØ¬ÙħØ§Ø¹Øª":8148,"ĠØªØ§Ø±ÛĮØ®ÚĨÙĩ":8149,"ĠÙĪØ¹Ø¯Ùĩ":8150,"ĠÛĮÙĪÚ©":8151,"ĠÛ±Û¹Û³Û´":8152,"ĠØ³ÛĮØ²Ø¯ÙĩÙħ":8153,"ĠØ²Ø§Ú¯Ø±":8154,"ĠØ¬Ø¨Ø±":8155,"ĠØµÙĪÙħ":8156,"ĠØ¨Ø§Ø±Ø²":8157,"ĠØ±ÛĮÙĩ":8158,"Ø¢ÙĨØ¬":8159,"ĠÙĨØ¸Ø±Ø§Øª":8160,"ĠÙħÙĨØªØ®":8161,"ĠØ§ÙĨÚ¯ÙĪØ±":8162,"ĠØ¢ØºØ§Ø²ÛĮÙĨ":8163,"ÙħÙĩØ¯ÛĮ":8164,"ĠØ®ÛĮØ§ÙĦÛĮ":8165,"ĠÙĩÙĨØ¯Ø³ÛĮ":8166,"ĠØ´Ø¹Ø±ÛĮ":8167,"ĠØªØ²ÛĮ":8168,"ÛĮÚ©Ø§ÙĦ":8169,"ĠÚ¯ÙĪØ³Ùģ":8170,"ĠØ§ÙĦÛĮØ§Ùģ":8171,"ĠØ¬ÙĦØ³Ø§Øª":8172,"Ú©Ø§ÙĨÛĮ":8173,"Ù¾Ø§ÛĮØ§ÙĨ":8174,"ĠØªØ§Ø±ÛĮÚ©ÛĮ":8175,"ĠÚ©Ø´ÛĮØ´":8176,"ÙĨØ§ÙĪ":8177,"Ø§ÙĪØ±Ø¯Ùĩ":8178,"iss":8179,"Ø´Ø±Ú©Øª":8180,"ĠÙģØ³Ùģ":8181,"ĠÚ©Ø§ÙĦØ§ÙĩØ§ÛĮ":8182,"Ø§Ø´Ø§Ùĩ":8183,"lar":8184,"ÙĪØ®":8185,"ĠÙħØªÙģÙĤ":8186,"ĠØ¯Ø§Ø¹":8187,"ĠÙĩØ±Ø²":8188,"ĠØ§ÙģØ²ÙĪÙĨ":8189,"ĠÙģØ±ÙĪØ®ØªÙĩ":8190,"ĠØ±ÙħØ¶Ø§ÙĨ":8191,"ĠÙĪÛĮÙĦÛĮØ§ÙħØ²":8192,"ĠÙħÙĪØ¯":8193,"ĠØ§ÙģØªØ®Ø§Ø±ÛĮ":8194,"ÛĮØ¯ÙĩØ§ÛĮ":8195,"ĠØ¨Ø±Ú¯Ø²ÛĮØ¯":8196,"ĠÚ©Ø³Ø±":8197,"ĠØµÙĪÙģÛĮ":8198,"Û´Û±":8199,"Ø§ØºÙĦ":8200,"ĠØ³Ø§Ø¯Ø§Øª":8201,"ĠÛ±Û¹Û²Û¹":8202,"Ø¶Ø§ÛĮÛĮ":8203,"ÙĪØ·ÛĮ":8204,"ĠÛĮØ§Ø¯Ø¨ÙĪØ¯":8205,"ĠØ¨Ø§ØªØ±ÛĮ":8206,"ĠØ¢ÙħÙĦ":8207,"ĠØ¯Ø§ÙĪØ·ÙĦØ¨":8208,"ĠØ³ÛĮØ²Ø¯Ùĩ":8209,"ĠØªÙĤØ¯ÛĮØ±":8210,"ĠÙħÙħÙĦ":8211,"ĠÙħÙĪØ¨":8212,"ĠØ§Ù¾Ø±Ø§":8213,"ĠÙħÙĨØ§Ø·ÙĤÛĮ":8214,"ĠØ²Ø¯ÙĨØ¯":8215,"14":8216,"ĠÙĨÙĪØ¢ÙĪØ±ÛĮ":8217,"Ø§Ø³ØªÛĮØ´ÙĨ":8218,"Ø¨Ø±ØªÙĪ":8219,"ĠÙħØ±Ø·ÙĪØ¨":8220,"ĠÙģÙĤÛĮØ±":8221,"ĠØ¬Øª":8222,"ĠØ¹ÛĮ":8223,"ĠÙĨÙĩÙĨÚ¯":8224,"ĠØªØ±Ø§ÙħÙ¾":8225,"ĠØ³Ø±Ø§":8226,"ĠÙĨÙĪØ³Ø§ÙĨ":8227,"ĠØªØ§Ø«ÛĮØ±":8228,"ĠÙħÛĮØ¯Ø§ÙĨÛĮ":8229,"ĠØ±ÙĪÛĮÙĩ":8230,"ĠÙħÙĪØ³Ø³Ùĩ":8231,"ĠÚ©Ø§ÛĮ":8232,"ass":8233,"ĠÙ¾ÙĪØ±ÙĨÙĪÚ¯Ø±Ø§ÙģÛĮ":8234,"ÙĪØ§Ø¯ÙĪØ±":8235,"ÙģØ³ÛĮ":8236,"ĠØªØ±Ø³ÛĮÙħ":8237,"Ù¾Ø±ÛĮ":8238,"ĠÙĩØ¯ÛĮÙĩ":8239,"ÙħÙĪÙĨØ¯":8240,"ÚĨÚ©":8241,"ĠÚ¯Ø³ØªØ±Ùĩ":8242,"ĠÙĨØµÛĮ":8243,"ĠØ¹Ø§ÙħÙĩ":8244,"ÙħØ±Øº":8245,"ack":8246,"ĠÙħØ³Ø¦ÙĪÙĦØ§ÙĨ":8247,"ĠÙĤØ§ÙĩØ±Ùĩ":8248,"ĠÚ©ÙĪØ¯ØªØ§ÛĮ":8249,"ĠÙĨØ¨ÙĪØ¯ÙĨØ¯":8250,"ĠØ¢ÙĦØ¨Ø±Øª":8251,"Ġhttps":8252,"ĠÙħØ²Ø¨ÙĪØ±":8253,"Ø¹Ø²":8254,"ĠØ¯ÙĪØ³ØªØ§ÙĨÙĩ":8255,"ĠÙĨØ§ÙĪÚ¯Ø§ÙĨ":8256,"ĠÙħÙĦØ§ØŃØ¸Ùĩ":8257,"ĠØ·ÙĦØ§ÙĤ":8258,"ĠØ¯Ø¨ÙĦÛĮÙĪ":8259,"ĠØªÙĪØ¬ÛĮÙĩ":8260,"ĠÚ¯Ø´ÙĪØ¯":8261,"ĠØŃÚ©ÙħØª":8262,"ĠØ§ÙĩØ±":8263,"Ø±ÙĪØ³Øª":8264,"ĠØ§Ø±ÙĨ":8265,"ĠØªÙħØ§ÛĮØ²":8266,"ĠÙģÙĩØ±":8267,"ĠÙ¾ÙĪØ¯":8268,"Ø¨Ø¹Ø¯":8269,"ĠØ§ÙĪØ±Ú¯ÙĨ":8270,"ØªÙĪØ³":8271,"ĠØ®ØªÙħ":8272,"ĠØªØ®ØµØµ":8273,"ĠÙħÙĨØ³ÙĪØ¨":8274,"ĠØ¬ÙĦÚ¯Ùĩ":8275,"ith":8276,"ÙĪÙĦÙĪÚĺÛĮÚ©":8277,"ĠÙħÛĮØ²Ø¨Ø§ÙĨÛĮ":8278,"ĠÙħÙĨØ¸ÙĪÙħÙĩ":8279,"ĠÙĦÙĪÛĮ":8280,"ĠÚ©Ø§Ø±ÙħÙĨØ¯":8281,"ĠØ¢ÙĦÙģØ§":8282,"ĠÚ©ÛĮÙĦÙĪ":8283,"Ø®ÙĪØ´":8284,"Ø³ÙĦØ·Ø§ÙĨ":8285,"ĠØŃØµØ§Ø±":8286,"Ø§Ø±ÛĮÙĩ":8287,"Û´Û¸":8288,"ĠØªÚ©Ø«ÛĮØ±":8289,"ĠØ³Ù¾Ø±Ø¯":8290,"ØªØ§ÙĪÙĨ":8291,"ĠÛµÛ±":8292,"ĠØ§ÙĦÚ©ØªØ±ÙĪÙħ":8293,"ĠÙħØªÙĨØ§Ø³Ø¨":8294,"ĠØ§ÙĨØ¹Ø·Ø§Ùģ":8295,"lin":8296,"ÙģØ´Ø§ÙĨ":8297,"ĠÛ±Û¹Û³Û²":8298,"ĠÙħÙĪØ±ÛĮ":8299,"ĠØªÛĮØ²":8300,"ĠÙĨÙĩØµØ¯":8301,"ĠÙĪØ±ÙĤ":8302,"ĠÙ¾Ø®Øª":8303,"ĠØ¬Ø§Ø¨Ùĩ":8304,"ĠÛĮØ§Ø®ØªÙĩ":8305,"Ø§Ø¦ÛĮÙĦÛĮ":8306,"ĠÙĪÙĨÛĮØ²":8307,"ĠØ§Ø³Ø§Ø·ÛĮØ±":8308,"ĠØ¨Ø§Ùĩ":8309,"Ø®ÙĪÙĨ":8310,"ĠØ³ÙĪØ®ØªÙĩ":8311,"ĠÛ±Û³Û·Û°":8312,"ĠÚ¯ÛĮØ±ÙĨØ¯":8313,"50":8314,"ĠÙħØ¹Ø§Ø¯ÙĦØ§Øª":8315,"ĠÙĤØ´ÙĦØ§ÙĤ":8316,"Ø§Ø´ÙĨØ§Ø³ÛĮ":8317,"ĠÙħØ±Ø³ÙĪÙħ":8318,"ĠØ¢Ø±Ø§ÙħÛĮ":8319,"Ú¯ÙģØªÙĨØ¯":8320,"ĠÙģÛĮØ²ÛĮ":8321,"ĠØ§ÙĦÚ©":8322,"Ú©ÙĦÙħ":8323,"ĠØ´ÙĩØ±Ø¯Ø§Ø±":8324,"ĠÙĩØ§ÙĦÛĮÙĪÙĪØ¯":8325,"ĠØ¨ÙĩÙħ":8326,"ĠØ«Ø§ÙĨ":8327,"ĠÙĨØ§Ø´ÙĨØ§Ø®ØªÙĩ":8328,"Ø±Ø¦":8329,"ĠÙĤÙĪØ§Ø¹":8330,"ĠØ²Ùĩ":8331,"are":8332,"Ú©ÙĪØ´":8333,"ĠØ§Ø±Ú¯Ø§ÙĨ":8334,"ĠØ®ÙĪØ¯ÙħØ®ØªØ§Ø±":8335,"ÙģÛĮØ±":8336,"ĠØ§Ø³ØªÛĮÙĦ":8337,"ĠØ¬ÙĨØ§ÛĮÛĮ":8338,"ĠÙĦÙĪÙ¾":8339,"ÙĨÙĩØ§":8340,"ĠØªØ±Ø§ÙģÛĮÚ©":8341,"ĠØ¢Ø±Ø³ÙĨ":8342,"ĠØ¯Ø§ÙĪØ±Ø§ÙĨ":8343,"ĠÙģØ±Ø§Ø®ÙĪØ§ÙĨ":8344,"ĠØ¬Ø¨Ø±Ø§ÙĨ":8345,"ĠØ¨Ø§Ø²ÙħØ§ÙĨØ¯":8346,"ĠØ§Ø¹ØªØ¨":8347,"ĠÛ·Û°Û°":8348,"ĠØ³Ø±Ø¯Ø¨ÛĮØ±":8349,"ĠØ§ÙĨØªØ¸Ø§ÙħÛĮ":8350,"Ú¯ÙĦÛĮ":8351,"Ø§Ø¯ÛĮÙħ":8352,"ÙĦÙĪØ§ÙĨ":8353,"ĠÛ±Û³Û¸Û±":8354,"age":8355,"ĠÚ¯Ø±ÙħØ³ÛĮØ±ÛĮ":8356,"Ú¯Ø§Ø³":8357,"Ø®Ø§ÙĦ":8358,"ĠØ§ÙĪÙħ":8359,"ĠØ¢ÙĨØ§":8360,"17":8361,"Ø§ÙĦÙĪÚ¯":8362,"ĠÙ¾ÙĦÛĮÙħØ±":8363,"ĠÙģØ¶ÙĦ":8364,"ĠÚ¯Ø±ÛĮØ®Øª":8365,"ĠØ¨Ø±Ø§Ø¨Ø±ÛĮ":8366,"ĠÙĩÙħØ§ÛĮØ´":8367,"ath":8368,"ĠØ®ØµÙĪØµØ§":8369,"Ø±ÛĮØ²Ø¯":8370,"Ø§Ú¯ÙĨ":8371,"ĠØ±Ø³Ø§ÙĨØ¯ÙĨ":8372,"ry":8373,"ĠØªÙĦÙĩ":8374,"Ø§ÙħÙĪ":8375,"ĠØ²ÙĩØ±Ø§":8376,"ĠØ¯Ø§Ø±Ùħ":8377,"ÙĨÙĪØ§Ø®Øª":8378,"erv":8379,"Ġ10":8380,"ĠÙħÙģÙĩÙĪÙħÛĮ":8381,"ĠØ³Ø§ÙĨØ¯":8382,"ĠØ§Ø¨ÙĪØ§ÙĦØŃØ³ÙĨ":8383,"ĠÙ¾ÙĪÙĨØ¯":8384,"ÙĪÛĮÚĺÙĨ":8385,"ĠØ¨Ø±ÙĤÛĮ":8386,"ĠÚ©Ø´ÙĪØ±ÙĩØ§ÛĮÛĮ":8387,"Ø³ÙĪØ²ÛĮ":8388,"ĠÚ©ÙĪØ²":8389,"ĠØªØºÛĮÛĮØ±Ø§ØªÛĮ":8390,"ĠÙĩÙĪØ±ÙħÙĪÙĨ":8391,"ĠÛµÛ³":8392,"ĠÙĥÙĩ":8393,"ĠÙĨÙħÙĪØ¯ÙĨ":8394,"ĠØ³Ø¯ÛĮÙħ":8395,"ĠÙĨØ§ÚĨØ§Ø±":8396,"oh":8397,"ss":8398,"ĠØ®Ø´ÙĨ":8399,"Ø¢ÙħÙĪØ®ØªÙĩ":8400,"ĠØ²ÙĪØ¯ÛĮ":8401,"ĠÙħÙĨÙĪÚĨÙĩØ±":8402,"Ø§Ú¯ÛĮØ±":8403,"ĠØ¯Ø§ÙĪÙĪØ¯":8404,"ĠÙħØ±Ø§Ø¬Ø¹":8405,"Ø±Ø¯Ø§Ùħ":8406,"ĠØªÙģØ±ÛĮØŃÛĮ":8407,"ĠØ§Ø¨ØªÙĦØ§":8408,"ĠØ·ÙĪØ§ÛĮÙģ":8409,"ĠØªØ§Ø³":8410,"ĠØ±ØµØ¯":8411,"ĠØŃÙĪØ¶":8412,"ĠØ¨Ø§ÛĮØ³ØªÛĮ":8413,"ĠØ¢ÙĩÙĨÚ¯Ø³Ø§Ø²ÛĮ":8414,"ĠØ±ÙĪØ´ÙĨØ§ÛĮÛĮ":8415,"ÛĮØ¯Ø±":8416,"ĠØªÙĪÙĨÛĮ":8417,"ĠØ§Ø´Ø±Ùģ":8418,"ue":8419,"ĠØ¨Ø§Ø´ÛĮÙħ":8420,"ĠÚ©Ø±Øª":8421,"Ø®ÙĪØ§ÙĩÙĨØ¯":8422,"ÙĨØ¨Ø±Ú¯":8423,"ĠØªØ£Ø®ÛĮØ±":8424,"ĠÙħÙĨÙĤ":8425,"Ø§Ø·Ùĩ":8426,"ĠØ¨Ø³Ø·":8427,"ØªÛĮØ§ÙĨ":8428,"ial":8429,"ØŃØ§ÙĤ":8430,"ĠØ²ØºØ§ÙĦ":8431,"ĠØ¨ÙĤØ¹Ùĩ":8432,"ĠÙħØ´Ø§ÙĪØ±Ùĩ":8433,"ĠØ¹Ø§Ø¯ÙĦ":8434,"ĠØ§Ø³Ú©ÛĮ":8435,"ĠØ´Ø¹Ø§Ø¹":8436,"Ù¾ÙĪØ±Øª":8437,"ĠÙħØ´Ø±ÙĤ":8438,"ĠØ±ÙĪØŃÛĮ":8439,"ØªØ¹":8440,"ÙĨÚ¯Ø±ÛĮ":8441,"ÙĪÛĮØ¶":8442,"ĠØ¢Ø¨ÛĮØ§Ø±ÛĮ":8443,"ĠØ¯Ø´ØªÛĮ":8444,"ĠÙħÛĮÚ©ÙĨØ¯":8445,"ĠØ®Ø·Ø§":8446,"ĠØºÙĦØ¨Ùĩ":8447,"ÙħÛĮØ¯":8448,"ĠØ´ÙĩØ±Ú©ÛĮ":8449,"ĠÛ±Û±Ûµ":8450,"ĠØ³ÙĦØ¬ÙĪÙĤÛĮØ§ÙĨ":8451,"ĠÙĨØ§ÙħØ²Ø¯ÛĮ":8452,"ÙħØ§Ùħ":8453,"ÙĤÙĪÙĩ":8454,"ĠØ¨Ø§ÙĤØ±":8455,"ĠØµÙģÛĮ":8456,"Û´Û³":8457,"ĠØ§ØµÛĮÙĦ":8458,"ĠÛµÛ¸":8459,"ĠÙħØ²Ø§ÛĮØ§ÛĮ":8460,"Ø·Ø§ÙĨÛĮ":8461,"ĠÙħÙĪØ³ÛĮÙĤ":8462,"ĠÛĮÙĪØ±Ø´":8463,"ĠÛ±Û²Ûµ":8464,"ĠØ§Ø³ØªØ±Ø§ØŃØª":8465,"ĠØ§Ø³ØªØ§ÙĨÛĮ":8466,"ĠØ´Ø®ØµÛĮØªÛĮ":8467,"ĠØºØ°Ø§ÙĩØ§ÛĮ":8468,"ĠØ³Ø§Ú©ÙĨÛĮÙĨ":8469,"ka":8470,"ĠØºÙĪÙĦ":8471,"ÙĨØ®":8472,"ĠÙĤØ§ØªÙĦ":8473,"ĠØ§ØŃÚ©Ø§Ùħ":8474,"ÙħØŃÙĪØ±":8475,"ĠØµØ±ÙģÙĩ":8476,"Ø§ÙĩÙĨ":8477,"ĠÛ¶Û²":8478,"ĠØªØ¨Ø±ÛĮØ²ÛĮ":8479,"ĠØ§ØªÙģØ§ÙĤØ§Øª":8480,"ĠÙħØ²Ø¯":8481,"ĠØ¢Ø±Øª":8482,"ĠØ³Ø®ÙĨÚ¯":8483,"ĠÛ±Û¹Û²Û±":8484,"ĠØªØ¨ÙĦÛĮØºØ§ØªÛĮ":8485,"ĠÙ¾ÙĨØ¯":8486,"ĠØ¬Ø§ÙĨÛĮ":8487,"ĠØ¢ÙĦØ§Ø³Ú©Ø§":8488,"ĠØ®ÛĮØ§ÙĨØª":8489,"ĠØ³Ø®ÙĨØ§ÙĨ":8490,"ĠÛ¸Û¸":8491,"ĠØªÛĮÙĦÙĪØ±":8492,"ĠØ´ÙĪÚ©":8493,"Ù¾ÙĪ":8494,"ØºØ¯":8495,"Ø§ÙĪØ§Øª":8496,"Ú¯Ø±ÙģØªÙĨØ¯":8497,"ĠØ¢Ø±Ø¯":8498,"Ø§Ø²Ø¯":8499,"Ú¯Ø°Ø´ØªÙĩ":8500,"ĠÙĤØ¯Ø³":8501,"ĠØ¨Ø§Ø·":8502,"ÙĪÛĮÚ¯":8503,"ĠØªØ£Ø«ÛĮØ±Ø§Øª":8504,"ĠØ¯Ø±Ø³ÛĮ":8505,"ÙĨØ¸Ø§Ùħ":8506,"web":8507,"ĠÙħÛĮØªÙĪØ§ÙĨ":8508,"Ø¬Ú©":8509,"ĠÚ©Ø±Ø§Ø³":8510,"ĠØ¹ÙħØ±Ø§ÙĨ":8511,"ĠÚ¯Ø³":8512,"ta":8513,"Ø¯ÙĦÛĮÙĦ":8514,"Ġe":8515,"ĠØ¹ÛĮØ¯":8516,"Ø§Ú©Ø¨Ø±":8517,"ĠÙĨØ¯Ø±":8518,"ĠÙĨÙģØ±ÛĮ":8519,"ĠØ³ÙĨØ¬Ø´":8520,"ØºØ±Ø¨":8521,"ĠØ±Ø²Ùħ":8522,"ĠØ±ÙħØ§ÙĨÛĮ":8523,"ĠØ²ÙħØ³ØªØ§ÙĨÛĮ":8524,"ĠÛ±Û³Û·Û¶":8525,"Û±Û³Ûµ":8526,"ĠØ¢Ø¯Ø§Ø¨":8527,"),":8528,"ĠØ³ÙĩØ±":8529,"ĠØ§ÙħÛĮ":8530,"Ø±Ø²Ø§Ø¯Ùĩ":8531,"ĠÚ¯Ø§ÙĩØ´ÙħØ§Ø±ÛĮ":8532,"ĠÙ¾ÙĩÙĨØ§ÛĮ":8533,"Ø«Ùĩ":8534,"Ú¯Ø´Ø§ÛĮÛĮ":8535,"ÙĦØ³ÙĪÙĨ":8536,"Ø¯ÙĨØ¯Ùĩ":8537,"Ú©Ø§Øª":8538,"ØªØ±ÙĨ":8539,"ĠØ±Ø¨ÛĮ":8540,"ĠØªÙĪØ±Ø¨ÛĮÙĨ":8541,"ĠÚ¯Ø±ÙħØ§ÛĮÛĮ":8542,"ĠØ±Ø§Ø¬Ø¹":8543,"Ø±ÙĩØ§ÛĮ":8544,"ĠÙĨÙģÛĮ":8545,"ĠÚ¯ÙĦØ¯ÙĨ":8546,"Ġ12":8547,"Ø¨ÛĮØ§":8548,"ÙħÙĨØ¸":8549,"ĠØ±ÙĪØ¯Ø¨Ø§Ø±":8550,"ĠØ±ÙĪØŃØ§ÙĨÛĮÙĪÙĨ":8551,"ĠØ§Ø±ØªÙĤØ§Ø¡":8552,"ĠÙħØ¬ÙĦ":8553,"ĠÙħÙħÙĨÙĪ":8554,"ĠØºÛĮØ±ÙĨØ¸Ø§ÙħÛĮ":8555,"ĠÛ±Û³Û·Ûµ":8556,"ĠØ¯Ø±Ø®ØªÛĮ":8557,"ĠØ¬Ø§Ø¯ÙĪ":8558,"ĠÙĦÙĨØ²":8559,"ĠÙģØ±Ø§ÙĪØ±Ø¯Ùĩ":8560,"ĠØ·Ø¨ÙĤØ§Øª":8561,"Ø¨Ø§Ø²ÛĮÚ©ÙĨ":8562,"Ø³ÛĮØ§Ùĩ":8563,"ĠØ¹ÙĤØ§Ø¨":8564,"ĠØ§Ø¹ØµØ§Ø¨":8565,"Ú©ÙĦÙĨ":8566,"ĠÙħØ·Ø¨ÙĪØ¹":8567,"ĠØ³ÛĮÙħØ§ÛĮ":8568,"ÙĪØ±Ùħ":8569,"ÙĦÚ©":8570,"Ø¯ÙĩÛĮÙħ":8571,"ĠÛ±Û¹Û±Û´":8572,"[[":8573,"ĠØ¨Ø±Ú¯Ø±Ø¯Ø§ÙĨ":8574,"Ø³ÛĮØ³ÛĮ":8575,"ĠÙħØ±ØªÙģØ¹":8576,"ĠØ¹Ø´Ø§ÛĮØ±":8577,"ĠØ¯ÙĪÚ¯Ø§ÙĨÙĩ":8578,"ĠØªØ£Ø³ÛĮØ³Ø§Øª":8579,"ĠØ®ÙĪØ±Ø§Ú©":8580,"ĠÙħÙĪØ³Ø³Ø§Øª":8581,"ĠÙĩÙĪØ§ÙĨ":8582,"ĠÚĺØ§Ú©":8583,"ĠØ§Ø³Ù¾Ø±Ø§ÙĨ":8584,"ÙħØŃØ§ÙĦ":8585,"ÙħÙĪÙĨÛĮ":8586,"port":8587,"ĠÙģØ±Ø´ØªÙĩ":8588,"ĠØ±Ø³Ø§ÙĨÛĮ":8589,"ÙģØ¹Ø§ÙĦ":8590,"ĠÙĨØ¨Ø±Ø§Ø³Ú©Ø§":8591,"Ø§Ø±Ø¨":8592,"ĠÙħÛĮØ¯":8593,"ĠØ®Ø§ÙĪØ±ÛĮ":8594,"ĠÙĩÙħØ¨":8595,"ĠÛ±Û¹Û±Ûµ":8596,"ĠÙħØ§Ø³Øª":8597,"ĠØªØµØŃÛĮØŃ":8598,"ĠØªØµÙĨÛĮÙģ":8599,"ĠØ¨ÛĮØ§ÙĨÚ¯Ø±":8600,"ÙĪØ´ÙĨ":8601,"ĠØ¬Ø¹ÙģØ±ÛĮ":8602,"ĠÙĦÙĪØ³":8603,"ĠØ§Ø³Ú©ÙĦ":8604,"ĠØ§Ø±Ø¨Ø§Ø¨":8605,"Û´Û¹":8606,"ĠØ¹ÙĦØ§ÙħÙĩ":8607,"Û¶Û²":8608,"ĠÚ©ÙĦØ³ÛĮÙħ":8609,"ĠØ³ÙĨØ§":8610,"ĠØªØ§ÙĦØ§Ø¨":8611,"ĠØ¹Ø±ÙĪØ³":8612,"ĠÙģÙĪÚ©":8613,"ĠÙħÙĨØŃØµ":8614,"Ø¹Ø§Ùħ":8615,"ĠØ¢ÙĨØ§ÙĦÛĮØ²":8616,"ĠÙħÙĩØ¯":8617,"ÙĤØ±Ø§Ø¶":8618,"ĠØ®ÙĨØ«ÛĮ":8619,"201":8620,"ÛĮØ¹":8621,"ĠÚ¯Ø°Ø§Ø´ØªÙĨ":8622,"Ø¨ÙĪØªØ±":8623,"Ù¾Ø§ÛĮÛĮ":8624,"ĠÙĦØ§ÙħÙ¾":8625,"ĠÚ©ÙĪÛĮØ±":8626,"ĠTh":8627,"ĠØ¹Ú©Ø§Ø³":8628,"ĠØ§Ú©ØªØ´Ø§Ùģ":8629,"ĠÛ±Û¹Û³Û±":8630,"ĠÙħÙĪØ¶Ø¹":8631,"Ø³ØªÙħÛĮ":8632,"ĠÚ©Ø´ÛĮ":8633,"ĠØ±ØŃÛĮÙħ":8634,"ment":8635,"ĠØ§ÛĮÙĦÛĮ":8636,"Ø²ÛĮØ±ÛĮ":8637,"ĠÙĦÛĮÙĨØ¯":8638,"ĠÚ¯ÙĪÛĮØ§":8639,"ĠÚ¯Ø±Ø§ÛĮÛĮ":8640,"ÙħÛĮÙĨÙĩ":8641,"ĠØ§ØªÙģØ§ÙĤÛĮ":8642,"ĠÙħØ´Ø§Ø¨ÙĩÛĮ":8643,"Ø³ÙģØ§ÙĨÙĩ":8644,"ĠÙĩØ§Ù¾":8645,"ĠØªØµØ§Ø¯Ùģ":8646,"ĠØ³ÛĮØª":8647,"ÙĨØ¯ÙĩØ§":8648,"one":8649,"ĠØ¯Ø±ÙĪØ³":8650,"ĠÙħØ¹Ø§ÙĩØ¯Ùĩ":8651,"ĠØ±ÙģØªØ§Ø±ÛĮ":8652,"ĠÙ¾ÙĦØª":8653,"ĠØ²Ø§Ø±":8654,"ĠØµØ±":8655,"Ã¼":8656,"ĠÛĮÙĪØ±":8657,"ĠØ³ÙĪØ§Ø¯":8658,"ĠØ¯Ú¯Ø±Ú¯ÙĪÙĨÛĮ":8659,"ĠÙĪÙĨØ²ÙĪØ¦ÙĦØ§":8660,"ØµØ¯ÛĮ":8661,"ĠØ®ÛĮØ±ÛĮÙĩ":8662,"ĠÙģØ±Ø§ÙħÙĪØ´":8663,"ĠØ¢Ú©Ø³ÙģÙĪØ±Ø¯":8664,"ĠØ§ÙĤØªØ¨Ø§Ø³":8665,"ĠÙĩØ§Øª":8666,"ÚĨÙĨÚ¯":8667,"ĠÚ¯ÙģØªØ§Ø±":8668,"ĠØ®Ø±Ø¯Ùĩ":8669,"ĠÛ¹Û³":8670,"ÛĮØ²ÛĮØ§ÙĨØ§":8671,"ĠÙĪÛĮÙĦØ³ÙĪÙĨ":8672,"ĠÙħØ¸ÙģØ±":8673,"ĠØ§Ø³Ø§Ø±Øª":8674,"ÙĪØ¦ÛĮÙĩ":8675,"ĠÛĮØ§Ø¯Ø¯Ø§Ø´Øª":8676,"ĠÙħØ³Ø§ÙģØ±Ø§ÙĨ":8677,"ĠÙĨÙĤÙĦÛĮÙĩ":8678,"ĠØ¢ÙĦÙģØ±Ø¯":8679,"ore":8680,"ĠØ±ÙģØªØ§Ø±ÙĩØ§ÛĮ":8681,"ĠÛ±Û¹Û²Û¸":8682,"ĠÙħØ²ÛĮØª":8683,"ĠØ¯Ø§Ø¹Ø´":8684,"ÙĪÙĨÙĪ":8685,"ĠÙħÙĨØ§Ø²":8686,"ĠÚ©ÙĨÙħ":8687,"ĠÙ¾ÙĦØ§Ø³ØªÛĮÚ©":8688,"ÛµÛ°Û°":8689,"Û·Û²":8690,"Û³Û¹Û":8691,"ĠÙĪØ§ÚĺÚ¯Ø§ÙĨ":8692,"ÙĨÙĩØ§ÛĮØª":8693,"ĠØ¢ÛĮØ§Øª":8694,"ĠÛĮÚ©Ø¨Ø§Ø±":8695,"ĠÙĨØ³Ø¨":8696,"ĠØªØ±Ú©ÙħÙĨ":8697,"ĠØ±Ø§Ø¨ÛĮÙĨ":8698,"ØªÙĪØ§ÙĨØ³ØªÙĨØ¯":8699,"ĠØ´Ø§ÙĨÙĩ":8700,"ĠÙĦØ´Ú©Ø±Ú©Ø´ÛĮ":8701,"ĠÙĪØ§Ù¾Ø³ÛĮÙĨ":8702,"na":8703,"ĠÙ¾ÙĪÛĮØ§":8704,"ĠÙħÙĨÙĩ":8705,"ĠÙħÙĤÛĮÙħ":8706,"Ù¾Ø±Ø³Øª":8707,"Ø¢ÙħØ¯Ùĩ":8708,"ier":8709,"ĠÛ¹Û¸":8710,"ĠÛ±Û³Û·Û¹":8711,"ĠØ¬Ø³ÙħÛĮ":8712,"ĠØªÙĩØ§Ø¬Ùħ":8713,"ĠÛĮØ§Ùħ":8714,"ind":8715,"ĠØ®Ø¨Ø±ÙĨÚ¯Ø§Ø±":8716,"ĠÙģØ¶Ø§Ù¾ÛĮÙħ":8717,"ĠÙħØ¯Ø§Ø®":8718,"ĠØ§ÙĪÙĦÙĪÛĮØª":8719,"ĠÙĨØ¯Ø§Ø¯":8720,"ĠÙĨØ§Ø¯Ø±Ø³Øª":8721,"ĠØºÙħ":8722,"ĠØ³ÙĦØ§ÙħØªÛĮ":8723,"Ø´ÙĨØ§Ø³ÙĨØ¯":8724,"ĠØµÙĦÛĮØ¨":8725,"ĠØ´Ø¯ÛĮØ¯ÛĮ":8726,"ĠØŃÛĮØ§ØªÛĮ":8727,"ĠØ§Ø¨ÙĪØ§ÙĦÙĤØ§Ø³Ùħ":8728,"ĠØ±Ø¨Ø§Øª":8729,"ĠÙģØ±Ø§Ø±ÛĮ":8730,"ĠÙħØ§ÙĪØ±":8731,"ĠÙĪØ§Ø¶":8732,"ĠØ´Ø§Ø¯ÛĮ":8733,"ĠØ·Ø§ÙĦØ¨Ø§ÙĨ":8734,"ĠÚ©ÙĨÙĪØ§ÙĨ":8735,"ĠØ±Ø§ÙĨÙĨØ¯Ú¯ÛĮ":8736,"ĠØ¨Ø§ÙĨÙĪØ§ÙĨ":8737,"ĠØ¹Ø±ÙĪØ³ÛĮ":8738,"ĠTr":8739,"Û·Û¸":8740,"ĠØ°ÛĮ":8741,"ĠÙĦØ±ÛĮ":8742,"ĠØ´ÙħØ±Ø¯Ùĩ":8743,"ĠØ³Ø§ÙĦÛĮØ§ÙĨÙĩ":8744,"ĠØ´ÙĨØ§":8745,"ĠÚ¯ÙģØªÙĨØ¯":8746,"ĠØ¨ØŃØ±Ø§ÙĨÛĮ":8747,"ĠØ¢Ø²ÙħØ§ÛĮØ´ÛĮ":8748,"ĠÙĩØ§Ø±ÙĪØ§Ø±Ø¯":8749,"ĠØ§Ø±Ø²Ø´ÙħÙĨØ¯":8750,"ĠØ§Ø¹ØªØµØ§Ø¨":8751,"Ú¯ÙĪØ¯":8752,"Ø§ÙĨØ¯Ø§Ø±":8753,"ĠÙĤØ±Ø¨Ø§ÙĨÛĮØ§ÙĨ":8754,"Äģ":8755,"Ú¯Ø§Ø±Øª":8756,"ĠÙĤÙĪÚĨ":8757,"ĠÚĨÙĩØ§Ø±ÙħØŃØ§ÙĦ":8758,"ĠÙĨØ§Ú¯ÙĩØ§ÙĨ":8759,"ĠÙĩÙģØ¯ÙĩÙħ":8760,"Ø³ÙĪØ²":8761,"ĠÙĩØ§Ø±Øª":8762,"ĠØ¢ÙĨÚ¯":8763,"ĠØ¹ÙĦÙģ":8764,"ĠÚ©ÙĪÛĮÙĨ":8765,"ĠÙ¾Ø±Ø¯ÛĮØ³":8766,"Û±Û¹Û²":8767,"ĠÚ¯ÙĪØ§Ùĩ":8768,"ĠÙĨÙĪØ±Ø«":8769,"ĠØ®ÙĪØ§Ø±Ø²Ùħ":8770,"ĠØ¨Ø§Ø±Ø¯Ø§Ø±ÛĮ":8771,"ĠÚ©ÛĮØ±":8772,"ĠÙģØ®Ø±":8773,"Ø³ÙģÛĮØ¯":8774,"ĠÙħÙĪØ±ÛĮØ³":8775,"ĠÙĤØ±ÛĮØ¨":8776,"ĠÙģÙĦØ§Øª":8777,"ĠØ¹Ø±ÙģØ§ÙĨ":8778,"ĠØªÙĤØ§Ø¶Ø§":8779,"ĠÙĨÚĺØ§Ø¯ÛĮ":8780,"Ġi":8781,"ĠÙ¾ÛĮØ´Ùĩ":8782,"ØªÙĪØ§ÙĨÛĮ":8783,"ĠØµÙĪÙħØ¹Ùĩ":8784,"ĠØ±ÙĪØ§ÙĨØ´ÙĨØ§Ø³ÛĮ":8785,"ÙĪØªØ³":8786,"ĠØºØ²":8787,"ĠÙħÙĨØªØ®Ø¨":8788,"ÙĤØ§ÙĨÛĮ":8789,"ĠØ§Ø²Ø¬ÙħÙĦÙĩ":8790,"ĠÙħØ¬Ø±ÙĪØŃ":8791,"ĠÙģÛĮØ´":8792,"ÚĨÙĨØ§ÙĨ":8793,"ĠØ§ÙĨØ¯ÛĮØ´":8794,"ld":8795,"Ú©Ø§Ø³":8796,"ĠØ¨Ø±ØªØ±ÛĮÙĨ":8797,"Û¶Û±":8798,"ĠÚ©ÙĨÙĪØ§ÙĨØ³ÛĮÙĪÙĨ":8799,"Ø±Ø§ÙĦ":8800,"ĠØªØ¨Ø±":8801,"ional":8802,"Ø©Ø§ÙĦ":8803,"Ø²Ø§Ø¯Ú¯Ø§ÙĨ":8804,"ĠØ´Ø±ÛĮÚ©":8805,"Ø§Ø±ÛĮØ§":8806,"ĠØªÙĪÙĤÛĮ":8807,"ĠØ§Ø³Ø±Ø§Ø¦ÛĮÙĦÛĮ":8808,"ĠÙ¾Ø§Ø´Ø§":8809,"ĠÙħØªÙģÙĤÛĮÙĨ":8810,"ĠØ¨Ø·":8811,"ĠØ¬ÙĪÙĨÛĮ":8812,"ĠØŃØ§ÙħÛĮØ§ÙĨ":8813,"ÙĦÛĮÙĤ":8814,"ĠØŃÚ©Ø§ÛĮØª":8815,"Û¸Û±Û":8816,"ĠÙħØ¨Ø¯Ø£":8817,"ĠÙĨÙĪØ±Ø¯":8818,"ÙĪÙĨØ¯Ø§":8819,"ĠÛ±Û¹Û²Û´":8820,"ĠØ±Ø§ÛĮØª":8821,"ÙģØ±ÙĩÙĨÚ¯":8822,"ĠØ§ÙĦØ³":8823,"ĠØªØ¹Ø¨ÛĮØ±":8824,"ĠÙħØ³ÛĮØ±ÙĩØ§ÛĮ":8825,"ÛĮÙĨØ³":8826,"Ú©Ø¯Ø§Ùħ":8827,"ĠØ¹Ø§ÛĮÙĤ":8828,"ĠÙģØ±Ø§ÙĨØ³ÛĮØ³":8829,"amp":8830,"ĠØ¨Ø§Ø±Ø³ÙĦÙĪÙĨØ§":8831,"ĠÙħØ´Ø±ÙĪØ·":8832,"ĠØ´Ø§ÙĨØ³":8833,"ĠØŃØ§Ú©ÛĮ":8834,"Ø§ÙĦÛĮØ§ÛĮ":8835,"},":8836,"ĠÙĦÙĨÛĮÙĨ":8837,"ĠØ³Ø±ÙĩÙĨÚ¯":8838,"ĠØ¯Ø§Ø±Ø§ÙĦ":8839,"ÛĮØ³ÙĪÙĨ":8840,"ĠÚ©ÙħØ¨Ø±ÛĮØ¬":8841,"ĠÚ©ÙģØ´":8842,"ï»":8843,"ĠÙħØ³ÛĮØ±ÛĮ":8844,"ĠÚ©Ø±ÙĪØ²":8845,"ĠÙĪØ§ÙĦØªØ±":8846,"ĠØ§ÙĦÙħØ§Ø³":8847,"ĠÙĦÙĪØ¦ÛĮØ²ÛĮØ§ÙĨØ§":8848,"________":8849,"ĠØ´Ø§ÙĦ":8850,"ĠØºØ²ÙĦ":8851,"ĠØ§Ø³ØªÙĪØ¯ÛĮÙĪÛĮÛĮ":8852,"ĠÚ©Ø§Ø±Ø§Ú©ØªØ±":8853,"ĠÙ¾Ø§ÙĨØ²Ø¯ÙĩÙħ":8854,"Ø±ÙĪØª":8855,"ĠÙĨÙĪØ§Ø®ØªÙĨ":8856,"ĠØ¨ÙĦÙĪØ§Ø±":8857,"Õ¡Õ":8858,"ĠÙĩÙħØ§ÛĮÙĪÙĨ":8859,"ĠÚ©Ø§Ø±Ú¯Ø±ÛĮ":8860,"ĠÙħØ±ÙħØª":8861,"ĠÛ±Û³Û·Û¸":8862,"ĠØŃØ§Ø¦":8863,"ĠØ·ÙĪÙģØ§ÙĨ":8864,"Ø¢Øº":8865,"Ø¯Ø§Ø³ØªØ§ÙĨ":8866,"ĠÙĪØ·ÙĨ":8867,"ĠØ³Ø§Ø¨":8868,"ĠØ¨Ø±Ø¢ÙĪØ±Ø¯Ùĩ":8869,"Ø§Ø±ÛĮØ¯":8870,"ĠÙ¾Ø±Ø´":8871,"ØªÙĪÙĦÛĮØ¯":8872,"ĠÙĤÙĪØ§Ø¹Ø¯":8873,"ĠÙħÛĮÚ©Ø±":8874,"ÛĮØ¯ÙĨÛĮ":8875,"Ġfor":8876,"ĠÙ¾ÛĮÙĦ":8877,"ĠÙħØ¬ÙĦØ§Øª":8878,"ĠÙĨØ´Ø§ÙĨÚ¯Ø±":8879,"ÙħØ±Ø§ÙĨÛĮ":8880,"ĠÙĦÛĮÙĨÙĪÚ©Ø³":8881,"ĠÙħØ³Ø§ÙģØ±Ø¨Ø±ÛĮ":8882,"ĠØ¨ÙħØ¨Ø§Ø±Ø§ÙĨ":8883,"ĠÙĨÛĮÙĪØ²ÛĮÙĦÙĨØ¯":8884,"Ø§ÙĨÛĮØª":8885,"ĠØ³ÙĨØ¯Ø±Ùħ":8886,"ĠÙĦØ§ÛĮØŃÙĩ":8887,"ĠØªØ§Ø²Ú¯ÛĮ":8888,"ĠÙħÛĮÙĦÙĩ":8889,"ĠØ±ÛĮØ®Øª":8890,"ĠØ§Ø¹ÙĦØ§ÙħÛĮÙĩ":8891,"ĠØ¨Ø§Ø¯Ø§Ùħ":8892,"Ø§ÙĨØ³ÛĮ":8893,"ÛµÛ±":8894,"Û·Û±":8895,"ÙĦÛĮÙħÛĮ":8896,"ĠÚ©Ø±Ø¯Ùħ":8897,"ĠØ§ØµØ±Ø§Ø±":8898,"Ú¯ÛĮØ±ÙĨØ¯Ùĩ":8899,"ĠØªØ±ÙĪØ±ÛĮØ³Ùħ":8900,"Û¶Û¸":8901,"ÛĮØ§Ø¨ÙĨØ¯":8902,"ĠÙĪØ±Ø¯":8903,"ĠÙģØ§Ú©Ø³":8904,"ĠÚ¯Ø±Ø§ÙģÛĮÚ©ÛĮ":8905,"ĠÚ©Ø¨Ø¯":8906,"Û·Û¹":8907,"ock":8908,"ĠÙĦÙĪØ³ÛĮ":8909,"ĠÙ¾Ø´ØªÙĩ":8910,"Ø§Ú©Ø±":8911,"ĠØ§Ø³ØªÛĮÙĪ":8912,"Ø¢ÙĦØ¨ÙĪÙħ":8913,"ÙĪØ¨Ùĩ":8914,"ĠØ¨ÙĨÛĮØ§ÙĨÚ¯Ø°Ø§Ø±":8915,"ĠØ´Ø¬Ø§Ø¹":8916,"Ø®ÛĮÙĦÛĮ":8917,"ĠØ¬ØºØ±Ø§ÙģÛĮØ§ÛĮ":8918,"ĠØ¢Ø¦ÛĮÙĨ":8919,"ĠØ¨ÙĪØ¯Ø§ÛĮÛĮ":8920,"ĠÙĦÙħ":8921,"Ø§Ú©Ø³ÛĮØ¯":8922,"Ø§ÙĬ":8923,"ĠÙĤØ§Ø¦ÙĦ":8924,"ÙħØªØ±ÛĮ":8925,"ĠØ§ØŃØ§Ø·Ùĩ":8926,"ĠUn":8927,"Ø¯ÙĪØ³Øª":8928,"ĠÙĪÙĨØ¯":8929,"ĠÚĨÙĨ":8930,"ĠDNA":8931,"Ø¢ÙĩÙĨÚ¯ÛĮ":8932,"ĠØ³Ø²Ø§Ø±":8933,"Ø²Ø¨ÙĪØ±Ú¯":8934,"ÙĪÚ¯ÙĪØ¦Ùĩ":8935,"ĠÙħØ¯ÛĮØ±ÛĮ":8936,"Ġy":8937,"ÙģØ±ÙĪØ´":8938,"ÙħÙĪØ³ÛĮ":8939,"ĠØŃÙĦØ§ÙĦ":8940,"ĠÚ¯ÛĮÙħ":8941,"ĠØ¨Ø§Ú©":8942,"ĠØ§ÙĪØ³":8943,"ĠÚ©ÙĦØ§Ø±Ú©":8944,"ĠØ®ÙĪØ±Ø¯Ú¯ÛĮ":8945,"ĠÙĤØ¨Ø±Ø³":8946,"ĠØºØ±ÙĤ":8947,"ÛµÛ³":8948,"ĠØªÙĨÙģØ³ÛĮ":8949,"Ù¾ÙĨØ¯":8950,"Ġ139":8951,"ĠØ¨Ú¯Ø°Ø§Ø±Ø¯":8952,"ĠØ§Ø¬Ø§Ø±Ùĩ":8953,"Ø²Ø¨ÛĮ":8954,"ĠØ¨Ø§Ø²ÙħØ§ÙĨØ¯Ùĩ":8955,"Û·Û³":8956,"ĠÛ±Û³ÛµÛ¹":8957,"ÙħØ«ÙĦ":8958,"AS":8959,"ĠØ¢ØªÙĦ":8960,"ĠÙĩÙĪÙĨ":8961,"Ø§ÙĤØ¨":8962,"ĠÚĨÙĩØ§Ø±Ø¯ÙĩÙħ":8963,"ÙĪÙģØ§":8964,"ĠÙĤØ¶Ø§ÙĪØª":8965,"ĠÙ¾Ø¯Ø±ÛĮ":8966,"ÙĪÙħÚ©":8967,"ÙģØªÚ¯ÛĮ":8968,"ĠØ³ÙĦØ¬ÙĪÙĤÛĮ":8969,"Ø¨Ø²Ø±Ú¯":8970,"ĠØ±Ø§ØŃØª":8971,"ĠØ¨Ø±Ø¢ÙħØ¯":8972,"ĠÙĨØ§ÙħØ¯Ø§Ø±":8973,"Ã¡":8974,"ĠÙĨÚ©ÙĨØ¯":8975,"ĠÚ©ÙħÚ©ÛĮ":8976,"ĠÙĦÙĪØŃ":8977,"ĠÚ©Ø±ÛĮØ³ØªÛĮÙĨ":8978,"ĠÛĮÚ¯Ø§ÙĨ":8979,"ĠÙħØ·Ùħ":8980,"ĠØ§Ø³ØªØ±Ø§ØªÚĺÛĮÚ©":8981,"ĠÚ©Ø§Ø´Øª":8982,"ĠÙĤÙĪØ±":8983,"ĠÛĮØ¹ÙĤÙĪØ¨":8984,"ĠØ§Ù¾Ø±":8985,"ĠAn":8986,"Ø¯Ø§Ø¯Ùĩ":8987,"ĠØ¯ÙĦÛĮ":8988,"âĢİ":8989,"Ø¢Ø¨ÛĮ":8990,"ĠØ¨ÛĮØ´ÛĮÙĨÙĩ":8991,"ÛĮØ¯ÙĩØ§":8992,"ĠGr":8993,"ĠÙĩØ§ÛĮÙĨ":8994,"Û°Û³Û":8995,"ĠÙ¾ÙĨØ¨Ùĩ":8996,"ĠÚ¯ÙĦÙĩ":8997,"ĠØ´ÙĨØ§Ø³ÛĮ":8998,"ĠØ§ÙĤØª":8999,"ĠÚ¯ÛĮÙĨÙĩ":9000,"ĠØ³Ø±Ø³":9001,"ĠØ±ÙĪØ³ØªØ§ÙĩØ§":9002,"ĠØ³ÙĪÚ¯":9003,"ĠØ§ÙģØ³Ø±Ø¯Ú¯ÛĮ":9004,"Ú©Ø±ÛĮÙħ":9005,"ĠØ¨ÙĩØ§ÙĨÙĩ":9006,"Ø§ÛĮØ´Ø§ÙĨ":9007,"AC":9008,"Ø¨ÙĨÛĮ":9009,"ĠØ´ÙĩØ§Ø¨":9010,"ĠÚĨÙĩØ§Ø±Ø¯Ùĩ":9011,"ĠØ¨Ø§Ø¨Ú©":9012,"act":9013,"ĠØ¨Ø±Ú©ÙĨØ§Ø±":9014,"ÙĩÙħÙĩ":9015,"ÙĨØ¯Ø¬":9016,"ĠÚ©ÙĦÙħ":9017,"ĠØ´Ú©ÙĪÙĩ":9018,"ĠØ¢ÙĦØ¨ÙĪÙħÛĮ":9019,"ÙĨÙĪÛĮØ³Ø§ÙĨ":9020,"ĠÛ±Û¹Û±Û²":9021,"Ø¹Ø§ÙĨ":9022,"ĠÙĦØ§ÙĩÛĮ":9023,"ĠØªØ¨Ø¹ÛĮ":9024,"Ø¬Ø§ÛĮØ²Ùĩ":9025,"af":9026,"ÙĦÙĪØ±":9027,"ĠØ±Ø§Ø²ÛĮ":9028,"Ø¨Ø±Ø§":9029,"ĠØ±ÛĮÙĨ":9030,"ĠØºØ±":9031,"ĠØ®ÙĪØ§ÙĩÛĮÙħ":9032,"Ù¾Ø¯ÛĮØ§":9033,".)":9034,"Ø¨Ø±ÙĨ":9035,"ĠØ§Ø±ØªÙĤØ§":9036,"ĠØ¯ÙĪØ´ÙĨØ¨Ùĩ":9037,"ÛµÛ²":9038,"ĠÙĪØ²ÙĨÙĩ":9039,"ĠØ³Ø±Ø§Ø¨":9040,"ĠØ¢Ø±Ø§ÛĮØ´":9041,"ÙĦØ§Ø·":9042,"Ø¬ÙĨØ¯":9043,"ÙĪØªÙĪÙ¾":9044,"Ø±ÙģÙĩ":9045,"ĠØŃØ¯ÙĪØ¯ÛĮ":9046,"Ø¦ÙĪÙĦ":9047,"ĠØ¨Ø§Ø´ÛĮØ¯":9048,"ĠØ§ÛĮØ±Ø¬":9049,"ĠÙħØºØ±Ø¨":9050,"ĠØ²ÙĨØ¨ÙĪØ±":9051,"Ø±Ø§Ø¯":9052,"ÛĮÙĦÙĪ":9053,"ĠØ±ÙģØ§Ùĩ":9054,"ĠÙĦÙĪÛĮÛĮ":9055,"ĠØ·Ø¨Ø±ÛĮ":9056,"ĠÂ·":9057,"ĠÚ¯ÙĪØª":9058,"ĠØ§ÙĪÚ©":9059,"ĠÚ¯Ø±ÙħØ§ÛĮ":9060,"ĠPar":9061,"ĠØªÙĤØ¯ÛĮÙħ":9062,"ĠØ§ÛĮÙħ":9063,"ĠØ§ÛĮÙĨØ¯":9064,"ĠØ¨Ø±ÙĪØ³":9065,"ĠØªÙĪØª":9066,"ĠØ³Ø±Ú¯Ø±ÙħÛĮ":9067,"ĠØ¢ÙĨØªÙĪÙĨÛĮÙĪ":9068,"au":9069,"ood":9070,"ĠØ¨ÙĩØªØ±ÛĮ":9071,"ĠØ¯ÛĮÙĪÛĮØ³":9072,"ĠØ¨Ø±Ø®ÙĪØ±Ø¯ÛĮ":9073,"ĠØ´ÙĨÛĮØ¯Ùĩ":9074,"Ø³ÙĨØ¬":9075,"ĠØªÙħÛĮØ²":9076,"ĠØ±Ø¶Ø§Ø´Ø§Ùĩ":9077,"Ø§ÙħÛĮÚ©ÛĮ":9078,"ĠØ§Ú¯":9079,"Ø«Ø±ÛĮ":9080,"Û¶Û³":9081,"ĠÙĨØ´Ø³ØªÙĩ":9082,"ĠØªØ®ØªÙĩ":9083,"ĠÙħØ®Ø§Ø¨Ø±Ø§Øª":9084,"ĠÙģÙĩ":9085,"ĠØ®ÙħÛĮØ±":9086,"ĠÙħÙĨØ¬":9087,"ĠÙĦØ§Ø±ÛĮ":9088,"ĠØ¸Ø±ÛĮÙģ":9089,"ĠØ´Ø±Ø§Ø¨":9090,"ĠØ³ÛĮÙĦÛĮÚ©":9091,"ĠØ¨Ø§Ø¨Øª":9092,"Ø³ÛĮÙĪ":9093,"ĠØ§ÙĨØ¬ÛĮÙĦ":9094,"Ø¯ÙĪÙħ":9095,"ĠÙĪÙĪ":9096,"ĠÙģØ±Ø¯Ø±ÛĮÚ©":9097,"ĠØ¬Ø§Ø³ÙĪØ³ÛĮ":9098,"ĠØ³Ø¬":9099,"ĠÛ±Û±Û²":9100,"Ø®Ø§Ø·Ø±":9101,"ĠÙĩÙħØ³Ø§ÛĮ":9102,"Ø§Ø¬Ø¹Ùĩ":9103,"ÛµÛ¸":9104,"Ú¯Ø°Ø§Ø´Øª":9105,"lat":9106,"ĠØ±ÙħØ²ÙĨÚ¯Ø§Ø±ÛĮ":9107,"ĠØ¨Ú©Ø±":9108,"Ø®Ùħ":9109,"ĠØ§ÙĦÚ¯ÙĪ":9110,"ĠÙħÙĦØŃÙĤ":9111,"ĠØ¨ÙĩØ§Ø¯Ø§Ø±":9112,"ĠÚĨØ´ÙħÚ¯ÛĮØ±ÛĮ":9113,"ĠÙĪØ¶ÙĪ":9114,"ĠÙĩØ§Ø¯":9115,"ĠÙħØºÙĦÙĪØ¨":9116,"ĠØ§Ø³ØªØ¹ÙħØ§Ø±":9117,"ĠÛ±Û³ÛµÛ¶":9118,"ĠØ¬Ø¯Ø§Ø³Ø§Ø²ÛĮ":9119,"ĠÙħØ§Ø±Ø´Ø§ÙĦ":9120,"omp":9121,"ĠÙĨØ¹ÙħØª":9122,"ys":9123,"ĠÛ¹Û±Û":9124,"ĠÛ±Û¹Û²Ûµ":9125,"ĠÙħØ§ÙĨØ¯Ú¯Ø§Ø±":9126,"ĠÙĨØ§Ø¯ÛĮ":9127,"Ø±ÛĮÙĦ":9128,"ĠÙ¾ÙĦØ§Ú©":9129,"ĠÙħØªØ£Ø³ÙģØ§ÙĨÙĩ":9130,"ĠØ¨Ø§Ø¨ÛĮ":9131,"ĠØ³ÛĮÙģ":9132,"ĠØ¬ÙĨØ¬":9133,"ĠÙ¾ÛĮØ±Ø§ÙĩÙĨ":9134,"ĠØ§ÙĦÚ©ØªØ±ÙĪÙħØºÙĨ":9135,"ĠØ¢ÙĨØªÙĨ":9136,"ĠÙħØ±Ø¨ÙĪØ·Ùĩ":9137,"ĠØ¨Ø²ÙĨØ¯":9138,"ĠÚĨØº":9139,"ĠÙ¾Ø³Ø±ÛĮ":9140,"ĠÙĩØ±Ùħ":9141,"ĠØ¨ÛĮÚ¯Ø§ÙĨÙĩ":9142,"ĠÚĺØ±ÙģØ§ÛĮ":9143,"Ø§ÙĪÙĦÛĮÙĨ":9144,"ĠØ¢ÙĨØ¯Ø±":9145,"ĠØ²Ø§Ø¦":9146,"ĠÙĦØ±Ø¯":9147,"ĠÙĩØ³ØªÙħ":9148,"ØªØ§Ø±":9149,"ĠÙĤÙĪØ³":9150,"Ú¯Ø°Ø±":9151,"Ø´Ø¯ÛĮØ¯":9152,"ĠÙĪØŃØ´":9153,"ÙħØŃÛĮ":9154,"Ø¨ÙĪØ¯ÙĨØ¯":9155,"ØªØ§Ùħ":9156,"Ø¨Ø¹Ø¯ÛĮ":9157,"ĠÙĦÙģØ¸":9158,"ĠØªÙĪÙĩ":9159,"Û°Û¹Û":9160,"ĠÛĮÛĮ":9161,"ĠØªØµÙģÛĮÙĩ":9162,"ĠØ¢ØªØ´ÙģØ´Ø§ÙĨ":9163,"ĠØªÙĨÚ©":9164,"ĠØ¢Ø±ÙħØ§ÙĨ":9165,"ĠÛ±Û±Û´":9166,"ĠÙħØŃØ§Ø³Ø¨Ø§ØªÛĮ":9167,"ĠØªÙģØ±":9168,"ĠÙħØ³Ø§ÙģØª":9169,"Ø±ÙĪÚ©":9170,"Ø¨ÛĮØ±ÛĮ":9171,"ĠØ¨Ø´Ø±ÛĮ":9172,"ĠØ¢ÙĨØ§ØªÙĪÙĦÛĮ":9173,"ĠØ³Ø§Ø±Ø§":9174,"Ø§ÙĩÙĩ":9175,"ĠØ¢Ø°Ø±ÛĮ":9176,"ĠÛĮØ²Ø¯ÛĮ":9177,"ĠØ¨ÛĮØªÛĮ":9178,"ĠÙħØ±ØŃÙĪÙħ":9179,"ĠÙĨØŃÙĪ":9180,"ĠØ§ÙĦØªÙĩØ§Ø¨":9181,"200":9182,"ĠØªØ´Ú©ÛĮÙĦØ§Øª":9183,"ĠØ³ÙĨÚ¯Ø§Ù¾ÙĪØ±":9184,"Û±Û¹Û³Û":9185,"che":9186,"ĠØ¬ÙĪØ²":9187,"ĠÙħØ´ØªÙħÙĦ":9188,"ĠÙģØ¶Ø§ÙĨÙĪØ±Ø¯":9189,"ĠØ³ÙħÙģÙĪÙĨÛĮ":9190,"ÙģÙģ":9191,"ĠØ§Ø³Ø§Øª":9192,"ĠØ§Ø±ÙĪÚ¯ÙĪØ¦Ùĩ":9193,"ĠÚ¯Ø´ØªØ§ÙĪØ±":9194,"Ø§Ø¦ÛĮØ§ÙĨ":9195,"ĠÛ±Û¹Û²Û·":9196,"ĠÚ¯Ø±Ø¯Ø´Ú¯Ø±Ø§ÙĨ":9197,"ĠÙħØ³Ùħ":9198,"ĠØŃÚ©ÙħØ±Ø§ÙĨÛĮ":9199,"Ø®ÙĪØ§ÙĨÙĨØ¯":9200,"ĠØªØŃÙĪÙĦØ§Øª":9201,"ÙħÛĮÙħÛĮ":9202,"ĠØ§ÙĨÙĤØ±Ø§Ø¶":9203,"ĠÙħØ¹Ø¯Ùĩ":9204,"ĠÙĨÛĮØ¬":9205,"ley":9206,"ĠÚ¯Ø²Ø§Ø±Ø´ÛĮ":9207,"ĠÙħÙĨØŃÙĦ":9208,"Ø³ÙĦØ§ÙĪÛĮ":9209,"ĠØ¨Ø±Ù¾Ø§ÛĮÙĩ":9210,"Ø§Ú©Ø§ÙĨ":9211,"Ø¨ÛĮÚ¯":9212,"ĠÚ¯Ø±Ø¯ÙĪ":9213,"ĠÛ±Û¹Û²Û²":9214,"ÙĩÛĮØ¯":9215,"ĠØ±ÛĮÙĪØ±":9216,"Ú©ÙħÛĮ":9217,"Ø¨ÙĪØ¬":9218,"ĠÙħÛĮØ´ÙĦ":9219,"ĠØ³ÙĪØ³":9220,"ĠØ³Ø±ÙĤØª":9221,"ĠÛ±Û±Û·":9222,"ÙĦÙĪØ¯":9223,"ĠØ§Ø¬Ø³Ø§Ùħ":9224,"ĠÛ¶Û¸":9225,"ĠÚ¯Ø±ÛĮØ²":9226,"ĠÙ¾Ø§Ø¦ÛĮÙĨ":9227,"Ø³Ø§Ø±ÛĮ":9228,"ĠØ¢Ø±Ø§ÛĮ":9229,"ĠØ¨Ø§ÙĨÚ©ÛĮ":9230,"ĠØ±ÙĪÙħÛĮØ§ÙĨ":9231,"ĠØªØŃÙĤÙĤ":9232,"ÙĪØ±ÙĩØ§":9233,"ĠØ²Ø§Ùħ":9234,"Ġ18":9235,"ĠØ¨ØµØ±ÛĮ":9236,"ÙģØ±ÙĪØ´ÛĮ":9237,"Ø¹Ø²ÛĮØ²":9238,"ÙħØ§ÛĮÙĩ":9239,"ØªÛĮÙ¾":9240,"ĠØ¨ÛĮØ§ÛĮØ¯":9241,"ĠÙħØ¯ÛĮØ±Ø¹Ø§ÙħÙĦ":9242,"ĠÙ¾ÛĮØ´ÙĨÙĩØ§Ø¯ÛĮ":9243,"Û°Û¸Û":9244,"Ø§Ø¬Ø¯":9245,"ĠÙħÙĤØª":9246,"ĠØ´ÛĮØ±ÛĮÙĨÛĮ":9247,"ĠÙĨØ§Ù¾Ø¯ÛĮØ¯":9248,"ĠØ³ÙĪØ³ÛĮØ§ÙĦÛĮØ³Øª":9249,"ĠÙģÙĩØ±Ø³ØªÛĮ":9250,"Ú©Ø±Ø¨":9251,"ÙħØ§Ø¯":9252,"ĠÛ±Û³Û·Û·":9253,"Ø³ÛĮØ³ÛĮÙ¾ÛĮ":9254,"ÛµÛ¹":9255,"Ø´ØªÛĮÙĨ":9256,"ÙĨØ¬Ø§ÙĨÛĮ":9257,"ĠÛ±Û³Û°":9258,"ĠØ¯Ú©ØªØ±Ø§":9259,"ĠÙĪØ§Ø¯Ø§Ø±":9260,"Û³Û¸Û":9261,"ÙģØ´Ø§ÙĨÛĮ":9262,"ÙħÙĪØ³":9263,"ĠÙĤÛĮØ¯":9264,"ĠØ¢ÙħÙĪØ²Ø§ÙĨ":9265,"ĠÙ¾ÙĩÙĦÙĪØ§ÙĨ":9266,"ĠØ¢Ø´ÙĪØ±ÛĮ":9267,"Ø¨ÙĪØªÛĮ":9268,"ĠÚ¯Ø°Ø±Ø§ÙĨØ¯ÙĨ":9269,"ĠØªØ´Ø¯ÛĮØ¯":9270,"ĠÙħÛĮØª":9271,"Ø§ÙĩØ§Ùħ":9272,"ĠØ³ÛĮÚ¯Ø§Ø±":9273,"Ú¯Ø±Ø¯ÛĮØ¯":9274,"ÙģÛĮÙģ":9275,"ĠØ¨ÛĮØ§ÙĪØ±Ø¯":9276,"ĠÙĨØ¯Ø±Øª":9277,"ĠÙĬ":9278,"ĠÙ¾ÙĪÛĮØ§ÙĨ":9279,"ĠØ¢ÙĦØ¨Ø§ÙĨÛĮ":9280,"ĠÛ±Û¹Û²Û³":9281,"Ø§Ø³ÛĮÙħ":9282,"ĠØ±Ø³ÙĪÙħ":9283,"ĠØªÙĪÙĤÛĮÙģ":9284,"ĠØ¨Ø±ÚĨØ³Ø¨":9285,"ĠÛ±Û¹Û°Û°":9286,"ĠÛ±Û³Û´Û°":9287,"ĠØ´Ø§ÛĮØ³ØªÙĩ":9288,")ØĽ":9289,"ĠØ³Ø§Ø®ØªÙĨØ¯":9290,"ref":9291,"Ø±ÛĮØ´ÛĮ":9292,"Ú©Ø±Ø§Øª":9293,"ÙĩØ±Ø§ÙĨÛĮ":9294,"ĠØ§ÛĮØ±ÙĦØ§ÛĮÙĨ":9295,"ĠÙĨØ¸Ø§ÙħÛĮØ§ÙĨ":9296,"Ù¾Ø¯Ø±":9297,"ĠØ¨Ø±Øª":9298,"ĠØªØµØ¯ÛĮ":9299,"ĠØ®ÙĦØ¹":9300,"Ø±ÙħØ§ÙĨ":9301,"ĠØ¨Ø§Ø²ÛĮØ§Ø¨ÛĮ":9302,"arch":9303,"ĠÙĨØ§ÙĩÙħ":9304,"Ù¾ÙĦÛĮ":9305,"ĠØ¹Ø¨Ø§Ø±ØªÛĮ":9306,"ĠÙĨØ§Ø´Ø±":9307,"ĠÚ¯Ø§Ø²ÙĩØ§ÛĮ":9308,"Â°":9309,"ØªÙĪØ¨":9310,"ĠØ¨Ø¯ÙĩÛĮ":9311,"ĠØ®ÛĮØ§Ø¨Ø§ÙĨÛĮ":9312,"ĠÙ¾Ø¯ÛĮØ¯Ø§Ø±":9313,"ĠØ¹Ø¸ÛĮÙħÛĮ":9314,"ĠÚ©ÙħÙ¾ÛĮÙĨ":9315,"ĠÙ¾Ø§Ø±ØªÛĮ":9316,"ĠÙ¾Ø¯Ø±Ø¨Ø²Ø±Ú¯":9317,"ĠØ²Ø§Ú¯Ø±Ø³":9318,"Ø®Ø³Ø±ÙĪ":9319,"Ú¯Ø±Ø¯ÛĮ":9320,"ÙĨØ¸ÛĮØ±":9321,"ĠÛĮÙĪÚ¯Ø³ÙĦØ§ÙĪÛĮ":9322,"ÛĮØ§Ø¨ÛĮ":9323,"ĠØ³ÙĪØ±ÛĮ":9324,"ĠÙħÛĮØ³ÛĮØ³ÛĮÙ¾ÛĮ":9325,"ĠÙħÙĪÙĨØªÙĩ":9326,"ĠÙħÙħØªØ§Ø²":9327,"iel":9328,"Ã¶":9329,"ĠÙĪÛĮØ²":9330,"ĠÚ©ÙĪØ¯ØªØ§":9331,"ØªØ¨ÛĮ":9332,"ĠÙħÙĨÛĮØ²":9333,"ĠÙĨÙĪØ§Ø¯Ú¯Ø§ÙĨ":9334,"ĠÛ±Û³Û¶Û¸":9335,"ĠØªØ¯Ø§Ø±Ú©":9336,"ĠÙģØ±ÙħØ§ÙĨØ±ÙĪØ§ÛĮ":9337,"ĠÙħÚ©Ø±Ø±":9338,"ĠÙĨÛĮØ¬Ø±ÛĮÙĩ":9339,"ee":9340,"ĠØŃØ´Ø±Ø§Øª":9341,"ÙħÙĦÛĮ":9342,"ĠÚ¯ÙĦØ¯":9343,"ĠØ´Ú©Ø³ØªÙĨ":9344,"ĠÙħØ§ÛĮÙĩ":9345,"ĠØ§Ø³ÙĤÙģ":9346,"ĠØªÙĨØ§Ø³":9347,"Ø±Ø³ÙħÛĮ":9348,"ÙĪØ³ÛĮØª":9349,"ĠØ¨Ø§Ø®ØªØ±ÛĮ":9350,"ÙĪØ±ÙĨØ¯":9351,"ĠÙĤØ±Øµ":9352,"ĠØ¢ÙĦØª":9353,"ĠØ³Ø§ÙĨØªØ§":9354,"ĠØ§Ø±ÙĨØ³Øª":9355,"ĠØ®ÙĦÙģ":9356,"ĠÂłĠÂłĠÂłĠÂł":9357,"Ø¯Ø§ÙĨÙĩ":9358,"ĠÙĦÙĪÙħ":9359,"ĠØ¹ÙĤØ¯":9360,"ĠØ¨Ú©Ø´Ø¯":9361,"ĠÚ©ÙĦÙĩ":9362,"ĠÙģØµÙĦÛĮ":9363,"ĠØ§Ø¨Ø²Ø§Ø±ÛĮ":9364,"Ù¾ÙĪØ³ØªØ§ÙĨ":9365,"ØªØ±ÙĪÙĨ":9366,"ĠØ¢Ø³ÙħØ§ÙĨÛĮ":9367,"ĠÙĪÙģØ§Øª":9368,"ÙħØ¯Ø±":9369,"ĠØ§Ø±Ø«":9370,"ĠÙ¾Ø±Ø³ØªØ§Ø±ÛĮ":9371,"ĠÙĩØ®Ø§ÙħÙĨØ´ÛĮØ§ÙĨ":9372,"ÙĩØ§ÙĦ":9373,"ĠØ®ÙĪØ§ÙĩØ±Ø´":9374,"Ø¨ÛĮØ¯":9375,"ĠÙĨÛĮØª":9376,"ĠØ®ÙĦÛĮÙĦ":9377,"ĠØ±Ø¨Ø§Ø·":9378,"22":9379,"Ð¾":9380,"ĠØ³Ø§Ø²Ú¯Ø§Ø±ÛĮ":9381,"ĠØµØŃØª":9382,"Û±Û³Û¶":9383,"ĠØ§ÙĨØµØ§Ø±ÛĮ":9384,"ÙĪØ¯Ø§ÙĨ":9385,"ĠÙ¾Ø§ØªØ±":9386,"ĠØ§Ø´Ø¹Ùĩ":9387,"ĠÙĩØ¬Ø¯ÙĩÙħ":9388,"ĠØ§Ø´Ú©Ø§ÙĨÛĮ":9389,"ĠØ®ÙĪØ§ÙĨÙĨØ¯Ú¯ÛĮ":9390,"ĠØ¯ÙĦØ®ÙĪØ§Ùĩ":9391,"ĠÛ±Û¹Û²Û¶":9392,"ĠØ§Ú©Ø«Ø±Ø§":9393,"ĠÙħØ²Ø§Ø±Ø¹":9394,"ĠÛĮÙĪØ±Ú©":9395,"ĠÚ©ÙĨÙģØ¯Ø±Ø§Ø³ÛĮÙĪÙĨ":9396,"ĠØ¨ÛĮÙĦØ¨ÙĪØ±Ø¯":9397,"ĠÛ¹Û±":9398,"Ø§ÙĪÙĨØ¯":9399,"ĠÙģØ´":9400,"ĠØ¯ÙĩÛĮÙħ":9401,"ĠØ³Ø§Ø²ÙĨØ¯":9402,"ØªÙĨØ§Ø¨":9403,"ĠÛ±ÛµÛ°Û°":9404,"Ú©Ø´ÙĨØ¯":9405,"ĠÙħØŃÙģ":9406,"ĠØ²ÛĮØ±Ø³Ø§Ø®Øª":9407,"ĠØ®Ø²Ø§ÙĨÙĩ":9408,"ĠØ¨ÙĨØ²":9409,"ĠÙģÛĮÙĦÛĮ":9410,"ÙĪÙĨØ¯ÙĩØ§ÛĮ":9411,"ĠÚĨØ§ÙĤ":9412,"ĠØŃØ³Ø§Ø¨Ø¯Ø§Ø±ÛĮ":9413,"Ġpr":9414,"ĠÚĨØ±Ø§Ú©Ùĩ":9415,"ÛĮÙĨÚ©":9416,"ĠØ®Ø§Ø³Øª":9417,"ÙĪØ¨Ú©Ø±":9418,"ica":9419,"ĠØ¶Ø±ÙĪØ±Øª":9420,"ĠÙ¾Ø³ØªØ§ÙĨØ¯Ø§Ø±Ø§ÙĨ":9421,"ÙģØ±Ø³ØªØ¯":9422,"Ø§ÛĮÚ©Ø³":9423,"ĠØ´ÙĩØ±ÛĮØ§Ø±":9424,"Ù¾Ø±Ø¯Ø§Ø²ÛĮ":9425,"ĠØ²ÙħØ±Ùĩ":9426,"ĠÙħØ³ØªØ¹Ø§Ø±":9427,"ÙĪÛĮÙĨÛĮ":9428,"ÙĪØ±ÛĮÙĪ":9429,"ĠØ®ÛĮØ§ÙĦ":9430,"ĠÛ±Û³ÛµÛ´":9431,"ĠÙ¾ÙĪØ³ØªÛĮ":9432,"ĠÚ©Ø§Ø´Ø§ÙĨÛĮ":9433,"ĠÙħÙĩØ±Ø§ÙĨ":9434,"ork":9435,"ĠÙģØ±ÛĮØ¨":9436,"ĠØ±Ø§ÙĩØ¨Ø±Ø¯":9437,"ĠØ³Ú©ÙĪØª":9438,"ĠØªØ±Ø´ØŃ":9439,"ØªÙģ":9440,"ĠØ±ÛĮØ¯":9441,"ĠØŃÙĦÙĤ":9442,"Ø¶Ø±":9443,"Û¶Û¹":9444,"ĠØµØŃØ±Ø§ÛĮÛĮ":9445,"ĠØ´ÙĪØ§ÙĦÛĮÙĩ":9446,"ĠØŃØ´Ø±Ùĩ":9447,"ĠØ¯Ø§Ú¯ÙĦØ§Ø³":9448,"ĠØ¯ÙĩÙħÛĮÙĨ":9449,"ĠØ¨Ø³ØªØ±ÛĮ":9450,"ĠØ´ØªØ±":9451,"ĠØºÙĪ":9452,"ĠÙħØ´Ú©ÙĦØ§ØªÛĮ":9453,"ĠÙĦÙĪØ¦ÛĮ":9454,"ĠØªØ¨Ø¹ÛĮØ¶":9455,"ĠØ§ÛĮÙĨÙĩØ§":9456,"ĠÚĺÙĨÙĪ":9457,"ĠÚ©Ø´Ø´":9458,"ĠØ¯Ø¨Ø³ØªØ§ÙĨ":9459,"ĠØ§Ø³ØªØ§Ø±":9460,"ĠÙĦÚ©":9461,"Ø³ÙĦØ§ÙĨ":9462,"ĠØªÛĮØºÙĩ":9463,"ĠÙĨØ¬ÙģÛĮ":9464,"ĠÙĨØ§Ù¾ÙĦØ¦ÙĪÙĨ":9465,"ĠÙĩÙħØ¨Ø³ØªÚ¯ÛĮ":9466,"\"(":9467,"Ø§ÙħØ§Ùħ":9468,"ĠÙĤÙģÙĦ":9469,"ĠØµÙĦÛĮØ¨ÛĮÙĪÙĨ":9470,"ĠØ¯Ù¾":9471,"ĠØ§ÙħØ§Ú©ÙĨ":9472,"Ø¨ÛĮÙĦÛĮ":9473,"ĠØŃØ¯ÙĪØ¯Ø§":9474,"¡Ù":9475,"ĠÚ©Ø§Ø¯":9476,"ĠÚ©ÙĨØ¯Ùĩ":9477,"ĠØ²ÛĮØ¯":9478,"ĠÙĦÚ©Ùĩ":9479,"ĠÚ©Ø§Ø±ÙĩØ§":9480,"ĠØ¯ÙĦØ§Ø±ÛĮ":9481,"Ø²ÛĮÚ©ÙĪ":9482,"ĠØ®Ø¯Ùħ":9483,"ĠÚ©Ø§Ø±ÙħÙĨØ¯Ø§ÙĨ":9484,"ĠØ¯ÙĪØ§Ùħ":9485,"ign":9486,"Ä±":9487,"Ø²Ø¯Ùĩ":9488,"ĠÛĮÚ©Ø´ÙĨØ¨Ùĩ":9489,"ĠØŃÙĪÙĦ":9490,"ĠØªÙĪØ±ÙĨ":9491,"ĠØ¹Ø¶ÙĦØ§Øª":9492,"ĠÚ©Ø§Ùģ":9493,"ĠØ§ÙĪØ¨":9494,"ĠÚĨÙĩØ§Ø±Ø´ÙĨØ¨Ùĩ":9495,"per":9496,"Ø±ÙĪÙģÛĮ":9497,"ĠÙĪØ§ÙĤØ¹Ø§":9498,"ĠØ´Ø¹ÙĦÙĩ":9499,"Ø§Ú©Ø³ÛĮ":9500,"Ø¢Ø²":9501,"ĠÛĮØ±":9502,"orth":9503,"ĠØ´ÙĨØ§Ø³Ø§ÙĨ":9504,"ĠØ§Ø¯ÛĮØ¨":9505,"Ø¯Ø²":9506,"ĠÚ©ÙħØ±":9507,"ĠØ¯Ø§Ø¯Ø³ØªØ§ÙĨ":9508,"ÚĨÛĮÙĨÛĮ":9509,"ĠØ¢ÙĨØ¯Ø±Ùĩ":9510,"ĠØ§Ø¬ØªÙĨØ§Ø¨":9511,"ĠØªØ±Ú©ÙħÙĨØ³ØªØ§ÙĨ":9512,"Ø§ÙĩØ¯Ø§Øª":9513,"ĠÙ¾ÛĮØ§Ù¾ÛĮ":9514,"wiki":9515,"Ù¾Ø°ÛĮØ±ÙģØª":9516,"ĠÙĦÛĮØ¨Ø±Ø§ÙĦ":9517,"ĠØªØ°":9518,"ĠÙĩØ±ÛĮÚ©":9519,"ĠØ¨Ø§ÙĦÙĤÙĪÙĩ":9520,"ĠØŃØ¯Ø³":9521,"ĠÙĨÚ¯Ø§Ø±Ùĩ":9522,"Ø¨Ø®Ø´ÛĮ":9523,"ĠÚ©Ø±Ø¨ÙĦØ§":9524,"ĠÙ¾Ø§ÙĪÙĦ":9525,"ĠÛ¶Û±":9526,"Ø¹Ø¨Ø¯Ø§ÙĦ":9527,"ĠÛĮØ®ÚĨØ§ÙĦ":9528,"ĠØ¨Ø´Ú©Ùĩ":9529,"NO":9530,"ÙĨÛĮØ±":9531,"ÙĪØ¬Ùĩ":9532,"ĠÚ¯Ø³ÙĦ":9533,"ĠØªØ¹ÙĪÛĮØ¶":9534,"ĠØ³ÛĮØ¯ÙĨÛĮ":9535,"Ø§Ø³ØªÛĮÚ©ÛĮ":9536,"ĠÛ¶Û³":9537,"ĠÙĩÙĨØ±Ø³ØªØ§ÙĨ":9538,"ĠÙħØºØ§Ø²Ùĩ":9539,"ĠÛ±Û¹Û±Û¶":9540,"ÙĨØ¯ÙĪ":9541,"ĠØ³ÙĨÙĨØ¯Ø¬":9542,"Ø«ÛĮØ±ÛĮ":9543,"ook":9544,"ĠØ¯Ø§ÛĮØ±":9545,"Ø±ÛĮÙĪ":9546,"Ø§Ø³Ø§ÙĨÛĮ":9547,"ĠØ³Ø§ÙĦÚ¯Ø±Ø¯":9548,"ĠÚ©ÙĦØ§":9549,"ĠÛµÛ¹":9550,"ÙħØ±Ú¯":9551,"ĠØ²ÙĨØ§ÙĨÙĩ":9552,"ĠÙħØ¨Ø§Ø±Ø²Ø§Øª":9553,"ĠØ«Ø§ÙĨÙĪÛĮÙĩ":9554,"ĠØ¬Ø§ÙĪØ§":9555,"ĠÙĩØ§Ø´Ùħ":9556,"ĠÙĨÙĪØ¨Øª":9557,"ĠØ¯Ø§Ø±Ø§Ø³Øª":9558,"ĠÙħÙĪØ±Ø®Ø§ÙĨ":9559,"Ø¯Ø¯":9560,"ĠØ§ÙģØ²ÙĪØ¯ÙĨ":9561,"ĠÙĤÙĪØ§Ùħ":9562,"Û¹Û¹Û":9563,"ÙĨØ§ÙĪØ¨":9564,"ĠÙĩØ±Ú©Ø¯Ø§Ùħ":9565,"ĠÙĩÙĪÙħ":9566,"ĠInt":9567,"ĠÛ±Û³ÛµÛ³":9568,"ĠØ¯Ø§ÙħØ§Ø¯":9569,"ĠØ¨ÙĨÚ¯Ø§Ùĩ":9570,"ÙħØ«ÙĦØ§":9571,"Ú¯Ø§ÙĦ":9572,"Ø·ÙĪ":9573,"ĠØ¨Ø®Ø´ÛĮØ¯":9574,"ĠØªÙĨÙģØ³":9575,"ĠØªØ´Ø±ÛĮØŃ":9576,"ĠØ¯ÙĪÙĨØ§ÙĦØ¯":9577,"ĠÙħØ®Ø§Ø·Ø¨Ø§ÙĨ":9578,"ĠÙħÙĪØ²ÛĮÚ©Ø§ÙĦ":9579,"Ù¾ÙĨØ¬":9580,"ĠØ§ÙĨØ·":9581,"ĠØ·Ø¹Ùħ":9582,"ĠØ¨ÙĦÛĮ":9583,"ĠÙĤØ´Ø±":9584,"ĠÚ¯Ø±ÙĪÚ¯Ø§ÙĨ":9585,"ĠÙĩÛĮØ¬Ø§ÙĨ":9586,"ational":9587,"ĠØ¯Ø§Ø¦Ø±":9588,"--":9589,"Ø¨ÛĮÙħ":9590,"ĠØ³Ø§Ø¦":9591,"ĠÙĨØ§Ø¸Ø±":9592,"ÙĪØªÛĮÙĨ":9593,"ĠØ¹ÙĨØ§ÙĪÛĮÙĨ":9594,"ĠÙħØ§Ú¯":9595,"Ø¨Ø§Ø·":9596,"Ø§ÙĦØ«":9597,"Ø§Ø®ÙĦ":9598,"ÙħÛĮØ¯Ùĩ":9599,"ĠÙģÙĪÙĤØ§ÙĨÛĮ":9600,"ĠÙĩÙħÚ©Ø§Ø±Ø§ÙĨ":9601,"ÙħØ¯Ø§ÙĨ":9602,"Ø³ØªØ±ÙĨ":9603,"ĠÙħØ¨Ø§Ø¯ÙĦÙĩ":9604,"ĠØ¯Ø²ÙģÙĪÙĦ":9605,"Ù¾ÛĮÙĪÙĨØ¯Ø¯":9606,"ĠÙħØ§Ø±ÙĪÙĦ":9607,"ĠØ±ÙĩØ§ÛĮÛĮ":9608,"ÙĪÙĤØª":9609,"ĠØ¢ÙĩÚ©":9610,"co":9611,"ĠØ¬ÛĮÙħ":9612,"ĠØµØ§ØŃ":9613,"ide":9614,"ĠÙģÛĮØ³":9615,"ĠØ§ÙħØ±ÛĮ":9616,"Û¹Û±Û":9617,"ĠØªØ±Ø¯ÛĮØ¯":9618,"ĠØ¹Ø§Ø·":9619,"ĠØ§ÙĨØ³Øª":9620,"ann":9621,"ĠÚ©Ø§Ø±ÙĦÙĪØ³":9622,"Ø§ÙĪØ±Ø¯":9623,"ĠÙĩÙĪØ´ÙĨÚ¯":9624,"Ú¯Ø±Ø§ÛĮØ§ÙĨÙĩ":9625,"ĠØ¬ÛĮÙħÛĮ":9626,"ĠØ§ÙħØªØŃ":9627,"ĠÛ±Û¸Û°":9628,"Ú©ÛĮÙĩ":9629,"ĠØªØ±Ø§Ø²":9630,"ĠØ¨Ø¯ÙĪ":9631,"ĠØ§ÙĨØŃØ±Ø§Ùģ":9632,"ĠÙħØ³ØªÙħ":9633,"ĠØ´ÙĨÛĮØ¯ÙĨ":9634,"ÙĪØ²ÛĮØª":9635,"ĠØ§ØªÙĦ":9636,"ĠØ§ÙĬÙĨ":9637,"Ø§ÙģØ¹ÛĮ":9638,"ĠØ±Ø§Ø¯Ø§Ø±":9639,"ĠØ§ÙĨØ²ÙĦÛĮ":9640,"ĠØ§Ø¯Ø±Ø§Ø±":9641,"ĠØ¸ÙĩØ±":9642,"ĠØ§ÛĮØ³ØªØ§Ø¯Ùĩ":9643,"ĠÙģØ§Ø´":9644,"ĠØ´ØºÙĦÛĮ":9645,"27":9646,"ÙĪÙĦØ§Ø±":9647,"ĠØªÙĦØ³Ú©ÙĪÙ¾":9648,"ĠÙĨÛĮÚ©ÙĪÙĦ":9649,"ÙĪØ±Ø§ÛĮÛĮ":9650,"ĠÙģØ§ÙĨØªØ²ÛĮ":9651,"Ú¯ÛĮØ²":9652,"ĠÙ¾Ø±Ø¬ÙħØ¹ÛĮØª":9653,"int":9654,"ĠØ§Ø³Ø§Ø³Ø§":9655,"ĠÛ±Û³Û·Û²":9656,"ĠØ¢ÙĪÛĮ":9657,"ÚĨØ§Ùĩ":9658,"ĠØ´ÛĮØ¡":9659,"ĠÙĪØ§Ø±ÛĮ":9660,"Ø¯ÙĩÙĨØ¯Ú¯Ø§ÙĨ":9661,"ĠØ§ÛĮÙĨÚĨ":9662,"ĠÙĨÛĮØªØ±ÙĪ":9663,"ĠØ§ÙħØ§ÙħÛĮ":9664,"ĠÙĦÛĮØªØ±":9665,"ÙĩÙħØ±Ø§Ùĩ":9666,"Ø±Ø§Ø²":9667,"ĠÚ©Ø§ØªØ±ÛĮÙĨ":9668,"ĠØªØ³Ø§ÙĪÛĮ":9669,"ĠÙ¾Ø±Ø§Ú¯":9670,"ĠÙħÙĪØ¶ÙĪØ¹ÛĮ":9671,"ĠÚ©ÙĪØ±ÛĮ":9672,"ĠØ¹Ø§ÙħÙĦÛĮ":9673,"ĠØ§Ø¹ØªØ¨Ø§Ø±ÛĮ":9674,"Ø§ÙģØ²":9675,"ĠØ¨Ø³ÛĮØ¬":9676,"ĠØ±Ø§ÙĩÙĨÙħØ§ÛĮ":9677,"ĠÙĦØ·Ùģ":9678,"ĠØ²Ø¹":9679,"ĠÚ¯ÙĦÙĪÚ©":9680,"ÙĩÙĪ":9681,"ĠØ¢Ø±ÛĮØ§ÛĮÛĮ":9682,"ĠØ¨Ø±Ø®Ø§Ø³Øª":9683,"ĠÚ¯Ø±ÙģØªØ§Ø±":9684,"Ú©ÙĨÛĮØ¯":9685,"ĠÙ¾ÙĩÙĦÙĪ":9686,"ĠØ³Ø¨Ø²ÙĪØ§Ø±":9687,"ÚĨØ§ÛĮ":9688,"ĠØ¨Ø§ÙĨÚ©Ø¯Ø§Ø±ÛĮ":9689,"ÙĨÙĪØ´ØªÙĩ":9690,"Ø®ÙĪØ±Ø´ÛĮØ¯ÛĮ":9691,"ĠÙģØ±Ø®":9692,"ĠØ¨ÛĮÙĨØ§ÛĮÛĮ":9693,"ĠÙĨØ´Ø§ÙĨÛĮ":9694,"ĠØºÛĮØ±Ø±Ø³ÙħÛĮ":9695,"ĠÙ¾ÙĨØ¬Ø§Ø¨":9696,"ĠÙģØ±Ø§Ú¯ÛĮØ±ÛĮ":9697,"ĠØ§ÛĮØ±ÙĦØ§ÛĮÙĨØ²":9698,"ĠØ¨Ø¯ÙĩÙĨØ¯":9699,"ĠØ§ÙĨÚ©Ø§Ø±":9700,"ĠÙħØ¹Ø§ÙĪÛĮÙĩ":9701,"ory":9702,"ĠAd":9703,"ĠØ³Ø§ÙĨØªÛĮÚ¯Ø±Ø§Ø¯":9704,"oy":9705,"ĠÙĩÙĪØ³":9706,"ÙĪÙħÚ©Ø²ÛĮÚ©ÙĪ":9707,"ĠÙħÙĪØª":9708,"23":9709,"ĠØ¯ÛĮØª":9710,"ĠÙģØ§Ø¬Ø¹Ùĩ":9711,"ĠØ¨ÙĪØ¯Ùħ":9712,"ĠØ¯ÙĪÙħÛĮ":9713,"ØªÙĪØ¬Ùĩ":9714,"Ø³ÙĪÙĨÚ¯":9715,"ĠÙĨØ§Ø¯ÛĮØ¯Ùĩ":9716,"ĠØ§Ø¬Ø±":9717,"ĠØ¨Ø§Ø²ÙĨØ´Ø³ØªÚ¯ÛĮ":9718,"ĠÙĨØ§Ø³Ø§":9719,"ĠØ®ÙĪØ²Ùĩ":9720,"ÛĮØ´Øª":9721,"ĠÙĩÙĨØ¯ÙĪ":9722,"ĠÙħÙĨØªØ¸Ø±":9723,"Ø¢Ø´":9724,"ĠØ¹ÙĦÙĦ":9725,"ĠAir":9726,"ĠØ³ÙĪØ¯Ø§ÙĨ":9727,"Ø§Ø³Ú©Ø§Ø±":9728,"ĠØ¬ÙĨØ³ÛĮØª":9729,"ĠØ²Ø§ÙĩØ¯Ø§ÙĨ":9730,"ĠØ¨Ø§Ø±ÙĨØ¯Ú¯ÛĮ":9731,"ĠÛ±Û³Û¶Û·":9732,"ĠØºÙĦØ·":9733,"CA":9734,"ĠØªÚ©ÙĦÙħ":9735,"ĠØ±Ù¾":9736,"ĠØ±ÙĪØ²ÙħØ±Ùĩ":9737,"ical":9738,"ÛĮÙĦÙĨ":9739,"ĠØªÙĪÚ©":9740,"ÛĮØ´Ø§ÙĨ":9741,"ĠØ§ØµØºØ±":9742,"ĠØ§Ø³ØªØ±Ø§ÙĦÛĮØ§ÛĮÛĮ":9743,"ĠÙħØªØºÛĮØ±ÙĩØ§ÛĮ":9744,"ĠÙĪÛĮØ¯ÛĮ":9745,"ĠØªØ¬ÙĪÛĮØ²":9746,"ĠÙĨÙĪØ§Ø²ÙĨØ¯Ú¯ÛĮ":9747,"ĠÙħØ¯Ø§Ø®ÙĦÙĩ":9748,"ĠÛ¸Û±Û":9749,"rom":9750,"ĠÛĮÙĪØªØ§":9751,"ĠØ¨ØªØ§":9752,"ĠØ¢ØªØ´Ú©Ø¯Ùĩ":9753,"ĠØªØŃØ±ÛĮØ±":9754,"ĠÙĪØ§Ø¶ØŃ":9755,"ØªÙĤÛĮ":9756,"inn":9757,"ĠØ¢Ø²ÙħØ§ÛĮØ´Ú¯Ø§ÙĩÛĮ":9758,"ĠØ®ÛĮØ²":9759,"ĠÙĤØ±ÛĮÙĩ":9760,"ĠØªØ¹Ø¨ÛĮÙĩ":9761,"ĠØ®ÙĪØ¯Ø±ÙĪØ³Ø§Ø²ÛĮ":9762,"Ġst":9763,"ĠÛ±Û³Û²Û°":9764,"ĠØ¯Ø§Ø±ÙĪÙĩØ§":9765,"Ø§Ø¯ÛĮÙħÛĮØ±":9766,"Ø§ÙĩØ±ÛĮ":9767,"ĠÙħÙĪØ²":9768,"ĠØ§ÙħÙ¾Ø±":9769,"ĠÙħØªÙĨØ§ÙĪØ¨":9770,"ĠÙĨÛĮÙĪÙħÚ©Ø²ÛĮÚ©ÙĪ":9771,"ĠÙħØ®Ø§Ø·Ø¨":9772,"ØªØ¬":9773,"ÙĤÛĮÙĨ":9774,"ĠØ¨Ø±Ø§ÛĮØ§ÙĨ":9775,"ĠÛ·Û¸":9776,"Ø§ÙĦØ¨ØªÙĩ":9777,"Ø±ÙĨ":9778,"ĠØ¨Ø§ÙĪØ±ÙĨØ¯":9779,"ĠÙħØŃØ±":9780,"ick":9781,"ĠÛ±Û±Û¶":9782,"ĠÚ¯Ùĩ":9783,"ĠÛ±Û³Û³Û²":9784,"ĠØ¢ÙģØ±ÛĮÙĨØ´":9785,"Ø§ÙĦÚ©":9786,"ĠÙĩÙħØ¯ÛĮÚ¯Ø±":9787,"ĠØ¢ØªØ´ÙģØ´Ø§ÙĨÛĮ":9788,"ÙħØ¯ÛĮÙĨ":9789,"ĠØªØ§Ø¨Ø¹ÛĮ":9790,"ĠÛ±Û³ÛµÛµ":9791,"ÙĤÙĩØ±ÙħØ§ÙĨ":9792,"ĠÙħØ³Ø§Ø¬Ø¯":9793,"ĠØ§ÙĪØ³ØªØ§":9794,"ÙģØµÙĦ":9795,"ĠÙĨØ±Ø³ÛĮ":9796,"ĠØ§ÛĮØ³ÙĦ":9797,"Ø¬Ø¨":9798,"ĠÙħØªØ§Ø¨":9799,"ĠØ¨ÛĮÚĨ":9800,"ĠÙĪØ²ÛĮØ±Ø§ÙĨ":9801,"ĠÙĨØ§Ø¸":9802,"ĠØ±ÛĮÙĨÚ¯":9803,"ĠØ§Ø³ØªØ§ÙĦÛĮÙĨ":9804,"ĠØªÙĦØ®":9805,"ĠØ±Ø³Ø§ÙĨÛĮØ¯":9806,"ota":9807,"ĠÙĨØ¬ÛĮØ¨":9808,"Ø²ÙĨØ¯Ú¯ÛĮ":9809,"ĠØ²Ø§Ø¨ÙĦ":9810,"ÙĪÛĮØ³ÛĮ":9811,"ĠNew":9812,"SO":9813,"Ø§ÙĦØ¨ÛĮ":9814,"ĠØ¹ÙĦÙĪÛĮ":9815,"ĠØªØ®ÛĮÙĦÛĮ":9816,"ĠØ§Ø³ÙģÙĨØ¯ÛĮ":9817,"ĠÚ©Ø´Ø§ÙĪØ±Ø²Ø§ÙĨ":9818,"ĠÚ©Ø¨ÙĪØªØ±":9819,"ĠÚ©Ø±ÙĪÙĨ":9820,"ĠØ¯Ø±ÛĮÚĨÙĩ":9821,"ĠØ§ÙĦÚ¯ÙĪÙĩØ§ÛĮ":9822,"ĠÙĨÙĤØ¯ÛĮ":9823,"ĠÛ¹Û¹":9824,"Ø¯ÙĪØ±Ùĩ":9825,"ĠÛ±Û¹Û±Û³":9826,"ĠØ¨Ø§ÙĨÛĮ":9827,"ĠÙĩØ§Ø¨":9828,"ÙħØ±Ø¯Ùħ":9829,"Ø®Ø§Ø°":9830,"ĠØ§ØªÛĮ":9831,"ence":9832,"ĠÙĤØ§Ø¬Ø§Ø±ÛĮÙĩ":9833,"Ø§ÛĮÙĪ":9834,"ĠØ´Ø³Øª":9835,"ĠØ´ÙĩØ±Ø³ØªØ§ÙĨÛĮ":9836,"ĠÙ¾Ø§ÛĮÛĮÙĨÛĮ":9837,"Ø§Ø«Ø±":9838,"ĠØ¯Ø±Ú¯Ø§Ùĩ":9839,"ĠÙħØ¤ÙĦ":9840,"ĠØ¢Ø´ØªÛĮ":9841,"ĠØ¨ÙĨÚ¯ÙĦ":9842,"ĠØ³Ø®ÙĨÚ¯ÙĪÛĮ":9843,"ĠØ§Ø¨ÙĪÙħ":9844,"ĠØ¨ÙĪØ¦ÛĮÙĨÚ¯":9845,"Ø±Øº":9846,"ĠØ³ÙĪÙĨÛĮ":9847,"ĠØ·Ø§ÙĦØ¨":9848,"ÙĪØ³Ú©ÛĮ":9849,"ĠÙĩØ±ÙĪØ¯":9850,"ĠÙħØŃÙģØ¸Ùĩ":9851,"Ø¨ÙĪØ¯ÛĮ":9852,"ĠØ§Ø³ØªÙĪØ§ÙĨÙĩ":9853,"ĠØªØŃÙĦÛĮÙĦÛĮ":9854,"âĢĿ":9855,"ÛĮØ²ÛĮÚ©":9856,"Ø³ØªÛĮÙĪØ§ÙĦ":9857,"ÙĩÙĨØ±":9858,"ĠÛ±Û³Û¶Û¹":9859,"ĠÙĩØ±Ø¯ÙĪ":9860,"Ù¾Ø±Ø³ÛĮ":9861,"ĠÙħØ³Ø¯ÙĪØ¯":9862,"ale":9863,"Ø³Ø§Ø²ÙħØ§ÙĨ":9864,"ĠÙĪØ¯":9865,"ĠÙĨÛĮÚ©ÛĮ":9866,"ĠØŃØ§ÙĦØ§Øª":9867,"Ø¯ÛĮÙĪÛĮØ¯":9868,"ĠÙ¾ÛĮØ´Ø±ÙĪ":9869,"ĠÙħØ³Ø§ÙģØ±Øª":9870,"ÙĨØ§Ù¾Ø°ÛĮØ±":9871,"ĠØ³ÙĨÛĮÙĨ":9872,"ĠØ³Ø§ÙħÙĪØ¦ÙĦ":9873,"ĠÙħØ®Ø§Ø¨Ø±Ø§ØªÛĮ":9874,"ĠÛ³Û°Û°Û°":9875,"ĠÙģÛĮÙģØ§":9876,"ÛĮÙħØª":9877,"ĠÙħØ±Ø¯Ú¯Ø§ÙĨ":9878,"ĠØ¬ÙĪÙĨÛĮÙĪØ±":9879,"ÙĩÙĦ":9880,"ĠÙģØ±ÙħØ§ÙĨØ¯Ø§Ø±ÛĮ":9881,"ĠÙ¾ÙĦÙĨÚ¯":9882,"ĠØ¹Ø¶ÙĦØ§ÙĨÛĮ":9883,"Ġ0":9884,"ĠØ®Ùģ":9885,"ĠÚ¯Ø¯":9886,"ĠÙħØ§ÙĦÛĮØ§ØªÛĮ":9887,"ai":9888,"ĠÚ¯ÙĪØ±Ø¯":9889,"ĠØªØ²ÛĮÛĮÙĨ":9890,"ĠÙģØ±Ø§Ú¯ÛĮØ±":9891,"ĠØ§Ø±Ø§Ø¯Ùĩ":9892,"ĠØ³ÙĨØªØ±":9893,"ĠÛ±Û³Û·Û³":9894,"ĠØ´Ø±ÛĮØ¹Øª":9895,"ĠÚ¯ÙĪØ³ÙģÙĨØ¯":9896,"ĠØ¯Ø§Ø¨":9897,"Ø´Ø§":9898,"Ø§Ø¶Ø¹":9899,"ĠØ®Ø¯ÙħÙĩ":9900,"ĠØ¯ÙĪØ³ØªØ§ÙĨØ´":9901,"ĠÚ©Ø¯ÙĩØ§ÛĮ":9902,"ĠÙĦØ§ÙĨ":9903,"Ø¨ÛĮØ¯Ùĩ":9904,"ĠÙĨÚ¯Ø±Ø§ÙĨ":9905,"ĠØ§Ø¨ÙĪØ¨Ú©Ø±":9906,"ĠÛ±Û³ÛµÛ²":9907,"ĠÚ©Ø±ÙĪÙħÙĪØ²ÙĪÙħ":9908,"ĠØ§ÙħØªØŃØ§ÙĨ":9909,"ĠØ¨Ø´ÙĪØ¯":9910,"Ø¨ÙĩØªØ±ÛĮÙĨ":9911,"ÙĪÙ¾ÙĦ":9912,"ÙĨØ¯Ø±Ø§ÙĨÛĮ":9913,"ĠØ´ÙĪØ±Ø´ÛĮØ§ÙĨ":9914,"ĠØ§ØªØ®Ø§Ø°":9915,"ĠÛ±Û¹Û°Ûµ":9916,"ØªØ®ÛĮÙĦÛĮ":9917,"ĠÙĪÛĮÙĪÙĦÙĨ":9918,"ĠÙħØ·ÙĦØ¹":9919,"Û±Û³Û´":9920,"ĠÙĪØ¶ÙĪØŃ":9921,"ĠÙħÙĨØ´ÛĮ":9922,"ĠÙģØ±ØŃ":9923,"Û¸Û³Û":9924,"ĠØªØ§Ø¨Ø¹Ùĩ":9925,"Ù¾ÛĮÙħØ§ÛĮÛĮ":9926,"Ø§Ø±Ùħ":9927,"Ø¨Ø§Ùģ":9928,"Ø¨ÙĨØ¯Ø§ÙĨ":9929,"ĠØµÙģØª":9930,"Ø¦ÙĪØ¯":9931,"Ø¯Ø±Ú¯Ø°Ø´ØªÙĩ":9932,"ĠØ¯ÙĩÙĦÛĮ":9933,"ĠØ²ÛĮØ±ÛĮÙĨ":9934,"ost":9935,"ĠØ®Ø§Ø³ØªÚ¯Ø§Ùĩ":9936,"ĠÙħØ¹ÙĨ":9937,"ĠÛĮØ§Ø¯Ú¯Ø§Ø±":9938,"ame":9939,"ĠØ´ÙĪÚ¯":9940,"ØºÛĮØ¨":9941,"ĠÙ¾ÛĮÙĪØ³ØªÙĨØ¯":9942,"ĠÙĨÚ¯Ø±Ø´":9943,"ĠØ´Ø±Ùģ":9944,"ĠØ³Ù¾ÛĮØ¯":9945,"ĠØ®Ø±Ø§Ø³Ø§ÙĨÛĮ":9946,"ĠÙħØ³Ø¦ÙĪÙĦÛĮÙĨ":9947,"ĠØ¨Ø±Ø¹Ú©Ø³":9948,"ĠØ§ÙĤØ¨Ø§ÙĦ":9949,"ĠØ°Ø®Ø§ÛĮØ±":9950,"ĠØ¯Ø´ÙħÙĨÛĮ":9951,"ĠØŃØ§Ú©ÙħØ§ÙĨ":9952,"ĠÚ©ÙĨØ³ØªØ§ÙĨØªÛĮÙĨ":9953,"ĠÙħÙĪÛĮ":9954,"ĠØ¨Ø±ÙĪÙĨØ¯":9955,"ĠØ³ÛĮÙħØ§ÙĨ":9956,"ĠØ¹Ø§ÙĦ":9957,"ĠØ¨ÙĦØ®":9958,"Ø§Ø±ÙĪØ³":9959,"ĠÚ©Ø§Ø±Ø´ÙĨØ§Ø³":9960,"Ø§ÙĨÚ¯ÙĦÛĮØ³ÛĮ":9961,"ĠÙħØ§ÛĮÚ©":9962,"ĠÛ¸Û¹":9963,"ĠÙħØ²ÙħÙĨ":9964,"odice":9965,"ĠÚ¯Ø§ÙĦØ±ÛĮ":9966,"ĠØ¨Ø§ÙĦØª":9967,"Ø§Ø¡Ø§ÙĦØ¯ÛĮÙĨ":9968,"ĠØªÙĪØ±ÙĨØªÙĪ":9969,"ĠÙħØ³ÙĦØ·":9970,"ĠÛ¸Û³":9971,"Ġ|":9972,"ĠÙħÙĤØµ":9973,"ĠÛ±Û¹Û°Û¸":9974,"Ú¯ÛĮØª":9975,"ĠÙħØµÙĪØ¨":9976,"ĠÛ±Û³Û´Û²":9977,"ĠØ§ØµØ·ÙĦØ§ØŃØ§Øª":9978,"ĠÙĨØ¸Ø±ÛĮØ§Øª":9979,"ĠÙħÙĨØªÙĤØ¯ÛĮÙĨ":9980,"Ø§Ø±Ø´ÛĮ":9981,"ĠØ²Ø§Ú©":9982,"ĠÛ±Û³Û¶Û²":9983,"ĠØ±ÙĪÙĨÙħØ§ÛĮÛĮ":9984,"ĠØ³ÙĦÛĮÙħØ§ÙĨÛĮ":9985,"ÙĤÙĨØ¯":9986,"ÙħÙĪÙĦØ§":9987,"Ø´ÛĮØ®":9988,"ĠÙĨÙĪØ´ÛĮØ¯ÙĨÛĮ":9989,"ÙĪØ±Ø«":9990,"ĠØ§ÙĨØªÚ¯Ø±":9991,"ĠÙħÙĪÙĨØªØ§ÙĨØ§":9992,"Ø¯Ùģ":9993,"ĠÙĪÙĦÙģ":9994,"ĠØ³Ø±Ø§ÛĮ":9995,"ĠÛĮÙĪØ´":9996,"ĠÛ±Û³Û·Û±":9997,"ĠØ®Ø³Ø§Ø±Øª":9998,"Ø¨ÛĮØ§ÙĨ":9999,"ĠÛ±Û³Û·Û´":10000,"ĠØ´ÙħØ§Ø±Ø´":10001,"ĠØ§ÙħÙ¾Ø±Ø§Ø·":10002,"ĠØ§Ø³ØŃØ§ÙĤ":10003,"Ø§Ú¯ÙĪØ¦Ùĩ":10004,"ĠØ¨Ø³ØªÙĨ":10005,"ĠÙħÙĨÛĮØ²ÛĮÙħ":10006,"AT":10007,"ĠÙħØ±Ø§ØºÙĩ":10008,"ĠØ¶Ø§ÛĮ":10009,"ÙĪÛĮØªØ³":10010,"ship":10011,"sp":10012,"sk":10013,"ĠÙħÙĨØ²":10014,"ĠØ±ØŃÙħ":10015,"ET":10016,"ĠØ´ÙĪÙĨØ¯Ùĩ":10017,"ĠÙĨÛĮÙĨ":10018,"ĠÙĨØ§Ø¢":10019,"Ø§ÙĩØ§ÙĨ":10020,"ÙĨÚ¯Ø±":10021,"ĠØ§Ú©Ø³Ù¾":10022,"ĠÙĩÛĮÚĨÚ¯Ø§Ùĩ":10023,"ĠØªØ³ÙĦÛĮ":10024,"ĠØ¯Ø¨ÛĮØ±Ú©ÙĦ":10025,"ĠØ¹Ø±ÙģØ§ÙĨÛĮ":10026,"ĠÙģÙĪØ§ØµÙĦ":10027,"ff":10028,"ÙĦØ§ÙĨÚ©Ø§":10029,"ĠØ§Ø±Ø¬Ø§Ø¹":10030,"ĠØªÙĨÛĮ":10031,"Ø§ØªÙĨ":10032,"ĠÚĨØ§Ø¯Ø±":10033,"ĠÙħØ³ÙĦÙħ":10034,"Ø§Ø¯ÛĮÙĨ":10035,"ÙĩØ±Ùħ":10036,"ĠØ¨ÙĨØ¯Ø±Ø¹Ø¨Ø§Ø³":10037,"ĠØ³Ø±ÙĨØ´ÛĮÙĨ":10038,"ĠØªØµÙĪÛĮØ±Ø¨Ø±Ø¯Ø§Ø±ÛĮ":10039,"ĠÙħØ§Ø¬Ø±Ø§Ø¬":10040,"ĠÛ±Û¹Û±Û±":10041,"ĠØ¨ÙĪØªÙĩ":10042,"Ø¬Øª":10043,"Ø§ÙĨØ¬ÙħÙĨ":10044,"ĠÙĩØ§Ø±Ø¯":10045,"Ø¢Ø®Ø±":10046,"ÙħØ§ÙĦÚ©":10047,"ĠÛ±Û³Û´Û·":10048,"Ø¨Ø®Ø´Ø¯":10049,"uk":10050,"ĠØ±Ø§ÙĪÛĮ":10051,"Ø§ÙĤØ¶":10052,"ĠØªØ§ÛĮÙĪØ§ÙĨ":10053,"ĠÙħØŃØªÙĪÛĮ":10054,"ĠØ±ÙĪØª":10055,"ĠÛ±Û¹Û±Û°":10056,"ĠØ¯ÙĤÛĮÙĤÛĮ":10057,"26":10058,"30":10059,"Ġ;":10060,"ĠÙħÛĮÙħÙĪÙĨ":10061,"ĠØ§ÛĮÙĨÚ©":10062,"ĠØ±ÙĪØ§ÛĮØªÛĮ":10063,"ite":10064,"olog":10065,"ĠØ¢ÙĨØª":10066,"ĠØ§Ø³Ú©Ø§ÙĨ":10067,"ĠÙĨØ§ÙħÙĨ":10068,"ĠÚ©Ø±ÛĮØ³ØªÛĮ":10069,"ĠØ¨ÛĮØ±ÙĪØª":10070,"ĠÚ¯Ø°Ø§Ø´ØªÙĨØ¯":10071,"ĠØ¨ØµØ±Ùĩ":10072,"ĠØ±ÙģØ³ÙĨØ¬Ø§ÙĨÛĮ":10073,"ĠÚ©ÛĮØ§":10074,"ĠØ¢Ø³Ø§ÙĨÛĮ":10075,"ĠÙ¾Ø§Ø±Øª":10076,"ĠÙ¾Ø°ÛĮØ±ÛĮ":10077,"ĠÚ¯Ø§":10078,"Ø§Ø²ÙĪÙĨ":10079,"Ø§Ø³Ø§":10080,"ĠØ¨ÛĮÙĨÙĨØ¯Ùĩ":10081,"ĠØªÙĪØ§ÙĨØ¯":10082,"ĠÙħÚ©Ø§Øª":10083,"ĠÚ©ÙĪØªÙĪÙĦÙĩ":10084,"ĠØ¯ÛĮØ§":10085,"Ú¯Ø±Ø§Ùħ":10086,"ĠÙĨÙħØ±Ùĩ":10087,"Ø´Ø¯Øª":10088,"ÚĺÛĮÙĪÙĨ":10089,"ĠØ³Ù¾Ø§ÙĩØ§ÙĨ":10090,"ĠØ±ÙĨØ³Ø§ÙĨØ³":10091,"ĠØ§ÙģÙĦØ§Ø·":10092,"ĠØ±Ø§Ø³ÙĦ":10093,"ÙĪÛĮÙĦÛĮØ§Ùħ":10094,"ĠØ¨ÙĪÙĦÛĮÙĪÛĮ":10095,"ĠØ·ÙĨØ§Ø¨":10096,"Ø¬Ø§ÙħØ¯":10097,"ĠØ¬Ø±Ø§ØŃ":10098,"ĠÙħÙĪØ¨Ø§ÛĮÙĦ":10099,"ĠØ¯ÙĦØ§":10100,"Ø¢ÙĨØ¯":10101,"Ð¸":10102,"ØŃÙħØ¯":10103,"ÛĮØ´Ú¯ÛĮ":10104,"ĠØ³ÙĦÙħØ§ÙĨ":10105,"ĠØ¯ÙħÚ©Ø±Ø§Øª":10106,"86":10107,"ĠÙħÙĤØ±Ø±":10108,"ĠØ¹Ø§ÙħÛĮ":10109,"ĠØ®Ø·Ø§ÛĮ":10110,"Ú©ÙĨÛĮ":10111,"ĠÙģØ³ØªÛĮÙĪØ§ÙĦ":10112,"ĠÛ³Û¶Û°":10113,"ÙģØ±ÛĮØ¯":10114,"ĠÛĮÚ©ÙĨÙĪØ§Ø®Øª":10115,"Ø²ÛĮØ±Ø¯Ø±ÛĮØ§ÛĮÛĮ":10116,"ĠÚ©ÙħÛĮÚ©":10117,"ÙħÛĮÙħÙĩ":10118,"ĠÚ¯Ø²Ø§Ø±Ùĩ":10119,"ĠÙħØ±ÛĮØ®":10120,"ĠØºÛĮØ±Ø¯":10121,"ĠÙĪØ§ÙĦØª":10122,"ĠÙ¾Ø§ÙĦØ§ÛĮØ´Ú¯Ø§Ùĩ":10123,"ĠÙĨØ§Ø³ÛĮÙĪÙĨ":10124,"ĠØ®Ø³ØªÚ¯ÛĮ":10125,"ĠÚĨÙĪ":10126,"ĠÙ¾ÛĮØ§Ø²":10127,"ĠØ§ÙĦÙĩÙĩ":10128,"24":10129,"Ø§ÙĨØ¯Ø±ÙĪ":10130,"ĠÙħØ¹Ø§Ø±Ùģ":10131,"ĠÙħØµØ±ÙģÛĮ":10132,"ĠØ§ÛĮØ±ÙĦÙĨØ¯ÛĮ":10133,"ĠRe":10134,"ĠÙĨØ±ÙħØ§ÙĦ":10135,"ĠÛ³ÛµÛ°":10136,"ĠÙħØ¹Ø¯ÙĪØ¯":10137,"ĠØªÙĩØ±Ø§ÙĨÛĮ":10138,"ĠÙ¾Ø´Ùħ":10139,"ĠØ¯ÙĩÙĨØ¯Ú¯Ø§ÙĨ":10140,"ĠØ§ÙĨØŃÙĦØ§ÙĦ":10141,"ĠØªØ¶Ø¹ÛĮÙģ":10142,"ĠÙħØ¶ÙħÙĪÙĨ":10143,"ÙħØŃÛĮØ·ÛĮ":10144,"ĠØ³Ø§ÙĨØ³":10145,"Ø§Ø¯ÛĮØ§ÙĨ":10146,"ĠÙ¾ÚĺÙĪ":10147,"ĠØ³ÙĪØ¦ÛĮ":10148,"ĠØ®Ø§ØªÙĪÙĨ":10149,"ĠÙħÚ©Ø§ÙĨÛĮØ²Ùħ":10150,"Ø¨Ø§ØºÙĩ":10151,"yn":10152,"ĠÙħÙĪÙħ":10153,"ÙĪØ¯ÙĩØ§ÛĮ":10154,"ons":10155,"ĠØ¯ÙĨÛĮÙĦ":10156,"Ù¾Úĺ":10157,"ĠØ¯ÙĪÙ¾":10158,"ĠØªÙĩÙĪÛĮÙĩ":10159,"Ø§Ú¯ÙĪÙĨ":10160,"ĠØ¢ÙħØ§Ø¯Ú¯ÛĮ":10161,"Ø³ÛĮÙĦÛĮ":10162,"ĠÙħÙĩÙĨØ¯Ø³Ø§ÙĨ":10163,"ĠØ³ØŃØ±":10164,"Ø±ÙĪØ²ÛĮ":10165,"ĠØ±ÙĪÛĮØ§ÙĦ":10166,"Ø¬Ø¹":10167,"Ø¨Ø±Ø®ÛĮ":10168,"ĠÚ©ÙĪÙģÙĩ":10169,"ĠÛ·Û³":10170,"ĠØ§ÙĨØªÙĤØ§Ø¯ÛĮ":10171,"ĠØ¬ÙĨÛĮ":10172,"ÙĪÙĦØªÛĮ":10173,"Ø±ÙĩØ§":10174,"ĠØ³ØªÛĮ":10175,"ĠØ³ÙĪÚ©":10176,"ĠÙħØ³ØªØŃ":10177,"Ú¯ÙĪÛĮÙĨ":10178,"ĠÚĺÙĨØªÛĮÚ©":10179,"ĠÛĮÙĦ":10180,"ÙĨÙĦ":10181,"ĠØ¯Ø§ÛĮÙĨ":10182,"ĠÙģÙĪØ±Øª":10183,"ĠØ³ÙĨØªØ²":10184,"ĠÙĨØ§Ù¾Ø°ÛĮØ±":10185,"EC":10186,"Ø³Ø§ÙĦØ§Ø±":10187,"her":10188,"ĠÙħØ·ÙħØ¦ÙĨ":10189,"ÛĮÙĨØ§Ùģ":10190,"ĠØ¬Ø§Ø²":10191,"ÛĮÙĦØªÙĪÙĨ":10192,"ĠÛ¶Û¹":10193,"ĠÙĪÛĮØ±Ø§Ø³Øª":10194,"ĠÛ¸Û±":10195,"ĠÛ±Û³Û¶Ûµ":10196,"Ø´Ø§ÛĮØ±":10197,"Ø¹ÙĪÙĨ":10198,"Ø®ÛĮÙħ":10199,"ĠÙħØŃÙħØ¯ØŃØ³ÛĮÙĨ":10200,"ĠØ¸Ø±ÙĪÙģ":10201,"ÙĪØ§Ø³Ø·Ùĩ":10202,"Ġon":10203,"ĠØ²ÛĮÙħ":10204,"ĠØµØ¯Ø§Ùħ":10205,"Ø¨Ø±Ø¬":10206,"ĠÛ·Û¹":10207,"Ú¯Ø§ÙĨÛĮØ³Ùħ":10208,"ĠØ§Ø³ÙĦÙĪØ§Ú©ÛĮ":10209,"ĠÙħØ³ØªØ¹ÙħØ±Ùĩ":10210,"ĠØ¯ÙĨØ¯":10211,"Ø§ÙĦÚ©Ø³":10212,"ĠÙħÛĮÙĩÙĨ":10213,"ĠØŃÙĦØ¨":10214,"ĠÙħØ¤ÙĦÙģÙĩ":10215,"ĠØ¨ÙĪØ±Ú©":10216,"Ø§Ø³Ø¯":10217,"ĠØ³Ø§ÙĦÛĮØ§ÙĨ":10218,"ĠÚ©Ø§Ø±Ø¢ÙħØ¯":10219,"ĠØ´ÙĩØ§Ø¯Øª":10220,"ĠÚ©Ø±ÛĮÙħÛĮ":10221,"ĠØ´ÙĪØ´ØªØ±":10222,"ĠØ±ÙĪØ¨Ø±":10223,"Ø§ØªÛĮÙĪ":10224,"ĠâĢľ":10225,"ĠØªØ·Ø¨ÛĮÙĤ":10226,"ĠØ¨ÙĪØ³ØªÙĪÙĨ":10227,"ĠØ¹Ø§Ø±":10228,"ÛĮØµ":10229,"Ø´Ø§ÙħÙĦ":10230,"ĠØ±Ø´ÛĮØ¯":10231,"ĠØ¹Ø¶ÙĪÛĮ":10232,"ĠÚ¯Ø²ÛĮÙĨ":10233,"ĠÙħÙģØª":10234,"ĠÙĨÚ¯Ø§Ø´Øª":10235,"ĠÙ¾Ø±Ø§Ú©ÙĨØ¯Ú¯ÛĮ":10236,"ĠÙĨØ§Ø®Ø§ÙĦØµ":10237,"Ø¹Ø§":10238,"ÙħØ¯Ø§Ø¯":10239,"ĠØ´ÛĮÙĪØ¹":10240,"ĠØ°Ø§ØªÛĮ":10241,"ĠÙħØ®ÙģÙģ":10242,"ĠÙħÙĪØ¶Ø¹ÛĮ":10243,"Ø¢ÙĨØª":10244,"ĠØ¯Ø³ØªØ§ÙĪØ±":10245,"ĠÙĦÛĮØ²":10246,"ĠÛ±Û³ÛµÛ±":10247,"ĠÙ¾Ø±ÙĪØ³":10248,"ĠÚ©Ø´Ø§ÙĪØ±Ø²":10249,"ÛĮÙģ":10250,"ĠÙĨØ«Ø±":10251,"ĠØ§ÙĨØ§Ø±":10252,"ĠÙħÙĨØµØ¨":10253,"ÙĪØ²Ø§ÙĨ":10254,"ĠØ¯ÙĩÛĮØ¯":10255,"ĠØ§ÙĨÚ¯ÛĮØ²":10256,"ĠØ±Ø³Ø§ÙĨ":10257,"ĠÛ±Û´Û°":10258,"ÙħØ¹ÙħÙĪÙĦØ§":10259,"ĠÛ±Û³Û´Û¹":10260,"les":10261,"ĠÛĮÙĪÙĩØ§ÙĨ":10262,"ĠÙ¾Ø³ÙĪÙĨØ¯":10263,"ĠØ§ÙĤØ¯":10264,"ĠÙ¾ÙĪØ´Ø§Ú©":10265,"Ø§Ø¯Ø§Ø±ÛĮ":10266,"ĠÙħØ³Ø§ÛĮÙĦ":10267,"ĠÙħØ´Ø§ØºÙĦ":10268,"ĠÚ©ÙĪÙĦÛĮ":10269,"ĠÙ¾ÙĨØ¬Ùĩ":10270,"ĠÚ©Ø¨ÙĪØ¯":10271,"ĠØ±Ø§Ø¶ÛĮ":10272,"ÙĪØ¨Ø§":10273,"ĠÚ¯ÙĪÛĮÛĮ":10274,"ÙħØ§ÙĨØª":10275,"ĠØ¨ÛĮÙĨØ¯":10276,"ĠØ§ØµÙĦØ§":10277,"ÛĮØ§Ø¯":10278,"ĠØ³Ú©ØªÙĩ":10279,"ville":10280,"Ø¬ÙĦ":10281,"ĠØ¨Ø§Ø²Ø±Ø³ÛĮ":10282,"ĠÙħØŃÙĦØ§Øª":10283,"ĠÙħØ§Ø²ÙĨØ¯Ø±Ø§ÙĨÛĮ":10284,"ĠÙĪØ²ÛĮØ±ÛĮ":10285,"ĠØ¨Ø±ÙĩØ§ÙĨ":10286,"ĠØ§Ø¨ØªÚ©Ø§Ø±":10287,"ĠÙĪØ²Ø§Ø±ØªØ®Ø§ÙĨÙĩ":10288,"bur":10289,"Ø§ÙħÙĨÙĩ":10290,"ĠØ¨Ø±Ø·Ø±Ùģ":10291,"ĠÙħÛĮÙĦØ±":10292,"ĠÙħØ®ØªØ§Ø±":10293,"ĠÚĨØ§Ø±ÙĦÛĮ":10294,"ĠØ§Ø±ÙħØºØ§ÙĨ":10295,"ÙĪÛĮÚ©ÛĮ":10296,"ĠØ´Ø±Ø¨":10297,"ĠÙħØ¹ÛĮÙĨÛĮ":10298,"ĠØªØ±ÙħÛĮÙħ":10299,"ĠÙģØ±Ø§ÙĨÚ©ÙĦÛĮÙĨ":10300,"ĠÙĪÙģØ§Ø¯Ø§Ø±":10301,"ĠØ¢Ø±Ø³ÙĨØ§ÙĦ":10302,"ĠØ§ÙĨØªØ²":10303,"ĠØªÙĤØ§Ø·Ø¹":10304,"ĠØ¢Ø´Ù¾Ø²ÛĮ":10305,"ax":10306,"ĠØ´ÙĪÙħ":10307,"ÙĪÙĨØ§Ú¯Ø§":10308,"ĠØ¶ÙħÛĮÙħÙĩ":10309,"Ø³ÙĦØ§ÙĪ":10310,"ĠØ·Ø±Ø§ØŃØ§ÙĨ":10311,"ĠÛĮÙħ":10312,"ÙĨØ§Ø²":10313,"ĠØ¨ÙĪÙĩ":10314,"ĠØªÙĨÙĩ":10315,"ÙĪØ²ÛĮØ±ÛĮ":10316,"ĠØ±Ø¶Ø§ÛĮÛĮ":10317,"ÙĪÙģÙĩ":10318,"Ø³ÛĮÚ©":10319,"ÙĨØ¯Ú¯Ø§ÙĨÛĮ":10320,"ĠØ®Ø§ÙĦØ¯":10321,"Ø·Ø§Ø¨ÙĤ":10322,"Û¸Û¹Û":10323,"ĠØªØ±Ø§Ø¨Ø±ÛĮ":10324,"ĠØ¨ÙĪÙħÛĮØ§ÙĨ":10325,"ĠØ§ÙĤÛĮØ§ÙĨÙĪØ³ÛĮ":10326,"ØŃÙĪØ²Ùĩ":10327,"Ø³ÛĮØ³ØªÙħ":10328,"ØºØ±Ø¨ÛĮ":10329,"ĠØµØŃÙĨ":10330,"ĠÛ±Û³Û´Û¸":10331,"ĠØ²ÙĪØ¯ØªØ±":10332,"Å¡":10333,"ĠØ§Ø³Ø¨Ø§Ø¨":10334,"ĠÛ±Û³Û³Û°":10335,"ĠØ§ØŃÛĮØ§ÛĮ":10336,"ĠØ®Ø´Øª":10337,"ĠØ·ÙĩÙħ":10338,"ĠÙħØ´Ø§ÙĩØ¯Ø§Øª":10339,"ĠÙħØªØ®ØµØµØ§ÙĨ":10340,"ĠØªØ±Ø§Ø´Ùĩ":10341,"ĠÙĤÙħØ±":10342,"ØµÙĨ":10343,"ÙĪØ²Ø§":10344,"Ø·ÛĮÙĦÛĮ":10345,"ĠØ³ÛĮÙĦÙĨØ¯Ø±":10346,"Ø¢Ø±Ø§Ùħ":10347,"ĠÙĨÙĩØ±":10348,"ĠØŃØ§Ø¯":10349,"ĠØŃÙģØ±":10350,"Ø±ÙĪÙĩ":10351,"Ø¨Ø±Ø¯ÙĨØ¯":10352,"ĠCar":10353,"ĠÙħÙĪÙĦØ§ÙĨØ§":10354,"ĠØ³ÛĮØ§ÙĪØ´":10355,"Ø±Ú©ÛĮ":10356,"ĠØºØ²Ùĩ":10357,"ĠØ¢Ø±Ø´":10358,"ĠÙħØ§Ú©Ø³":10359,"ĠÙ¾Ø®ØªÙĩ":10360,"ĠÚ¯ÙĪØ³Øª":10361,"ĠØ¨ÙĨÚ¯ÙĦØ§Ø¯Ø´":10362,"ĠÙħÙĪØ§Ø¯ÛĮ":10363,"ĠØ§ÙĦØ±":10364,"ĠØ¹ÙħÙĪØ¯":10365,"Ø¹ÙĦÙĪÙħ":10366,"SA":10367,"ĠØªÙĩÛĮ":10368,"ØªØŃØµÛĮÙĦ":10369,"ĠØ²ÙĨØ¬ÛĮØ±":10370,"ĠØ¢ÙĩÙĨÛĮ":10371,"Ø·ÙĨØ·":10372,"ĠØ³ÙħØ±":10373,"ĠØ¯Ø§Ø±ÙĨØ¯Ùĩ":10374,"ĠØ²ÛĮØ§ÙĨ":10375,"MA":10376,"ĠÙħÙĨØ§ÙĤ":10377,"Ø«Ø§Ø±":10378,"ĠØªØµØ§ØŃØ¨":10379,"ĠÛĮÙĪÙĨØ§ÙĨÛĮØ§ÙĨ":10380,"ĠÙħØ®ØªÙĦØ·":10381,"ĠØ°ÙĪØ§ÙĦ":10382,"Ø§Ø¦ÙĨ":10383,"ox":10384,"ĠØ¨ÙĩØ¨Ùĩ":10385,"ĠÙ¾Ø±Ø¨":10386,"ĠÙĩÙħØ¬":10387,"Al":10388,"Ø²ÙĨØ§ÙĨ":10389,"ĠØ¨Ø§Ø²Ø¯Ùĩ":10390,"ĠØºÙĦØ§Øª":10391,"Û¹Û³Û":10392,"gr":10393,"ÙħØ§ÙĩÛĮØ§ÙĨ":10394,"ĠØªÙħØ§Ø´Ø§Ú¯Ø±Ø§ÙĨ":10395,"ĠØ§ÙĨØ¯Ø§Ø®ØªÙĩ":10396,"ĠÙ¾ÙĨØ§ÙĩÚ¯Ø§Ùĩ":10397,"Ø±Ø¦ÛĮØ³":10398,"ĠØ§ÙħÙ¾Ø±Ø§Ø·ÙĪØ±ÛĮ":10399,"ĠØ§ÙĪÚ¯":10400,"Ø±Ú©ÙĨ":10401,"ĠØ§ØŃÛĮØ§":10402,"ĠÙĪØ²Ø±":10403,"ĠÚ©Ù¾":10404,"ĠÛ·Û±":10405,"ĠØªØ¹ÙĦÛĮÙĤ":10406,"ĠÙħÙħÙĨÙĪØ¹ÛĮØª":10407,"ĠØ¯ÙĪÙĤÙĦ":10408,"Ø§ÙĪÙĦÛĮ":10409,"ÙĪÛĮÙĨØª":10410,"ÙĪÚĺ":10411,"ĠÛ²Û°Û²Û°":10412,"ĠØ²Ø§ÛĮÙħØ§ÙĨ":10413,"ĠØ¨Ø§Ø²Ú¯Ø´ØªÛĮ":10414,"ĠØ¨ÙĨØ²ÛĮÙĨ":10415,"ĠTown":10416,"ÙħØ®":10417,"Ø³Ù¾Ø§Ø±":10418,"ĠÙĨØµÛĮØ±":10419,"ĠØ¢ÙĪØ±ÛĮ":10420,"ĠØµØ±ÛĮØŃ":10421,"ĠØ²Ø±ØªØ´ØªÛĮØ§ÙĨ":10422,"ĠÙ¾Ø±ÙĩÛĮØ²":10423,"ÙĦØ¨Ø±Ú¯":10424,"ĠØ¢ÛĮØ²":10425,"ust":10426,"ÙĦÙĪØ³":10427,"ÙĦØ§ØŃÛĮ":10428,"Ø§ØŃØ§ÙģØ¸":10429,"ĠÙĪØ±Ø²Ø´Ú©":10430,"ĠÚ©ÙĪÚĨÚ©ØªØ±ÛĮÙĨ":10431,"ĠØ§ÙĪØ¨Ø±":10432,"ĠØ¯ÙĩØ®Ø¯Ø§":10433,"ĠØ§Ø³Ø§ØªÛĮØ¯":10434,"ĠÙ¾ÙĪÛĮØ§ÙĨÙħØ§ÛĮÛĮ":10435,"ĠØºÙĪØ§Øµ":10436,"Ø§Ø¨ÙĨØ¯Ùĩ":10437,"Ø±Ø³ÙĪÙĨ":10438,"Ġ{":10439,"Ø¯Ú©ØªØ±":10440,"ÙĪØªÙĪÙĨ":10441,"ĠØ¯ÙĩÙĤØ§ÙĨ":10442,"ĠØ¨Ø§ÙĦØ§ØªØ±ÛĮ":10443,"ÙħØ¯Ø§Ø±Ø§ÙĨ":10444,"ĠÙ¾Ø§ÛĮØ§ÙĨÙĩ":10445,"ÙĤÙĦØ¨":10446,"ĠØªÙĦÙģÙĨÛĮ":10447,"Ø®ÙĪØ§ÙĩÛĮÙħ":10448,"ĠÙħØ§Ø¬Ø±Ø§ÙĩØ§ÛĮ":10449,"ĠØ¯ÙĪØ¨ÙĦÙĩ":10450,"Ø·ÙĨØ·ÙĨÛĮÙĩ":10451,"ĠÚ¯ÙĦÙĪ":10452,"ĠØŃØ³ÛĮ":10453,"ÙĨØªØ³":10454,"ace":10455,"ĠØ¨Ú¯ÛĮØ±ÛĮØ¯":10456,"ile":10457,"ĠØ¢Ø²Ø§Ø¯Ú¯Ø§ÙĨ":10458,"Ø¢ÙĨØ¬ÙĦØ³":10459,"ĠØ¬ÙĨØ±Ø§ÙĦ":10460,"ÙĤØ§ÙĨÙĪÙĨ":10461,"ĠØªÛĮØ³":10462,"ĠÛĮÚ©Ø§ÛĮ":10463,"ĠØµÙĪØª":10464,"Ú¯Ø±ÙĩØ§":10465,"Ø§Ø·ÛĮÙĨ":10466,"ÙĦÙĪØ§Ú©ÛĮ":10467,"ĠÙħØ§Ø±Ú©Ø³":10468,"Ø¨Ø§Ú©Ø³":10469,"ĠÙĨØ§Ø¨Ø±":10470,"und":10471,"ØªÛĮØ±":10472,"ĠØ·Ø¹":10473,"ĠÙģØ±ÙĪØ±":10474,"ĠØªÙĪÙĦÛĮØ¯Ú©ÙĨÙĨØ¯Ú¯Ø§ÙĨ":10475,"Ø³Ø§ÙĦØ§Ø±ÛĮ":10476,"ĠØ§ÛĮØ²ÙĪØªÙĪÙ¾":10477,"ĠØ¯Ø±ØŃØ§ÙĦ":10478,"ĠØ³ÛĮÙĨÚ¯":10479,"ĠÙģÙĪØ±ÛĮ":10480,"ĠÛ±Û³Û´Û¶":10481,"ĠØ§ÙĨØŃØµØ§Ø±ÛĮ":10482,"ĠÙĨØµØ±Øª":10483,"\",":10484,"ĠÙģÛĮØ¶":10485,"ĠØ³ÙģØ±ÙĩØ§ÛĮ":10486,"ĠØªØ®ØµÛĮØµ":10487,"ĠÙĨÛĮØ§ÙģØª":10488,"ĠØºÙĦØ§ÙħØŃØ³ÛĮÙĨ":10489,"ÙģÚ©Ø±Ø§ÙĨ":10490,")-":10491,"Ø§Ø´Ø§":10492,"oll":10493,"ĠØ¯ÛĮÚ©Øª":10494,"Ø§ÙĨÙĪØ³":10495,"ĠÙĪÚ©":10496,"Ø¨Ø±ÙĨØ§ÙħÙĩ":10497,"ĠØ§ÙĨØªÚ¯Ø±Ø§ÙĦ":10498,"ÙħÙĪØ²":10499,"ĠÚĨØ±Ø¨":10500,"ĠØ§Ø³ÛĮØ¯ÙĩØ§ÛĮ":10501,"Ø¯Ø§Ø±ÙĨØ¯Ùĩ":10502,"ĠÙģØ±ÛĮØ§Ø¯":10503,"ĠØ¨Ú¯":10504,"ĠÙ¾ÙĪÙĨ":10505,"ÙĨÙĪØ§Ø²":10506,"ĠØ³Ø±Ø¨Ø§Ø²ÛĮ":10507,"ĠÙĨÙ¾Ø§ÙĦ":10508,"Ù¾Ø§Ø³":10509,"ĠØ±Ø§Ú©Øª":10510,"ĠØ¯ÛĮØ§Ø¨Øª":10511,"ĠÙĦØ²ÙĪÙħ":10512,"ĠØ´Ø±Ú©ØªÛĮ":10513,"ÙħØ§Ø±Øª":10514,"Ø¹ØµØ±":10515,"ĠØ§Ø³ØªÙĪØ§Ø±Øª":10516,"Ø´Ø§Ø®Ùĩ":10517,"ĠÙĨÛĮØªØ±ÙĪÚĺÙĨ":10518,"Ġla":10519,"ÙĦÛĮÚ¯":10520,"ĠÙĤØ·Ø±Ùĩ":10521,"ĠØ§Ø³Ø±Ø§Ø±":10522,"ĠØ¨Ø§Ø²ÙħØ§ÙĨØ¯Ú¯Ø§ÙĨ":10523,"ĠØµØ§ØŃØ¨Ø§ÙĨ":10524,"ĠØ±ÛĮØ²ÛĮ":10525,"ÛĮÙĦØ¯":10526,"ĠÙģÙĨÙĪÙĨ":10527,"Ġ199":10528,"ĠØ®Ø§Ø´":10529,"Ø¨Ø±Ø¯Ùĩ":10530,"Ú¯Ø±ÙģØªÙĨ":10531,"ĠÛ±Û³Û¶Û´":10532,"ĠÙħØ§ÙĩÛĮØ§ÙĨ":10533,"ano":10534,"ĠÙģØ§ØªØŃ":10535,"ĠØ¢ÙĦØ¨Ø±":10536,"ÛĮÙĨÚ¯ÙĩØ§Ùħ":10537,"ĠÙħÙĪØ¬ÙĪØ¯ÛĮ":10538,"ĠÙĦØ±Ø²Ùĩ":10539,"Ú¯Ø§Ø¯":10540,"ĠØ±Ú©ÙĨ":10541,"Ø±Ú©Ø§ÙĨ":10542,"Ø§Ø·ÛĮØ³":10543,"ĠÙĤØ³Ø·ÙĨØ·ÙĨÛĮÙĩ":10544,"ĠÛ±Û¶Û°":10545,"ivers":10546,"ĠØ¨Ø±Ø¯Ø§Ø´ØªÙĨ":10547,"ĠÙĩØ±Ø¨":10548,"ĠÚĨØ³":10549,"ĠÛĮÙĪØ±ÙĪÙĪÛĮÚĺÙĨ":10550,"ĠÚ©Ø§ÙħÛĮÙĪÙĨ":10551,"ĠØ¯ÛĮÙ¾ÙĦÙħØ§ØªÛĮÚ©":10552,"ĠØ¯ÙĪØª":10553,"ĠÙĨØ¦":10554,"ĠÙ¾Ú©ÙĨ":10555,"ĠÙĤØ´ÙĤ":10556,"ck":10557,"ĠØ¨Ø§Ø¬":10558,"ĠØ¨Ø§ÙĤ":10559,"ĠØµÛĮØ¯":10560,"ĠØ¨ÙĦÙĪØº":10561,"25":10562,"ĠØ§ÙĦØ´":10563,"ĠÙħÙĦØ®":10564,"eng":10565,"Ù¾Ø±Ø³ØªÛĮ":10566,"ĠØ¯Ø±Ø´Øª":10567,"ĠØ¢Ø³ØªÛĮÙĨ":10568,"Ø³ÛĮØª":10569,"ĠØ¢ÙĨÛĮ":10570,"ĠØºØ¶":10571,"ÙĪØ³Ø§Ø²ÛĮ":10572,"ĠÚ©Ø§ÙħÙ¾Ø§ÛĮÙĦØ±":10573,"ÙħØ±Ø²":10574,"ĠÚ¯Ø¦":10575,"ĠØ¹Ø²ÙĦ":10576,"ĠØ±Ø§Ùģ":10577,"ĠÙģØ±ÙĤ":10578,"ĠØ±ÙĪØ²ÙĩØ§":10579,"ĠØªÙĪÙ¾Ø®Ø§ÙĨÙĩ":10580,"ĠØ³Ú©Ø³":10581,"ĠØ³ÙĪØ§Ø±ÛĮ":10582,"ĠØ²ØŃ":10583,"ĠÙĦÚĺÛĮÙĪÙĨ":10584,"Ú©ÛĮÙĨÚ¯":10585,"ĠØºØ±ÛĮØ¨":10586,"ĠØ±ÛĮØ§ÙĦ":10587,"ĠÙĪÙĤÙģÙĩ":10588,"ĠÙģØ±ÙĪØ´ÛĮ":10589,"ĠÙ¾ÙĨØ§ÙĩÙĨØ¯Ú¯Ø§ÙĨ":10590,"ĠÙħØ£ÙħÙĪÙĨ":10591,"ØªØ¦":10592,"ÙĦÛĮÙĪØ³":10593,"Â»)":10594,"ash":10595,"Ġcodice":10596,"ĠÙģØ±Ø³ØªÙĨØ¯Ùĩ":10597,"ĠÚĺÛĮÙħÙĨØ§Ø³Øª":10598,"ĠÚ¯ÙĪÙĦ":10599,"ĠØ¹Ø³":10600,"ĠÙĦØ§ÙĨÙĩ":10601,"ĠØ¯ÛĮÙģØ±Ø§ÙĨ":10602,"ÙĭØĮ":10603,"ana":10604,"ĠÙ¾Ø§Ø±ÙĦÙħØ§ÙĨÛĮ":10605,"Ø±Ø§ÙħÛĮ":10606,"ÙĩØ§ÙĪØ²ÙĨ":10607,"ara":10608,"ØªØ§ÛĮÛĮ":10609,"ĠÙħÙĪØ§Ø²":10610,"ĠØ§ÙĦØ§ÙĨ":10611,"ĠØ¢ÙĦÙ¾":10612,"Ø¨Ø§ÙĨÙĪ":10613,"ĠØ²ÛĮØ±Ø®Ø§ÙĨÙĪØ§Ø¯Ùĩ":10614,"ĠÙĪØ§Ø³Ø·":10615,"ĠÙĩØ±ÙĪØ¯ÙĪØª":10616,"ÙħØŃÙĦÙĩ":10617,"Û±Û¸Û·":10618,"ĠØ§ØªÛĮÙĪÙ¾ÛĮ":10619,"ĠØ³Ø§ÙħÙĪØ±Ø§ÛĮÛĮ":10620,"ĠÙħØªÙħØ§ÛĮÙĦ":10621,"Ø³ÙĦÛĮÙħØ§ÙĨ":10622,"ĠØ¢ÙħÛĮØ²Ø´":10623,"ØªØ£":10624,"ĠØ³Ø±Ø§Øº":10625,"ĠÙĪÙĤÙģ":10626,"ĠÙ¾ÙĨÛĮØ±":10627,"ĠØ³Ø§ÙĪØ§Ú©":10628,"ĠØ±ÙĪØ¨Ø§Ùĩ":10629,"Ø§ÙĦÙĨÙĩØ±":10630,"ĠØ§Ø³Ù¾Ø±Ø§ÙĨØªÙĪ":10631,"PS":10632,"ĠÚ©Ø¨ÛĮ":10633,"ĠØ§ÛĮÙĨØ³Øª":10634,"ĠØ²ÛĮØªÙĪÙĨ":10635,"ÙĪÙħÙĪ":10636,"Ø§Ø¦ÛĮÙĩ":10637,"ĠÙħÙĨØ¹Ú©Ø³":10638,"ĠÙĦØ§ÙĩÛĮØ¬Ø§ÙĨ":10639,"ÛĮÚ©Ø§ÙĨ":10640,"ĠØŃÙħØ§Ø³ÛĮ":10641,"Ø§Ø¦Øª":10642,"ĠÙĨÛĮØ§Ùħ":10643,"ĠÚ©ÙĦÚ©":10644,"Ø³ÙħÛĮ":10645,"ĠÙĨØ³Øª":10646,"ĠÙģÚ©":10647,"ĠØŃØ²Ø¨ÛĮ":10648,"ĠÙĨØ³Ø§Ø¬ÛĮ":10649,"ĠÙĪÙĦÛĮØ¹ÙĩØ¯":10650,"ĠØ§Ø³Ù¾ÛĮÙĨ":10651,"ĠØ´Ú©Ø§Ø±ÚĨÛĮ":10652,"ĠØ¢ÙĪØ±ÙĨØ¯":10653,"ĠÙħÙĨØ´ÙĪØ±":10654,"ĠØºÛĮØ±ÙħÙħÚ©ÙĨ":10655,"Ø§ØµØ¯":10656,"ĠØ¶ÛĮ":10657,"ĠÚ¯ÙģØªÙĨ":10658,"ÙĤØ±Ø¶":10659,"ĠØ¨Ø§ÙĪØ±ÙĩØ§ÛĮ":10660,"ĠÙĨÛĮØ±ÙĪÙĩØ§":10661,"ĠØ±ÙĪØ¯ÛĮ":10662,"ĠÙ¾Ø§ÙĩØ§ÛĮ":10663,"ĠÚĨÙĪÙ¾":10664,"ĠÙħØªÙĨÙĪØ¹ÛĮ":10665,"ĠØ§Ø³ØªØ±Ø§ÙĦÛĮØ§ÛĮ":10666,"ĠØ¨Ø§Ø±Ø¯Ø§Ø±":10667,"ĠÙĪØµÛĮØª":10668,"ĠØ¬ÙĨØ§Ø²Ùĩ":10669,"ĠÙħØ®ÙģÛĮØ§ÙĨÙĩ":10670,"ĠØ³ÛĮÚ©ÙĦ":10671,"Ch":10672,"ru":10673,"ĠÙħØŃØªÙĪØ§":10674,"ĠØ·ÙĪÙĦÛĮ":10675,"ÙĪØ´ÛĮÙħØ§":10676,"ĠÙĨÛĮØ²Ùĩ":10677,"ÙĪÙĨÛĮØ³Øª":10678,"ĠÙħØ±Ø¯Ø§ÙĨÙĩ":10679,"ĠØ³Ø±Ø²ÙħÛĮÙĨÛĮ":10680,"Ú©ÙĪÛĮ":10681,"ĠØ¹ØªÛĮ":10682,"Ø·Ø§ÙĦØ¨":10683,"ĠØ¨ÛĮØ§Øª":10684,"ĠÙĦÛĮÙ¾":10685,"ĠÙħØµÙĪØ¨Ùĩ":10686,"ĠØ·Ø±ØŃÛĮ":10687,"ĠØŃØªÙħ":10688,"ĠÙħØ¹Ø±ÙģØª":10689,"outh":10690,"ĠÙħÙĪÙĨØªØ±":10691,"ĠÙĨÙĪØ¨ÙĪÙĨØ§Ú¯Ø§":10692,"ĠØ¢ÙħÙĪØ®ØªÙĩ":10693,"ĠØºØ²ÙĨ":10694,"ĠØ§ÙħÛĮØ¯ÙĪØ§Ø±":10695,"ĠØªÙĪÙĩÛĮÙĨ":10696,"Ù¾Ø³Ø±":10697,"ĠÙĩÙĢ":10698,"ĠÙĨÙĪØ±ÙĪÙĨ":10699,"ĠÚĺÙĨÙĪÙħ":10700,"ĠÚ©Ø§ÙĦØ¨":10701,"ĠØ³Ø§Øª":10702,"ĠØ¨Ø®Ø§Ø±Ø§":10703,"ĠÛ±Û³Û¶Û±":10704,"ĠØ¯Ø§ÙĨÛĮÙĦ":10705,"pe":10706,"ÙĨØ¨Ø±Ø¯":10707,"ĠÙĪÛĮØ§":10708,"ĠØªØ²Ø¦ÛĮÙĨÛĮ":10709,"ĠÙ¾Ø§ØªØ±ÛĮÚ©":10710,"ix":10711,"ĠÙĪØ±ÛĮ":10712,"ĠÙģØ§Ùħ":10713,"Ø¹ÙĦØ§ÙĪÙĩ":10714,"Û²Û°Û°":10715,"Ø§ÙĩÙĨÚ¯":10716,"ØªÛĮØ§Ø¯":10717,"ÙĪÙħØªØ±ÛĮ":10718,"ĠÙħÚ©Ø§ÙĨÛĮØ³Ùħ":10719,"ĠØ¯ÛĮØ§Ø±":10720,"ĠØªÚ©ÙħÛĮÙĦÛĮ":10721,"ality":10722,"ĠØ¢ÙħÙĪØ²Ùĩ":10723,"Ø¯Ø³ØªÛĮ":10724,"Ø±ÙĪÚĺÙĨ":10725,"ĠÙĦØ±Ø²":10726,"ĠÚ¯Ø±Ø§":10727,"ĠØ§ØªØ±ÛĮØ´ÛĮ":10728,"Ø³ÙħØ³":10729,"ĠØµØ¯Ø§Ù¾":10730,"Ø°ÛĮØ¨":10731,"ĠÚĨØ´ÙħØ§ÙĨ":10732,"Ø¢ÙħØ±ÛĮÚ©Ø§ÛĮÛĮ":10733,"ÙĤÙĪÙĦ":10734,"ĠØµØ§ÙħØª":10735,"Ø§Ø¦ÛĮÙĨ":10736,"ĠØ±Ø§Ø¯ÛĮÚ©Ø§ÙĦ":10737,"ĠØ¨Ø§Ø®ØªØ±":10738,"ĠÚĨÚ©Ø³":10739,"ĠØ§ÙħØ¶Ø§Ø¡":10740,"ĠÙħØ³Ø·ØŃ":10741,"ĠØ§ÙĦØ¬":10742,"ĠÙĨÛĮØ±ÙĪÙħÙĨØ¯":10743,"ÙĩÙĦÙħ":10744,"ĠÚĨØ±ÛĮÚ©":10745,"ĠÙħØ³ØªÙĪÙģÛĮ":10746,"ĠÙ¾ÙĨØ§ÙĦØªÛĮ":10747,"Û±Û¸Û¹Û":10748,"ÙĪØ¯Ø´Øª":10749,"ĠØªØ±Ø§Ú©ØªÙĪØ±":10750,"Ú©Ø´ÛĮØ¯":10751,"ĠØ¨Ø¨Ø±":10752,"ĠÙĩØ±ÛĮØ³":10753,"ĠÙħØŃÙĪØ±ÛĮ":10754,"ĠØ´Ø§ÙĩØ±Ø®":10755,"Ø¨Ø§Ø±Ø§":10756,"ĠTe":10757,"ĠBe":10758,"ĠØ§Ø¸Ùĩ":10759,"ÃŃ":10760,"ĠÙħÙģØ±":10761,"ĠÙĦÙĤ":10762,"ĠØ§Ø¹Ø·Ø§ÛĮ":10763,"ĠØ°Ø§Øª":10764,"ÙĪÙĨØªÙĪØ³":10765,"80":10766,"ÙģØ¶ÙĦ":10767,"ĠÙĨØ·":10768,"ĠØ®Ø±Ú¯ÙĪØ´":10769,"ĠÙģØ±Ø§ÛĮÙĨØ¯ÛĮ":10770,"ĠÙĨÙĪØ§Ø²ÙĨØ¯Ú¯Ø§ÙĨ":10771,"ĠÙħØ¹ØªØ±Ø¶Ø§ÙĨ":10772,"Ù¾Ø§Ø±Ú©":10773,"ØŃØ§ÙĨ":10774,"ÙħÛĮØ±Ø¯":10775,"ĠÙ¾Ø±ÛĮÙĨ":10776,"ĠØ±Ø§Ø³ØªØ§":10777,"ĠØ±Ø§ÙĨØ¯Ùĩ":10778,"ĠÙħØ³ÙĦØŃØ§ÙĨÙĩ":10779,"ĠØ®Ø§Ø·Ø±Ùĩ":10780,"60":10781,"ĠÙĦØ§Ø´":10782,"Ø´Ø¯Ú¯Ø§ÙĨ":10783,"ĠÙ¾ÙĦØ§ÙĨ":10784,"ĠØªÛĮØ±ÙħØ§Ùĩ":10785,"ĠÙĩØ§ÙĪØ§ÛĮÛĮ":10786,"ĠØ¯ÙĦÙģÛĮÙĨ":10787,"ĠÙĩØ§ÙĨØ³":10788,"Ø®Ø§Ø´":10789,"Ø±ÙĪØ²Ùĩ":10790,"ĠÙĩÛĮØ¯Ø±":10791,"ĠØ§Ø±Ø³Ø·ÙĪ":10792,"ĠÚ©ÙĪÙ¾Ø±":10793,"Ø§Ø³ØªÛĮ":10794,"ĠÚ¯Ø±Ø¯ÙĩÙħ":10795,"ÙĪØ´ÙĪ":10796,"Ø¨Ø§ÙĨÚ©":10797,"ĠØ§ÙĦØ¯ÙĪÙĦÙĩ":10798,"ĠÙĩÙĪØ§ÙĨÙĪØ±Ø¯ÛĮ":10799,"ĠØ²Ø¨Ø§ÙĦÙĩ":10800,"ĠÙħÙĪØ§Ø¶Ø¹":10801,"ĠØ¯ÛĮÙĪØ§ÙĨÙĩ":10802,"ĠÚ©Ø±ÙħØ§ÙĨÛĮ":10803,"ĠÙ¾ØªØ±ÙĪØ´ÛĮÙħÛĮ":10804,"ĠØ¨ÛĮØ¯Ø§Ø±":10805,"ĠÙĨØ§ÙĤØµ":10806,"ÙĨØ¨":10807,"ÙĩÛĮØ±":10808,"ØŃÛĮØ¯":10809,"ĠÙĦØ¹":10810,"ĠÙĦÛĮÚ©ÙĨ":10811,"ĠØ³Ø±Ø¯Ø´Øª":10812,"ÙĪÛĮÙĨØ¯Ùĩ":10813,"ĠÙħÙĩØ±ÙħØ§Ùĩ":10814,"ĠØ¨Ø±Ø§ÙĨÚ¯ÛĮØ®Øª":10815,"IC":10816,"Ø³ÙĨØ¯":10817,"ĠÙħØ¹Ø§ÙħÙĦ":10818,"ĠSc":10819,"ĠØ§ÙĤØªØ¯Ø§Ø±":10820,"ĠØ¯Ø±Ø¨ÙĨØ¯":10821,"ÙĪØ±Ø§Ø³":10822,"ĠØ§ÙĨÙĤØ¨":10823,"Ø´ÙĪØ§Ø±ÛĮ":10824,"ĠØ§ØªØ§Ø¨":10825,"ĠÙħÙĨÛĮ":10826,"ĠØµØŃØ±Ø§ÛĮ":10827,"ĠØ´Ú©Ø³ØªÚ¯ÛĮ":10828,"yl":10829,"Ù¾Ø±Ø³":10830,"ĠÙĩÙħÙĪØ§Ø±":10831,"ĠØªÙĨØ§Ø³Ø¨":10832,"ĠÙħØ¨Ø§Ø±Ú©":10833,"ĠÚ©Ø§ÙħØ±ÙĪÙĨ":10834,"ĠØ³Ø±Ø¯Ø§Ø±Ø§ÙĨ":10835,"ĠÚ©Ø±ÛĮØ³ØªÙĪÙģØ±":10836,"Ø§ÙĨÛĮØ§ÛĮ":10837,"ĠØµØºÛĮØ±":10838,"ĠØ³Ø±Ø³Ø¨Ø²":10839,"ÙĤØ¯Ø±Øª":10840,"Ø¬ÛĮÙħØ²":10841,"ĠØ¯ÛĮØ±ÛĮÙĨÚ¯ÛĮ":10842,"ĠØªØ¶Ø§Ø¯":10843,"ĠÙģØ±ÛĮØ¯Ø±ÛĮØ´":10844,"ĠÙĪØµÙģ":10845,"ÙĪØ§ÚĺÙĩ":10846,"ĠØ¶Ø±Ø¨Ø§Øª":10847,"ÙĦØ§Ø¹":10848,"ĠÙħØ¨Ùĩ":10849,"ĠÙ¾Ø§Ø²":10850,"Ø§Ø¯Ø§ÙĨ":10851,"ÙħÛĮÙĨÚ¯":10852,"ĠÛĮØ§Ø¯Ø¢ÙĪØ±":10853,"ĠGe":10854,"ĠØ§ÙĨØ¯Ø±ÙĪÛĮØ¯":10855,"ĠØ±ÛĮØ§Ø¶ÛĮØ¯Ø§ÙĨ":10856,"ĠØ´Ø¯Ú¯Ø§ÙĨ":10857,"ĠØªØ±ÙĤÛĮ":10858,"ĠØ¨Ø§ÙĦÚ¯Ø±Ø¯":10859,"ĠØ¨Ø§ÙĨÙĪÛĮ":10860,"ĠØ§Ø³ÙħÛĮ":10861,"ĠÙĨÙħØ§ÛĮÛĮ":10862,"ĠØ§ØŃÙĪØ§ÙĦ":10863,"ĠØŃÙħØ²Ùĩ":10864,"Ø¨Ø±Ø§ÙĨÚ¯ÛĮØ²":10865,"Ø¨ÛĮÚ©":10866,"ĠÚĨÛĮØ±Ùĩ":10867,"ÙģØªØ¯":10868,"ĠÙħÙĨÙģØ±Ø¯":10869,"ĠÙĨØ§ÙħÙĪÙģ":10870,"ĠÙĦÛĮÙĪ":10871,"ĠØ§ÙĨØ¯Ø±ÙĪ":10872,"me":10873,"ĠØ³ÙĪÙģ":10874,"Ø¦Ø§":10875,"ĠÙħØ¬ØªÙĩ":10876,"ØªÙĨÙĩØ§":10877,"ĠÙħÙĪØ±Ú¯Ø§ÙĨ":10878,"âĪ":10879,"ĠØ¨ÙĪÙĨØ¯":10880,"ĠØ§ÙĪÛĮÙĨ":10881,"ĠØªÛĮØªØ±":10882,"ĠÚ¯Ø°Ø±Ú¯Ø§Ùĩ":10883,"ĠÙĩÙģØ¯Ùĩ":10884,"ĠØªØ¬Ø±Ø¨ÛĮØ§Øª":10885,"ĠØ³Ø§ØªØ±":10886,"ĠØ¹ÙĦØ§ÛĮÙħ":10887,"Ú©Ø§Ø±Ú¯ÛĮØ±ÛĮ":10888,"ĠÙĤØ´ÙĤØ§ÛĮÛĮ":10889,"DA":10890,"ĠÃ":10891,"ĠØªØ¨ÛĮ":10892,"ÙĪØ¯ÛĮÙĨ":10893,"ĠÙħØ´Ø±Ùģ":10894,"ĠØ¢ÙħÛĮØ®ØªÙĩ":10895,"ĠØ±ÛĮØªÙħ":10896,"ĠÚĨÚ©Ø³ÙĦÙĪØ§Ú©ÛĮ":10897,"ĠØ¨Ø³Ø§Ø²Ø¯":10898,"ĠØ§Ø±Ø§ÙħÙĨÙĩ":10899,"ĠØ§Ø¹ÙĦØ§ÙĨ":10900,"ĠØ³ÛĮÙħÙĪÙĨ":10901,"ÙĨÚ¯Ùĩ":10902,"ĠØ¬Ø±ÙħÛĮ":10903,"ĠØ¹Ø±ÙĪØ³Ú©":10904,"ĠÙħØ§ÙħÙĪØ±ÛĮØª":10905,"ĠØ¬ØºØ±Ø§Ùģ":10906,"Ø±Ø§ÙĤ":10907,"ĠÙĩÙĪÚ©":10908,"Ø§ÙĩØ¨":10909,"Ø±ÙĪÙ¾":10910,"ĠØ§ÙĦÚ©ØªØ±ÛĮÚ©":10911,"ØµØ±ÛĮ":10912,"ĠÙĦØ§Ø²":10913,"ÙĨÛĮÙĨÚ¯":10914,"ĠØ³Ø§Ø²ÙĨØ¯Ú¯Ø§ÙĨ":10915,"ÙĨØ¸Ùħ":10916,"Ġth":10917,"ĠÛ±Û³Û´Û±":10918,"ĠÚ©ÙħÙĪÙĨÛĮØ³ØªÛĮ":10919,"Ú©ÛĮÙĨØ²":10920,"ĠÙħÙĪØ§ÙĨ":10921,"ĠØ±ÙĨÚ¯ÛĮÙĨ":10922,"ĠÛ±Û¹Û°Û·":10923,"ĠÚ©Ø§Ø³ØªÙĩ":10924,"ĠØ¢Ø±Ø§ÙĨ":10925,"ĠØ³ÛĮØ³ØªÙħÛĮ":10926,"ĠØ³ÙĨØ³ÙĪØ±":10927,"ĠØ±ÙĤØ§Ø¨ØªÛĮ":10928,"ĠÙħÙĨØ¸Ø±":10929,"ĠØ¨ÙĪÚ©Ø§ÙĨ":10930,"ĠØ§ØªØ±":10931,"ĠØ¬ÙħØ¬ÙħÙĩ":10932,"ĠÙĦÛĮØªÙĪØ§ÙĨÛĮ":10933,"ĠÚ©ÙħÛĮØ§Ø¨":10934,"ĠØ®Ø¨Ø±Ú¯Ø§ÙĨ":10935,"ĠÙħØºÙĪÙĦØ§ÙĨ":10936,"ĠÙħÙĨØŃØµØ±Ø¨Ùĩ":10937,"ĠÚ©Ø¨ÛĮØ³Ùĩ":10938,"ĠØ¨ØªÙĩ":10939,"ĠÙħÙĨÙĤØ±Ø¶":10940,"ĠÙĤÙĦÙħØ¯Ø§Ø¯":10941,"ĠØ§Ø±ØªØ¯":10942,"ium":10943,"ĠÛĮÚ©ØµØ¯":10944,"ĠØ±ÙĪØŃÛĮÙĩ":10945,"ĠØ¨Ø°Ø±":10946,"Û±Û³Û²":10947,"ĠØ²ÛĮØ¨Ø§ØªØ±ÛĮÙĨ":10948,"ĠÙĨÚ©Ø§Øª":10949,"Ġj":10950,"ĠÚ©Ù¾Ø³":10951,"ĠÚ©ÙħÛĮØª":10952,"ĠÙĪØ§Ø±Ø¯Ø§Øª":10953,"no":10954,"ĠØ§ÛĮÙħÛĮÙĦ":10955,"ĠÙħÙĤØ§Ø·Ø¹":10956,"Ø¬ÙĩØ§ÙĨ":10957,"ĠØ¢Ø±ÙĨ":10958,"ĠLe":10959,"000":10960,"Ú©Ø§Ù¾":10961,"Ú¯ÙĪØ±ÛĮ":10962,"ĠÙĩÛĮÙħ":10963,"ĠØ§ØµØ·ÙĦØ§ØŃÛĮ":10964,"ĠØ¶Ø®ÛĮÙħ":10965,"ĠÙĨÙħØ§":10966,"Ø´ÙĨØ§Ø®Øª":10967,"Û¹Û¸Û":10968,"ĠÙħØ¹Ø±ÙĪÙģØªØ±ÛĮÙĨ":10969,"Ø³Ø§Ø²Ø§ÙĨ":10970,"ĠØ´Ø±ÛĮØ¹ØªÛĮ":10971,"ĠØ¢Ø¯Ø§ÙħØ²":10972,"ĠØ¢ÙĨÙĤØ¯Ø±":10973,"Ø¨ÙĪØ¯ÙĨ":10974,"ĠÚ¯ÙĪÙĩØ±":10975,"ĠÚ¯Ø±Ø§ÙĨØ´":10976,"ĠÙĪØ±Ø²Ø´Ú©Ø§Ø±Ø§ÙĨ":10977,"40":10978,"Ú¯ÙĨØ¬":10979,"ĠØ´Ø§ÙĨÚ¯":10980,"Ú©Ø´ØªÛĮ":10981,"ĠÛ±Û¹Û°Û¶":10982,"ĠØ®Ø´ÙħÚ¯ÛĮÙĨ":10983,"ĠÚ©Ø´Ùħ":10984,"Ø§ÙĨØ¯Ø±Ø§":10985,"ĠÚ©ÙĨÛĮØ§":10986,"ĠØŃØ¬Ø§Ø¨":10987,"ĠØ¨Ø®Øª":10988,"ĠØ¯Ø±ÙĪÛĮØ´":10989,"Ø²ÙħØ§ÙĨÛĮ":10990,"Ø³ØªÛĮÚ©":10991,"ĠØ®ÙĨØ¯":10992,"ØºØ§ÙĨÛĮ":10993,"ĠÙħØ¹Ø§ÛĮ":10994,"ĠØ¯ÛĮØ¬ÛĮØªØ§ÙĦÛĮ":10995,"ĠÚ©Ø¬Ø§":10996,"Ù¾ØªÙĪÙĨ":10997,"Ø§Ø¨ÙĪ":10998,"ĠÙĪÙĦØ§Ø¯ÛĮÙħÛĮØ±":10999,"ĠØ¨Ø¯Ùĩ":11000,"ĠØ¨ÙĪØ²":11001,"ĠÙĨØ´ÛĮÙĨ":11002,"ĠØ±Ø§ÛĮØ§ÙĨ":11003,"ĠØŃÛĮØ«":11004,"Ġ20":11005,"ĠÙ¾Ø±Ø³ØªØ´":11006,"Ø±ÙĪØ³ØªØ§ÛĮ":11007,"ĠØŃØ§Øª":11008,"ĠØ¢ÙĦØ§Øª":11009,"ĠØªØ¹ÙħÛĮÙħ":11010,"ĠÛ±Û³Û¶Û³":11011,"ĠØ¨Ø§Ø²ÛĮØ§ÙģØª":11012,"ĠÛ±Û³Û´Ûµ":11013,"ĠØ§Ù¾Ø±Ø§ÛĮ":11014,"Ð½":11015,"ĠØ¨Ø¬Ø§ÛĮ":11016,"ĠØ¯Ø´ÙĪØ§Ø±ÛĮ":11017,"ĠÙħÛĮÚ¯":11018,"ĠØ¹Ø§Ø¬":11019,"ĠÛĮÚ¯Ø§ÙĨÙĩ":11020,"ĠÙģÙĪØªØ³Ø§ÙĦ":11021,"ĠØ¯ÛĮØ²ÙĨÛĮ":11022,"Ø±Ø§Ø¨Ø±Øª":11023,"Ú©Ø¨ÛĮØ±":11024,"ĠÙħØ¹ÙĨØ§ÛĮÛĮ":11025,"ĠÙĨØ¨ÙĪØ¯ÙĨ":11026,"ĠØ§ØªÙĩØ§ÙħØ§Øª":11027,"Cl":11028,"ĠØ§ÙĪÛĮÙĦ":11029,"ĠØµØ¯ÛĮ":11030,"ĠÙħÙĩÛĮ":11031,"ĠÙĨØ¸Ø±Ø³ÙĨØ¬ÛĮ":11032,"ĠÚ¯Ø´Ø§ÛĮØ´":11033,"ĠØ³Ø§ÙĨØ³ÙĪØ±":11034,"ĠÙĨØ±Ø³Ø§ÙĨØ¯":11035,"ĠØ®ÙĪÚ©":11036,"ĠÚĨØ´ÙħÚ¯ÛĮØ±":11037,"ĠØ²Ø±ÙĩÛĮ":11038,"ĠØ®Ø¯ÙħØ§ØªÛĮ":11039,"ĠÚ©Ø§Ø±ÙĩØ§ÛĮÛĮ":11040,"ĠÚ©Ø±ÙĪÛĮ":11041,"Ø³Ø±Ø¯Ùĩ":11042,"ĠØ¯Ø³ØªØ§ÙĪØ±Ø¯ÙĩØ§ÛĮ":11043,"ÙĪØ±Ø¯ÙĩØ§ÛĮ":11044,"ĠØ¨Ø±Ù¾Ø§ÛĮÛĮ":11045,"Ø§Ø±ÛĮØ³Øª":11046,"Ø¢ÙģØ±ÛĮÙĨÛĮ":11047,"ĠÙħØ´Ø§ÙĩÛĮØ±":11048,"ÙĪÙĩÛĮ":11049,"ĠØ±Ø§ÙĩÙ¾ÛĮÙħØ§ÛĮÛĮ":11050,"Ø²Ø§ÛĮÙĨØ¯Ùĩ":11051,"ĠØ§ÚĺØ¯ÙĩØ§":11052,"ĠÙĨÚ¯Ø§ÙĩÛĮ":11053,"ÚĨØ§":11054,"ĠØŃÙĨ":11055,"ĠÙĪØ¨ÙĦØ§Ú¯":11056,"ĠØ¬ÛĮØ±ÙģØª":11057,"Ø±ÙĪØ§ÙĨ":11058,"Ø³ÛĮØªÙĩ":11059,"ĠØ§ÙĨØªÙĩØ§":11060,"ĠÙħØŃØ¯ÙĪØ¯ÛĮ":11061,"ĠØªÙĩØ§Ø¬ÙħÛĮ":11062,"ĠÙģØ§Ø¶ÙĦØ§Ø¨":11063,"CP":11064,"ros":11065,"Ø´Ú©Ø±":11066,"ĠØ³ÙģØ±ÙĨØ§ÙħÙĩ":11067,"ĠÙĦÛĮÙĨÚ©":11068,"ÑĢ":11069,"Ø±ÛĮÚ©Ø³":11070,"ĠØ§Ø³Ù¾ÙĪØ±Øª":11071,"ĠØªØ±Ø¨Øª":11072,"ĠØŃØ¨":11073,"ĠÙħØ³ÙĪ":11074,"ĠØ§ÙĦÙĩÛĮØ§Øª":11075,"MS":11076,"ĠÚ©Ø´ÙĪØ±Ø´":11077,"ĠÙĨÙĪÚ©ÙĦ":11078,"Ú©ÙĪÙĪØ±":11079,"ĠØ¯ÙģØ§ØªØ±":11080,"ĠÙ¾ÙĨØ§ÙĩÙĨØ¯Ùĩ":11081,"ĠÙĨÙ¾Ø°ÛĮØ±ÙģØª":11082,"Ø§ÙħØ²":11083,"Ø¶Ø§Ø±":11084,"ĠÛĮØ§Ø¨ÛĮ":11085,"Ø§Ø¦ÙĪØ³":11086,"ĠØ³ÙĨÚ¯ÛĮÙĨÛĮ":11087,"ĠØ¨Ø§ØºØ§Øª":11088,"ĠØ§Ø¶Ø·Ø±Ø§Ø¨":11089,"Ø²ÛĮØ§ÙĨ":11090,"ĠÙ¾Ø±ÙĪØ³Ùĩ":11091,"ĠÙħØ§ÙĨØ¯ÙĨØ¯":11092,"ĠÙĨØ§Ú©Ø§Ùħ":11093,"Ø¨Ø§ÙĤØ±":11094,"ĠØ§ÛĮÙĪ":11095,"Ø§Ø¨Ø±Ø§ÙĩÛĮÙħ":11096,"Ø·ÙĦØ¨Ø§ÙĨ":11097,"ĠÙ¾ØªØ§Ø³ÛĮÙħ":11098,"ÙħÙĪØ´":11099,"ÙĤØ§Ùħ":11100,"ĠØºØ±ÛĮ":11101,"ĠÙħÙĩØ±Ø¯Ø§Ø¯":11102,"Ú©ÛĮØ§ÙĨ":11103,"ĠØ®ÙĪØ´ÙĨÙĪÛĮØ³ÛĮ":11104,"ĠØªØ¯Ø±ÛĮØ¬ÛĮ":11105,"ØªØ³Ùĩ":11106,"Ø²ÙĪØ±":11107,"ĠØ§Ø³Ø±Ø§ÛĮ":11108,"ĠÛ±Û¹Û°Û´":11109,"Ġ*":11110,"ĠØ§Ú©ÙĪØ§Ø¯ÙĪØ±":11111,"Ø³ØªÙĤÛĮÙħ":11112,"ĠÙģØ±ÙħØª":11113,"ĠØ¯Ø§ÛĮÛĮ":11114,"ĠÙĦØ§Ù¾":11115,"ĠÚ¯Ø±Ø§Ø¯":11116,"ĠØ¹ÙħÙĪÛĮ":11117,"ĠÛ¸Û¹Û":11118,"ĠÚ©Ø§Ø³Ùĩ":11119,"ĠÚĨÙĦØ³ÛĮ":11120,"Ø¬Ø§ÙĨØ¨Ùĩ":11121,"Ø¨Ø²":11122,"Ú¯Ø±Ø¯Ø§ÙĨÛĮ":11123,"ĠØ¨Ø¯ØªØ±ÛĮÙĨ":11124,"ĠØŃØ³ÛĮÙĨÛĮÙĩ":11125,"ĠÙģÛĮØ±ÙĪØ²Ø¢Ø¨Ø§Ø¯":11126,"ĠÙ¾Ø§Ø±Ø§ÙħØªØ±ÙĩØ§ÛĮ":11127,"ĠØ§Ø¸ÙĩØ§Ø±Ø§Øª":11128,"ĠÚ©Ø±Ø§ÙĨ":11129,"ĠÙĩÙĪØ´ÛĮ":11130,"ÙħÛĮØ±Ø²Ø§":11131,"ĠØ§Ø³ØªÙĪØ¯ÛĮÙĪÛĮ":11132,"Ø±Ø³Øª":11133,"ĠØ³Ø±Ø´Ø§Ø±":11134,"ĠØ§Ø±Ø³ÙĦØ§ÙĨ":11135,"ĠÛ±Û²Û°Û°":11136,"ĠØªØ§Ø¨Ø¹ÛĮØª":11137,"ĠØªØ´Ø±ÛĮÙģ":11138,"ĠÛ±Û³Û¶Û¶":11139,"ĠÛ±Û¹Û°Û¹":11140,"ĠØ³Ú©Ø§ÙĨ":11141,"ĠØ³ØªÙħ":11142,"ĠØ§ÛĮÙħÙĨ":11143,"ĠØ¨Ø§ÙĩÙħ":11144,"ÙģÛĮØ³":11145,"Û¸Û¸Û":11146,"ĠÙ¾Ø§Ø¯Ø§Ø´":11147,"ĠØ®Ø¯Ø§ØŃØ§ÙģØ¸":11148,"ĠÛ¸Û³Û":11149,"ĠØ±Ú©ÙĪØ¯":11150,"ĠØ§ØªÙĦØªÛĮÚ©":11151,"ĠÚ©Ø¬":11152,"ĠØŃØ±ÛĮÙħ":11153,"Ø§ÙĦÛĮØ³ØªÛĮ":11154,"ĠØªØ±ÙĪÙħ":11155,"icip":11156,"ĠØ¹Ø§Ø·ÙģÛĮ":11157,"ĠØ´ÙĪÚ¯ÙĪÙĨ":11158,"ĠØ¨Ø´ÙħØ§Ø±":11159,"ÙĪØ±ÛĮØ§":11160,"ĠÚ¯ÙĪÛĮØ¯":11161,"ĠØ¹ÛĮÙĨÛĮ":11162,"ĠØªÙĦÚ¯Ø±Ø§Ùģ":11163,"Ù¾ÛĮÚĨÛĮ":11164,"ĠÙĨØ§ÙħÙĨØ§Ø³Ø¨":11165,"ØªÙħØ§Ùħ":11166,"ĠÙħØªÙĤØ§Ø¹Ø¯":11167,"ĠØ§ÛĮØ¯Ø¦ÙĪÙĦÙĪÚĺÛĮ":11168,"Ø¨Ø§Ø´ÛĮ":11169,"ĠØ¨Ø§ÙģÛĮ":11170,"ĠØªØ´ÛĮØ¹":11171,"ES":11172,"ĠØ¨Ù¾Ø±Ø¯Ø§Ø²ÙĨØ¯":11173,"ĠØ³ÙĦÙĪÚ©":11174,"ĠÙħØ¹ÙħØ§Ø±Ø§ÙĨ":11175,"ĠÛ¹Û¹Û":11176,"ĠØ¯ÛĮÙĪØ§Ø±ÙĩØ§":11177,"ĠØ§ØŃØªÛĮØ§Ø¬":11178,"ĠØ§ÙĦÚ©ØªØ±ÙĪÙħØºÙĨØ§Ø·ÛĮØ³ÛĮ":11179,"ĠØ§ÙĦÚ©ØªØ±ÙĪÙĨÛĮ":11180,"Ø§ÛĮØ³ØªÚ¯Ø§Ùĩ":11181,"ĠØ§Ø¹ØªÛĮØ§Ø¯":11182,"ĠØ¬Ø§ÙĨÙĪØ±ÛĮ":11183,"ĠØªØ§Ø¬Ø±":11184,"ĠÙĨØ§ØªÙĪØ§ÙĨÛĮ":11185,"Ø³Ú¯":11186,"ĠØ¨ÛĮÚĺÙĨ":11187,"ĠØ§Ø®ØªÛĮØ§Ø±Ø§Øª":11188,"ID":11189,"Ġal":11190,"ĠØ§ÛĮÛĮ":11191,"Ø§Ø¦ÙĦÛĮ":11192,"Ġ15":11193,"Ø¢ÙħÛĮØ²ÛĮ":11194,"ĠØ³ÙĪÙĤ":11195,"Ø§Ø¯Ø±ÛĮ":11196,"ĠÙģØ²Ø§ÛĮÙĨØ¯Ùĩ":11197,"Ø·Ø¨ÙĤ":11198,"Ø¨Ø§Ø¨Ú©":11199,"ake":11200,"ĠÙĤØ±ÙĤÛĮØ²":11201,"ĠÙħØ¹ÛĮØ§Ø±ÙĩØ§ÛĮ":11202,"Ġ&":11203,"ĠØªØ§ØªÛĮ":11204,"ÙĨØ¯ÙĪØ±Ùģ":11205,"ĠÙģØ±Ø§ÙĨØ³ÛĮØ³Ú©ÙĪ":11206,"ĠØ¯Ø±Ø¢ÙĪØ±Ø¯Ùĩ":11207,"ult":11208,"ĠØŃÛĮÙĪØ§ÙĨÛĮ":11209,"ĠÙħÚ¯Ø³":11210,"ĠØ¹Ø§Ø¯Øª":11211,"ĠÚ©Ø§ÙħÛĮÚ©Ø³":11212,"ĠCHO":11213,"ĠØ´ÙĪÙĩØ±Ø´":11214,"Ø¨Ø§ØŃ":11215,"ĠÙ¾ÙĦØ§Ø³ØªÛĮÚ©ÛĮ":11216,"ĠÚ¯ÙĪØ¬Ùĩ":11217,"ma":11218,"ĠØ³ÛĮØ¨Ø±ÛĮ":11219,"Ú©ÙĨØ¯ÛĮ":11220,"orld":11221,"ĠØ®ÛĮØ§Ùħ":11222,"ĠLa":11223,"ØªØ³Ø§":11224,"ĠØ¨ÙĪÚ¯":11225,"ĠØ®ÙĪØ¯ÛĮ":11226,"ĠÙħÙĦØ§ÛĮØ±":11227,"ĠÙĤÙĦÙħØ±":11228,"ĠØ³Ø¹Ø§Ø¯Øª":11229,"ĠÛĮØ²Ø¯Ú¯Ø±Ø¯":11230,"ĠØŃØªÙħØ§":11231,"ĠØ§Ø´Ø¨Ø§Ø¹":11232,"ĠÙĨÙĤÙĪØ´":11233,"ĠØ¨Ø§ØºÛĮ":11234,"ĠÙĪÛĮÙĦÙĩÙĦÙħ":11235,"ĠÙ¾ÛĮØ´Ú¯Ø§ÙħØ§ÙĨ":11236,"ĠÚ¯Ø§ÙĨ":11237,"ĠØ§ÙĪÙ¾":11238,"Ġ\"(":11239,"ĠÙĨØ§Ø´ÙĨØ§Ø³":11240,"ÙĪØ¢ÙħØ¯":11241,"Ø¢Ú©ØªÙĪØ±":11242,"ÙĬØ±":11243,"ĠØªÙģÙĦÛĮØ³":11244,"ĠÚ©Ø±ÛĮØ³ÙħØ³":11245,"ĠÚ©Ø§Ø²Ø±ÙĪÙĨ":11246,"ÙħØ¤":11247,"ĠØ³ÙĦÛĮÙħ":11248,"ĠÚ¯Ø±Ø§ÛĮ":11249,"ĠÙĩØ¬Ø¯Ùĩ":11250,"ÙĪØ±Ø²Ø´Ú¯Ø§Ùĩ":11251,"Ø¨Ø§Ú©":11252,"ĠÙħÙĨÚ¯":11253,"ÙĨÚ¯Ø§ÙĨ":11254,"Ø´ÙĨØ§ÙĦ":11255,"Ø§Ø³ÛĮØ³":11256,"ĠØªØŃÙħÛĮÙĦ":11257,"ĠÙĨÚ¯Ø§Ø±ÛĮ":11258,"ÙħØ§ÛĮÚ©ÙĦ":11259,"ÙħÛĮØ²":11260,"ĠÚ©Ø§Ø¯Ø±":11261,"ÙĪÚ©Ø³ÛĮ":11262,"ĠÚ©Ø§ÙħÛĮÚ©":11263,"ÙħØŃÙħÙĪØ¯":11264,"ĠÙĨÙħØ§Ø¯ÛĮÙĨ":11265,"ĠÙħØ±Ø¨ÛĮÚ¯Ø±ÛĮ":11266,"ĠÙĨÚ¯Ø±ÙģØªÙĩ":11267,"ĠØ³Ø§ÙĦØ§Ø±":11268,"ĠØ¨ÙĦØ§":11269,"ĠIs":11270,"ĠÚ©Ø§Ù¾ÙĪØ±":11271,"ĠÚ¯Ø±ÛĮÙĨÙĪÛĮÚĨ":11272,"ØªØ¹Ø¯Ø§Ø¯":11273,"ÙĪØ³Ø§ÙĨ":11274,"ĠØ§Ø¹Øª":11275,"ĠÙĨØ¨Ø±Ø¯ÛĮ":11276,"ĠÚ¯ÙĪØ±Ú©":11277,"ĠØ§ÙĨØªØ±":11278,"ĠØ¹ÙĦÙħØ§":11279,"Ú©Ø§Ø±Ø§":11280,"ĠÙģØ±Ø§ÙĨÚ©ÙģÙĪØ±Øª":11281,"ĠÙ¾Ø´ØªÛĮØ¨Ø§ÙĨ":11282,"ĠØ¯Ø³ØªØ§ÙĨ":11283,"ĠØ±Ø§Ø´":11284,"ĠØ§ÙĪØ±ÛĮ":11285,"Ø¢Ø³ÛĮ":11286,"ĠØ§ÙģØ±Ø§Ø·ÛĮ":11287,"ĠÙ¾ÙĨÛĮ":11288,"ĠØ¬ÙĪÛĮÛĮ":11289,"ĠØ¯Ø³ØªÙħØ²Ø¯":11290,"ĠØ¨Ø²Ø±Ú¯Ø¯Ø§Ø´Øª":11291,"ĠÛ±Û¸Û¹Û°":11292,"ØªÙĨÙĩ":11293,"ÛĮÙĨØ§ÙħÙĩ":11294,"ĠØ³ÙĦØ§Ùħ":11295,"ĠÛ±Û°Ûµ":11296,"ĠÙģÙĪÙĦØ§Ø¯ÛĮ":11297,"ĠØ¨Ø±Ø³ÙĨØ¯":11298,"ER":11299,"ĠÙ¾Ø±ÙĪØ§Ø²Ø´":11300,"ĠØ³ÙĪØ³ÛĮØ§ÙĦ":11301,"ĠØ³ÙĪØ²Ø§ÙĨ":11302,"AM":11303,"ĠØ³ÙĪØ§Ø±Ùĩ":11304,"ĠÙħÚ©ØªÙĪØ¨":11305,"ĠØ¯Ø§ÙħÙĨ":11306,"ĠØ±Ø¨ÛĮØ¹":11307,"ÙĪØ±Ø³":11308,"ĠÙħØŃÙħØ¯ØªÙĤÛĮ":11309,"ĠØªØ§ÛĮÙħ":11310,"ĠØ¨Ø±ÙĩÙĨÙĩ":11311,"ĠØ§ÛĮØ³ÙĦÙĨØ¯":11312,"ĠÙĪØ§ØªØ±":11313,"Ø¨Ø³ÛĮ":11314,"ĠÙģÙĤØ¯Ø§ÙĨ":11315,"ĠÚĨÙĨÚ¯ÛĮØ²":11316,"Ùł":11317,"Ø¯ÙĪÙĦØª":11318,"ĠØ±Ø§ÛĮØ´":11319,"ĠØ²Ø§ÙĨÙĪ":11320,"Ø¶ÙĪÛĮ":11321,"ĠÙģØ±Ø¶ÛĮ":11322,"ØŁÂ»":11323,"ĠØ¹ÙģÙĪ":11324,"ĠÙĪØ§Ú©Ø³ÙĨ":11325,"ÙħØ¯Ø±Ø³Ùĩ":11326,"Ø¢Ø®Ø±ÛĮÙĨ":11327,"Ø¯Ø±Ø¨":11328,"ĠÙħØ¹Ø§Ø´":11329,"ĠÚ©Ø±Ø¯ÙĩØ§":11330,"ĠÚ©ÙĦÙĪØ¯":11331,"ĠØ®ÙĪØ¯Ø±ÙĪÙĩØ§":11332,"ĠØ§Ø±ØªÙĤØ§ÛĮ":11333,"ĠÙ¾ÛĮÙĨÚ©":11334,"TP":11335,"ĠØ¨ÙĦÙĪØ·":11336,"ĠØ¢Ø´ÙĪØ¨":11337,"ĠØ§Ø³ÙħØ§Ø¹ÛĮÙĦÛĮ":11338,"AN":11339,"pp":11340,"ĠÙħØ³Ø¬":11341,"Û³Û°Û°":11342,"ĠØ¯Ø¹Ø§":11343,"Ø®ÙĨØ¯":11344,"ĠÙĨÙĪØ¨Ùĩ":11345,"ĠÙħÙĩØ§Ø¨Ø§Ø¯":11346,"ĠÙĨØ³Ø¨ÛĮØª":11347,"ØºÛĮØ§ÙĨ":11348,"ÙĪÚ¯Ø§ÙĪØ§":11349,"ĠØ¢Ø¬Ø±ÛĮ":11350,"ĠÙģØ±Ø¯Ø§":11351,"ĠØµÙģØ§Øª":11352,"ÙħÙĨØ¸ÙĪØ±":11353,"ĠÙħÚ©Ø³":11354,"Ø§Ø³ÙĪÛĮ":11355,"ĠÙħÙĨØ§Ø¸":11356,"ØªÙĪØ§ÙĨØ³ØªÙĩ":11357,"ØŃÙħÛĮØ¯":11358,"ĠÙĨÛĮØªØ±":11359,"ĠÚ¯ÙĦØ®Ø§ÙĨÙĩ":11360,"ĠØµÙģÙĪÛĮØ§ÙĨ":11361,"ĠÙĨØ¯Ø§Ø´ØªÙĨ":11362,"ĠÙĪÙĨÚ©ÙĪÙĪØ±":11363,"ĠØ´Ø§Ø±Úĺ":11364,"ÙĤØ±Ùħ":11365,"Û±Û¸Ûµ":11366,"Ø¨ÙĦØ§Ø³Øª":11367,"ØºØ±ÙĦ":11368,"ĠØ±ØµØ¯Ø®Ø§ÙĨÙĩ":11369,"ĠÙħÙĪÙĩØ§ÛĮ":11370,"ĠØ§Ø¨ÙĦ":11371,"ĠØ«ÙĦ":11372,"ĠØµØŃØ±Ø§":11373,"ĠÛ±Û³Û³Û·":11374,"ĠØ¢ÙĦÛĮØ§ÚĺÙĩØ§ÛĮ":11375,"ĠÙĨØ±Ø³ÛĮØ¯Ùĩ":11376,"Ø£Øª":11377,"ĠÙģØ±Ø¯ÛĮÙĨ":11378,"ĠØ¯Ø§Ø±Ø§Ø¨":11379,"ĠÙ¾Ø±Ø²":11380,"ĠØ²ÛĮÚ¯":11381,"ĠØ¨ÙĦÙĪØ±ÛĮ":11382,"ĠØ¨ÛĮØ±Ø¬ÙĨØ¯":11383,"ĠØ³ÛĮÙħØ±Øº":11384,"ĠØ¹Ø²Øª":11385,"ĠØ±Ú©ÙĪØ±Ø¯Ø²":11386,"ĠÚ¯Ø³Ø³ØªÙĩ":11387,"ĠØ¹Ø§ÙħÛĮØ§ÙĨÙĩ":11388,"Ø³ØªØ§Ø±Ùĩ":11389,"Ø±Ø§ÙĨÚ¯":11390,"ĠÙ¾Ø±Ø³ÛĮ":11391,"ĠØ¨Ø¯ÙĨØ¨Ø§ÙĦ":11392,"ĠÙģØ³ÙģØ§Øª":11393,"ĠØ§ÙĪØ¨Ø§ÙħØ§":11394,"ĠÙħØ®ØªØ±":11395,"ĠØ¨Ø±Ø¬Ø§ÛĮ":11396,"ĠØ¹Ø¨Ø¯Ø§ÙĦØ¹Ø²ÛĮØ²":11397,"Ø¸Ø§Øª":11398,"ĠØªØºÛĮÛĮØ±ÛĮ":11399,"ĠÙħØ¨Ø§ÙĨÛĮ":11400,"ĠDe":11401,"ĠÙĨØ§ÙħÙĪÙģÙĤ":11402,"Ø§ÙĦÚ©ØªØ±":11403,"ĠÚĨÙĨØ§Ø±":11404,"ĠØ¨Ø§Ø´Ú¯Ø§ÙĩÛĮ":11405,"Ø³Ø±Ø¹Øª":11406,"ĠÙ¾ÙĪØ´Ø§ÙĨØ¯Ùĩ":11407,"ĠØ±ØŃÙħØª":11408,"ĠØ¯ÙħØ§ÙĪÙĨØ¯":11409,"ĠÙĪØ§ÙĦØ¯":11410,"ĠØ¯Ø±Ø¨Ø§Ø±ÛĮ":11411,"ĠØ³Ø§Ø±Ø¯":11412,"ĠØ¬Ùģ":11413,"ĠØ¢ÙĨÙĩØ§Ø³Øª":11414,"Ø§ÙĤØª":11415,"ĠÙĨÙħØ§Ø¯ÙĩØ§ÛĮ":11416,"ÙĪÚ©Ø§ÙĨ":11417,"ÙģÛĮÙĤÛĮ":11418,"ÙħØ¹Ø§Ø±Ùģ":11419,"ĠÙ¾ÙĪÛĮ":11420,"Ø¢ÙĨÛĮ":11421,"ĠÙħÛĮØ§ÙĨØ¬ÛĮ":11422,"ĠÛ²ÛµÛ°Û°":11423,"ÙĨÙħÙĪÙĨÙĩ":11424,"ĠÙĦÛĮÙĨÚ©ÙĦÙĨ":11425,"ĠÙĪÙģØ§Ø¯Ø§Ø±ÛĮ":11426,"ĠØ§ÛĮØ¯Ø²":11427,"ĠØ²Ø§Ø¯Ú¯Ø§ÙĩØ´":11428,"ĠÙĩØ§ÛĮØ¯ÙĦØ¨Ø±Ú¯":11429,"ĠTownship":11430,"Ø§ÙĪÙĪØ³":11431,"ÙĬØ¯":11432,"ĠÙĨØ§Ø±ÙĨØ¬ÛĮ":11433,"Ù¾Ø§ÛĮÚ¯Ø§Ùĩ":11434,"ĠØ§ÙĨÙĤØ¨Ø§Ø¶":11435,"Ġ_":11436,"Ø¯Ø§ÙĨÛĮÙħ":11437,"Ø³ØªÙĨØ¯":11438,"ĠÙħØªÙĨÛĮ":11439,"ĠÚ©Ø§ÙĨØªÛĮ":11440,"Ø¨ÙĦØ§Øº":11441,"ĠØªÙĨÚ©Ø§Ø¨ÙĨ":11442,"Ú©Ø¨":11443,"ĠØ¨Ø¨Ø±ÙĨØ¯":11444,"ØŃØ²Ø¨":11445,"ĠØ§ÙĨØ¯ÛĮ":11446,"ĠÛ±Û³Û³Ûµ":11447,"ĠØ§ÛĮØ²ÙĪ":11448,"ĠÙħØ´Ú©ÙĦÛĮ":11449,"ĠÙ¾Ø±ÙĨØ³":11450,"ĠÛ±Û³Û°Û°":11451,"ĠÙĨÙĪØ²Ø§Ø¯Ø§ÙĨ":11452,"ĠÙħØ´Ú©ÙĪÚ©":11453,"ĠÙ¾Ø±Ø³ÙĨ":11454,"ĠØ¬Ø§Ø¨Ø¬Ø§":11455,"ĠÙħÙĪÙĦØ¯":11456,"ĠØ³Ø³":11457,"ĠØ¨Ø§Ø²Ù¾Ø³":11458,"ĠØ¨ÙĨÙģØ´":11459,"ĠØ³ÙģØ±ÛĮ":11460,"AR":11461,"ØªØ§Ø¬":11462,"ĠØ¨Ø§ÙĨÙĪ":11463,"ÙĨØ¯Ø§":11464,"ÙģØ±Ø¶":11465,"ĠÙħØŃØµÙĪØ±":11466,"ĠØ§ÙģØ²Ø§Ø±":11467,"ĠØ¹Ø¨Ø§Ø¯Øª":11468,"ics":11469,"ĠØªØ¯Ø§Ø®ÙĦ":11470,"IP":11471,"ĠÙħÙĪØ±Øª":11472,"ĠØ±ÙĨÙĪ":11473,"ĠÙħÛĮÚ©ÙĨÙĨØ¯":11474,"Ø±Ú©Ùĩ":11475,"ound":11476,"ĠØ§Ø¹ØªÙĤØ§Ø¯Ø§Øª":11477,"ĠØ¹ÙĩØ¯ÙĨØ§ÙħÙĩ":11478,"Ðµ":11479,"ÙħÛĮØ¯Ø§ÙĨ":11480,"ÛĮØ±ÙĪØ§ÙĨ":11481,"ĠØ³Ø±Ø§ÙħÛĮÚ©":11482,"ĠÙħØ§ÛĮØ¹Ø§Øª":11483,"Ø´Ø¨Ú©Ùĩ":11484,"ĠØ±Ø¬Ø¨":11485,"ham":11486,"ĠØªØ´ÙĨ":11487,"ĠÙ¾Ø§ÙĨÚ©":11488,"ĠØ¹Ø²Ø§Ø¯":11489,"ĠØ¯ÙĪØ¨ÙĦ":11490,"ĠØ²Ø¨Ø§ÙĨÙĩØ§ÛĮ":11491,"ĠÙ¾Ø§Ø¯Ú¯Ø§ÙĨ":11492,"ĠÙħÙĪÙĦÙĪÛĮ":11493,"ĠÙħÙĤØ¯ÙĪÙĨÛĮÙĩ":11494,"ĠÚ©ÙĨÚ¯ÙĪ":11495,"ĠØ¢ÙĦÛĮØ³":11496,"ÙħØ±Ø¯Ø§ÙĨ":11497,"ÙħÙĪØ³ÛĮÙĤÛĮ":11498,"ĠØ³ÙĪÛĮÛĮ":11499,"ĠÙ¾Ø§Ø±ÛĮ":11500,"ÙģØ§Ø¹ÛĮ":11501,"ĠØ¯Ø§ÙĨÙħØ§Ø±Ú©ÛĮ":11502,"ÙħØ¨Ùĩ":11503,"ĠØ·ÙĪØ³ÛĮ":11504,"ĠÙĦÛĮÙĦØ§":11505,"ĠÚ¯ÙĦÙ¾Ø§ÛĮ":11506,"ĠØµØ§Ø¯ÙĤÛĮ":11507,"ÙĪØ§ÙĤØ¹":11508,"ĠØ´Ø¯ÛĮØ¯Ø§":11509,"ÙĦÙĪÙģ":11510,"ĠÙħØ§Ú©Ø±ÙĪ":11511,"ĠØ´Ø§Ù¾":11512,"ÙħÛĮØ³":11513,"ĠÚ©ÙĦØ§ÛĮÙĨ":11514,"ĠØ§ÙĤÙĦÛĮØ¯":11515,"ĠÙ¾Ø±ÙĪØªØ³ØªØ§ÙĨ":11516,"ĠÙĨØ§Ø±Ø³Ø§ÛĮÛĮ":11517,"ĠÙ¾ØªØ±Ø²Ø¨ÙĪØ±Ú¯":11518,"ĠØªØ¹Ø·ÛĮÙĦØ§Øª":11519,"ĠØ³Ø§Ø¹Ø§Øª":11520,"Ġ×":11521,"ÙħØ§Ø¬":11522,"ĠØ´ÙĩØ±Ø³Ø§Ø²ÛĮ":11523,"ĠSan":11524,"Ø±ÙģØªÙĨØ¯":11525,"ĠØ¹ÙĪØ§Ùħ":11526,"ĠØ§ØµØ·ÙĦØ§ØŃØ§":11527,"ĠØ±Ø§Ø¬Ø±":11528,"IV":11529,"ĠÙĲ":11530,"ĠØªØ¯Ø§":11531,"Ø³ØªÙĪ":11532,"ĠÙĦØ§ÙĪ":11533,"Ø²ÛĮØ³ØªÛĮ":11534,"ĠÙħÙĤØ¯ÙħØ§Øª":11535,"ĠØ¹Ø¨Ø¯Ø§ÙĦØ±ØŃÙħÙĨ":11536,"ĠØ§Ø³ÙģÙĨØ¯ÛĮØ§Ø±":11537,"ĠØ¨Ø§Ø±Ú©":11538,"ĠØ¨Ø±ÛĮØ¯Ùĩ":11539,"Ø§ØªØ±Ø§":11540,"ĠÙĤØ±Ø§Ø±Ú¯ÛĮØ±ÛĮ":11541,"ĠÙĩÙĪØ§Ø´ÙĨØ§Ø³ÛĮ":11542,"ĠÚ©ÛĮÙģÛĮ":11543,"Ø·ÛĮÙģ":11544,"ĠÙĪØ¨Ø³Ø§ÛĮØª":11545,"ĠÙĤØ²ÙĦ":11546,"ĠØ¬Ø§Ø¯ÙĪÛĮÛĮ":11547,"ØªÛĮÚ©ÛĮ":11548,"Ø³ÙģØ±":11549,"ĠÙĩÙħÚ¯Ø§ÙĨ":11550,"ĠØ´Ú©ÙĪÙģ":11551,"ĠØ®Ø±Ø¬":11552,"ĠHe":11553,"ĠÙħØ§Ø±Ú©Ø³ÛĮ":11554,"Ø±Ø§Ø³Øª":11555,"ĠÙĪØ±Ùħ":11556,"Ú¯ÙĪÙĦ":11557,"Ø³ØªÙĪÙĦ":11558,"ĠØ¬ÙĪØ¯":11559,"ĠØŃØ§ÙħØ¯":11560,"ĠÙ¾ÛĮØ±Ø§ÙĨ":11561,"ĠÛ±Û¸Û¹Û¶":11562,"ĠÙĨÙĩØ§ÙĪÙĨØ¯":11563,"29":11564,"ĠØ§ÙħØ§Ø±Øª":11565,"ĠÙħØ§ÙĩØ±":11566,"Ø¬ÛĮØ±":11567,"ĠØ§Ø±Øº":11568,"ĠØªØŃØ±Ú©":11569,"Ø´ÛĮØ±ÛĮ":11570,"ĠØ¨Ú©Ø§Ø±Ú¯ÛĮØ±ÛĮ":11571,"ĠØ¹Ø§Ø±Ø¶Ùĩ":11572,"Ø¯Ø±ÙĪ":11573,"Ø§ÙĦÛĮÙħ":11574,"ĠÙħÛĮØ±ØŃ":11575,"ĠÙĩØ§Ú©":11576,"ĠØ¬Ø¨Ø±ÛĮ":11577,"ĠÚ¯Ø§Ø¨Ø±ÛĮ":11578,"ĠØ´Ø±Ø¹ÛĮ":11579,"ÙĦÙĪØ¹":11580,"ĠÙħÙĦÙĪØ¯ÛĮ":11581,"ĠØ¢Ø±Ø§Ø¡":11582,"Ø·Ø¨ÛĮØ¹ÛĮ":11583,"ĠØ§ÙĨØ¯Ø§Ø®ØªÙĨ":11584,"ĠÙĤÙĪØ±Ø¨Ø§ØºÙĩ":11585,"ĠÙĤÙģ":11586,"ÙĪØ¦Ø±":11587,"Ø³ÙĦØ±":11588,"ĠØ§Ø³Ú©Ø§ÛĮ":11589,"Ú¯ÙĪÛĮÛĮÙħ":11590,"ĠÙ¾Ø±ÙĪØ§Ø²ÙĩØ§ÛĮ":11591,"ction":11592,"ĠÙĩØ±Ø²Ú¯ÙĪÛĮÙĨ":11593,"ĠØ¯ÛĮÙģØ±Ø§ÙĨØ³ÛĮÙĦ":11594,"Ú©Ø¯":11595,"ĠØ§ÙĨÙĪØ´":11596,"ÛĮÙĨÛĮØ§ÙĨ":11597,"ĠÚ©Ø§ÙĦØ§ÛĮ":11598,"ĠÙĩØ§Ø±ÙĪÙĨ":11599,"ĠÚ¯ÙĨØ¬ÛĮÙĨÙĩ":11600,"ĠÙģØ±Ø³Ø§ÛĮØ´":11601,"ĠØªØ¨ÛĮÛĮÙĨ":11602,"ĠÙģØµÙĪÙĦ":11603,"ĠØ§ÙĦÙħÙĦÚ©":11604,"ÙĪØ²ÛĮÙĨ":11605,"ĠØ±ÙĪØ´ÙĨÛĮ":11606,"ĠØ´ÙĩØ±ÙĪÙĨØ¯ÛĮ":11607,"ĠÙħØ¯ÛĮØ±ÛĮØªÛĮ":11608,"ĠØ§ÙģÙĦØ§Ø·ÙĪÙĨ":11609,"ðĲ":11610,"ÙĩÙĪÙĦ":11611,"ĠÙĨØ±Ø³ÛĮØ¯":11612,"ĠØ§ØŃØ³Ø§ÙĨ":11613,"ĠSp":11614,"Ġdistrict":11615,"ĠÙħØ¹ØªØ±Ø¶":11616,"Ú©ÙĪÙ¾":11617,"ĠÙĦÛĮÙĪÙĨ":11618,"ĠÙĪÙĦÛĮÚ©ÙĨ":11619,"ĠØ¹ÙħØ±Ø´":11620,"ĠÚ¯ÙĪØ§ÙĩÛĮÙĨØ§ÙħÙĩ":11621,"to":11622,"à¸":11623,"ĠØ³Ø§ÙħÛĮ":11624,"ĠØ§Ø³ÙģØ±":11625,"ÙģÛĮØ¹":11626,"ĠØ¯ÙĦØ§ÛĮÙĦÛĮ":11627,"ĠÛ±Û³Û³Û¶":11628,"ĠØ¨ÛĮÚ©Ø§Ø±ÛĮ":11629,"ĠØ¨ÙĩØ²Ø§Ø¯":11630,"ĠÛ¹Û°Û°":11631,"ĠØªÙĪØ±ÛĮÙĨ":11632,"ous":11633,"ĠØ¢Ø´Ú©":11634,"ĠØ§ÙĦØ³ÙĦØ·ÙĨÙĩ":11635,"ĠÙħØªØ±Ø§Ú©Ùħ":11636,"Ø³Ø±Ø¯":11637,"Ú¯Ø§Ø±Ø¯":11638,"ĠØ¬ÙĪØ¬Ùĩ":11639,"ĠÛĮÙĪÙĪÙĨØªÙĪØ³":11640,"ĠÛĮØ§Ø¨ÙĨØ¯":11641,"ĠØ¨ÛĮØ¶Ø§ÛĮÛĮ":11642,"ĠÙħØ·ÙĩØ±ÛĮ":11643,"ĠÙĪØ±Ø´ÙĪ":11644,"ĠÙ¾ÛĮÚ©Ø§ÙĨ":11645,"ĠÙħØŃØ±ÙħØ§ÙĨÙĩ":11646,"ÙĪÙħØ§Øª":11647,"Ø§Ø¦Ø±":11648,"ĠÚ¯Ø±Ø¯ÙĨØ¯":11649,"ĠØ³Ú©ÙĪÛĮ":11650,"Ø®ÙĪØ§ÙĩØ§ÙĨ":11651,"ĠØ¨ÙĪØ±Ú©ÛĮÙĨØ§Ùģ":11652,"70":11653,"ÙĦÛĮÙĪÙĨ":11654,"ÚĨØ§ÙĦÙĩ":11655,"Ø¦ÙĦ":11656,"ĠÛĮÙĪÙĨÚ¯":11657,"ĠÛ±Û³Û´Û³":11658,"ĠØªØ§ÛĮÙ¾":11659,"Ú¯ÙĪØ±Ø³ØªØ§ÙĨ":11660,"ĠÙħØ´Ø±ÙĪØ·ÛĮØª":11661,"gh":11662,"Î±":11663,"Ø¨ÙĪØ³":11664,"Ø¹ÙĪØ¯ÛĮ":11665,"Ø§ÙĩØ¯ÛĮ":11666,"Ø§ÛĮÛĮØ§ÙĨ":11667,"ĠÙħÙĨØ§Ø±Ùĩ":11668,"ÙĨØ¬Ø±":11669,"ĠÙĨØ¯Ø§Ø¯Ùĩ":11670,"ĠÚ©Ø§ÙĦØ§ÙĩØ§":11671,"ĠØªÙĪÙħÙĪØ±":11672,"ĠÙħØ³ØªÙħØ±":11673,"ÙĨÙģ":11674,"Ø§Ø±Ø¬":11675,"ĠØ¨Ø±ÛĮØªÛĮØ´":11676,"ĠÙħØ°Ø§ÙĩØ¨":11677,"ĠØ¢Ø¯ÙĪÙĦÙģ":11678,"ĠØ±Ø¬Ø§ÙĦ":11679,"ĠØ¨Ø§ÙģØªÙĩ":11680,"ĠØºØ§ÙģÙĦ":11681,"ĠØ¹ÙĦÙĨÛĮ":11682,"Ú¯Ø°Ø±Ø§ÙĨØ¯":11683,"ĠÙħØ«Ø¨ØªÛĮ":11684,"ĠØ¬ÙĪÙĩØ±":11685,"ĠØ¯Ø±Ø¨Ø±Ú¯ÛĮØ±ÙĨØ¯Ùĩ":11686,"ĠØ¢ÙĪÛĮØ²":11687,"ĠØŃØ¨Ø§Ø¨":11688,"ĠÙĩØ±Ú¯Ø§Ùĩ":11689,"ĠØ§ÙĨØªØµØ§Ø¨":11690,"Ø§Ø¨Ø§":11691,"ĠÚ©Ø§ÙĨØª":11692,"ĠØ¢Ø®ÙĪÙĨØ¯":11693,"ÙĩÙħØ§ÙĨ":11694,"Ø´Ú©ÙĨ":11695,"ĠØ±ÙĪÛĮØ§Ø±":11696,"ÙĤØ±Ø§Ø·":11697,"ĠØ¹Ø¶ÙĦÙĩ":11698,"Ar":11699,"ĠÙħØ±ÙħØ±":11700,"ĠØ³ÙĪØ²ÙĨ":11701,"ĠÙħØªØ£Ø«Ø±":11702,"ÙĩÙģØª":11703,"ĠÙĪØ±Ø³":11704,"Ø¹Ø´ÙĤ":11705,"ÙĪÙĦÛĮÙĨÛĮ":11706,"ÙĪÙħØ±ÛĮ":11707,"ĠØªÚ©Ø§ÙħÙĦÛĮ":11708,"ĠØ¹Ø±ÙĪÙĤ":11709,"ĠØ§Ú¯Ø²":11710,"ĠÚ©Ø§Ø±Ø§Ø¦ÛĮ":11711,"ĠØ¹ÙħØ§Ø¯":11712,"ĠØ¨ÙĨØ§ÛĮÛĮ":11713,"ĠØ´Ø§ÙħÙĦÙĪ":11714,"ĠØºÛĮØ±Ø¹":11715,"ĠØ§Ø¬Ø±Ø§ÙĩØ§ÛĮ":11716,"ĠÛ±Û¹Û°Û³":11717,"ĠÛ±Û³Û²Û¹":11718,"ĠÙħØ·Ø¨ÙĪØ¹Ø§ØªÛĮ":11719,"ÙĪØ§Ø³ØªÙĩ":11720,"ÙĪØ±ÛĮÚ©":11721,"ĠÛ²Û±Û°":11722,"ĠÙ¾ÛĮÙĪÙĨØ¯ÙĩØ§ÛĮ":11723,"ĠÙħØ¹Ø§ÙħÙĦØ§Øª":11724,"ĠØ¢ÛĮÙĦÙĨØ¯":11725,"ØªØ±Ùħ":11726,"ÛĮØªØ²":11727,"ĠÛ±Û³Û³Û¹":11728,"ĠØ¯ÛĮØ±ÛĮÙĨÙĩ":11729,"Ø¢ÙħÙĪØ²Ø§ÙĨ":11730,"Ø³Ø±Ø²":11731,"ĠØ§ÙĨØ²":11732,"ĠØ³Ø§Ø¨ÙĤØ§":11733,"ĠØ§ÙĨØ¯Ø±Ø³ÙĪÙĨ":11734,"ĠÙĦØ²ÙĪÙħØ§":11735,"ĠØ®ÙģØ§Ø´":11736,"Ø³Ø§Ø±Ø§ÙĨ":11737,"ĠØ²Ø¦ÙĪØ³":11738,"ÙĪÙĨÛĮØ§ÙĨ":11739,"ĠÙħÙĦØ§ÛĮÙħ":11740,"enn":11741,"Ø´Ø±ÙĤÛĮ":11742,"ØµØŃ":11743,"ĠØªØ£Ø«ÛĮØ±ÛĮ":11744,"ĠÚ©Ø´ÙħÚ©Ø´":11745,"ĠÙħØ§Ø¨":11746,"ÛĮØ§Ú¯ÙĪ":11747,"Ø¢Ù¾":11748,"ĠØ§ÙģÙĤ":11749,"ĠØ¹Ø¨Ø¯Ø§ÙĦØŃØ³ÛĮÙĨ":11750,"ĠÚ¯Ø±Ø§ÙĨØ´ÛĮ":11751,"ĠØ§Ø³ØªØ¹ÙģØ§ÛĮ":11752,"ĠØ´ÙģØ§ÙģÛĮØª":11753,"ĠÙĨÙĪØ±Øª":11754,"ĠØ§Ø´ÛĮØ§":11755,"ĠÙĦÛĮÙĦÛĮ":11756,"ĠÛ¸Û¸Û":11757,"ĠÙģØ±ÙĪØ´ÙĨØ¯Ùĩ":11758,"ĠÛ±Û¹Û°Û±":11759,"Ø¢ÙħØ¯ÙĨØ¯":11760,"ĠØ¢Ø³ØªØ§Ø±Ø§":11761,"Ø¨Ø®Øª":11762,"ĠØ§Ø³ØªÙģ":11763,"Ø¬Ø´ÙĨ":11764,"Ø§Ø³ÛĮØ§":11765,"ĠØ§ÙĨØ´Ø¹":11766,"ĠÙĨÙĪØ§Ø¯Ø§":11767,"ĠØªØ±ÙħÛĮÙĨ":11768,"ĠØ±Ø³Ø§ÙĨØ¯ÙĨØ¯":11769,"ĠÙĩÙħÛĮÙĦØªÙĪÙĨ":11770,"ĠÙħØªØ¹ÙĩØ¯":11771,"ĠØ¨Ø¨ÛĮÙĨØ¯":11772,"ĠØ§ÛĮÙĩ":11773,"ĠÙĩÙĦÛĮ":11774,"ĠØ´Ø±Ø·ÛĮ":11775,"ĠØ³ÛĮÙĦÙĪØ§":11776,"ĠØ§Ø³ÙĦÙĪÙĪÙĨÛĮ":11777,"ÙģØªØŃ":11778,"ØªØ´Ø§ÙĨ":11779,"ĠØ³ÙĪØ§Ø¨ÙĤ":11780,"ĠØ¢ÙĩØ³ØªÙĩ":11781,"CO":11782,"ĠÚ¯ÙĨÙĪ":11783,"ÙĪÙģÙĨ":11784,"ĠÙĤØ²ÙĪÛĮÙĨÛĮ":11785,"ĠØ¯Ú¯Ø±Ú¯ÙĪÙĨ":11786,"ĠØ¯ÙĪÙĨØ¯Ùĩ":11787,"ÛĮÚ©ÙĪÙ¾":11788,"ĠÚ¯ÙĪÙħ":11789,"ĠÙħØ¯Ø§Ø±ÛĮ":11790,"ĠØ§ÙĤÙĦÛĮÙħÛĮ":11791,"ĠÙħØµØ§Ø¯Ùģ":11792,"ĠØªØ¨Ø®ÛĮØ±":11793,"ĠØŃØ¬Øª":11794,"Ø¯ÙĨÛĮ":11795,"ĠÚ©ÙħØ¯ÛĮÙĨ":11796,"Ø²Ø±Ø¯":11797,"ĠØ§ÙĪØ³ØªØ§ÛĮÛĮ":11798,"ĠÙģÛĮØ´Ø±":11799,"ĠÅ":11800,"ÙĨØ´Ø§Ùĩ":11801,"ÙĪØ¯Ø¨ÙĦÛĮ":11802,"ĠÙ¾Ø§ÙĪØ±":11803,"ĠØ¹ÛĮÙĦ":11804,"Ø¯Ø§Ø±Ø§ÛĮ":11805,"Ø®ÙĪØ§Ø¨":11806,"ĠÙĨØ§Ø±Ø§ØŃØªÛĮ":11807,"ĠØ³ÛĮØ±Ø¬Ø§ÙĨ":11808,"ĠØ§Ø¨Ø±Ø§ÙĩÛĮÙħÛĮ":11809,"ĠØ¯ÛĮÙĪØ§Ø±ÛĮ":11810,"Ø±ÙĪØ¯Ø§ÙĨ":11811,"Ù¾Ø±ÙĪØ±ÛĮ":11812,"Ø³Ø§Ú©":11813,"ĠØ³Ø§ÙĪÙĩ":11814,"ĠØªØ§Ø®Øª":11815,"Ø·Ø§ÙĦ":11816,"out":11817,"ĠØ¢Ú¯ÙĩÛĮ":11818,"yst":11819,"ĠÚ©ÛĮØ³":11820,"Ø´Ø®Øµ":11821,"ĠØ¨ÙĩØ§Ø¡":11822,"ĠÙģÙĪØ±Ø§ÙĨ":11823,"ØŃØ§Ø¬ÛĮ":11824,"ÙĪØ¨Ø±ÛĮ":11825,"ĠØ¶ÙĦ":11826,"ĠÙħØ³ØªØ·ÛĮÙĦ":11827,"ase":11828,"sc":11829,"Ø³ÙħØª":11830,"ĠÚ©ÙĪØ³":11831,"ĠÚ©Ø§Ø±ÙĪÙĨ":11832,"ĠØ§ØµØ§Ø¨Øª":11833,"Ø§ÙĪØ§Ø³":11834,"ĠÙħØ°Ø§Ø¨":11835,"ĠØ¯ÙĪØ³ØªØ´":11836,"iew":11837,"ĠÙĦÙĪÙ¾Ø²":11838,"Ø¬Ø±Ø¯":11839,"ĠØ¨Ø±Ú©ÙĦÛĮ":11840,"Ø±ÙĪØ³ØªØ§":11841,"ĠØµÙĪÙģ":11842,"ĠØµØ¯Ùģ":11843,"ĠÙĨØ¨Ø±Ø¯ÙĩØ§ÛĮ":11844,"ÙĦØ§Ø±":11845,"ĠÚ©ÙĪØ³Ùĩ":11846,"ĠØ±Ø¢Ú©ØªÙĪØ±":11847,"ÚĨÛĮØ²":11848,"ĠÙģÙĪØªØ¨":11849,"ĠØ§ÙĤÙħØ§Ø±ÛĮ":11850,"Ø¯Ø§ÙĨØ´":11851,"Ú©Ø±Ø¯ÙĩØ§ÛĮ":11852,"ĠÙħÙĦÙĪØ§ÙĨ":11853,"ford":11854,"ĠØ®Ø§Ú©Ø³ØªØ±":11855,"ĠÙĤÛĮÙħØªÛĮ":11856,"ĠÚ©Ø§ÙģÙĩ":11857,"ĠØ±Ø§Øª":11858,"ĠØ¢ÙģØ±ÛĮÙĨÛĮ":11859,"ata":11860,"ĠØ¨Ø±Ú©ÙĨØ§Ø±ÛĮ":11861,"ÙĨÙĪÚ©":11862,"ĠÚĨØªØ±":11863,"ĠØ´ÛĮØ±ÙĪØ§ÙĨ":11864,"Ø®ÙĪØ§ÙĨÙĨØ¯Ùĩ":11865,"ĠØ§Ø±Ø²Ø´ÛĮ":11866,"ĠÙĪØ§Ø±Ø«":11867,"87":11868,"li":11869,"ĠÙĪØ§Ø¯":11870,"ĠØªØ§ÙĨÚ¯":11871,"ÙĨÚ¯Ø§Ùħ":11872,"Ø¸Ùģ":11873,"Ø²ÛĮÙĦÛĮ":11874,"ĠÙħØ¬ØªØ¨ÛĮ":11875,"ĠÙ¾Ø±ÙĪØªÙĪÙĨ":11876,"ĠWest":11877,"ĠØ±ÙĪØ´ÙĨÙģÚ©Ø±Ø§ÙĨ":11878,"BC":11879,"IT":11880,"ĠÛ±Û³Û´Û´":11881,"ĠØ±Ø¯ÛĮØ§Ø¨ÛĮ":11882,"ĠØ¨Ø±ÙĨØ§Ø±Ø¯":11883,"Ø§Ø±Ø²Ø´":11884,"ÙĦÙģØ§":11885,"ĠNorth":11886,"ĠÙĨÙĪØ´ØªØ§Ø±":11887,"ĠÙ¾ÙĪÙħ":11888,"ĠÚĨØ§Ú©":11889,"ĠÙħØ®ØªØµØ±":11890,"ĠØªØµÙħÛĮÙħØ§Øª":11891,"ĠÙĩÙĦØ§ÙĦ":11892,"Ø®ÙĪØ±Ø¯Ùĩ":11893,"ĠØ¹ÙĨÚ©Ø¨ÙĪØª":11894,"ĠØºÛĮØ±Ø¯ÙĪÙĦØªÛĮ":11895,"ĠØ¯ÙĦÛĮÙĦÛĮ":11896,"ÙĨÛĮÙĪ":11897,"illa":11898,"ĠÙ¡Ù":11899,"ĠØªÙĨØ§Ø³ÙĦÛĮ":11900,"ĠÚ©Ù¾Ø³ÙĪÙĦ":11901,"ĠÙĤÙĨØ¯Ùĩ":11902,"ĠØ§ÙģØªØ§Ø¯ÙĨ":11903,"ÖĢ":11904,"Ú©ÛĮØ±":11905,"ĠØ´Ø§ÙģØ¹ÛĮ":11906,"ØŃÚ©":11907,"ĠØ§ØŃØ¶Ø§Ø±":11908,"ĠØ§Ø·Ø§Ø¹Øª":11909,"ĠØ°Ø±Øª":11910,"ĠØ®ÙĪÙĨÛĮÙĨ":11911,"Ø¯ÛĮØ±":11912,"Ø§Ø²ÙĨØ¯":11913,"ĠØ¨Ø§Ø²Ø¬ÙĪÛĮÛĮ":11914,"ĠÙħØ±Ø§Ø³ÙħÛĮ":11915,"Ú¯Ø±Ø¯Ø§ÙĨØ¯ÙĨ":11916,"ĠØ§ÛĮØ±Ø§Ø¯":11917,"ĠÙħØ§ÙĩÙĨØ§ÙħÙĩ":11918,"ĠÙĪØŃÛĮØ¯":11919,"ĠÙĨÙĪØ´ØªØ§Ø±ÛĮ":11920,"Ø¹Ø§Ø´":11921,"ĠÙ¾ÙĪØª":11922,"ĠÛµÛ°Û°Û°":11923,"ari":11924,"ĠØ¨Ø¯ÛĮØ¹":11925,"ĠØªØ§Ø¨ÙĦÙĪ":11926,"son":11927,"ĠÙħØ§ÙĦØª":11928,"ĠÙĦØ§Ø¬":11929,"Ø³ÙĦÙħ":11930,"ĠØ±Ø®Ø¯Ø§Ø¯":11931,"ĠØ§ÙħÛĮØ±Ú©Ø¨ÛĮØ±":11932,"ÙħØ³Ø§Ø¨ÙĤØ§Øª":11933,"ĠØªÙħØ¯ÛĮØ¯":11934,"ÙĨÙģØ±Ùĩ":11935,"ĠÙħØºÙĪÙĦØ³ØªØ§ÙĨ":11936,"ĠÙĪØ³ØªØ±ÙĨ":11937,"ĠÙ¾Ø³ØªÛĮ":11938,"ØºÙĨÛĮ":11939,"ĠØ³Ø¨Ú©ÛĮ":11940,"ĠÙħØ«ÙĨÙĪÛĮ":11941,"âĢįâĢį":11942,"ĠØ®Ø±ÙħØ´ÙĩØ±":11943,"ĠØ³ÙĩØ±Ø§Ø¨":11944,"ÙħÙĪÙĨØª":11945,"ÙĪÙĨÛĮÙĪ":11946,"ĠÛĮÙĪÙĨÛĮÚ©Ø³":11947,"ĠÛ±Û³Û²Û´":11948,"Û±Û¸Û´":11949,"ĠÛĮÙĩÙĪØ¯ÛĮØª":11950,"ĠØªØŃÙĤÛĮØ±":11951,"ĠØ§ÙĨØªØ²Ø§Ø¹ÛĮ":11952,"ĠÙħØ§Ø¦":11953,"ĠØ³Ø§":11954,"ĠØ§Ø³ÛĮØ¯ÛĮ":11955,"ĠØ§ÛĮØ±Ø§ÙĨØ´ÙĩØ±":11956,"ĠØ§ÙĦÙħÙĦ":11957,"ĠØ³ÛĮØ§Ø±":11958,"ĠÛ±Û·Û°":11959,"Ø§ÙĨØªØ®Ø§Ø¨":11960,"ĠÙ¾ÙĨÙĩØ§ÙĨÛĮ":11961,"ĠÛĮÙĪØªÛĮÙĪØ¨":11962,"ĠØ¨ÙĪÚ©Ø³":11963,"ĠÚ©Ø§Ø±Ú¯Ø²Ø§Ø±":11964,"ĠØ§Ø¨ÙĩØ§Ùħ":11965,"ĠÚ©ÙĦØ§Ø±":11966,"ĠÚ©ÙĪÙģÛĮ":11967,"ØªØ§Ú©":11968,"Ø³ÛĮÙĨÛĮ":11969,"ĠØ³Ø§ÛĮØ²":11970,"ĠØ·ØºØ±ÙĦ":11971,"ĠÙĦÙĪÚ©Ø³":11972,"ĠÛĮÙĪØ²":11973,"ĠØ§ØªÙħØ³":11974,"ĠÙ¾Ø±ÙĪØ³Øª":11975,"ĠÙĩÛĮÚĨÚ¯ÙĪÙĨÙĩ":11976,"ÙĪØ³ÛĮØ§ÙĨ":11977,"Ú©ÙĪÙĪ":11978,"ĠØ§Ù¾ÛĮØ²":11979,"ĠØ±ÛĮØ²Ø´":11980,"ĠÙħÛĮÚ©Ø±ÙĪØ³Ú©ÙĪÙ¾":11981,"ĠÚĨÛĮØ³Øª":11982,".(":11983,"SP":11984,"Ú©ÙĪÙģ":11985,"Ø§Ø±ÛĮÙģ":11986,"ĠØ¢ÙħØ§Ø²ÙĪÙĨ":11987,"ĠØ§ÙĨØªØ§Ø±ÛĮÙĪ":11988,"ĠÚ¯ÙĦÙĨ":11989,"ĠVal":11990,"oph":11991,"ĠØ§ØªÙĪÙħØ§ØªÛĮÚ©":11992,"ĠÚĺØ¦":11993,"Ø§Ú¯Ø§Ø³Ú©Ø§Ø±":11994,"ĠÙģØ´Ø§Ø±ÙĩØ§ÛĮ":11995,"pt":11996,"ĠÚĨØ§ÙĨ":11997,"ĠÙĩØ±Ø§Ú©":11998,"ĠØªØ±ØºÛĮØ¨":11999,"ĠÙĩÙģØªÚ¯ÛĮ":12000,"ĠÙģØ±Ø§Ø®ÙĪØ§ÙĨÛĮ":12001,"ĠÙĨØ§ÙħØ´Ø®Øµ":12002,"ield":12003,"ĠØ§ÙĦÚ©ÙĦÛĮ":12004,"ĠØ§ÙĨØ¬ÛĮØ±":12005,"ØªÙĤØ§ÙĦ":12006,"ĠÙĩØ§ÙħØ¨ÙĪØ±Ú¯":12007,"EE":12008,"ĠâĢĮ":12009,"Ø²ÙĨØ¯Ùĩ":12010,"ĠÙħØŃØ±Ø§Ø¨":12011,"ĠØ¨ÛĮØ¬Ø§Ø±":12012,"ĠØ¹Ø¯Ø³ÛĮ":12013,"ÙĪÙĨÚ¯Ø§":12014,"Ù¾ÙĨØ§Ùĩ":12015,"ĠØ§ÙħÛĮÙĦÛĮ":12016,"Ø§Ú©ÛĮÙĩ":12017,"ĠÙħØ¹ÙĦÙĤ":12018,"ĠØ±ÙĪØ¯Ø±ÛĮ":12019,"ĠÛĮØ§Ø¯Ø¢ÙĪØ±ÛĮ":12020,"Ġ16":12021,"ĠØ¯ÙĨÛĮØ³":12022,"ĠØ§ØªØµØ§ÙĦØ§Øª":12023,"ĠÚ¯ÙħØ´Ø¯Ùĩ":12024,"ĠÛĮÙĨ":12025,"ĠØ¨ÙħØ§ÙĨÙĨØ¯":12026,"ĠØ³ÙĤØ·":12027,"ark":12028,"ĠØ¹ÙĨÚ©Ø¨ÙĪØªÛĮ":12029,"\"\"":12030,"ÙĨØ§Ø³":12031,"ÙĪØ³ÙĪØ±":12032,"ĠÛ±Û³Û²Ûµ":12033,"ĠØ¨Ø±ÙĪØ¬Ø±Ø¯ÛĮ":12034,"Ø±Ø§Ø³":12035,"ÙĤÙĪØª":12036,"ĠÚ¯Ø§Øª":12037,"ĠÙĤØ¨Ø§ÙĦ":12038,"Ø§Ø¹Ø¸Ùħ":12039,"ĠÚ¯Ø±ÙĨØ¯":12040,"ĠØ§ØµÙĪÙĦØ§":12041,"ĠØªÙĦÙģÛĮÙĤ":12042,"ĠØ´ÙĨÛĮØ¯":12043,"ĠÙħÙħÙĦÚ©Øª":12044,
[...]
